<unk>	0
<s>	0
</s>	0
__SEP__	0
▁	-2.51459
,	-3.22011
.	-3.41858
s	-3.49774
▁the	-3.66432
▁to	-4.11622
'	-4.13679
▁of	-4.21467
▁a	-4.23786
▁and	-4.2806
▁that	-4.46105
▁I	-4.52146
▁in	-4.61227
▁is	-4.81074
▁it	-4.83252
▁you	-4.83263
▁we	-4.92944
t	-5.13904
▁And	-5.19617
▁this	-5.23631
-	-5.49881
▁was	-5.52861
0	-5.56631
re	-5.58273
▁for	-5.58523
▁are	-5.64473
ing	-5.64536
▁have	-5.64742
▁people	-5.67309
▁they	-5.69608
▁on	-5.71597
▁--	-5.75492
▁with	-5.75987
d	-5.78066
▁can	-5.79024
ed	-5.80279
▁So	-5.81564
?	-5.85361
▁what	-5.87626
▁be	-5.88267
▁about	-5.90773
▁not	-6.05329
▁do	-6.05455
▁at	-6.06417
▁all	-6.06663
m	-6.06904
▁one	-6.16094
▁there	-6.17703
▁my	-6.1785
▁like	-6.18358
▁so	-6.18524
▁"	-6.2133
▁as	-6.22164
▁from	-6.22521
▁It	-6.23305
▁time	-6.24739
▁world	-6.25477
▁but	-6.27933
:	-6.31516
1	-6.31714
▁an	-6.31983
▁our	-6.34375
▁just	-6.3604
▁years	-6.36767
▁or	-6.37331
▁We	-6.38029
▁out	-6.41132
▁me	-6.41506
▁But	-6.41843
ly	-6.42235
▁if	-6.43764
▁these	-6.44146
ve	-6.45311
▁know	-6.45882
▁things	-6.46648
▁very	-6.48288
▁The	-6.49519
▁up	-6.50853
▁by	-6.51719
▁he	-6.53218
▁going	-6.53322
▁them	-6.53494
▁when	-6.55117
▁because	-6.5663
▁make	-6.56935
▁more	-6.57063
▁had	-6.5756
e	-6.58675
▁see	-6.59965
▁think	-6.60569
▁who	-6.61945
er	-6.63144
y	-6.64474
▁their	-6.65748
▁were	-6.66028
▁which	-6.66071
▁your	-6.67301
▁would	-6.68384
▁get	-6.68652
▁how	-6.69298
▁really	-6.69644
▁thing	-6.70416
n	-6.7298
2	-6.75165
r	-6.75166
p	-6.75177
▁work	-6.7636
▁us	-6.77982
▁life	-6.79299
▁back	-6.79961
▁here	-6.82257
▁has	-6.83168
▁then	-6.84846
▁This	-6.85886
a	-6.86368
▁don	-6.87102
▁some	-6.87232
▁into	-6.87572
▁You	-6.88043
▁way	-6.88831
▁actually	-6.89097
c	-6.90345
▁want	-6.91252
▁lot	-6.91631
▁will	-6.93141
▁go	-6.9361
▁where	-6.93622
▁other	-6.94777
▁kind	-6.9541
▁good	-6.95505
▁now	-6.96126
ll	-6.98475
▁Now	-6.98623
▁could	-6.9921
al	-7.01368
o	-7.01582
▁They	-7.02698
▁been	-7.03038
▁percent	-7.04801
▁said	-7.09608
es	-7.10429
▁no	-7.10935
▁day	-7.11484
5	-7.12251
▁right	-7.13534
▁something	-7.14492
▁over	-7.15943
u	-7.16603
▁two	-7.16751
▁than	-7.17342
▁those	-7.17698
▁first	-7.1862
▁fact	-7.20838
g	-7.21108
▁put	-7.21891
▁A	-7.22017
▁also	-7.22454
▁In	-7.23963
in	-7.24134
▁look	-7.24372
▁got	-7.25113
▁much	-7.25768
▁little	-7.25849
▁say	-7.26323
▁talk	-7.29196
▁year	-7.30074
▁That	-7.30843
▁change	-7.31226
▁need	-7.31315
9	-7.3218
▁today	-7.32549
▁she	-7.33251
▁only	-7.33675
▁his	-7.3423
▁thought	-7.34376
b	-7.34568
▁most	-7.34895
▁idea	-7.35296
▁made	-7.35541
▁human	-7.36303
▁find	-7.36594
▁even	-7.36916
▁take	-7.3797
▁problem	-7.38695
▁called	-7.40074
▁many	-7.4044
▁great	-7.40464
▁new	-7.41211
▁started	-7.42177
l	-7.4372
▁brain	-7.43823
▁did	-7.45562
3	-7.45618
i	-7.45804
▁around	-7.46944
▁story	-7.47572
▁important	-7.47677
le	-7.47983
▁system	-7.48108
▁different	-7.48344
▁What	-7.48786
▁♫	-7.48818
▁He	-7.49047
▁big	-7.49703
▁ago	-7.50016
▁give	-7.50166
▁start	-7.50792
▁down	-7.50888
▁question	-7.51509
en	-7.51928
▁show	-7.5197
▁water	-7.52226
▁her	-7.52302
▁There	-7.52403
▁bit	-7.53272
▁part	-7.53601
▁place	-7.54398
▁use	-7.5479
▁come	-7.55049
▁S	-7.55395
▁through	-7.56175
▁same	-7.57429
▁every	-7.5796
▁data	-7.58061
▁technology	-7.60858
▁point	-7.61942
▁women	-7.6231
▁being	-7.6255
▁love	-7.63301
▁three	-7.63928
an	-7.63984
▁end	-7.64125
;	-7.64379
or	-7.65468
▁long	-7.66114
▁million	-7.66283
▁doing	-7.66791
ic	-7.67832
4	-7.67843
▁well	-7.68911
▁If	-7.69055
▁found	-7.70151
▁school	-7.70849
▁Africa	-7.71473
▁wanted	-7.71811
th	-7.71976
▁any	-7.72601
▁understand	-7.72759
ers	-7.74984
▁children	-7.7629
▁feel	-7.76845
f	-7.76977
8	-7.77101
▁real	-7.77604
▁tell	-7.7805
▁call	-7.78512
▁live	-7.78571
▁person	-7.7911
▁Well	-7.79729
ur	-7.79823
▁Earth	-7.80132
▁sort	-7.80851
ation	-7.81102
it	-7.81195
▁power	-7.8178
▁why	-7.81966
▁E	-7.82099
S	-7.82428
on	-7.82447
▁country	-7.84057
ch	-7.84898
▁after	-7.8515
▁own	-7.85489
▁didn	-7.85546
▁money	-7.85813
"	-7.86378
▁information	-7.86408
ter	-7.86475
▁space	-7.86554
▁should	-7.87048
▁design	-7.87571
▁thinking	-7.88218
▁last	-7.88553
ion	-7.8859
ri	-7.88663
▁home	-7.88722
▁let	-7.89007
6	-7.89852
▁working	-7.90951
▁light	-7.90978
▁kids	-7.91048
ra	-7.91659
I	-7.91757
▁future	-7.91994
▁number	-7.92433
la	-7.92575
able	-7.93433
▁F	-7.93685
w	-7.93849
▁better	-7.94467
▁went	-7.94527
▁might	-7.94711
▁car	-7.95205
▁before	-7.95969
▁man	-7.96384
▁hard	-7.97556
▁another	-7.97709
▁course	-7.97819
▁hand	-7.97929
k	-7.98304
▁moment	-7.9834
li	-7.9837
v	-7.98706
▁left	-7.98794
ity	-7.99001
▁create	-7.99203
▁happened	-7.99257
▁play	-7.9943
▁never	-7.99431
▁food	-7.9947
▁C	-7.99944
▁body	-8.00122
▁still	-8.00451
▁stuff	-8.00579
▁room	-8.00584
▁happen	-8.00611
▁off	-8.00647
▁high	-8.00848
▁dollars	-8.00875
▁energy	-8.0088
il	-8.01204
▁Internet	-8.01268
▁sense	-8.01485
el	-8.01572
▁together	-8.02092
▁small	-8.02634
▁science	-8.02653
▁countries	-8.02968
▁un	-8.02983
▁him	-8.03502
▁interesting	-8.04037
▁side	-8.04475
▁building	-8.0488
▁next	-8.05547
▁came	-8.0677
▁told	-8.06804
▁America	-8.06905
▁men	-8.07082
▁talking	-8.07216
▁reason	-8.08015
▁God	-8.08141
▁mean	-8.08354
▁able	-8.0856
▁few	-8.08669
ar	-8.08845
▁T	-8.0903
▁TED	-8.09454
▁again	-8.09671
▁India	-8.10092
▁United	-8.10633
▁social	-8.10673
us	-8.11062
▁When	-8.1117
ma	-8.11492
▁does	-8.11715
▁each	-8.12021
▁between	-8.12114
▁picture	-8.12284
▁used	-8.12641
▁mind	-8.12653
▁experience	-8.12692
▁case	-8.12793
▁simple	-8.12869
ent	-8.1302
de	-8.13096
▁family	-8.13422
▁learn	-8.13602
▁build	-8.13607
▁States	-8.13644
ness	-8.14092
▁care	-8.14472
▁billion	-8.14605
▁B	-8.1467
h	-8.14732
▁lives	-8.15314
▁making	-8.15598
lo	-8.16087
▁times	-8.1613
▁planet	-8.16375
▁de	-8.16485
▁pretty	-8.16593
▁example	-8.17087
▁project	-8.17106
▁answer	-8.17301
▁too	-8.18034
▁process	-8.18126
▁bad	-8.18429
ne	-8.18433
▁asked	-8.18435
▁computer	-8.1921
▁hope	-8.19397
▁looking	-8.19574
ment	-8.19859
▁head	-8.19951
▁remember	-8.20128
,"	-8.20427
▁coming	-8.20509
▁help	-8.20883
▁city	-8.20924
▁wrong	-8.21177
▁open	-8.21238
A	-8.21469
▁doesn	-8.21996
▁China	-8.22131
z	-8.22136
▁done	-8.22264
x	-8.22481
▁Because	-8.22503
C	-8.22546
▁whole	-8.22676
▁half	-8.23428
se	-8.2358
▁move	-8.23731
▁book	-8.23845
▁Yeah	-8.24019
▁set	-8.24128
▁matter	-8.24329
▁believe	-8.24407
▁days	-8.24539
▁true	-8.24936
▁ever	-8.25135
te	-8.26091
▁community	-8.26147
▁four	-8.2617
▁business	-8.26338
▁guy	-8.26451
▁living	-8.26813
▁young	-8.27033
▁health	-8.28479
▁job	-8.28486
▁trying	-8.28908
ce	-8.29051
▁always	-8.29069
▁try	-8.29121
▁cancer	-8.29162
▁problems	-8.2938
▁imagine	-8.29503
ul	-8.29698
▁war	-8.30287
est	-8.30317
▁American	-8.30372
▁amazing	-8.30389
▁child	-8.30515
ha	-8.30879
▁G	-8.30884
is	-8.31112
▁away	-8.31203
ate	-8.31227
▁may	-8.31305
▁cells	-8.322
ive	-8.32409
▁history	-8.32551
▁control	-8.32725
▁face	-8.33012
▁looked	-8.33256
▁read	-8.33372
▁months	-8.33406
▁words	-8.34454
▁basically	-8.34526
▁age	-8.34625
▁York	-8.35014
▁model	-8.35156
▁single	-8.35803
▁inside	-8.35859
▁music	-8.36133
▁public	-8.36158
▁word	-8.3631
▁run	-8.36394
▁ideas	-8.36757
▁global	-8.37219
▁night	-8.37331
at	-8.37389
▁language	-8.37752
▁top	-8.37974
ac	-8.38114
▁five	-8.38166
▁How	-8.38217
▁using	-8.38301
▁minutes	-8.38358
▁become	-8.38435
▁universe	-8.38637
▁U	-8.38652
▁took	-8.38833
ie	-8.38842
ry	-8.3935
et	-8.39474
▁beautiful	-8.39548
▁maybe	-8.39602
▁group	-8.39721
▁education	-8.39985
▁R	-8.40125
as	-8.40155
to	-8.40286
▁stop	-8.40436
▁She	-8.40498
▁heard	-8.40588
▁means	-8.40682
▁For	-8.40784
ta	-8.40996
▁second	-8.41152
▁heart	-8.41193
▁turn	-8.41473
▁line	-8.41535
▁species	-8.41564
▁video	-8.41669
▁everything	-8.4202
man	-8.42047
▁bring	-8.4205
▁form	-8.42132
▁order	-8.42484
ol	-8.42592
▁makes	-8.42797
up	-8.43126
▁under	-8.43257
▁nature	-8.43458
▁One	-8.43466
▁couple	-8.43656
▁My	-8.43756
D	-8.4381
▁government	-8.44422
▁friends	-8.4472
▁stories	-8.44737
▁best	-8.44893
▁enough	-8.46128
▁piece	-8.46171
▁research	-8.46222
ist	-8.46451
▁past	-8.46539
age	-8.46781
▁hear	-8.46831
▁getting	-8.47072
▁knew	-8.47079
▁happening	-8.47982
▁old	-8.48137
▁People	-8.48233
ca	-8.48279
▁mother	-8.4885
▁society	-8.49083
▁quite	-8.49094
▁DNA	-8.49149
▁learned	-8.49158
▁share	-8.49189
▁animals	-8.49398
▁level	-8.49463
▁woman	-8.5015
▁sound	-8.50207
▁disease	-8.50341
▁hours	-8.50731
un	-8.50789
▁decided	-8.50876
▁game	-8.51026
mo	-8.51033
M	-8.51208
▁ask	-8.51245
▁These	-8.51282
▁D	-8.51293
▁students	-8.51559
▁P	-8.51649
▁study	-8.51696
▁built	-8.51713
▁environment	-8.51719
▁century	-8.51984
▁probably	-8.5248
▁self	-8.52554
▁No	-8.53111
▁happy	-8.53494
ting	-8.53671
co	-8.53795
▁questions	-8.53925
▁art	-8.54129
▁without	-8.54212
ant	-8.55014
▁state	-8.55187
▁co	-8.55794
▁house	-8.55928
▁view	-8.56289
▁works	-8.56808
▁paper	-8.56825
▁comes	-8.56952
▁less	-8.57239
▁company	-8.57429
▁free	-8.57801
▁completely	-8.57858
mp	-8.57961
▁machine	-8.58294
▁As	-8.58886
▁such	-8.59134
▁land	-8.59412
▁air	-8.59415
▁walk	-8.59497
▁saw	-8.5957
▁anything	-8.59573
▁team	-8.60092
▁places	-8.60104
▁Here	-8.60124
▁across	-8.61163
▁huge	-8.61457
ge	-8.62027
▁Let	-8.62245
▁Thank	-8.62279
▁guys	-8.62363
be	-8.62435
▁difference	-8.62463
▁black	-8.62557
▁front	-8.62787
ally	-8.62837
▁New	-8.63221
▁far	-8.6331
▁All	-8.63433
▁cell	-8.63511
▁English	-8.63518
▁eyes	-8.63586
▁father	-8.64165
▁large	-8.6419
▁death	-8.64407
▁close	-8.64449
▁figure	-8.64496
▁taking	-8.64578
▁later	-8.64631
▁worked	-8.64661
▁cities	-8.64981
▁turns	-8.65073
▁seen	-8.65166
R	-8.65302
▁am	-8.65564
▁scale	-8.65761
▁else	-8.65884
less	-8.66189
▁market	-8.66283
am	-8.66799
▁having	-8.67124
na	-8.67149
▁grow	-8.67198
▁created	-8.674
▁early	-8.67569
▁easy	-8.67709
ism	-8.6776
▁goes	-8.67953
ia	-8.68119
▁changed	-8.6842
P	-8.68481
▁learning	-8.68483
▁population	-8.68807
▁keep	-8.68888
▁Google	-8.68891
▁M	-8.6894
▁oil	-8.69134
▁Re	-8.69222
ies	-8.69499
▁reality	-8.70087
ty	-8.70149
▁Europe	-8.70299
ho	-8.70306
▁O	-8.70382
rs	-8.70521
ian	-8.70556
▁culture	-8.70787
▁leave	-8.70858
▁finally	-8.70924
▁World	-8.70932
▁area	-8.72063
▁per	-8.72098
▁natural	-8.72647
▁fish	-8.72822
▁almost	-8.73053
▁pay	-8.73125
▁image	-8.73344
▁gave	-8.73506
▁while	-8.73591
▁cost	-8.73662
▁beginning	-8.73947
ine	-8.73975
▁deal	-8.74211
▁happens	-8.74223
▁test	-8.74261
▁common	-8.74301
id	-8.74367
ck	-8.74439
▁already	-8.74659
▁difficult	-8.7471
▁challenge	-8.74868
▁six	-8.74919
▁short	-8.74928
▁saying	-8.75034
▁ocean	-8.75134
ling	-8.75442
▁week	-8.75455
L	-8.75603
▁phone	-8.75612
▁nothing	-8.75838
▁yet	-8.7586
▁feet	-8.76084
▁surface	-8.76109
▁thousands	-8.76197
▁says	-8.76526
▁both	-8.76794
ut	-8.76853
▁fear	-8.7712
▁program	-8.77175
▁wonderful	-8.77521
▁possible	-8.77581
▁pre	-8.77701
▁systems	-8.77908
▁hands	-8.78088
▁whether	-8.78138
▁often	-8.78264
▁once	-8.78405
tic	-8.78468
os	-8.78597
▁size	-8.78608
▁media	-8.7865
▁someone	-8.78839
▁turned	-8.78852
▁entire	-8.78912
▁powerful	-8.79006
O	-8.79076
old	-8.79292
▁middle	-8.79451
▁To	-8.79734
▁began	-8.79925
▁Do	-8.80175
▁parents	-8.80206
▁companies	-8.80686
▁full	-8.80755
▁needed	-8.80772
▁W	-8.81006
▁Chinese	-8.81068
▁behavior	-8.81149
▁moving	-8.81164
▁within	-8.81385
▁myself	-8.81567
▁South	-8.81788
▁felt	-8.81935
▁lots	-8.81976
▁poor	-8.82031
▁local	-8.82259
▁longer	-8.82356
ci	-8.82912
▁die	-8.82922
sh	-8.83157
ized	-8.83222
▁rest	-8.83468
▁sure	-8.8364
▁Or	-8.84003
vi	-8.84139
▁quickly	-8.84268
▁N	-8.8432
▁sea	-8.84404
▁buy	-8.84437
▁Why	-8.84552
▁amount	-8.84881
T	-8.84968
bo	-8.8517
▁Ma	-8.85179
▁spend	-8.8523
ir	-8.85275
▁kid	-8.85303
▁ground	-8.85582
B	-8.8565
op	-8.85659
▁realized	-8.85689
▁morning	-8.85882
▁opportunity	-8.85882
▁stage	-8.85886
▁step	-8.8591
▁experiment	-8.85953
ated	-8.86003
▁color	-8.86039
▁growth	-8.8628
▁kinds	-8.86432
▁interested	-8.86651
▁terms	-8.86768
▁ways	-8.87423
em	-8.87424
▁nice	-8.87516
▁field	-8.87859
▁economy	-8.87916
▁support	-8.88339
E	-8.88367
▁p	-8.88402
▁blood	-8.8852
▁name	-8.88804
hi	-8.88902
com	-8.89086
▁simply	-8.89156
▁cool	-8.89398
▁fun	-8.89596
▁speak	-8.902
▁green	-8.9024
▁feeling	-8.90303
▁write	-8.90465
bi	-8.90639
▁until	-8.90729
▁girl	-8.90815
▁blue	-8.90833
▁must	-8.9085
▁issue	-8.9104
▁political	-8.91046
▁film	-8.91066
▁wasn	-8.91117
ad	-8.91511
▁eat	-8.91511
▁weeks	-8.91568
um	-8.91681
▁economic	-8.9183
▁friend	-8.92167
▁map	-8.92225
▁stand	-8.92499
▁act	-8.92667
ba	-8.92676
di	-8.92914
▁lost	-8.93084
▁animal	-8.93127
▁Chris	-8.93186
tion	-8.93267
▁innovation	-8.93297
▁fire	-8.93495
▁network	-8.93591
▁audience	-8.93732
▁everybody	-8.93737
▁K	-8.93768
▁became	-8.93841
▁spent	-8.93844
▁dis	-8.93902
▁guess	-8.94278
▁though	-8.94348
me	-8.94382
▁incredible	-8.94387
▁won	-8.94395
▁complex	-8.94572
▁patients	-8.94694
▁born	-8.94754
▁average	-8.94827
▁clear	-8.94885
▁watch	-8.94929
mi	-8.95326
▁material	-8.95371
▁individual	-8.95505
ous	-8.95569
▁red	-8.95591
▁structure	-8.95642
▁hold	-8.95766
▁chance	-8.96159
▁robot	-8.96488
▁produce	-8.96517
▁white	-8.96558
▁War	-8.96609
▁since	-8.96716
▁key	-8.96791
ted	-8.97167
pe	-8.97252
▁risk	-8.97407
▁solution	-8.97467
line	-8.97698
ring	-8.97767
▁climate	-8.97843
▁low	-8.97911
▁looks	-8.9794
▁measure	-8.97988
▁V	-8.98053
▁forward	-8.98071
▁miles	-8.98112
▁met	-8.98375
ary	-8.98384
▁attention	-8.98526
▁dead	-8.98559
▁exactly	-8.9857
▁result	-8.98636
▁bottom	-8.98755
ton	-8.98822
▁somebody	-8.98882
▁fly	-8.98935
▁dark	-8.99187
▁itself	-8.99411
▁parts	-8.99504
▁theory	-8.99921
▁At	-8.9996
▁technologies	-9.00254
▁West	-9.00346
▁movement	-9.00617
K	-9.00636
▁voice	-9.00681
ble	-9.00711
▁books	-9.00761
▁HIV	-9.00837
▁sex	-9.00853
▁realize	-9.0092
▁African	-9.01006
▁numbers	-9.0107
▁impact	-9.01189
▁Mo	-9.01325
▁areas	-9.01351
▁ourselves	-9.01541
▁North	-9.01545
ize	-9.01631
▁con	-9.01798
▁against	-9.01939
▁lab	-9.02066
ance	-9.02092
▁isn	-9.02111
ard	-9.02131
▁themselves	-9.02131
▁force	-9.02212
▁sub	-9.02269
▁scientists	-9.02338
▁knowledge	-9.02541
▁cut	-9.02601
▁sitting	-9.02745
▁access	-9.02837
▁sometimes	-9.02847
ful	-9.03045
▁table	-9.03226
ow	-9.03434
▁eye	-9.03463
▁along	-9.03765
▁ability	-9.03872
▁humans	-9.03899
N	-9.03903
ni	-9.03912
▁truth	-9.03924
▁De	-9.04387
▁special	-9.04419
ga	-9.04744
▁Man	-9.04913
side	-9.05077
fi	-9.05131
The	-9.05138
▁approach	-9.0531
▁literally	-9.0539
▁third	-9.05583
▁baby	-9.05626
▁tools	-9.05703
▁shape	-9.05714
▁journey	-9.05871
▁OK	-9.06138
▁seven	-9.06241
▁development	-9.06264
▁couldn	-9.06437
▁pick	-9.06464
▁rather	-9.06861
▁situation	-9.06883
▁particular	-9.06946
▁dream	-9.06994
▁images	-9.0705
▁perfect	-9.07071
▁office	-9.07075
ating	-9.07255
▁choice	-9.07377
▁patient	-9.07757
ver	-9.07788
▁fast	-9.07827
▁sun	-9.0784
the	-9.07902
▁center	-9.08013
▁least	-9.08109
go	-9.08124
▁outside	-9.08152
no	-9.08214
year	-9.0823
▁girls	-9.08256
om	-9.08284
▁code	-9.08312
▁explain	-9.08339
▁deep	-9.08547
▁wrote	-9.08613
▁brought	-9.08866
▁Today	-9.08997
▁growing	-9.09078
▁physical	-9.09085
▁everyone	-9.09151
▁street	-9.09197
▁non	-9.09223
▁industry	-9.09247
▁normal	-9.09304
▁issues	-9.09515
▁law	-9.09811
▁running	-9.09899
▁Then	-9.09959
▁break	-9.10042
▁meet	-9.10121
▁personal	-9.10127
▁Ba	-9.102
▁online	-9.10513
▁solve	-9.10606
▁understanding	-9.10633
▁pro	-9.10987
▁object	-9.11017
▁instead	-9.11302
▁screen	-9.11309
▁telling	-9.11723
▁talked	-9.11982
▁product	-9.12049
▁giving	-9.12215
▁shows	-9.12426
▁star	-9.12466
▁fall	-9.12473
▁plant	-9.12513
▁focus	-9.12598
▁response	-9.12608
bu	-9.12988
▁wall	-9.13331
▁taken	-9.13686
▁present	-9.13776
dy	-9.13998
▁arm	-9.14017
▁sit	-9.14021
▁ice	-9.14108
▁similar	-9.14175
▁cars	-9.14199
▁success	-9.14215
▁vision	-9.14279
▁based	-9.14392
▁starting	-9.14412
▁...	-9.14777
▁class	-9.14823
▁period	-9.14869
he	-9.1495
▁door	-9.15137
G	-9.15157
▁evidence	-9.15273
▁message	-9.15287
nd	-9.15429
▁stay	-9.15434
▁drive	-9.15583
▁box	-9.15783
▁reasons	-9.15971
▁generation	-9.16016
ru	-9.1608
▁effect	-9.16083
▁resources	-9.16217
ial	-9.16365
▁discovered	-9.16504
mer	-9.16509
▁developed	-9.16577
▁type	-9.1662
▁Be	-9.1663
time	-9.16773
▁absolutely	-9.16817
▁begin	-9.16865
▁son	-9.16905
▁hundreds	-9.1723
▁rate	-9.17263
▁relationship	-9.17522
▁East	-9.17598
do	-9.17897
▁camera	-9.17923
▁Mars	-9.18033
▁device	-9.18092
▁yeah	-9.1815
▁recently	-9.18369
▁month	-9.18373
▁save	-9.18541
▁bigger	-9.18604
ap	-9.18744
▁Some	-9.18775
per	-9.18861
▁certain	-9.19388
▁drugs	-9.19498
▁eight	-9.19558
▁Okay	-9.19643
ach	-9.19696
▁carbon	-9.19731
nt	-9.19752
▁designed	-9.19966
▁rules	-9.2022
▁City	-9.20235
▁action	-9.20327
▁send	-9.20343
▁given	-9.20403
▁trust	-9.20685
▁follow	-9.20746
wa	-9.20836
▁yourself	-9.20843
son	-9.20875
mon	-9.20949
▁sleep	-9.21046
▁behind	-9.21399
during	-9.21631
▁list	-9.21659
▁listen	-9.21666
▁add	-9.21672
▁revolution	-9.21818
▁tiny	-9.21831
tra	-9.21921
▁concept	-9.2197
▁perhaps	-9.21975
▁drug	-9.22032
▁Indian	-9.22203
▁writing	-9.22439
▁showed	-9.22452
▁boy	-9.22496
▁fine	-9.22581
▁playing	-9.22602
▁develop	-9.22895
▁Americans	-9.22994
▁reach	-9.23102
▁changing	-9.23125
▁meaning	-9.23257
▁Co	-9.23257
▁pictures	-9.23351
▁wait	-9.23374
▁goal	-9.23386
▁smart	-9.23444
▁mass	-9.23639
ill	-9.23722
▁involved	-9.23913
▁computers	-9.2394
▁stick	-9.23975
H	-9.24196
▁wind	-9.24219
ped	-9.24263
▁lose	-9.24269
▁Imagine	-9.24313
ran	-9.24365
we	-9.24382
▁plan	-9.24436
▁solar	-9.24495
▁San	-9.24918
F	-9.24939
▁medicine	-9.25054
▁cannot	-9.25123
▁mine	-9.25324
▁software	-9.25502
cy	-9.25586
▁skin	-9.25653
▁teach	-9.25654
▁continue	-9.25735
▁evolution	-9.25799
▁village	-9.25844
▁exciting	-9.25952
▁news	-9.25961
▁basic	-9.26084
▁London	-9.26102
ig	-9.26196
▁Sa	-9.26213
▁store	-9.26432
gu	-9.26532
▁favorite	-9.2686
▁Just	-9.26862
uc	-9.27112
▁fight	-9.27116
▁digital	-9.27334
▁speed	-9.27515
▁expect	-9.27579
▁Me	-9.27609
▁price	-9.27619
▁seeing	-9.27812
▁road	-9.27865
▁general	-9.27918
▁violence	-9.2796
▁thank	-9.27973
▁Afghanistan	-9.28078
▁incredibly	-9.28232
▁role	-9.28232
▁medical	-9.28234
▁died	-9.28293
▁groups	-9.28373
if	-9.28465
▁hundred	-9.28486
▁L	-9.2851
▁ready	-9.28569
ish	-9.28576
▁teachers	-9.28724
▁Western	-9.28849
▁hot	-9.28901
▁California	-9.29003
ip	-9.2901
▁tend	-9.29035
▁late	-9.29052
▁safe	-9.29178
▁compassion	-9.29292
▁tried	-9.29531
▁hour	-9.29539
▁whatever	-9.29564
▁hit	-9.29819
▁Le	-9.29844
▁major	-9.29903
▁lived	-9.29933
▁crazy	-9.29937
▁developing	-9.30002
▁value	-9.30011
▁pattern	-9.30037
▁tree	-9.30097
▁modern	-9.30102
log	-9.30119
▁notice	-9.30226
▁potential	-9.30246
▁creating	-9.3025
Well	-9.30394
ah	-9.30407
▁University	-9.30412
▁treatment	-9.30431
▁hospital	-9.30752
▁Can	-9.30811
▁millions	-9.31018
▁perspective	-9.31038
▁memory	-9.31038
▁strong	-9.3106
▁increase	-9.31203
▁leaders	-9.31331
▁clean	-9.31536
▁Ha	-9.31614
▁bio	-9.31705
▁worth	-9.31784
▁square	-9.31933
▁schools	-9.31937
▁context	-9.3199
ny	-9.32091
▁touch	-9.32273
▁happiness	-9.32425
▁position	-9.32615
▁secret	-9.32631
▁flow	-9.32802
▁visual	-9.32818
▁cr	-9.33109
▁college	-9.33276
and	-9.33286
▁John	-9.33418
▁democracy	-9.33438
▁worse	-9.33438
▁provide	-9.33451
▁CA	-9.33471
▁ball	-9.33546
▁movie	-9.33547
▁crisis	-9.336
▁Facebook	-9.336
▁pain	-9.33639
▁poverty	-9.33762
▁minute	-9.34031
▁kill	-9.34031
▁anymore	-9.34088
▁plants	-9.342
▁shot	-9.34221
▁communities	-9.34251
▁gets	-9.34257
▁tool	-9.34301
▁gone	-9.34397
▁materials	-9.34437
▁sounds	-9.34613
▁student	-9.34878
iv	-9.34999
▁police	-9.35071
▁waste	-9.35098
▁others	-9.35119
▁record	-9.35252
▁creative	-9.354
▁robots	-9.35665
▁results	-9.35903
▁genes	-9.35944
ns	-9.35968
▁exist	-9.36123
▁games	-9.36222
▁families	-9.3623
▁either	-9.36231
▁excited	-9.3625
che	-9.36269
▁slow	-9.36517
You	-9.36532
▁gas	-9.36565
▁putting	-9.3675
▁Our	-9.36814
ward	-9.36872
▁teacher	-9.36872
nce	-9.36923
▁conversation	-9.3695
land	-9.36982
▁forest	-9.3704
▁national	-9.37128
▁path	-9.37158
▁totally	-9.37357
▁win	-9.3737
▁choose	-9.37402
way	-9.37427
▁Pa	-9.37509
▁security	-9.37725
ical	-9.37878
ization	-9.37919
▁alive	-9.37941
▁doctor	-9.3798
▁biggest	-9.38078
▁walking	-9.38343
▁track	-9.38415
▁Y	-9.38441
▁ex	-9.38493
ot	-9.38502
▁moral	-9.38556
oo	-9.38569
ab	-9.38752
tor	-9.39125
▁moved	-9.39225
▁known	-9.3927
▁shift	-9.39273
▁wife	-9.39277
▁progress	-9.39377
▁grew	-9.39447
ever	-9.39472
▁trees	-9.39624
▁quality	-9.39672
▁bar	-9.39701
▁region	-9.39781
▁spread	-9.39955
▁Right	-9.39983
▁watching	-9.39997
▁individuals	-9.4011
▁faster	-9.4049
▁higher	-9.40491
▁impossible	-9.40656
▁plastic	-9.40656
▁eventually	-9.4083
▁Ho	-9.40875
▁scientific	-9.41188
▁showing	-9.41225
▁On	-9.41393
out	-9.41393
▁Go	-9.41432
▁Not	-9.41438
▁search	-9.41529
▁decision	-9.41535
▁page	-9.41612
hu	-9.41664
▁fit	-9.41688
▁thousand	-9.41712
What	-9.41712
▁post	-9.41834
▁career	-9.41845
▁complicated	-9.41882
▁website	-9.41882
▁Great	-9.41882
▁organization	-9.42029
▁activity	-9.42062
▁models	-9.42237
▁jobs	-9.42282
▁Ka	-9.42335
▁bacteria	-9.42354
▁positive	-9.42359
▁floor	-9.42606
▁conflict	-9.42814
▁lead	-9.42833
▁including	-9.42945
▁recognize	-9.4299
▁train	-9.43017
▁attack	-9.43048
con	-9.43058
▁connected	-9.43133
▁supposed	-9.43234
▁text	-9.43291
ists	-9.43325
▁travel	-9.43365
▁killed	-9.43452
▁rich	-9.43604
▁takes	-9.43654
▁daughter	-9.4366
▁main	-9.43709
fe	-9.43738
ious	-9.43754
▁Ro	-9.43781
▁song	-9.4384
▁cold	-9.43855
▁fuel	-9.44
ities	-9.44059
▁H	-9.44126
▁taught	-9.44199
▁content	-9.44199
▁prison	-9.44203
▁objects	-9.44381
▁wouldn	-9.44437
▁cases	-9.44597
▁extremely	-9.44841
like	-9.44898
▁treat	-9.45003
▁board	-9.45203
▁older	-9.45291
▁version	-9.45404
▁check	-9.45471
▁biology	-9.45653
▁extraordinary	-9.45671
▁largest	-9.45692
▁count	-9.45767
ging	-9.45961
▁purpose	-9.46203
▁source	-9.46466
▁finding	-9.46482
▁dangerous	-9.46577
▁physics	-9.46616
▁successful	-9.46618
▁suddenly	-9.46662
▁math	-9.46801
▁site	-9.4681
▁report	-9.47018
▁instance	-9.47068
▁Twitter	-9.47313
▁super	-9.47318
▁needs	-9.47336
izing	-9.4738
lic	-9.47387
▁service	-9.47502
▁freedom	-9.47505
ray	-9.47567
▁respond	-9.47686
fa	-9.47763
▁Al	-9.47834
▁training	-9.47868
▁bed	-9.47906
▁essentially	-9.47945
▁allowed	-9.47975
▁stars	-9.48211
▁meant	-9.48285
▁subject	-9.48459
▁Bill	-9.48748
▁sky	-9.48814
▁alone	-9.48822
▁electricity	-9.4883
▁pull	-9.48919
qui	-9.48959
▁genetic	-9.48996
▁interest	-9.49099
ak	-9.49123
▁workers	-9.49152
▁Hey	-9.49222
▁Good	-9.49354
▁nuclear	-9.49381
▁mom	-9.49428
▁projects	-9.49467
▁protect	-9.49606
▁conditions	-9.49682
▁Brazil	-9.49745
▁connect	-9.49822
▁Iraq	-9.49836
▁By	-9.49893
▁Li	-9.4994
▁studies	-9.49952
▁direction	-9.50113
▁dog	-9.50134
▁fundamental	-9.50173
men	-9.50221
▁address	-9.50335
▁David	-9.50912
▁female	-9.50912
▁pressure	-9.50912
▁critical	-9.50946
▁ended	-9.50946
▁National	-9.51105
▁allow	-9.51118
ator	-9.51134
▁strange	-9.51162
▁sell	-9.51174
▁practice	-9.51235
▁drop	-9.51486
▁La	-9.51564
▁larger	-9.51581
ight	-9.51659
ke	-9.51698
▁Bo	-9.51804
▁Japan	-9.51879
▁standing	-9.51892
▁quick	-9.51924
▁reading	-9.52068
▁temperature	-9.52076
W	-9.5208
use	-9.52082
▁shown	-9.52166
har	-9.52207
▁bunch	-9.52271
▁respect	-9.52272
▁European	-9.52378
▁virus	-9.52381
by	-9.52502
▁expensive	-9.52663
▁anyone	-9.52705
▁policy	-9.52859
▁traditional	-9.52957
▁draw	-9.53221
▁architecture	-9.53253
▁lower	-9.53314
▁decide	-9.53338
da	-9.53561
▁race	-9.53667
▁Asia	-9.5374
que	-9.53752
▁seems	-9.5377
▁machines	-9.53833
▁intelligence	-9.53847
led	-9.53854
▁mental	-9.53915
ite	-9.54026
▁communication	-9.54246
▁starts	-9.54324
ex	-9.54387
▁products	-9.54598
▁Washington	-9.54645
▁accident	-9.54645
▁solutions	-9.5471
▁cat	-9.54743
▁decisions	-9.5484
▁stress	-9.54846
▁meters	-9.54885
▁hair	-9.54972
▁unique	-9.55046
▁smaller	-9.55047
▁Audience	-9.55247
▁extra	-9.55255
V	-9.5535
▁affect	-9.55352
▁worry	-9.55449
▁function	-9.55496
▁sign	-9.55499
▁Hu	-9.55569
▁rule	-9.55766
▁French	-9.55854
▁patterns	-9.55871
▁return	-9.55962
▁Web	-9.56009
▁military	-9.56063
▁changes	-9.56114
▁rise	-9.56199
▁specific	-9.56251
▁Ca	-9.56314
▁skills	-9.56362
▁neurons	-9.56484
▁park	-9.56523
▁cross	-9.56567
▁survive	-9.56765
▁aid	-9.56781
▁feed	-9.56826
▁bodies	-9.56872
▁led	-9.57013
▁micro	-9.57075
▁international	-9.57077
▁legs	-9.57406
▁immediately	-9.57513
▁weight	-9.57524
▁capital	-9.57604
▁account	-9.57653
▁earlier	-9.57694
▁healthy	-9.57752
▁decade	-9.57812
▁email	-9.57901
▁buildings	-9.57946
▁loved	-9.58
king	-9.58138
▁web	-9.58192
▁trade	-9.58536
▁Car	-9.58634
▁photo	-9.58691
▁rain	-9.58696
▁dance	-9.58814
▁AIDS	-9.5883
▁peace	-9.5885
▁J	-9.59072
▁foot	-9.59097
▁failure	-9.5915
ile	-9.59153
gen	-9.59222
▁inter	-9.59269
▁familiar	-9.59359
ka	-9.59409
▁An	-9.59454
▁financial	-9.59569
▁famous	-9.5978
▁Ki	-9.59852
▁performance	-9.59874
▁forget	-9.59888
one	-9.60152
▁listening	-9.60296
▁photograph	-9.60351
▁range	-9.605
▁humanity	-9.60522
▁fantastic	-9.60626
den	-9.6077
▁effective	-9.60875
▁current	-9.6089
▁bomb	-9.61052
▁yes	-9.6109
lan	-9.61231
▁beauty	-9.61266
▁massive	-9.61301
▁predict	-9.61315
▁enjoy	-9.61335
▁Ta	-9.61345
▁wealth	-9.61355
▁demand	-9.61481
▁seem	-9.61517
▁waiting	-9.61566
▁heat	-9.61596
▁flu	-9.61738
▁town	-9.61822
▁charge	-9.6191
▁boat	-9.62134
▁pieces	-9.62325
▁available	-9.62341
▁magic	-9.62354
▁meeting	-9.6255
▁trouble	-9.62558
ff	-9.62561
ping	-9.6258
▁slide	-9.62614
▁raise	-9.62683
▁enormous	-9.62775
▁religion	-9.62775
▁especially	-9.62776
▁river	-9.6278
▁obvious	-9.6283
▁lines	-9.62839
▁soon	-9.62869
▁term	-9.62952
▁babies	-9.62992
▁target	-9.6321
▁atmosphere	-9.63225
ki	-9.63452
▁institutions	-9.63581
off	-9.63822
ger	-9.6389
▁doctors	-9.63994
▁anti	-9.64078
▁politics	-9.64086
▁asking	-9.64118
light	-9.64132
▁differently	-9.64383
▁named	-9.64525
▁series	-9.64751
ative	-9.64802
▁corner	-9.64881
▁connection	-9.64919
."	-9.64958
▁St	-9.65049
ning	-9.65144
▁ahead	-9.65205
▁degrees	-9.65322
▁forms	-9.65385
▁prevent	-9.65601
ng	-9.65645
▁Life	-9.65648
▁press	-9.65821
▁Dr	-9.65921
▁decades	-9.65958
end	-9.66017
▁blind	-9.66055
▁creativity	-9.66086
▁distance	-9.66086
▁communicate	-9.66089
▁legal	-9.66101
lin	-9.66271
▁First	-9.66311
▁mission	-9.66339
▁actual	-9.66382
▁gene	-9.66454
▁GDP	-9.66536
▁private	-9.66536
▁genome	-9.66536
▁written	-9.66571
▁explore	-9.66602
▁production	-9.66603
▁agree	-9.66649
▁Big	-9.66711
▁radio	-9.66794
▁income	-9.66795
▁choices	-9.66952
▁male	-9.67002
▁push	-9.67023
▁stopped	-9.67024
▁Mi	-9.67058
▁app	-9.67101
▁sand	-9.67102
▁walked	-9.67189
▁bear	-9.67361
▁sat	-9.67403
ang	-9.67466
▁match	-9.67466
▁minds	-9.67651
▁afraid	-9.6767
▁Te	-9.67673
ible	-9.67745
▁v	-9.67851
▁visit	-9.68051
▁Su	-9.68077
▁England	-9.68127
▁beyond	-9.68127
▁task	-9.68143
▁nine	-9.68156
▁Australia	-9.68158
▁spot	-9.68187
▁dad	-9.68232
▁nation	-9.68341
▁diseases	-9.68356
ology	-9.68519
▁Middle	-9.68586
▁infrastructure	-9.68586
▁several	-9.68587
▁towards	-9.68612
▁final	-9.68655
▁edge	-9.68661
▁Ar	-9.68695
▁brains	-9.6903
▁British	-9.69281
▁funny	-9.69299
▁rock	-9.69302
pro	-9.69313
cal	-9.69427
▁Every	-9.69459
ors	-9.69496
▁terrible	-9.69511
▁costs	-9.69644
▁George	-9.69744
▁bridge	-9.69745
▁Kenya	-9.69793
▁cover	-9.69814
▁Se	-9.69842
▁Anderson	-9.6998
▁landscape	-9.6998
▁Cha	-9.69986
▁Yes	-9.70039
▁wish	-9.70138
▁fix	-9.70149
ner	-9.70203
▁driving	-9.7028
▁haven	-9.70288
▁teaching	-9.70292
▁gun	-9.70372
▁speech	-9.70679
▁mobile	-9.7068
▁passion	-9.70706
▁bank	-9.7086
▁sick	-9.70873
▁engine	-9.70975
▁Germany	-9.71008
▁block	-9.71009
▁citizens	-9.71028
▁condition	-9.71067
▁ran	-9.71149
▁responsibility	-9.7115
▁summer	-9.71157
▁apply	-9.71319
▁remarkable	-9.71387
▁sector	-9.71387
▁television	-9.71387
▁Mexico	-9.71624
▁After	-9.71624
▁emotional	-9.71794
ability	-9.71818
▁colleagues	-9.71822
▁tissue	-9.71861
▁chair	-9.71868
▁With	-9.71892
▁artist	-9.71998
▁sent	-9.72304
▁cycle	-9.72381
▁Pro	-9.72442
▁onto	-9.72774
▁Of	-9.72799
▁understood	-9.72817
▁dying	-9.7287
▁points	-9.72897
▁invented	-9.72976
Oh	-9.72977
▁Sun	-9.73003
▁active	-9.7304
▁services	-9.73054
▁argue	-9.73059
▁conference	-9.73063
ture	-9.73146
▁greatest	-9.73319
af	-9.7341
▁Maybe	-9.73534
▁Ga	-9.73553
ay	-9.73684
▁Richard	-9.73784
▁crime	-9.73784
▁anybody	-9.73793
▁Con	-9.73905
▁smell	-9.74026
▁surgery	-9.74027
▁switch	-9.74268
▁engineering	-9.74326
▁join	-9.74357
▁describe	-9.74453
▁sentence	-9.74512
ob	-9.74513
▁aren	-9.74543
▁link	-9.74649
▁improve	-9.74662
▁challenges	-9.74678
ain	-9.748
▁likely	-9.74807
▁professional	-9.74985
▁sequence	-9.75002
term	-9.75061
▁event	-9.75238
▁MIT	-9.75247
▁oxygen	-9.75247
▁standard	-9.75251
▁straight	-9.75521
▁slightly	-9.75526
▁particularly	-9.75568
▁aware	-9.75722
▁Who	-9.75775
▁ones	-9.75782
▁jump	-9.75937
▁investment	-9.76011
▁laws	-9.76112
▁camp	-9.76179
▁certainly	-9.76274
ship	-9.76283
▁Einstein	-9.76485
▁campaign	-9.76485
▁classroom	-9.76491
▁card	-9.76599
▁boys	-9.76612
▁cause	-9.76695
▁character	-9.76722
ug	-9.7674
▁forever	-9.77023
▁becomes	-9.7704
▁consider	-9.77145
▁Oh	-9.77225
▁Don	-9.77239
▁window	-9.77295
▁Jo	-9.77319
▁further	-9.77488
▁popular	-9.77489
▁complete	-9.77517
▁complexity	-9.77564
▁random	-9.77579
▁gives	-9.77621
▁obviously	-9.77674
▁wild	-9.77736
▁types	-9.77738
▁okay	-9.77738
▁closer	-9.78105
▁relationships	-9.78128
▁Ja	-9.78178
▁organizations	-9.78234
▁birth	-9.78494
▁balance	-9.78498
▁lucky	-9.78547
▁scientist	-9.78564
▁drawing	-9.78714
▁dreams	-9.78731
▁worst	-9.78752
▁consciousness	-9.7877
air	-9.78951
▁among	-9.78992
▁urban	-9.78999
▁capacity	-9.79007
▁supply	-9.79007
▁identity	-9.79263
▁societies	-9.79265
▁greater	-9.79413
▁vote	-9.79507
▁flying	-9.79538
▁governments	-9.79641
ov	-9.79732
▁nobody	-9.79799
▁glass	-9.79911
ign	-9.80028
▁levels	-9.80202
▁imp	-9.80203
▁helped	-9.80211
▁effects	-9.80254
par	-9.80294
▁noticed	-9.80295
▁hole	-9.8031
▁sorts	-9.80371
▁experiments	-9.80384
▁shared	-9.80409
▁airplane	-9.80552
istic	-9.80596
▁importantly	-9.80654
▁Sh	-9.80739
▁Even	-9.80883
U	-9.80913
▁Amazon	-9.81072
▁pop	-9.81088
▁sad	-9.81102
▁environmental	-9.81137
▁reduce	-9.81283
▁sustainable	-9.8137
▁near	-9.81443
▁Lo	-9.8154
▁throw	-9.81542
▁zero	-9.81583
▁designers	-9.81606
▁tough	-9.81626
▁cu	-9.8165
▁broken	-9.81671
▁paid	-9.81797
▁Most	-9.81896
▁definition	-9.81944
No	-9.81961
red	-9.82002
▁missing	-9.82052
▁Po	-9.82083
▁everywhere	-9.8212
▁answers	-9.82151
▁devices	-9.8223
val	-9.82364
▁total	-9.8243
▁continent	-9.82649
▁husband	-9.82649
▁rid	-9.82658
aw	-9.82667
▁graph	-9.82672
▁pounds	-9.82748
▁Bi	-9.82921
▁mountain	-9.82954
▁quote	-9.83053
ier	-9.83153
▁cultural	-9.83158
▁speaking	-9.83234
▁ship	-9.8328
▁honest	-9.83284
▁Dan	-9.83296
▁Wow	-9.83361
▁easily	-9.83447
▁depend	-9.83448
▁biological	-9.83452
lit	-9.83462
▁gap	-9.83493
We	-9.83511
▁serious	-9.83552
▁threat	-9.8366
▁afford	-9.83679
▁states	-9.83848
▁island	-9.83969
▁background	-9.83982
▁bought	-9.83982
▁imagination	-9.83982
▁bus	-9.84134
▁molecules	-9.8416
▁please	-9.84334
▁streets	-9.84355
rk	-9.84458
▁accept	-9.84478
ions	-9.84481
van	-9.84493
▁brand	-9.84534
▁avoid	-9.84614
▁Nigeria	-9.84622
▁plane	-9.848
▁trial	-9.84828
▁express	-9.84879
▁trip	-9.84882
▁cave	-9.84886
▁Di	-9.84896
ja	-9.84904
ide	-9.84931
ries	-9.85095
▁civilization	-9.85342
▁flight	-9.85342
▁Gu	-9.85343
▁earth	-9.85358
▁efficient	-9.85486
▁interview	-9.85582
▁President	-9.85606
▁possibly	-9.85606
▁alternative	-9.85879
▁argument	-9.85913
▁Mu	-9.85942
▁noise	-9.8595
▁catch	-9.8598
▁original	-9.86048
▁stem	-9.8616
▁chain	-9.8616
chi	-9.86162
▁played	-9.86177
▁farm	-9.86202
mar	-9.86227
▁gr	-9.86261
▁NASA	-9.86428
▁crowd	-9.86428
▁evolved	-9.86445
▁hearing	-9.86477
med	-9.86523
ib	-9.86605
▁achieve	-9.8664
▁weird	-9.86712
ified	-9.86765
▁scene	-9.8698
▁brother	-9.87049
▁published	-9.87068
▁transform	-9.87189
▁roll	-9.87232
▁Sha	-9.87253
▁operation	-9.87262
▁party	-9.87485
▁Street	-9.87534
▁bottle	-9.87534
▁puzzle	-9.87534
▁moon	-9.87553
ding	-9.87597
▁programs	-9.87742
▁surprise	-9.87781
▁diversity	-9.87813
▁museum	-9.87813
▁opposite	-9.87814
▁above	-9.87819
▁coffee	-9.88092
▁flag	-9.88093
▁carry	-9.88178
▁pass	-9.88367
let	-9.884
ake	-9.88443
ee	-9.88459
▁Times	-9.88693
▁leg	-9.88711
▁po	-9.88796
▁recent	-9.88803
▁justice	-9.88823
▁somewhere	-9.88935
▁tremendous	-9.88935
▁Ph	-9.89122
▁helping	-9.89124
▁markets	-9.89192
▁competition	-9.89217
▁mouth	-9.89217
▁Center	-9.8922
▁Japanese	-9.89221
▁reward	-9.89267
▁discover	-9.8927
▁significant	-9.89338
▁civil	-9.89475
▁stuck	-9.89501
ris	-9.89589
au	-9.89632
▁basis	-9.89785
▁Britain	-9.89786
▁Mar	-9.89805
▁Are	-9.8982
▁networks	-9.89873
ey	-9.89893
▁collect	-9.89903
▁Che	-9.90001
rate	-9.90009
▁Paul	-9.90026
▁influence	-9.90031
▁emotions	-9.90051
▁multi	-9.90069
▁lack	-9.90083
ther	-9.90178
▁interact	-9.90222
▁chemical	-9.90233
▁reflect	-9.90297
lock	-9.90306
▁desire	-9.90356
▁desert	-9.90356
▁birds	-9.90461
▁directly	-9.90477
▁easier	-9.90642
▁article	-9.90642
▁signal	-9.90654
▁Harvard	-9.90929
▁Si	-9.90932
▁inspired	-9.9108
▁neighborhood	-9.91127
ler	-9.91147
▁bees	-9.91172
▁date	-9.91207
▁Iran	-9.91213
▁Canada	-9.91221
▁Israel	-9.91232
▁examples	-9.91277
▁reaction	-9.91281
▁core	-9.91346
cent	-9.91448
hand	-9.91471
rt	-9.91507
▁cloud	-9.91727
▁offer	-9.91786
▁Congress	-9.91796
▁commercial	-9.91796
▁Francisco	-9.918
▁Like	-9.9181
▁Human	-9.91829
▁notion	-9.91882
ina	-9.92048
▁Arab	-9.92049
▁Those	-9.92087
▁proud	-9.92088
▁painting	-9.92101
vis	-9.92115
▁TV	-9.92133
▁Where	-9.92203
▁planets	-9.92284
hy	-9.92285
▁struggle	-9.92379
▁truly	-9.92379
▁horse	-9.92382
ice	-9.92421
▁engineer	-9.92473
▁dive	-9.92513
▁letter	-9.92617
▁Ben	-9.92618
▁negative	-9.92671
▁opportunities	-9.92671
▁central	-9.92671
▁wonder	-9.92797
▁suffering	-9.92881
▁effort	-9.92924
▁extreme	-9.93096
▁spending	-9.93117
▁highly	-9.93187
▁breast	-9.93258
▁phenomenon	-9.93258
fer	-9.93299
▁Ne	-9.93316
▁document	-9.93416
▁cheap	-9.93423
▁bone	-9.93433
gi	-9.93439
▁fair	-9.93444
▁finish	-9.93549
▁motor	-9.93556
▁indeed	-9.93571
▁allows	-9.93674
▁France	-9.93849
▁curve	-9.9385
▁kept	-9.93851
▁joy	-9.93855
▁differences	-9.93899
▁eating	-9.93965
▁unit	-9.94094
▁mouse	-9.94148
▁gain	-9.94164
ably	-9.9419
▁labor	-9.94268
▁paint	-9.94327
▁satellite	-9.94444
▁damage	-9.94444
▁click	-9.94446
▁yellow	-9.94446
▁leadership	-9.94449
▁foundation	-9.94527
▁fail	-9.94691
▁lunch	-9.94742
▁ultimately	-9.94835
▁fund	-9.94906
▁metaphor	-9.95042
▁gift	-9.95042
▁soil	-9.95052
▁lesson	-9.95231
▁tumor	-9.95342
▁hurt	-9.95343
▁deliver	-9.95514
▁bread	-9.95646
▁motion	-9.95648
▁Los	-9.95666
py	-9.95724
▁Look	-9.95731
▁Steve	-9.95824
ari	-9.95879
▁smile	-9.95949
▁represent	-9.95952
▁bag	-9.96029
▁equal	-9.96052
ack	-9.96117
▁Art	-9.96126
form	-9.96136
▁Darwin	-9.96231
▁Boston	-9.96249
▁passed	-9.96269
▁matters	-9.96297
▁invest	-9.9649
▁etc	-9.96556
▁university	-9.96857
▁faith	-9.96857
▁poem	-9.96872
based	-9.96909
▁tradition	-9.9701
▁particles	-9.9715
▁School	-9.97163
▁possibility	-9.97163
▁strength	-9.97163
▁benefit	-9.97246
ome	-9.9727
▁mis	-9.97303
▁hell	-9.97376
▁produced	-9.97398
all	-9.9742
▁advantage	-9.9747
▁creation	-9.9747
▁usually	-9.97546
ley	-9.9762
▁artists	-9.97666
io	-9.97679
▁bubble	-9.97777
▁criminal	-9.97777
▁roof	-9.97777
▁forces	-9.97869
▁adults	-9.97892
▁hate	-9.97964
▁figured	-9.98026
▁lie	-9.98084
▁newspaper	-9.98086
▁professor	-9.98086
▁vast	-9.98086
▁somehow	-9.98117
▁marriage	-9.98395
▁knowing	-9.98427
▁Bu	-9.98494
▁creatures	-9.98569
▁contact	-9.98582
▁Chicago	-9.98706
▁gay	-9.98741
▁sister	-9.98844
▁studying	-9.98992
▁platform	-9.99018
▁virtual	-9.99168
▁tail	-9.99255
▁James	-9.99331
ick	-9.99394
work	-9.99432
▁Vi	-9.99563
▁location	-9.99644
▁restaurant	-9.99644
▁gender	-9.99644
▁fold	-9.99762
▁Lu	-9.99767
▁grade	-9.99861
▁strategy	-9.99958
▁giant	-9.9996
▁separate	-9.99962
▁expression	-10.0005
well	-10.0008
▁fashion	-10.0012
▁method	-10.0017
▁base	-10.0025
▁mechanism	-10.0027
▁sharing	-10.0028
▁patent	-10.0028
▁suit	-10.0029
▁degree	-10.0037
▁Wi	-10.0039
ft	-10.0054
▁drink	-10.0055
▁members	-10.0059
▁Michael	-10.0059
▁depression	-10.0059
▁becoming	-10.0059
▁score	-10.006
▁farmers	-10.0066
▁upon	-10.0066
▁sold	-10.0078
▁breath	-10.0079
▁industrial	-10.0085
▁Islam	-10.0086
▁opinion	-10.0091
▁pair	-10.0094
▁feels	-10.0099
▁beat	-10.0099
▁focused	-10.01
▁organisms	-10.0118
▁gold	-10.012
▁claim	-10.0123
▁mirror	-10.0123
▁disappear	-10.0124
▁Da	-10.014
▁fascinating	-10.0155
dimensional	-10.0158
▁bird	-10.0207
▁epidemic	-10.0219
▁Un	-10.0219
▁remind	-10.0221
gy	-10.0223
▁grand	-10.0224
▁kilometers	-10.0224
▁manage	-10.0226
▁theater	-10.0226
▁discovery	-10.0233
▁detect	-10.0235
pit	-10.0237
▁insects	-10.0239
▁structures	-10.0241
▁slowly	-10.025
▁anywhere	-10.0251
▁president	-10.0251
▁seat	-10.0257
▁engage	-10.0262
▁raised	-10.0265
▁wood	-10.0266
▁engineers	-10.0271
▁Muslim	-10.0277
▁debate	-10.0284
▁interface	-10.0284
▁finished	-10.0284
za	-10.0284
▁phones	-10.0311
▁loss	-10.0312
▁honor	-10.0316
▁trillion	-10.0316
▁autism	-10.0316
▁elements	-10.0327
▁German	-10.0335
over	-10.0343
▁necessarily	-10.0348
▁failed	-10.0349
▁era	-10.0377
▁events	-10.0379
▁mess	-10.038
▁magazine	-10.0381
▁married	-10.0381
▁Women	-10.0381
▁chip	-10.0384
rap	-10.0384
▁Pakistan	-10.0388
▁experiences	-10.0402
▁trick	-10.0402
gh	-10.0407
▁climb	-10.0411
▁wear	-10.0418
▁Russia	-10.0425
ou	-10.0426
▁turning	-10.0428
ory	-10.0432
for	-10.0432
▁cap	-10.0437
▁circle	-10.0437
▁ants	-10.0443
▁brilliant	-10.0447
q	-10.0453
rat	-10.0456
▁weren	-10.0474
▁mathematics	-10.048
▁parent	-10.0481
▁detail	-10.0484
▁fully	-10.0505
▁September	-10.0513
▁attempt	-10.0513
▁coast	-10.0513
▁pig	-10.0518
▁sudden	-10.053
ock	-10.0552
ps	-10.0553
▁benefits	-10.057
▁master	-10.0575
▁galaxy	-10.0579
▁religious	-10.0579
▁universal	-10.0579
▁odd	-10.058
▁Boy	-10.0581
▁coral	-10.0583
▁saving	-10.0597
▁belong	-10.0597
▁stream	-10.0602
▁topic	-10.0603
▁exercise	-10.0613
▁shoes	-10.0614
▁release	-10.0623
▁clearly	-10.0629
▁concerned	-10.0638
▁Which	-10.0646
▁Wikipedia	-10.0646
▁budget	-10.0646
▁Another	-10.0647
▁double	-10.0649
press	-10.065
▁throughout	-10.0657
▁disaster	-10.068
▁King	-10.0698
▁forth	-10.0698
▁shop	-10.0698
▁wheel	-10.0707
▁closed	-10.0708
▁studied	-10.0714
▁ancient	-10.0714
▁Bank	-10.0714
▁Talk	-10.0714
▁childhood	-10.0716
▁dinner	-10.0748
▁grandmother	-10.0748
▁invisible	-10.0748
▁walls	-10.0758
▁designer	-10.0768
▁held	-10.0775
▁willing	-10.0777
▁himself	-10.0783
▁holding	-10.0789
▁Pi	-10.0794
▁stupid	-10.0816
▁worried	-10.0816
▁Two	-10.0816
▁chart	-10.0816
▁blog	-10.0818
han	-10.0819
▁wearing	-10.0821
▁principle	-10.0826
▁statistics	-10.0833
▁profound	-10.0834
ise	-10.084
▁fat	-10.084
▁Charles	-10.085
▁Valley	-10.085
▁dress	-10.085
▁Her	-10.0856
▁clinic	-10.0869
▁adapt	-10.0871
▁oceans	-10.0876
▁taste	-10.0886
▁Paris	-10.0888
▁molecule	-10.0896
▁correct	-10.0898
▁businesses	-10.0904
▁opened	-10.0908
▁br	-10.0911
her	-10.0913
▁May	-10.0913
▁galaxies	-10.0919
▁responsible	-10.0919
ord	-10.0919
▁safety	-10.0923
▁fairly	-10.0938
▁Am	-10.0946
▁GPS	-10.0954
▁surprised	-10.0958
▁weak	-10.0964
▁prove	-10.0973
▁dollar	-10.0984
▁error	-10.0989
▁June	-10.0991
▁leader	-10.0992
▁lights	-10.0993
▁discussion	-10.0993
▁wondering	-10.0995
▁wave	-10.1007
▁Many	-10.1007
ium	-10.1008
▁interaction	-10.1008
▁traffic	-10.1022
▁nervous	-10.1023
▁therefore	-10.1023
▁joke	-10.1023
▁typical	-10.103
▁layer	-10.1033
▁State	-10.1043
▁except	-10.1048
▁Park	-10.1051
▁bright	-10.1053
uff	-10.1058
▁fresh	-10.1058
▁managed	-10.1059
▁belief	-10.1076
▁watched	-10.1084
▁agriculture	-10.1093
▁identify	-10.1093
▁garden	-10.1093
▁display	-10.1094
▁ride	-10.1094
▁chicken	-10.1094
▁harder	-10.1099
▁Day	-10.1112
▁journalist	-10.1121
▁consequences	-10.1123
▁fossil	-10.1128
▁feedback	-10.1129
▁Ge	-10.1145
▁factory	-10.1147
▁surprising	-10.1148
▁mistake	-10.1148
▁believed	-10.1153
▁ideal	-10.1164
▁tells	-10.1166
▁row	-10.1167
wise	-10.1172
gram	-10.1174
▁fighting	-10.1175
art	-10.1175
▁Red	-10.1181
▁protein	-10.1185
▁mentioned	-10.1187
▁due	-10.1193
▁Sea	-10.1198
▁Frank	-10.1199
▁channel	-10.1199
▁equation	-10.1199
▁assume	-10.1205
▁dry	-10.1213
▁fan	-10.1214
▁received	-10.1221
ook	-10.1221
▁principles	-10.1225
▁crash	-10.1227
▁frame	-10.123
▁spirit	-10.1234
▁Institute	-10.1235
▁laptop	-10.1235
▁gentlemen	-10.1235
▁appear	-10.124
▁deeply	-10.1245
ju	-10.1249
▁limited	-10.1261
▁lifetime	-10.1264
▁caught	-10.1271
▁Adam	-10.1271
▁transformation	-10.1272
▁include	-10.1275
kin	-10.1285
▁steps	-10.1292
▁occur	-10.1304
▁telescope	-10.1306
▁colors	-10.1309
ash	-10.131
▁promise	-10.1311
▁fill	-10.1315
▁note	-10.1319
▁tape	-10.1336
▁exists	-10.1339
▁Obama	-10.1342
▁plate	-10.1342
head	-10.1344
▁Angeles	-10.1344
▁Ju	-10.1347
▁invention	-10.1348
▁serve	-10.1352
▁useful	-10.1362
▁wi	-10.1376
▁curious	-10.1378
▁equipment	-10.1378
▁leaving	-10.1379
▁quiet	-10.1379
▁malaria	-10.138
▁electric	-10.138
▁warm	-10.1385
▁nose	-10.1387
ham	-10.1393
▁button	-10.1403
▁partner	-10.1415
▁meat	-10.144
top	-10.1443
▁season	-10.1455
▁mix	-10.1459
hr	-10.1474
▁trained	-10.1477
▁Science	-10.1488
▁although	-10.1488
▁pocket	-10.1488
▁healthcare	-10.1488
▁mid	-10.1488
▁expand	-10.1489
▁comfortable	-10.149
▁experts	-10.1496
▁letters	-10.1496
▁collective	-10.1511
of	-10.1512
▁lay	-10.1517
▁dynamic	-10.152
▁perception	-10.1524
▁various	-10.1524
▁clip	-10.1524
▁crack	-10.1525
▁emissions	-10.1528
car	-10.1556
▁seconds	-10.1556
▁Sweden	-10.1561
▁inequality	-10.1561
▁narrative	-10.1561
▁contract	-10.1562
▁Apple	-10.1562
▁insight	-10.1567
▁cure	-10.1571
▁constantly	-10.1572
▁following	-10.1578
▁sexual	-10.1579
▁leads	-10.1587
▁independent	-10.1593
▁existence	-10.1598
▁hidden	-10.1598
▁member	-10.1598
▁para	-10.1599
▁toilet	-10.16
▁collection	-10.1606
▁diet	-10.1612
lon	-10.1615
▁enable	-10.1616
▁band	-10.162
▁folks	-10.1622
▁testing	-10.1632
▁court	-10.1635
▁Tom	-10.1639
▁cards	-10.164
▁copy	-10.1643
▁anyway	-10.1645
fully	-10.1653
▁warming	-10.1672
▁survival	-10.1672
▁Christmas	-10.1672
▁faces	-10.1675
▁reform	-10.1676
▁mark	-10.1677
▁Over	-10.1677
?"	-10.17
▁pages	-10.1707
▁balloon	-10.171
▁fell	-10.171
▁cow	-10.1719
▁compared	-10.172
▁perfectly	-10.1721
▁signals	-10.1725
▁weapons	-10.1726
▁soul	-10.1732
▁dimensions	-10.1735
▁flat	-10.1746
▁January	-10.1747
▁artificial	-10.1747
▁weather	-10.1747
▁judge	-10.1747
▁exchange	-10.1747
▁medium	-10.1748
▁values	-10.1751
▁resource	-10.1751
▁Martin	-10.1754
▁metal	-10.1777
▁majority	-10.1782
▁teeth	-10.1784
▁limb	-10.1784
▁vehicle	-10.1788
▁suggest	-10.1788
▁related	-10.1788
▁brings	-10.1792
▁Act	-10.1794
▁emotion	-10.1798
▁wire	-10.1807
▁im	-10.181
▁wide	-10.1822
▁yesterday	-10.1822
▁distribution	-10.1823
▁planning	-10.1824
▁enter	-10.1826
ero	-10.1832
▁circuit	-10.1836
J	-10.1841
▁print	-10.1844
▁quantum	-10.186
▁tomorrow	-10.186
▁foreign	-10.186
▁zone	-10.1861
▁Hi	-10.1872
meter	-10.1879
own	-10.1889
▁grown	-10.1896
▁generations	-10.1899
ura	-10.1901
▁tens	-10.1915
▁direct	-10.1915
▁sing	-10.1935
▁From	-10.1936
▁sweet	-10.1936
▁reveal	-10.1936
▁illness	-10.1937
▁laugh	-10.1944
▁muscle	-10.1944
▁tube	-10.1946
pect	-10.1954
▁tons	-10.1955
▁pen	-10.1956
▁invited	-10.1957
▁profit	-10.1961
▁moments	-10.1962
▁load	-10.1966
▁Christian	-10.1972
▁Basically	-10.1975
▁practical	-10.1975
▁command	-10.1975
▁capable	-10.1979
▁Har	-10.1982
▁generate	-10.1998
cast	-10.1998
▁Global	-10.2013
▁Remember	-10.2013
▁battery	-10.2013
▁round	-10.2015
▁below	-10.2035
▁relative	-10.2035
▁tr	-10.2042
▁Egypt	-10.205
▁Green	-10.2051
▁Think	-10.2052
▁evil	-10.2052
▁bill	-10.2052
▁deeper	-10.2053
▁carefully	-10.2066
▁heads	-10.2072
▁launched	-10.2082
▁transport	-10.2086
▁talent	-10.209
▁lawyer	-10.2091
▁operating	-10.2091
▁House	-10.2092
▁saved	-10.2099
▁launch	-10.2099
▁stone	-10.211
zi	-10.212
▁counter	-10.2128
▁wisdom	-10.2129
▁Project	-10.213
▁chemistry	-10.213
▁poetry	-10.2131
▁mostly	-10.2139
right	-10.2151
▁Ten	-10.2155
▁spoke	-10.2156
ties	-10.2165
▁leading	-10.2167
▁multiple	-10.2168
▁sugar	-10.2169
▁wake	-10.2169
▁everyday	-10.2173
▁tea	-10.2187
▁tall	-10.2189
ration	-10.2191
scale	-10.2198
▁CEO	-10.2208
▁Microsoft	-10.2208
▁Number	-10.2208
▁Thomas	-10.2208
▁filter	-10.2208
▁Finally	-10.2208
▁consumption	-10.2208
ual	-10.2214
ept	-10.2215
▁intelligent	-10.2217
▁arrived	-10.2225
▁clinical	-10.2225
▁Your	-10.2227
▁net	-10.2227
board	-10.2228
▁cook	-10.223
▁soldiers	-10.2231
▁spa	-10.2242
▁Instead	-10.2247
▁possibilities	-10.2247
▁surgeon	-10.2247
▁lady	-10.2248
▁comment	-10.2248
▁protection	-10.2257
▁driver	-10.2259
▁experienced	-10.2262
▁prototype	-10.2286
▁creates	-10.2287
▁shame	-10.2288
▁rocket	-10.229
▁advance	-10.2295
bringing	-10.2302
How	-10.2316
▁shoulder	-10.2318
▁empty	-10.2326
▁property	-10.2327
▁hide	-10.2327
net	-10.2334
ok	-10.2346
▁skill	-10.2355
▁expected	-10.2364
▁Voice	-10.2366
▁cognitive	-10.2366
▁microbes	-10.2366
▁Revolution	-10.2366
▁tag	-10.237
▁player	-10.2388
▁waves	-10.2389
gar	-10.239
▁researchers	-10.239
▁da	-10.2396
▁fourth	-10.2398
▁causes	-10.2403
▁stood	-10.2406
▁studio	-10.2406
▁string	-10.2407
▁peak	-10.2407
tz	-10.2408
▁rights	-10.2408
▁robotic	-10.2424
▁treated	-10.2432
▁doubt	-10.2442
▁limit	-10.2443
▁Ghana	-10.2446
▁twice	-10.2446
▁credit	-10.2446
▁His	-10.2447
▁organic	-10.245
mate	-10.245
▁graduate	-10.2455
▁presentation	-10.2458
▁Korea	-10.2466
▁instrument	-10.2467
▁processes	-10.2474
▁paying	-10.2485
▁Museum	-10.2486
▁Pacific	-10.2486
▁analysis	-10.2486
▁Gulf	-10.2486
▁properties	-10.2487
▁adult	-10.2487
▁concern	-10.2497
▁hang	-10.2501
▁statement	-10.2502
▁begins	-10.2512
▁broke	-10.2516
▁silence	-10.2527
▁versus	-10.2527
▁react	-10.253
▁users	-10.2532
▁Ke	-10.2533
ko	-10.2533
cla	-10.2534
▁Pole	-10.2536
▁factors	-10.2538
▁coal	-10.2539
▁compare	-10.2554
▁survey	-10.2568
▁Health	-10.2568
▁du	-10.2573
▁victims	-10.2576
▁rare	-10.2584
▁ski	-10.2585
▁players	-10.2592
▁sample	-10.2599
▁participate	-10.2608
▁El	-10.2609
▁gang	-10.261
▁kick	-10.261
rus	-10.2613
▁succeed	-10.2619
▁habit	-10.263
rry	-10.2634
▁holes	-10.2638
▁accurate	-10.2649
▁spaces	-10.265
day	-10.2652
▁killing	-10.2656
▁tip	-10.2665
Why	-10.2665
▁writer	-10.267
▁addition	-10.2683
▁pack	-10.269
▁spider	-10.2691
▁fiction	-10.2691
▁cup	-10.2691
▁fellow	-10.2692
▁Union	-10.2695
▁setting	-10.2707
▁highest	-10.2715
▁station	-10.2725
▁Island	-10.2731
▁Woman	-10.2732
▁abuse	-10.2735
▁define	-10.2743
▁apart	-10.2743
▁movies	-10.2746
▁remote	-10.2757
▁Air	-10.2765
▁dots	-10.2769
ek	-10.2771
▁church	-10.2773
▁heavy	-10.2773
▁Latin	-10.2774
▁north	-10.2788
▁picked	-10.2791
▁cameras	-10.2791
room	-10.2796
▁essential	-10.2799
▁convinced	-10.2803
bar	-10.2804
▁arms	-10.2811
▁photos	-10.2812
▁Greek	-10.2815
▁Robert	-10.2815
▁volume	-10.2816
▁dinosaurs	-10.2816
▁grid	-10.2818
▁breathe	-10.2826
▁operate	-10.2827
▁prefer	-10.2851
▁battle	-10.2857
▁Texas	-10.2857
▁corruption	-10.2857
▁stock	-10.2857
▁construction	-10.2857
▁fake	-10.2858
▁atoms	-10.2859
▁cutting	-10.2865
▁considered	-10.2865
▁introduce	-10.2868
▁forced	-10.2887
▁outcome	-10.2895
▁sculpture	-10.2899
▁myth	-10.2906
▁oh	-10.2906
ery	-10.2906
▁emerge	-10.2909
ima	-10.2911
ink	-10.2922
ade	-10.2935
▁option	-10.2939
▁loud	-10.2941
▁host	-10.2942
▁extract	-10.2943
▁awful	-10.2944
source	-10.2976
▁illusion	-10.2983
▁phrase	-10.2983
▁losing	-10.2984
▁shoot	-10.2991
ear	-10.3013
▁economics	-10.302
craft	-10.3021
▁Manhattan	-10.3026
▁Grand	-10.3027
▁capture	-10.3044
▁technical	-10.3052
▁exact	-10.3053
▁origin	-10.3058
▁cents	-10.3062
▁Higgs	-10.3069
▁conclusion	-10.3069
▁mathematical	-10.3069
▁moves	-10.3077
▁qua	-10.3086
matic	-10.309
▁sum	-10.3094
▁effectively	-10.3102
▁danger	-10.311
▁Ethiopia	-10.3112
▁details	-10.3112
▁combination	-10.3113
▁exception	-10.3124
▁opening	-10.314
ification	-10.3141
▁Mom	-10.3147
▁gravity	-10.3155
▁pleasure	-10.3155
▁underneath	-10.3155
▁awesome	-10.3155
▁intellectual	-10.3155
▁pump	-10.3155
▁jail	-10.3155
▁fields	-10.3158
▁shapes	-10.3159
▁rational	-10.3162
▁Bang	-10.3163
▁Give	-10.3174
▁eggs	-10.3178
ye	-10.3181
ana	-10.3186
▁soft	-10.319
▁bias	-10.319
▁White	-10.3198
▁harm	-10.3207
▁hotel	-10.3208
▁relate	-10.321
▁Take	-10.3211
▁connections	-10.3218
rop	-10.3227
▁selling	-10.3234
▁attitude	-10.3242
▁celebrate	-10.3242
▁clever	-10.3242
▁mosquito	-10.3242
▁spectrum	-10.3242
▁importance	-10.3242
Fi	-10.3244
▁released	-10.3244
▁lies	-10.3248
▁calling	-10.3249
▁rapidly	-10.325
▁convince	-10.3254
▁nearly	-10.3269
▁dig	-10.3275
▁Stanford	-10.3285
▁empathy	-10.3285
▁iPhone	-10.3285
▁Haiti	-10.3285
▁Congo	-10.3287
▁vaccine	-10.3293
ati	-10.33
mark	-10.3303
fish	-10.3313
ung	-10.3315
▁seemed	-10.3328
▁nations	-10.3328
▁Hollywood	-10.3329
▁Narrator	-10.3329
▁embrace	-10.3329
▁explanation	-10.3329
▁valuable	-10.3329
▁gotten	-10.333
▁pitch	-10.3331
▁Bl	-10.3331
▁See	-10.3332
▁factor	-10.3352
▁burn	-10.3355
▁author	-10.3359
▁scared	-10.3361
▁conscious	-10.3369
▁swim	-10.3373
▁equivalent	-10.3373
▁ordinary	-10.3373
▁Foundation	-10.3374
▁Bush	-10.3377
lum	-10.338
It	-10.3382
▁covered	-10.3386
▁sharks	-10.3398
▁organized	-10.34
▁height	-10.3403
▁remain	-10.3408
▁dealing	-10.3415
▁vulnerable	-10.3417
▁sphere	-10.3417
▁spring	-10.3417
▁beach	-10.3419
▁orbit	-10.3425
▁Mr	-10.3428
▁snow	-10.343
▁consumer	-10.3439
▁Joe	-10.3447
grade	-10.3453
▁kitchen	-10.3462
▁official	-10.3462
▁River	-10.3462
▁ignore	-10.3462
▁winter	-10.3473
▁determine	-10.3475
▁finger	-10.3475
▁Mc	-10.3477
▁risks	-10.3478
▁mile	-10.3496
▁club	-10.3506
▁fruit	-10.3506
▁status	-10.3506
▁prize	-10.3507
▁trials	-10.3507
▁transition	-10.3508
cha	-10.3527
▁goals	-10.3528
▁represents	-10.3544
▁Olympic	-10.3551
▁Again	-10.3551
▁silk	-10.3551
▁solid	-10.3552
▁leaves	-10.3554
▁Law	-10.3561
aging	-10.3562
▁voices	-10.3572
▁Make	-10.3577
▁script	-10.3586
▁none	-10.3587
▁messages	-10.3594
▁YouTube	-10.3596
▁frankly	-10.3596
▁physicist	-10.3596
▁suck	-10.3597
▁lens	-10.3598
▁equality	-10.3602
▁mode	-10.3612
ould	-10.3624
▁signs	-10.3631
▁Rwanda	-10.3642
▁rural	-10.3642
▁Rio	-10.3645
▁Tu	-10.3646
▁south	-10.3647
▁perform	-10.3655
▁mothers	-10.3656
▁encourage	-10.3656
▁invent	-10.3657
▁shark	-10.3661
▁viruses	-10.3662
▁fo	-10.3663
▁More	-10.3663
▁bat	-10.3672
▁Lab	-10.3677
▁personally	-10.3678
water	-10.3682
▁quarter	-10.3684
▁characters	-10.3684
▁lessons	-10.3684
▁maintain	-10.3687
▁flies	-10.3689
▁bike	-10.369
▁politicians	-10.3701
▁estimate	-10.3701
▁Bur	-10.3705
▁Pe	-10.3705
▁videos	-10.3706
▁feelings	-10.3707
▁require	-10.3721
▁electrical	-10.3726
▁length	-10.3733
▁Per	-10.3737
▁depends	-10.3742
▁roughly	-10.3744
▁employees	-10.3746
▁designing	-10.3747
▁Super	-10.3755
state	-10.3757
▁regular	-10.3762
▁trend	-10.3764
hop	-10.3771
▁October	-10.3779
▁academic	-10.3779
▁manufacturing	-10.3779
▁inspiration	-10.3784
▁pure	-10.3785
▁tax	-10.3793
▁increasingly	-10.3795
▁symbol	-10.3797
ily	-10.3805
▁increasing	-10.3808
▁ten	-10.3811
▁Have	-10.3811
▁filled	-10.3817
atic	-10.3819
▁billions	-10.3824
our	-10.3824
▁illegal	-10.3825
▁staff	-10.3825
▁protest	-10.3825
▁Bar	-10.3825
▁neighbors	-10.3829
▁mention	-10.3858
▁sites	-10.386
ral	-10.3867
▁admit	-10.387
▁encounter	-10.3871
▁infinite	-10.3871
▁split	-10.3871
▁tank	-10.3871
ust	-10.3871
▁nerve	-10.3874
▁pill	-10.3876
▁user	-10.3876
▁However	-10.3877
▁loop	-10.388
▁keeping	-10.3881
▁destroy	-10.3887
▁needle	-10.3897
▁election	-10.3898
▁sight	-10.3903
▁fl	-10.3907
▁finance	-10.3917
▁despite	-10.3918
▁specifically	-10.3922
▁hall	-10.3923
▁worldwide	-10.3924
▁label	-10.3931
▁rev	-10.3935
▁CO	-10.3935
▁movements	-10.3936
▁scan	-10.3938
▁peer	-10.3944
▁symptoms	-10.3945
axis	-10.3946
sum	-10.3946
▁radical	-10.3948
▁beings	-10.3954
▁unusual	-10.3964
▁steel	-10.3964
▁terrorism	-10.3965
▁handle	-10.3969
berg	-10.3969
▁aging	-10.3972
▁languages	-10.3972
▁funding	-10.3976
▁habitat	-10.3986
▁element	-10.3993
▁absolute	-10.3995
▁sending	-10.4006
▁printing	-10.4009
▁microscope	-10.4011
shirt	-10.4011
▁framework	-10.4012
▁Du	-10.4017
▁solved	-10.403
▁title	-10.4045
▁Mary	-10.405
▁variation	-10.4058
▁radiation	-10.4058
▁daily	-10.4059
▁angry	-10.4059
▁apartment	-10.4062
▁authority	-10.4062
▁passionate	-10.4063
bling	-10.4067
▁melt	-10.4068
my	-10.4068
▁zoom	-10.4071
▁requires	-10.4083
▁contain	-10.4086
▁Second	-10.4089
▁Africans	-10.4091
ned	-10.4097
rum	-10.4102
▁Mark	-10.4105
▁Jim	-10.4106
▁Actually	-10.4106
▁lecture	-10.4106
▁physician	-10.4106
▁pollution	-10.4106
▁drill	-10.4106
▁calls	-10.4107
▁infection	-10.4108
▁humor	-10.4108
▁management	-10.411
▁Bible	-10.4114
▁poll	-10.4117
▁apple	-10.4119
▁replace	-10.4122
▁Sch	-10.4132
▁Russian	-10.4137
▁ecosystem	-10.4141
▁advanced	-10.4143
ject	-10.4148
▁Pr	-10.4153
▁Atlantic	-10.4153
▁William	-10.4153
▁advice	-10.4153
▁emerging	-10.4153
▁false	-10.4153
▁privacy	-10.4153
▁milk	-10.4153
▁alien	-10.4154
▁grain	-10.4154
▁underwater	-10.4156
▁homes	-10.416
▁mistakes	-10.4174
▁sources	-10.4186
▁feature	-10.419
▁organs	-10.4201
▁Central	-10.4201
▁firm	-10.4201
▁bare	-10.4211
proof	-10.4213
▁prime	-10.4217
back	-10.4229
▁blow	-10.4231
▁recover	-10.4236
▁International	-10.4249
▁department	-10.4249
▁Sometimes	-10.4249
▁boring	-10.425
▁formed	-10.4261
This	-10.4262
▁lu	-10.4268
▁typically	-10.4272
▁components	-10.4274
▁algorithms	-10.4292
▁Alzheimer	-10.4298
▁intervention	-10.4298
▁technological	-10.4298
▁variety	-10.4298
▁afternoon	-10.4298
▁facing	-10.4298
▁knee	-10.4298
▁plot	-10.4298
▁General	-10.4298
▁Nations	-10.4298
▁Wall	-10.4306
▁Peter	-10.4308
▁Once	-10.431
▁techniques	-10.432
rick	-10.4326
▁naturally	-10.4339
bal	-10.4345
bound	-10.4346
▁cluster	-10.4346
▁necessary	-10.4346
▁psychology	-10.4346
▁grateful	-10.4346
▁hydrogen	-10.4347
▁tonight	-10.4347
▁Antarctica	-10.4349
▁clothes	-10.4349
▁wine	-10.4352
▁cultures	-10.4354
▁cry	-10.4355
▁lying	-10.4356
▁king	-10.4361
▁prop	-10.4362
▁entirely	-10.4381
▁comfort	-10.4391
appropriate	-10.4395
▁contrast	-10.4395
▁thumb	-10.4395
▁Nobel	-10.4396
▁Pat	-10.4397
nna	-10.4398
▁loan	-10.4399
▁Ko	-10.4408
▁Win	-10.4419
▁suffer	-10.4428
xi	-10.4439
▁harvest	-10.4444
▁memories	-10.4444
▁predator	-10.4444
▁Black	-10.4444
▁sheet	-10.4446
▁options	-10.4447
▁intention	-10.4448
▁Islamic	-10.4451
MA	-10.4453
down	-10.4456
▁physically	-10.4457
▁grass	-10.4459
▁disc	-10.4463
▁sorry	-10.4469
▁thin	-10.4471
▁tap	-10.4475
▁challenging	-10.4493
▁fiber	-10.4493
▁phase	-10.4493
▁bee	-10.4495
▁productive	-10.4502
cut	-10.4503
▁monitor	-10.4507
▁prepared	-10.4508
▁gut	-10.4512
▁applications	-10.4513
▁chemicals	-10.4514
▁director	-10.4519
▁Bay	-10.4521
▁fewer	-10.4534
▁grab	-10.4536
▁High	-10.4543
▁collaboration	-10.4543
▁Italy	-10.4546
▁caused	-10.4555
▁suppose	-10.4561
▁notes	-10.4561
ji	-10.4562
▁Sam	-10.4566
cher	-10.4574
▁organ	-10.4577
aking	-10.4578
▁recorded	-10.4583
▁Did	-10.4587
▁actions	-10.4589
▁Department	-10.4592
▁cortex	-10.4592
▁paradigm	-10.4592
▁pilot	-10.4592
▁scenario	-10.4592
▁reverse	-10.4593
▁wondered	-10.4594
▁mice	-10.4597
▁Time	-10.4597
▁efficiency	-10.4597
▁clock	-10.4601
▁nest	-10.4604
▁license	-10.4606
▁maps	-10.4612
▁repeat	-10.4612
▁meme	-10.4614
▁weigh	-10.4619
▁sports	-10.4635
▁flip	-10.4635
▁vehicles	-10.4638
▁Oxford	-10.4642
▁Things	-10.4642
▁convert	-10.4643
▁flash	-10.4643
▁pollen	-10.4648
▁review	-10.4656
▁collapse	-10.4661
ker	-10.4663
making	-10.4666
▁Bob	-10.4669
▁arts	-10.4682
▁mountains	-10.4685
▁Child	-10.4693
▁Uganda	-10.4693
▁ladies	-10.4693
▁smoke	-10.4693
▁fishing	-10.4695
▁worker	-10.4708
Do	-10.4712
▁mad	-10.4714
▁miss	-10.472
▁angle	-10.4728
▁attract	-10.4732
▁stronger	-10.4735
▁houses	-10.4736
▁cooking	-10.4738
being	-10.4742
▁Girl	-10.4743
▁decline	-10.4743
▁drone	-10.4743
▁visible	-10.4743
▁molecular	-10.4743
▁honey	-10.4743
▁mortality	-10.4744
▁conservation	-10.4744
▁awareness	-10.4749
▁input	-10.4751
▁Bra	-10.4753
▁evolve	-10.4763
▁buying	-10.4771
▁broad	-10.478
▁Jewish	-10.4794
▁Nature	-10.4794
▁establish	-10.4794
▁shadow	-10.4794
▁primary	-10.4794
▁drag	-10.4797
house	-10.4802
▁remove	-10.4825
▁confidence	-10.4836
▁liquid	-10.4845
▁literature	-10.4845
▁swimming	-10.4845
▁escape	-10.4845
▁birthday	-10.4846
▁bug	-10.4856
▁carrying	-10.4858
▁divide	-10.4865
etic	-10.489
▁pin	-10.4891
▁forests	-10.4891
▁Space	-10.4896
▁activities	-10.4896
▁Ocean	-10.4896
▁route	-10.4897
▁desk	-10.4897
▁resistance	-10.4897
▁cord	-10.4898
▁generally	-10.4899
▁capitalism	-10.4901
▁hill	-10.4901
low	-10.4918
▁centers	-10.4924
▁logic	-10.4935
▁meaningful	-10.4935
box	-10.494
▁interests	-10.4946
▁engaged	-10.4946
▁concrete	-10.4948
▁psychological	-10.4948
▁Sunday	-10.4949
▁polar	-10.4949
▁selection	-10.495
▁circumstances	-10.4956
digit	-10.4958
▁protected	-10.4966
▁ultimate	-10.4983
▁shock	-10.4986
▁dogs	-10.4997
▁receive	-10.4997
▁computing	-10.5
▁exploration	-10.5
▁hormone	-10.5
▁deserve	-10.5
▁Gates	-10.5001
▁wireless	-10.5002
▁Mother	-10.5002
▁Age	-10.5005
▁improvement	-10.5005
▁printer	-10.5009
org	-10.5011
logical	-10.5013
▁meal	-10.5015
▁demo	-10.5016
hood	-10.5019
hor	-10.5022
ular	-10.5036
▁Dad	-10.5043
dependent	-10.5048
▁MRI	-10.5052
▁observation	-10.5052
portrait	-10.5052
▁Smith	-10.5052
▁destruction	-10.5052
▁Turn	-10.5052
▁behave	-10.5052
▁toxic	-10.5053
▁marketing	-10.5065
vin	-10.5077
▁affected	-10.5077
▁anger	-10.5101
▁innovative	-10.5104
▁secure	-10.5104
▁complain	-10.5104
▁internal	-10.5104
▁sustainability	-10.5105
▁Inter	-10.5107
▁added	-10.5108
▁evolutionary	-10.5108
▁transportation	-10.511
▁recording	-10.5111
▁section	-10.5112
▁institution	-10.5114
▁pal	-10.5115
ase	-10.5115
▁features	-10.5116
unclear	-10.512
▁organism	-10.5134
▁boxes	-10.5138
▁introduced	-10.5143
▁cheat	-10.5155
▁dramatic	-10.5155
▁clue	-10.5157
▁housing	-10.5157
▁commitment	-10.5159
▁regions	-10.5159
ough	-10.516
▁Arabic	-10.5165
point	-10.5172
▁grandfather	-10.5181
▁rates	-10.5184
▁combine	-10.5186
▁theme	-10.5191
▁classes	-10.5191
▁fingers	-10.5193
▁ancestors	-10.5199
▁strip	-10.5201
aries	-10.5208
gged	-10.5208
▁Florida	-10.521
▁violent	-10.521
▁telephone	-10.521
▁thick	-10.521
▁Egyptian	-10.5212
▁sunlight	-10.5212
▁unfortunately	-10.5215
▁manager	-10.5222
▁tested	-10.5227
▁earn	-10.5228
▁agent	-10.5229
▁chose	-10.5251
hack	-10.5251
▁boom	-10.5256
▁Star	-10.5259
▁ritual	-10.5263
▁photographs	-10.5263
▁chapter	-10.5264
▁severe	-10.5265
▁breathing	-10.5268
mine	-10.5269
▁otherwise	-10.5277
▁Par	-10.5284
▁monkey	-10.5285
▁translate	-10.5285
▁attacks	-10.5286
jo	-10.5298
▁required	-10.5299
▁auto	-10.5304
▁Yorker	-10.5305
▁policies	-10.5316
▁agenda	-10.5316
▁therapy	-10.5317
▁refer	-10.5322
▁March	-10.5324
▁younger	-10.5336
▁explained	-10.5337
▁creature	-10.534
urg	-10.5345
▁pulled	-10.5348
▁poet	-10.5348
▁owner	-10.5353
▁previous	-10.5354
▁constant	-10.5354
ending	-10.5355
▁December	-10.537
▁animation	-10.537
▁revenue	-10.537
▁sophisticated	-10.537
▁diagram	-10.537
▁reference	-10.5373
▁bond	-10.5373
▁discipline	-10.538
▁Back	-10.5382
▁acting	-10.5386
▁applied	-10.539
▁organize	-10.5394
▁architect	-10.5396
▁Au	-10.5403
▁Ni	-10.5411
▁sensors	-10.5414
▁increased	-10.5422
▁August	-10.5424
▁NGO	-10.5424
▁analyze	-10.5424
▁motivation	-10.5424
▁regret	-10.5424
▁relevant	-10.5424
▁potentially	-10.5426
▁coin	-10.5427
▁partners	-10.5436
long	-10.5442
▁borders	-10.5443
▁Sir	-10.5443
pur	-10.5456
▁infected	-10.5461
je	-10.5472
▁careful	-10.5475
resolution	-10.5478
▁centuries	-10.5478
▁session	-10.5478
▁mechanical	-10.5479
▁Very	-10.548
▁lake	-10.548
some	-10.5486
▁Muslims	-10.5489
▁agreed	-10.5499
▁busy	-10.5505
▁technique	-10.5508
▁flower	-10.551
▁style	-10.5516
▁neuro	-10.5518
▁hospitals	-10.5523
▁favor	-10.5532
▁Spanish	-10.5533
▁repair	-10.5533
▁bicycle	-10.5533
▁sweat	-10.5534
▁shut	-10.5534
▁lifestyle	-10.554
ivity	-10.5542
▁officer	-10.5555
▁database	-10.5558
▁blocks	-10.5567
▁hero	-10.5568
▁fundamentally	-10.558
▁unlike	-10.5582
cer	-10.5583
▁traveling	-10.5586
▁February	-10.5588
▁Square	-10.5588
▁horrible	-10.5588
▁permanent	-10.5588
▁wound	-10.5588
▁piano	-10.5588
bit	-10.5592
▁followed	-10.5594
▁singing	-10.5597
aving	-10.5603
▁file	-10.5605
educated	-10.5608
▁Ed	-10.5614
▁application	-10.5621
▁behaviors	-10.5627
▁closely	-10.5643
▁Research	-10.5643
▁genius	-10.5643
▁intense	-10.5643
▁providing	-10.5643
▁Ebola	-10.5643
▁unknown	-10.5645
▁collected	-10.5646
▁hoping	-10.5647
ik	-10.565
▁described	-10.5658
▁geo	-10.5663
▁evening	-10.5665
▁root	-10.5681
▁seal	-10.5682
▁currently	-10.5685
▁existed	-10.5688
▁guide	-10.5699
▁witness	-10.5699
▁confront	-10.5699
▁hook	-10.57
▁exhibition	-10.5702
▁Jack	-10.5702
▁ear	-10.5719
▁dense	-10.5719
If	-10.5728
▁equally	-10.5729
▁producing	-10.5734
▁border	-10.5736
▁Pre	-10.5737
▁abstract	-10.5746
▁processing	-10.5747
▁Put	-10.5766
▁customers	-10.5767
▁cartoon	-10.5781
place	-10.5791
▁disorder	-10.5793
▁truck	-10.5793
▁functions	-10.58
▁entrepreneurs	-10.5811
▁dancing	-10.5811
▁murder	-10.5811
▁psychologist	-10.5811
▁Everybody	-10.5811
▁golf	-10.5812
▁fluid	-10.5815
▁pile	-10.582
▁invite	-10.5837
▁conversations	-10.585
▁senses	-10.5866
▁globe	-10.5867
▁unexpected	-10.5867
▁Children	-10.5867
▁Jesus	-10.5867
Sahara	-10.5868
▁poster	-10.5869
▁Rome	-10.5876
▁cute	-10.5879
read	-10.5886
▁extend	-10.5894
ya	-10.5903
▁trans	-10.5912
ew	-10.5923
▁vessels	-10.5923
▁library	-10.5924
▁motivate	-10.5924
▁pan	-10.5925
▁dropped	-10.5927
▁acid	-10.5929
▁Four	-10.5929
▁scary	-10.5936
▁normally	-10.5942
▁lion	-10.5956
▁seriously	-10.5959
▁expert	-10.5968
▁rocks	-10.5972
▁Gene	-10.5973
▁Israeli	-10.5978
▁polio	-10.5981
▁flew	-10.5982
▁hungry	-10.5982
▁reached	-10.5984
Hey	-10.5988
▁discuss	-10.5995
tech	-10.6002
▁Part	-10.6002
maker	-10.6004
▁storm	-10.6027
▁elephant	-10.6028
▁situations	-10.6028
▁lung	-10.6029
▁colony	-10.6039
▁recognition	-10.6039
▁Video	-10.6039
▁parallel	-10.6039
▁reserve	-10.6039
▁Eastern	-10.6039
▁Design	-10.6039
▁outcomes	-10.6044
dia	-10.6054
▁shell	-10.6055
tract	-10.6065
▁photographer	-10.6069
win	-10.6073
▁Tim	-10.6085
▁compete	-10.6096
▁Three	-10.6097
▁Bangladesh	-10.6097
▁judgment	-10.6097
▁laboratory	-10.6097
▁pregnant	-10.6097
▁Soviet	-10.6097
▁sail	-10.6097
▁pet	-10.6098
▁Long	-10.6098
ote	-10.6103
▁stayed	-10.6109
▁fixed	-10.6113
▁Tri	-10.6133
▁crying	-10.6139
▁ears	-10.6155
▁Norway	-10.6155
▁activist	-10.6155
▁worm	-10.6155
▁depth	-10.6155
▁spiritual	-10.6155
▁occurred	-10.6156
▁upset	-10.616
▁existing	-10.6161
▁compar	-10.6162
▁Love	-10.6162
j	-10.617
life	-10.6179
rid	-10.6186
▁sensitive	-10.6191
▁mammals	-10.6196
▁combined	-10.6198
▁drives	-10.6204
ference	-10.6206
▁neighbor	-10.6207
▁Does	-10.6209
▁conclude	-10.6213
▁democratic	-10.6213
▁heaven	-10.6213
▁obsessed	-10.6213
▁vertical	-10.6213
▁enemy	-10.6213
▁Court	-10.6213
▁Would	-10.6215
▁implications	-10.6224
▁percentage	-10.6227
▁wash	-10.6229
can	-10.623
Yes	-10.6235
▁privilege	-10.6241
ini	-10.6242
ene	-10.6242
▁aspect	-10.6245
▁driven	-10.6247
view	-10.6252
oe	-10.6256
▁painful	-10.6263
▁corals	-10.6268
▁largely	-10.6272
▁cyber	-10.6272
▁presence	-10.6272
▁Turkey	-10.6272
▁associated	-10.6283
▁pool	-10.6284
▁tech	-10.6284
▁tired	-10.6285
▁samples	-10.629
stream	-10.6291
▁proteins	-10.6296
▁unless	-10.6297
▁slum	-10.6305
▁solving	-10.6316
▁flowers	-10.6318
▁functional	-10.6326
▁courage	-10.633
ani	-10.633
▁LED	-10.6331
▁curiosity	-10.6331
▁economies	-10.6331
▁musical	-10.6339
uthern	-10.6342
▁inspire	-10.636
▁songs	-10.6364
arian	-10.6366
▁remains	-10.6375
▁Men	-10.6377
▁laughing	-10.6386
▁environments	-10.6389
▁whales	-10.6389
▁struck	-10.6391
ueen	-10.6391
▁footprint	-10.6391
▁Prize	-10.6392
▁tracking	-10.6395
▁males	-10.6399
▁hopefully	-10.6402
▁mate	-10.6407
▁Eric	-10.6414
▁Will	-10.6417
▁July	-10.6417
▁contribute	-10.6419
▁directions	-10.6427
▁Mac	-10.6434
▁economists	-10.6434
▁vaccines	-10.6439
▁arguments	-10.6443
▁Far	-10.6446
▁nano	-10.6447
▁hits	-10.6448
ography	-10.645
▁Cambridge	-10.6451
▁adventure	-10.6451
▁column	-10.6451
▁implement	-10.6451
▁miracle	-10.6451
▁barrier	-10.6451
▁regime	-10.6452
▁whale	-10.6452
▁march	-10.6454
lash	-10.6454
▁dust	-10.6461
▁instruments	-10.6474
▁Their	-10.648
▁lift	-10.6481
▁pushing	-10.6484
▁monkeys	-10.6486
teen	-10.6492
▁whom	-10.6493
ino	-10.6495
▁hasn	-10.6504
quest	-10.6508
▁obstacle	-10.6511
▁philosopher	-10.6511
▁implant	-10.6511
▁Derek	-10.6511
▁Italian	-10.6511
▁guard	-10.6511
▁shake	-10.6511
▁electronic	-10.6519
▁darkness	-10.6526
▁antibiotics	-10.6535
▁US	-10.6548
opt	-10.6558
oid	-10.656
▁Cal	-10.6569
▁army	-10.657
▁Everything	-10.6572
▁marine	-10.6572
▁novel	-10.6573
▁Lego	-10.6576
▁joined	-10.6586
▁inner	-10.66
▁penguins	-10.6601
▁signed	-10.6601
▁Mor	-10.6602
▁exam	-10.6609
▁missed	-10.661
▁fabric	-10.6623
▁liver	-10.6631
▁chocolate	-10.6632
▁identical	-10.6632
▁ceiling	-10.6632
▁extent	-10.6633
▁silent	-10.6633
▁greenhouse	-10.6634
▁download	-10.6637
▁algorithm	-10.664
▁attend	-10.6642
▁cable	-10.6646
▁bones	-10.6652
performing	-10.6653
▁dial	-10.6668
▁renewable	-10.6694
▁grave	-10.6694
▁minister	-10.6694
▁flood	-10.6694
▁pace	-10.6694
▁textbook	-10.6694
▁according	-10.6698
▁Chile	-10.6699
▁spinal	-10.6703
▁seek	-10.6703
▁defined	-10.6704
clock	-10.671
▁surrounded	-10.671
▁god	-10.6711
zo	-10.6715
▁rely	-10.672
▁names	-10.672
born	-10.6725
▁Pu	-10.6738
▁measured	-10.6739
ologists	-10.6741
war	-10.6743
cel	-10.6747
▁earthquake	-10.6756
▁emergency	-10.6756
▁FBI	-10.6756
▁blame	-10.6756
▁steal	-10.6756
▁optimistic	-10.6757
▁laser	-10.6757
▁trait	-10.6757
▁cash	-10.6758
▁expo	-10.6759
▁airport	-10.6759
▁apparently	-10.676
▁figures	-10.6761
▁salt	-10.6769
▁limits	-10.6776
▁rhythm	-10.6776
called	-10.6792
▁comic	-10.6795
▁destroyed	-10.6796
▁falling	-10.6797
▁burning	-10.6806
▁Home	-10.681
▁simplicity	-10.6818
▁suspect	-10.6818
▁mystery	-10.6818
▁plug	-10.6818
▁shelter	-10.6818
▁Other	-10.6822
▁standards	-10.6824
▁sustain	-10.6831
▁Bell	-10.6834
▁faced	-10.6834
▁volunteers	-10.6838
▁floating	-10.6839
▁Cor	-10.6844
▁pot	-10.6846
▁rescue	-10.6849
▁architects	-10.685
graphic	-10.6852
▁tests	-10.6862
▁parking	-10.6863
▁subjects	-10.6866
▁records	-10.6878
lies	-10.6878
▁Taliban	-10.688
▁crucial	-10.688
▁furniture	-10.688
▁medication	-10.688
▁philosophy	-10.688
▁strategies	-10.688
▁trigger	-10.688
▁Wait	-10.688
▁asset	-10.6889
▁pose	-10.689
▁Gore	-10.6893
▁consume	-10.6897
▁spin	-10.691
▁edit	-10.6916
generated	-10.692
▁automatically	-10.6943
▁plenty	-10.6943
▁Spain	-10.6943
▁Open	-10.6943
▁wings	-10.6945
▁boss	-10.6948
foot	-10.6953
play	-10.6954
▁objective	-10.6955
That	-10.6957
▁personality	-10.696
▁Hill	-10.6963
▁continued	-10.6966
round	-10.699
▁sandwich	-10.7006
▁suicide	-10.7006
▁Blue	-10.7006
▁chaos	-10.7007
▁tuna	-10.7007
face	-10.7008
▁ticket	-10.7008
▁symmetry	-10.7013
▁Last	-10.7013
▁hip	-10.7014
▁toward	-10.7019
part	-10.7024
▁roads	-10.7034
class	-10.7036
▁units	-10.7065
▁savings	-10.7065
▁Beijing	-10.707
▁Gandhi	-10.707
▁proportion	-10.707
▁reduction	-10.707
▁uncomfortable	-10.707
▁dignity	-10.707
▁insurance	-10.707
▁Brian	-10.707
▁Saturn	-10.707
▁orange	-10.7071
▁productivity	-10.7071
▁queen	-10.7071
▁gray	-10.7073
▁engagement	-10.7076
▁disorders	-10.709
American	-10.7093
▁scar	-10.71
▁shooting	-10.7123
▁narrow	-10.7134
▁Church	-10.7134
▁measuring	-10.7134
▁skull	-10.7134
▁bra	-10.7135
▁sheep	-10.7135
▁pretend	-10.7135
▁hunger	-10.7139
▁tricks	-10.714
▁upper	-10.714
▁electron	-10.7148
▁recovery	-10.7151
bot	-10.7158
▁sir	-10.7158
vy	-10.7161
▁Korean	-10.7166
▁controlled	-10.7183
▁rough	-10.7184
▁films	-10.7185
▁extinct	-10.7192
▁romantic	-10.7199
▁simulation	-10.7199
▁defend	-10.7199
▁frog	-10.7199
▁entertainment	-10.72
▁classic	-10.72
▁spreading	-10.7201
▁Republican	-10.7201
▁trace	-10.7201
▁heroes	-10.7209
▁granted	-10.7212
▁brave	-10.7214
▁distributed	-10.7215
▁Mike	-10.7221
▁aim	-10.7233
▁promote	-10.7234
cker	-10.7235
▁gate	-10.7238
pound	-10.7241
▁corn	-10.7243
▁seeds	-10.7257
▁Ford	-10.726
▁Friday	-10.7264
▁diabetes	-10.7264
▁transparency	-10.7264
▁cousin	-10.7264
▁Play	-10.7264
▁Moore	-10.7264
▁demographic	-10.7264
▁Tra	-10.7265
▁usual	-10.7267
▁Homo	-10.7271
▁achieved	-10.7272
drawn	-10.7275
▁clouds	-10.7279
▁formula	-10.7286
▁transplant	-10.7288
▁cheaper	-10.7293
▁interactions	-10.7301
serving	-10.7304
▁custom	-10.7311
▁suggests	-10.7323
metric	-10.7328
▁engaging	-10.7329
▁mushroom	-10.7329
▁stroke	-10.7329
▁Brown	-10.7329
▁norm	-10.7337
▁properly	-10.7341
▁plans	-10.7351
▁stake	-10.7351
▁Moon	-10.7352
roa	-10.7358
shaped	-10.7361
oma	-10.7364
▁villages	-10.7376
▁Sal	-10.7379
dom	-10.7383
▁Gabby	-10.7395
▁asteroid	-10.7395
▁causing	-10.7395
▁cooperation	-10.7395
▁description	-10.7395
▁skeleton	-10.7395
▁transformed	-10.74
▁Walk	-10.7401
▁laughter	-10.7401
funded	-10.7408
▁linked	-10.741
▁controlling	-10.7413
allowing	-10.7413
▁tower	-10.7413
▁port	-10.7417
▁conventional	-10.7421
▁component	-10.7427
▁Steven	-10.7429
▁Hall	-10.7438
mination	-10.7446
▁charity	-10.7461
▁defense	-10.7461
▁domestic	-10.7461
▁facial	-10.7461
▁oxytocin	-10.7461
▁gesture	-10.7461
▁knock	-10.7461
▁compound	-10.7461
▁Albert	-10.7461
▁dramatically	-10.7463
▁precisely	-10.7472
▁sales	-10.7478
▁mentor	-10.7486
▁citizen	-10.7495
▁nurse	-10.7495
▁feeding	-10.751
▁hire	-10.7516
▁disappeared	-10.7524
▁Tanzania	-10.7528
▁intuitive	-10.7528
▁pyramid	-10.7528
▁ridiculous	-10.7528
▁hardware	-10.7528
▁request	-10.7531
▁offered	-10.7532
▁youth	-10.7533
▁Wal	-10.7535
▁Islands	-10.7542
▁hyper	-10.755
▁hadn	-10.7557
▁Scott	-10.7561
▁empower	-10.7562
▁weapon	-10.7565
pper	-10.7565
▁Pan	-10.7574
construct	-10.7589
▁transfer	-10.7595
▁Silicon	-10.7595
▁intuition	-10.7595
▁origami	-10.7595
▁carried	-10.7595
▁Mountain	-10.7595
▁Jeff	-10.7595
▁consistent	-10.7596
▁chest	-10.7599
▁mega	-10.7601
▁raw	-10.7602
friendly	-10.7606
In	-10.7619
ix	-10.7622
▁demonstrate	-10.7643
▁incentives	-10.7646
▁meetings	-10.7649
ball	-10.7655
▁maker	-10.7658
▁correspond	-10.7662
▁mutation	-10.7662
▁obesity	-10.7662
▁orchestra	-10.7662
▁procedure	-10.7662
▁whistle	-10.7662
Please	-10.7662
▁Alexander	-10.7662
▁stack	-10.7663
▁domain	-10.7663
▁overcome	-10.7664
▁ugly	-10.7666
▁Could	-10.7668
▁interactive	-10.7669
▁Newton	-10.7673
▁leak	-10.7682
dor	-10.7685
▁killer	-10.769
▁behavioral	-10.7693
hour	-10.77
▁hat	-10.7702
▁globally	-10.7704
▁educational	-10.7708
▁pie	-10.7714
▁Real	-10.7729
▁exploring	-10.773
▁recruit	-10.773
▁universities	-10.773
▁wheelchair	-10.773
ville	-10.773
▁vital	-10.7731
▁debt	-10.7731
▁subtle	-10.7731
▁household	-10.7732
▁fool	-10.7734
▁fascinated	-10.7734
▁magnetic	-10.7735
▁Ray	-10.7737
▁donor	-10.7739
▁alter	-10.7746
▁Listen	-10.7747
key	-10.7748
▁mill	-10.7749
▁Kar	-10.7771
▁Come	-10.7776
▁brothers	-10.7782
power	-10.7794
bel	-10.7798
▁Com	-10.7798
▁Afghan	-10.7799
▁November	-10.7799
▁Professor	-10.7799
▁drove	-10.7799
▁recommend	-10.7799
▁scratch	-10.7799
▁survivor	-10.7799
▁legacy	-10.7799
▁sensation	-10.7799
▁appeal	-10.7799
▁isolated	-10.7799
▁committed	-10.78
▁quit	-10.7802
▁dirty	-10.7805
unk	-10.7809
▁arch	-10.7834
▁volunteer	-10.7845
▁removed	-10.7851
▁muscles	-10.7853
▁involves	-10.7854
▁rush	-10.7859
▁touched	-10.7861
▁represented	-10.7867
▁breakthrough	-10.7868
▁vegetable	-10.7868
▁bulb	-10.7868
▁Dutch	-10.7868
▁density	-10.7868
▁elite	-10.7869
▁backwards	-10.7869
▁leap	-10.787
▁Since	-10.787
▁lamp	-10.7873
▁coach	-10.7878
▁Stop	-10.7883
syn	-10.7885
▁oldest	-10.7895
▁pad	-10.7898
▁tears	-10.7898
▁crops	-10.7921
▁Pen	-10.7929
▁exploit	-10.7933
ean	-10.7935
▁Arctic	-10.7937
▁Shanghai	-10.7937
▁wrap	-10.7937
▁slavery	-10.7939
roll	-10.7941
▁actor	-10.7947
▁stations	-10.7952
▁tight	-10.7954
▁capita	-10.7955
ith	-10.7956
ette	-10.7958
▁till	-10.796
▁wage	-10.7961
▁rebuild	-10.7975
▁gather	-10.7984
ese	-10.7991
▁former	-10.7992
stone	-10.7995
MT	-10.7997
▁speaker	-10.8004
▁tasks	-10.8005
neutral	-10.8007
▁corporate	-10.8007
▁strike	-10.8007
▁Delhi	-10.8007
▁disgust	-10.8007
▁relax	-10.8007
▁preserve	-10.8007
▁Henry	-10.8007
▁partnership	-10.8008
▁Santa	-10.802
▁lungs	-10.802
▁luck	-10.8021
▁clients	-10.8023
▁imagined	-10.8036
▁relatively	-10.8037
plan	-10.8052
▁interestingly	-10.8052
ush	-10.8055
gal	-10.8056
don	-10.8057
▁consumers	-10.806
▁provided	-10.8072
▁Minister	-10.8078
▁Swiss	-10.8078
▁regulation	-10.8078
▁senior	-10.8078
▁shrimp	-10.8078
▁sketch	-10.8078
▁profile	-10.8078
▁smooth	-10.8078
▁naked	-10.8078
▁robust	-10.8078
▁theories	-10.8079
▁demonstration	-10.8079
▁neck	-10.8079
▁spill	-10.8084
▁aspects	-10.8085
▁BG	-10.8093
▁poorest	-10.8096
▁presented	-10.8096
▁paintings	-10.8097
active	-10.8101
▁methods	-10.8101
▁lovely	-10.811
▁bother	-10.8118
▁cart	-10.812
second	-10.812
▁surely	-10.8123
word	-10.8127
▁slides	-10.813
not	-10.8132
▁victim	-10.8134
▁bow	-10.8145
▁instinct	-10.8148
▁Bronx	-10.8148
▁Council	-10.8148
▁advertising	-10.8148
▁agencies	-10.8148
▁guarantee	-10.8148
▁passenger	-10.8148
▁transparent	-10.8148
▁mood	-10.8149
ealand	-10.8149
▁sauce	-10.8149
▁Army	-10.815
▁Asian	-10.8151
▁Iranian	-10.8153
▁icon	-10.8153
▁Yet	-10.8158
▁Rock	-10.816
Y	-10.8166
▁anxiety	-10.8175
hen	-10.8176
unta	-10.818
▁sisters	-10.8189
▁arrive	-10.8189
▁rope	-10.8192
▁bend	-10.8204
▁Vietnam	-10.822
▁dictionary	-10.822
▁dioxide	-10.822
▁ignorance	-10.822
▁inspiring	-10.822
▁rainforest	-10.822
▁expectations	-10.822
▁programming	-10.8221
▁Anyway	-10.8221
▁Lord	-10.8223
▁aircraft	-10.8223
▁ban	-10.8226
▁circles	-10.8227
▁drinking	-10.8228
iness	-10.8232
▁mold	-10.8234
▁collecting	-10.8237
▁package	-10.8246
▁toys	-10.8248
▁trends	-10.8257
▁divided	-10.8264
▁strangers	-10.8265
▁dozen	-10.8282
book	-10.8289
▁candidate	-10.8292
▁glacier	-10.8292
▁recipe	-10.8292
▁external	-10.8292
▁Ladies	-10.8292
▁diverse	-10.8292
▁baseball	-10.8292
▁brown	-10.8293
▁Coke	-10.8296
▁achievement	-10.8299
ney	-10.83
▁affordable	-10.8301
▁representation	-10.8301
▁layers	-10.8338
level	-10.8356
▁Indonesia	-10.8364
▁calculation	-10.8364
▁vacuum	-10.8364
▁smoking	-10.8364
▁persist	-10.8366
▁gear	-10.8368
▁Str	-10.8368
run	-10.8372
load	-10.838
▁chosen	-10.8381
▁Ch	-10.8397
▁banks	-10.8417
▁printed	-10.8424
▁illustrate	-10.8424
▁appeared	-10.8426
▁connecting	-10.8426
▁marker	-10.8434
▁occasion	-10.8435
▁Nelson	-10.8437
▁Yemen	-10.8437
▁absorb	-10.8437
▁confident	-10.8437
▁immune	-10.8437
▁permission	-10.8437
▁underground	-10.8437
▁depressed	-10.8437
▁neuroscience	-10.8437
▁Northern	-10.8437
▁garage	-10.8438
▁refugees	-10.8441
▁neuron	-10.8447
▁elephants	-10.8451
▁rating	-10.8453
He	-10.846
▁nurses	-10.8473
▁semi	-10.8475
▁traveled	-10.8487
▁refugee	-10.8507
▁passwords	-10.8509
free	-10.851
competitive	-10.8511
frequency	-10.8511
▁Hawaii	-10.8511
▁Saturday	-10.8511
▁definitely	-10.8511
▁essence	-10.8511
▁grandchildren	-10.8511
▁surveillance	-10.8511
▁unbelievable	-10.8511
▁federal	-10.8511
▁stretch	-10.8512
▁bullet	-10.8513
▁keyboard	-10.8513
▁Johnson	-10.8516
▁Nick	-10.8517
▁interacting	-10.8528
▁dolphins	-10.8546
▁farmer	-10.8552
▁uncle	-10.8563
▁recognized	-10.8566
iff	-10.8566
▁richer	-10.8567
▁tribes	-10.8575
▁dinosaur	-10.8583
▁hydro	-10.8584
▁chief	-10.8585
▁district	-10.8585
▁helicopter	-10.8585
▁Watch	-10.8585
▁embedded	-10.8585
▁boundaries	-10.8585
▁dish	-10.8585
▁injury	-10.8585
▁borrow	-10.8585
▁governance	-10.8586
▁Saudi	-10.8586
▁kiss	-10.8588
▁attractive	-10.8588
▁accessible	-10.8589
▁pink	-10.8594
▁delight	-10.8595
▁Ken	-10.8602
▁Howard	-10.8603
▁pushed	-10.8609
▁practices	-10.8609
▁beliefs	-10.8622
▁tick	-10.8626
AT	-10.8636
▁however	-10.8638
udi	-10.8655
▁Technology	-10.866
▁initiative	-10.866
▁mechanics	-10.866
▁smallpox	-10.866
▁tragedy	-10.866
▁algae	-10.866
▁fortune	-10.866
▁Koran	-10.8661
▁Indus	-10.8662
▁Alex	-10.8663
▁dump	-10.8664
▁Brazilian	-10.8666
▁settle	-10.8666
▁twin	-10.8667
▁accepted	-10.8668
▁latest	-10.8668
▁rising	-10.8669
▁Je	-10.8669
▁Gold	-10.8675
▁slice	-10.8681
▁flo	-10.8687
▁calculate	-10.8703
aph	-10.8717
▁entered	-10.8719
▁magical	-10.8724
tail	-10.8728
town	-10.873
▁reputation	-10.8735
▁searching	-10.8735
take	-10.8736
▁spark	-10.8736
▁particle	-10.8738
hil	-10.874
▁Six	-10.8748
▁ingredients	-10.875
hold	-10.8754
▁coat	-10.8769
▁virtually	-10.8774
▁parties	-10.8785
▁ethical	-10.8791
▁resist	-10.8796
▁commit	-10.8806
▁Eve	-10.8808
▁Jordan	-10.881
▁Leonardo	-10.881
▁Palestinian	-10.881
▁adjust	-10.881
▁happier	-10.881
▁concert	-10.8811
▁acknowledge	-10.8811
▁beetle	-10.8811
▁Andrew	-10.8814
▁tri	-10.8818
▁Min	-10.8819
bro	-10.882
▁investing	-10.8823
▁integrated	-10.8825
▁replicate	-10.8838
▁opera	-10.8838
away	-10.8839
▁thrown	-10.8845
▁Yu	-10.8855
tub	-10.8863
▁computation	-10.8864
▁captured	-10.8873
▁windows	-10.8875
▁Lincoln	-10.8887
▁Suddenly	-10.8887
▁TEDTalk	-10.8887
▁contribution	-10.8887
▁frozen	-10.8887
▁liberal	-10.8887
▁spectacular	-10.8887
▁alarm	-10.8887
▁conservative	-10.8887
▁Carolina	-10.8887
gin	-10.8892
▁dedicated	-10.8893
▁fur	-10.8894
▁efforts	-10.8897
▁helpful	-10.8898
▁briefly	-10.89
cellular	-10.8905
▁ecosystems	-10.8907
▁attached	-10.8914
▁actors	-10.8915
hoo	-10.8927
▁soap	-10.8928
▁terrorists	-10.894
oil	-10.894
erial	-10.8942
ologist	-10.8952
▁inventor	-10.8953
▁chimpanzees	-10.8957
▁Neanderthal	-10.8964
▁Seattle	-10.8964
▁System	-10.8964
▁abilities	-10.8964
▁disagree	-10.8964
▁explosion	-10.8964
▁hypothesis	-10.8964
▁resolve	-10.8964
▁transmission	-10.8964
▁pause	-10.8964
▁bathroom	-10.8964
▁sharp	-10.8965
▁scanner	-10.8965
▁convey	-10.8966
▁Ireland	-10.8966
▁Stone	-10.8967
▁discoveries	-10.8969
door	-10.8972
▁tribe	-10.8976
▁output	-10.8978
▁highway	-10.8979
aged	-10.898
▁neighborhoods	-10.8989
▁Syria	-10.8995
▁reaching	-10.8995
▁reefs	-10.9005
▁gam	-10.9016
▁focusing	-10.9017
▁relations	-10.9019
▁iron	-10.9023
▁conduct	-10.9024
▁Ku	-10.9025
▁protecting	-10.903
▁addict	-10.9037
▁psycho	-10.9041
▁Switzerland	-10.9041
▁explode	-10.9041
▁facility	-10.9041
▁poison	-10.9041
▁Doctor	-10.9041
▁Peace	-10.9041
▁sacred	-10.9041
▁watt	-10.9041
ological	-10.9044
▁Any	-10.9046
▁mindset	-10.905
▁consequence	-10.9054
▁colleague	-10.9054
▁pole	-10.9058
▁projection	-10.9072
▁rent	-10.9078
▁participants	-10.9083
elect	-10.9092
▁dancer	-10.9107
▁Brad	-10.9108
made	-10.9117
▁transmit	-10.9119
▁Jupiter	-10.9119
▁alcohol	-10.9119
▁biodiversity	-10.9119
▁vagina	-10.9119
▁twist	-10.9119
▁Social	-10.912
▁sensor	-10.9121
▁locked	-10.9126
▁Stage	-10.9127
▁extinction	-10.9128
bon	-10.9136
▁roots	-10.9146
▁autonomous	-10.9147
▁mall	-10.9148
tale	-10.9148
get	-10.9149
▁seats	-10.9152
▁symbols	-10.9157
CA	-10.9167
bid	-10.9168
▁dear	-10.9175
▁mono	-10.918
Look	-10.9182
▁interpret	-10.9194
assemble	-10.9196
fusion	-10.9197
▁April	-10.9198
▁Perhaps	-10.9198
▁comparison	-10.9198
▁pandemic	-10.9198
▁tragic	-10.9198
▁translation	-10.9198
▁whatsoever	-10.9198
▁Brooklyn	-10.9198
▁While	-10.9198
▁agency	-10.9198
▁mimic	-10.9198
▁Christ	-10.9199
▁assignment	-10.92
▁Nike	-10.92
▁leverage	-10.9203
list	-10.9207
▁exposed	-10.921
▁journal	-10.9214
▁editor	-10.9215
▁sport	-10.9216
▁visited	-10.9223
▁slip	-10.9225
third	-10.9226
▁ratio	-10.923
gras	-10.9233
▁Nigerian	-10.9248
▁Chi	-10.9256
▁characteristics	-10.9265
▁smarter	-10.927
▁Hans	-10.9274
▁Abraham	-10.9277
▁variable	-10.9277
▁Mandela	-10.9278
▁glad	-10.9278
▁Brother	-10.9278
▁Kevin	-10.9278
▁football	-10.9278
▁marry	-10.9278
▁Media	-10.9279
▁crap	-10.9285
▁ought	-10.9285
▁tent	-10.9285
▁warning	-10.9287
▁failing	-10.9292
▁tension	-10.9296
▁linear	-10.9317
▁speakers	-10.9335
▁Ron	-10.9337
mus	-10.9346
▁historical	-10.9347
▁suggesting	-10.9352
▁terror	-10.9353
▁excuse	-10.9358
▁inevitable	-10.9358
▁routine	-10.9358
▁tunnel	-10.9358
▁combat	-10.9358
▁smartphone	-10.9358
▁bucks	-10.9358
▁capability	-10.9359
▁kidney	-10.9359
▁County	-10.9363
▁synthetic	-10.9363
▁Tony	-10.9366
rand	-10.938
▁relation	-10.938
▁nets	-10.9384
▁teenagers	-10.9384
here	-10.9391
▁instructions	-10.9392
ridge	-10.9413
▁hackers	-10.9413
▁Han	-10.9414
▁drivers	-10.9414
▁magnet	-10.9433
▁horizon	-10.9436
▁Atlanta	-10.9438
▁Industrial	-10.9438
▁dialogue	-10.9438
▁diamond	-10.9438
▁dominant	-10.9438
▁struggling	-10.9438
▁Pretty	-10.9438
▁Iceland	-10.9438
▁copyright	-10.9439
▁Also	-10.9439
▁bored	-10.9439
▁Nobody	-10.944
▁array	-10.944
▁PMS	-10.9442
▁profession	-10.9444
▁painted	-10.9446
▁lighting	-10.9447
▁Roman	-10.9449
▁globalization	-10.9449
▁dimension	-10.9456
▁rot	-10.9457
▁artistic	-10.946
heart	-10.9461
▁reactor	-10.9462
▁informed	-10.9465
▁terrorist	-10.9466
▁rarely	-10.9471
▁bath	-10.9475
▁prediction	-10.9478
▁gases	-10.948
▁photography	-10.9488
hrew	-10.9494
▁insist	-10.9501
▁Kh	-10.9516
▁Bruno	-10.9519
▁confirm	-10.9519
▁resilience	-10.9519
▁forgotten	-10.9519
▁plain	-10.9519
▁triangle	-10.952
▁spell	-10.952
▁Work	-10.952
▁bump	-10.9521
ken	-10.9526
tories	-10.9535
▁format	-10.9538
▁spoken	-10.9544
▁Ham	-10.9552
▁elections	-10.9553
▁grad	-10.9568
▁biologists	-10.9569
▁sacrifice	-10.9572
vision	-10.9575
▁trauma	-10.9589
▁realm	-10.959
▁experimental	-10.9597
▁delivered	-10.9601
▁Aristotle	-10.9601
▁Catholic	-10.9601
▁category	-10.9601
▁participation	-10.9601
▁signature	-10.9601
▁pigeon	-10.9601
▁pursue	-10.9601
▁concentration	-10.9602
▁silly	-10.9602
▁investors	-10.9604
▁Argentina	-10.9604
▁neat	-10.9604
▁USA	-10.9607
▁dynamics	-10.9612
▁manual	-10.9613
interest	-10.9614
▁suggestion	-10.9624
▁surrounding	-10.9628
▁observe	-10.963
▁insect	-10.9633
▁appreciate	-10.9633
▁Carl	-10.9644
▁fee	-10.9648
▁reported	-10.9651
▁breaking	-10.9663
▁served	-10.9673
▁answered	-10.9673
▁Feynman	-10.9684
▁fragile	-10.9684
▁frustrated	-10.9684
▁yield	-10.9684
fifth	-10.9684
▁cheese	-10.9684
▁identified	-10.9685
▁connectivity	-10.9685
▁pathway	-10.9688
▁tune	-10.969
▁Lake	-10.969
▁Rick	-10.9691
gro	-10.9691
▁rice	-10.9691
▁jet	-10.9692
▁laid	-10.9692
▁confused	-10.9693
▁shit	-10.9695
resistant	-10.97
dollar	-10.9704
▁camel	-10.9706
▁tied	-10.971
▁soldier	-10.972
▁surprisingly	-10.9722
▁urge	-10.9728
▁shocked	-10.9732
▁honestly	-10.9735
▁Shi	-10.9741
▁Five	-10.9742
▁approaches	-10.9743
▁hanging	-10.9757
phy	-10.9764
lia	-10.9766
▁nutrition	-10.9767
▁tongue	-10.9767
▁distant	-10.9767
▁IBM	-10.9768
▁cop	-10.9771
▁reconstruct	-10.9771
▁footage	-10.9776
uch	-10.9781
▁strand	-10.9788
treating	-10.9788
▁PM	-10.9788
wood	-10.9797
yard	-10.9798
▁Force	-10.9808
▁bats	-10.9822
▁predictions	-10.9827
ancy	-10.9843
▁electronics	-10.9847
▁College	-10.9851
▁Singapore	-10.9851
▁Watson	-10.9851
▁accelerate	-10.9851
▁cliff	-10.9851
▁fought	-10.9851
▁glamorous	-10.9851
▁optimism	-10.9851
▁probability	-10.9851
▁neural	-10.9851
▁Louis	-10.9852
▁substance	-10.9852
▁mask	-10.9853
▁cake	-10.9855
▁installation	-10.9855
▁stable	-10.9856
▁Jones	-10.9859
▁homework	-10.9861
▁nowhere	-10.9862
▁diagnosed	-10.9867
▁reduced	-10.9868
▁ethic	-10.9873
▁imagery	-10.9873
▁arrested	-10.9874
▁predicted	-10.9886
▁egg	-10.9891
▁reef	-10.9891
print	-10.9893
aeda	-10.9899
▁sink	-10.9901
▁reject	-10.9911
▁safer	-10.9916
▁initial	-10.992
▁picking	-10.9923
▁rotate	-10.9923
▁pulling	-10.9925
▁Detroit	-10.9936
▁Monterey	-10.9936
▁Unfortunately	-10.9936
▁aesthetic	-10.9936
▁arrow	-10.9936
▁destiny	-10.9936
▁fabulous	-10.9936
▁simulate	-10.9936
▁ethnic	-10.9936
▁render	-10.9936
▁uncertainty	-10.9937
▁condom	-10.9938
▁duck	-10.9939
▁grasp	-10.994
▁stranger	-10.9943
pping	-10.9946
▁cartoons	-10.9963
▁Rob	-10.9969
▁musicians	-10.9971
▁panels	-10.9974
▁quo	-10.9977
▁originally	-10.999
▁spec	-10.9994
illa	-10.9998
▁Only	-11.0015
▁manipulate	-11.0018
▁separated	-11.0021
▁Copenhagen	-11.0022
▁Lebanon	-11.0022
▁Mexican	-11.0022
▁anonymous	-11.0022
▁anticipate	-11.0022
▁astonishing	-11.0022
▁drift	-11.0022
▁fragment	-11.0022
▁impression	-11.0022
▁industries	-11.0022
▁paralyzed	-11.0022
▁primitive	-11.0022
▁ensure	-11.0022
▁methane	-11.0022
▁Half	-11.0022
▁devil	-11.0022
▁crystal	-11.0022
▁landed	-11.0022
▁kingdom	-11.0022
▁shopping	-11.0023
▁Hong	-11.0025
▁winner	-11.0025
▁drum	-11.0026
▁restore	-11.003
▁highlight	-11.0035
▁inches	-11.0039
▁glasses	-11.0051
rich	-11.0056
▁dolphin	-11.0067
▁poly	-11.007
related	-11.0076
▁attach	-11.0079
lop	-11.0082
▁Ear	-11.0092
▁assumptions	-11.0093
▁medi	-11.0101
▁paradox	-11.0108
▁Government	-11.0108
▁Telescope	-11.0108
▁automobile	-11.0108
▁colonies	-11.0108
▁pizza	-11.0108
▁prosperity	-11.0108
▁Redwood	-11.0108
▁begun	-11.0108
▁clay	-11.011
▁constructed	-11.0111
▁proper	-11.012
▁sensory	-11.0122
▁freak	-11.0125
▁Rand	-11.0129
▁passing	-11.013
▁overall	-11.0131
▁trucks	-11.0135
▁verb	-11.014
put	-11.0151
oon	-11.0157
Be	-11.0158
▁panel	-11.0162
▁electro	-11.0169
▁crossing	-11.0171
▁kilo	-11.0192
▁Twenty	-11.0195
▁Benjamin	-11.0195
▁DVD	-11.0195
▁SETI	-11.0195
▁Shakespeare	-11.0195
▁bizarre	-11.0195
▁contrary	-11.0195
▁decrease	-11.0195
▁expansion	-11.0195
▁hemisphere	-11.0195
▁somewhat	-11.0195
▁tackle	-11.0195
▁Coast	-11.0195
▁flexible	-11.0195
▁bask	-11.0197
▁opposed	-11.0206
rated	-11.0208
▁soup	-11.0209
▁vent	-11.0219
▁Matt	-11.0225
▁gods	-11.0232
▁difficulty	-11.0233
▁Free	-11.0234
▁sleeping	-11.0235
▁prisoners	-11.0248
▁nor	-11.0257
▁fortunate	-11.0266
Yeah	-11.0266
▁rapid	-11.0267
▁Ted	-11.0269
▁goat	-11.027
▁musician	-11.0271
▁branch	-11.0274
▁regard	-11.0281
▁Parkinson	-11.0283
▁aggressive	-11.0283
▁expedition	-11.0283
▁fraction	-11.0283
▁gradually	-11.0283
▁threshold	-11.0283
▁vulnerability	-11.0283
▁Berlin	-11.0283
▁northern	-11.0283
▁Spring	-11.0283
▁damn	-11.0283
▁Geographic	-11.0283
▁partly	-11.0283
▁surf	-11.0284
lethal	-11.0286
▁Light	-11.0287
▁bull	-11.0291
▁healthier	-11.0291
▁Show	-11.0291
▁selfish	-11.0294
▁fortunately	-11.0299
▁Was	-11.0303
now	-11.0304
▁pour	-11.0304
▁Medic	-11.0318
▁irre	-11.0327
▁Dur	-11.0329
▁navigate	-11.0333
▁tear	-11.0338
▁Mont	-11.0342
▁wired	-11.0359
century	-11.0363
zing	-11.0367
▁Before	-11.0371
▁qualities	-11.0371
▁Daniel	-11.0371
▁tweet	-11.0371
▁dumb	-11.0371
▁Something	-11.0371
▁spray	-11.0371
▁flaw	-11.0372
▁intersection	-11.0374
▁Abou	-11.0377
organizing	-11.0382
▁additional	-11.0388
▁clothing	-11.0393
▁campus	-11.0393
▁radically	-11.0402
SA	-11.0445
▁dose	-11.0454
▁employ	-11.0457
▁invested	-11.0459
▁Apollo	-11.046
▁Bhutan	-11.046
▁Pennsylvania	-11.046
▁capabilities	-11.046
▁civic	-11.046
▁experiencing	-11.046
▁Disney	-11.046
▁Sarah	-11.046
▁welcome	-11.046
▁supermarket	-11.0461
▁broadcast	-11.0461
▁forgot	-11.0462
▁rod	-11.0465
▁portion	-11.0471
▁mathematicians	-11.0471
▁analogy	-11.0471
▁announced	-11.0481
▁someday	-11.0483
▁detector	-11.0491
▁proposed	-11.0491
▁squa	-11.0493
uous	-11.0494
▁hum	-11.0512
ola	-11.0514
▁Get	-11.0514
▁propose	-11.0519
▁burned	-11.0523
▁teenager	-11.053
▁suggested	-11.0532
▁bang	-11.0536
ku	-11.0539
▁server	-11.0542
▁boo	-11.0543
▁expanding	-11.0547
▁Clinton	-11.055
▁Greece	-11.055
▁enhance	-11.055
▁fraud	-11.055
▁burst	-11.055
▁valley	-11.0551
▁Stephen	-11.0551
▁geek	-11.0551
▁shout	-11.0551
atomic	-11.0551
▁NSA	-11.0552
▁Year	-11.0552
▁disability	-11.0555
▁dozens	-11.0564
▁fastest	-11.0569
▁joint	-11.0588
volt	-11.0592
▁arise	-11.0593
trapped	-11.06
new	-11.0601
▁washing	-11.061
ifying	-11.0625
▁Australian	-11.0629
▁reminded	-11.0637
▁Cro	-11.064
▁Mumbai	-11.0641
▁Society	-11.0641
▁pulse	-11.0641
▁creator	-11.0641
▁audio	-11.0642
▁collaborative	-11.0642
▁imaging	-11.0642
▁Virginia	-11.0642
▁binary	-11.0643
▁Kong	-11.0643
▁primate	-11.0643
▁Nav	-11.0643
▁appearance	-11.0644
▁boil	-11.0645
▁interpretation	-11.0646
▁climbing	-11.0648
▁passive	-11.0649
▁emit	-11.065
▁logo	-11.0664
▁tele	-11.0665
▁Lot	-11.0668
▁deck	-11.0672
▁Ram	-11.068
▁returned	-11.0685
▁disconnect	-11.0691
▁openness	-11.0692
fold	-11.0696
▁fate	-11.0697
▁determined	-11.0705
▁fed	-11.0718
▁east	-11.0733
assembly	-11.0733
▁Berkeley	-11.0733
▁FDA	-11.0733
▁elderly	-11.0733
▁screw	-11.0733
▁shrink	-11.0733
▁pride	-11.0733
▁History	-11.0733
▁marketplace	-11.0736
▁whi	-11.0737
▁nutrients	-11.0739
▁weekend	-11.074
▁chat	-11.0748
▁golden	-11.0749
▁mayor	-11.0752
▁recall	-11.0774
engineer	-11.0785
▁Comp	-11.0799
▁quad	-11.08
bert	-11.0801
▁client	-11.0805
My	-11.0815
version	-11.082
▁slave	-11.0824
sufficient	-11.0826
▁Philadelphia	-11.0826
▁drought	-11.0826
▁phantom	-11.0826
▁register	-11.0826
▁Milk	-11.0826
▁stunt	-11.0826
▁Water	-11.0826
▁Jews	-11.0826
▁nuts	-11.0826
▁fence	-11.0826
▁infant	-11.0826
▁simultaneously	-11.0828
▁Everyone	-11.0828
ggle	-11.0829
▁overwhelming	-11.0832
▁Camp	-11.0834
fuel	-11.0836
▁initially	-11.0843
▁morality	-11.0844
friend	-11.0846
style	-11.085
▁Bali	-11.085
▁adopted	-11.0854
uh	-11.0856
Okay	-11.0857
▁publish	-11.0866
▁viewer	-11.0867
worth	-11.087
▁survived	-11.0874
ada	-11.0874
▁fulfill	-11.088
▁panic	-11.0884
▁Mill	-11.0887
lick	-11.0897
person	-11.0902
▁precise	-11.0903
Go	-11.0904
▁wipe	-11.0905
ographic	-11.0916
▁diploma	-11.0918
▁shall	-11.0919
▁Security	-11.0919
▁Supreme	-11.0919
▁blah	-11.0919
▁cigarette	-11.0919
▁closing	-11.0919
▁genocide	-11.0919
▁matrix	-11.0919
▁minimum	-11.0919
▁Georgia	-11.0919
▁generous	-11.0919
▁fault	-11.0919
▁parasite	-11.0919
▁barrel	-11.0919
▁gentleman	-11.092
▁flee	-11.0921
▁Music	-11.0925
▁compelling	-11.0927
▁Net	-11.0929
▁agreement	-11.0931
▁detection	-11.0933
So	-11.0935
▁dating	-11.0944
▁bin	-11.0956
▁Whoa	-11.0959
holder	-11.096
wan	-11.0964
▁extended	-11.0969
▁translated	-11.0974
▁Boo	-11.0985
▁wherever	-11.0992
angle	-11.0996
▁mixed	-11.0997
▁entering	-11.1007
▁retire	-11.1011
centimeter	-11.1013
millimeter	-11.1013
▁Education	-11.1013
▁eliminate	-11.1013
▁magnitude	-11.1013
▁membrane	-11.1013
▁mobility	-11.1013
▁Ooh	-11.1013
▁innocent	-11.1013
▁gallon	-11.1013
▁brutal	-11.1014
▁insane	-11.1014
▁hiding	-11.1014
▁microphone	-11.1014
▁forgive	-11.1014
▁mining	-11.1015
▁crew	-11.1015
▁leaf	-11.1015
▁factories	-11.1017
▁customer	-11.1018
▁dung	-11.1021
▁Milo	-11.1025
▁compassionate	-11.1029
▁Mall	-11.103
▁Cape	-11.103
▁homeless	-11.1032
▁Read	-11.1034
▁crush	-11.1053
body	-11.1058
field	-11.106
▁gathering	-11.1061
▁Pass	-11.1065
▁CD	-11.1065
▁Amy	-11.1066
▁wealthy	-11.1071
▁punch	-11.1082
▁peaceful	-11.1085
▁inform	-11.1108
ibility	-11.1109
▁Fortunately	-11.1109
▁Jerusalem	-11.1109
▁currency	-11.1109
▁curriculum	-11.1109
▁despair	-11.1109
▁enterprise	-11.1109
▁Arthur	-11.1109
▁buried	-11.1109
▁millennia	-11.1109
▁workforce	-11.1109
▁wrist	-11.1109
▁slime	-11.1109
▁woke	-11.1109
▁neither	-11.1109
▁nonprofit	-11.1109
▁Arabia	-11.111
▁proposition	-11.111
▁excitement	-11.111
▁shine	-11.111
▁winning	-11.1113
▁friendship	-11.1114
▁sexy	-11.1119
tron	-11.1125
▁upside	-11.1131
▁Jane	-11.1148
efficient	-11.1151
▁significantly	-11.1164
▁educate	-11.117
▁deploy	-11.1176
But	-11.1182
▁rats	-11.1186
▁nerd	-11.1198
powered	-11.1204
▁Netherlands	-11.1205
▁agricultural	-11.1205
▁choosing	-11.1205
▁cricket	-11.1205
▁dopamine	-11.1205
▁primarily	-11.1205
▁vaccinat	-11.1205
▁Elizabeth	-11.1205
▁Monday	-11.1205
▁structural	-11.1205
▁Alaska	-11.1205
▁Business	-11.1205
▁Office	-11.1205
▁antenna	-11.1205
▁silver	-11.1205
▁snake	-11.1205
▁straightforward	-11.1205
▁limitations	-11.1205
▁deforestation	-11.1205
▁banana	-11.1205
▁Linux	-11.1206
▁unconscious	-11.1207
▁pond	-11.1209
step	-11.1209
verbal	-11.1212
▁chase	-11.1217
▁Never	-11.1217
▁beaten	-11.1222
▁corporations	-11.1244
▁collectively	-11.1248
▁succeeded	-11.1276
▁brief	-11.1286
▁instant	-11.1286
▁Titan	-11.1297
▁Academy	-11.1302
▁Charlie	-11.1302
▁Tokyo	-11.1302
▁assistance	-11.1302
▁awkward	-11.1302
▁compromise	-11.1302
▁entropy	-11.1302
▁extension	-11.1302
▁facilities	-11.1302
▁parachute	-11.1302
▁Mozart	-11.1302
▁flourish	-11.1302
▁pioneer	-11.1302
▁Organization	-11.1302
▁margin	-11.1302
▁enforcement	-11.1303
chrom	-11.1303
▁wow	-11.1304
▁shipping	-11.1305
▁export	-11.1305
fire	-11.1306
▁kidding	-11.1308
▁badly	-11.1317
▁pray	-11.1319
▁intended	-11.132
▁workplace	-11.1322
▁completed	-11.1325
▁southern	-11.1336
yl	-11.135
▁palm	-11.1352
Don	-11.1364
▁wedding	-11.1372
▁govern	-11.1385
▁supported	-11.139
found	-11.1392
▁distinct	-11.1392
▁phenomena	-11.1393
▁disturb	-11.1393
▁shoe	-11.1397
▁Gar	-11.1399
▁Mount	-11.1399
controversial	-11.14
▁Suppose	-11.14
▁diagnosis	-11.14
▁exhaust	-11.14
▁luxury	-11.14
▁mysterious	-11.14
▁purchase	-11.14
▁storytelling	-11.14
▁tendency	-11.14
▁intimate	-11.14
▁rubber	-11.14
▁crawl	-11.14
▁Next	-11.14
▁cotton	-11.14
▁bribe	-11.14
▁Development	-11.1401
▁trash	-11.1402
▁strongly	-11.1402
Let	-11.1403
▁bold	-11.1405
zero	-11.1412
▁manner	-11.1417
▁sew	-11.1451
▁adopt	-11.1466
▁explaining	-11.1479
▁Pete	-11.1493
four	-11.1496
▁asleep	-11.1499
▁collision	-11.1499
▁immense	-11.1499
▁reproduce	-11.1499
▁uniform	-11.1499
▁microbial	-11.1499
▁scheme	-11.1499
▁Goals	-11.1501
▁authorities	-11.1501
▁ego	-11.1508
scribe	-11.1509
cost	-11.1515
▁calm	-11.1516
▁reflection	-11.1519
▁statistical	-11.1531
wandering	-11.1536
▁Young	-11.1551
▁bake	-11.1554
▁acquire	-11.1584
▁successfully	-11.159
material	-11.1592
known	-11.1593
▁prior	-11.1595
psychopath	-11.1599
▁acoustic	-11.1599
▁Tibet	-11.1599
▁categories	-11.1599
▁dilemma	-11.1599
▁syndrome	-11.1599
generating	-11.1599
▁canopy	-11.1599
▁valid	-11.1599
▁blend	-11.16
▁underlying	-11.16
shelf	-11.16
▁vessel	-11.1601
▁password	-11.1602
▁Intel	-11.1604
changing	-11.1606
▁addiction	-11.1606
▁cube	-11.1608
▁interviewed	-11.1609
▁loose	-11.161
▁expecting	-11.1629
▁classical	-11.1638
▁correctly	-11.1647
▁beautifully	-11.1655
▁perceive	-11.1669
▁continu	-11.1671
▁formation	-11.1674
lev	-11.1681
▁bite	-11.1684
▁included	-11.1686
▁bush	-11.169
corrupt	-11.17
▁attribute	-11.17
▁chamber	-11.17
▁terribly	-11.17
▁trajectory	-11.17
▁tsunami	-11.17
intensive	-11.17
▁Machine	-11.17
▁miserable	-11.17
▁architectural	-11.17
▁Abed	-11.1701
▁girlfriend	-11.1701
▁awake	-11.1702
▁Kids	-11.1705
▁subway	-11.1707
flow	-11.1709
animate	-11.1711
▁Port	-11.1711
blown	-11.1712
▁risky	-11.1715
▁improved	-11.1728
▁farming	-11.173
▁beam	-11.1731
▁pup	-11.1736
▁graphics	-11.1741
▁photographed	-11.1742
▁rob	-11.1744
▁institutional	-11.1754
▁hardest	-11.1763
▁Map	-11.1763
gotta	-11.1769
▁mainly	-11.1792
▁exhibit	-11.1796
▁Democrat	-11.1797
▁select	-11.1797
▁sculpt	-11.1802
▁Canadian	-11.1802
▁advocate	-11.1802
▁aspiration	-11.1802
▁diarrhea	-11.1802
▁impressive	-11.1802
▁reinvent	-11.1802
▁Buddha	-11.1802
▁Craig	-11.1802
▁RNA	-11.1802
▁Everest	-11.1802
▁investigate	-11.1802
▁Seven	-11.1802
▁phosphorus	-11.1802
▁Fund	-11.1803
▁tiles	-11.1803
▁spike	-11.1803
▁Edward	-11.1804
▁punishment	-11.1804
dding	-11.1805
▁fancy	-11.1805
▁ruin	-11.1806
▁native	-11.1806
▁trap	-11.1808
▁jam	-11.1809
▁jar	-11.181
▁chimpanzee	-11.1811
▁Hold	-11.1812
▁blindness	-11.1815
looking	-11.1817
▁DH	-11.1817
▁instantly	-11.1819
▁momentum	-11.1836
▁mat	-11.185
▁tie	-11.1854
▁Ross	-11.1854
▁Hy	-11.1856
▁Syrian	-11.1863
human	-11.1864
how	-11.1868
▁chemist	-11.1903
▁incident	-11.1903
clusive	-11.1904
▁Eventually	-11.1905
▁Giussani	-11.1905
▁Hubble	-11.1905
▁astronomer	-11.1905
▁dictator	-11.1905
▁encrypt	-11.1905
▁garbage	-11.1905
▁stomach	-11.1905
▁strategic	-11.1905
▁tattoo	-11.1905
▁temporary	-11.1905
▁Civil	-11.1905
▁elegant	-11.1905
▁pencil	-11.1905
▁theoretical	-11.1905
▁Venus	-11.1905
▁cruel	-11.1905
▁researcher	-11.1905
▁annual	-11.1905
▁Thailand	-11.1905
▁ownership	-11.1906
▁torture	-11.1906
▁Medicine	-11.1907
▁occasionally	-11.1908
▁lever	-11.191
▁artwork	-11.1912
▁frontier	-11.1913
▁ironic	-11.1915
▁backyard	-11.1919
▁Post	-11.1937
▁wider	-11.1939
▁tries	-11.194
▁throwing	-11.1942
shot	-11.1943
storm	-11.1945
▁socially	-11.1948
▁Step	-11.1948
▁hired	-11.1954
touch	-11.196
▁install	-11.1975
▁prepare	-11.1979
▁Poli	-11.1982
▁Bro	-11.1988
▁approaching	-11.1996
RA	-11.1996
▁analog	-11.1997
▁Pop	-11.1999
▁counting	-11.2004
▁Journal	-11.2009
▁Liberia	-11.2009
▁Library	-11.2009
▁Tuesday	-11.2009
▁burden	-11.2009
▁excellent	-11.2009
▁figuring	-11.2009
▁geometry	-11.2009
▁receptor	-11.2009
▁admire	-11.2009
▁indicate	-11.2009
▁mild	-11.2009
▁expertise	-11.201
▁steer	-11.201
▁Sound	-11.2011
▁archive	-11.2013
▁Laden	-11.2013
▁collaborator	-11.2015
ander	-11.2015
▁Harry	-11.2018
▁genetically	-11.2019
driven	-11.204
▁raped	-11.2048
▁profoundly	-11.2059
master	-11.207
▁suffered	-11.2074
enabled	-11.2074
▁rub	-11.2085
▁emerged	-11.2087
▁unable	-11.2099
change	-11.2102
▁authentic	-11.2111
▁hunt	-11.2113
▁Connecticut	-11.2115
▁Hospital	-11.2115
▁Nairobi	-11.2115
▁Tunisia	-11.2115
▁embarrassing	-11.2115
▁exposure	-11.2115
▁Computer	-11.2115
▁ALS	-11.2115
▁Nepal	-11.2115
▁elected	-11.2118
▁unfold	-11.2119
▁Beau	-11.212
▁branches	-11.2125
▁realizing	-11.2139
▁Ash	-11.2144
▁assumption	-11.2145
frontal	-11.2165
▁endless	-11.2177
▁reasonable	-11.2196
▁upward	-11.2208
▁detailed	-11.2211
▁involve	-11.2211
▁Jon	-11.2214
fulness	-11.2215
▁CRISPR	-11.2221
▁Phoenix	-11.2221
▁accumulate	-11.2221
▁ambition	-11.2221
▁destination	-11.2221
▁grandparents	-11.2221
▁jellyfish	-11.2221
▁pharmaceutical	-11.2221
▁principal	-11.2221
▁schizophrenia	-11.2221
▁striking	-11.2221
▁substantial	-11.2221
▁unhappy	-11.2221
▁redesign	-11.2221
▁overnight	-11.2221
▁canvas	-11.2221
▁Nothing	-11.2221
▁Indeed	-11.2221
▁Warren	-11.2221
▁angel	-11.2223
▁shower	-11.2224
▁Trade	-11.2226
▁Alice	-11.2226
▁float	-11.2231
▁patch	-11.2232
▁Live	-11.2241
▁jumped	-11.2244
▁items	-11.2247
law	-11.2251
▁perceived	-11.2254
▁beating	-11.2255
▁hunting	-11.2257
wind	-11.2266
▁dare	-11.2293
▁breed	-11.2294
stick	-11.2296
▁Cat	-11.2296
void	-11.2304
olar	-11.2327
▁Jersey	-11.2328
▁elsewhere	-11.2328
▁iPod	-11.2328
▁leather	-11.2328
▁pedestrian	-11.2328
▁possess	-11.2328
▁terrified	-11.2328
▁precious	-11.2328
▁Norden	-11.2328
▁minus	-11.2328
▁onstage	-11.2329
▁blink	-11.2329
▁stair	-11.2329
▁representative	-11.2331
▁naive	-11.2331
▁hub	-11.2332
▁intent	-11.2332
▁mineral	-11.2332
▁safely	-11.2333
▁herself	-11.2334
▁phenomenal	-11.2336
▁Marine	-11.2336
▁cooperate	-11.2336
▁desperately	-11.234
▁predictable	-11.2346
▁Lama	-11.2348
▁rank	-11.2349
▁Out	-11.235
▁incentive	-11.2354
▁crop	-11.2366
▁glue	-11.2366
▁critic	-11.2373
▁Miss	-11.2377
▁bind	-11.239
▁encouraged	-11.2403
▁shy	-11.2433
▁blank	-11.2435
▁Christopher	-11.2437
▁Colombia	-11.2437
▁Swedish	-11.2437
▁administration	-11.2437
▁unprecedented	-11.2437
▁Somalia	-11.2437
▁summit	-11.2437
▁priest	-11.2437
▁amateur	-11.2437
▁Lagos	-11.2437
▁Find	-11.2439
▁brick	-11.244
▁nearby	-11.244
▁retirement	-11.244
▁decor	-11.244
▁Simon	-11.2441
▁interconnected	-11.2445
stein	-11.2446
▁listened	-11.2447
▁formal	-11.2451
▁bowl	-11.2451
▁Party	-11.2466
▁economist	-11.2467
blowing	-11.2468
▁continuing	-11.2475
▁observed	-11.2478
corn	-11.2494
▁visualize	-11.2499
▁staying	-11.2503
▁pat	-11.2519
offend	-11.2533
▁Republic	-11.2542
skeletal	-11.2547
▁Buddhist	-11.2547
▁Natural	-11.2547
▁Portugal	-11.2547
▁absence	-11.2547
▁glamour	-11.2547
▁stimulate	-11.2547
▁temple	-11.2547
▁terrifying	-11.2547
▁Joshua	-11.2547
▁cocaine	-11.2547
▁reliable	-11.2547
▁rose	-11.2547
▁diving	-11.2547
▁Power	-11.2547
▁viral	-11.2548
▁chunk	-11.2548
▁Tesla	-11.2548
hhh	-11.2548
▁glow	-11.2548
▁bedroom	-11.2549
▁Greenland	-11.255
▁Wright	-11.2551
▁estate	-11.2554
▁pun	-11.2554
Can	-11.2554
▁guilty	-11.2555
▁overhead	-11.2571
▁mammal	-11.258
▁messy	-11.2593
▁surround	-11.2593
▁eaten	-11.2603
▁covering	-11.2604
ime	-11.2605
five	-11.2605
▁smallest	-11.2612
▁remained	-11.2622
▁Van	-11.2625
▁mentally	-11.2641
▁promised	-11.2643
▁sake	-11.2644
illennium	-11.2658
▁Michigan	-11.2658
▁Scientist	-11.2658
▁Sylvia	-11.2658
▁Third	-11.2658
▁commission	-11.2658
▁diagnostic	-11.2658
▁divorce	-11.2658
▁glucose	-11.2658
▁humanitarian	-11.2658
▁investigation	-11.2658
▁ecology	-11.2658
▁reducing	-11.2658
▁cream	-11.2658
▁dawn	-11.2658
▁monster	-11.2658
▁improving	-11.2658
▁ecological	-11.2658
▁venture	-11.2658
▁wildlife	-11.2659
▁expectancy	-11.2659
▁Lady	-11.2665
▁fertilizer	-11.2668
▁freeze	-11.267
▁belt	-11.2673
▁hitting	-11.2674
▁KB	-11.2674
▁threatened	-11.268
▁closest	-11.2683
▁specialist	-11.2687
▁lap	-11.2687
▁germ	-11.2688
▁Up	-11.2692
▁widely	-11.2707
▁empowered	-11.2708
▁kit	-11.2731
▁arrest	-11.274
▁graduated	-11.2745
minute	-11.2749
▁rape	-11.2753
self	-11.2759
▁Arizona	-11.2771
▁Association	-11.2771
▁Public	-11.2771
▁genuine	-11.2771
▁hybrid	-11.2771
▁interrupt	-11.2771
▁rethink	-11.2771
▁translator	-11.2771
▁virtue	-11.2771
▁storage	-11.2771
▁whisper	-11.2771
▁compress	-11.2771
▁defeat	-11.2771
▁stability	-11.2771
▁thread	-11.2771
▁Larry	-11.2773
▁Johnny	-11.2777
▁Fire	-11.278
▁Rover	-11.2786
▁proven	-11.281
▁toast	-11.2818
▁update	-11.2826
▁sixth	-11.2826
▁Wood	-11.2832
▁Ana	-11.2842
▁proved	-11.2873
world	-11.2876
▁Jefferson	-11.2884
▁Namibia	-11.2884
▁enemies	-11.2884
▁hierarchy	-11.2884
▁negotiate	-11.2884
▁protocell	-11.2884
▁purple	-11.2884
▁trivial	-11.2884
▁Cyrus	-11.2884
▁descend	-11.2884
▁lonely	-11.2884
▁excess	-11.2884
▁obese	-11.2884
▁creep	-11.2884
▁disabled	-11.2884
▁delay	-11.2884
▁mud	-11.2884
▁Montana	-11.2885
▁legislation	-11.2885
▁bench	-11.2886
▁riot	-11.2886
▁swing	-11.2887
▁align	-11.2888
▁candle	-11.2888
▁dough	-11.289
▁civilian	-11.2891
▁Hope	-11.2892
▁amazed	-11.2894
▁personalized	-11.2897
▁Top	-11.2906
pee	-11.2908
▁manufacturer	-11.2915
▁screaming	-11.2919
▁container	-11.2923
▁biologist	-11.2929
▁span	-11.2938
▁Philip	-11.2985
var	-11.2992
▁Caribbean	-11.2999
▁ambitious	-11.2999
▁frightening	-11.2999
▁mutual	-11.2999
▁nowadays	-11.2999
▁wheat	-11.2999
▁vacation	-11.2999
▁casual	-11.2999
▁Canyon	-11.2999
▁smiling	-11.2999
▁Tower	-11.2999
▁pirate	-11.3
▁ongoing	-11.3
▁texture	-11.3001
▁constraints	-11.3001
▁Luther	-11.3001
▁relief	-11.3002
▁consist	-11.3002
▁requirement	-11.3006
▁assure	-11.3007
▁Bert	-11.3008
▁Plan	-11.301
▁Phil	-11.3011
jack	-11.3017
▁spine	-11.3017
▁taxes	-11.3021
band	-11.3035
▁wishes	-11.3042
▁hug	-11.3059
lapse	-11.3068
▁activate	-11.3076
▁shocking	-11.3078
▁scream	-11.308
▁remaining	-11.3091
▁Peru	-11.3109
▁Univers	-11.3112
▁Himalaya	-11.3115
▁counsel	-11.3115
▁invitation	-11.3115
▁Cambodia	-11.3115
▁Joseph	-11.3115
▁Kennedy	-11.3115
▁advertise	-11.3115
▁breakfast	-11.3115
▁feminist	-11.3115
▁impulse	-11.3115
▁independence	-11.3115
▁knife	-11.3115
▁lobby	-11.3115
▁terrain	-11.3115
▁arguing	-11.3115
▁explicit	-11.3115
▁lifespan	-11.3115
▁Movement	-11.3115
▁interior	-11.3115
pathogen	-11.3115
▁insulin	-11.3115
▁Libya	-11.3115
▁chronic	-11.3116
▁tiger	-11.3116
▁foster	-11.3116
▁employer	-11.3116
▁Garden	-11.3116
▁harness	-11.3117
▁chop	-11.3122
▁visualization	-11.3123
▁Data	-11.3124
▁probe	-11.3133
▁processor	-11.3142
▁discovering	-11.3144
count	-11.3152
▁rolling	-11.3154
▁Tro	-11.3156
▁delivery	-11.3166
▁retreat	-11.3179
wash	-11.318
▁useless	-11.319
▁continuous	-11.3218
▁distinguish	-11.322
▁Kepler	-11.3233
▁Kiribati	-11.3233
▁astronaut	-11.3233
▁elevator	-11.3233
▁jihad	-11.3233
▁marathon	-11.3233
▁philanthropy	-11.3233
▁storyteller	-11.3233
▁supplies	-11.3233
▁territory	-11.3233
▁junk	-11.3233
▁warrior	-11.3233
▁restrict	-11.3233
▁scaling	-11.3234
▁lottery	-11.3234
▁migration	-11.3235
chasing	-11.3236
▁healing	-11.3237
▁workshop	-11.3239
▁Interestingly	-11.3239
▁amongst	-11.3241
▁downtown	-11.3242
▁Beach	-11.3242
▁Treat	-11.3249
▁statistic	-11.3255
▁conv	-11.3259
▁realities	-11.3261
▁conducted	-11.3279
▁gathered	-11.3284
position	-11.33
bone	-11.3326
post	-11.3327
▁spi	-11.3343
▁mum	-11.3348
▁champion	-11.3351
▁stereo	-11.3352
▁Service	-11.3352
▁bamboo	-11.3352
▁encouraging	-11.3352
▁execute	-11.3352
▁remarkably	-11.3352
▁Dallas	-11.3352
Prince	-11.3352
▁Sierra	-11.3352
▁voting	-11.3352
▁heritage	-11.3352
▁diameter	-11.3352
▁Sudan	-11.3352
▁Bosnia	-11.3352
▁confine	-11.3352
▁refine	-11.3352
▁Freedom	-11.3352
▁luckily	-11.3353
▁therapist	-11.3353
▁Brit	-11.3354
▁Alright	-11.3354
▁contradiction	-11.3356
▁priority	-11.3356
▁troops	-11.3361
▁mapping	-11.3362
▁Brea	-11.3364
▁thrilled	-11.3366
▁Book	-11.3369
▁influenced	-11.3369
▁prevention	-11.3372
▁Maria	-11.3374
▁concentrated	-11.3378
▁seeking	-11.3379
▁realization	-11.3382
▁catching	-11.3387
▁Run	-11.3388
▁grip	-11.3393
▁technically	-11.3398
type	-11.3405
▁penguin	-11.3414
▁banking	-11.3414
▁cookie	-11.3427
▁locally	-11.3433
▁Allen	-11.3447
▁Add	-11.3451
hole	-11.3456
▁constrain	-11.3471
▁Environment	-11.3473
▁Massachusetts	-11.3473
▁Oklahoma	-11.3473
▁Orleans	-11.3473
▁Stewart	-11.3473
▁Venezuela	-11.3473
▁artifact	-11.3473
▁beneath	-11.3473
▁calories	-11.3473
▁deliberate	-11.3473
▁flavor	-11.3473
▁indigenous	-11.3473
▁located	-11.3473
▁neuroscientist	-11.3473
▁persuade	-11.3473
▁recycling	-11.3473
▁scaffold	-11.3473
▁timing	-11.3473
▁ubiquitous	-11.3473
▁resembl	-11.3473
▁staircase	-11.3473
▁contemporary	-11.3473
▁kilogram	-11.3473
▁bonus	-11.3474
▁spinning	-11.3474
▁gained	-11.3474
▁sperm	-11.3474
▁boots	-11.3475
▁sidewalk	-11.3475
▁prostate	-11.3476
▁Danny	-11.3477
▁towel	-11.3477
▁spacecraft	-11.3483
▁upload	-11.3497
handed	-11.3507
▁selected	-11.3508
▁snap	-11.3511
▁appreciat	-11.352
▁hunter	-11.3556
ike	-11.359
▁transcend	-11.3594
▁Pittsburgh	-11.3594
▁accuracy	-11.3594
▁batteries	-11.3594
▁ceremony	-11.3594
▁cockroach	-11.3594
▁earliest	-11.3594
▁gorgeous	-11.3594
▁offspring	-11.3594
▁prince	-11.3594
▁Denmark	-11.3595
▁Lewis	-11.3595
▁Taiwan	-11.3595
▁injured	-11.3595
▁proceed	-11.3595
▁tutor	-11.3595
▁Food	-11.3595
▁Small	-11.3595
▁seemingly	-11.3595
▁carpet	-11.3595
▁Kingdom	-11.3595
▁distort	-11.3596
▁jaw	-11.3596
▁trafficking	-11.3597
▁Notice	-11.3598
hether	-11.3599
scape	-11.3599
▁mesh	-11.3602
▁grabb	-11.3614
▁Stand	-11.3614
▁rebel	-11.3615
▁lowest	-11.3623
alai	-11.3641
▁hated	-11.3655
Wow	-11.3657
▁instruction	-11.3666
phone	-11.3667
▁prayer	-11.3667
▁Iraqi	-11.367
▁Woo	-11.3676
▁performed	-11.3681
natural	-11.3685
imme	-11.3692
▁zoo	-11.3693
▁historic	-11.3707
▁Lee	-11.3717
▁Bangalore	-11.3718
▁convenient	-11.3718
▁devastating	-11.3718
▁negotiation	-11.3718
▁outbreak	-11.3718
▁pipeline	-11.3718
▁precision	-11.3718
▁pursuit	-11.3718
▁segment	-11.3718
▁spouse	-11.3718
▁Chuck	-11.3718
▁transistor	-11.3718
▁injuries	-11.3718
▁suppress	-11.3718
▁fisheries	-11.3718
▁communicating	-11.3718
▁electrodes	-11.3718
▁flame	-11.3718
▁nightmare	-11.3718
▁denial	-11.3719
▁Common	-11.372
▁advise	-11.3721
▁journalism	-11.3721
thermal	-11.3721
▁filmmaker	-11.3721
▁Similarly	-11.3721
eyed	-11.3722
Hello	-11.3722
▁retail	-11.3723
▁Tasmanian	-11.3724
▁distinction	-11.3725
▁decent	-11.3731
▁Len	-11.3737
▁mini	-11.3739
▁Cap	-11.3746
Mart	-11.3747
▁offering	-11.3749
▁losses	-11.3751
atar	-11.3754
▁breeding	-11.3759
▁consciously	-11.3765
generation	-11.3783
Where	-11.3785
▁teaches	-11.379
▁Hand	-11.3791
rained	-11.38
▁estimated	-11.3803
▁monitoring	-11.3807
wire	-11.3808
▁worthy	-11.3821
▁squeeze	-11.3829
▁Cuba	-11.3831
▁slight	-11.3838
stimulation	-11.3843
▁Empire	-11.3843
▁Kansas	-11.3843
▁correlation	-11.3843
▁delicious	-11.3843
▁emphasize	-11.3843
▁fluorescent	-11.3843
▁magnificent	-11.3843
▁proposal	-11.3843
▁refrigerator	-11.3843
▁sanitation	-11.3843
imbabwe	-11.3843
▁summarize	-11.3843
▁drunk	-11.3843
▁preparing	-11.3843
▁EDI	-11.3843
▁copied	-11.3843
▁mankind	-11.3843
▁therapies	-11.3843
▁assign	-11.3844
▁yell	-11.3845
▁Roger	-11.3848
▁volcano	-11.3849
▁merely	-11.3852
▁magician	-11.3853
▁stopping	-11.3857
▁preach	-11.3858
▁mite	-11.3859
▁Bud	-11.386
▁informal	-11.3862
▁irony	-11.3864
▁historically	-11.387
half	-11.3892
▁Sex	-11.3893
▁Start	-11.3917
rror	-11.3925
▁packed	-11.3935
▁punish	-11.3968
▁apologize	-11.397
▁empire	-11.397
▁inevitably	-11.397
▁introduction	-11.397
▁jazz	-11.397
▁legitimate	-11.397
▁stigma	-11.397
▁Natasha	-11.397
▁innovate	-11.397
▁virgin	-11.397
▁remix	-11.397
▁cosmos	-11.397
▁helium	-11.397
▁stamp	-11.397
▁division	-11.397
▁hypo	-11.397
▁invade	-11.397
▁spiral	-11.397
▁psychiatrist	-11.3971
▁Lyn	-11.3971
▁Cancer	-11.3972
▁fever	-11.3973
▁crab	-11.3976
▁stolen	-11.3976
Keith	-11.3978
▁adaptation	-11.3984
▁specialized	-11.3985
▁trailer	-11.3992
▁Line	-11.4005
▁prisoner	-11.4017
▁Ali	-11.4019
When	-11.4063
▁laughed	-11.407
▁slower	-11.4071
▁extraordinar	-11.4085
▁doubled	-11.4088
▁yards	-11.4094
zar	-11.4096
▁Luckily	-11.4098
▁OECD	-11.4098
▁intrinsic	-11.4098
▁irrational	-11.4098
▁neocortex	-11.4098
▁obsolete	-11.4098
▁prescription	-11.4098
▁prosthetic	-11.4098
▁cosmic	-11.4098
▁warehouse	-11.4098
▁chimps	-11.4098
▁recur	-11.4098
▁Snowden	-11.4098
technology	-11.4098
▁Large	-11.4099
▁exclusive	-11.4099
▁mainstream	-11.4099
▁ultra	-11.41
▁guest	-11.41
▁Honey	-11.41
▁tapir	-11.4102
▁transit	-11.4102
▁toxin	-11.4102
▁Nicole	-11.4103
▁Radio	-11.4103
▁Word	-11.4104
▁browser	-11.4105
▁liar	-11.4111
▁athletes	-11.4116
▁rip	-11.4122
▁asthma	-11.4128
▁Paulo	-11.4138
▁Mind	-11.4158
▁convention	-11.4176
▁collapsed	-11.4178
▁politician	-11.4189
▁compose	-11.4197
carbon	-11.4197
▁Columbia	-11.4208
▁teenage	-11.4214
two	-11.4215
▁Ann	-11.4216
destruct	-11.4227
Jeopardy	-11.4228
▁Carnegie	-11.4228
▁Galapagos	-11.4228
▁Kosovo	-11.4228
▁LHC	-11.4228
▁Muhammad	-11.4228
▁Obviously	-11.4228
▁Through	-11.4228
▁equity	-11.4228
▁executive	-11.4228
▁glimpse	-11.4228
▁receiving	-11.4228
▁taboo	-11.4228
▁vibration	-11.4228
▁blast	-11.4228
▁composition	-11.4228
▁augment	-11.4228
▁juice	-11.4228
▁surgeries	-11.4228
▁drew	-11.4228
▁grace	-11.4228
▁swallow	-11.4228
▁frequently	-11.4228
▁Country	-11.4229
▁connectome	-11.4231
▁pants	-11.4233
▁Jean	-11.4237
▁Nice	-11.4241
▁unlock	-11.4243
frame	-11.4243
▁Building	-11.4247
▁peel	-11.4247
▁Evan	-11.4248
▁Heart	-11.425
▁playful	-11.4252
▁outdoor	-11.4256
▁behalf	-11.4257
▁Fish	-11.4261
adapted	-11.4265
▁installed	-11.4265
▁Rose	-11.4266
iction	-11.4267
▁publishing	-11.4277
▁criticize	-11.4279
▁Lev	-11.4292
▁consumed	-11.4293
▁contributed	-11.4296
section	-11.4306
▁explorer	-11.432
weep	-11.4321
▁lawn	-11.4339
▁immediate	-11.4343
spot	-11.4344
income	-11.4344
▁distract	-11.435
▁immortal	-11.4359
▁Norwegian	-11.4359
▁Roosevelt	-11.4359
▁Venice	-11.4359
▁assistant	-11.4359
▁congestion	-11.4359
▁endeavor	-11.4359
▁enzyme	-11.4359
▁nitrogen	-11.4359
▁occupy	-11.4359
▁alphabet	-11.4359
▁blade	-11.4359
▁SMS	-11.4359
▁intact	-11.4359
▁multiply	-11.4359
▁tolerance	-11.4359
▁horror	-11.4359
▁declare	-11.4359
▁Jobs	-11.436
▁operator	-11.4361
▁Bern	-11.4361
▁freezing	-11.4362
▁couch	-11.4363
▁Justice	-11.4364
▁dropping	-11.4364
Aid	-11.4378
▁tide	-11.4384
▁fatal	-11.4394
▁regularly	-11.4406
▁Cold	-11.441
▁Ste	-11.4412
▁readers	-11.4414
▁navigat	-11.4416
▁repeated	-11.4423
▁collaborate	-11.4426
▁Land	-11.4431
▁harmful	-11.4446
▁hopeful	-11.4446
▁replaced	-11.4446
▁sale	-11.4465
▁cope	-11.4466
controller	-11.4473
▁Bio	-11.4482
▁entertain	-11.449
activated	-11.4491
▁Amsterdam	-11.4493
▁Victorian	-11.4493
▁believing	-11.4493
▁consensus	-11.4493
▁default	-11.4493
▁democracies	-11.4493
▁endangered	-11.4493
▁guitar	-11.4493
▁recession	-11.4493
tropical	-11.4493
▁biomass	-11.4493
▁likelihood	-11.4493
▁veteran	-11.4493
▁inflation	-11.4493
▁thrive	-11.4493
▁puppet	-11.4493
▁Death	-11.4493
▁Princeton	-11.4493
▁geography	-11.4493
▁headache	-11.4493
▁infectious	-11.4493
▁consent	-11.4494
▁Report	-11.4494
▁gross	-11.4494
▁hint	-11.4494
▁cardboard	-11.4495
▁horizontal	-11.4496
▁Leone	-11.4498
▁Julian	-11.4498
▁brush	-11.4499
▁replacement	-11.45
▁suspended	-11.4502
▁Golden	-11.4502
▁Susan	-11.4503
OK	-11.4507
course	-11.4529
▁unlikely	-11.4532
▁poke	-11.454
▁fallen	-11.4548
▁calculated	-11.4548
▁sooner	-11.4576
▁earning	-11.4584
▁accomplish	-11.4595
▁ingredient	-11.46
▁maneuver	-11.4628
▁Beethoven	-11.4628
▁calendar	-11.4628
▁corridor	-11.4628
▁describing	-11.4628
▁harbor	-11.4628
▁satisfy	-11.4628
▁separation	-11.4628
▁strict	-11.4628
▁symmetries	-11.4628
▁penalty	-11.4628
▁unfair	-11.4628
▁flesh	-11.4628
▁nasty	-11.4628
▁steam	-11.4628
consuming	-11.4628
▁contest	-11.4628
▁Julie	-11.4628
▁discrimination	-11.4628
▁bounce	-11.4628
▁Invest	-11.4628
▁prostitution	-11.4628
▁accent	-11.4629
▁bucket	-11.4629
▁evaluat	-11.4629
▁minority	-11.4631
▁Person	-11.4631
▁modest	-11.4639
▁penis	-11.4646
▁arc	-11.4652
▁merit	-11.4655
▁cheer	-11.4658
▁Merc	-11.4665
▁handful	-11.4667
▁Mola	-11.4672
▁Math	-11.4694
▁announce	-11.4734
▁Kenyan	-11.4736
▁Virgin	-11.4763
▁owe	-11.4765
▁Jamaica	-11.4765
▁LGBT	-11.4765
▁Language	-11.4765
▁Skype	-11.4765
▁Sydney	-11.4765
▁abundance	-11.4765
▁calculator	-11.4765
▁coordination	-11.4765
▁cylinder	-11.4765
▁envelope	-11.4765
▁exponentially	-11.4765
▁jungle	-11.4765
▁peculiar	-11.4765
▁residents	-11.4765
▁technician	-11.4765
▁vocal	-11.4765
▁welfare	-11.4765
▁blob	-11.4765
▁devote	-11.4765
▁harmony	-11.4765
▁Norman	-11.4765
▁wore	-11.4765
▁stereotype	-11.4765
▁optical	-11.4765
▁Secretary	-11.4765
▁typing	-11.4766
▁Costa	-11.4766
▁evolving	-11.4766
▁tomato	-11.4766
▁odor	-11.4766
▁humble	-11.4767
▁hostile	-11.4767
▁iceberg	-11.4768
▁documentary	-11.477
▁helpless	-11.4777
wide	-11.4783
▁accomplished	-11.4795
▁rabbit	-11.4802
eastern	-11.4805
▁previously	-11.4806
▁deployed	-11.4808
▁Dec	-11.4808
▁rejected	-11.4814
▁None	-11.4828
▁youngest	-11.4828
▁Dave	-11.4832
▁lifted	-11.4834
▁privileged	-11.4838
▁demonstrated	-11.4843
▁warmer	-11.4848
▁randomly	-11.4854
Who	-11.4855
▁stabilize	-11.4858
▁rig	-11.4861
▁Francis	-11.4902
oriented	-11.4904
▁Defense	-11.4904
▁Ushahidi	-11.4904
▁anniversary	-11.4904
▁association	-11.4904
▁basketball	-11.4904
▁commodity	-11.4904
▁dictionaries	-11.4904
▁eradicate	-11.4904
▁frustration	-11.4904
▁gallery	-11.4904
▁iPad	-11.4904
▁intensity	-11.4904
▁kindergarten	-11.4904
▁Siberia	-11.4904
▁erect	-11.4904
▁Leader	-11.4904
▁Emily	-11.4904
▁Guinea	-11.4904
▁Babylon	-11.4904
▁cinema	-11.4904
▁Rule	-11.4904
▁intervene	-11.4904
▁retina	-11.4904
▁trading	-11.4904
▁Scotland	-11.4904
▁overwhelmed	-11.4912
▁Native	-11.4913
▁vary	-11.4916
▁subjective	-11.4922
effective	-11.4937
▁broader	-11.494
▁Carol	-11.4941
▁dim	-11.4946
▁rescued	-11.4974
▁Bear	-11.4983
▁discussing	-11.499
▁prim	-11.4998
▁cloth	-11.5
▁mathematician	-11.5028
▁utter	-11.5033
▁dirt	-11.5033
▁catastrophe	-11.5044
▁educator	-11.5044
▁episode	-11.5044
▁eternal	-11.5044
▁holiday	-11.5044
▁humility	-11.5044
▁improvise	-11.5044
▁vitamin	-11.5044
▁Fifty	-11.5044
▁Information	-11.5044
▁deficit	-11.5044
▁vivid	-11.5044
▁Alpha	-11.5044
▁cubic	-11.5044
▁echo	-11.5044
▁livestock	-11.5044
▁macro	-11.5045
▁cattle	-11.5045
▁Turk	-11.5045
▁Grow	-11.5045
▁Index	-11.5045
▁squid	-11.5045
▁diplomacy	-11.5046
collar	-11.5046
▁scanning	-11.5047
▁chef	-11.5047
▁Unlike	-11.5048
▁elementary	-11.5048
▁Rica	-11.5048
▁hometown	-11.5051
▁boost	-11.5053
▁coverage	-11.5057
▁Dick	-11.5065
▁atheist	-11.5066
bury	-11.5069
▁abandoned	-11.5073
▁Tele	-11.508
▁hut	-11.5087
▁buses	-11.5091
▁defi	-11.5092
▁simplest	-11.5096
▁comedy	-11.5102
▁merge	-11.5126
▁masses	-11.5128
conscious	-11.5132
luck	-11.5135
lessness	-11.5159
conductor	-11.5163
▁App	-11.5163
EM	-11.5181
volving	-11.5186
▁Rich	-11.5187
▁Nathan	-11.5187
▁CMU	-11.5187
▁Edinburgh	-11.5187
▁Perfect	-11.5187
▁RSW	-11.5187
▁SARS	-11.5187
▁Sputnik	-11.5187
▁Thirty	-11.5187
▁applause	-11.5187
▁calculus	-11.5187
▁configuration	-11.5187
▁convicted	-11.5187
▁intimacy	-11.5187
▁longevity	-11.5187
▁siblings	-11.5187
▁Company	-11.5187
▁Finland	-11.5187
▁idiot	-11.5187
▁spatial	-11.5187
▁inhibit	-11.5187
▁generic	-11.5187
▁Doaa	-11.5187
▁smash	-11.5188
▁Learning	-11.5188
▁harsh	-11.5189
▁Somebody	-11.5189
▁transformative	-11.5191
▁Forget	-11.5192
▁Turing	-11.5192
▁adoption	-11.5193
risk	-11.5193
▁chess	-11.5194
▁Pink	-11.5196
▁belly	-11.5197
ask	-11.5197
▁inmates	-11.5198
▁insert	-11.52
▁basement	-11.52
▁Cross	-11.5202
▁Dead	-11.5203
▁Station	-11.5215
▁Cities	-11.5216
▁poo	-11.5218
▁drain	-11.5222
▁Beck	-11.5247
horn	-11.5248
▁Cup	-11.527
▁attracted	-11.5273
western	-11.5281
▁SP	-11.5282
adding	-11.5287
▁Pakistani	-11.5301
▁refuse	-11.5301
▁sponsor	-11.531
▁compute	-11.5319
tuned	-11.5329
▁minor	-11.5329
Cloud	-11.5332
▁Alabama	-11.5332
▁BMW	-11.5332
▁DARPA	-11.5332
▁Darfur	-11.5332
▁Michelangelo	-11.5332
▁Pixar	-11.5332
▁circular	-11.5332
▁happily	-11.5332
▁imagining	-11.5332
▁literacy	-11.5332
▁obtain	-11.5332
▁sovereign	-11.5332
▁Happy	-11.5332
▁Patient	-11.5332
▁exotic	-11.5332
▁abroad	-11.5332
▁pleasant	-11.5332
▁Glass	-11.5332
▁polite	-11.5332
▁prospect	-11.5332
▁Type	-11.5332
▁ideology	-11.5332
▁Prime	-11.5333
▁systematically	-11.5334
▁Nu	-11.5334
▁illustration	-11.5336
▁Trans	-11.5336
▁acres	-11.5336
▁lobe	-11.5337
▁conceptual	-11.5337
▁Without	-11.5337
▁duty	-11.5338
▁hacking	-11.534
▁dip	-11.5343
▁Barry	-11.5343
▁scientifically	-11.5347
▁Slow	-11.5348
▁recycled	-11.5355
▁economically	-11.5357
▁wooden	-11.5357
▁cage	-11.5359
▁disappointed	-11.5359
▁refused	-11.5365
▁machinery	-11.5376
oney	-11.538
▁praying	-11.5385
▁skip	-11.5388
▁remotely	-11.539
▁tricky	-11.539
▁Side	-11.5398
▁deposit	-11.541
▁fog	-11.5425
▁Mau	-11.5429
▁Rat	-11.543
▁tire	-11.545
articulate	-11.546
▁Under	-11.5468
▁Dam	-11.547
▁sneak	-11.5475
stance	-11.5477
▁Arduino	-11.5479
vascular	-11.5479
▁Recently	-11.5479
▁Teszler	-11.5479
▁UCLA	-11.5479
▁angiogenesis	-11.5479
▁arrangement	-11.5479
▁celebrity	-11.5479
▁competing	-11.5479
▁entrance	-11.5479
▁improvisation	-11.5479
▁philosophical	-11.5479
▁reinforce	-11.5479
▁resilient	-11.5479
▁resurrect	-11.5479
▁shepherd	-11.5479
▁album	-11.5479
▁goodbye	-11.5479
▁snail	-11.5479
▁swarm	-11.5479
▁boundary	-11.548
▁shaking	-11.548
▁Jerry	-11.548
▁defining	-11.548
racial	-11.548
▁trunk	-11.548
▁locomotion	-11.548
▁piss	-11.5481
▁cellphone	-11.5481
▁selective	-11.5483
▁accountability	-11.5484
▁sneakers	-11.5484
▁authenticity	-11.5484
▁farther	-11.5488
▁alert	-11.5489
▁fade	-11.549
▁dune	-11.549
▁dishes	-11.5497
ronic	-11.5511
▁overlap	-11.5513
profit	-11.5517
▁Head	-11.552
▁disk	-11.5525
▁sexually	-11.5545
▁Pur	-11.5549
walk	-11.5559
front	-11.5561
link	-11.5574
RB	-11.5577
▁concentrate	-11.5598
ither	-11.5604
▁grant	-11.5609
▁gentle	-11.5626
▁AIMS	-11.5628
▁Incredible	-11.5628
▁McDonald	-11.5628
▁Oregon	-11.5628
▁Parliament	-11.5628
▁Renaissance	-11.5628
▁Ultimately	-11.5628
▁Whitopia	-11.5628
▁elaborate	-11.5628
▁embarrassed	-11.5628
▁execution	-11.5628
▁expense	-11.5628
▁fantasy	-11.5628
▁metabolism	-11.5628
▁optimize	-11.5628
▁pesticide	-11.5628
▁recognizing	-11.5628
▁staggering	-11.5628
▁transaction	-11.5628
▁yeast	-11.5628
▁generator	-11.5628
▁historian	-11.5628
▁Direct	-11.5628
▁fuck	-11.5629
▁scrap	-11.5629
▁isolation	-11.5629
▁Bonobo	-11.563
▁priorities	-11.563
▁Fast	-11.563
▁entities	-11.563
▁Irish	-11.5631
▁Plato	-11.5631
▁wrapped	-11.5631
▁Nico	-11.5631
propelle	-11.5633
▁Austria	-11.5638
▁vend	-11.5652
▁consideration	-11.5653
▁payment	-11.5676
▁Secondly	-11.568
▁End	-11.5682
▁Forest	-11.5689
▁capitalist	-11.5695
▁receiver	-11.5697
▁mating	-11.5708
quality	-11.573
built	-11.5732
▁steppe	-11.5734
▁skeptic	-11.5737
▁abandon	-11.575
speed	-11.5753
▁regenerate	-11.5759
kilometer	-11.5762
▁desperate	-11.5764
▁unfortunate	-11.5764
pouring	-11.5774
▁threaten	-11.5774
▁consult	-11.5778
▁Baltimore	-11.578
▁Climate	-11.578
▁Commission	-11.578
▁Excellent	-11.578
▁Katrina	-11.578
▁Margaret	-11.578
▁Wolfram	-11.578
▁accelerating	-11.578
▁caregiver	-11.578
▁contributing	-11.578
▁favela	-11.578
▁immigrant	-11.578
▁institute	-11.578
▁juvenile	-11.578
▁marijuana	-11.578
▁memorial	-11.578
▁orientation	-11.578
▁sequencing	-11.578
▁Babbage	-11.578
▁blur	-11.578
▁Truth	-11.578
eanwhile	-11.578
▁mosque	-11.578
▁Fox	-11.578
▁autistic	-11.578
▁forecast	-11.578
▁Uber	-11.578
▁tagged	-11.5781
▁Euro	-11.5781
▁stain	-11.5781
▁emergence	-11.5783
▁chew	-11.5784
threatening	-11.5786
▁rail	-11.579
▁Solar	-11.579
▁Way	-11.579
▁Full	-11.5794
▁scarce	-11.5796
▁dominated	-11.5797
▁Fair	-11.5801
▁airline	-11.5807
LT	-11.5812
▁Lear	-11.5812
▁passes	-11.5827
▁Mel	-11.5834
aj	-11.5853
▁scare	-11.586
child	-11.5898
MG	-11.5916
▁taxi	-11.592
▁Angel	-11.5928
responsibilities	-11.5934
▁Although	-11.5934
▁Bulgaria	-11.5934
▁Kyoto	-11.5934
▁altogether	-11.5934
▁approximately	-11.5934
▁assault	-11.5934
▁astronomy	-11.5934
▁biosphere	-11.5934
▁celebration	-11.5934
▁hamburger	-11.5934
▁indicator	-11.5934
▁obsession	-11.5934
▁pixel	-11.5934
▁practicing	-11.5934
▁pricing	-11.5934
▁turtle	-11.5934
▁underestimate	-11.5934
▁vocabulary	-11.5934
▁Simple	-11.5934
▁gravitational	-11.5934
▁Cairo	-11.5934
▁converge	-11.5934
▁crude	-11.5934
▁sensing	-11.5934
▁famine	-11.5934
▁salmon	-11.5934
▁noisy	-11.5934
▁ashamed	-11.5934
▁submit	-11.5934
▁cult	-11.5935
▁Cultur	-11.5935
▁Wild	-11.5936
▁internet	-11.5937
▁blew	-11.5938
▁planned	-11.5938
▁Drug	-11.5938
▁nail	-11.5939
▁carro	-11.594
▁iconic	-11.5944
▁fungi	-11.5946
▁utterly	-11.5952
▁Huh	-11.5958
▁halfway	-11.5958
▁Hawking	-11.5958
▁triple	-11.5961
▁digitize	-11.5976
Psycho	-11.5978
▁computational	-11.5981
▁bacterial	-11.5985
▁Hyper	-11.599
programmed	-11.6037
▁manufacture	-11.605
▁Roo	-11.6073
story	-11.6085
▁drama	-11.6089
Wonder	-11.609
▁Pantheon	-11.609
▁Tennessee	-11.609
▁bacterium	-11.609
▁clarity	-11.609
▁gadget	-11.609
▁guerrilla	-11.609
▁ingenuity	-11.609
▁integration	-11.609
▁integrity	-11.609
▁nonetheless	-11.609
▁obligation	-11.609
▁significance	-11.609
▁silicon	-11.609
▁terrific	-11.609
▁ultraviolet	-11.609
▁Amazing	-11.609
▁Pepsi	-11.609
▁gasoline	-11.609
▁imperative	-11.609
▁Hindu	-11.609
▁Rosetta	-11.609
▁Desert	-11.609
▁captain	-11.609
▁Royal	-11.609
▁slogan	-11.609
▁Yale	-11.609
▁feather	-11.609
▁crows	-11.609
▁envision	-11.6091
▁Point	-11.6092
▁wives	-11.6092
▁headquarters	-11.6093
▁copies	-11.6094
▁Poland	-11.6095
▁empowerment	-11.6097
▁Titanic	-11.6098
▁Jill	-11.6098
▁inherently	-11.6102
cultural	-11.6103
▁revolutionary	-11.6104
▁swap	-11.6106
▁sadness	-11.6108
▁Pick	-11.6109
▁progressive	-11.6112
▁hive	-11.6116
▁deepest	-11.6122
▁Both	-11.6126
▁via	-11.614
Cola	-11.6154
▁Teacher	-11.6155
case	-11.6185
▁kite	-11.6196
▁performer	-11.6198
▁integrate	-11.6218
cientific	-11.6225
screen	-11.624
▁Stein	-11.6242
▁thermo	-11.6243
▁mount	-11.6248
supernova	-11.6249
▁Guatemala	-11.6249
▁Oakland	-11.6249
▁PowerPoint	-11.6249
▁Scratch	-11.6249
▁Toronto	-11.6249
▁Vegas	-11.6249
▁autonomy	-11.6249
▁chemotherapy	-11.6249
▁controversy	-11.6249
▁criteria	-11.6249
▁identities	-11.6249
▁lesbian	-11.6249
▁preparation	-11.6249
▁steady	-11.6249
▁synapse	-11.6249
▁morph	-11.6249
▁Diego	-11.6249
ocratic	-11.6249
▁Until	-11.6249
▁Idaho	-11.6249
▁Kelly	-11.6249
▁funeral	-11.6249
▁Mahat	-11.6249
▁firing	-11.625
▁chord	-11.625
▁superpower	-11.6251
▁blueprint	-11.6251
▁oven	-11.6252
▁accomplishment	-11.6252
▁employment	-11.6254
▁seawater	-11.6254
▁settlement	-11.6255
▁reporter	-11.6256
▁Democratic	-11.6256
▁planner	-11.6257
▁systematic	-11.6267
▁symbolic	-11.6268
▁continuously	-11.6271
▁abstraction	-11.6274
▁Max	-11.6276
ambia	-11.628
▁Poor	-11.6282
▁Low	-11.6284
▁crashes	-11.6288
▁Bring	-11.6294
▁FO	-11.6311
▁whip	-11.6324
▁eco	-11.6342
▁redefine	-11.6372
▁disrupt	-11.6402
communica	-11.6408
▁scholar	-11.641
▁Jazeera	-11.641
▁Mediterranean	-11.641
▁Starbucks	-11.641
▁adolescent	-11.641
▁analyzing	-11.641
▁cholera	-11.641
▁council	-11.641
▁distress	-11.641
▁dragonflies	-11.641
▁festival	-11.641
▁frequencies	-11.641
▁gaze	-11.641
▁intriguing	-11.641
▁migrant	-11.641
▁multinational	-11.641
▁peanut	-11.641
▁plankton	-11.641
▁propaganda	-11.641
▁replied	-11.641
▁satisfaction	-11.641
▁statue	-11.641
▁sulfide	-11.641
▁utility	-11.641
▁exquisite	-11.641
▁encode	-11.641
▁Marshall	-11.641
▁slept	-11.641
▁Close	-11.641
▁constitution	-11.6411
▁desktop	-11.6411
▁Deep	-11.6412
▁clone	-11.6412
▁Master	-11.6412
▁Franklin	-11.6413
▁index	-11.6414
▁Stay	-11.6415
▁Left	-11.6415
▁Darwinian	-11.6419
▁managing	-11.6423
▁Ella	-11.6425
▁protective	-11.6431
▁intend	-11.6435
▁swamp	-11.6435
▁characteristic	-11.644
▁hump	-11.6443
▁cartoonist	-11.6446
▁aggregate	-11.6448
▁progression	-11.6451
▁observer	-11.6455
trove	-11.6484
itis	-11.6485
▁heroin	-11.6495
▁beef	-11.6495
flat	-11.6515
uber	-11.6521
▁disappoint	-11.6544
leaning	-11.6551
fro	-11.6557
discriminat	-11.6574
▁competitor	-11.6574
invasive	-11.6574
▁Economist	-11.6574
▁Fahrenheit	-11.6574
▁Modern	-11.6574
▁Nanopatch	-11.6574
▁altruism	-11.6574
▁broccoli	-11.6574
▁chromosomes	-11.6574
▁dysfunction	-11.6574
▁embracing	-11.6574
▁fractal	-11.6574
▁friction	-11.6574
▁maintenance	-11.6574
▁marrow	-11.6574
▁monument	-11.6574
▁neurogenesis	-11.6574
▁rectangle	-11.6574
▁spaghetti	-11.6574
▁undergraduate	-11.6574
▁violin	-11.6574
▁Kibera	-11.6574
▁Lawrence	-11.6574
▁dismiss	-11.6574
▁inhabit	-11.6574
▁Cooper	-11.6574
▁Freud	-11.6574
▁Grace	-11.6574
▁steep	-11.6574
▁avatar	-11.6574
▁overseas	-11.6574
▁observing	-11.6574
▁racing	-11.6574
▁Emma	-11.6574
▁slope	-11.6576
▁ease	-11.6579
▁Bridge	-11.658
▁JF	-11.6582
▁coordinate	-11.6583
▁mandate	-11.6587
▁Night	-11.6587
▁sexuality	-11.6589
degree	-11.6591
▁bay	-11.6594
Barack	-11.6595
three	-11.6597
▁richest	-11.6598
▁tourist	-11.6599
▁ancestor	-11.6606
▁biases	-11.6607
script	-11.6613
orough	-11.6638
documented	-11.6644
▁plea	-11.6692
minded	-11.6705
tenth	-11.6741
▁Colorado	-11.6741
▁Jennifer	-11.6741
▁Mahmoud	-11.6741
▁Ministry	-11.6741
▁Palestine	-11.6741
▁RNG	-11.6741
▁Veronica	-11.6741
▁Virtual	-11.6741
▁ambulance	-11.6741
▁cabinet	-11.6741
▁cocktail	-11.6741
▁deciding	-11.6741
▁disabilities	-11.6741
▁maximum	-11.6741
▁prosecutor	-11.6741
▁satisfied	-11.6741
▁stumble	-11.6741
▁triumph	-11.6741
▁yourselves	-11.6741
▁Edison	-11.6741
▁Houston	-11.6741
▁premise	-11.6741
▁cardiac	-11.6741
▁Change	-11.6741
▁mobilize	-11.6741
▁unseen	-11.6741
▁Isaac	-11.6741
▁retain	-11.6741
▁IMF	-11.6741
▁greed	-11.6742
▁Scottish	-11.6743
▁passage	-11.6753
▁voters	-11.6754
▁Whereas	-11.6756
standing	-11.676
▁repeatedly	-11.6761
correct	-11.6763
▁mob	-11.6767
▁lightning	-11.6771
spen	-11.6771
held	-11.6776
▁composer	-11.6781
▁skeptical	-11.6788
turn	-11.6789
▁Code	-11.6797
▁diagnose	-11.6879
▁associate	-11.6879
▁publisher	-11.6887
▁numb	-11.6893
▁flap	-11.6907
▁orphan	-11.6908
▁import	-11.6909
▁Interviewer	-11.691
▁Maldives	-11.691
▁Photoshop	-11.691
▁Vancouver	-11.691
▁easiest	-11.691
▁enthusiasm	-11.691
▁fuzzy	-11.691
▁genomic	-11.691
▁heavily	-11.691
▁inexpensive	-11.691
▁inherited	-11.691
▁laboratories	-11.691
▁participating	-11.691
▁patience	-11.691
▁reflex	-11.691
▁relativity	-11.691
▁stadium	-11.691
▁Bruce	-11.691
▁Miami	-11.691
▁Wilson	-11.691
▁niece	-11.691
▁shining	-11.691
▁exceed	-11.691
▁Creative	-11.691
▁mustache	-11.691
▁encyclopedia	-11.6911
▁scholarship	-11.6911
▁knot	-11.6911
▁tribal	-11.6911
▁minimal	-11.6911
▁rehabilitation	-11.6911
▁distribute	-11.6912
▁passport	-11.6912
assuming	-11.6914
▁spite	-11.6915
▁NB	-11.6916
▁occurring	-11.6917
▁valve	-11.6919
▁governor	-11.693
▁Pope	-11.6941
▁curl	-11.6943
▁exit	-11.6954
positive	-11.6961
▁promot	-11.6985
Cent	-11.6995
▁loo	-11.7016
▁wander	-11.7019
▁erase	-11.7035
mitt	-11.7045
athlete	-11.7072
▁manifest	-11.7079
▁Accord	-11.7083
▁Almost	-11.7083
▁Circle	-11.7083
▁Corporation	-11.7083
▁Dubai	-11.7083
▁Everglades	-11.7083
▁Except	-11.7083
▁Fortune	-11.7083
▁Group	-11.7083
▁Madagascar	-11.7083
▁Pentagon	-11.7083
▁absurd	-11.7083
▁cathedral	-11.7083
▁eBay	-11.7083
▁invasion	-11.7083
▁ladder	-11.7083
▁manuscript	-11.7083
▁multiverse	-11.7083
▁nuclei	-11.7083
▁physiology	-11.7083
▁protocol	-11.7083
▁romance	-11.7083
▁sensitivity	-11.7083
▁tangible	-11.7083
▁Spider	-11.7083
qualified	-11.7083
▁Soldier	-11.7083
▁pharma	-11.7083
▁meditation	-11.7083
▁anxious	-11.7083
▁causal	-11.7083
▁Gwen	-11.7083
▁Aaron	-11.7083
▁flexibility	-11.7083
▁essay	-11.7083
▁opposition	-11.7083
▁anthropologist	-11.7083
▁injection	-11.7083
▁faint	-11.7083
▁symmetrical	-11.7083
▁vanish	-11.7083
▁Sadly	-11.7083
▁manipulat	-11.7084
▁insult	-11.7084
▁cafe	-11.7084
▁disruptive	-11.7085
▁assessment	-11.7085
▁transmitted	-11.7086
▁font	-11.7087
▁gait	-11.7087
▁urbanization	-11.7088
▁Ground	-11.7089
▁baseline	-11.709
▁potent	-11.709
quarters	-11.7091
▁Students	-11.7093
▁spontaneously	-11.7094
▁Game	-11.7094
▁devise	-11.7095
▁Opera	-11.7096
▁delete	-11.7096
▁Robin	-11.7097
▁heroic	-11.71
▁Bond	-11.71
▁Diet	-11.7101
▁Fall	-11.7107
▁problematic	-11.7108
▁accountable	-11.7113
wheel	-11.7116
▁reuse	-11.7121
▁Shake	-11.7123
▁socio	-11.713
sensitive	-11.7148
controlled	-11.7148
▁migrate	-11.715
midst	-11.7155
organism	-11.7186
enjoying	-11.7201
▁trail	-11.723
▁Mama	-11.7232
▁buck	-11.7255
▁Avenue	-11.7258
▁Bahamas	-11.7258
▁League	-11.7258
▁Magazine	-11.7258
▁RISD	-11.7258
▁Sebastian	-11.7258
▁Taylor	-11.7258
▁anatomy	-11.7258
▁coincidence	-11.7258
▁curtain	-11.7258
▁embryo	-11.7258
▁intrigue	-11.7258
▁larvae	-11.7258
▁libraries	-11.7258
▁reproduction	-11.7258
▁wolves	-11.7258
▁worship	-11.7258
▁Flickr	-11.7258
▁cooperative	-11.7258
▁unleash	-11.7258
▁Marcus	-11.7258
▁Tweet	-11.7258
▁surgical	-11.7258
▁Vinci	-11.7258
▁Malawi	-11.7258
▁memorize	-11.7258
▁committee	-11.7258
▁crank	-11.7258
▁grape	-11.7258
▁salary	-11.7258
▁hallucinations	-11.7258
▁Speak	-11.7258
▁Rather	-11.7259
▁escalat	-11.7259
▁Network	-11.7259
▁singular	-11.726
▁rigid	-11.726
▁claw	-11.7261
▁Ohio	-11.7262
▁manipulation	-11.7264
▁Palm	-11.7267
▁Josh	-11.7268
▁Snow	-11.7269
contained	-11.7273
▁profitable	-11.7275
▁Cuban	-11.7275
▁carries	-11.7282
▁Coca	-11.7283
▁JA	-11.7283
biotic	-11.7291
▁MO	-11.7295
▁Rap	-11.7297
▁hacker	-11.7318
fulfilling	-11.7333
piece	-11.7339
▁relie	-11.7394
▁chick	-11.7434
etropolitan	-11.7437
▁Achilles	-11.7437
▁Bonica	-11.7437
▁Depression	-11.7437
▁Discover	-11.7437
▁Economic	-11.7437
▁Exxon	-11.7437
▁Guardian	-11.7437
▁Yesterday	-11.7437
▁compliment	-11.7437
▁cybercriminal	-11.7437
▁fireflies	-11.7437
▁frustrating	-11.7437
▁puberty	-11.7437
▁solemn	-11.7437
▁syringe	-11.7437
▁unemployment	-11.7437
▁bulk	-11.7437
▁ghost	-11.7437
▁indication	-11.7437
▁summary	-11.7437
▁Dylan	-11.7437
▁accuse	-11.7437
▁liberate	-11.7437
▁glove	-11.7437
▁humankind	-11.7437
▁orgasm	-11.7437
▁conviction	-11.7437
▁conquer	-11.7437
▁Tiger	-11.7437
▁grammar	-11.7437
▁spear	-11.7437
▁Model	-11.7437
▁Anybody	-11.7437
Friend	-11.7437
▁applies	-11.7438
▁depict	-11.744
▁digging	-11.744
▁blogger	-11.7441
▁tilt	-11.7441
▁Police	-11.7441
ipcar	-11.7441
▁cement	-11.7444
▁textile	-11.7444
▁flock	-11.7444
ightened	-11.7447
▁personalities	-11.7448
▁fame	-11.7452
▁Romo	-11.7456
▁zip	-11.7465
▁folk	-11.75
school	-11.7534
Africa	-11.7538
ER	-11.7552
▁insula	-11.7558
▁foi	-11.7601
▁Julia	-11.7611
▁Glenn	-11.7618
▁Holocaust	-11.7618
▁Hundreds	-11.7618
▁Melinda	-11.7618
▁Oprah	-11.7618
▁Tamiflu	-11.7618
▁Tehran	-11.7618
▁Voyager	-11.7618
▁abortion	-11.7618
▁anesthesia	-11.7618
▁calculating	-11.7618
▁commodities	-11.7618
▁disadvantage	-11.7618
▁elbow	-11.7618
▁fluctuation	-11.7618
▁galleries	-11.7618
▁grocery	-11.7618
▁mycelium	-11.7618
▁oyster	-11.7618
▁parliament	-11.7618
▁province	-11.7618
▁seafood	-11.7618
▁slaughter	-11.7618
▁specimen	-11.7618
▁CNN	-11.7618
▁Europa	-11.7618
▁fishermen	-11.7618
▁technologist	-11.7618
enabling	-11.7618
centric	-11.7619
▁blessed	-11.7619
▁soccer	-11.7619
▁Trust	-11.7619
▁greet	-11.7619
▁Algeria	-11.7619
▁assess	-11.7619
▁posture	-11.7619
▁shade	-11.762
▁confusion	-11.7621
▁regardless	-11.7622
mediate	-11.7622
▁breakdown	-11.7623
▁Sub	-11.7623
▁noticing	-11.7624
▁glu	-11.7626
▁puff	-11.7631
radiat	-11.7634
JC	-11.7653
lateral	-11.7654
apping	-11.7663
▁nonviolen	-11.7774
▁mast	-11.7783
▁compass	-11.78
▁perpetrat	-11.7804
adolescence	-11.7804
temporal	-11.7804
▁Anonymous	-11.7804
▁Compassion	-11.7804
▁Mississippi	-11.7804
▁Progress	-11.7804
▁Survey	-11.7804
▁Tahrir	-11.7804
▁companion	-11.7804
▁fingertips	-11.7804
▁generosity	-11.7804
▁gigantic	-11.7804
▁gratitude	-11.7804
▁incorporat	-11.7804
▁irrelevant	-11.7804
▁leopard	-11.7804
▁liberty	-11.7804
▁metabolic	-11.7804
▁pervasive	-11.7804
▁powder	-11.7804
▁prohibit	-11.7804
▁velocity	-11.7804
▁Agency	-11.7804
▁Murray	-11.7804
▁Hitler	-11.7804
▁Ninety	-11.7804
▁bypass	-11.7804
▁thrust	-11.7804
▁Eighty	-11.7804
▁Gando	-11.7804
▁scroll	-11.7804
▁Potter	-11.7804
▁bombsight	-11.7804
▁Jesse	-11.7804
▁hammer	-11.7804
▁Text	-11.7804
▁Caltech	-11.7804
▁citizenship	-11.7805
▁Conference	-11.7806
▁rival	-11.7806
▁slam	-11.7807
▁criticism	-11.7807
cheek	-11.7808
▁Moses	-11.7809
▁admitted	-11.7809
▁Rush	-11.781
▁versa	-11.7811
▁ramp	-11.7811
▁copper	-11.7812
▁Someone	-11.7813
ounce	-11.7818
▁Understand	-11.7818
▁distraction	-11.7821
▁Alto	-11.7828
▁flute	-11.7835
ranging	-11.786
ummy	-11.7861
▁conserv	-11.7873
▁symptom	-11.7881
▁vice	-11.79
▁impose	-11.791
social	-11.7942
other	-11.796
fairy	-11.7963
▁guilt	-11.7979
▁incremental	-11.798
▁Antarctic	-11.7982
▁differ	-11.7989
▁defect	-11.7992
equipped	-11.7992
▁Club	-11.7992
▁Energy	-11.7992
▁Goliath	-11.7992
▁Panbanisha	-11.7992
▁Strange	-11.7992
▁Thousands	-11.7992
▁authoritarian	-11.7992
▁choir	-11.7992
▁diminish	-11.7992
▁eradication	-11.7992
▁microscopic	-11.7992
▁midnight	-11.7992
▁neglect	-11.7992
▁nonsense	-11.7992
▁occupation	-11.7992
▁octopus	-11.7992
▁stratosphere	-11.7992
▁surviving	-11.7992
▁PDF	-11.7992
▁Samuel	-11.7992
▁chalk	-11.7992
generative	-11.7992
▁Amanda	-11.7992
▁Falcon	-11.7992
▁Titus	-11.7992
▁violate	-11.7992
▁Senate	-11.7992
▁crises	-11.7992
▁Ryan	-11.7993
▁compil	-11.7993
▁Vietnamese	-11.7993
▁acute	-11.7993
▁banned	-11.7993
▁jury	-11.7993
▁correlate	-11.7993
▁polymer	-11.7995
▁Program	-11.7996
▁Gaza	-11.7996
▁manifestation	-11.7997
▁clap	-11.7997
ompanies	-11.7997
▁visitors	-11.7999
▁viable	-11.7999
▁Jason	-11.8001
▁Bono	-11.8002
▁Baby	-11.8003
▁Face	-11.8003
▁Walter	-11.8004
▁pillar	-11.8005
▁dude	-11.8006
▁Town	-11.8008
▁interfere	-11.8034
▁Base	-11.8076
▁Teach	-11.8114
conflict	-11.8133
cycle	-11.8146
▁Count	-11.8171
▁Armstrong	-11.8185
▁Cassini	-11.8185
▁Channel	-11.8185
▁Digital	-11.8185
▁Lakota	-11.8185
▁Reagan	-11.8185
▁Toyota	-11.8185
▁Volunteer	-11.8185
▁catastrophic	-11.8185
▁chaotic	-11.8185
▁frightened	-11.8185
▁hurdle	-11.8185
▁injustice	-11.8185
▁modified	-11.8185
▁mundane	-11.8185
▁opponent	-11.8185
▁submarine	-11.8185
▁submersible	-11.8185
▁surrender	-11.8185
▁thylacine	-11.8185
▁Agnes	-11.8185
▁Engine	-11.8185
▁monsoon	-11.8185
▁testosterone	-11.8185
▁Archie	-11.8185
▁Captain	-11.8185
▁Micro	-11.8185
▁displaced	-11.8185
▁degraded	-11.8185
▁eager	-11.8185
▁True	-11.8185
▁parameters	-11.8185
▁warfare	-11.8185
▁Venter	-11.8185
▁Witness	-11.8185
esteem	-11.8185
▁imitate	-11.8185
▁forehead	-11.8185
▁dispute	-11.8185
▁cried	-11.8185
▁masterpiece	-11.8185
▁Hadr	-11.8185
▁Jimmy	-11.8186
▁Anyone	-11.8186
▁ooh	-11.8187
▁mature	-11.8188
▁flick	-11.8188
▁shred	-11.8188
▁mixture	-11.8188
▁hallway	-11.8188
▁blanket	-11.8189
▁outrage	-11.8189
▁peek	-11.819
▁differentiate	-11.8192
▁acceptance	-11.8193
▁skate	-11.8198
▁chill	-11.8199
▁Brand	-11.8199
▁Tree	-11.82
▁Marx	-11.8203
▁Doug	-11.8211
▁Anna	-11.8217
ploy	-11.826
uestion	-11.8288
▁pea	-11.8303
▁Mario	-11.8306
Isn	-11.8317
▁recycle	-11.8353
burn	-11.8365
group	-11.8366
▁Biosphere	-11.8381
▁Collect	-11.8381
▁Convention	-11.8381
▁IKEA	-11.8381
▁Nevada	-11.8381
▁Raisuddin	-11.8381
▁Together	-11.8381
▁calcium	-11.8381
▁cartilage	-11.8381
▁contagious	-11.8381
▁dissolve	-11.8381
▁equator	-11.8381
▁imperfect	-11.8381
▁limestone	-11.8381
▁quantity	-11.8381
▁temptation	-11.8381
izzy	-11.8381
▁Kanzi	-11.8381
▁grief	-11.8381
▁BBC	-11.8381
▁CIA	-11.8381
▁resort	-11.8381
▁abnormal	-11.8381
▁dentist	-11.8381
▁motorcycle	-11.8381
▁reply	-11.8381
▁petals	-11.8382
▁enrich	-11.8382
▁restrictions	-11.8382
▁hatred	-11.8383
▁Compare	-11.8383
ggling	-11.8383
▁flex	-11.8383
▁orphanage	-11.8383
▁consultant	-11.8383
▁mythology	-11.8384
▁shortcut	-11.8387
▁Market	-11.8392
nanometer	-11.8393
▁Chair	-11.8394
▁Online	-11.8395
▁hatch	-11.8409
traumatic	-11.841
harming	-11.8446
▁evaporate	-11.8458
▁combin	-11.8518
operated	-11.8549
synchron	-11.8569
bladder	-11.8581
counterintuitive	-11.8581
▁CAPTCHA	-11.8581
▁CERN	-11.8581
▁Essentially	-11.8581
▁Galileo	-11.8581
▁Kentucky	-11.8581
▁Probably	-11.8581
▁Thanksgiving	-11.8581
▁annoying	-11.8581
▁certificate	-11.8581
▁convincing	-11.8581
▁crocodile	-11.8581
▁delusion	-11.8581
▁grassroots	-11.8581
▁happiest	-11.8581
▁helmet	-11.8581
▁improbable	-11.8581
▁indirect	-11.8581
▁infrared	-11.8581
▁loneliness	-11.8581
▁mammoth	-11.8581
▁mortgage	-11.8581
▁nucleus	-11.8581
▁numerous	-11.8581
▁prevalence	-11.8581
▁promising	-11.8581
▁servant	-11.8581
▁symphony	-11.8581
▁unacceptable	-11.8581
▁violation	-11.8581
▁internship	-11.8581
▁mutant	-11.8581
▁playground	-11.8581
▁curator	-11.8581
▁policing	-11.8581
▁shelves	-11.8581
▁Father	-11.8581
▁radar	-11.8581
▁juggle	-11.8581
▁lamb	-11.8581
▁waterfall	-11.8581
▁bionic	-11.8581
▁shuttle	-11.8581
▁Nano	-11.8581
▁resonate	-11.8581
▁battlefield	-11.8581
▁Brook	-11.8582
▁geometric	-11.8582
▁conscience	-11.8582
▁blindfold	-11.8582
▁Cohen	-11.8584
▁monk	-11.8584
▁Jenn	-11.8584
▁Planet	-11.8585
▁courageous	-11.8585
▁crust	-11.8585
▁potatoes	-11.8587
market	-11.8588
million	-11.8589
▁Still	-11.859
▁Motor	-11.8596
▁Christianity	-11.8599
▁chap	-11.8602
▁grim	-11.8657
▁Khan	-11.866
lude	-11.8713
keeper	-11.8734
▁Clark	-11.8761
AG	-11.8773
rooted	-11.8778
▁evaluate	-11.8782
frequent	-11.8783
▁biotech	-11.8784
▁censor	-11.8784
▁Hebrew	-11.8785
▁Moscow	-11.8785
▁Portuguese	-11.8785
▁Studio	-11.8785
▁aluminum	-11.8785
▁analytical	-11.8785
▁auditorium	-11.8785
▁beneficial	-11.8785
▁complication	-11.8785
▁extensive	-11.8785
▁hobby	-11.8785
▁insecure	-11.8785
▁janitor	-11.8785
▁optimal	-11.8785
▁pregnancy	-11.8785
▁quantities	-11.8785
▁regulator	-11.8785
▁unemployed	-11.8785
▁victory	-11.8785
▁visceral	-11.8785
▁worthwhile	-11.8785
sourcing	-11.8785
▁Goodbye	-11.8785
▁MBA	-11.8785
▁Origin	-11.8785
▁delicate	-11.8785
▁offshore	-11.8785
▁petition	-11.8785
▁resonance	-11.8785
▁Bassem	-11.8785
▁Lanka	-11.8785
▁Village	-11.8785
▁recreate	-11.8785
▁wreck	-11.8785
▁Isabel	-11.8785
▁elders	-11.8785
▁halve	-11.8785
▁backpack	-11.8785
▁distill	-11.8785
▁straw	-11.8785
▁Living	-11.8785
▁Oscar	-11.8785
▁pepper	-11.8785
▁Old	-11.8785
▁aviation	-11.8786
▁clich	-11.8786
▁Duke	-11.8788
▁prescribe	-11.8788
▁legend	-11.8789
▁Mission	-11.8792
▁Solly	-11.8794
▁Poem	-11.8796
▁entity	-11.8796
▁Self	-11.8796
▁misuse	-11.8798
security	-11.8803
▁Million	-11.8823
▁Scot	-11.8885
ripped	-11.8889
▁lend	-11.8908
▁remov	-11.8919
▁dorm	-11.8931
▁infect	-11.8951
etween	-11.8993
▁Yellow	-11.8993
▁enthusiast	-11.8993
▁affirm	-11.8993
▁Baghdad	-11.8993
▁Cameron	-11.8993
▁Dimitri	-11.8993
▁Enceladus	-11.8993
▁Illinois	-11.8993
▁Jonathan	-11.8993
▁Lesterland	-11.8993
▁Malaysia	-11.8993
▁Missouri	-11.8993
▁Nollywood	-11.8993
▁Papua	-11.8993
▁Russell	-11.8993
▁bandwidth	-11.8993
▁census	-11.8993
▁convenience	-11.8993
▁declining	-11.8993
▁equilibrium	-11.8993
▁finite	-11.8993
▁hypotheses	-11.8993
▁intangible	-11.8993
▁intricate	-11.8993
▁migraine	-11.8993
▁paralysis	-11.8993
▁pivot	-11.8993
▁reproductive	-11.8993
▁rhetoric	-11.8993
▁savanna	-11.8993
▁sediment	-11.8993
▁simulator	-11.8993
▁unpredictable	-11.8993
▁vegetation	-11.8993
▁wavelength	-11.8993
▁widespread	-11.8993
▁attorney	-11.8993
▁impaired	-11.8993
▁venue	-11.8993
▁lazy	-11.8993
▁Judge	-11.8993
▁unstable	-11.8993
▁Barbie	-11.8993
▁Control	-11.8993
▁shaping	-11.8993
▁blessing	-11.8993
orrow	-11.8993
▁benign	-11.8993
▁nanotechnology	-11.8993
▁Rosling	-11.8994
▁shove	-11.8995
▁carrier	-11.8995
▁throat	-11.8995
▁Grey	-11.8995
▁billboard	-11.8995
▁transferred	-11.8995
unshine	-11.8996
▁circulation	-11.8997
ifteen	-11.8998
▁standpoint	-11.8998
▁Yves	-11.8999
▁assembled	-11.9
▁urine	-11.9001
▁sync	-11.9008
confidence	-11.9029
forward	-11.9035
▁lump	-11.9041
▁corporation	-11.9119
▁antibiotic	-11.912
▁inherent	-11.919
▁societ	-11.9191
▁Archimedes	-11.9206
▁Ecuador	-11.9206
▁Fibonacci	-11.9206
▁Senegal	-11.9206
▁Stirling	-11.9206
▁Thursday	-11.9206
▁Vermeer	-11.9206
▁approval	-11.9206
▁buzz	-11.9206
▁embodied	-11.9206
▁fundraising	-11.9206
▁incomplete	-11.9206
▁laundry	-11.9206
▁railroad	-11.9206
▁shield	-11.9206
▁synthesis	-11.9206
▁timber	-11.9206
▁tropics	-11.9206
▁voyage	-11.9206
▁Democracy	-11.9206
▁Knowing	-11.9206
▁Oliver	-11.9206
▁Gordon	-11.9206
▁fierce	-11.9206
▁penetrate	-11.9206
▁Prison	-11.9206
▁Raise	-11.9206
▁depressing	-11.9206
▁geographical	-11.9206
induced	-11.9206
▁scope	-11.9206
▁denied	-11.9206
▁Android	-11.9206
▁stiff	-11.9206
▁alliance	-11.9206
▁mutate	-11.9207
▁stink	-11.9207
▁terminal	-11.9207
▁stall	-11.9208
▁wax	-11.9209
espite	-11.921
▁incidentally	-11.921
▁urgent	-11.921
▁erupt	-11.9211
▁astro	-11.9215
▁synchronize	-11.9218
Uh	-11.9253
solving	-11.9261
specific	-11.9262
▁activat	-11.9291
Contra	-11.9308
directed	-11.931
dged	-11.9335
▁examine	-11.9356
▁rabbi	-11.9364
▁literal	-11.9407
▁stole	-11.9412
▁circulat	-11.9419
governmental	-11.942
▁psychiatri	-11.9421
▁Brilliant	-11.9423
▁Collider	-11.9423
▁Federal	-11.9423
▁Hampshire	-11.9423
▁abundant	-11.9423
▁ambiguity	-11.9423
▁anecdote	-11.9423
▁charities	-11.9423
▁existential	-11.9423
▁hollow	-11.9423
▁hurricane	-11.9423
▁modules	-11.9423
▁pneumonia	-11.9423
▁rediscover	-11.9423
▁remittance	-11.9423
▁scuba	-11.9423
▁surplus	-11.9423
▁thunder	-11.9423
▁tuberculosis	-11.9423
▁unintended	-11.9423
▁varieties	-11.9423
▁Correct	-11.9423
▁Galois	-11.9423
▁Picture	-11.9423
▁Shoots	-11.9423
▁athletic	-11.9423
▁bloom	-11.9423
▁choreograph	-11.9423
▁compact	-11.9423
▁rainfall	-11.9423
▁Record	-11.9423
▁debris	-11.9423
▁Commun	-11.9423
▁harass	-11.9423
entrepreneurship	-11.9423
▁doubling	-11.9423
▁tennis	-11.9423
▁Dream	-11.9423
▁Hotel	-11.9424
▁entitled	-11.9424
▁ATM	-11.9424
▁inviting	-11.9424
▁censorship	-11.9424
▁constructive	-11.9424
▁pave	-11.9424
▁erotic	-11.9424
worn	-11.9424
▁Grant	-11.9424
▁Turkish	-11.9425
▁bunk	-11.9425
▁submitted	-11.9425
▁portray	-11.9426
▁verge	-11.9426
▁Tracy	-11.9427
Actor	-11.9427
▁Maryland	-11.9427
▁Jackson	-11.9428
▁Daddy	-11.9428
▁distinctive	-11.9429
▁novelty	-11.9429
▁Money	-11.943
▁promotion	-11.943
▁disruption	-11.943
▁Rag	-11.9432
▁shipped	-11.9432
▁verse	-11.9444
politi	-11.9454
▁Berg	-11.9475
typical	-11.95
bank	-11.9502
▁Midwest	-11.952
▁slot	-11.9553
▁characterize	-11.9569
brain	-11.9578
▁prioritize	-11.9583
▁Hawk	-11.9612
emission	-11.9621
▁expose	-11.9628
▁pediatric	-11.9645
▁Alfred	-11.9645
▁Embassy	-11.9645
▁Financial	-11.9645
▁Hiroshima	-11.9645
▁Judaism	-11.9645
▁Mathematica	-11.9645
▁Mongolia	-11.9645
▁Morocco	-11.9645
▁Sergio	-11.9645
▁Traditional	-11.9645
▁algebra	-11.9645
▁celebrating	-11.9645
▁conspiracy	-11.9645
▁entrepreneurial	-11.9645
▁ethanol	-11.9645
▁giraffe	-11.9645
▁guidance	-11.9645
▁horrific	-11.9645
▁hygiene	-11.9645
▁hypothetical	-11.9645
▁lightweight	-11.9645
▁nectar	-11.9645
▁psyche	-11.9645
▁reclaim	-11.9645
▁shoreline	-11.9645
▁simplistic	-11.9645
▁superhero	-11.9645
▁whistling	-11.9645
▁TBP	-11.9645
▁Walmart	-11.9645
▁commute	-11.9645
▁cultivate	-11.9645
▁introvert	-11.9646
▁collide	-11.9646
▁lawsuit	-11.9646
▁uncover	-11.9646
▁Normal	-11.9646
▁haunt	-11.9646
▁Batman	-11.9646
▁snapshot	-11.9646
▁replicator	-11.9646
▁Mellon	-11.9646
▁Saint	-11.9646
▁cease	-11.9647
▁Portland	-11.9647
▁duration	-11.9648
▁electromagnetic	-11.9648
▁raft	-11.9648
▁quiz	-11.9648
▁Worldchanging	-11.9649
▁Dark	-11.9649
▁Wired	-11.965
▁Jonas	-11.9651
▁sober	-11.9661
color	-11.9735
▁fisc	-11.9756
value	-11.976
sighted	-11.9777
economic	-11.9783
▁oppos	-11.9842
sumption	-11.9846
▁hung	-11.9854
echanical	-11.9871
hypertension	-11.9873
▁ADHD	-11.9873
▁Dublin	-11.9873
▁Hurricane	-11.9873
▁Movember	-11.9873
▁OPEC	-11.9873
▁Philippines	-11.9873
▁Picasso	-11.9873
▁Stockholm	-11.9873
▁acceleration	-11.9873
▁accompanie	-11.9873
▁ambassador	-11.9873
▁exoplanet	-11.9873
▁graffiti	-11.9873
▁hippocampus	-11.9873
▁incarceration	-11.9873
▁introducing	-11.9873
▁malnutrition	-11.9873
▁mammogram	-11.9873
▁pessimist	-11.9873
▁prevail	-11.9873
▁prototyping	-11.9873
▁pursuing	-11.9873
▁recipient	-11.9873
▁subsequent	-11.9873
▁treasure	-11.9873
▁turbine	-11.9873
▁wetsuit	-11.9873
▁embark	-11.9873
▁glorious	-11.9873
▁quantitative	-11.9873
▁racism	-11.9873
▁shuffle	-11.9873
derived	-11.9873
▁rainbow	-11.9873
▁vector	-11.9873
▁divine	-11.9873
▁landfill	-11.9873
▁selves	-11.9873
▁Eames	-11.9873
▁ideological	-11.9873
▁Maslow	-11.9873
▁personnel	-11.9873
▁supercomputer	-11.9873
▁marvelous	-11.9874
▁jewelry	-11.9875
tolerant	-11.9875
▁Theater	-11.9875
▁replacing	-11.9875
▁Diana	-11.9876
▁rotating	-11.9876
▁stir	-11.9876
▁missile	-11.9876
▁grassland	-11.9877
▁curse	-11.9878
▁nitr	-11.9879
▁Robot	-11.988
▁permit	-11.9882
▁Image	-11.9882
Mommy	-11.9891
appreciated	-11.9924
imposed	-11.9973
Thank	-11.9985
fashioned	-11.9988
AIDS	-11.9994
growing	-11.9996
▁releas	-12.0019
▁employee	-12.0041
reviewed	-12.0054
stepping	-12.0072
evident	-12.0105
league	-12.0105
▁Beatles	-12.0105
▁Hungarian	-12.0105
▁Nicholas	-12.0105
▁Southeast	-12.0105
▁activism	-12.0105
▁capacities	-12.0105
▁confession	-12.0105
▁confusing	-12.0105
▁doodling	-12.0105
▁excellence	-12.0105
▁eyebrow	-12.0105
▁foreground	-12.0105
▁gecko	-12.0105
▁horrified	-12.0105
▁investigating	-12.0105
▁negotiating	-12.0105
▁nurturing	-12.0105
▁penicillin	-12.0105
▁prejudice	-12.0105
▁reluctan	-12.0105
▁retrospect	-12.0105
▁stimulus	-12.0105
▁synesthesia	-12.0105
▁Vienna	-12.0105
▁beekeepers	-12.0105
▁catalog	-12.0105
▁draft	-12.0105
▁Aimee	-12.0105
▁Chief	-12.0105
▁praise	-12.0105
▁Valenti	-12.0105
▁Hudson	-12.0105
▁behaving	-12.0105
▁shiny	-12.0105
▁Magic	-12.0105
▁gossip	-12.0105
▁swear	-12.0105
▁jacket	-12.0106
▁hurry	-12.0106
▁Claus	-12.0106
▁Trek	-12.0106
▁suitcase	-12.0106
▁fungus	-12.0106
▁notebook	-12.0107
▁packaging	-12.0107
▁Copernicus	-12.0107
▁preschool	-12.0107
▁hind	-12.0107
▁boson	-12.0107
▁Forbes	-12.0107
▁chemo	-12.0108
▁referred	-12.0108
▁shallow	-12.0108
▁competent	-12.011
▁pearl	-12.011
▁keen	-12.0111
▁swo	-12.0124
Having	-12.0152
▁fuse	-12.0153
conditioning	-12.0194
stitution	-12.0239
present	-12.0247
engage	-12.0252
green	-12.0254
intelligent	-12.0285
▁Build	-12.0308
▁apparent	-12.0327
▁browse	-12.033
anthrop	-12.0343
megawatt	-12.0343
▁Asperger	-12.0343
▁Awesome	-12.0343
▁Botswana	-12.0343
▁Broadmoor	-12.0343
▁Broadway	-12.0343
▁Charlotte	-12.0343
▁Eleanor	-12.0343
▁Evolution	-12.0343
▁Helvetica	-12.0343
▁Hispanic	-12.0343
▁Hopkins	-12.0343
▁Innovation	-12.0343
▁Mandarin	-12.0343
▁Mitchell	-12.0343
▁Najmuddin	-12.0343
▁Saddam	-12.0343
▁Special	-12.0343
▁USDA	-12.0343
▁antidepressant	-12.0343
▁astounding	-12.0343
▁comprehensive	-12.0343
▁cumulative	-12.0343
▁faculty	-12.0343
▁lithium	-12.0343
▁nickname	-12.0343
▁orangutan	-12.0343
▁ozone	-12.0343
▁paragraph	-12.0343
▁puncture	-12.0343
▁radius	-12.0343
▁royal	-12.0343
▁sponge	-12.0343
▁tadpole	-12.0343
▁treadmill	-12.0343
▁unfinished	-12.0343
▁Bonnie	-12.0343
▁Graham	-12.0343
▁NIH	-12.0343
▁Rachel	-12.0343
▁altruist	-12.0343
▁paradise	-12.0343
▁polish	-12.0343
▁revenge	-12.0343
▁toddler	-12.0343
▁Furby	-12.0343
▁Kabul	-12.0343
▁genital	-12.0343
▁juggling	-12.0343
▁motto	-12.0343
▁Harlem	-12.0344
▁epic	-12.0344
▁glide	-12.0344
▁modify	-12.0344
▁Ranger	-12.0344
▁Donald	-12.0344
▁prophet	-12.0344
▁Martian	-12.0344
▁detach	-12.0344
▁Bowl	-12.0344
partisan	-12.0344
▁crater	-12.0344
▁banjo	-12.0344
▁superconductor	-12.0345
▁Generation	-12.0345
▁scanned	-12.0345
▁teddy	-12.0346
▁checklist	-12.0346
▁continuum	-12.0347
▁drip	-12.0354
▁justify	-12.0376
▁Clar	-12.0383
contacted	-12.044
specially	-12.0473
sound	-12.0512
driving	-12.0514
woman	-12.0516
▁mortal	-12.0584
▁uncertain	-12.0586
efficacy	-12.0587
explosive	-12.0587
regulating	-12.0587
rthodox	-12.0587
wrinkle	-12.0587
▁Alexandria	-12.0587
▁Campaign	-12.0587
▁Celsius	-12.0587
▁Challenge	-12.0587
▁Eduardo	-12.0587
▁IDEO	-12.0587
▁Jacques	-12.0587
▁Stanley	-12.0587
▁administrator	-12.0587
▁aquatic	-12.0587
▁arbitrary	-12.0587
▁cyclist	-12.0587
▁estrogen	-12.0587
▁exclude	-12.0587
▁offensive	-12.0587
▁secular	-12.0587
▁serotonin	-12.0587
▁sympathy	-12.0587
▁ridicule	-12.0587
▁superstar	-12.0587
colonial	-12.0587
▁dependence	-12.0587
scatter	-12.0587
▁Rouge	-12.0587
▁automated	-12.0587
▁deceive	-12.0587
▁solitary	-12.0587
▁Terence	-12.0587
▁discrete	-12.0587
▁meadow	-12.0587
▁Critic	-12.0587
▁superior	-12.0587
▁melody	-12.0587
▁socket	-12.0587
▁queue	-12.0588
welve	-12.0588
knit	-12.0588
▁Morgan	-12.0588
▁Surely	-12.0588
▁fingerprint	-12.0588
▁Pardon	-12.0588
▁pension	-12.0588
▁giga	-12.0589
alactic	-12.0589
▁geological	-12.0589
▁outrageous	-12.0589
▁feat	-12.0589
▁Erik	-12.0589
▁obey	-12.0589
▁misery	-12.059
▁pollute	-12.0593
▁Bolt	-12.06
▁reconnect	-12.0605
culture	-12.064
basin	-12.073
writing	-12.0785
▁implication	-12.079
Star	-12.0791
control	-12.0792
symmetric	-12.0837
categoriz	-12.0837
rogue	-12.0837
▁Anthony	-12.0837
▁Arkansas	-12.0837
▁Aurora	-12.0837
▁Bageye	-12.0837
▁Extreme	-12.0837
▁Matthew	-12.0837
▁Nowadays	-12.0837
▁PIPA	-12.0837
▁Shortly	-12.0837
▁Species	-12.0837
▁Sudhir	-12.0837
▁Ukraine	-12.0837
▁Wednesday	-12.0837
▁acronym	-12.0837
▁liberation	-12.0837
▁mammography	-12.0837
▁maximize	-12.0837
▁rhino	-12.0837
▁thriving	-12.0837
▁worries	-12.0837
commerce	-12.0837
▁CPU	-12.0837
▁Laptop	-12.0837
▁bruise	-12.0837
▁fission	-12.0837
▁measles	-12.0837
▁Capital	-12.0837
▁DDT	-12.0837
▁Choir	-12.0837
▁lymph	-12.0837
▁deplet	-12.0837
▁kitten	-12.0837
▁Klein	-12.0837
▁scoop	-12.0837
▁instability	-12.0838
▁spawn	-12.0838
▁Tomorrow	-12.0838
▁Giant	-12.0838
▁Constitution	-12.0838
▁Boeing	-12.0838
▁clapping	-12.0838
prehensi	-12.0838
▁courtyard	-12.0839
▁championship	-12.0839
▁railway	-12.0839
▁adulthood	-12.0839
▁agile	-12.0839
▁lava	-12.084
proving	-12.084
hmm	-12.084
▁Pitt	-12.0841
▁Film	-12.0841
▁Lisa	-12.0841
▁porn	-12.0843
▁seize	-12.0901
▁hedge	-12.093
▁strap	-12.0981
▁circumstance	-12.1053
▁excite	-12.106
voice	-12.106
▁thrill	-12.1064
▁spontaneous	-12.1077
▁Tasmania	-12.108
▁potato	-12.1085
▁enforce	-12.1091
Leymah	-12.1094
vocation	-12.1094
▁Disease	-12.1094
▁Elephant	-12.1094
▁Emmanuel	-12.1094
▁Kurzweil	-12.1094
▁Swahili	-12.1094
▁Typically	-12.1094
▁adequate	-12.1094
▁antibodies	-12.1094
▁arguably	-12.1094
▁cafeteria	-12.1094
▁devastated	-12.1094
▁disbelief	-12.1094
▁discomfort	-12.1094
▁educating	-12.1094
▁fertility	-12.1094
▁implicit	-12.1094
▁memorable	-12.1094
▁napkin	-12.1094
▁pancreatic	-12.1094
▁provoke	-12.1094
▁retrofit	-12.1094
▁rigorous	-12.1094
▁smuggle	-12.1094
▁sulfur	-12.1094
▁unequal	-12.1094
▁veterinarian	-12.1094
▁barbershop	-12.1094
▁hyena	-12.1094
▁Genome	-12.1094
▁Pearl	-12.1094
▁hunch	-12.1094
▁nuance	-12.1094
▁strive	-12.1094
▁undercover	-12.1094
▁variant	-12.1094
▁Linda	-12.1094
▁Therefore	-12.1094
▁jeans	-12.1094
▁windmill	-12.1094
▁minimize	-12.1094
▁erosion	-12.1094
▁regain	-12.1094
▁steak	-12.1094
▁scalable	-12.1094
▁cereal	-12.1094
▁sniff	-12.1094
▁asylum	-12.1094
▁unveil	-12.1094
▁sought	-12.1094
▁barber	-12.1095
▁crisp	-12.1095
▁nomad	-12.1096
▁hike	-12.1105
chlor	-12.111
avian	-12.1124
▁acquir	-12.1133
▁contaminat	-12.1291
▁stab	-12.1353
▁jewel	-12.1355
composite	-12.1357
wrestling	-12.1357
▁Cyril	-12.1357
▁DIY	-12.1357
▁District	-12.1357
▁Dragon	-12.1357
▁Istanbul	-12.1357
▁JPL	-12.1357
▁Maitreya	-12.1357
▁NATO	-12.1357
▁Negroponte	-12.1357
▁Netflix	-12.1357
▁Rockefeller	-12.1357
▁SOPA	-12.1357
▁StoryCorps	-12.1357
▁Transition	-12.1357
▁Velcro	-12.1357
▁anonymity	-12.1357
▁bioluminescence	-12.1357
▁capsule	-12.1357
▁centigrade	-12.1357
▁downstairs	-12.1357
▁heartbreak	-12.1357
▁immigration	-12.1357
▁incubator	-12.1357
▁miraculous	-12.1357
▁modular	-12.1357
▁perceptual	-12.1357
▁prostitute	-12.1357
▁psychic	-12.1357
▁reconcile	-12.1357
▁recreation	-12.1357
▁sprawl	-12.1357
▁template	-12.1357
▁variability	-12.1357
▁vegetarian	-12.1357
▁vibrating	-12.1357
▁virtuous	-12.1357
▁yogurt	-12.1357
apartheid	-12.1357
▁Harriet	-12.1357
▁Product	-12.1357
▁alpha	-12.1357
▁beloved	-12.1357
▁homosexual	-12.1357
▁physiological	-12.1357
▁rupees	-12.1357
▁vicious	-12.1357
▁abusive	-12.1357
▁burial	-12.1357
▁dictate	-12.1357
▁pennies	-12.1357
▁Harbor	-12.1357
▁Though	-12.1357
▁Austin	-12.1357
▁arose	-12.1357
▁maze	-12.1357
▁cobra	-12.1357
▁arteries	-12.1357
▁ingenious	-12.1357
▁sterile	-12.1357
▁ultrasound	-12.1357
▁decode	-12.1357
▁illiterate	-12.1357
▁pornography	-12.1357
▁zoning	-12.1357
▁Command	-12.1357
▁Often	-12.1357
▁Weibo	-12.1357
▁uprising	-12.1358
▁Mmm	-12.1359
opulation	-12.136
▁inflate	-12.1394
▁conceive	-12.1425
▁ovari	-12.1452
conceived	-12.1558
▁dominate	-12.1596
▁volcan	-12.1615
▁Develop	-12.1624
▁Thai	-12.1626
▁reception	-12.1627
disciplinary	-12.1627
▁Acumen	-12.1627
▁Alhambra	-12.1627
▁Chernobyl	-12.1627
▁Chicken	-12.1627
▁Cochrane	-12.1627
▁Gapminder	-12.1627
▁Mauritius	-12.1627
▁Minnesota	-12.1627
▁Statistic	-12.1627
▁Tarahumara	-12.1627
▁admission	-12.1627
▁adversity	-12.1627
▁applaud	-12.1627
▁apprentice	-12.1627
▁astronomical	-12.1627
▁blunt	-12.1627
▁charcoal	-12.1627
▁communal	-12.1627
▁daunting	-12.1627
▁degradation	-12.1627
▁elusive	-12.1627
▁empirical	-12.1627
▁fracture	-12.1627
▁imaginative	-12.1627
▁latitude	-12.1627
▁linguistic	-12.1627
▁literary	-12.1627
▁measurable	-12.1627
▁misconception	-12.1627
▁plague	-12.1627
▁pristine	-12.1627
▁pronounce	-12.1627
▁relevance	-12.1627
▁repertoire	-12.1627
▁semester	-12.1627
▁stunning	-12.1627
▁supplement	-12.1627
▁tactics	-12.1627
▁unfamiliar	-12.1627
▁vague	-12.1627
▁EEG	-12.1627
▁cruise	-12.1627
▁livelihood	-12.1627
▁vapor	-12.1627
▁Consider	-12.1627
▁Geneva	-12.1627
▁Myriad	-12.1627
▁Protect	-12.1627
▁Reserve	-12.1627
▁ecologist	-12.1627
▁heartbeat	-12.1627
▁instinctively	-12.1627
▁gorilla	-12.1627
▁Devil	-12.1627
▁Twain	-12.1627
▁Delta	-12.1627
▁hippie	-12.1627
▁tinker	-12.1627
▁uplift	-12.1627
▁relieved	-12.1627
▁unsustainable	-12.1627
▁bluefin	-12.1627
▁starving	-12.1627
▁Bueno	-12.1627
▁foragers	-12.1627
▁instructor	-12.1628
▁beaver	-12.1628
▁sank	-12.1628
▁resign	-12.1628
▁fridge	-12.1628
▁dining	-12.163
Leave	-12.163
function	-12.1639
model	-12.1642
species	-12.1643
good	-12.1646
▁tolerate	-12.1647
contaminated	-12.1696
▁Neuro	-12.1697
centered	-12.1703
▁sentiment	-12.1807
▁pub	-12.185
obbing	-12.1859
ustainable	-12.1881
▁swam	-12.1895
▁optimist	-12.19
▁marvel	-12.1904
▁hallucinat	-12.1904
▁intellect	-12.1904
soluble	-12.1905
▁Bilbao	-12.1905
▁Clearly	-12.1905
▁Hannah	-12.1905
▁Intelligence	-12.1905
▁Kickstarter	-12.1905
▁Mouaz	-12.1905
▁PISA	-12.1905
▁Scrapper	-12.1905
▁Uruguay	-12.1905
▁accommodate	-12.1905
▁aerodynamic	-12.1905
▁annoyed	-12.1905
▁apparatus	-12.1905
▁byproduct	-12.1905
▁catalyst	-12.1905
▁clarify	-12.1905
▁cognition	-12.1905
▁congress	-12.1905
▁cosmology	-12.1905
▁decentralized	-12.1905
▁democratize	-12.1905
▁dominance	-12.1905
▁excerpt	-12.1905
▁fatigue	-12.1905
▁hominid	-12.1905
▁imaginary	-12.1905
▁immoral	-12.1905
▁lettuce	-12.1905
▁mismatch	-12.1905
▁municipal	-12.1905
▁obscure	-12.1905
▁periphery	-12.1905
▁prevalent	-12.1905
▁seizure	-12.1905
▁supermassive	-12.1905
▁taxpayer	-12.1905
▁unthinkable	-12.1905
▁Congolese	-12.1905
▁Viagra	-12.1905
▁damaging	-12.1905
▁glance	-12.1905
▁mysteries	-12.1905
▁solidarity	-12.1905
▁tiniest	-12.1905
▁Baxter	-12.1905
▁mangrove	-12.1905
▁wool	-12.1905
▁starvation	-12.1905
▁availability	-12.1905
▁proposing	-12.1905
▁racist	-12.1905
▁inhabitants	-12.1905
▁tweak	-12.1905
▁sweeping	-12.1905
▁guidelines	-12.1905
Mobile	-12.1905
▁classmates	-12.1905
▁gyrus	-12.1905
▁pledge	-12.1905
▁Persian	-12.1905
▁auction	-12.1905
▁pollinate	-12.1905
▁Airport	-12.1905
▁geese	-12.1906
▁inertia	-12.1906
▁purse	-12.1907
▁Crime	-12.1913
mula	-12.1915
teacher	-12.1943
science	-12.1944
Good	-12.1945
glass	-12.1945
blood	-12.1945
speaking	-12.1946
watch	-12.1947
▁slap	-12.2002
▁confuse	-12.2159
stretched	-12.2186
placing	-12.2188
▁Secret	-12.2189
sanitary	-12.2191
▁Airbnb	-12.2191
▁Announcer	-12.2191
▁Barbara	-12.2191
▁Cleveland	-12.2191
▁Happiness	-12.2191
▁Madison	-12.2191
▁Malaria	-12.2191
▁Milwaukee	-12.2191
▁Odysseus	-12.2191
▁Swedes	-12.2191
▁Wisconsin	-12.2191
▁arriving	-12.2191
▁astrolabe	-12.2191
▁certified	-12.2191
▁congratulat	-12.2191
▁decipher	-12.2191
▁desalination	-12.2191
▁desperation	-12.2191
▁elevated	-12.2191
▁epiphany	-12.2191
▁facade	-12.2191
▁holistic	-12.2191
▁homicide	-12.2191
▁hydrant	-12.2191
▁identification	-12.2191
▁inadequate	-12.2191
▁integrating	-12.2191
▁irrigation	-12.2191
▁maggots	-12.2191
▁sabbatical	-12.2191
▁stubborn	-12.2191
▁suspicious	-12.2191
▁toothbrush	-12.2191
▁unaware	-12.2191
▁unlimited	-12.2191
▁uranium	-12.2191
▁Geiger	-12.2191
▁Poetry	-12.2191
▁excavat	-12.2191
▁quantify	-12.2191
▁Holland	-12.2191
▁PET	-12.2191
▁varied	-12.2191
▁Summer	-12.2191
▁Kiva	-12.2191
▁Ezra	-12.2191
▁audition	-12.2191
▁Orange	-12.2191
▁speculate	-12.2191
▁Rift	-12.2191
▁Yellowstone	-12.2191
▁Yep	-12.2191
▁begging	-12.2191
▁comedian	-12.2191
▁Vision	-12.2192
▁Needles	-12.2192
▁lesion	-12.2194
▁flare	-12.2195
replicating	-12.2206
▁Helen	-12.221
industrial	-12.2245
Every	-12.2254
organization	-12.2255
author	-12.2256
protected	-12.2257
paid	-12.2258
people	-12.2258
bearing	-12.2283
fused	-12.2383
▁demonstrat	-12.2397
▁northeast	-12.2399
sustaining	-12.2403
▁Interesting	-12.2469
▁phthalate	-12.2485
Citizen	-12.2485
Vagina	-12.2485
▁Administration	-12.2485
▁Estonia	-12.2485
▁Festival	-12.2485
▁FreeSpeech	-12.2485
▁Gallery	-12.2485
▁Initiative	-12.2485
▁Jarrett	-12.2485
▁Laboratory	-12.2485
▁Malcolm	-12.2485
▁Marilyn	-12.2485
▁Naghma	-12.2485
▁Sergey	-12.2485
▁Sioux	-12.2485
▁Triceratops	-12.2485
▁Usually	-12.2485
▁accelerator	-12.2485
▁auditory	-12.2485
▁bronze	-12.2485
▁carpenter	-12.2485
▁ceramic	-12.2485
▁condemn	-12.2485
▁cosmetic	-12.2485
▁elastic	-12.2485
▁exhilarating	-12.2485
▁filament	-12.2485
▁gloom	-12.2485
▁humiliation	-12.2485
▁immunity	-12.2485
▁influenza	-12.2485
▁innocence	-12.2485
▁motivator	-12.2485
▁simplify	-12.2485
▁skyscraper	-12.2485
▁squirrel	-12.2485
▁stunned	-12.2485
▁substitute	-12.2485
▁tectonic	-12.2485
▁upstairs	-12.2485
▁vibrate	-12.2485
▁Cornell	-12.2485
▁Study	-12.2485
▁buddy	-12.2485
▁imitation	-12.2485
▁shrunk	-12.2485
▁Barefoot	-12.2485
▁Prozac	-12.2485
dispersed	-12.2485
▁bargain	-12.2485
▁ESG	-12.2485
▁Hindi	-12.2485
▁brute	-12.2485
▁BMI	-12.2485
▁Chapter	-12.2485
▁Jeep	-12.2485
▁Commandments	-12.2485
▁durable	-12.2485
▁anomaly	-12.2485
▁fringe	-12.2485
▁Robotics	-12.2485
nspired	-12.2485
▁Calais	-12.2485
▁sociologist	-12.2485
▁Pascal	-12.2485
▁bolt	-12.2485
▁salad	-12.2485
▁Feel	-12.2486
▁prompt	-12.2486
phobic	-12.2486
▁reckless	-12.2486
▁anchor	-12.2486
▁ignite	-12.2486
▁Grove	-12.2488
▁halt	-12.2491
replication	-12.2495
Philippe	-12.2524
Michelle	-12.2534
dragging	-12.254
▁metro	-12.2544
▁stew	-12.2549
computer	-12.2577
examined	-12.2591
estament	-12.2608
ample	-12.2646
▁evapor	-12.2669
▁thro	-12.2762
▁derivative	-12.2788
boriginal	-12.2788
▁Conservation	-12.2788
▁Fields	-12.2788
▁Hussein	-12.2788
▁Hyderabad	-12.2788
▁Jenipher	-12.2788
▁Langley	-12.2788
▁Lebanese	-12.2788
▁Leviathan	-12.2788
▁McGowan	-12.2788
▁Neumann	-12.2788
▁Symphony	-12.2788
▁UNAIDS	-12.2788
▁UNICEF	-12.2788
▁Yahoo	-12.2788
▁adjacent	-12.2788
▁atrazine	-12.2788
▁balancing	-12.2788
▁bioluminescent	-12.2788
▁browsing	-12.2788
▁butterflies	-12.2788
▁cerebral	-12.2788
▁constellation	-12.2788
▁constitute	-12.2788
▁crochet	-12.2788
▁deflect	-12.2788
▁eliminating	-12.2788
▁energetic	-12.2788
▁energies	-12.2788
▁incarcerated	-12.2788
▁liberating	-12.2788
▁modification	-12.2788
▁perpetual	-12.2788
▁plutocrat	-12.2788
▁pragmatic	-12.2788
▁rejuvenat	-12.2788
▁residential	-12.2788
▁respiratory	-12.2788
▁spores	-12.2788
▁transgender	-12.2788
▁Euclid	-12.2788
▁Fellow	-12.2788
▁coconut	-12.2788
▁premature	-12.2788
▁urgency	-12.2788
▁dreadful	-12.2788
▁microwave	-12.2788
▁nevertheless	-12.2788
▁whiskey	-12.2788
▁Bureau	-12.2788
▁Herbie	-12.2788
▁Ruby	-12.2788
▁abalone	-12.2788
▁Operations	-12.2788
▁Serbia	-12.2788
▁aspire	-12.2788
▁Angola	-12.2788
▁gently	-12.2788
▁Grab	-12.2788
▁knitting	-12.2788
▁Horse	-12.2788
▁Utah	-12.2788
▁joking	-12.2788
▁flatten	-12.2788
▁Utopia	-12.2789
literate	-12.2789
Heroes	-12.2789
condense	-12.2791
Thou	-12.28
▁replica	-12.2802
▁increment	-12.2808
ggie	-12.2866
▁peacekeep	-12.2887
gatherer	-12.2911
machine	-12.2911
normal	-12.2913
throw	-12.2914
fitted	-12.2968
▁surge	-12.3095
concentrat	-12.3096
▁hazard	-12.31
retroviral	-12.31
▁BJK	-12.31
▁Bolivia	-12.31
▁Bollywood	-12.31
▁Brigades	-12.31
▁Cameroon	-12.31
▁Chechnya	-12.31
▁Faiza	-12.31
▁Galvao	-12.31
▁INCRA	-12.31
▁Jabbar	-12.31
▁Maltese	-12.31
▁Mermaid	-12.31
▁NYU	-12.31
▁Ottoman	-12.31
▁PTSD	-12.31
▁Samantha	-12.31
▁Schwarzschild	-12.31
▁Sweeney	-12.31
▁Valdez	-12.31
▁acquisition	-12.31
▁appointment	-12.31
▁deceased	-12.31
▁extremist	-12.31
▁facilitate	-12.31
▁humiliate	-12.31
▁hummingbird	-12.31
▁illumination	-12.31
▁imbalance	-12.31
▁jealous	-12.31
▁oblivio	-12.31
▁oxide	-12.31
▁paleontologist	-12.31
▁postcards	-12.31
▁precipitat	-12.31
▁sapiens	-12.31
▁scissors	-12.31
▁thermostat	-12.31
▁twenty	-12.31
▁unhealthy	-12.31
▁unimaginable	-12.31
▁Battle	-12.31
▁Gillian	-12.31
▁Julius	-12.31
▁Kismet	-12.31
▁Nixon	-12.31
▁Poverty	-12.31
▁ROD	-12.31
▁complement	-12.31
▁hostility	-12.31
▁nursing	-12.31
▁teapot	-12.31
▁mound	-12.31
▁doodle	-12.31
▁widow	-12.31
▁credible	-12.31
▁nudge	-12.31
lecommunications	-12.31
transcendence	-12.31
▁Riley	-12.31
▁Charter	-12.31
▁Douglas	-12.31
▁scandal	-12.31
▁Animal	-12.3101
▁crave	-12.3101
endurance	-12.3101
▁Loren	-12.3101
▁utopia	-12.3101
▁Satan	-12.3101
▁costume	-12.3101
▁Wolf	-12.3102
▁verify	-12.3118
▁Stalin	-12.3146
titled	-12.3156
orbital	-12.3158
stabiliz	-12.3206
grown	-12.3259
▁Extra	-12.3284
▁captur	-12.3347
connected	-12.3388
troop	-12.3403
▁contradict	-12.3413
▁Northwest	-12.3414
▁narrat	-12.3422
nconvenient	-12.3423
nephew	-12.3423
▁Accenture	-12.3423
▁Buckminster	-12.3423
▁Connect	-12.3423
▁Corexit	-12.3423
▁Crazy	-12.3423
▁Effect	-12.3423
▁Florence	-12.3423
▁GPHIN	-12.3423
▁Gabriel	-12.3423
▁Gertrude	-12.3423
▁Instagram	-12.3423
▁Manchester	-12.3423
▁Mubarak	-12.3423
▁Nashville	-12.3423
▁Natalie	-12.3423
▁Orchestra	-12.3423
▁Plastic	-12.3423
▁Styrofoam	-12.3423
▁TEDGlobal	-12.3423
▁advancing	-12.3423
▁ambiguous	-12.3423
▁anticipation	-12.3423
▁appetite	-12.3423
▁aquaculture	-12.3423
▁cockpit	-12.3423
▁conceivabl	-12.3423
▁dyslexic	-12.3423
▁epilepsy	-12.3423
▁gratification	-12.3423
▁hectares	-12.3423
▁irregular	-12.3423
▁junior	-12.3423
▁marginalized	-12.3423
▁menstruation	-12.3423
▁microRNA	-12.3423
▁paintbrush	-12.3423
▁pavilion	-12.3423
▁plummet	-12.3423
▁pollinators	-12.3423
▁precedent	-12.3423
▁privatiz	-12.3423
▁regulated	-12.3423
▁repetitive	-12.3423
▁reservation	-12.3423
▁sequester	-12.3423
▁testimony	-12.3423
▁unpleasant	-12.3423
▁vibrant	-12.3423
Welcome	-12.3423
▁Haryana	-12.3423
▁Karachi	-12.3423
▁Silence	-12.3423
▁Tempest	-12.3423
▁plunge	-12.3423
▁swirl	-12.3423
▁Management	-12.3423
▁cochlea	-12.3423
▁drank	-12.3423
▁staple	-12.3423
▁Guinness	-12.3423
▁dementia	-12.3423
▁patron	-12.3423
ompulsive	-12.3423
▁Senator	-12.3423
▁anthropology	-12.3423
tewardship	-12.3423
▁Evelyn	-12.3423
▁Rabbi	-12.3423
▁AAA	-12.3423
▁policymakers	-12.3423
▁width	-12.3423
▁Medicare	-12.3423
▁offense	-12.3423
▁embed	-12.3423
▁trawl	-12.3423
▁Lauren	-12.3423
▁ballast	-12.3423
▁disseminat	-12.3424
guided	-12.3425
▁warrant	-12.3427
▁tenure	-12.3427
▁resume	-12.3428
▁lyric	-12.3428
▁Magn	-12.3444
disturbed	-12.3445
bureaucratic	-12.3449
▁patrol	-12.3457
NBC	-12.3462
actua	-12.3482
▁Nag	-12.3483
▁Nova	-12.3531
factor	-12.3614
performance	-12.3615
white	-12.3616
growth	-12.3616
rushed	-12.366
defined	-12.3698
structured	-12.3729
ynthetic	-12.3732
coordinated	-12.3738
▁intersect	-12.3748
Jessica	-12.3756
compliance	-12.3756
▁Apparently	-12.3756
▁Auschwitz	-12.3756
▁Dawkins	-12.3756
▁Descartes	-12.3756
▁Diamond	-12.3756
▁Diplomat	-12.3756
▁Hemisphere	-12.3756
▁Kinect	-12.3756
▁Kuwait	-12.3756
▁Macintosh	-12.3756
▁Okapi	-12.3756
▁STEM	-12.3756
▁Shirley	-12.3756
▁Simpson	-12.3756
▁Stacey	-12.3756
▁Volvo	-12.3756
▁amygdala	-12.3756
▁audacious	-12.3756
▁automotive	-12.3756
▁bipolar	-12.3756
▁brilliance	-12.3756
▁butterfly	-12.3756
▁concussion	-12.3756
▁contributor	-12.3756
▁dengue	-12.3756
▁desirable	-12.3756
▁discharge	-12.3756
▁disparate	-12.3756
▁exaggerate	-12.3756
▁framing	-12.3756
▁frugal	-12.3756
▁imprisoned	-12.3756
▁integral	-12.3756
▁legitimacy	-12.3756
▁leukemia	-12.3756
▁marshmallow	-12.3756
▁monopoly	-12.3756
▁plaster	-12.3756
▁plural	-12.3756
▁rehearse	-12.3756
▁relaunchers	-12.3756
▁reservoir	-12.3756
▁rubbish	-12.3756
▁sophistication	-12.3756
uantum	-12.3756
▁Beveridge	-12.3756
▁Classic	-12.3756
▁LOL	-12.3756
▁Libby	-12.3756
▁NFL	-12.3756
▁Stroman	-12.3756
▁albeit	-12.3756
▁assassin	-12.3756
▁bankrupt	-12.3756
▁diffuse	-12.3756
▁fiddle	-12.3756
▁interdependenc	-12.3756
▁intestine	-12.3756
▁tornado	-12.3756
▁transcript	-12.3756
trawberry	-12.3756
▁Gehry	-12.3756
▁MBI	-12.3756
▁evolutionarily	-12.3756
▁scarcity	-12.3756
▁stockpile	-12.3756
▁beehive	-12.3756
▁Rhode	-12.3756
▁EPA	-12.3756
▁coalition	-12.3756
▁charisma	-12.3756
▁defecat	-12.3756
▁subsidiz	-12.3756
▁ninth	-12.3756
▁tenderness	-12.3756
▁ripple	-12.3756
▁boreal	-12.3756
▁residu	-12.3756
▁trafficked	-12.3756
▁Petri	-12.3756
▁Cyber	-12.3756
▁Honor	-12.3757
▁shaman	-12.3757
▁Major	-12.3757
▁Linu	-12.3758
▁Differen	-12.3759
▁electora	-12.3759
▁Place	-12.376
averse	-12.3769
▁illustrat	-12.3808
▁restrain	-12.3862
direction	-12.3983
rhythm	-12.3984
definition	-12.3985
capita	-12.4011
▁Michel	-12.4043
▁amaze	-12.407
▁Argentin	-12.4091
administer	-12.4101
▁BERT	-12.4101
▁Belgium	-12.4101
▁Blackberry	-12.4101
▁Capitol	-12.4101
▁Committee	-12.4101
▁Dennett	-12.4101
▁Dickinson	-12.4101
▁Dreadnoughtus	-12.4101
▁Eagle	-12.4101
▁Exactly	-12.4101
▁Ghraib	-12.4101
▁Immediately	-12.4101
▁Mozambique	-12.4101
▁Pharaoh	-12.4101
▁Pleurobot	-12.4101
▁Principle	-12.4101
▁Specifically	-12.4101
▁UNESCO	-12.4101
▁Whitney	-12.4101
▁adverse	-12.4101
▁amputation	-12.4101
▁arrival	-12.4101
▁astonished	-12.4101
▁bumblebee	-12.4101
▁charging	-12.4101
▁definitive	-12.4101
▁detergent	-12.4101
▁diabetic	-12.4101
▁dividing	-12.4101
▁enclosure	-12.4101
▁exaggeration	-12.4101
▁foremost	-12.4101
▁horrifying	-12.4101
▁humidity	-12.4101
▁inferior	-12.4101
▁insignificant	-12.4101
▁judging	-12.4101
▁jurisdiction	-12.4101
▁leisure	-12.4101
▁lexicon	-12.4101
▁moisture	-12.4101
▁mutilate	-12.4101
▁nutshell	-12.4101
▁puzzling	-12.4101
▁secrecy	-12.4101
▁seductive	-12.4101
▁simplified	-12.4101
▁supplier	-12.4101
▁therapeutic	-12.4101
▁translating	-12.4101
▁unexplored	-12.4101
▁zodiac	-12.4101
assembling	-12.4101
▁Choice	-12.4101
▁Granny	-12.4101
▁Michoac	-12.4101
▁embryonic	-12.4101
▁grappl	-12.4101
▁Express	-12.4101
▁Toraja	-12.4101
▁Vivian	-12.4101
▁crease	-12.4101
▁occurrence	-12.4101
▁Adult	-12.4101
▁Eileen	-12.4101
▁emulate	-12.4101
▁Chapel	-12.4101
▁Tyler	-12.4101
▁automation	-12.4101
▁motive	-12.4101
▁dairy	-12.4101
▁palace	-12.4101
▁Pandora	-12.4101
▁poacher	-12.4101
▁Bride	-12.4101
▁deduc	-12.4102
▁Jacob	-12.4102
▁Ventur	-12.4105
▁migrat	-12.4134
▁withdraw	-12.4148
haired	-12.4244
▁collaborat	-12.4253
affle	-12.4297
Listen	-12.4368
physics	-12.437
▁dedicate	-12.4427
Lux	-12.4432
disproportionate	-12.4458
eureka	-12.4458
neutrino	-12.4458
pocalypse	-12.4458
submission	-12.4458
▁Architecture	-12.4458
▁Boltzmann	-12.4458
▁Buddhism	-12.4458
▁Communication	-12.4458
▁Enron	-12.4458
▁Gilbert	-12.4458
▁Governor	-12.4458
▁Lindbergh	-12.4458
▁Moderator	-12.4458
▁Nikola	-12.4458
▁Rufus	-12.4458
▁Shenzhen	-12.4458
▁balcony	-12.4458
▁bureaucracy	-12.4458
▁burglar	-12.4458
▁buttermilk	-12.4458
▁circus	-12.4458
▁communist	-12.4458
▁conjecture	-12.4458
▁contemplate	-12.4458
▁drastic	-12.4458
▁emphasis	-12.4458
▁engulf	-12.4458
▁enslave	-12.4458
▁epidemiologi	-12.4458
▁estimation	-12.4458
▁fascination	-12.4458
▁fountain	-12.4458
▁inorganic	-12.4458
▁kettle	-12.4458
▁multiplied	-12.4458
▁naught	-12.4458
▁oppression	-12.4458
▁participatory	-12.4458
▁pheromones	-12.4458
▁philanthropist	-12.4458
▁plausibl	-12.4458
▁portfolio	-12.4458
▁proliferation	-12.4458
▁quadruple	-12.4458
▁refrigeration	-12.4458
▁rehearsal	-12.4458
▁sanctuary	-12.4458
▁sensual	-12.4458
▁speculation	-12.4458
▁terrestrial	-12.4458
▁tobacco	-12.4458
▁wondrous	-12.4458
colonization	-12.4458
decisive	-12.4458
▁Fraser	-12.4458
▁Front	-12.4458
▁Monologues	-12.4458
▁Newcastle	-12.4458
▁UFO	-12.4458
▁amplify	-12.4458
▁analyst	-12.4458
▁dwarf	-12.4458
▁forbidden	-12.4458
▁pigmentation	-12.4458
▁remorse	-12.4458
▁seatbelt	-12.4458
▁swollen	-12.4458
▁trustworthy	-12.4458
▁Adrian	-12.4458
▁Aqua	-12.4458
▁coherent	-12.4458
▁invisibility	-12.4458
▁knob	-12.4458
▁plywood	-12.4458
▁discarded	-12.4458
▁yoga	-12.4458
▁lousy	-12.4458
SHA	-12.4458
▁allocate	-12.4458
▁Gayla	-12.4458
▁proxy	-12.4458
▁recline	-12.4458
▁wobbl	-12.4458
▁venom	-12.4458
▁Color	-12.4458
▁alternate	-12.4459
righteous	-12.4461
ilitary	-12.4462
enchant	-12.4463
stitch	-12.4465
cross	-12.4592
ubbed	-12.4669
written	-12.477
inflated	-12.4782
inspirational	-12.4788
▁fertilize	-12.4794
violence	-12.4802
building	-12.4803
▁Copernic	-12.4825
identifie	-12.4827
custome	-12.4827
Jurassic	-12.4829
▁Birmingham	-12.4829
▁Curiosity	-12.4829
▁Duolingo	-12.4829
▁Eisenhower	-12.4829
▁Experiment	-12.4829
▁Folks	-12.4829
▁Maasai	-12.4829
▁Makoko	-12.4829
▁Nirvana	-12.4829
▁Occasionally	-12.4829
▁Owens	-12.4829
▁Rotterdam	-12.4829
▁Wrong	-12.4829
▁academia	-12.4829
▁balconies	-12.4829
▁blaming	-12.4829
▁bundle	-12.4829
▁communism	-12.4829
▁contraceptives	-12.4829
▁denominator	-12.4829
▁destined	-12.4829
▁eagle	-12.4829
▁embroidery	-12.4829
▁feminine	-12.4829
▁magnify	-12.4829
▁malware	-12.4829
▁metadata	-12.4829
▁monastery	-12.4829
▁motivating	-12.4829
▁nanoparticles	-12.4829
▁opaque	-12.4829
▁peripheral	-12.4829
▁perseverance	-12.4829
▁persuasion	-12.4829
▁photosynthesis	-12.4829
▁questionnaire	-12.4829
▁rearrange	-12.4829
▁schizophrenic	-12.4829
▁sequel	-12.4829
▁striving	-12.4829
▁subsidies	-12.4829
▁temporarily	-12.4829
▁tempting	-12.4829
▁unnecessary	-12.4829
▁Already	-12.4829
▁Janeiro	-12.4829
▁credibility	-12.4829
▁kilowatt	-12.4829
▁ominous	-12.4829
▁parrot	-12.4829
▁precaution	-12.4829
▁primordial	-12.4829
▁prominent	-12.4829
▁provocative	-12.4829
▁ruthless	-12.4829
▁skyrocket	-12.4829
▁synonymous	-12.4829
▁unicorn	-12.4829
▁Crisis	-12.4829
▁Family	-12.4829
▁Kelvin	-12.4829
▁Miguel	-12.4829
▁dispense	-12.4829
▁instantaneous	-12.4829
▁unravel	-12.4829
▁Bonnet	-12.4829
▁squint	-12.4829
▁Legend	-12.4829
▁corps	-12.4829
▁Route	-12.4829
▁incision	-12.4829
▁porch	-12.4829
▁Clinic	-12.4829
aternal	-12.4829
▁blaz	-12.4829
▁choke	-12.483
transformational	-12.4867
▁squeez	-12.4871
rotting	-12.4919
▁Sport	-12.4959
▁peacebuild	-12.4969
Tai	-12.5053
▁reshape	-12.5093
keeping	-12.5108
Buck	-12.5137
evolution	-12.5184
nutrient	-12.5189
▁southwest	-12.5192
manufactured	-12.521
instruct	-12.5212
avail	-12.5213
▁Agriculture	-12.5213
▁Aquarium	-12.5213
▁Authority	-12.5213
▁Calcutta	-12.5213
▁Century	-12.5213
▁Enjoy	-12.5213
▁Explorer	-12.5213
▁HeForShe	-12.5213
▁Hirshhorn	-12.5213
▁Hurtigruten	-12.5213
▁Jenesis	-12.5213
▁Majesty	-12.5213
▁Petersburg	-12.5213
▁Urban	-12.5213
▁accumulating	-12.5213
▁accumulation	-12.5213
▁advocacy	-12.5213
▁approximation	-12.5213
▁arthritis	-12.5213
▁cholesterol	-12.5213
▁coumarin	-12.5213
▁degrading	-12.5213
▁detriment	-12.5213
▁doctrine	-12.5213
▁duplicate	-12.5213
▁elevation	-12.5213
▁embodiment	-12.5213
▁eternity	-12.5213
▁evoke	-12.5213
▁exclusion	-12.5213
▁influential	-12.5213
▁intertwined	-12.5213
▁litigation	-12.5213
▁messenger	-12.5213
▁mistrust	-12.5213
▁misunderstood	-12.5213
▁multitasking	-12.5213
▁petroleum	-12.5213
▁preliminary	-12.5213
▁rudder	-12.5213
▁separating	-12.5213
▁substrate	-12.5213
▁synthesizer	-12.5213
▁unbelievably	-12.5213
granddaughter	-12.5213
▁Hazara	-12.5213
▁Jeremy	-12.5213
▁Rubik	-12.5213
▁asphalt	-12.5213
▁chimney	-12.5213
▁gradient	-12.5213
▁laureate	-12.5213
▁nugget	-12.5213
▁perfume	-12.5213
▁relentless	-12.5213
▁rhyme	-12.5213
▁ribbon	-12.5213
▁synagogue	-12.5213
▁Admin	-12.5213
▁Brunel	-12.5213
▁Follow	-12.5213
▁Period	-12.5213
▁Potato	-12.5213
▁cowboy	-12.5213
▁geyser	-12.5213
▁buffer	-12.5213
▁revisit	-12.5213
▁Future	-12.5213
▁appalling	-12.5213
▁hawk	-12.5213
▁porous	-12.5213
▁disclose	-12.5213
assisted	-12.5214
possum	-12.5215
▁Write	-12.5215
▁Doubl	-12.5238
sponsored	-12.5274
platin	-12.5299
environmentalist	-12.5365
adulter	-12.5454
pplied	-12.5487
stranded	-12.5514
freaking	-12.5535
graphers	-12.5569
Student	-12.5589
ncyclopedia	-12.5612
vitro	-12.5613
▁Attenborough	-12.5613
▁Britannica	-12.5613
▁Ernest	-12.5613
▁Feminist	-12.5613
▁Galaxy	-12.5613
▁Gowanus	-12.5613
▁GreenLab	-12.5613
▁Hungary	-12.5613
▁KIPP	-12.5613
▁Occupy	-12.5613
▁Rajasthan	-12.5613
▁Splashy	-12.5613
▁Studies	-12.5613
▁Technologies	-12.5613
▁Torosaurus	-12.5613
▁Veteran	-12.5613
▁antiangiogenic	-12.5613
▁blush	-12.5613
▁cascade	-12.5613
▁collapsing	-12.5613
▁dashboard	-12.5613
▁daydream	-12.5613
▁disguise	-12.5613
▁exploding	-12.5613
▁feasible	-12.5613
▁franchise	-12.5613
▁heterosexual	-12.5613
▁hologram	-12.5613
▁horribly	-12.5613
▁hospice	-12.5613
▁hyperbolic	-12.5613
▁infamous	-12.5613
▁malignant	-12.5613
▁patriarch	-12.5613
▁persuasive	-12.5613
▁progeria	-12.5613
▁recyclable	-12.5613
▁seduction	-12.5613
▁simulating	-12.5613
▁suicidal	-12.5613
▁surrogate	-12.5613
▁tragedies	-12.5613
▁tribute	-12.5613
▁typewriter	-12.5613
▁Albania	-12.5613
▁Balinese	-12.5613
▁Census	-12.5613
▁bottleneck	-12.5613
▁guiding	-12.5613
▁impairment	-12.5613
▁impunity	-12.5613
▁indicating	-12.5613
▁populated	-12.5613
▁rebreather	-12.5613
▁sensible	-12.5613
▁ventilation	-12.5613
nstrual	-12.5613
▁Cargill	-12.5613
▁Literally	-12.5613
▁Pollock	-12.5613
▁Tucson	-12.5613
▁annihilat	-12.5613
▁dessert	-12.5613
▁intercept	-12.5613
▁neurologist	-12.5613
▁plaque	-12.5613
▁razor	-12.5613
▁Answer	-12.5613
▁Chopin	-12.5613
▁Vincent	-12.5613
▁cursor	-12.5613
▁hustle	-12.5613
▁radiologist	-12.5613
▁rifle	-12.5613
▁Hulk	-12.5613
Choose	-12.5613
▁utilize	-12.5613
▁mourn	-12.5613
square	-12.5614
▁Improv	-12.5615
expression	-12.5621
▁Java	-12.5643
▁visualiz	-12.5702
utonomous	-12.5883
▁carcinogen	-12.5985
▁compell	-12.5994
Skeptic	-12.603
deprived	-12.603
fetched	-12.603
insurgency	-12.603
itochondria	-12.603
▁Accra	-12.603
▁Architects	-12.603
▁Behind	-12.603
▁Bluetooth	-12.603
▁Brussels	-12.603
▁Cartesian	-12.603
▁Collaborator	-12.603
▁Creativity	-12.603
▁DMCA	-12.603
▁Declaration	-12.603
▁Horizon	-12.603
▁Karajan	-12.603
▁Lucifer	-12.603
▁Matthieu	-12.603
▁Member	-12.603
▁Neptune	-12.603
▁Nintendo	-12.603
▁Nuclear	-12.603
▁Rainforest	-12.603
▁Scandinavia	-12.603
▁Torvalds	-12.603
▁Vaccin	-12.603
▁analytics	-12.603
▁avenue	-12.603
▁bisexual	-12.603
▁blogosphere	-12.603
▁bonobo	-12.603
▁breeze	-12.603
▁brothel	-12.603
▁bulldoze	-12.603
▁celebrities	-12.603
▁champagne	-12.603
▁compliant	-12.603
♫	-14.7536
