<unk>	0
<s>	0
</s>	0
__SEP__	0
#	0
▁	-1.38646
1	-1.6526
,	-3.71362
.	-3.91106
s	-4.13375
▁the	-4.16837
▁to	-4.61797
'	-4.63249
▁of	-4.71015
▁a	-4.78242
▁and	-4.80326
▁that	-4.96945
▁I	-5.04258
▁in	-5.1318
▁is	-5.30316
▁you	-5.3433
▁it	-5.39182
▁we	-5.44496
0	-5.60353
▁And	-5.69154
▁this	-5.74682
t	-5.77524
n	-5.89837
▁was	-5.98995
-	-6.06087
▁for	-6.09377
re	-6.09454
▁people	-6.10053
▁are	-6.12138
▁have	-6.12597
▁they	-6.21158
▁do	-6.22684
▁on	-6.23917
▁with	-6.25896
--	-6.27078
ing	-6.28036
▁So	-6.3318
?	-6.34718
d	-6.35548
▁can	-6.36718
▁what	-6.3835
▁about	-6.40598
ed	-6.40939
▁be	-6.41654
▁not	-6.53348
m	-6.54602
▁at	-6.56609
▁all	-6.58033
▁as	-6.65432
▁there	-6.67506
▁my	-6.68621
▁one	-6.68767
▁like	-6.70013
▁so	-6.71302
▁It	-6.71711
▁from	-6.72505
▁"	-6.75472
▁time	-6.77998
:	-6.80943
▁but	-6.82292
▁world	-6.82369
▁our	-6.84613
▁years	-6.85741
▁just	-6.86727
▁an	-6.88227
▁things	-6.88286
▁We	-6.88537
▁out	-6.91595
▁But	-6.91692
▁me	-6.93835
ve	-6.93926
▁these	-6.94801
▁or	-6.95194
▁if	-6.97026
▁know	-6.98064
▁very	-6.98641
ly	-7.00078
▁The	-7.00817
▁them	-7.0132
▁by	-7.02559
▁going	-7.02677
▁up	-7.02683
▁make	-7.04445
▁had	-7.05561
▁when	-7.06051
▁more	-7.07203
▁because	-7.08461
▁he	-7.09583
▁think	-7.10501
▁see	-7.11063
▁were	-7.11459
p	-7.11715
▁thing	-7.1272
▁who	-7.12931
▁their	-7.15348
a	-7.16175
▁your	-7.16499
▁would	-7.1796
y	-7.19016
▁how	-7.19191
▁really	-7.19345
▁which	-7.19737
▁back	-7.19904
▁get	-7.20415
er	-7.20869
2	-7.24603
▁work	-7.29798
▁has	-7.3067
▁lot	-7.31232
▁here	-7.31618
▁us	-7.32985
e	-7.3414
▁life	-7.3513
▁This	-7.36123
▁into	-7.36992
▁good	-7.38364
▁some	-7.38609
▁then	-7.39216
▁kind	-7.39622
▁actually	-7.39736
▁You	-7.39998
▁way	-7.41176
▁will	-7.4304
▁other	-7.45674
▁where	-7.45786
▁go	-7.46475
▁now	-7.46813
c	-7.46816
▁did	-7.47045
▁want	-7.47125
▁Now	-7.48126
▁could	-7.48595
r	-7.49652
▁They	-7.52073
▁been	-7.5229
in	-7.57108
ll	-7.58577
▁said	-7.5903
5	-7.61768
▁day	-7.63464
al	-7.6373
es	-7.6434
▁something	-7.65322
▁right	-7.65649
u	-7.66575
▁than	-7.66783
▁no	-7.66942
▁put	-7.67486
▁two	-7.67667
▁those	-7.6845
▁over	-7.6876
▁first	-7.692
▁percent	-7.7001
▁also	-7.72032
▁got	-7.73052
▁In	-7.73329
▁little	-7.75433
▁much	-7.75454
▁look	-7.76543
I	-7.76954
o	-7.76964
▁say	-7.77579
▁fact	-7.78352
▁A	-7.78499
▁made	-7.80088
▁change	-7.80426
▁human	-7.81022
▁That	-7.81223
9	-7.8165
▁need	-7.8217
▁talk	-7.82183
▁thought	-7.82538
it	-7.8264
▁only	-7.83071
▁his	-7.83078
or	-7.83101
▁year	-7.8313
▁find	-7.83368
▁started	-7.84137
▁great	-7.84443
▁idea	-7.84845
▁called	-7.84899
▁today	-7.85154
▁most	-7.85981
▁she	-7.8609
▁even	-7.89331
▁take	-7.89923
▁problem	-7.90081
▁many	-7.90174
l	-7.90316
▁big	-7.91793
▁important	-7.92229
▁new	-7.93101
g	-7.93373
▁brain	-7.94153
3	-7.95181
▁part	-7.95317
▁bit	-7.95445
▁around	-7.96424
▁does	-7.96933
▁give	-7.97431
▁system	-7.9806
▁different	-7.98329
▁story	-7.986
▁♫	-7.99512
▁start	-7.9954
▁He	-7.99724
ic	-7.9975
and	-8.00608
▁water	-8.00948
▁show	-8.01052
▁There	-8.01398
b	-8.01555
▁What	-8.01661
▁down	-8.01875
▁question	-8.03059
▁her	-8.0399
▁place	-8.04313
▁through	-8.06065
▁same	-8.07216
▁data	-8.0732
▁every	-8.08339
▁women	-8.08483
▁love	-8.0893
▁long	-8.09556
▁come	-8.10018
▁ago	-8.11834
▁technology	-8.12754
▁use	-8.12884
;	-8.13719
▁being	-8.1403
▁three	-8.14725
▁found	-8.1512
▁doing	-8.15848
▁point	-8.16267
▁wanted	-8.16554
▁million	-8.1691
an	-8.17355
4	-8.174
le	-8.18627
on	-8.1879
S	-8.19528
▁If	-8.19589
▁S	-8.21416
▁understand	-8.21745
v	-8.21901
▁school	-8.22339
▁any	-8.2343
▁feel	-8.23836
▁sort	-8.24891
ation	-8.25026
▁children	-8.25093
▁call	-8.26185
st	-8.26292
▁Africa	-8.26322
▁person	-8.26325
▁well	-8.26594
8	-8.2661
▁real	-8.26795
▁end	-8.27829
ur	-8.28396
▁live	-8.28595
th	-8.28708
▁B	-8.28844
▁tell	-8.28951
▁power	-8.2998
en	-8.30082
ri	-8.30557
▁working	-8.31681
▁Earth	-8.32667
▁why	-8.32921
▁design	-8.3328
▁thinking	-8.33665
able	-8.33749
co	-8.33947
"	-8.33952
▁Well	-8.34606
ers	-8.34809
▁after	-8.35785
▁money	-8.35933
i	-8.36127
▁kids	-8.36199
▁information	-8.36457
▁should	-8.36602
is	-8.3695
▁own	-8.37122
▁number	-8.38161
ra	-8.38232
ent	-8.3834
▁space	-8.3849
▁last	-8.39386
▁home	-8.40107
▁country	-8.40123
ro	-8.41033
f	-8.41592
▁hard	-8.42251
k	-8.42298
▁food	-8.43684
▁light	-8.43764
▁small	-8.44005
▁better	-8.44026
▁might	-8.44095
▁ca	-8.44247
▁went	-8.44936
lo	-8.44988
the	-8.45285
▁told	-8.45843
▁before	-8.45898
▁left	-8.46795
▁talking	-8.47108
▁another	-8.47253
▁course	-8.47344
▁E	-8.47414
▁sense	-8.47544
as	-8.47698
▁never	-8.48046
ion	-8.48053
▁energy	-8.48151
us	-8.48841
se	-8.49042
▁high	-8.49043
▁let	-8.49168
▁play	-8.49353
▁building	-8.49488
▁create	-8.49507
▁car	-8.49951
▁future	-8.50522
▁happened	-8.5119
▁still	-8.51476
▁interesting	-8.51601
▁together	-8.51606
▁dollars	-8.51625
▁science	-8.5193
▁off	-8.52023
▁countries	-8.52131
▁him	-8.5285
▁moment	-8.52993
to	-8.53173
▁stuff	-8.53323
▁social	-8.53579
ar	-8.54152
el	-8.54209
▁Internet	-8.54303
▁pretty	-8.54348
la	-8.54443
▁times	-8.54903
▁next	-8.54977
▁hand	-8.55673
A	-8.56293
li	-8.56414
▁man	-8.56528
▁came	-8.56662
▁body	-8.56856
▁coming	-8.57653
▁room	-8.57694
z	-8.57831
▁few	-8.58069
▁mean	-8.58356
▁simple	-8.58521
▁happen	-8.59367
▁care	-8.59459
ch	-8.5949
▁men	-8.59876
▁making	-8.60509
▁God	-8.60592
▁America	-8.61061
▁used	-8.61189
▁asked	-8.61276
▁reason	-8.61541
▁States	-8.61632
▁When	-8.61801
▁picture	-8.61957
▁between	-8.62122
▁again	-8.6219
▁each	-8.62426
▁billion	-8.62815
ness	-8.62934
▁TED	-8.63007
▁learn	-8.63049
▁side	-8.6345
▁build	-8.63495
▁experience	-8.63775
▁bad	-8.64419
il	-8.64843
▁half	-8.64939
▁India	-8.6517
▁F	-8.65872
▁hope	-8.66182
x	-8.66246
ity	-8.66336
▁United	-8.66542
▁set	-8.67215
up	-8.6727
▁computer	-8.67449
▁family	-8.67506
▁example	-8.67834
▁too	-8.67881
,"	-8.68191
▁lives	-8.68305
▁open	-8.68537
▁project	-8.68604
▁answer	-8.68722
▁living	-8.69053
de	-8.69837
▁days	-8.699
M	-8.69998
▁mind	-8.70209
▁looking	-8.70421
▁young	-8.70576
▁process	-8.70757
▁case	-8.7077
▁done	-8.71243
▁matter	-8.7166
▁Because	-8.71896
▁city	-8.72127
▁whole	-8.72263
ive	-8.72387
▁C	-8.72724
ol	-8.72861
▁move	-8.73099
▁single	-8.73296
▁problems	-8.73505
▁health	-8.73652
im	-8.7417
▁inside	-8.74289
▁cancer	-8.74296
▁T	-8.74334
▁remember	-8.7436
▁believe	-8.74369
▁China	-8.74715
▁cells	-8.74837
▁P	-8.75042
▁book	-8.75222
▁wrong	-8.75321
▁business	-8.75661
▁guy	-8.75908
▁looked	-8.76205
ate	-8.76621
▁months	-8.77352
▁four	-8.77945
▁makes	-8.77976
▁child	-8.78293
▁planet	-8.78393
am	-8.78398
bo	-8.7852
▁control	-8.78581
▁trying	-8.78595
▁How	-8.78696
▁true	-8.78752
we	-8.78833
▁always	-8.78981
▁ideas	-8.79006
▁community	-8.79384
▁able	-8.7946
▁read	-8.79553
▁U	-8.79611
w	-8.7972
▁its	-8.79726
▁global	-8.79806
▁imagine	-8.79807
▁job	-8.79832
▁couple	-8.79906
man	-8.7994
▁words	-8.80421
▁model	-8.80512
▁help	-8.80655
▁order	-8.80841
▁may	-8.80964
C	-8.8172
▁amazing	-8.81891
▁heard	-8.81902
▁away	-8.82193
▁try	-8.82238
D	-8.82287
▁public	-8.82695
at	-8.82994
▁American	-8.83016
▁group	-8.83055
mo	-8.83287
▁un	-8.8341
te	-8.84784
▁music	-8.85185
▁York	-8.85868
▁beautiful	-8.8602
▁piece	-8.86221
▁G	-8.8693
▁language	-8.86965
▁video	-8.87154
un	-8.87195
▁night	-8.8731
▁word	-8.87569
▁history	-8.87601
▁species	-8.88053
▁means	-8.88221
▁took	-8.88414
▁For	-8.88922
age	-8.88966
K	-8.89017
▁become	-8.89205
▁five	-8.89772
▁stop	-8.89778
▁using	-8.89984
▁turn	-8.90195
▁face	-8.91262
▁She	-8.91718
▁universe	-8.91815
ter	-8.91927
▁ever	-8.91979
▁minutes	-8.91981
pe	-8.9215
▁knew	-8.92207
ul	-8.92879
▁top	-8.92912
▁education	-8.93009
▁stories	-8.9326
▁One	-8.93361
▁research	-8.9376
▁everything	-8.93914
▁learned	-8.94079
▁maybe	-8.94083
▁My	-8.94251
ma	-8.94308
▁bring	-8.94381
▁hear	-8.94611
▁decided	-8.94653
▁built	-8.94663
▁best	-8.94721
▁People	-8.9494
per	-8.95099
me	-8.95169
▁questions	-8.95177
▁government	-8.95178
▁Yeah	-8.95325
ha	-8.95659
ad	-8.95667
▁enough	-8.95739
ant	-8.95824
▁under	-8.96155
▁war	-8.96379
▁happening	-8.96414
▁second	-8.96515
▁getting	-8.96698
▁game	-8.96711
▁woman	-8.96762
▁head	-8.96991
▁students	-8.97188
▁nature	-8.97242
▁run	-8.97308
▁form	-8.97392
▁completely	-8.97476
▁works	-8.9782
▁basically	-8.97937
▁sound	-8.97966
less	-8.98078
▁share	-8.98246
▁study	-8.98372
h	-8.98625
▁friends	-8.98938
ian	-8.99023
▁quite	-8.99197
▁hours	-8.99236
▁happy	-8.99258
▁line	-8.99506
ne	-8.99507
ge	-9.00357
▁These	-9.0084
▁places	-9.01328
ment	-9.01391
▁As	-9.01604
▁DNA	-9.0182
▁heart	-9.01832
▁ask	-9.02082
ck	-9.02193
P	-9.0236
▁mother	-9.02426
▁level	-9.02866
▁comes	-9.03089
▁Do	-9.03815
▁probably	-9.03847
▁without	-9.03949
▁de	-9.03998
O	-9.0433
▁No	-9.04488
▁animals	-9.04685
▁front	-9.05377
et	-9.05417
▁society	-9.05418
ie	-9.05608
ever	-9.05614
▁taking	-9.06394
ting	-9.06439
▁disease	-9.06708
R	-9.06744
▁age	-9.06812
▁company	-9.06845
▁state	-9.07118
▁cell	-9.07269
▁close	-9.07483
▁large	-9.07689
▁con	-9.07869
▁art	-9.08019
L	-9.08398
▁machine	-9.08485
ine	-9.087
T	-9.08722
▁saw	-9.09115
▁such	-9.09349
ac	-9.09411
▁Here	-9.09451
▁black	-9.09533
▁anything	-9.09533
be	-9.09568
▁worked	-9.10293
▁past	-9.1079
▁across	-9.10815
▁guys	-9.11214
ty	-9.11269
ce	-9.12043
▁created	-9.12062
vi	-9.12157
▁free	-9.12365
ca	-9.12432
ta	-9.12442
▁changed	-9.12953
▁New	-9.13343
▁learning	-9.13406
▁English	-9.13585
▁lots	-9.13633
▁house	-9.1367
▁figure	-9.13798
▁Let	-9.13807
▁huge	-9.13916
ex	-9.13935
▁All	-9.13976
old	-9.13984
▁old	-9.14005
▁self	-9.14208
▁environment	-9.14406
▁later	-9.14476
▁oil	-9.14694
that	-9.14784
▁cities	-9.14815
▁else	-9.15226
▁far	-9.15378
▁difference	-9.15461
▁gave	-9.1565
▁seen	-9.15697
ir	-9.16238
▁natural	-9.16289
▁difficult	-9.16472
▁market	-9.1654
▁easy	-9.1663
▁view	-9.1668
▁eyes	-9.16704
op	-9.16866
▁having	-9.16883
▁program	-9.1698
▁systems	-9.17018
ke	-9.17163
▁turns	-9.1721
▁common	-9.17218
▁goes	-9.17407
▁leave	-9.17843
▁keep	-9.18194
▁father	-9.18402
▁century	-9.18989
▁am	-9.19145
▁happens	-9.19208
▁walk	-9.19476
▁Co	-9.19561
▁powerful	-9.19572
he	-9.19716
no	-9.20065
▁says	-9.20073
▁air	-9.20889
ling	-9.21118
▁Google	-9.21336
▁longer	-9.21388
▁full	-9.2145
▁Re	-9.21649
do	-9.21902
▁reality	-9.22091
ist	-9.225
▁cost	-9.22538
▁early	-9.22578
▁paper	-9.22602
com	-9.22715
ized	-9.2278
▁began	-9.23104
ru	-9.23146
▁deal	-9.23266
▁pay	-9.23295
▁World	-9.23359
▁area	-9.23453
▁companies	-9.2364
▁moving	-9.23642
ally	-9.2369
▁image	-9.23855
▁saying	-9.23991
est	-9.23995
ia	-9.24037
▁already	-9.24269
▁almost	-9.24271
▁fish	-9.24348
▁phone	-9.24372
▁turned	-9.25045
▁short	-9.25266
▁culture	-9.25269
▁six	-9.2532
ies	-9.25336
▁media	-9.25438
em	-9.25571
▁Ma	-9.25599
um	-9.25608
▁team	-9.25668
▁yet	-9.25838
▁felt	-9.25907
▁Europe	-9.25972
ci	-9.26119
▁finally	-9.26125
▁South	-9.26182
▁land	-9.26402
▁week	-9.26441
ating	-9.26885
▁Thank	-9.26946
▁ways	-9.27077
▁less	-9.27265
▁nothing	-9.27292
▁while	-9.27338
if	-9.2737
▁both	-9.27395
▁terms	-9.27436
▁needed	-9.27613
▁interested	-9.27651
▁population	-9.27781
fi	-9.27834
ba	-9.27992
ial	-9.28083
▁test	-9.28167
di	-9.28193
▁realized	-9.28206
▁possible	-9.28244
▁fear	-9.28326
sh	-9.28366
▁once	-9.28372
▁beginning	-9.28508
▁someone	-9.28747
▁local	-9.28795
▁often	-9.28802
ism	-9.28882
▁rest	-9.28929
▁met	-9.29118
king	-9.29805
▁death	-9.29991
▁kinds	-9.30096
▁whether	-9.30313
▁Chinese	-9.306
N	-9.30693
▁hands	-9.30774
▁pre	-9.30942
▁within	-9.3096
▁myself	-9.31095
ry	-9.3129
▁quickly	-9.3171
▁simply	-9.3176
▁ocean	-9.31938
▁growth	-9.31965
▁Or	-9.31967
ous	-9.32124
▁feet	-9.32348
▁poor	-9.32433
▁parents	-9.32503
pa	-9.32604
▁thousands	-9.32628
▁grow	-9.32656
▁buy	-9.32662
▁size	-9.32741
▁weeks	-9.3285
E	-9.33015
▁sure	-9.33149
▁nice	-9.33183
▁wonderful	-9.33217
▁feeling	-9.33588
▁lost	-9.33643
▁challenge	-9.33858
▁map	-9.33961
▁entire	-9.3403
▁parts	-9.35227
ho	-9.35277
id	-9.35837
▁spend	-9.35848
ted	-9.3595
line	-9.36044
▁Mo	-9.36227
▁spent	-9.36241
you	-9.36363
▁blood	-9.36438
▁complex	-9.36624
▁economic	-9.36798
▁To	-9.36809
rs	-9.36839
▁step	-9.36908
▁middle	-9.37153
os	-9.37248
▁girl	-9.37843
▁friend	-9.38156
▁scale	-9.38354
year	-9.38367
▁L	-9.3858
▁born	-9.38626
▁R	-9.38655
▁animal	-9.38685
▁sitting	-9.38819
▁behavior	-9.38859
▁film	-9.38879
▁cool	-9.39134
▁sea	-9.39182
▁kid	-9.39231
mi	-9.39559
▁experiment	-9.39627
▁Why	-9.39651
▁looks	-9.39699
The	-9.40034
▁clear	-9.40083
bi	-9.40241
▁chance	-9.40391
▁guess	-9.40494
▁green	-9.4051
▁fun	-9.41008
▁die	-9.4102
▁economy	-9.41024
▁until	-9.41136
▁amount	-9.41333
▁stage	-9.4137
go	-9.41506
ring	-9.41534
▁field	-9.41541
son	-9.41722
▁network	-9.41918
▁color	-9.4192
▁patients	-9.41959
B	-9.42062
▁speak	-9.4257
▁blue	-9.42668
▁H	-9.42876
▁won	-9.42881
▁eat	-9.42912
▁access	-9.42959
▁per	-9.43082
▁became	-9.4329
ize	-9.43338
▁miles	-9.43338
▁climate	-9.43399
▁W	-9.43415
▁write	-9.43616
▁robot	-9.43646
▁books	-9.43727
▁humans	-9.43772
▁structure	-9.43816
▁issue	-9.43908
▁War	-9.44263
▁risk	-9.44331
▁theory	-9.44407
▁surface	-9.44476
▁support	-9.44591
▁De	-9.446
ot	-9.44632
▁material	-9.44721
▁everybody	-9.44835
▁hold	-9.44855
fe	-9.44982
▁J	-9.45043
uc	-9.45084
▁key	-9.45186
▁watch	-9.45215
▁name	-9.45396
▁white	-9.45517
hi	-9.45533
▁areas	-9.45615
▁must	-9.45636
der	-9.45682
▁morning	-9.45943
▁innovation	-9.46055
ga	-9.46102
▁political	-9.46188
▁average	-9.46393
▁forward	-9.4664
▁impact	-9.46731
▁attention	-9.46957
▁girls	-9.46991
▁since	-9.47185
▁measure	-9.47236
▁sex	-9.47348
▁though	-9.47475
▁opportunity	-9.47638
F	-9.47946
ary	-9.47952
▁individual	-9.48118
▁exactly	-9.48118
▁movement	-9.48266
▁technologies	-9.48324
▁result	-9.48468
▁numbers	-9.48473
one	-9.48573
▁D	-9.48581
▁itself	-9.48844
nce	-9.48854
▁ground	-9.49019
▁O	-9.49106
▁running	-9.49247
▁shows	-9.49321
▁special	-9.4933
▁telling	-9.49516
▁somebody	-9.49607
▁sub	-9.49967
▁physical	-9.49969
▁realize	-9.5003
▁voice	-9.50048
▁brought	-9.50528
▁solution	-9.50592
▁fly	-9.50786
▁ourselves	-9.50881
▁against	-9.51427
▁North	-9.51471
▁themselves	-9.51471
▁African	-9.515
▁growing	-9.51559
so	-9.51887
▁wrote	-9.51946
▁N	-9.52122
▁Chris	-9.52408
ig	-9.52416
ster	-9.5242
▁audience	-9.52423
▁force	-9.52454
▁low	-9.52538
na	-9.52975
▁tools	-9.53016
tor	-9.5305
▁dark	-9.53131
like	-9.53315
▁cut	-9.53358
time	-9.53377
▁cars	-9.53494
▁pick	-9.53529
▁At	-9.53601
▁along	-9.53864
▁images	-9.5394
▁incredible	-9.53989
▁sometimes	-9.5399
ton	-9.54158
▁HIV	-9.54233
tic	-9.543
▁West	-9.54704
▁deep	-9.54801
▁giving	-9.54844
▁absolutely	-9.54867
▁stand	-9.55094
Oh	-9.55137
▁literally	-9.55217
▁law	-9.55256
tion	-9.55289
▁understanding	-9.55302
▁record	-9.55331
▁dis	-9.55419
▁pro	-9.55607
ative	-9.55631
▁starting	-9.55859
ti	-9.55884
▁seven	-9.55935
▁eye	-9.55953
▁choice	-9.55982
▁dream	-9.55993
▁baby	-9.56078
▁perfect	-9.56233
▁personal	-9.56255
▁patient	-9.56358
ver	-9.56456
▁particular	-9.56481
▁red	-9.56787
▁talked	-9.5688
▁couldn	-9.56901
▁dead	-9.5701
▁normal	-9.57232
▁journey	-9.57323
▁rather	-9.57328
▁meet	-9.57441
▁code	-9.57651
but	-9.57696
▁least	-9.57703
ph	-9.57856
Well	-9.57962
ber	-9.58071
▁outside	-9.58169
▁act	-9.58337
▁industry	-9.58459
▁explain	-9.58492
▁issues	-9.58511
▁type	-9.58739
mer	-9.58876
▁fast	-9.59148
ob	-9.59323
▁shape	-9.59394
▁fire	-9.59524
▁potential	-9.59738
ance	-9.59796
▁OK	-9.59913
▁third	-9.5993
▁drug	-9.5996
ab	-9.59965
▁bottom	-9.60124
▁similar	-9.60198
▁focus	-9.60423
You	-9.60581
▁message	-9.60627
▁center	-9.60934
▁designed	-9.60967
▁evidence	-9.61293
▁truth	-9.61293
mon	-9.61372
▁solve	-9.61383
▁object	-9.61396
▁Then	-9.61426
▁everyone	-9.61458
sum	-9.61459
ated	-9.61528
ow	-9.616
▁bigger	-9.61704
▁ability	-9.61757
▁response	-9.61817
▁period	-9.61817
▁instead	-9.61819
▁development	-9.61835
▁developed	-9.61886
▁drugs	-9.61984
▁plant	-9.6212
▁Man	-9.62156
▁East	-9.62215
▁break	-9.62239
ful	-9.62288
ip	-9.62342
▁pictures	-9.6242
▁knowledge	-9.62476
▁stay	-9.62661
▁online	-9.62864
▁showed	-9.63027
▁V	-9.6323
▁Ta	-9.63235
▁save	-9.63236
▁scientists	-9.63247
▁discovered	-9.63347
ut	-9.63369
side	-9.63426
▁based	-9.63462
▁product	-9.63738
▁sit	-9.63759
▁playing	-9.63864
▁reasons	-9.63901
▁generation	-9.63984
▁vision	-9.63989
▁begin	-9.64005
▁don	-9.64147
▁taken	-9.64181
▁table	-9.64219
G	-9.64224
▁office	-9.64271
▁non	-9.64352
▁kill	-9.6465
▁situation	-9.6466
▁drive	-9.65049
▁groups	-9.65209
wa	-9.65319
▁computers	-9.65704
▁present	-9.65784
▁Today	-9.6584
all	-9.65857
▁rules	-9.65869
▁sell	-9.65878
▁involved	-9.65996
▁approach	-9.66262
▁gets	-9.66302
▁lab	-9.66389
ens	-9.66458
▁resources	-9.6656
▁trust	-9.6661
tra	-9.66955
om	-9.66972
▁carbon	-9.67288
▁news	-9.67349
ish	-9.67367
▁relationship	-9.67439
ag	-9.67443
▁millions	-9.67516
▁follow	-9.67698
▁month	-9.67725
▁worth	-9.67842
ile	-9.68006
▁sun	-9.68187
▁hundred	-9.68429
▁medical	-9.68474
▁Mars	-9.68639
▁send	-9.68721
ship	-9.68748
by	-9.688
ard	-9.68878
ping	-9.69023
▁device	-9.69147
▁street	-9.69435
▁Some	-9.69477
▁effect	-9.69561
What	-9.69619
▁writing	-9.69624
row	-9.69654
▁Americans	-9.70056
▁camera	-9.70084
▁others	-9.70149
▁hundreds	-9.70206
▁changing	-9.70273
▁yourself	-9.70322
▁eight	-9.70463
▁behind	-9.70739
during	-9.70746
▁given	-9.70761
▁revolution	-9.70876
▁teachers	-9.70973
▁screen	-9.70981
▁basic	-9.71017
▁incredibly	-9.71027
▁teach	-9.71138
▁box	-9.71143
▁rate	-9.7162
▁digital	-9.71653
▁Ba	-9.71713
▁creating	-9.71749
▁exciting	-9.71749
▁wall	-9.71818
▁schools	-9.71853
▁list	-9.71922
▁smart	-9.71968
▁visual	-9.72053
▁listen	-9.72163
▁sleep	-9.72291
dy	-9.72419
▁class	-9.72477
▁ready	-9.72527
ious	-9.72591
▁engine	-9.7289
▁Le	-9.72921
▁major	-9.73046
▁Okay	-9.73051
▁strong	-9.73193
▁perhaps	-9.73357
▁lived	-9.73509
ving	-9.73672
▁Can	-9.73698
ach	-9.73714
▁role	-9.73862
▁died	-9.73971
▁mass	-9.74054
▁tend	-9.7427
fa	-9.74325
▁add	-9.74329
▁produce	-9.74378
▁meaning	-9.74411
bu	-9.74535
▁games	-9.74698
▁goal	-9.74794
▁fine	-9.74809
▁leaders	-9.74841
▁seeing	-9.74883
H	-9.74994
ill	-9.75195
▁lose	-9.75224
▁wait	-9.75417
da	-9.75576
▁hit	-9.75581
▁materials	-9.75674
▁robots	-9.75811
▁medicine	-9.75895
▁walking	-9.76075
▁action	-9.76175
ah	-9.76481
▁ice	-9.76649
▁creative	-9.76806
▁certain	-9.76856
▁plants	-9.76959
▁Mi	-9.77035
▁fight	-9.77083
▁success	-9.77204
led	-9.77302
▁express	-9.77411
▁solar	-9.77419
▁favorite	-9.77419
▁modern	-9.77456
▁pattern	-9.77684
▁aware	-9.77728
▁tool	-9.7778
way	-9.77902
▁speed	-9.78179
▁Imagine	-9.78189
▁developing	-9.78213
▁City	-9.7825
▁putting	-9.78293
▁student	-9.78309
▁village	-9.78316
▁hot	-9.78447
▁University	-9.78498
▁moved	-9.78533
oc	-9.78598
▁Western	-9.7881
▁general	-9.78876
▁wind	-9.78881
▁tree	-9.78948
fully	-9.78984
▁tried	-9.79004
▁excited	-9.79132
ther	-9.79246
▁Ro	-9.79288
▁slow	-9.79289
out	-9.79342
▁evolution	-9.79351
▁secret	-9.79434
▁memory	-9.79434
▁compassion	-9.79576
▁showing	-9.79595
ni	-9.79599
▁star	-9.79665
▁plan	-9.79813
▁touch	-9.7983
▁position	-9.79873
▁tiny	-9.79905
▁boy	-9.79947
this	-9.80001
▁national	-9.80032
▁sounds	-9.80042
▁London	-9.80062
▁models	-9.80097
▁value	-9.80381
▁arm	-9.80423
▁bar	-9.81124
▁Di	-9.8122
not	-9.81227
ator	-9.81407
▁skin	-9.81453
▁moral	-9.81477
▁develop	-9.8151
ble	-9.81578
▁Afghanistan	-9.81651
▁thousand	-9.81669
▁waste	-9.81678
▁expect	-9.81781
▁grew	-9.81973
▁crazy	-9.82132
▁whatever	-9.82169
▁Be	-9.82342
▁violence	-9.8236
▁spread	-9.8243
▁forest	-9.82443
▁recently	-9.82511
▁supposed	-9.82514
▁fall	-9.82556
▁Sa	-9.82759
▁choose	-9.82778
▁notice	-9.82881
▁democracy	-9.8294
▁takes	-9.82976
▁reach	-9.83092
▁hospital	-9.8315
▁watching	-9.83214
▁police	-9.83265
▁trees	-9.83291
▁happiness	-9.83402
they	-9.83423
nd	-9.83495
▁gone	-9.83579
▁communities	-9.83591
▁higher	-9.83711
▁safe	-9.83762
▁mine	-9.83808
▁square	-9.83991
ak	-9.84039
ding	-9.841
▁St	-9.84104
▁taught	-9.84246
▁late	-9.84416
▁John	-9.84567
▁Just	-9.84575
▁worse	-9.84575
use	-9.8484
▁connected	-9.84857
▁gas	-9.8495
▁software	-9.85071
▁pain	-9.85208
ction	-9.85279
▁genes	-9.85469
▁ones	-9.85478
▁needs	-9.8551
▁projects	-9.85648
▁starts	-9.8567
▁provide	-9.85728
▁road	-9.85764
▁extremely	-9.85792
▁plastic	-9.85903
ists	-9.85969
▁faster	-9.86001
▁complicated	-9.8607
▁jobs	-9.86111
▁shot	-9.86156
▁crisis	-9.86238
▁Our	-9.86288
▁doctor	-9.86505
▁Facebook	-9.86574
▁quality	-9.86606
▁either	-9.86742
▁clean	-9.86812
▁scientific	-9.87045
▁perspective	-9.8708
▁bunch	-9.87083
▁path	-9.87195
▁search	-9.87235
▁context	-9.87249
▁store	-9.87421
▁progress	-9.87541
▁teacher	-9.87689
▁individuals	-9.87724
▁college	-9.87758
▁objects	-9.87774
▁Ra	-9.87774
▁Not	-9.88218
▁version	-9.88327
▁standing	-9.88358
▁families	-9.88441
▁results	-9.88571
men	-9.88652
▁door	-9.88676
▁California	-9.88785
▁track	-9.88956
light	-9.89
▁nuclear	-9.89129
▁On	-9.89209
▁CA	-9.8926
▁positive	-9.89281
ization	-9.89407
▁allowed	-9.8944
▁San	-9.89527
▁security	-9.89565
▁minute	-9.89606
▁."	-9.89734
▁movie	-9.89806
▁Right	-9.89831
▁lead	-9.89892
▁ran	-9.90357
▁decision	-9.90512
▁stars	-9.9056
▁changes	-9.9091
▁text	-9.91039
▁workers	-9.91082
▁hour	-9.91119
▁activity	-9.91224
▁killed	-9.91264
▁finding	-9.91294
▁shift	-9.91486
app	-9.91536
▁dangerous	-9.91578
▁alive	-9.91619
▁fundamental	-9.9166
▁biggest	-9.92285
▁recognize	-9.92288
▁meant	-9.92306
▁cases	-9.92307
▁shown	-9.92357
▁page	-9.92392
▁critical	-9.92435
▁impossible	-9.92463
▁totally	-9.92533
qui	-9.92573
▁song	-9.92663
▁continue	-9.93044
che	-9.93072
izing	-9.93156
▁yeah	-9.93274
que	-9.93369
▁main	-9.93473
▁extraordinary	-9.93549
red	-9.93563
den	-9.93564
▁fit	-9.93918
▁count	-9.94134
▁content	-9.94263
▁flow	-9.94518
▁exist	-9.94527
land	-9.94701
▁prison	-9.94712
well	-9.94728
ng	-9.94824
ug	-9.94829
▁largest	-9.94882
▁Indian	-9.94915
ical	-9.94926
▁female	-9.94992
▁older	-9.95025
▁wouldn	-9.95347
▁known	-9.95382
les	-9.95466
▁protect	-9.95505
ack	-9.95698
▁Great	-9.95764
▁electricity	-9.95921
▁drop	-9.96098
▁super	-9.96106
▁Me	-9.96223
W	-9.96312
▁reading	-9.96346
▁travel	-9.9649
▁pull	-9.96491
▁ended	-9.96646
▁dog	-9.96692
▁conditions	-9.96718
▁brains	-9.96783
▁cold	-9.96871
▁magic	-9.96928
ward	-9.96939
▁career	-9.9712
▁larger	-9.97161
end	-9.97166
▁buildings	-9.97185
▁Twitter	-9.97213
ology	-9.97315
▁price	-9.97322
cy	-9.9733
▁conversation	-9.9751
▁check	-9.97597
▁rich	-9.97722
▁policy	-9.97776
▁anymore	-9.97784
▁training	-9.9779
▁An	-9.97849
▁smaller	-9.97928
net	-9.97935
▁genetic	-9.9796
▁floor	-9.97976
▁treat	-9.97978
my	-9.97995
▁machines	-9.9808
▁quick	-9.98089
ions	-9.9814
▁alone	-9.98173
▁suddenly	-9.98203
▁organization	-9.98291
▁rise	-9.98299
▁bacteria	-9.98304
▁decisions	-9.98539
▁By	-9.98606
▁solutions	-9.98619
▁poverty	-9.98721
off	-9.988
▁mental	-9.98855
▁connect	-9.98907
▁service	-9.99044
cons	-9.99108
▁Ho	-9.99195
▁pressure	-9.99292
▁Bill	-9.99337
▁patterns	-9.99344
▁site	-9.99461
▁products	-9.99535
▁increase	-9.99648
oo	-9.99748
▁decide	-9.99887
▁win	-9.99894
▁rule	-9.99918
▁Y	-9.9999
▁La	-10.0001
▁David	-10.0006
▁...	-10.0029
gg	-10.0029
▁Ka	-10.0032
▁strange	-10.0038
▁traditional	-10.0039
▁subject	-10.004
ped	-10.0048
▁bed	-10.0056
▁Li	-10.0061
▁train	-10.0066
▁Go	-10.008
▁temperature	-10.0083
ap	-10.0108
ang	-10.011
▁lines	-10.0118
▁specific	-10.0133
▁Good	-10.0139
▁treatment	-10.0141
▁freedom	-10.0142
▁lower	-10.0177
▁studies	-10.02
▁series	-10.02
▁pieces	-10.0216
▁loved	-10.0222
▁address	-10.0225
▁physics	-10.024
▁seems	-10.0252
ities	-10.0252
▁wife	-10.0259
ps	-10.0275
ina	-10.0278
▁sat	-10.029
▁draw	-10.0295
lic	-10.0302
We	-10.0315
▁sign	-10.0319
▁international	-10.0319
▁including	-10.0319
▁biology	-10.0319
▁peace	-10.032
▁anyone	-10.0323
▁waiting	-10.0323
▁race	-10.0323
▁purpose	-10.0343
▁forms	-10.0343
▁European	-10.0344
▁neurons	-10.0345
▁math	-10.0347
▁named	-10.035
▁grand	-10.0368
▁sorts	-10.0382
▁skills	-10.0417
▁National	-10.0419
▁range	-10.0426
▁feed	-10.0427
▁concept	-10.0442
▁listening	-10.0444
rat	-10.0446
log	-10.0468
ff	-10.0468
▁region	-10.0471
▁charge	-10.0479
▁military	-10.0479
▁unique	-10.0479
▁direction	-10.0485
▁source	-10.0486
au	-10.0494
des	-10.0501
har	-10.0508
▁familiar	-10.0519
▁son	-10.0536
▁hair	-10.0539
rid	-10.054
lin	-10.0566
ice	-10.0567
▁function	-10.0569
▁interest	-10.0573
▁micro	-10.058
▁park	-10.0583
▁inter	-10.0585
▁ahead	-10.0585
▁sky	-10.0587
▁Hu	-10.0602
▁extra	-10.0606
▁allow	-10.0614
▁intelligence	-10.0621
▁return	-10.0626
▁written	-10.0632
▁account	-10.0639
▁massive	-10.0644
▁healthy	-10.0649
▁successful	-10.0654
▁Brazil	-10.0661
▁capital	-10.0668
▁legs	-10.068
▁stick	-10.0686
▁points	-10.0691
▁daughter	-10.0703
▁eventually	-10.0703
▁terrible	-10.0724
▁architecture	-10.0724
▁website	-10.0724
▁practice	-10.0732
▁stress	-10.0745
▁weight	-10.0766
▁forget	-10.0781
▁meeting	-10.0784
▁Iraq	-10.0787
ight	-10.0796
▁meters	-10.0799
▁web	-10.0802
▁Japan	-10.0807
mark	-10.081
No	-10.0814
V	-10.0828
▁effective	-10.0828
▁fantastic	-10.0849
▁respect	-10.0851
▁Asia	-10.0856
▁decade	-10.0859
▁dance	-10.0865
▁Web	-10.0866
▁trade	-10.0866
▁French	-10.087
▁Se	-10.0875
▁expensive	-10.0891
▁pass	-10.0898
let	-10.0916
▁costs	-10.0938
▁mom	-10.0948
▁walked	-10.0952
▁Washington	-10.0954
▁immediately	-10.0956
▁thank	-10.096
▁doctors	-10.0963
▁raise	-10.0979
▁performance	-10.0987
▁virus	-10.0988
stream	-10.0996
▁beauty	-10.0997
for	-10.1017
of	-10.1034
▁aid	-10.1035
unt	-10.1045
▁rain	-10.105
▁male	-10.1054
▁Car	-10.1061
▁Al	-10.1069
▁Who	-10.1071
▁stopped	-10.1084
▁seem	-10.1085
▁board	-10.1097
▁legal	-10.1099
▁afraid	-10.1103
▁email	-10.1104
bra	-10.1126
▁Dr	-10.1129
▁choices	-10.1141
▁blind	-10.1144
▁predict	-10.1146
▁wealth	-10.1161
▁famous	-10.1168
▁Kenya	-10.1168
▁teaching	-10.1174
▁gene	-10.1183
▁babies	-10.119
▁private	-10.119
si	-10.1194
▁corner	-10.1194
▁soon	-10.1201
▁available	-10.1211
▁photograph	-10.1213
▁current	-10.1246
▁fuel	-10.125
▁trouble	-10.1255
▁post	-10.1257
ible	-10.1293
▁boat	-10.1305
grade	-10.1338
▁remarkable	-10.1343
▁essentially	-10.1365
pro	-10.1369
▁radio	-10.1375
▁earlier	-10.1387
▁demand	-10.1387
▁photo	-10.139
▁asking	-10.1391
▁gives	-10.1396
▁Life	-10.141
▁mission	-10.1412
▁attack	-10.1435
▁Big	-10.1436
ture	-10.1447
▁institutions	-10.145
▁financial	-10.1453
▁push	-10.1463
Ha	-10.1463
▁urban	-10.1475
▁survive	-10.148
▁conflict	-10.1489
▁slide	-10.1496
ki	-10.1517
▁Ne	-10.1518
▁ball	-10.1539
bb	-10.1542
▁especially	-10.1543
▁invented	-10.1545
▁agree	-10.1566
round	-10.1568
▁production	-10.1569
lies	-10.1574
▁slightly	-10.1588
tail	-10.1588
val	-10.1606
▁character	-10.1608
▁understood	-10.161
▁failure	-10.161
▁yes	-10.1611
▁bodies	-10.1633
▁religion	-10.1633
▁minds	-10.1653
▁foot	-10.1664
term	-10.1668
ep	-10.1671
▁First	-10.1678
▁visit	-10.1685
▁trip	-10.1696
▁connection	-10.1706
▁AIDS	-10.1713
▁Ki	-10.1714
rie	-10.1727
air	-10.1732
▁challenges	-10.1744
▁beyond	-10.1747
▁sector	-10.1747
▁straight	-10.1747
▁smell	-10.1747
▁bridge	-10.1747
over	-10.1749
▁greater	-10.1753
▁towards	-10.1761
▁degrees	-10.1771
▁driving	-10.1782
▁diseases	-10.1789
▁match	-10.1795
▁wish	-10.1811
hu	-10.1838
▁heat	-10.1848
▁mobile	-10.1859
▁several	-10.1862
▁Every	-10.1862
▁actual	-10.1877
▁explore	-10.1877
▁helped	-10.188
▁complete	-10.1882
▁Middle	-10.1885
▁distance	-10.1885
▁funny	-10.1885
▁British	-10.1885
▁river	-10.1886
▁sick	-10.1902
▁politics	-10.1908
rate	-10.191
▁Audience	-10.1932
▁laws	-10.1944
▁cover	-10.1945
▁flying	-10.1945
▁George	-10.1955
▁responsibility	-10.1955
▁block	-10.1963
▁card	-10.1966
ay	-10.1968
▁genome	-10.1978
▁governments	-10.1986
▁GDP	-10.2002
▁rock	-10.2007
▁popular	-10.2026
▁types	-10.203
▁fix	-10.2034
ier	-10.2035
▁communicate	-10.2049
▁paid	-10.205
▁closer	-10.2066
▁television	-10.2073
▁nine	-10.2094
aging	-10.2102
▁instance	-10.2107
▁final	-10.2111
▁levels	-10.2125
▁nation	-10.2134
▁After	-10.2144
▁landscape	-10.2144
▁decades	-10.2157
▁likely	-10.2167
▁income	-10.2176
▁professional	-10.2184
▁becomes	-10.2186
▁With	-10.2194
▁press	-10.2214
▁infrastructure	-10.2216
▁standard	-10.2228
▁anti	-10.2243
▁biological	-10.2264
▁describe	-10.2271
▁onto	-10.2284
▁Of	-10.2286
▁brand	-10.2288
▁noticed	-10.229
▁humanity	-10.2308
▁Maybe	-10.2311
▁sent	-10.2313
▁throw	-10.234
▁dying	-10.2344
▁task	-10.2351
▁join	-10.2363
▁cross	-10.2384
ray	-10.2384
▁improve	-10.2409
▁enormous	-10.241
▁surgery	-10.241
▁town	-10.2413
▁led	-10.2415
ified	-10.2416
▁services	-10.2417
▁organizations	-10.2422
▁programs	-10.2427
▁anybody	-10.2435
lock	-10.2442
disc	-10.246
top	-10.2461
ick	-10.2463
▁obvious	-10.2474
▁states	-10.2475
▁sand	-10.248
▁event	-10.248
gen	-10.2482
wood	-10.2483
▁boys	-10.2484
▁prevent	-10.2497
▁summer	-10.2508
hand	-10.2509
▁Sun	-10.2509
▁atmosphere	-10.251
ja	-10.251
▁passion	-10.2513
▁shared	-10.2521
▁supply	-10.2533
▁worry	-10.2539
▁England	-10.2558
▁sequence	-10.2558
▁condition	-10.2575
▁broken	-10.2576
▁hole	-10.2576
▁conference	-10.2583
▁planets	-10.2597
▁Einstein	-10.2607
▁crime	-10.2608
▁effects	-10.2611
▁inspired	-10.2615
▁engineering	-10.2632
U	-10.2645
▁speech	-10.2657
▁lucky	-10.2658
▁citizens	-10.2661
▁consider	-10.2664
▁reduce	-10.2665
▁birth	-10.2682
▁further	-10.2683
▁tough	-10.2687
▁greatest	-10.2694
▁respond	-10.2698
▁Te	-10.2698
▁directly	-10.2714
▁relationships	-10.2717
ging	-10.2717
▁investment	-10.2737
▁environmental	-10.2739
▁pop	-10.2739
▁cultural	-10.275
▁Pro	-10.2753
▁bought	-10.2758
▁cause	-10.2764
▁evolved	-10.2767
aw	-10.277
▁particularly	-10.2777
▁societies	-10.2784
▁obviously	-10.2793
ability	-10.2795
work	-10.2806
▁experiments	-10.2807
▁tremendous	-10.2809
ors	-10.2818
form	-10.2818
▁certainly	-10.2824
▁campaign	-10.2835
▁Anderson	-10.2835
▁flu	-10.2837
▁missing	-10.2847
▁cycle	-10.2854
▁total	-10.2856
▁afford	-10.2858
▁definition	-10.2865
▁answers	-10.2866
▁Australia	-10.2884
▁capacity	-10.2912
med	-10.2912
▁Germany	-10.2917
▁Yes	-10.2927
▁bio	-10.2938
related	-10.2943
▁differently	-10.2952
▁hearing	-10.2957
▁camp	-10.296
▁among	-10.296
▁okay	-10.2963
▁colleagues	-10.2964
▁dad	-10.297
▁molecules	-10.2979
▁significant	-10.298
▁networks	-10.298
▁recent	-10.2984
ue	-10.3002
▁balance	-10.3015
▁designers	-10.3027
ai	-10.3036
▁Richard	-10.3041
oh	-10.305
ite	-10.3063
▁worst	-10.3067
▁quote	-10.3073
▁Even	-10.3078
▁bees	-10.3083
▁nobody	-10.3096
print	-10.31
▁President	-10.312
▁oxygen	-10.312
tain	-10.3124
▁Most	-10.3128
▁accept	-10.3129
par	-10.3137
▁markets	-10.3142
▁Mexico	-10.3146
which	-10.3147
▁enjoy	-10.3164
▁island	-10.3166
based	-10.3168
▁easily	-10.3172
▁proud	-10.3172
▁window	-10.3174
io	-10.3186
▁Mu	-10.3201
van	-10.3206
▁glass	-10.3207
▁honest	-10.3216
▁highly	-10.323
▁dreams	-10.3243
▁played	-10.3249
▁identity	-10.3252
ear	-10.3254
▁everywhere	-10.3255
▁devices	-10.3257
▁Hey	-10.3257
ner	-10.3262
▁active	-10.3269
iv	-10.3276
▁creativity	-10.3279
▁traffic	-10.3305
▁examples	-10.3321
where	-10.3328
▁stem	-10.3335
▁artist	-10.3335
▁trial	-10.3337
▁sad	-10.3348
ka	-10.3349
▁serious	-10.335
chi	-10.3358
▁communication	-10.3363
▁feels	-10.3365
port	-10.3375
▁emotional	-10.338
▁leg	-10.3382
▁consciousness	-10.3386
▁Amazon	-10.3413
▁differences	-10.3415
▁lack	-10.3416
▁plane	-10.344
▁forever	-10.344
▁MIT	-10.344
▁published	-10.344
▁please	-10.3445
ee	-10.3458
▁original	-10.3463
▁weird	-10.3468
▁helping	-10.3472
▁scientist	-10.3472
▁stuck	-10.3473
▁streets	-10.3498
pan	-10.3501
▁reward	-10.3503
▁Am	-10.3516
fer	-10.3523
▁Are	-10.3523
▁party	-10.3523
▁justice	-10.3536
▁random	-10.354
▁extreme	-10.354
▁importantly	-10.3543
▁easier	-10.3549
▁flight	-10.355
some	-10.356
▁letter	-10.3565
hy	-10.3565
▁coffee	-10.3577
▁possibly	-10.3604
▁Center	-10.3604
▁birds	-10.3618
her	-10.3628
▁puzzle	-10.3632
▁desire	-10.3632
▁term	-10.3639
▁matters	-10.3644
▁graph	-10.365
▁eating	-10.3656
▁alternative	-10.366
▁multi	-10.3663
▁carry	-10.3676
▁bottle	-10.3687
▁noise	-10.3688
link	-10.3713
▁core	-10.3732
Ca	-10.3736
there	-10.3737
▁article	-10.3743
▁chain	-10.3744
▁speaking	-10.375
ath	-10.3751
▁struggle	-10.3771
▁chemical	-10.3776
▁surprise	-10.3782
▁collect	-10.3785
wide	-10.3787
▁catch	-10.3789
▁opposite	-10.3799
▁above	-10.38
▁zero	-10.3802
▁notion	-10.3826
▁Street	-10.3827
art	-10.3828
ger	-10.3831
▁farm	-10.3832
▁Times	-10.3835
▁influence	-10.3838
▁pounds	-10.3845
▁passed	-10.3849
▁School	-10.3856
mar	-10.3877
▁central	-10.3884
▁motor	-10.3885
▁sustainable	-10.3889
▁offer	-10.389
▁Arab	-10.3893
▁wild	-10.3912
▁breast	-10.3912
▁Human	-10.3915
▁mountain	-10.392
▁argument	-10.3925
▁equal	-10.393
▁spending	-10.3936
▁diversity	-10.3941
▁husband	-10.3941
▁efficient	-10.3944
▁somewhere	-10.3947
▁interview	-10.3953
▁civil	-10.3968
▁commercial	-10.397
▁earth	-10.3971
▁complexity	-10.3974
fu	-10.3992
▁Harvard	-10.3998
▁continent	-10.3998
▁airplane	-10.3998
▁classroom	-10.3999
▁bread	-10.3999
▁Los	-10.4002
▁knowing	-10.4014
▁forces	-10.4018
▁scene	-10.4027
▁Japanese	-10.4027
▁produced	-10.4032
▁switch	-10.4039
▁finish	-10.4039
▁signal	-10.4049
▁paint	-10.4052
▁Cha	-10.4056
▁focused	-10.4063
▁discover	-10.407
▁cloud	-10.4072
▁target	-10.4072
▁museum	-10.4085
▁operation	-10.4085
▁fund	-10.4088
▁gay	-10.4091
▁studying	-10.4104
▁Si	-10.4107
▁negative	-10.4114
▁lights	-10.4121
▁NASA	-10.4143
▁du	-10.415
▁benefit	-10.4153
▁remind	-10.4156
▁avoid	-10.416
▁accident	-10.416
▁allows	-10.4165
▁Those	-10.4172
▁competition	-10.4172
▁giant	-10.4172
▁painting	-10.4181
▁Israel	-10.4187
▁hurt	-10.4201
▁civilization	-10.4202
our	-10.4204
▁Dan	-10.4213
▁bank	-10.4219
▁jump	-10.4225
▁click	-10.423
▁horse	-10.4231
▁Art	-10.4232
▁mis	-10.4236
ris	-10.4242
▁apply	-10.4245
▁truly	-10.426
▁lesson	-10.4261
▁report	-10.4264
▁ants	-10.4271
▁hate	-10.4281
▁Iran	-10.429
▁wonder	-10.429
▁smile	-10.429
▁Like	-10.4291
▁roll	-10.4295
▁deliver	-10.4295
▁tissue	-10.4309
▁mouse	-10.432
▁TV	-10.4322
clock	-10.4326
▁particles	-10.4333
J	-10.4339
▁Paul	-10.4344
▁Darwin	-10.4347
▁advantage	-10.4349
▁criminal	-10.4349
▁gift	-10.4349
▁indeed	-10.4349
▁Nigeria	-10.4351
▁suffering	-10.436
▁date	-10.4364
get	-10.4377
▁imagination	-10.4378
ov	-10.4394
load	-10.4395
▁contact	-10.4397
▁sold	-10.4401
▁unit	-10.4403
gi	-10.4407
▁kept	-10.4408
▁Congress	-10.4408
▁scan	-10.441
▁damage	-10.4411
▁virtual	-10.4429
vis	-10.4434
▁phones	-10.4435
▁beat	-10.4437
▁fair	-10.4438
▁background	-10.4438
are	-10.4439
ments	-10.4441
Do	-10.445
▁separate	-10.4451
▁structures	-10.4456
▁brother	-10.446
▁raised	-10.4463
▁gr	-10.4494
▁desert	-10.4498
▁leadership	-10.4499
ably	-10.4505
▁fairly	-10.4507
▁argue	-10.4511
▁affect	-10.4519
▁represent	-10.4519
▁invest	-10.452
▁Britain	-10.4529
▁James	-10.4529
▁members	-10.4542
▁farmers	-10.4567
▁infect	-10.4574
wheel	-10.4589
▁faith	-10.4589
▁yellow	-10.4589
ky	-10.4601
▁bird	-10.4604
▁cheap	-10.4613
▁experiences	-10.4613
▁possibility	-10.462
▁soil	-10.4634
uff	-10.4646
▁method	-10.4646
▁brilliant	-10.465
▁moments	-10.4662
▁phenomenon	-10.4681
▁wear	-10.4682
▁moon	-10.4686
▁gain	-10.4699
▁holding	-10.4704
▁emotions	-10.4708
▁turning	-10.4709
meter	-10.4724
▁rights	-10.4736
correct	-10.474
▁motion	-10.4743
right	-10.4748
▁vote	-10.4755
▁lie	-10.4761
kin	-10.4763
▁tells	-10.4768
▁Where	-10.4769
▁metaphor	-10.4774
▁lunch	-10.4774
▁married	-10.4774
▁France	-10.4774
▁layer	-10.4777
dimensional	-10.4783
▁drink	-10.4786
▁failed	-10.4789
ash	-10.4799
▁foundation	-10.4801
▁occur	-10.4804
▁poem	-10.4805
▁curve	-10.4805
▁basis	-10.4805
▁figured	-10.481
▁tradition	-10.4813
▁held	-10.4817
▁bear	-10.482
▁bone	-10.4835
▁elements	-10.4852
▁bringing	-10.486
▁insects	-10.4864
▁studied	-10.4867
How	-10.4869
▁theater	-10.487
▁usually	-10.4871
angle	-10.4894
▁sharing	-10.4894
▁effort	-10.4897
▁sister	-10.4898
▁strength	-10.4898
▁Canada	-10.4899
▁suit	-10.4912
ey	-10.4918
▁near	-10.4929
▁Chicago	-10.493
▁religious	-10.493
▁spot	-10.4931
▁Po	-10.4935
▁somehow	-10.4936
▁labor	-10.4939
▁wearing	-10.495
▁upon	-10.4959
▁Women	-10.4962
▁coral	-10.4962
▁Ph	-10.4965
▁opened	-10.4966
stone	-10.4967
▁concerned	-10.4974
ual	-10.4979
▁manage	-10.4984
▁profound	-10.4984
▁universal	-10.4993
▁interact	-10.5002
▁events	-10.5013
▁marriage	-10.5025
▁trillion	-10.5025
credit	-10.5025
▁becoming	-10.5025
▁Bank	-10.5025
▁saving	-10.5026
▁joy	-10.5026
▁believed	-10.5031
▁closed	-10.5034
tech	-10.5035
istic	-10.5043
▁surprised	-10.5045
▁typical	-10.5047
▁deeply	-10.5048
▁trick	-10.505
conscious	-10.5052
▁creatures	-10.5053
▁fascinating	-10.5057
▁newspaper	-10.5057
▁claim	-10.5057
▁engage	-10.5064
▁achieve	-10.5065
▁industrial	-10.5065
▁mess	-10.5066
▁watched	-10.5072
▁seat	-10.5083
board	-10.5101
ari	-10.5106
▁fail	-10.5119
▁responsible	-10.5121
▁strategy	-10.5121
▁neighborhood	-10.5123
▁adults	-10.5139
▁debate	-10.5153
▁Mar	-10.5161
▁base	-10.5166
▁transform	-10.5179
arch	-10.5183
▁location	-10.5185
▁mirror	-10.5185
▁university	-10.5185
▁score	-10.5186
▁flat	-10.5186
It	-10.5199
▁dollar	-10.5205
mat	-10.521
▁steps	-10.5213
▁attempt	-10.5217
af	-10.5218
▁Muslim	-10.5221
cus	-10.5224
▁gun	-10.5228
▁Per	-10.523
▁caught	-10.525
▁platform	-10.525
▁gender	-10.525
▁anywhere	-10.5253
press	-10.5255
ju	-10.5268
ium	-10.5273
▁magazine	-10.5282
▁opportunities	-10.5282
▁leader	-10.53
▁Sha	-10.5301
za	-10.5313
▁interface	-10.5315
▁bus	-10.5334
▁fashion	-10.5336
▁worried	-10.5348
▁Francisco	-10.5348
cut	-10.5353
ncy	-10.5358
py	-10.5363
▁cat	-10.5374
▁exercise	-10.5381
▁due	-10.5382
▁organisms	-10.5383
▁Steve	-10.5386
ically	-10.5398
▁degree	-10.5398
▁hell	-10.5401
Fi	-10.5406
▁trained	-10.5412
▁restaurant	-10.5414
▁crowd	-10.5422
scale	-10.5426
▁finished	-10.5432
▁artists	-10.5446
▁Institute	-10.5447
▁opinion	-10.5447
▁loss	-10.5447
▁designer	-10.5454
▁invisible	-10.548
▁creation	-10.548
▁fighting	-10.5487
▁knows	-10.5498
▁detect	-10.55
bar	-10.5505
▁German	-10.5506
fold	-10.5508
▁Boston	-10.5513
▁ancient	-10.5513
▁epidemic	-10.5513
Why	-10.5514
▁bright	-10.5514
▁sentence	-10.5522
ew	-10.5525
▁fl	-10.5526
▁forth	-10.5529
wo	-10.5531
▁taste	-10.5532
▁Look	-10.5537
▁fill	-10.5537
▁gold	-10.5548
▁master	-10.5549
▁principles	-10.5568
▁perfectly	-10.5571
lit	-10.558
▁Another	-10.558
▁fossil	-10.558
▁spaces	-10.5587
▁benefits	-10.5598
what	-10.5602
▁breath	-10.5608
▁clearly	-10.5609
▁nervous	-10.5614
▁era	-10.5618
▁throughout	-10.5621
▁chair	-10.5627
▁State	-10.5628
she	-10.5629
▁willing	-10.5632
▁Which	-10.5648
▁budget	-10.5648
▁fresh	-10.5648
▁roof	-10.5649
▁engineers	-10.5654
▁double	-10.5664
ler	-10.5665
▁slowly	-10.5668
▁grown	-10.5675
▁hidden	-10.5682
▁professor	-10.5682
▁display	-10.5682
▁circle	-10.5694
▁seconds	-10.5695
▁release	-10.5698
▁signals	-10.5699
▁creates	-10.57
▁colors	-10.5709
▁harder	-10.5711
▁shop	-10.5712
▁childhood	-10.5717
▁received	-10.5727
▁promise	-10.5732
▁mouth	-10.5745
▁leaving	-10.575
▁feedback	-10.575
▁himself	-10.5751
ide	-10.5753
▁oceans	-10.5756
▁principle	-10.5763
▁belong	-10.5763
▁limited	-10.5763
▁parent	-10.5765
▁managed	-10.577
▁meat	-10.5772
▁prove	-10.5774
ust	-10.5775
▁cards	-10.5778
▁Su	-10.5779
ou	-10.5782
▁necessarily	-10.5784
▁capable	-10.5786
how	-10.5789
▁lay	-10.5794
▁tons	-10.5795
▁mentioned	-10.5797
▁wants	-10.5797
▁molecule	-10.5798
▁note	-10.5804
▁sudden	-10.5809
▁Michael	-10.5819
▁dinner	-10.5819
▁vast	-10.5819
▁constantly	-10.5825
▁discovery	-10.5827
▁ride	-10.5833
▁brings	-10.5834
▁shoes	-10.584
rap	-10.5849
▁September	-10.5853
▁detail	-10.5854
▁Ja	-10.5854
▁Paris	-10.5854
▁adult	-10.5868
▁Vi	-10.5888
▁edge	-10.5889
▁chicken	-10.589
▁faces	-10.5891
▁metal	-10.5891
day	-10.5896
▁King	-10.5914
▁balloon	-10.5922
▁clip	-10.5922
low	-10.5931
▁drawing	-10.5936
▁Many	-10.5941
▁Lu	-10.5951
▁pages	-10.5952
▁disaster	-10.5957
▁joke	-10.5958
▁safety	-10.596
▁topic	-10.5965
▁adapt	-10.597
▁fat	-10.5971
▁interaction	-10.5976
▁Park	-10.5987
▁identify	-10.5992
▁stupid	-10.5992
▁curious	-10.5992
▁galaxies	-10.5992
▁autism	-10.5992
▁chart	-10.5993
▁tens	-10.5994
▁string	-10.5995
▁emissions	-10.5999
▁blog	-10.601
▁appear	-10.601
▁wave	-10.6016
▁band	-10.602
▁Wikipedia	-10.6027
▁depression	-10.6027
▁Two	-10.6029
▁Day	-10.6033
▁Che	-10.6034
▁Russia	-10.6035
▁electric	-10.6041
cal	-10.6044
▁mistake	-10.6045
▁flag	-10.6046
▁Charles	-10.6064
▁copy	-10.6067
▁walls	-10.6069
▁therefore	-10.6071
bag	-10.6076
setting	-10.6078
▁dry	-10.6078
▁serve	-10.6092
▁Green	-10.6097
▁multiple	-10.6098
▁Talk	-10.6098
▁comfortable	-10.61
▁ultimately	-10.6104
lan	-10.6112
ley	-10.6117
▁member	-10.6118
▁wondering	-10.612
ral	-10.6128
▁disappear	-10.6153
ending	-10.6162
▁treated	-10.6164
▁extinct	-10.6169
▁galaxy	-10.6169
▁threat	-10.6172
storm	-10.6173
▁collection	-10.6176
cla	-10.6183
▁tape	-10.6189
▁clinical	-10.6192
section	-10.6199
style	-10.62
trans	-10.6203
▁GPS	-10.6205
▁foreign	-10.6205
▁Boy	-10.6205
▁leading	-10.6207
▁weapons	-10.6216
▁Wow	-10.6217
▁dynamic	-10.6226
▁begins	-10.6232
▁collective	-10.6233
▁cap	-10.6241
▁quiet	-10.6241
▁leads	-10.6243
▁cow	-10.6249
▁statistics	-10.6252
ft	-10.6264
driven	-10.6266
▁quantum	-10.6276
▁Pakistan	-10.6277
▁fell	-10.6286
▁compared	-10.6292
▁ten	-10.6294
▁useful	-10.63
▁sexual	-10.6302
▁court	-10.6313
▁generations	-10.6317
▁discussion	-10.6318
▁transformation	-10.6332
▁Air	-10.6333
▁values	-10.6348
▁stood	-10.6349
▁plate	-10.6349
▁exchange	-10.6349
gram	-10.6356
▁letters	-10.6377
▁sharks	-10.6385
▁limb	-10.6385
▁insight	-10.6387
▁dimensions	-10.6388
▁folks	-10.6394
▁invited	-10.6397
▁Martin	-10.6402
▁warming	-10.6403
gue	-10.6411
▁Sea	-10.6412
▁crash	-10.6417
▁calls	-10.6419
▁direct	-10.6421
▁Frank	-10.6422
▁soldiers	-10.6422
▁testing	-10.6424
▁frame	-10.6431
▁fan	-10.6433
This	-10.6449
▁surprising	-10.6449
▁mathematics	-10.6458
▁perception	-10.6458
▁Apple	-10.6459
burn	-10.6466
cent	-10.6466
▁journalist	-10.6479
▁May	-10.6482
▁mix	-10.6483
▁Mark	-10.6483
▁billions	-10.6494
▁Adam	-10.6495
▁invention	-10.6497
▁rocket	-10.65
▁independent	-10.6503
?"	-10.6506
▁coal	-10.6507
cha	-10.6514
place	-10.6531
▁various	-10.6532
▁weather	-10.6532
▁fo	-10.6536
▁diet	-10.6544
ord	-10.6551
▁exists	-10.6557
read	-10.6562
▁businesses	-10.6564
▁resource	-10.6564
▁moves	-10.6567
▁spirit	-10.6569
▁garden	-10.6569
▁cure	-10.657
▁season	-10.6572
keeping	-10.6577
▁following	-10.6581
▁ideal	-10.6588
▁forced	-10.6589
▁crack	-10.6593
wise	-10.6602
▁Science	-10.6606
▁Valley	-10.6606
▁mathematical	-10.6606
▁command	-10.6606
ham	-10.6606
▁planning	-10.6606
▁House	-10.6607
▁toilet	-10.6607
▁paying	-10.6609
▁vehicle	-10.6634
▁protein	-10.6634
car	-10.6639
▁cave	-10.664
▁button	-10.664
▁consequences	-10.6641
▁majority	-10.6642
▁artificial	-10.6643
▁etc	-10.6645
▁zone	-10.6646
pin	-10.6649
▁experienced	-10.6663
▁deeper	-10.6666
▁Christmas	-10.6681
"--	-10.6681
▁logic	-10.6692
source	-10.6704
▁president	-10.6718
nstead	-10.6718
▁addition	-10.672
▁gap	-10.6725
▁Ni	-10.6741
▁holes	-10.6744
▁belief	-10.6749
▁partner	-10.6754
▁reform	-10.6764
▁spoke	-10.6766
▁shapes	-10.6767
ory	-10.6774
ery	-10.6775
▁Islam	-10.6775
▁Ben	-10.6776
tar	-10.6777
head	-10.6781
▁wisdom	-10.6794
▁anyway	-10.68
▁kilometers	-10.6803
▁broke	-10.6806
▁clinic	-10.6807
ned	-10.681
cast	-10.6811
▁remote	-10.6823
▁tag	-10.6823
▁organic	-10.6825
script	-10.6832
▁Health	-10.6832
▁poetry	-10.6833
▁Over	-10.6835
▁enter	-10.6845
▁advance	-10.6853
▁launch	-10.6854
▁muscle	-10.6865
▁doubt	-10.6865
▁spider	-10.687
▁From	-10.687
raw	-10.6874
▁saved	-10.6882
▁launched	-10.6887
▁heads	-10.6898
▁relative	-10.6899
▁laptop	-10.6909
▁wake	-10.6909
▁June	-10.691
▁comment	-10.6917
▁beings	-10.6918
room	-10.693
▁mothers	-10.6933
can	-10.6942
▁survey	-10.6947
▁warm	-10.6948
▁laugh	-10.6949
▁Tom	-10.6981
▁Your	-10.6981
▁Think	-10.6986
▁filter	-10.6986
tter	-10.7004
▁calling	-10.7004
▁below	-10.7004
▁generate	-10.7008
▁transport	-10.7022
▁users	-10.7024
▁battery	-10.7024
▁medium	-10.7025
▁cameras	-10.7027
▁bill	-10.703
▁picked	-10.7038
▁players	-10.7039
▁tip	-10.7045
▁graduate	-10.7046
▁considered	-10.705
ana	-10.705
▁covered	-10.7051
▁El	-10.7052
▁equation	-10.7063
▁lady	-10.7065
▁dealing	-10.7067
▁factory	-10.7069
▁Wi	-10.7071
dge	-10.7085
▁except	-10.7095
▁reaction	-10.7103
▁operating	-10.7103
▁everyday	-10.7106
▁distribution	-10.711
▁causes	-10.7111
▁convinced	-10.7115
▁tube	-10.7118
▁miss	-10.7121
▁voices	-10.7128
▁contract	-10.7132
lon	-10.7137
▁expected	-10.7142
▁Gu	-10.7145
nk	-10.7149
pol	-10.7151
▁His	-10.7153
▁waves	-10.7162
▁opening	-10.7165
corn	-10.7177
▁survival	-10.7181
▁ski	-10.7185
▁protection	-10.719
fish	-10.7192
▁define	-10.7202
▁technical	-10.7211
▁malaria	-10.7213
gar	-10.722
▁Obama	-10.722
▁heavy	-10.722
▁shark	-10.7221
▁Latin	-10.7221
gh	-10.7223
▁cup	-10.7231
▁driver	-10.7237
▁intelligent	-10.7248
▁Red	-10.7251
bling	-10.7257
east	-10.7258
▁signs	-10.7258
▁Sweden	-10.726
▁sweet	-10.726
▁losing	-10.7261
▁north	-10.7263
▁factors	-10.7263
▁languages	-10.7269
▁killing	-10.7277
▁nor	-10.7282
▁concern	-10.7284
▁experts	-10.7292
sensitive	-10.73
▁agriculture	-10.73
▁patent	-10.7302
▁react	-10.7304
▁dots	-10.7306
▁victims	-10.7306
▁suggest	-10.7333
▁arms	-10.7338
back	-10.7339
▁Global	-10.734
▁January	-10.734
▁Thomas	-10.734
▁Union	-10.734
▁stock	-10.734
▁Revolution	-10.734
▁loud	-10.734
▁property	-10.7341
ef	-10.7345
▁compare	-10.7363
▁skill	-10.7364
▁Joe	-10.7383
▁mostly	-10.7383
▁sample	-10.7383
factor	-10.739
▁robotic	-10.7393
▁risks	-10.7404
▁depends	-10.7408
▁soul	-10.7415
▁Egypt	-10.7419
▁inequality	-10.7421
▁sugar	-10.7421
▁hang	-10.7421
▁gang	-10.7423
▁hide	-10.7424
▁Pole	-10.7427
water	-10.7428
gy	-10.7438
▁counter	-10.7447
▁trials	-10.7457
▁Greek	-10.7461
▁Gulf	-10.7461
▁empty	-10.7461
▁twice	-10.7461
▁accurate	-10.7461
▁healthcare	-10.7461
▁although	-10.7461
▁Her	-10.7463
▁satellite	-10.7465
q	-10.7467
▁carefully	-10.7473
▁rare	-10.7473
▁fourth	-10.7479
▁honor	-10.7485
▁emotion	-10.75
author	-10.7501
▁existence	-10.7502
▁pen	-10.7502
▁habit	-10.7503
▁messages	-10.7508
hor	-10.7508
▁arrived	-10.7511
▁station	-10.7515
▁tall	-10.7516
▁Number	-10.7542
▁combination	-10.7542
▁yesterday	-10.7542
▁microbes	-10.7542
▁prize	-10.7542
▁Project	-10.7543
▁prefer	-10.7544
▁photos	-10.7545
▁movies	-10.7546
▁released	-10.7563
▁tea	-10.7566
▁origin	-10.7576
▁underneath	-10.7583
▁fiction	-10.7584
▁construction	-10.7584
▁peak	-10.7584
▁shame	-10.7585
because	-10.7587
odd	-10.7624
▁chemistry	-10.7625
▁climb	-10.7631
rum	-10.7632
▁harm	-10.7636
▁Sh	-10.764
▁nose	-10.7645
▁maps	-10.766
wire	-10.7664
▁CEO	-10.7666
▁Pacific	-10.7666
▁facing	-10.7666
▁pocket	-10.7666
▁sculpture	-10.7666
▁teeth	-10.7666
▁battle	-10.7666
▁reflect	-10.7677
▁Give	-10.7678
▁remain	-10.768
ular	-10.7689
▁apart	-10.7694
▁limit	-10.77
ney	-10.7705
▁Remember	-10.7707
▁equipment	-10.7707
▁pump	-10.7707
▁prime	-10.7708
▁grab	-10.7708
▁para	-10.7709
▁vaccine	-10.7715
▁dinosaurs	-10.772
▁organized	-10.7722
▁height	-10.7725
▁advanced	-10.7726
being	-10.7728
▁determine	-10.7732
down	-10.7743
nal	-10.7749
▁evil	-10.7749
▁silence	-10.7749
▁instrument	-10.7749
▁fake	-10.775
ition	-10.7752
▁feelings	-10.7791
▁Museum	-10.7791
▁flies	-10.7793
▁designing	-10.7796
▁videos	-10.7796
invent	-10.7802
ons	-10.7813
▁judge	-10.7815
▁bias	-10.783
▁player	-10.7831
▁embrace	-10.7833
▁flip	-10.7834
▁highest	-10.7843
▁filled	-10.7853
state	-10.7857
▁leaves	-10.7857
▁introduce	-10.7858
▁atoms	-10.786
▁relate	-10.7866
▁equivalent	-10.7875
▁prototype	-10.7875
▁illusion	-10.7875
▁bike	-10.7883
▁Ghana	-10.7917
▁Higgs	-10.7917
▁cognitive	-10.7917
▁explanation	-10.7917
▁Foundation	-10.7917
▁talent	-10.7918
▁fellow	-10.7918
▁estimate	-10.7942
try	-10.7945
▁depend	-10.7949
▁official	-10.796
list	-10.7961
▁Act	-10.7978
▁capture	-10.7986
▁goals	-10.7986
▁connections	-10.8001
▁surgeon	-10.8003
▁participate	-10.8003
▁valuable	-10.8003
▁swim	-10.8003
matic	-10.8004
▁grid	-10.8006
▁host	-10.8007
▁operate	-10.8037
▁coast	-10.8041
▁characters	-10.8046
▁tomorrow	-10.8046
▁nerve	-10.805
▁transition	-10.8051
▁cutting	-10.8051
▁bubble	-10.806
▁Korea	-10.8061
▁sending	-10.8064
▁sites	-10.8074
▁regular	-10.808
nny	-10.8081
▁clever	-10.8089
▁variety	-10.8089
▁versus	-10.8089
▁intellectual	-10.8089
▁abuse	-10.809
▁Bang	-10.8096
▁lifetime	-10.8111
▁shoot	-10.8114
▁statement	-10.8116
▁radical	-10.8123
▁Microsoft	-10.8132
▁rural	-10.8133
▁illness	-10.8133
▁Angeles	-10.8133
If	-10.8137
ko	-10.8159
▁processes	-10.8172
▁Make	-10.8172
▁mosquito	-10.8176
▁phrase	-10.8176
▁ignore	-10.8176
▁possibilities	-10.8176
▁rational	-10.8176
▁Pat	-10.818
▁pair	-10.8196
long	-10.82
▁details	-10.8201
▁See	-10.8203
house	-10.8208
making	-10.8214
▁arts	-10.8216
▁Ethiopia	-10.8219
▁Manhattan	-10.8219
▁properties	-10.8219
▁daily	-10.8219
▁corruption	-10.8219
▁seemed	-10.8224
▁tumor	-10.8236
▁soft	-10.8238
▁Ju	-10.8249
▁caused	-10.8249
▁extract	-10.8251
▁weak	-10.8253
▁Pal	-10.8253
▁didn	-10.8256
▁split	-10.8263
▁Haiti	-10.8263
▁gotten	-10.8263
▁pure	-10.8264
▁title	-10.8264
▁Ten	-10.8265
▁White	-10.8267
▁fields	-10.8268
▁houses	-10.8274
▁nearly	-10.8276
▁awful	-10.8276
▁mode	-10.8283
▁option	-10.8285
▁electrical	-10.8287
ui	-10.829
han	-10.8296
ulate	-10.83
▁pleasure	-10.8307
▁encounter	-10.8307
▁studio	-10.8307
▁solid	-10.8307
▁shoulder	-10.8312
▁represents	-10.8315
▁encourage	-10.8334
▁destroy	-10.8335
▁require	-10.8343
▁mid	-10.8345
▁club	-10.8351
▁awesome	-10.8351
▁Hollywood	-10.8351
▁Robert	-10.8351
▁importance	-10.8352
▁silk	-10.8352
▁management	-10.8353
▁Peter	-10.8357
▁handle	-10.8358
▁scared	-10.837
▁requires	-10.8377
▁exact	-10.8387
▁length	-10.8396
▁spectrum	-10.8396
▁River	-10.8396
ctually	-10.84
▁apple	-10.8404
▁user	-10.8404
▁Africans	-10.8415
▁effectively	-10.8416
▁movements	-10.8431
▁buying	-10.8436
▁homes	-10.8439
▁bee	-10.8454
train	-10.846
▁element	-10.8461
▁lying	-10.8477
▁mention	-10.8481
▁Again	-10.8485
▁ordinary	-10.8485
▁analysis	-10.8485
▁Finally	-10.8486
▁Grand	-10.8486
profit	-10.8489
▁prepared	-10.8492
ung	-10.8503
▁feature	-10.8507
▁cultures	-10.8507
▁needle	-10.8511
▁forests	-10.8523
▁admit	-10.8529
▁Central	-10.853
▁status	-10.853
▁Basically	-10.853
▁fruit	-10.853
▁Nations	-10.8531
▁viruses	-10.8541
▁eggs	-10.8543
▁lessons	-10.8549
▁Island	-10.8555
▁breathe	-10.8559
▁perform	-10.8565
▁Mr	-10.8566
▁Bur	-10.8566
▁increasing	-10.8566
▁gravity	-10.8576
solving	-10.8576
▁alien	-10.8577
▁hall	-10.8585
▁document	-10.8589
ker	-10.8599
▁fewer	-10.8602
▁bat	-10.8611
▁danger	-10.862
▁celebrate	-10.8621
▁department	-10.8621
▁technological	-10.8621
▁unusual	-10.8621
▁firm	-10.8621
▁orbit	-10.8621
▁tank	-10.8621
▁cord	-10.8623
ok	-10.8623
▁Ge	-10.8624
▁cents	-10.8625
controlled	-10.8636
▁trend	-10.8639
lum	-10.8661
▁staff	-10.8667
▁gentlemen	-10.8667
▁Black	-10.8667
▁enable	-10.8668
ography	-10.8669
▁pill	-10.8672
▁More	-10.8676
▁sheet	-10.8686
even	-10.869
▁consumer	-10.8696
▁succeed	-10.8696
gal	-10.8699
cho	-10.8704
confidence	-10.8713
▁Space	-10.8713
▁Voice	-10.8713
▁inspiration	-10.8715
▁hotel	-10.8718
▁exception	-10.8722
Star	-10.8748
▁sources	-10.8753
▁Dad	-10.8757
▁molecular	-10.8759
▁vulnerable	-10.8759
▁Bush	-10.8759
▁spring	-10.8759
▁protest	-10.8759
▁pitch	-10.8765
▁fishing	-10.8767
▁presentation	-10.8768
▁blow	-10.877
▁qua	-10.8771
▁economics	-10.8776
jo	-10.8784
▁funding	-10.8791
▁organ	-10.8791
▁notes	-10.8791
▁outcome	-10.8791
▁academic	-10.8805
▁Congo	-10.8805
▁mortality	-10.8805
▁framework	-10.8805
▁Woman	-10.8806
▁equality	-10.8808
▁zoom	-10.8813
▁politicians	-10.8815
▁Have	-10.8815
mail	-10.8816
mble	-10.8832
▁reveal	-10.8835
defined	-10.8838
▁absolute	-10.8842
▁researchers	-10.8843
bound	-10.8851
▁Things	-10.8851
▁manufacturing	-10.8851
▁grain	-10.8851
▁milk	-10.8852
▁south	-10.8852
▁myth	-10.8855
▁lens	-10.8857
part	-10.8879
▁nations	-10.8883
▁demo	-10.8897
▁Texas	-10.8898
▁conclusion	-10.8898
▁facts	-10.8902
mine	-10.8902
▁melt	-10.8906
▁organs	-10.8918
ero	-10.8922
ification	-10.8925
▁carrying	-10.893
▁blocks	-10.8931
▁bur	-10.8933
▁regions	-10.8937
Hey	-10.8938
▁license	-10.8945
▁maintain	-10.8946
▁Mom	-10.8956
▁uses	-10.8957
▁Mc	-10.8958
▁spec	-10.8981
▁practical	-10.8983
▁Stanford	-10.8992
▁false	-10.8992
▁underwater	-10.8994
ily	-10.8999
▁CO	-10.9005
▁solved	-10.9008
hop	-10.9017
ets	-10.9018
▁assume	-10.9022
▁bet	-10.9023
▁rates	-10.9034
▁comfort	-10.9037
▁pollution	-10.904
▁drill	-10.904
▁attitude	-10.904
▁knee	-10.904
▁despite	-10.9041
▁centers	-10.9045
ook	-10.9048
▁none	-10.9052
hr	-10.906
▁symbol	-10.907
▁suppose	-10.907
▁mechanism	-10.9072
▁election	-10.9072
▁Russian	-10.9077
▁symptoms	-10.9082
producing	-10.9087
▁infinite	-10.9087
▁variation	-10.9087
▁phase	-10.9087
▁convert	-10.9087
▁jail	-10.9088
▁Bob	-10.9098
▁Mary	-10.9105
take	-10.9105
box	-10.9109
▁affected	-10.9113
▁Second	-10.9126
▁Du	-10.9131
zi	-10.9131
craft	-10.9132
▁cook	-10.9133
▁habitat	-10.9134
efficiency	-10.9135
▁Rwanda	-10.9135
▁challenging	-10.9135
▁emerging	-10.9135
proof	-10.914
▁rapidly	-10.914
▁Bible	-10.9141
ough	-10.9143
▁increasingly	-10.9145
▁wondered	-10.9162
▁dogs	-10.9165
▁translate	-10.9166
▁Lab	-10.9169
▁nest	-10.9182
▁complain	-10.9183
▁lecture	-10.9183
▁contrast	-10.9183
▁Sometimes	-10.9183
▁steel	-10.9183
▁plot	-10.9183
▁predator	-10.9184
▁Law	-10.9189
▁beach	-10.919
▁required	-10.9202
aries	-10.9229
▁empathy	-10.9232
▁sophisticated	-10.9232
▁Rio	-10.9234
▁naturally	-10.9236
Bar	-10.9238
▁printing	-10.924
tes	-10.9241
▁talks	-10.9243
▁vehicles	-10.9243
▁introduced	-10.9252
ties	-10.9262
▁snow	-10.9266
▁finger	-10.9267
ji	-10.9271
life	-10.9276
▁dramatic	-10.9279
▁physicist	-10.928
▁sphere	-10.928
▁humor	-10.928
▁added	-10.9285
▁quarter	-10.9285
▁Once	-10.9288
▁Rob	-10.93
▁options	-10.9309
▁repeat	-10.9313
Yes	-10.9315
axis	-10.9318
That	-10.9318
▁pulled	-10.9323
▁entirely	-10.9325
▁YouTube	-10.9329
▁intervention	-10.9329
▁necessary	-10.9329
▁flash	-10.933
▁fiber	-10.933
▁winter	-10.9333
win	-10.9334
▁roughly	-10.9336
▁Time	-10.9352
▁contain	-10.9357
Would	-10.9378
▁paradigm	-10.9378
▁General	-10.9378
▁boring	-10.938
▁productive	-10.9384
▁explained	-10.9392
▁suffer	-10.9392
▁worker	-10.9397
▁cooking	-10.9397
▁thin	-10.94
▁chose	-10.94
▁stronger	-10.9402
▁acting	-10.9403
▁components	-10.9409
▁songs	-10.942
dependent	-10.9422
luck	-10.9427
▁memories	-10.9427
▁swimming	-10.9427
▁angry	-10.9428
▁polar	-10.9428
▁personally	-10.9428
▁weigh	-10.9429
▁apartment	-10.9435
ati	-10.9446
▁director	-10.9449
▁formed	-10.9452
▁recording	-10.9452
▁techniques	-10.9458
▁monkey	-10.9467
▁tap	-10.947
▁Department	-10.9477
▁radiation	-10.9477
▁grateful	-10.9477
▁input	-10.9478
▁novel	-10.9479
▁Islamic	-10.9481
▁Super	-10.9495
▁features	-10.9502
hood	-10.9504
nna	-10.9507
▁church	-10.9509
▁attract	-10.9523
▁mechanical	-10.9526
▁liquid	-10.9526
portrait	-10.9527
▁passionate	-10.953
▁reverse	-10.9531
▁closely	-10.9536
▁busy	-10.9538
▁mistakes	-10.9551
▁replace	-10.9563
▁wine	-10.9565
▁bug	-10.9566
▁finance	-10.9576
▁regret	-10.9576
▁High	-10.9576
▁applied	-10.9576
org	-10.9577
▁tonight	-10.9578
▁Mother	-10.9579
▁attacks	-10.958
▁Tu	-10.9585
▁engaged	-10.9605
ace	-10.9606
▁meal	-10.9608
▁remove	-10.9609
▁mountains	-10.961
▁hospitals	-10.9612
▁chemicals	-10.9622
▁privacy	-10.9627
▁Ocean	-10.9627
▁smoke	-10.9627
▁birthday	-10.9627
▁manager	-10.9629
▁behaviors	-10.963
▁severe	-10.9633
▁Wall	-10.964
▁interests	-10.9641
▁seal	-10.9641
▁expand	-10.9642
just	-10.9654
▁monitor	-10.9658
▁officer	-10.9659
▁prop	-10.966
▁wh	-10.9667
▁recover	-10.967
▁sports	-10.9673
▁chapter	-10.9677
▁collaboration	-10.9677
▁conservation	-10.9677
▁physician	-10.9677
▁decline	-10.9677
▁diagnose	-10.9677
▁authority	-10.9678
▁route	-10.9678
▁pile	-10.9686
▁pilot	-10.9689
▁stayed	-10.9689
▁chip	-10.9696
▁include	-10.9704
rich	-10.9721
▁aspect	-10.9722
▁protected	-10.9722
▁strip	-10.9727
▁Atlantic	-10.9728
▁iPhone	-10.9728
▁reference	-10.9728
▁animation	-10.9728
▁visible	-10.9728
▁Gates	-10.9728
▁wireless	-10.9728
▁Antarctica	-10.973
▁tax	-10.9731
▁Jim	-10.9736
▁refer	-10.974
▁shock	-10.9744
makers	-10.9745
▁worldwide	-10.9748
ua	-10.9748
appropriate	-10.9779
▁Alzheimer	-10.9779
▁thumb	-10.9779
▁corals	-10.9779
▁mad	-10.9781
▁senses	-10.9781
MA	-10.9781
bal	-10.9784
▁receive	-10.9792
▁mice	-10.9795
▁meme	-10.9801
▁Muslims	-10.9824
▁increased	-10.9826
ix	-10.9828
▁Nobel	-10.983
▁shut	-10.9833
ik	-10.9834
cep	-10.9849
▁employees	-10.9862
cer	-10.9863
▁combine	-10.9864
avi	-10.9869
▁dress	-10.9877
▁organism	-10.9879
▁providing	-10.9882
▁telephone	-10.9882
▁sight	-10.9883
▁bits	-10.9886
▁hoping	-10.9888
▁sorry	-10.989
▁review	-10.9894
circuit	-10.9894
▁Age	-10.9905
▁neighbors	-10.991
▁drives	-10.9913
▁applications	-10.9915
▁kick	-10.9923
▁tested	-10.9924
▁Pe	-10.9933
▁International	-10.9934
▁William	-10.9934
▁computing	-10.9934
▁dropped	-10.9935
▁pollen	-10.9935
▁environments	-10.9943
▁photographs	-10.9947
war	-10.9952
▁Sam	-10.9956
▁vessels	-10.996
foot	-10.9962
ade	-10.9968
▁constant	-10.9977
▁flower	-10.9979
▁ecosystem	-10.9984
▁cortex	-10.9986
▁Oxford	-10.9986
▁concrete	-10.9986
▁scenario	-10.9986
▁shadow	-10.9986
▁wound	-10.9986
shaped	-11.0006
fore	-11.0012
▁collected	-11.0016
▁generally	-11.0016
▁cry	-11.0027
view	-11.0035
▁Bay	-11.0036
▁kitchen	-11.0038
▁primary	-11.0038
▁clue	-11.0038
▁repair	-11.0038
▁honey	-11.0038
▁resistance	-11.0038
▁coin	-11.0057
▁arguments	-11.0067
▁dense	-11.0073
▁convince	-11.0073
▁rocks	-11.0077
digit	-11.0083
▁Jewish	-11.0091
▁Nature	-11.0091
▁October	-11.0091
▁psychological	-11.0091
▁secure	-11.0091
shirt	-11.0091
▁Egyptian	-11.0092
▁agent	-11.0097
▁marketing	-11.0102
Gr	-11.0102
▁improvement	-11.0107
▁tour	-11.0112
▁infection	-11.0117
now	-11.0126
▁broad	-11.0136
▁illegal	-11.0144
▁intense	-11.0144
▁parallel	-11.0144
▁ladies	-11.0144
▁existing	-11.0145
▁classes	-11.0162
▁divide	-11.0179
▁organize	-11.018
play	-11.0188
▁careful	-11.0195
▁literature	-11.0197
▁innovative	-11.0197
▁traveling	-11.0197
▁reached	-11.0197
▁Blue	-11.0197
▁sail	-11.0199
▁Pre	-11.0205
▁pig	-11.0207
▁penguins	-11.0215
class	-11.0216
▁younger	-11.0218
▁males	-11.0219
▁earn	-11.0219
▁poster	-11.0226
▁evolve	-11.0233
▁remains	-11.024
▁computation	-11.025
▁hydrogen	-11.0251
▁internal	-11.0251
▁selection	-11.0251
▁clothes	-11.0252
▁fingers	-11.0264
▁algorithms	-11.0264
run	-11.0266
▁theme	-11.0276
▁electro	-11.0277
called	-11.0278
▁collapse	-11.0286
▁poet	-11.0304
▁Uganda	-11.0304
▁exploration	-11.0304
▁permanent	-11.0304
▁channel	-11.0307
▁tracking	-11.0308
▁hook	-11.0309
▁Put	-11.0312
▁tests	-11.0328
body	-11.0332
▁physically	-11.0346
▁ultimate	-11.0349
▁musical	-11.0355
grandfather	-11.0358
▁microscope	-11.0358
▁activities	-11.0358
▁marine	-11.0359
bit	-11.0361
▁whale	-11.0362
▁Arabic	-11.0364
▁otherwise	-11.0366
▁equally	-11.0375
▁actions	-11.0388
▁invite	-11.0395
Come	-11.0395
▁file	-11.0397
▁wars	-11.0399
▁pet	-11.0399
▁agreed	-11.04
cher	-11.0401
▁Smith	-11.0412
▁advice	-11.0412
▁democratic	-11.0412
▁deserve	-11.0412
▁destruction	-11.0413
American	-11.0413
▁Sunday	-11.0413
▁terrorism	-11.0413
▁Very	-11.0414
▁evolutionary	-11.0415
▁gut	-11.0416
▁telescope	-11.0417
▁Back	-11.0425
▁printer	-11.0433
▁Sch	-11.0437
born	-11.0447
▁signed	-11.0457
▁owner	-11.0457
itude	-11.046
rhythm	-11.0467
▁Girl	-11.0467
▁Narrator	-11.0467
▁plenty	-11.0467
lash	-11.0468
▁thick	-11.0469
▁unfortunately	-11.047
ridge	-11.0471
▁March	-11.0471
▁creature	-11.0473
▁singing	-11.0476
▁grass	-11.0493
▁hits	-11.0494
ult	-11.0494
▁processing	-11.0495
▁sensors	-11.0513
--"	-11.0515
▁samples	-11.0518
▁ends	-11.0519
▁films	-11.0521
▁Spanish	-11.0522
▁observation	-11.0522
▁bond	-11.0524
▁specifically	-11.0525
▁followed	-11.0531
▁runs	-11.0551
▁described	-11.0562
▁abstract	-11.0568
▁pushing	-11.0568
▁Ebola	-11.0577
▁MRI	-11.0577
▁policies	-11.0577
▁genius	-11.0577
educated	-11.0577
▁diagram	-11.0577
▁Ko	-11.0578
▁escape	-11.0578
▁truck	-11.0585
▁institution	-11.0585
▁disorder	-11.0585
▁partners	-11.0588
▁monkeys	-11.0588
▁largely	-11.0589
▁Inter	-11.0598
▁currently	-11.0601
law	-11.0604
plan	-11.0618
▁faced	-11.0621
▁borders	-11.0623
▁hero	-11.0628
▁whales	-11.0629
▁Research	-11.0633
▁hormone	-11.0633
▁flew	-11.0633
face	-11.0634
▁commitment	-11.0636
performing	-11.0651
▁figures	-11.0655
roll	-11.0657
▁breathing	-11.0663
▁joined	-11.067
▁previous	-11.068
▁Child	-11.0689
▁Square	-11.0689
▁psychology	-11.0689
▁rush	-11.0691
▁transportation	-11.0692
▁exhibition	-11.0694
▁border	-11.0698
▁floating	-11.07
▁root	-11.0704
▁march	-11.0706
▁crying	-11.0709
ese	-11.0743
these	-11.0744
▁reserve	-11.0745
▁polio	-11.0745
▁unknown	-11.0746
▁Jack	-11.0749
▁pour	-11.0749
▁tuna	-11.0751
▁Sir	-11.0753
▁shell	-11.0762
hat	-11.0763
▁pal	-11.0769
▁discuss	-11.0774
▁helps	-11.0784
▁Men	-11.0788
▁cartoon	-11.08
put	-11.08
▁session	-11.0801
▁Eastern	-11.0801
Wait	-11.0802
▁Everybody	-11.0802
▁spiritual	-11.0802
▁occurred	-11.0802
▁boom	-11.0803
▁capitalism	-11.0804
▁trace	-11.0807
active	-11.0808
▁Mac	-11.081
▁surrounded	-11.081
▁expert	-11.0813
▁boxes	-11.0822
verse	-11.0822
▁cri	-11.0837
▁situations	-11.0839
rick	-11.084
▁fixed	-11.0841
▁inspire	-11.0841
teen	-11.0848
▁functions	-11.0853
▁Yorker	-11.0856
▁activist	-11.0858
▁pool	-11.0858
▁bicycle	-11.0858
▁shake	-11.0858
▁Italy	-11.0859
▁dip	-11.086
▁lake	-11.0862
▁names	-11.0864
hour	-11.0869
So	-11.0887
▁meaningful	-11.089
▁papers	-11.0897
▁limits	-11.0903
▁hopeful	-11.0909
▁favor	-11.0915
▁struck	-11.0915
▁murder	-11.0915
▁piano	-11.0915
▁Long	-11.0915
▁sweat	-11.092
then	-11.0943
▁normally	-11.0957
opt	-11.0967
Ah	-11.0971
▁December	-11.0973
▁horrible	-11.0973
▁horizon	-11.0973
▁insurance	-11.0973
▁miracle	-11.0973
▁recognition	-11.0973
▁afternoon	-11.0973
raising	-11.0973
▁Children	-11.0973
▁barrier	-11.0973
▁Southern	-11.0973
▁housing	-11.0973
▁sunlight	-11.0975
▁falling	-11.0981
▁critic	-11.0982
▁guide	-11.0983
▁flowers	-11.0984
dia	-11.0985
▁whom	-11.0986
most	-11.0991
▁percentage	-11.1012
▁emerge	-11.1012
Ma	-11.1012
▁existed	-11.1024
▁depth	-11.1031
serving	-11.1031
▁footprint	-11.1032
ball	-11.1033
▁acid	-11.1033
▁painful	-11.1036
▁cute	-11.1044
▁elephant	-11.1046
test	-11.1049
▁seriously	-11.105
▁anger	-11.1061
▁vaccines	-11.1077
▁parking	-11.1084
▁savings	-11.1087
▁Design	-11.1089
▁revenue	-11.1089
▁library	-11.1089
▁laboratory	-11.1089
▁colony	-11.1092
▁Rome	-11.1094
▁tired	-11.1097
wash	-11.1101
▁conversations	-11.1113
▁outcomes	-11.1113
▁records	-11.112
very	-11.1123
▁implications	-11.1123
▁amounts	-11.1128
▁Does	-11.1129
▁extend	-11.1131
▁lift	-11.1132
▁disorders	-11.1139
▁evening	-11.1146
resolution	-11.1147
▁Three	-11.1147
▁promote	-11.1147
▁golf	-11.1148
▁behave	-11.1157
▁missed	-11.1172
▁clouds	-11.1174
▁laughing	-11.1176
▁transformed	-11.1177
▁bones	-11.1177
▁cable	-11.1178
▁instruments	-11.1194
▁privilege	-11.1199
▁column	-11.1206
▁guard	-11.1206
assemble	-11.1206
▁agenda	-11.1206
▁blame	-11.1206
▁Soviet	-11.1206
▁hungry	-11.1206
▁sustainability	-11.1206
▁greenhouse	-11.1207
▁Four	-11.121
▁associated	-11.1212
▁units	-11.1222
bing	-11.1235
▁Israeli	-11.1235
▁fundamentally	-11.1237
oid	-11.1261
j	-11.1264
▁Prize	-11.1265
▁Court	-11.1265
▁Turkey	-11.1265
▁desk	-11.1267
▁fluid	-11.1267
▁functional	-11.1279
▁proteins	-11.1279
▁typically	-11.1282
hack	-11.1285
▁optimistic	-11.1297
using	-11.1298
▁dive	-11.1301
rai	-11.1312
symmetry	-11.1325
▁August	-11.1325
▁frog	-11.1325
▁judgment	-11.1325
▁dancing	-11.1325
▁sandwich	-11.1325
▁cyber	-11.1325
▁pot	-11.1335
▁subjects	-11.1335
▁photographer	-11.1347
▁inner	-11.1353
▁Par	-11.1355
ueen	-11.1357
▁hearts	-11.1357
▁circumstances	-11.1359
away	-11.1361
He	-11.1368
▁plans	-11.1369
▁comic	-11.1376
▁suggests	-11.1382
▁continued	-11.1383
▁Florida	-11.1385
▁measuring	-11.1385
▁pregnant	-11.1385
▁relevant	-11.1385
▁renewable	-11.1385
▁conclude	-11.1385
flood	-11.1385
▁automatically	-11.1385
▁therapy	-11.1385
▁minister	-11.1385
▁Their	-11.1391
▁urge	-11.1392
generated	-11.1396
▁application	-11.1407
▁component	-11.1407
▁deaths	-11.141
▁army	-11.1415
▁measured	-11.1417
▁Tim	-11.1422
▁sides	-11.1426
▁rescue	-11.1427
bly	-11.1436
ez	-11.1438
reactor	-11.1444
▁Da	-11.1444
▁NGO	-11.1445
▁identical	-11.1445
▁carried	-11.1445
▁diverse	-11.1447
linear	-11.1448
CA	-11.1451
▁burning	-11.1452
stan	-11.1455
▁mate	-11.1459
▁unless	-11.146
▁hip	-11.1461
▁technique	-11.1468
▁Ed	-11.1468
power	-11.1476
▁Tri	-11.1477
▁dig	-11.1478
▁contribute	-11.1488
▁mushroom	-11.1505
▁suspect	-11.1505
▁Everything	-11.1505
▁silent	-11.1506
represented	-11.1506
▁scary	-11.1513
▁queen	-11.1515
eva	-11.1515
▁attend	-11.1516
free	-11.1516
▁electronic	-11.1517
▁combined	-11.1526
made	-11.1534
▁plug	-11.1546
▁Cla	-11.1561
▁unlike	-11.1566
▁Derek	-11.1566
when	-11.1574
▁diver	-11.1574
▁dust	-11.1586
▁motivation	-11.1609
▁compete	-11.1628
▁suicide	-11.1628
▁Cambridge	-11.1628
▁frankly	-11.1628
▁transplant	-11.1628
▁trigger	-11.1628
▁Jesus	-11.1628
▁steal	-11.1628
▁pretend	-11.1628
▁Lego	-11.1631
▁Far	-11.1635
bot	-11.1639
▁removed	-11.1649
▁destroyed	-11.165
▁entrepreneurs	-11.1652
▁offered	-11.1664
▁antibiotics	-11.1678
▁harvest	-11.1683
▁ancestors	-11.1683
capita	-11.1689
▁seed	-11.1689
▁February	-11.169
▁Open	-11.169
▁committed	-11.169
▁Other	-11.1693
▁hill	-11.1699
maker	-11.1699
▁transfer	-11.1751
▁centuries	-11.1752
▁crucial	-11.1752
▁vertical	-11.1752
▁causing	-11.1754
▁provided	-11.1755
▁thrown	-11.176
▁linked	-11.1761
▁database	-11.177
▁neighbor	-11.178
▁lung	-11.1782
▁ears	-11.1782
while	-11.1784
ened	-11.1791
▁collecting	-11.1793
▁scar	-11.1793
funded	-11.1795
aid	-11.1799
▁custom	-11.1804
more	-11.1807
▁allowing	-11.1809
▁Cor	-11.1813
▁Mountain	-11.1814
▁engaging	-11.1814
▁facial	-11.1814
▁romantic	-11.1814
▁mystery	-11.1814
Could	-11.1814
▁vital	-11.1815
▁precisely	-11.1821
▁Last	-11.1824
▁villages	-11.1825
▁lifestyle	-11.1826
▁Gore	-11.1831
▁classic	-11.1834
with	-11.1835
▁toward	-11.1847
▁standards	-11.1849
▁till	-11.1857
▁directions	-11.1866
▁skeleton	-11.1877
confident	-11.1877
▁description	-11.1877
▁guarantee	-11.1877
▁presence	-11.1877
▁implant	-11.1877
▁LED	-11.1878
▁laughter	-11.1879
oe	-11.1881
ome	-11.1884
▁donor	-11.1884
▁Will	-11.1891
gro	-11.1891
Look	-11.1899
mega	-11.19
▁shooting	-11.1904
▁drinking	-11.1915
ening	-11.1916
word	-11.1916
quo	-11.1928
▁traveled	-11.1933
▁seeds	-11.1933
▁grows	-11.1939
stroke	-11.194
▁Bangladesh	-11.194
▁Church	-11.194
▁Norway	-11.194
▁according	-11.194
▁philosopher	-11.194
▁narrow	-11.194
▁debt	-11.194
▁demographic	-11.194
▁Saturn	-11.1941
▁fascinated	-11.1942
atom	-11.1946
▁mammals	-11.1948
▁controlling	-11.1952
▁falls	-11.1953
pound	-11.1968
▁upset	-11.1971
▁Islands	-11.1972
▁architect	-11.1973
▁particle	-11.1973
▁interactions	-11.1975
▁regime	-11.1977
▁god	-11.1982
▁rough	-11.1997
▁knock	-11.2004
▁orchestra	-11.2004
▁strategies	-11.2004
▁uncomfortable	-11.2004
Listen	-11.2004
▁laser	-11.2006
▁leap	-11.2007
▁gray	-11.2007
▁engagement	-11.2009
Y	-11.201
▁touched	-11.201
tract	-11.201
▁spreading	-11.2014
▁Eric	-11.2014
▁nurse	-11.2038
▁meetings	-11.2043
ya	-11.2052
▁banks	-11.2059
▁exam	-11.206
▁stations	-11.2061
▁philosophy	-11.2068
▁chocolate	-11.2068
▁corporate	-11.2068
▁curiosity	-11.2068
▁exploring	-11.2068
▁shelter	-11.2068
▁ticket	-11.2068
▁Play	-11.2068
▁Italian	-11.2068
▁Brown	-11.2069
▁productivity	-11.2069
▁dramatically	-11.2069
▁Chile	-11.2071
▁hunger	-11.2072
▁aspects	-11.2076
▁objective	-11.2076
▁presented	-11.2081
▁economists	-11.2084
▁paintings	-11.2096
ological	-11.2115
construct	-11.2121
ographic	-11.2123
▁seek	-11.2123
▁spin	-11.2126
▁Taliban	-11.2133
▁Video	-11.2133
▁drove	-11.2133
▁barely	-11.2137
▁pace	-11.2137
▁spinal	-11.2138
▁download	-11.214
▁boss	-11.214
zo	-11.2142
▁layers	-11.2144
▁personality	-11.2144
▁cash	-11.2154
friendly	-11.2156
▁customers	-11.2173
▁magnetic	-11.2178
▁stands	-11.2181
▁roads	-11.2192
▁Gandhi	-11.2198
▁cooperation	-11.2198
▁medication	-11.2198
▁wings	-11.2199
▁increases	-11.2212
▁liver	-11.2216
▁salt	-11.2218
▁Christian	-11.2232
rop	-11.2236
▁Mill	-11.2236
▁Cro	-11.2236
▁tri	-11.2245
▁Ford	-11.225
uch	-11.2252
But	-11.2253
▁wage	-11.2256
▁heaven	-11.2263
▁adventure	-11.2263
▁mutation	-11.2263
▁Moore	-11.2263
▁enemy	-11.2263
▁compound	-11.2263
▁theories	-11.2263
▁Bell	-11.2266
▁searching	-11.2269
▁distributed	-11.227
ease	-11.2279
hil	-11.2283
▁drawn	-11.2289
town	-11.2317
▁auto	-11.2321
▁domestic	-11.2329
scribe	-11.2332
▁sustain	-11.2334
▁tower	-11.234
▁hire	-11.2344
▁slice	-11.2357
▁incentives	-11.2368
plus	-11.2369
▁consume	-11.2371
▁hyper	-11.2387
▁feeding	-11.239
inspiring	-11.2395
▁Friday	-11.2395
▁reduction	-11.2395
▁proportion	-11.2395
▁extent	-11.2395
▁slavery	-11.2396
▁Republican	-11.2397
▁imagined	-11.2398
▁leak	-11.2398
▁Hill	-11.2399
▁slides	-11.24
▁darkness	-11.2405
▁Gold	-11.2407
▁lovely	-11.2408
▁sales	-11.2411
level	-11.2418
▁rating	-11.2426
▁rope	-11.2427
▁pushed	-11.2444
ama	-11.2447
▁educational	-11.2448
▁dolphins	-11.2459
intuitive	-11.2461
▁intention	-11.2461
▁Part	-11.2461
anxiety	-11.2462
▁bulb	-11.2462
▁recommend	-11.2462
▁senior	-11.2462
▁strike	-11.2462
▁emergency	-11.2462
▁backwards	-11.2462
▁dedicated	-11.2465
bro	-11.2465
▁representation	-11.2467
▁teams	-11.2469
▁tricks	-11.2469
▁Gene	-11.2469
▁recovery	-11.2472
▁conventional	-11.248
▁volunteer	-11.2504
▁courage	-11.2528
▁Scott	-11.2528
▁oxytocin	-11.2529
▁preserve	-11.2529
▁unexpected	-11.2529
▁Spain	-11.2529
▁gesture	-11.2529
▁asteroid	-11.2529
▁defend	-11.2529
▁breakthrough	-11.2529
static	-11.2529
▁stack	-11.2532
▁Port	-11.2532
▁overcome	-11.2534
human	-11.2537
▁brothers	-11.2547
▁volunteers	-11.2553
rim	-11.2553
▁cop	-11.2554
til	-11.2555
▁acts	-11.2557
▁pad	-11.2578
▁gather	-11.2582
▁fabric	-11.2587
Please	-11.2596
▁Afghan	-11.2596
▁Gabby	-11.2596
▁intuition	-11.2596
▁psychologist	-11.2596
▁regulation	-11.2596
▁shrimp	-11.2596
▁FBI	-11.2596
▁Hall	-11.2596
▁neuron	-11.2597
▁dirty	-11.26
Yeah	-11.2603
▁printed	-11.2607
▁quit	-11.2619
▁mold	-11.2626
▁weapon	-11.2642
▁electron	-11.2645
▁demonstrate	-11.2647
ivity	-11.2659
solute	-11.2664
▁survivor	-11.2664
▁Silicon	-11.2664
▁consistent	-11.2664
▁recruit	-11.2664
▁transparency	-11.2664
▁economies	-11.2664
▁procedure	-11.2664
▁underground	-11.2664
▁expectations	-11.2664
▁orange	-11.2665
▁Homo	-11.2669
▁cart	-11.2672
▁muscles	-11.2674
▁locked	-11.2676
▁Eve	-11.2687
▁Mike	-11.2691
▁entered	-11.2694
▁Korean	-11.2708
▁correspond	-11.2733
▁Alexander	-11.2733
▁Beijing	-11.2733
▁external	-11.2733
▁furniture	-11.2733
▁simulation	-11.2733
▁embedded	-11.2733
▁domain	-11.2733
▁subtle	-11.2733
▁partnership	-11.2734
▁shall	-11.2735
▁apparently	-11.2736
unclear	-11.2736
▁properly	-11.2741
▁projection	-11.2745
▁July	-11.2747
▁Wo	-11.2747
▁walks	-11.275
▁brave	-11.2755
▁prices	-11.2761
▁depending	-11.2763
▁achieved	-11.2771
▁chosen	-11.2771
▁crops	-11.2777
▁Mach	-11.2781
▁dinosaur	-11.2781
▁Cur	-11.2781
▁Wal	-11.2783
book	-11.2793
▁Hy	-11.2796
▁connecting	-11.28
▁disgust	-11.2802
▁baseball	-11.2802
▁chaos	-11.2802
▁Since	-11.2804
ural	-11.2804
▁bother	-11.2804
▁Brian	-11.2804
▁heroes	-11.2808
▁sheep	-11.2814
who	-11.2824
▁architects	-11.2836
▁Ray	-11.2836
▁involves	-11.2837
▁accepted	-11.2845
any	-11.2849
yard	-11.2851
▁empower	-11.2854
▁bend	-11.2857
▁aim	-11.2859
▁formula	-11.2861
Professor	-11.2871
neutral	-11.2871
▁immune	-11.2871
▁spectacular	-11.2871
▁Dutch	-11.2871
▁charity	-11.2871
▁transparent	-11.2871
▁package	-11.2871
▁density	-11.2871
▁Northern	-11.2871
aged	-11.2872
▁interactive	-11.2875
▁ugly	-11.288
▁ingredients	-11.2895
▁tasks	-11.2906
▁algorithm	-11.2923
▁former	-11.2934
▁label	-11.2935
▁reefs	-11.2938
▁Arctic	-11.2941
▁Minister	-11.2941
▁agencies	-11.2941
▁illustrate	-11.2941
▁scratch	-11.2941
▁sketch	-11.2941
▁earthquake	-11.2941
▁request	-11.2941
▁simplicity	-11.2941
▁grave	-11.2941
▁Home	-11.2947
▁relatively	-11.2958
washing	-11.2965
gin	-11.2969
▁disappeared	-11.2973
cade	-11.2974
▁youth	-11.2978
▁mentor	-11.2979
new	-11.2996
▁windows	-11.3011
▁liberal	-11.3012
autonomous	-11.3012
▁ridiculous	-11.3012
▁hardware	-11.3012
▁Albert	-11.3012
▁wrap	-11.3012
▁Saudi	-11.3012
version	-11.3013
▁attractive	-11.3014
▁rising	-11.3024
▁toys	-11.3036
▁trends	-11.3055
▁Ke	-11.3058
▁Indians	-11.3063
▁populations	-11.3065
▁Ch	-11.3072
▁gate	-11.3074
two	-11.3077
▁candidate	-11.3082
▁demonstration	-11.3082
▁frozen	-11.3082
▁resident	-11.3082
▁ceiling	-11.3082
▁smoking	-11.3083
▁isolated	-11.3083
▁football	-11.3083
▁kiss	-11.3085
▁fool	-11.3086
▁Santa	-11.3088
▁divided	-11.3106
die	-11.3109
▁Bl	-11.3111
▁focusing	-11.3114
▁speaker	-11.3114
▁pie	-11.3116
mus	-11.3119
▁poll	-11.3125
▁practices	-11.3127
ino	-11.3127
▁passwords	-11.3136
▁Real	-11.3139
▁marker	-11.3139
▁Pri	-11.3139
▁rent	-11.314
dollar	-11.3149
ini	-11.315
▁Council	-11.3154
▁fortune	-11.3154
▁skull	-11.3154
▁naked	-11.3154
▁glad	-11.3154
▁Anyway	-11.3154
▁Iranian	-11.3157
▁Army	-11.3158
▁Yet	-11.3159
▁Newton	-11.316
don	-11.3161
▁Coke	-11.3162
▁twin	-11.3165
vor	-11.3165
▁bears	-11.3167
hold	-11.3168
▁writer	-11.3175
▁coat	-11.318
▁appeared	-11.3187
▁tied	-11.319
▁circles	-11.3201
▁visited	-11.3205
▁strand	-11.321
▁grad	-11.3214
Go	-11.3214
▁Nelson	-11.3226
▁Shanghai	-11.3226
▁passenger	-11.3226
▁Watch	-11.3226
▁brown	-11.3226
▁incident	-11.3226
▁smooth	-11.3226
▁universities	-11.3226
ealand	-11.3226
▁elite	-11.3227
▁tears	-11.3228
▁accessible	-11.3229
cellular	-11.3231
▁gear	-11.3233
▁granted	-11.3235
▁refugees	-11.3236
▁Howard	-11.3236
▁farmer	-11.3236
▁attached	-11.324
▁icon	-11.324
▁BG	-11.324
interest	-11.3247
ologist	-11.3286
▁Steven	-11.3287
ene	-11.3288
▁wanting	-11.3293
▁characteristics	-11.3294
▁mechanics	-11.3298
▁origami	-11.3298
▁pyramid	-11.3298
▁vegetable	-11.3298
▁dignity	-11.3298
▁federal	-11.3298
▁plain	-11.3298
▁convey	-11.3298
▁chief	-11.3298
▁comet	-11.33
▁coach	-11.3301
▁pipe	-11.3303
▁Brazilian	-11.3303
▁delight	-11.3305
shore	-11.3307
▁methods	-11.3309
▁cheaper	-11.3316
▁lane	-11.3329
▁speakers	-11.3332
▁stake	-11.3359
▁recognized	-11.337
looking	-11.3371
▁pub	-11.3371
▁appeal	-11.3371
▁borrow	-11.3371
Palestinian	-11.3371
▁Delhi	-11.3371
▁Tanzania	-11.3371
▁dioxide	-11.3371
▁glacier	-11.3371
▁advertising	-11.3371
▁cousin	-11.3371
▁sauce	-11.3372
▁Asian	-11.3372
▁airport	-11.3374
jack	-11.3379
▁pink	-11.338
▁lamp	-11.3382
▁beliefs	-11.3385
headed	-11.3386
▁realm	-11.3389
ality	-11.3395
▁tight	-11.3399
worthy	-11.3401
▁Ken	-11.3407
▁investing	-11.3417
▁soap	-11.3422
▁pit	-11.3426
▁citizen	-11.3433
▁victim	-11.3434
MT	-11.3434
heart	-11.344
▁cats	-11.3441
▁treating	-11.3444
identified	-11.3445
▁Leonardo	-11.3445
▁legacy	-11.3445
▁surveillance	-11.3445
▁pause	-11.3446
▁Lake	-11.3449
▁Nick	-11.345
Okay	-11.3451
century	-11.3452
▁usual	-11.3453
▁actor	-11.3457
▁actors	-11.3458
ani	-11.3461
▁Moon	-11.3465
▁slip	-11.3468
▁insist	-11.3473
▁beer	-11.3475
▁captured	-11.3475
▁behavioral	-11.3479
▁breaking	-11.3479
▁refugee	-11.3509
▁ban	-11.3518
▁Jeff	-11.3519
▁calculation	-11.3519
▁definitely	-11.3519
▁district	-11.3519
▁struggling	-11.3519
ville	-11.3519
▁Henry	-11.3519
▁Brother	-11.3519
▁tribes	-11.3522
▁drivers	-11.3524
▁poorest	-11.3526
▁oldest	-11.353
▁ethical	-11.3539
▁stretch	-11.354
▁symbols	-11.3543
▁links	-11.3547
▁replicate	-11.3552
person	-11.3562
▁reminded	-11.3563
▁balls	-11.3564
▁painted	-11.3565
▁iron	-11.3572
▁elephants	-11.3573
▁arrive	-11.3576
▁rely	-11.358
▁Bronx	-11.3594
▁obesity	-11.3594
▁wheelchair	-11.3594
▁reputation	-11.3594
▁unbelievable	-11.3594
▁vacuum	-11.3594
▁whistle	-11.3594
▁relax	-11.3594
▁sensation	-11.3594
▁adjust	-11.3594
▁Indus	-11.3594
▁household	-11.3595
Work	-11.3596
▁inches	-11.3599
▁briefly	-11.3601
▁Thanks	-11.3604
▁reaching	-11.3604
▁Force	-11.361
come	-11.3613
▁gases	-11.3616
My	-11.363
▁clients	-11.3643
▁bats	-11.3643
▁spoken	-11.3648
▁bow	-11.3655
fortunate	-11.3665
burg	-11.3668
fusion	-11.3668
▁Swiss	-11.3669
▁Yemen	-11.3669
▁Cuba	-11.3669
▁Ladies	-11.3669
▁beetle	-11.3669
▁bump	-11.3669
▁Johnson	-11.3673
▁sensory	-11.3675
▁chest	-11.3676
▁treatments	-11.3676
Be	-11.3677
cies	-11.3677
▁nets	-11.3681
▁scales	-11.3683
▁surfaces	-11.3683
Get	-11.369
▁consumers	-11.3704
▁dancer	-11.3714
▁dimension	-11.3714
▁passing	-11.3736
▁pole	-11.3739
▁Vietnam	-11.3744
▁twist	-11.3745
▁mood	-11.3745
▁Social	-11.3745
▁protecting	-11.3745
▁dump	-11.3746
▁opposed	-11.3747
space	-11.3752
ologists	-11.3755
▁absorb	-11.3759
▁hanging	-11.378
▁reported	-11.3787
▁divin	-11.3793
▁neighborhoods	-11.3815
▁strangers	-11.382
▁TEDTalk	-11.3821
▁fraction	-11.3821
▁globe	-11.3821
▁permission	-11.3821
▁Lincoln	-11.3821
▁comparison	-11.3821
▁contribution	-11.3821
▁instinct	-11.3821
▁poison	-11.3821
▁yield	-11.3821
▁concert	-11.3821
▁begun	-11.3821
▁boundaries	-11.3821
▁copyright	-11.3821
▁textbook	-11.3821
▁Lord	-11.3823
▁Nike	-11.3824
▁bullet	-11.3825
▁neat	-11.3825
▁exposed	-11.3827
▁leverage	-11.3828
▁output	-11.3834
▁laid	-11.3837
▁fuels	-11.3839
▁virtually	-11.3844
▁shocked	-11.3845
▁mechanisms	-11.3846
▁Tra	-11.3851
▁climbing	-11.3855
▁delivered	-11.3863
Let	-11.3866
▁conduct	-11.3869
▁historical	-11.3889
▁lawyer	-11.3893
▁uncle	-11.3894
▁November	-11.3898
▁smallpox	-11.3898
▁happier	-11.3898
▁probability	-11.3898
▁translation	-11.3898
▁editor	-11.3898
▁governance	-11.3898
▁entertainment	-11.3898
▁seats	-11.3899
▁integrated	-11.3907
cycle	-11.3917
▁letting	-11.3922
▁elections	-11.3923
ola	-11.3933
▁suggesting	-11.3934
lace	-11.395
▁Shi	-11.396
▁lighting	-11.3967
graphic	-11.3971
▁tribe	-11.3974
competitive	-11.3975
▁Indonesia	-11.3975
▁essence	-11.3975
▁sacred	-11.3975
▁tragedy	-11.3975
▁Koran	-11.3975
▁injury	-11.3975
▁spark	-11.3975
▁Media	-11.3976
▁efforts	-11.3978
▁Stage	-11.3981
▁hackers	-11.3984
je	-11.3987
key	-11.4
▁semi	-11.4007
▁produces	-11.4018
▁chimpanzees	-11.4021
▁thanks	-11.4027
▁calculate	-11.4036
▁cartoons	-11.4038
▁dish	-11.4048
▁commit	-11.4048
▁colleague	-11.4052
▁rebuild	-11.4053
▁synthetic	-11.4053
▁acknowledge	-11.4053
▁spill	-11.4054
▁hydro	-11.4054
▁rotate	-11.4054
point	-11.4055
▁aircraft	-11.4055
▁answered	-11.4063
▁informed	-11.4066
▁conflicts	-11.4076
▁magnet	-11.4078
have	-11.4084
▁parties	-11.4085
▁richer	-11.4089
▁Pan	-11.4116
▁roots	-11.4118
▁predictions	-11.4123
▁Jordan	-11.4132
▁Perhaps	-11.4132
▁While	-11.4132
▁diabetes	-11.4132
▁variable	-11.4132
▁Brooklyn	-11.4132
▁hypothesis	-11.4132
▁transmission	-11.4132
▁condom	-11.4132
▁dozens	-11.4132
▁distant	-11.4132
▁alarm	-11.4132
▁robust	-11.4132
▁bathroom	-11.4132
▁mimic	-11.4133
▁doors	-11.4133
▁soldier	-11.4133
▁Doc	-11.4139
▁achievement	-11.4146
chu	-11.4147
▁tension	-11.4155
▁fur	-11.4155
▁exploit	-11.4156
▁repeated	-11.4159
▁originally	-11.4161
▁expanding	-11.4161
▁smarter	-11.4172
▁picking	-11.4175
▁tear	-11.4181
SA	-11.4183
ette	-11.4185
▁pat	-11.4192
▁tent	-11.4193
▁resist	-11.421
▁disagree	-11.4211
▁flexible	-11.4211
▁helicopter	-11.4211
▁ignorance	-11.4211
▁rainforest	-11.4211
▁Hawaii	-11.4212
▁manipulate	-11.4212
▁threw	-11.4212
▁spell	-11.4212
▁terrorist	-11.4213
▁bull	-11.4221
▁ought	-11.4224
▁artistic	-11.4225
powered	-11.4231
▁fed	-11.4243
▁Kh	-11.4246
wit	-11.4258
▁Jane	-11.426
▁dial	-11.4268
▁continues	-11.4274
four	-11.4279
▁trucks	-11.428
ulu	-11.4283
▁sir	-11.4288
▁interpret	-11.4289
▁Neanderthal	-11.4291
▁pursue	-11.4291
▁resolve	-11.4291
▁Pretty	-11.4292
▁pandemic	-11.4292
▁paralyzed	-11.4292
▁recipe	-11.4292
▁depressed	-11.4292
▁crystal	-11.4292
▁warning	-11.4292
▁installation	-11.4293
▁stunt	-11.4294
▁highlight	-11.4301
rays	-11.4307
▁stable	-11.4308
▁Boo	-11.4312
etic	-11.4319
▁safer	-11.4319
lib	-11.4324
▁ratio	-11.4329
▁dear	-11.4334
▁failing	-11.4338
▁mall	-11.4343
▁Nigerian	-11.4366
▁relations	-11.4368
▁fought	-11.4372
▁navigate	-11.4372
frequency	-11.4372
▁Jupiter	-11.4372
▁System	-11.4372
▁algae	-11.4372
▁anonymous	-11.4372
▁parasite	-11.4372
▁pulling	-11.4372
▁Brad	-11.4372
▁Carolina	-11.4372
winning	-11.4374
▁Nobody	-11.4374
▁discoveries	-11.4375
▁Also	-11.4375
▁dolphin	-11.4375
▁Rick	-11.4376
▁relation	-11.4376
▁PMS	-11.4376
▁array	-11.4378
▁portion	-11.4378
▁proper	-11.4383
▁reef	-11.4387
▁experimental	-11.4394
▁caves	-11.4395
▁plu	-11.4399
▁approaches	-11.4401
▁separated	-11.442
▁Tor	-11.4429
▁Pop	-11.4429
▁crossing	-11.4435
▁Min	-11.445
▁occasion	-11.4452
▁landed	-11.4453
▁Saturday	-11.4453
▁dictionary	-11.4453
▁glamorous	-11.4453
▁sacrifice	-11.4453
▁signature	-11.4453
▁College	-11.4453
▁buried	-11.4453
▁fabulous	-11.4453
▁facility	-11.4453
▁initiative	-11.4453
▁pigeon	-11.4453
▁vulnerability	-11.4453
▁triangle	-11.4454
▁pathway	-11.4456
▁mask	-11.4458
▁tone	-11.4462
▁jet	-11.4463
▁stranger	-11.4481
▁suggestion	-11.4482
▁nurses	-11.4492
▁reduced	-11.4511
▁predicted	-11.4515
▁Walk	-11.452
▁camel	-11.452
▁transmit	-11.4535
chromosome	-11.4535
▁Industrial	-11.4535
▁Mandela	-11.4535
▁Mexican	-11.4535
▁accelerate	-11.4535
▁Suddenly	-11.4535
▁Telescope	-11.4535
▁abilities	-11.4535
▁alcohol	-11.4535
▁confirm	-11.4535
▁explode	-11.4535
▁qualities	-11.4535
▁tragic	-11.4536
▁neural	-11.4536
▁Redwood	-11.4536
▁silly	-11.4536
▁Tony	-11.4536
▁agency	-11.4539
▁confused	-11.454
oma	-11.4541
▁consequence	-11.4542
▁Roman	-11.4544
▁latest	-11.4551
▁profession	-11.4564
▁dynamics	-11.457
▁Hans	-11.4574
▁Han	-11.4575
▁served	-11.4576
found	-11.4578
▁invested	-11.458
▁globally	-11.4583
▁pairs	-11.4587
school	-11.4595
▁ethic	-11.4596
▁psycho	-11.4597
syn	-11.4601
cker	-11.4613
known	-11.4614
fire	-11.4615
▁concentration	-11.4618
▁dialogue	-11.4618
▁hemisphere	-11.4618
▁primitive	-11.4618
▁Argentina	-11.4618
▁devil	-11.4618
▁forgotten	-11.4618
▁combat	-11.4618
▁watt	-11.4618
▁Seattle	-11.4618
▁Geographic	-11.4618
▁Peace	-11.4618
▁forgot	-11.4619
▁Ireland	-11.4619
▁winner	-11.4621
▁assignment	-11.4622
▁cluster	-11.4625
▁beaten	-11.4626
▁sink	-11.4637
▁damn	-11.4641
▁sleeping	-11.4641
▁participants	-11.4647
▁reports	-11.4648
▁documents	-11.4658
elect	-11.4661
▁observe	-11.4668
ith	-11.4671
▁concepts	-11.4684
▁satellites	-11.4693
▁branch	-11.4697
▁terrorists	-11.4701
ethnic	-11.4701
▁County	-11.4701
▁explosion	-11.4701
▁routine	-11.4701
▁decrease	-11.4701
▁Iceland	-11.4701
▁capability	-11.4702
▁marry	-11.4702
▁Andrew	-11.4703
▁shopping	-11.4703
▁kidney	-11.4703
inch	-11.4703
▁keyboard	-11.4704
▁ecosystems	-11.4704
▁neck	-11.4705
hoo	-11.4705
▁interestingly	-11.4709
▁wired	-11.471
▁insect	-11.471
▁Van	-11.4711
▁dose	-11.4715
rian	-11.4724
▁loan	-11.4724
▁adding	-11.4725
▁PM	-11.4727
▁photography	-11.473
▁inventor	-11.4741
▁US	-11.4743
▁sport	-11.4748
▁Five	-11.4756
▁chairs	-11.4759
▁returned	-11.4768
▁confront	-11.477
▁communications	-11.4774
▁reject	-11.4775
▁sticks	-11.4781
▁astonishing	-11.4785
▁dominant	-11.4785
▁category	-11.4785
▁inevitable	-11.4785
▁substance	-11.4786
▁garage	-11.4786
▁Alex	-11.479
▁constructed	-11.4791
▁restore	-11.4793
▁affordable	-11.4793
▁helpful	-11.4801
iness	-11.4803
▁appreciate	-11.4807
▁accidents	-11.4818
▁mixed	-11.4823
▁tune	-11.4827
▁interacting	-11.4835
▁opera	-11.4837
▁attach	-11.4854
efficient	-11.4861
▁difficulty	-11.4861
▁Catholic	-11.487
▁Government	-11.487
▁Switzerland	-11.487
▁Watson	-11.487
▁Half	-11.487
fifth	-11.487
▁announced	-11.4875
▁manual	-11.4879
▁Christ	-11.488
connectivity	-11.4882
▁arrested	-11.4882
▁surrounding	-11.4885
rated	-11.4885
▁proposed	-11.4887
▁prediction	-11.489
pped	-11.4896
▁pointed	-11.4896
▁Cal	-11.4897
▁targets	-11.4906
▁entering	-11.4912
▁Only	-11.4916
▁assumptions	-11.4918
rry	-11.4932
▁panels	-11.4943
▁Pen	-11.4954
▁Abraham	-11.4956
▁anticipate	-11.4956
▁screw	-11.4956
▁Atlanta	-11.4956
▁resilience	-11.4956
▁welcome	-11.4956
▁woke	-11.4956
▁binary	-11.4956
▁sisters	-11.4959
resistant	-11.4959
▁footage	-11.4961
▁reconstruct	-11.4963
▁instructions	-11.4963
▁drum	-11.4965
liter	-11.4967
▁Olympic	-11.4969
▁panel	-11.497
▁cheat	-11.4986
▁determined	-11.4992
▁journal	-11.4992
▁lungs	-11.5002
There	-11.5003
▁strongly	-11.5009
▁Rand	-11.5014
acco	-11.5016
▁sentences	-11.5019
▁witness	-11.5026
▁surely	-11.5035
▁Unfortunately	-11.5042
▁compelling	-11.5042
▁drift	-11.5042
▁fragile	-11.5042
▁frustrated	-11.5042
▁simulate	-11.5042
▁tweet	-11.5042
▁spray	-11.5042
▁gentleman	-11.5043
▁nano	-11.5043
touch	-11.5044
▁Stone	-11.5048
▁Sto	-11.5049
▁sensor	-11.5049
▁format	-11.505
▁Show	-11.5053
▁freak	-11.5056
▁cake	-11.5067
▁overall	-11.5071
▁tissues	-11.5071
▁translated	-11.5073
▁reasonable	-11.5083
gras	-11.5085
▁bucks	-11.5087
▁magical	-11.5088
flow	-11.509
▁gods	-11.5097
efore	-11.5104
▁musicians	-11.5104
▁verb	-11.5107
▁Str	-11.512
▁rapid	-11.512
▁trauma	-11.5126
▁Bruno	-11.5129
▁Kevin	-11.5129
▁diamond	-11.5129
▁experiencing	-11.5129
▁innocent	-11.5129
▁Spring	-11.5129
▁tackle	-11.5129
▁cheese	-11.5129
▁broadcast	-11.5129
▁arrow	-11.5132
▁crap	-11.5133
▁boil	-11.5136
▁burned	-11.5139
cum	-11.5144
step	-11.5146
▁grasp	-11.5148
▁suggested	-11.5164
▁drawings	-11.5178
actic	-11.5186
cost	-11.5188
lau	-11.5195
▁analyze	-11.5199
handed	-11.5206
post	-11.5207
▁April	-11.5217
▁phantom	-11.5217
▁pulse	-11.5217
▁spike	-11.5217
▁northern	-11.5217
▁bored	-11.5219
▁wipe	-11.5219
▁duck	-11.522
▁Jones	-11.522
▁Light	-11.5221
owned	-11.5225
▁mindset	-11.5227
▁arise	-11.5229
went	-11.5239
▁Chi	-11.5243
▁throwing	-11.5284
▁propose	-11.5288
▁egg	-11.5288
▁initial	-11.5296
zero	-11.53
▁terror	-11.5303
▁Aristotle	-11.5305
▁Singapore	-11.5305
▁structural	-11.5305
▁Something	-11.5305
▁persist	-11.5306
organizing	-11.5307
aeda	-11.5308
▁Abou	-11.5309
▁bath	-11.5313
▁compassionate	-11.5314
▁rice	-11.5318
▁Ted	-11.5318
aria	-11.5321
▁Met	-11.5321
▁somewhat	-11.5322
▁shit	-11.5335
▁soup	-11.5336
▁teenagers	-11.5347
▁tumors	-11.536
▁Fin	-11.5361
▁bubbles	-11.5365
Tell	-11.5367
logy	-11.5381
▁precise	-11.5385
▁exhibit	-11.5386
▁Dur	-11.5388
▁Feynman	-11.5394
▁enhance	-11.5394
▁expedition	-11.5394
▁Daniel	-11.5394
▁agricultural	-11.5394
▁bribe	-11.5394
▁fragment	-11.5394
▁fraud	-11.5394
▁optimism	-11.5394
▁crush	-11.5394
▁neuroscience	-11.5394
▁civic	-11.5394
▁Coast	-11.5394
▁ensure	-11.5395
▁dumb	-11.5395
▁Bio	-11.5395
▁Trade	-11.5396
hether	-11.5399
▁reactions	-11.54
field	-11.54
▁Australian	-11.5401
▁globalization	-11.5402
▁bags	-11.5403
five	-11.5408
conductor	-11.5409
self	-11.5412
changing	-11.5416
▁gathering	-11.5419
▁detector	-11.5422
ku	-11.5423
▁significantly	-11.5426
▁Cat	-11.545
▁caring	-11.5453
verbal	-11.5467
▁perceive	-11.5467
▁regard	-11.5483
▁Academy	-11.5484
▁Benjamin	-11.5484
▁Business	-11.5484
▁Clinton	-11.5484
▁Detroit	-11.5484
▁Lebanon	-11.5484
▁SETI	-11.5484
▁Society	-11.5484
▁assistance	-11.5484
▁choosing	-11.5484
▁expansion	-11.5484
▁grandchildren	-11.5484
▁nutrition	-11.5484
▁participation	-11.5484
▁threshold	-11.5484
▁Under	-11.5484
▁export	-11.5485
▁shout	-11.5486
▁Year	-11.5486
▁Music	-11.5488
▁drone	-11.5507
▁password	-11.5508
▁joint	-11.551
wind	-11.5513
▁supported	-11.5527
people	-11.5527
ole	-11.555
▁bang	-11.5555
▁disrupt	-11.5574
▁Twenty	-11.5575
▁parachute	-11.5575
▁Shakespeare	-11.5575
▁impression	-11.5575
▁pioneer	-11.5575
▁snake	-11.5575
▁IBM	-11.5575
▁smartphone	-11.5576
lethal	-11.5576
shot	-11.5576
▁hiding	-11.5576
▁investors	-11.5577
▁employ	-11.5577
▁leaf	-11.5577
▁Hong	-11.5578
▁clay	-11.558
▁goat	-11.5585
ark	-11.5592
▁Map	-11.5595
▁rarely	-11.5596
▁surprisingly	-11.5598
▁Carl	-11.5606
pee	-11.561
▁dating	-11.562
▁flags	-11.562
▁edges	-11.5628
AC	-11.5631
▁electronics	-11.5632
wan	-11.5649
▁badly	-11.5652
OK	-11.5662
▁Charl	-11.5665
▁biodiversity	-11.5667
evolving	-11.5667
generating	-11.5667
▁DVD	-11.5667
▁Education	-11.5667
▁Greece	-11.5667
▁History	-11.5667
▁closing	-11.5667
▁southern	-11.5667
▁colonies	-11.5668
media	-11.5668
volt	-11.5669
▁poly	-11.5671
▁wider	-11.5672
▁chips	-11.5679
▁glasses	-11.5684
▁gaps	-11.5687
▁hey	-11.5689
▁spots	-11.5699
▁prisoners	-11.5701
▁quad	-11.5702
▁explaining	-11.571
▁musician	-11.5712
▁interviewed	-11.572
▁drag	-11.5733
▁guns	-11.5737
PC	-11.5741
▁instant	-11.5751
▁bombs	-11.5759
▁Security	-11.576
▁cricket	-11.576
▁eliminate	-11.576
▁prosperity	-11.576
▁slave	-11.576
▁Berlin	-11.576
▁Parkinson	-11.576
▁Water	-11.576
▁Development	-11.576
▁imaging	-11.5761
▁Au	-11.5762
▁Everyone	-11.5763
▁USA	-11.5764
blowing	-11.5764
▁lever	-11.5768
▁instantly	-11.5769
▁dung	-11.5772
▁Milo	-11.5773
▁ruin	-11.5773
about	-11.5776
▁Yu	-11.5776
▁affects	-11.5776
atory	-11.5777
▁deck	-11.578
realistic	-11.5788
▁suffered	-11.5791
▁Any	-11.5796
ching	-11.5809
▁aggressive	-11.5818
cell	-11.5829
▁drones	-11.583
▁survived	-11.5833
▁channels	-11.5847
▁patents	-11.585
▁bin	-11.5852
▁Turk	-11.5853
▁Copenhagen	-11.5853
▁Monterey	-11.5853
▁Organization	-11.5853
▁elderly	-11.5853
▁figuring	-11.5853
▁industries	-11.5853
▁minimum	-11.5853
▁primate	-11.5853
▁cliff	-11.5853
▁primarily	-11.5853
▁mathematicians	-11.5854
▁tongue	-11.5854
▁scanner	-11.5854
▁nonprofit	-11.5854
▁trash	-11.5855
▁flaw	-11.5855
▁shine	-11.5857
▁intersection	-11.5859
▁Rock	-11.5861
▁Matt	-11.5865
▁highway	-11.5865
stick	-11.5872
Can	-11.5877
▁writers	-11.5882
▁homeless	-11.5883
▁viewer	-11.5888
▁threats	-11.5894
▁fate	-11.5896
three	-11.5897
▁graphics	-11.5902
▁disconnect	-11.5915
blown	-11.5922
ike	-11.5928
▁adopt	-11.593
rine	-11.5931
▁govern	-11.5934
▁Gar	-11.5941
▁cub	-11.5942
▁additional	-11.5945
exponential	-11.5945
▁shrink	-11.5947
▁Arthur	-11.5947
▁bizarre	-11.5947
▁elegant	-11.5947
▁membrane	-11.5947
▁pizza	-11.5947
▁kingdom	-11.5947
▁audio	-11.5947
▁automobile	-11.5948
▁authorities	-11.5948
▁ownership	-11.5949
▁NSA	-11.5949
▁Cape	-11.5954
▁morality	-11.5958
▁reinvent	-11.596
▁agreement	-11.5965
▁biologists	-11.5969
wandering	-11.5972
ject	-11.5972
▁chat	-11.5973
▁extended	-11.5974
▁openness	-11.598
iest	-11.5984
▁Young	-11.5988
logging	-11.6
▁jumped	-11.6
▁logo	-11.6008
minute	-11.6014
sea	-11.6014
▁peaceful	-11.6021
When	-11.6023
▁pose	-11.6026
▁retire	-11.6041
▁Louis	-11.6043
▁aesthetic	-11.6043
▁cigarette	-11.6043
▁terrifying	-11.6043
▁Berkeley	-11.6043
▁impressive	-11.6043
▁crew	-11.6043
▁pride	-11.6043
▁Goals	-11.6043
▁uncertainty	-11.6043
▁shipping	-11.6044
▁analogy	-11.605
▁selfish	-11.605
▁widely	-11.605
▁rats	-11.6052
▁imagery	-11.6052
▁detection	-11.6053
▁nutrients	-11.6053
▁listened	-11.6055
deaf	-11.6059
▁nerd	-11.6062
▁client	-11.6076
▁approaching	-11.6077
▁punch	-11.6083
▁Christians	-11.6087
▁wherever	-11.6087
▁panic	-11.6121
▁implement	-11.6122
lia	-11.6136
assembly	-11.6139
intensive	-11.6139
▁blah	-11.6139
▁gradually	-11.6139
▁tendency	-11.6139
▁attribute	-11.6139
▁awkward	-11.6139
▁Apollo	-11.6139
▁whatsoever	-11.6139
▁Medical	-11.6139
▁cotton	-11.6139
▁forgive	-11.6139
▁infant	-11.6139
▁mining	-11.614
▁Kids	-11.614
▁fence	-11.614
▁appearance	-11.6141
▁Sahar	-11.6143
▁elected	-11.6144
▁healthier	-11.6146
▁hitting	-11.6147
▁homework	-11.6147
▁includes	-11.6151
▁Bali	-11.6151
▁Turns	-11.6153
position	-11.6156
▁radically	-11.6159
And	-11.6164
▁palm	-11.617
▁honestly	-11.6172
▁crop	-11.6177
▁staying	-11.6178
▁unable	-11.6186
▁photographed	-11.6211
▁beam	-11.6217
▁distinct	-11.6228
▁odds	-11.6233
▁pigs	-11.6233
▁prior	-11.6234
▁entropy	-11.6236
pharmaceutical	-11.6236
▁supermarket	-11.6236
▁terribly	-11.6236
▁Pennsylvania	-11.6236
▁matrix	-11.6236
▁slime	-11.6236
▁expectancy	-11.6236
▁valid	-11.6237
▁flee	-11.6238
▁representative	-11.6238
▁marketplace	-11.6238
▁fastest	-11.6243
▁items	-11.6244
▁estate	-11.6244
▁bold	-11.6246
holder	-11.6248
▁adopted	-11.6253
▁beside	-11.6253
▁perceived	-11.6255
▁hired	-11.6263
ancy	-11.6263
look	-11.6268
▁promised	-11.6286
▁formation	-11.6287
▁Arabia	-11.6292
▁farming	-11.6301
▁improved	-11.6306
dressed	-11.6316
▁Olympics	-11.6319
▁profits	-11.6323
▁brief	-11.6325
▁blank	-11.6329
▁Titan	-11.6331
Elizabeth	-11.6334
millimeter	-11.6334
▁capabilities	-11.6334
▁facilities	-11.6334
▁improving	-11.6334
▁methane	-11.6334
▁rubber	-11.6334
▁intimate	-11.6334
▁Disney	-11.6334
▁crawl	-11.6334
▁canopy	-11.6334
▁valley	-11.6334
▁Virginia	-11.6335
▁quest	-11.6336
▁kidding	-11.6339
▁obstacles	-11.634
▁golden	-11.6341
▁float	-11.6343
▁intended	-11.6344
▁shower	-11.6345
udi	-11.6353
Sure	-11.636
▁hug	-11.637
▁beating	-11.6373
▁Amy	-11.6386
motivated	-11.6387
▁inject	-11.6388
half	-11.639
▁rituals	-11.6391
▁sexy	-11.64
▁neuro	-11.6402
bone	-11.6405
Wow	-11.6409
psychopath	-11.6433
▁Bhutan	-11.6433
▁Computer	-11.6433
▁Netherlands	-11.6433
▁humanitarian	-11.6433
▁purchase	-11.6433
▁receptor	-11.6433
▁strategic	-11.6433
▁substantial	-11.6433
▁tattoo	-11.6433
▁FDA	-11.6433
▁generous	-11.6433
▁luxury	-11.6433
▁reducing	-11.6433
▁Next	-11.6433
▁silver	-11.6433
▁Camp	-11.6433
▁wedding	-11.6433
▁nuts	-11.6434
▁classical	-11.6436
▁overwhelming	-11.6436
kill	-11.6437
▁stepped	-11.6438
▁realizing	-11.6447
▁campus	-11.6448
▁Never	-11.6448
ifying	-11.6456
▁eaten	-11.6456
▁lions	-11.6468
▁producer	-11.6472
▁remained	-11.6472
▁chimpanzee	-11.6474
▁incentive	-11.6474
▁pray	-11.6476
write	-11.6477
▁fulfill	-11.6478
Mont	-11.6479
▁customer	-11.6486
▁shy	-11.6498
▁partly	-11.6503
▁completed	-11.6508
▁deploy	-11.6517
▁Ham	-11.6519
▁dare	-11.6521
▁telescopes	-11.6524
▁Nav	-11.6525
una	-11.6527
▁forming	-11.653
▁Library	-11.6533
▁Mumbai	-11.6533
▁Philadelphia	-11.6533
▁brutal	-11.6533
▁collaborative	-11.6533
▁compromise	-11.6533
▁leather	-11.6533
▁straightforward	-11.6533
▁antenna	-11.6533
▁miserable	-11.6533
▁mysterious	-11.6533
▁fault	-11.6533
▁banana	-11.6533
▁fancy	-11.6535
▁guilty	-11.6536
▁phenomenal	-11.6537
Where	-11.654
▁expecting	-11.6549
▁jar	-11.6552
break	-11.6555
▁chase	-11.6556
▁emerged	-11.6563
▁inform	-11.6564
▁ritual	-11.6576
▁successfully	-11.6581
▁heal	-11.6587
▁tale	-11.6587
▁server	-11.6605
▁Sen	-11.6608
▁recall	-11.6611
seeking	-11.6615
▁analog	-11.6627
▁Democrat	-11.6631
▁remembered	-11.6631
▁sculpt	-11.6634
▁Syrian	-11.6634
▁deforestation	-11.6634
▁extension	-11.6634
▁precious	-11.6634
▁virtue	-11.6634
sufficient	-11.6634
▁Journal	-11.6634
▁drought	-11.6634
▁terrified	-11.6634
▁unhappy	-11.6634
▁wrist	-11.6634
▁genocid	-11.6634
▁theoretical	-11.6634
▁asleep	-11.6634
▁reliable	-11.6634
▁limitations	-11.6634
▁underlying	-11.6634
▁mayor	-11.6634
▁burden	-11.6635
phone	-11.6636
animate	-11.6644
▁clothing	-11.6646
▁institutional	-11.6659
▁calm	-11.666
▁bind	-11.6667
▁award	-11.6679
▁assumption	-11.6679
▁Cl	-11.6679
▁native	-11.6689
frontal	-11.6694
entrepreneur	-11.6695
▁Lama	-11.6704
▁risky	-11.6705
ional	-11.6708
▁challenged	-11.6711
▁visualize	-11.6723
▁clusters	-11.6727
Yo	-11.6734
centimeter	-11.6736
▁Stephen	-11.6736
▁continuing	-11.6736
▁neither	-11.6736
▁Georgia	-11.6736
▁contrary	-11.6736
▁pencil	-11.6736
▁syndrome	-11.6736
▁Office	-11.6736
▁destiny	-11.6736
trivial	-11.6736
▁Jews	-11.6736
▁Sound	-11.6737
▁pond	-11.6738
▁punishment	-11.6739
▁interpretation	-11.6739
▁subway	-11.6741
▁armed	-11.6741
▁patch	-11.6744
▁Hold	-11.6748
▁nodes	-11.6763
▁Fat	-11.6776
▁detailed	-11.6785
▁trap	-11.6787
▁Mall	-11.6799
▁influenced	-11.68
▁bite	-11.6804
▁bush	-11.6817
world	-11.6817
▁loans	-11.6828
▁Poli	-11.6836
▁Suppose	-11.6839
▁Supreme	-11.6839
▁Tokyo	-11.6839
▁dilemma	-11.6839
▁dopamine	-11.6839
▁genuine	-11.6839
▁paradox	-11.6839
▁Monday	-11.6839
▁Sarah	-11.6839
▁advocate	-11.6839
▁phosphorus	-11.6839
▁striking	-11.6839
▁chunk	-11.6839
shelf	-11.6839
▁Harry	-11.6839
▁venture	-11.6839
engineered	-11.6839
▁loose	-11.684
▁Kong	-11.684
▁Mount	-11.6843
▁weekend	-11.6844
▁lawyers	-11.6845
▁socially	-11.6846
second	-11.6847
▁cue	-11.6848
▁Sand	-11.685
▁reflection	-11.686
▁Bro	-11.6864
▁select	-11.6868
▁involve	-11.6872
ndeed	-11.6872
▁succeeded	-11.6876
▁tie	-11.688
▁upward	-11.689
▁mainly	-11.6892
▁proved	-11.6893
master	-11.6901
▁upside	-11.6908
▁chemist	-11.6942
▁Alaska	-11.6943
▁Jerusalem	-11.6943
▁garbage	-11.6943
▁knife	-11.6943
▁Tibet	-11.6943
▁descend	-11.6943
▁glue	-11.6943
▁insane	-11.6943
▁Joshua	-11.6943
▁Abed	-11.6944
▁microphone	-11.6944
▁Linux	-11.6944
Hmm	-11.6944
▁Edward	-11.6944
▁proposition	-11.6944
▁Milk	-11.6944
▁torture	-11.6944
▁counting	-11.6946
▁Laden	-11.6946
▁tiles	-11.6947
▁candle	-11.6948
▁Seven	-11.6951
▁DH	-11.6951
from	-11.6958
▁ego	-11.6959
▁jam	-11.6959
▁Maria	-11.696
▁mini	-11.6963
▁Comp	-11.6967
▁empowered	-11.6968
▁gathered	-11.6969
▁hardest	-11.6969
▁wealthy	-11.698
▁shoe	-11.6985
▁specialist	-11.6987
ED	-11.6987
▁graduated	-11.6991
▁vessel	-11.6995
▁formal	-11.6996
berg	-11.7004
▁affecting	-11.7008
force	-11.7012
▁offering	-11.7013
EC	-11.7014
var	-11.7019
▁germ	-11.7026
▁Pur	-11.7026
▁Giussani	-11.7049
▁Hospital	-11.7049
▁Mozart	-11.7049
▁enforcement	-11.7049
▁accumulate	-11.7049
▁microbial	-11.7049
▁indicate	-11.7049
▁scheme	-11.7049
▁excitement	-11.7049
▁steer	-11.705
▁archive	-11.705
▁Wright	-11.7051
▁Plan	-11.7054
▁Marine	-11.7054
▁tries	-11.7057
▁hunting	-11.7067
▁someday	-11.7068
▁App	-11.707
cel	-11.707
▁observed	-11.7071
▁included	-11.7085
▁fired	-11.7094
something	-11.7099
generation	-11.7106
▁corporations	-11.7127
▁covering	-11.7133
▁continuous	-11.7146
controversial	-11.7155
▁Buddha	-11.7155
▁Christopher	-11.7155
▁bamboo	-11.7155
▁categories	-11.7155
▁chamber	-11.7155
▁creator	-11.7155
▁jellyfish	-11.7155
▁jihad	-11.7155
▁temporary	-11.7155
▁Norden	-11.7155
▁regulate	-11.7155
▁onstage	-11.7155
▁Fund	-11.7155
▁traits	-11.7158
▁disability	-11.7158
bedroom	-11.716
▁amazed	-11.716
▁frontier	-11.7161
▁unconscious	-11.7161
▁personalized	-11.7163
berry	-11.7165
▁initially	-11.7166
▁hunt	-11.7171
▁momentum	-11.7178
▁requirement	-11.7178
▁landing	-11.7185
▁profoundly	-11.7186
▁raped	-11.7188
tub	-11.7188
▁endless	-11.7195
▁encouraged	-11.7197
▁remaining	-11.7203
carbon	-11.7204
established	-11.7214
▁flo	-11.7228
▁supporting	-11.7228
▁rolling	-11.7231
▁Republic	-11.726
▁authentic	-11.7261
corrupt	-11.7262
▁Civil	-11.7262
▁reproduce	-11.7262
▁Jersey	-11.7262
▁exhaust	-11.7262
▁annual	-11.7263
▁herself	-11.7266
▁elsewhere	-11.7267
▁friendship	-11.7269
▁desperately	-11.727
actually	-11.727
change	-11.7273
▁Party	-11.7277
▁Ross	-11.7297
▁CD	-11.7299
▁Live	-11.7317
▁gained	-11.732
▁teenager	-11.7325
▁surround	-11.7336
spot	-11.7344
▁statistical	-11.7362
▁Pete	-11.7363
▁phenomena	-11.7367
▁Association	-11.7371
▁Public	-11.7371
▁Swedish	-11.7371
▁acoustic	-11.7371
▁ambitious	-11.7371
▁contemporary	-11.7371
▁curriculum	-11.7371
▁embarrassing	-11.7371
▁enterprise	-11.7371
▁glamour	-11.7371
▁millennia	-11.7371
▁principal	-11.7371
▁Sierra	-11.7371
▁interior	-11.7371
▁ecology	-11.7371
▁summit	-11.7371
▁admire	-11.7371
▁cream	-11.7371
▁canvas	-11.7371
▁mobility	-11.7371
▁blink	-11.7374
▁naive	-11.7375
▁Rover	-11.7382
▁manner	-11.7382
▁backyard	-11.7383
▁threatened	-11.7383
▁rose	-11.7388
▁approached	-11.7392
▁slums	-11.7396
theist	-11.7406
passes	-11.7455
Who	-11.7458
▁establish	-11.7464
▁distinguish	-11.7478
▁arguing	-11.7481
▁aspiration	-11.7481
▁despair	-11.7481
▁diagnosis	-11.7481
▁ecological	-11.7481
▁stimulate	-11.7481
▁Everest	-11.7481
▁collision	-11.7481
▁ALS	-11.7481
▁smiling	-11.7481
▁dawn	-11.7481
▁carpet	-11.7481
▁uniform	-11.7481
▁Nepal	-11.7481
▁girlfriend	-11.7481
▁wildlife	-11.7482
▁Luther	-11.7483
▁harness	-11.7484
▁retirement	-11.7484
▁Alice	-11.7484
▁addiction	-11.7485
▁branches	-11.7487
▁thrilled	-11.7488
worth	-11.7489
ograph	-11.7495
enabled	-11.7497
▁worms	-11.7498
▁breeding	-11.7499
▁None	-11.7511
tooth	-11.7515
▁Ron	-11.7518
▁closest	-11.7525
▁AB	-11.753
▁addict	-11.7531
▁discovering	-11.7553
▁researcher	-11.7554
deci	-11.7563
▁chop	-11.7566
▁assets	-11.757
▁proven	-11.7571
▁install	-11.7573
▁prepare	-11.7575
bility	-11.7578
▁headlines	-11.759
imagining	-11.7592
▁Buddhist	-11.7592
▁Medicine	-11.7592
▁Phoenix	-11.7592
▁Tuesday	-11.7592
▁flavor	-11.7592
▁impulse	-11.7592
▁lottery	-11.7592
▁Warren	-11.7593
▁sake	-11.7593
▁nearby	-11.7594
▁Ooh	-11.7597
▁alter	-11.7597
▁Hope	-11.76
▁concentrated	-11.7606
ask	-11.7607
▁trailer	-11.7612
▁bowl	-11.7628
▁Top	-11.7639
▁Post	-11.7641
▁applying	-11.7663
▁catching	-11.7667
▁singer	-11.7675
▁circuits	-11.7678
vision	-11.7697
▁administration	-11.7704
▁counsel	-11.7704
▁exposure	-11.7704
▁hybrid	-11.7704
▁CRISPR	-11.7705
▁Cyrus	-11.7705
▁Nairobi	-11.7705
▁Natural	-11.7705
▁Tunisia	-11.7705
▁constraints	-11.7705
▁fertilizer	-11.7705
▁immense	-11.7705
▁supplies	-11.7705
▁Sudan	-11.7705
▁mild	-11.7705
▁pirate	-11.7705
▁factories	-11.7705
▁compress	-11.7705
▁Cancer	-11.7706
▁Greenland	-11.7706
▁Venus	-11.7706
▁Out	-11.7714
▁Has	-11.7714
▁rape	-11.7724
▁staring	-11.7725
▁Sho	-11.7728
ronic	-11.773
▁delivery	-11.7733
▁stones	-11.7734
Mart	-11.7736
▁beautifully	-11.7759
▁metro	-11.7769
▁hated	-11.7787
▁scream	-11.7799
▁breed	-11.78
▁orient	-11.7802
product	-11.781
▁Craig	-11.7818
▁cocaine	-11.7818
▁glimpse	-11.7818
▁glucose	-11.7818
▁pursuit	-11.7818
▁flourish	-11.7818
▁confine	-11.7818
▁Joseph	-11.7818
▁defeat	-11.7818
▁Wood	-11.7819
▁RNA	-11.7819
xcept	-11.7821
▁angel	-11.7821
▁fortunately	-11.7822
▁Lady	-11.7822
▁correctly	-11.7827
▁flowing	-11.7827
▁Kar	-11.7834
▁sixth	-11.785
▁lifted	-11.785
▁Ei	-11.7853
▁Allen	-11.7861
▁estimated	-11.7865
▁rob	-11.7872
adapted	-11.7883
MS	-11.7887
▁enjoying	-11.7899
▁bun	-11.79
▁banker	-11.7924
▁uni	-11.7931
thirds	-11.7933
▁cruel	-11.7933
▁Somalia	-11.7933
▁Stewart	-11.7933
▁impose	-11.7933
▁trajectory	-11.7933
▁tsunami	-11.7933
▁magnitude	-11.7933
▁packed	-11.7933
▁storage	-11.7933
▁overnight	-11.7933
▁spinning	-11.7933
▁tutor	-11.7933
▁Thailand	-11.7933
▁Tower	-11.7933
▁Garden	-11.7934
Gen	-11.7934
▁relief	-11.7935
▁swing	-11.7935
▁tapir	-11.7936
▁Simon	-11.7937
▁workforce	-11.794
Shar	-11.794
▁dough	-11.7944
▁conducted	-11.7958
▁earning	-11.7973
bury	-11.7974
▁performed	-11.7975
offend	-11.7989
▁Jon	-11.8012
▁worrying	-11.802
▁arrest	-11.8033
▁wires	-11.8045
▁collaborator	-11.8049
▁ambition	-11.8049
▁blob	-11.8049
▁calories	-11.8049
▁dictator	-11.8049
▁excess	-11.8049
▁expertise	-11.8049
▁interrupt	-11.8049
▁marathon	-11.8049
▁negotiate	-11.8049
▁scaffold	-11.8049
▁strict	-11.8049
▁voting	-11.8049
▁Third	-11.8049
▁crab	-11.8049
▁creep	-11.8049
▁proceed	-11.8049
▁delay	-11.8049
▁Power	-11.8049
▁Tesla	-11.805
▁drew	-11.805
▁architectural	-11.805
thermal	-11.805
▁chronic	-11.805
▁outrage	-11.8051
▁monster	-11.8051
▁thread	-11.8051
▁foster	-11.8052
▁processor	-11.8053
▁rethink	-11.8054
▁artwork	-11.8055
▁unfold	-11.8056
▁Book	-11.8059
▁blindness	-11.8059
▁audit	-11.8063
exe	-11.8063
RS	-11.8064
▁update	-11.8076
▁Auto	-11.8084
▁motivate	-11.8104
▁span	-11.8109
▁activate	-11.8111
▁ingredient	-11.8126
▁penguin	-11.8126
▁attacked	-11.8135
▁statistic	-11.8139
▁posted	-11.8144
▁Turn	-11.815
▁intent	-11.8157
wall	-11.8159
stabilize	-11.8167
▁Bosnia	-11.8167
▁absence	-11.8167
▁ceremony	-11.8167
▁geometry	-11.8167
▁preparing	-11.8167
▁storytelling	-11.8167
▁temple	-11.8167
▁enemies	-11.8167
▁Movement	-11.8167
▁protocell	-11.8167
▁retreat	-11.8167
▁diagnostic	-11.8167
▁obese	-11.8167
▁distort	-11.8168
▁hint	-11.8168
▁brick	-11.8169
▁prostate	-11.8169
▁glow	-11.817
▁workshop	-11.8171
▁located	-11.8171
▁grip	-11.8171
▁redesign	-11.8171
▁towel	-11.8172
▁civilian	-11.8172
▁downtown	-11.8173
▁lap	-11.8178
▁messy	-11.8195
▁collectively	-11.8197
▁contributed	-11.8201
▁filmmaker	-11.8209
still	-11.8209
▁mesh	-11.8218
▁mill	-11.8225
▁blend	-11.8231
effective	-11.8247
▁Hand	-11.825
▁locally	-11.8282
approved	-11.8286
deception	-11.8286
▁Fortunately	-11.8286
▁Namibia	-11.8286
▁Portugal	-11.8286
▁empire	-11.8286
▁encouraging	-11.8286
▁excellent	-11.8286
▁fluorescent	-11.8286
▁purple	-11.8286
▁schizophrenia	-11.8286
▁spiral	-11.8286
▁transcend	-11.8286
▁devote	-11.8286
▁segment	-11.8286
▁Libya	-11.8286
▁Montana	-11.8286
▁nightmare	-11.8286
▁Johnny	-11.8286
brew	-11.8286
hhh	-11.8286
Saharan	-11.8287
▁tiger	-11.8287
▁advise	-11.8288
▁bench	-11.8289
▁genetically	-11.8292
▁freeze	-11.8295
▁predictable	-11.8299
▁amongst	-11.83
virus	-11.8308
▁blast	-11.8309
▁rebel	-11.8309
▁donation	-11.8313
▁technically	-11.8314
▁replaced	-11.8328
▁Dam	-11.8335
▁safely	-11.8353
▁banking	-11.8364
▁assign	-11.8401
▁Building	-11.8407
▁Colombia	-11.8407
▁Hubble	-11.8407
▁astronomer	-11.8407
▁diarrhea	-11.8407
▁gorgeous	-11.8407
▁investigation	-11.8407
▁pedestrian	-11.8407
▁prescription	-11.8407
▁proposal	-11.8407
▁receiving	-11.8407
▁squeeze	-11.8407
▁stomach	-11.8407
▁unprecedented	-11.8407
▁Connecticut	-11.8407
▁Jefferson	-11.8407
▁beneath	-11.8407
▁feminist	-11.8407
▁frightening	-11.8407
▁priest	-11.8407
▁Canyon	-11.8407
▁investigate	-11.8407
▁suppress	-11.8407
Should	-11.8407
▁juice	-11.8407
▁refine	-11.8407
▁viral	-11.8408
▁simultaneously	-11.8408
▁straw	-11.8409
▁KB	-11.8411
▁contradiction	-11.8411
▁decent	-11.8412
▁unlock	-11.8416
▁handful	-11.8425
▁fallen	-11.8425
▁wore	-11.8427
▁workplace	-11.8427
▁manufacturer	-11.8433
eyed	-11.8451
▁Win	-11.8454
▁useless	-11.846
▁rig	-11.8466
▁cookie	-11.8472
▁enjoyed	-11.8482
quat	-11.8483
▁crossed	-11.849
▁hunter	-11.8491
▁transit	-11.8518
storyteller	-11.8528
▁Cambodia	-11.8528
▁Freedom	-11.8528
▁Norwegian	-11.8528
▁advertise	-11.8528
▁devastating	-11.8528
▁iPod	-11.8528
▁legitimate	-11.8528
▁peculiar	-11.8528
▁recycling	-11.8528
synthesize	-11.8528
▁accuracy	-11.8528
▁insulin	-11.8528
▁Common	-11.8529
▁Food	-11.8529
▁Liberia	-11.8529
▁lonely	-11.8529
▁diameter	-11.8529
▁Danny	-11.8529
▁yell	-11.8529
▁texture	-11.8529
▁elementary	-11.8531
Bot	-11.8531
▁belt	-11.8531
▁Step	-11.8532
▁stability	-11.8532
▁hub	-11.8533
▁stopping	-11.8541
▁probe	-11.8542
▁overhead	-11.8544
▁calculated	-11.8556
▁smallest	-11.8559
▁Mind	-11.856
▁container	-11.8566
Thank	-11.8601
turn	-11.8614
▁Phil	-11.8616
maybe	-11.8627
hole	-11.8633
built	-11.8644
escent	-11.8645
Student	-11.8652
voluntary	-11.8652
▁Country	-11.8652
▁Himalaya	-11.8652
▁Kiribati	-11.8652
▁brush	-11.8652
▁hierarchy	-11.8652
▁jazz	-11.8652
▁mutual	-11.8652
▁negotiation	-11.8652
▁philanthropy	-11.8652
▁puppet	-11.8652
▁remarkably	-11.8652
▁Caribbean	-11.8652
▁destination	-11.8652
▁emphasize	-11.8652
▁legislation	-11.8652
▁stigma	-11.8652
▁disabled	-11.8652
▁heritage	-11.8652
▁warrior	-11.8652
▁Small	-11.8652
▁bonus	-11.8652
▁junk	-11.8652
▁division	-11.8652
▁scaling	-11.8652
Hello	-11.8652
▁therapist	-11.8652
▁trapped	-11.8653
▁connectome	-11.8653
▁Data	-11.8654
▁Notice	-11.8655
▁sperm	-11.8656
varian	-11.8656
▁suspended	-11.8657
▁poke	-11.8658
▁Bert	-11.8658
▁Tasmanian	-11.8665
▁Cap	-11.8666
▁Heart	-11.8667
▁fatal	-11.8669
▁lion	-11.867
▁selected	-11.8672
▁Add	-11.8672
▁helpless	-11.8678
▁candy	-11.8679
▁vent	-11.8691
▁shocking	-11.8698
▁Start	-11.8699
▁mum	-11.8712
▁Sex	-11.8713
▁prayer	-11.8719
▁responded	-11.8733
▁punish	-11.8774
▁Iraqi	-11.8776
▁champion	-11.8776
▁Chuck	-11.8777
▁Eventually	-11.8777
▁OECD	-11.8777
▁Sylvia	-11.8777
▁describing	-11.8777
▁divorce	-11.8777
▁lobby	-11.8777
▁persuade	-11.8777
▁sanitation	-11.8777
▁skeletal	-11.8777
▁translator	-11.8777
schedule	-11.8777
▁Orleans	-11.8777
▁convenient	-11.8777
▁embryo	-11.8777
▁summarize	-11.8777
▁troops	-11.8777
▁vacation	-11.8777
▁Norman	-11.8777
▁injured	-11.8777
▁swallow	-11.8777
▁Austria	-11.8777
▁Larry	-11.8778
▁guest	-11.878
▁typing	-11.878
▁cooperate	-11.878
▁interconnected	-11.878
▁riot	-11.8784
▁emit	-11.8786
▁Peru	-11.8787
▁taxes	-11.8789
▁stolen	-11.8792
▁Run	-11.8793
▁realization	-11.8796
high	-11.8797
▁spine	-11.8799
▁Mola	-11.8802
▁collapsed	-11.8818
▁warmer	-11.882
▁mite	-11.8821
void	-11.8823
▁monitoring	-11.8824
▁mentally	-11.8842
▁switched	-11.8849
▁peel	-11.8859
▁surf	-11.886
▁economist	-11.8872
▁kit	-11.8896
▁Carnegie	-11.8904
▁Kepler	-11.8904
▁Natasha	-11.8904
▁Venezuela	-11.8904
▁cockroach	-11.8904
▁Muhammad	-11.8904
▁believing	-11.8904
▁copied	-11.8904
▁correlation	-11.8904
▁elevator	-11.8904
▁explicit	-11.8904
▁virgin	-11.8904
▁wheat	-11.8904
▁Kingdom	-11.8904
▁migrate	-11.8904
▁augment	-11.8904
▁flame	-11.8904
▁bounce	-11.8904
▁Trans	-11.8904
sweep	-11.8904
▁pipeline	-11.8905
▁merely	-11.8907
▁Word	-11.8907
▁visualization	-11.8908
▁Arm	-11.8908
▁preach	-11.8912
▁accomplished	-11.8918
▁simpler	-11.8926
▁Line	-11.8932
▁loads	-11.8945
▁pun	-11.8964
▁bust	-11.8966
risk	-11.8967
income	-11.8968
though	-11.8989
far	-11.9004
▁sale	-11.9005
▁Philip	-11.9027
▁Secretary	-11.9032
▁introduction	-11.9032
▁preference	-11.9032
▁volcano	-11.9032
▁Empire	-11.9032
▁Kansas	-11.9032
▁Kennedy	-11.9032
▁Pittsburgh	-11.9032
▁breakfast	-11.9032
▁collaborate	-11.9032
▁communicating	-11.9032
▁drunk	-11.9032
▁happily	-11.9032
▁horror	-11.9032
▁indigenous	-11.9032
▁prince	-11.9032
▁prosthetic	-11.9032
▁satisfy	-11.9032
▁tropical	-11.9032
▁intrinsic	-11.9032
▁territory	-11.9032
▁therapies	-11.9032
▁Lagos	-11.9032
▁scrap	-11.9032
Keith	-11.9033
▁indoor	-11.9033
▁occasionally	-11.9033
▁denial	-11.9033
▁contest	-11.9034
▁Roger	-11.9035
▁dropping	-11.9036
▁deposit	-11.9037
▁grandparents	-11.9039
▁replacement	-11.904
▁prevention	-11.9043
privileged	-11.9046
▁installed	-11.9051
▁deployed	-11.9053
examine	-11.9053
▁prisoner	-11.9053
▁behalf	-11.9054
▁healing	-11.9057
▁wishes	-11.9059
lapse	-11.9059
scape	-11.9065
▁upload	-11.9072
▁explorer	-11.9078
▁assumed	-11.908
▁climbed	-11.9083
▁doubled	-11.9099
cleaning	-11.9111
▁politician	-11.9133
▁biologist	-11.9133
quality	-11.9135
margin	-11.9141
front	-11.9144
quarters	-11.9146
▁Ven	-11.9147
▁checking	-11.916
▁Michigan	-11.9162
▁Obviously	-11.9162
▁Through	-11.9162
▁congestion	-11.9162
▁consensus	-11.9162
▁cosmic	-11.9162
▁deficit	-11.9162
▁equity	-11.9162
▁heavily	-11.9162
▁invitation	-11.9162
▁kilogram	-11.9162
▁migration	-11.9162
▁recession	-11.9162
▁taboo	-11.9162
▁veteran	-11.9162
▁helium	-11.9162
▁declare	-11.9162
▁outdoor	-11.9162
▁composition	-11.9162
▁Venice	-11.9162
▁lifespan	-11.9162
▁Large	-11.9162
▁grace	-11.9163
▁trading	-11.9163
fulness	-11.9165
▁overwhelmed	-11.9165
▁wow	-11.9167
payment	-11.9168
▁distinction	-11.917
▁consciously	-11.9171
▁vary	-11.9171
▁hacking	-11.9172
▁fever	-11.9173
▁Evan	-11.9174
ella	-11.9182
▁screaming	-11.9183
▁liar	-11.9187
dominated	-11.9194
▁riding	-11.9195
▁revealed	-11.9208
▁laughed	-11.9217
▁tide	-11.9222
▁slower	-11.9223
case	-11.9226
▁slum	-11.9249
uh	-11.925
▁immediate	-11.9284
▁Virgin	-11.9292
▁entertain	-11.9293
▁association	-11.9293
▁occupy	-11.9293
▁stereotype	-11.9293
imbabwe	-11.9293
▁Galapagos	-11.9293
▁Kosovo	-11.9293
▁LHC	-11.9293
▁Lewis	-11.9293
▁Oklahoma	-11.9293
▁artifact	-11.9293
▁enzyme	-11.9293
▁exclusive	-11.9293
▁transistor	-11.9293
▁batteries	-11.9293
▁nowadays	-11.9293
▁offspring	-11.9293
▁boost	-11.9293
▁magnificent	-11.9293
▁ongoing	-11.9294
▁Brit	-11.9294
▁jaw	-11.9295
▁Prime	-11.9295
Prince	-11.9298
▁stored	-11.9298
▁chess	-11.9298
▁Beach	-11.9298
walk	-11.9303
▁specialized	-11.9305
▁realities	-11.931
those	-11.9312
speed	-11.9313
▁Fish	-11.9316
▁regularly	-11.9321
▁ironic	-11.933
▁kicked	-11.9335
▁expanded	-11.9336
▁attracted	-11.9337
▁discussing	-11.9337
▁teaches	-11.9338
▁Radio	-11.9341
▁reflected	-11.9346
▁Land	-11.9358
tuned	-11.9369
▁transforming	-11.937
▁jumping	-11.9378
▁Ali	-11.9381
▁compose	-11.9404
▁sticking	-11.9419
▁employer	-11.9421
▁Bangalore	-11.9427
▁apologize	-11.9427
▁delicious	-11.9427
▁democracies	-11.9427
▁gallery	-11.9427
▁injuries	-11.9427
▁publishing	-11.9427
▁sovereign	-11.9427
▁terrain	-11.9427
discrimination	-11.9427
▁fisheries	-11.9427
▁swarm	-11.9427
▁basketball	-11.9427
▁Princeton	-11.9427
▁Snowden	-11.9427
▁intervene	-11.9427
▁timing	-11.9427
▁Intel	-11.9427
▁tomato	-11.9427
▁wrapped	-11.9427
articulate	-11.9427
▁hostile	-11.9428
▁priority	-11.9429
▁Golden	-11.9432
▁echo	-11.9432
▁spacecraft	-11.9433
▁Leone	-11.9435
▁adaptation	-11.9437
▁irony	-11.944
▁halfway	-11.9441
▁refused	-11.9444
▁unlikely	-11.9447
controller	-11.9448
locate	-11.9455
▁comedy	-11.9456
▁Ana	-11.9457
▁nap	-11.9458
▁Cold	-11.9459
▁hopeless	-11.9459
▁sexually	-11.9461
▁Columbia	-11.9479
stance	-11.948
▁cube	-11.9497
held	-11.9508
▁cope	-11.9522
▁deadly	-11.9525
ada	-11.9527
▁politically	-11.9536
▁grant	-11.9551
▁dirt	-11.9555
anthrop	-11.9561
▁endeavor	-11.9562
significance	-11.9562
▁Arizona	-11.9562
▁Yellow	-11.9562
▁irrational	-11.9562
▁biomass	-11.9562
▁module	-11.9562
▁neuroscientist	-11.9562
▁nitrogen	-11.9562
▁penalty	-11.9562
▁practicing	-11.9562
▁surgeries	-11.9562
▁symmetries	-11.9562
▁flesh	-11.9562
▁harmony	-11.9562
▁multiply	-11.9562
submit	-11.9562
▁Rule	-11.9562
▁steam	-11.9562
▁Lots	-11.9562
▁minority	-11.9563
▁cardboard	-11.9563
▁Bern	-11.9563
▁harsh	-11.9564
▁bucket	-11.9565
▁Arch	-11.9566
▁consent	-11.9566
▁Thu	-11.9575
▁peers	-11.9575
▁Bear	-11.9575
▁losses	-11.9581
▁rabbit	-11.9582
▁buses	-11.9582
▁Dave	-11.9584
▁athletes	-11.9589
▁stare	-11.9591
▁cheer	-11.9637
▁reporting	-11.9648
▁Lee	-11.9651
▁responding	-11.9663
▁inhabit	-11.9673
Africa	-11.9673
▁worm	-11.9677
▁refuse	-11.9681
▁desperate	-11.9689
▁flap	-11.9692
▁teenage	-11.9693
▁extraordinar	-11.9693
▁pathogen	-11.9697
▁Fifty	-11.9699
▁CMU	-11.9699
▁Dallas	-11.9699
▁Jamaica	-11.9699
▁Taiwan	-11.9699
▁circular	-11.9699
▁corridor	-11.9699
▁default	-11.9699
▁defining	-11.9699
▁elaborate	-11.9699
▁endangered	-11.9699
▁episode	-11.9699
▁exotic	-11.9699
▁inevitably	-11.9699
▁maneuver	-11.9699
▁reinforce	-11.9699
▁forecast	-11.9699
▁crows	-11.9699
▁humble	-11.9699
▁invade	-11.9699
▁generic	-11.9699
▁gross	-11.97
▁Alright	-11.97
▁sidewalk	-11.9701
▁Head	-11.9701
▁planned	-11.9701
▁insert	-11.9702
▁wooden	-11.9702
▁Report	-11.9704
▁Nice	-11.9709
▁informal	-11.9711
▁outbreak	-11.9711
▁modest	-11.9712
▁broader	-11.9718
▁asthma	-11.9724
▁rejected	-11.9725
documented	-11.9726
▁demonstrated	-11.9734
▁Gui	-11.974
activated	-11.9764
shift	-11.9769
phys	-11.9769
▁argued	-11.9779
sort	-11.9781
▁convention	-11.9799
spen	-11.9804
▁abandon	-11.9821
▁distract	-11.9822
▁hacker	-11.9828
▁utter	-11.9836
▁cosmos	-11.9838
Excuse	-11.9838
▁Defense	-11.9838
▁Skype	-11.9838
▁astronaut	-11.9838
▁convicted	-11.9838
▁envelope	-11.9838
▁separation	-11.9838
▁Service	-11.9838
▁frustration	-11.9838
▁harbor	-11.9838
▁holiday	-11.9838
Happy	-11.9838
▁pleasant	-11.9838
▁nasty	-11.9838
consuming	-11.9838
▁Jean	-11.9838
▁interfere	-11.9838
▁odor	-11.9838
▁forbid	-11.9838
▁operator	-11.9839
▁journalism	-11.9839
▁Death	-11.9842
▁Justine	-11.9847
▁dune	-11.9847
▁Native	-11.9848
▁lowest	-11.985
▁Slow	-11.9851
stein	-11.9852
▁abandoned	-11.9854
▁historically	-11.9854
again	-11.9857
▁praying	-11.9864
▁witnessed	-11.9864
▁labeled	-11.987
▁consumed	-11.9875
▁reaches	-11.9879
Aid	-11.9885
▁sooner	-11.9886
▁yards	-11.9906
▁voted	-11.9917
▁Julian	-11.9926
▁kite	-11.9935
Sorry	-11.9939
▁accomplish	-11.9956
▁mammal	-11.9957
▁Sydney	-11.9978
▁criteria	-11.9978
▁eradicate	-11.9978
▁ubiquitous	-11.9978
▁Information	-11.9978
▁institute	-11.9978
▁remix	-11.9978
▁tolerance	-11.9978
▁freezing	-11.9978
Brain	-11.9979
racial	-11.9979
▁boundary	-11.9979
knit	-11.9979
▁psychiatrist	-11.998
▁documentary	-11.9981
▁Stay	-11.9982
▁browser	-11.9982
digest	-11.999
▁Victorian	-11.9994
Old	-11.9996
▁folding	-11.9998
▁Forest	-12.0003
▁disk	-12.0004
▁confronted	-12.0006
atar	-12.0017
degree	-12.0034
▁assure	-12.0068
story	-12.0068
▁simplest	-12.0071
▁capitalist	-12.0077
▁cage	-12.008
▁optical	-12.0087
▁compute	-12.0115
▁Roosevelt	-12.0121
stimulation	-12.0121
▁Beethoven	-12.0121
▁LGBT	-12.0121
▁Parliament	-12.0121
▁Whitopia	-12.0121
▁abundance	-12.0121
▁coordination	-12.0121
▁earliest	-12.0121
▁festival	-12.0121
▁inflation	-12.0121
▁obsolete	-12.0121
▁philosophical	-12.0121
▁precision	-12.0121
▁staircase	-12.0121
▁terrific	-12.0121
Field	-12.0121
▁Denmark	-12.0121
▁vocal	-12.0121
▁Emily	-12.0121
▁goodbye	-12.0121
▁crude	-12.0121
▁Julie	-12.0121
▁Type	-12.0121
collar	-12.0121
▁drain	-12.0121
▁polite	-12.0122
▁observing	-12.0122
▁inspect	-12.0122
▁geography	-12.0122
▁cattle	-12.0122
▁accent	-12.0123
▁EDI	-12.0123
▁Somebody	-12.0123
▁copies	-12.0123
▁Susan	-12.0125
▁SMS	-12.0125
▁ultra	-12.0126
▁farther	-12.013
▁airline	-12.0137
kar	-12.0139
oriented	-12.0141
▁Paulo	-12.0142
▁previously	-12.0145
▁youngest	-12.0148
▁End	-12.015
▁erect	-12.015
keeper	-12.0156
▁retail	-12.0157
ET	-12.0164
screen	-12.0167
cultural	-12.0169
▁tire	-12.0172
▁hut	-12.0174
▁mating	-12.0204
▁concentrate	-12.0249
▁integrate	-12.0249
think	-12.0257
▁instruction	-12.0259
▁Pakistani	-12.0263
▁gentle	-12.0265
Cloud	-12.0266
Jeopardy	-12.0266
▁Language	-12.0266
▁Scotland	-12.0266
▁Sputnik	-12.0266
▁assault	-12.0266
▁dictionaries	-12.0266
▁neocortex	-12.0266
▁pesticide	-12.0266
▁refrigerator	-12.0266
▁Renaissance	-12.0266
▁alphabet	-12.0266
▁calculus	-12.0266
▁celebrity	-12.0266
▁eternal	-12.0266
▁improvisation	-12.0266
▁marijuana	-12.0266
▁resurrect	-12.0266
▁shepherd	-12.0266
▁Alpha	-12.0266
▁Fox	-12.0266
▁Learning	-12.0266
▁album	-12.0266
▁Doaa	-12.0266
▁racing	-12.0266
▁headache	-12.0266
▁ideology	-12.0267
▁iceberg	-12.0267
▁pants	-12.0268
▁Nicole	-12.0269
▁adoption	-12.0269
▁mainstream	-12.027
▁blew	-12.027
▁Without	-12.027
▁Interestingly	-12.027
▁Justice	-12.027
▁chew	-12.0272
▁subjective	-12.0279
▁Cities	-12.0281
▁machinery	-12.0284
▁Find	-12.0284
pont	-12.0285
▁Poor	-12.0289
▁Costa	-12.0291
▁rescued	-12.0309
▁Rica	-12.0311
▁Beck	-12.0314
▁randomly	-12.0315
EM	-12.032
▁SP	-12.0343
▁scare	-12.0378
▁Francis	-12.0411
▁communi	-12.0412
▁systematic	-12.0412
destruct	-12.0413
▁Commission	-12.0413
▁Desert	-12.0413
▁Teszler	-12.0413
▁Ushahidi	-12.0413
▁Vegas	-12.0413
▁contributing	-12.0413
▁embarrassed	-12.0413
▁guitar	-12.0413
▁illustration	-12.0413
▁innovate	-12.0413
▁intact	-12.0413
▁warehouse	-12.0413
▁macro	-12.0413
▁Guinea	-12.0413
▁recycled	-12.0413
▁Buy	-12.0413
▁spite	-12.0413
▁Index	-12.0413
▁squid	-12.0414
▁Finland	-12.0414
▁toxin	-12.0415
▁retina	-12.0415
▁porn	-12.0415
▁Elect	-12.0415
▁Lyn	-12.0416
▁bare	-12.0416
Honey	-12.0419
▁revolutionary	-12.0421
▁Nico	-12.0422
▁owe	-12.0426
▁consideration	-12.0429
positive	-12.0432
▁atomic	-12.0436
contained	-12.0437
▁spare	-12.0438
alai	-12.0443
▁fade	-12.0449
RB	-12.0473
▁honored	-12.0473
▁Lev	-12.0483
DR	-12.0484
▁zoo	-12.0512
▁colon	-12.0552
▁obstacle	-12.0554
▁indicator	-12.0562
▁Babylon	-12.0562
▁Climate	-12.0562
▁Edinburgh	-12.0562
▁Michelangelo	-12.0562
▁aggregate	-12.0562
▁council	-12.0562
▁migrant	-12.0562
▁sequencing	-12.0562
▁spouse	-12.0562
▁unfair	-12.0562
▁vitamin	-12.0562
▁welfare	-12.0562
▁calculator	-12.0562
▁disciplines	-12.0562
▁inhibit	-12.0562
▁jungle	-12.0562
▁likelihood	-12.0562
▁livestock	-12.0562
▁thrive	-12.0563
▁inmates	-12.0563
▁smash	-12.0563
▁cinema	-12.0563
▁fuck	-12.0565
▁sneakers	-12.0565
▁Turing	-12.0565
▁coverage	-12.0571
▁utterly	-12.0572
▁Stein	-12.0573
▁disturbing	-12.0574
▁progressive	-12.0577
▁Lear	-12.0588
▁posed	-12.059
▁Secondly	-12.0591
▁cheating	-12.0597
▁tricky	-12.0598
▁taxi	-12.0607
▁masses	-12.0612
NA	-12.0621
▁Cup	-12.0624
material	-12.0628
piece	-12.0628
▁dim	-12.0631
▁merge	-12.0639
▁harmful	-12.064
▁dam	-12.0653
▁playful	-12.0676
▁lean	-12.0691
▁Arduino	-12.0714
▁Incredible	-12.0714
▁humility	-12.0714
▁improvise	-12.0714
▁ultraviolet	-12.0714
▁vocabulary	-12.0714
▁AIMS	-12.0714
▁Jerry	-12.0714
▁Massachusetts	-12.0714
▁assistant	-12.0714
▁crank	-12.0714
▁obsession	-12.0714
▁technician	-12.0714
▁worship	-12.0714
▁calendar	-12.0714
▁converge	-12.0714
▁longevity	-12.0714
▁Perfect	-12.0714
▁Unlike	-12.0714
▁shaking	-12.0714
Solomon	-12.0714
▁salmon	-12.0714
▁Point	-12.0715
▁Bonobo	-12.0715
▁authenticity	-12.0716
▁threaten	-12.0716
▁whip	-12.0717
▁cult	-12.0718
▁alert	-12.0718
▁delete	-12.0719
▁frequently	-12.072
▁expressed	-12.0722
▁penis	-12.0723
▁lobe	-12.0725
▁disappointed	-12.0728
▁Dick	-12.0734
▁implemented	-12.074
▁remotely	-12.0751
threatening	-12.0767
LT	-12.0784
▁Leo	-12.0795
▁acquire	-12.0803
design	-12.0825
▁Carol	-12.0854
▁arrange	-12.0859
rooted	-12.086
instruct	-12.0862
▁unfortunate	-12.0862
▁consult	-12.0867
vascular	-12.0868
▁Babbage	-12.0868
▁Hindu	-12.0868
▁Pixar	-12.0868
▁accelerating	-12.0868
▁analyzing	-12.0868
▁angiogenesis	-12.0868
▁configuration	-12.0868
▁exquisite	-12.0868
▁intriguing	-12.0868
▁juvenile	-12.0868
▁laboratories	-12.0868
▁underestimate	-12.0868
▁vibration	-12.0868
▁catastrophe	-12.0868
▁locomotion	-12.0868
pixel	-12.0868
▁Glass	-12.0868
Wonder	-12.0868
▁Royal	-12.0868
▁hump	-12.0868
▁snail	-12.0868
▁Bird	-12.0868
▁steep	-12.0868
▁chasing	-12.0868
▁Although	-12.0868
▁prostitution	-12.0868
▁Lock	-12.0869
▁couch	-12.0869
▁Pink	-12.087
▁Wild	-12.087
▁selective	-12.087
▁Darwinian	-12.0874
▁nail	-12.0875
▁trait	-12.0875
▁continuously	-12.0881
▁Bee	-12.0882
▁Tele	-12.0885
▁marked	-12.0898
▁analyzed	-12.0899
settlement	-12.0904
▁emotionally	-12.0924
folk	-12.0988
▁plea	-12.0995
▁cloth	-12.1001
▁Poll	-12.1011
▁sneak	-12.1022
▁Angel	-12.1022
▁Side	-12.1022
▁minor	-12.1023
▁mathematician	-12.1023
▁Rich	-12.1024
Veronica	-12.1024
invasive	-12.1024
▁BMW	-12.1024
▁Bulgaria	-12.1024
▁cocktail	-12.1024
▁commodity	-12.1024
▁expense	-12.1024
▁impressed	-12.1024
▁recognizing	-12.1024
▁resilient	-12.1024
▁staggering	-12.1024
▁steady	-12.1024
▁utility	-12.1024
▁Energy	-12.1024
▁Windows	-12.1024
▁fuzzy	-12.1024
▁pricing	-12.1024
▁triumph	-12.1024
▁depict	-12.1024
▁favela	-12.1024
▁morph	-12.1024
▁Change	-12.1024
▁slept	-12.1024
▁SARS	-12.1024
▁tagged	-12.1024
▁Siberia	-12.1024
▁Yale	-12.1024
▁seemingly	-12.1024
▁luckily	-12.1024
▁Both	-12.1025
▁Solar	-12.1025
▁Irish	-12.1025
▁systematically	-12.1025
▁transmitted	-12.1026
▁Similarly	-12.1027
Keep	-12.1028
▁Full	-12.103
▁Way	-12.103
▁yeast	-12.1032
▁Case	-12.1032
▁basement	-12.1038
social	-12.1047
▁Station	-12.1049
why	-12.1054
▁practically	-12.1055
▁intend	-12.1056
▁skeptical	-12.1057
▁Bring	-12.1065
dragon	-12.1069
▁Dai	-12.1072
settled	-12.1082
▁fuse	-12.1107
▁coordinate	-12.112
million	-12.1133
▁heroic	-12.1157
▁Whit	-12.1168
▁drama	-12.1182
▁Alabama	-12.1183
▁DARPA	-12.1183
▁Jazeera	-12.1183
▁Ultimately	-12.1183
▁Wolfram	-12.1183
▁anniversary	-12.1183
▁guerrilla	-12.1183
▁imperative	-12.1183
▁integration	-12.1183
▁kindergarten	-12.1183
▁Economic	-12.1183
▁Truth	-12.1183
▁Until	-12.1183
▁Wilson	-12.1183
▁diplomacy	-12.1183
▁entrance	-12.1183
▁exceed	-12.1183
▁intimacy	-12.1183
▁sensitivity	-12.1183
▁spaghetti	-12.1183
▁dismiss	-12.1183
▁execution	-12.1183
▁identities	-12.1183
▁mosque	-12.1183
▁noisy	-12.1183
▁greet	-12.1183
▁Company	-12.1183
▁faint	-12.1183
▁sensing	-12.1184
▁digging	-12.1184
▁headquarters	-12.1184
▁Franklin	-12.1185
▁emergence	-12.1185
▁clone	-12.1186
▁transformative	-12.1186
▁nearest	-12.1188
▁chef	-12.1189
▁arrangement	-12.1192
▁Jill	-12.1192
▁dishes	-12.1193
▁deepest	-12.1196
▁managing	-12.1198
▁economically	-12.1198
▁Call	-12.12
▁swap	-12.12
▁coastal	-12.1201
▁folded	-12.1202
▁Code	-12.1203
▁constitution	-12.1209
▁socio	-12.1233
▁Jay	-12.1238
▁manufacture	-12.1251
public	-12.1254
culture	-12.1264
fulfilling	-12.127
Safe	-12.1275
start	-12.1282
▁blur	-12.131
▁digitize	-12.1336
▁decor	-12.134
▁basket	-12.1344
▁Thirty	-12.1344
▁participating	-12.1344
▁Dylan	-12.1344
▁Katrina	-12.1344
▁Margaret	-12.1344
▁Rosetta	-12.1344
▁Simple	-12.1344
▁UCLA	-12.1344
▁caregiver	-12.1344
▁competing	-12.1344
▁inclusive	-12.1344
▁Pantheon	-12.1344
▁Taylor	-12.1344
▁broccoli	-12.1344
▁Bruce	-12.1344
▁Marshall	-12.1344
▁avatar	-12.1344
▁vivid	-12.1344
▁blessed	-12.1344
▁shining	-12.1344
▁shatter	-12.1344
▁ashamed	-12.1344
▁RSW	-12.1344
▁import	-12.1345
▁rehabilitation	-12.1345
▁Scottish	-12.1346
▁Police	-12.1346
▁chord	-12.1346
▁insult	-12.1348
▁flock	-12.135
▁pillar	-12.1351
▁Deep	-12.1352
▁Bridge	-12.1352
▁Pick	-12.1357
▁merit	-12.1359
▁Master	-12.1359
▁Fair	-12.1363
programmed	-12.1368
▁headline	-12.1369
UV	-12.1372
▁abstraction	-12.1372
▁scarce	-12.1373
▁observer	-12.1374
▁swamp	-12.1379
▁cartoonist	-12.1382
▁FO	-12.1386
▁regenerate	-12.1389
▁successes	-12.1396
▁regional	-12.1434
▁sponsor	-12.1449
▁skip	-12.1456
▁wander	-12.1466
ER	-12.1467
kilometer	-12.1468
first	-12.1472
specific	-12.1475
▁fog	-12.1479
▁numb	-12.1498
▁Mean	-12.1499
▁symbolic	-12.1504
▁differ	-12.1506
Little	-12.1508
Spider	-12.1508
▁Cairo	-12.1508
▁Kibera	-12.1508
▁Luckily	-12.1508
▁McDonald	-12.1508
▁Mediterranean	-12.1508
▁PowerPoint	-12.1508
▁Starbucks	-12.1508
▁ambulance	-12.1508
▁comparing	-12.1508
▁embracing	-12.1508
▁feather	-12.1508
▁friction	-12.1508
▁generator	-12.1508
▁iPad	-12.1508
▁ingenuity	-12.1508
▁integrity	-12.1508
▁maximum	-12.1508
▁memorial	-12.1508
▁preparation	-12.1508
▁protocol	-12.1508
▁reflex	-12.1508
▁satisfied	-12.1508
▁statue	-12.1508
▁surgical	-12.1508
▁thylacine	-12.1508
▁transaction	-12.1508
▁turtle	-12.1508
▁celebration	-12.1508
▁Cooper	-12.1508
▁Kelly	-12.1508
▁abroad	-12.1508
▁mankind	-12.1508
▁trunk	-12.1508
▁Modern	-12.1508
▁Nathan	-12.1508
▁neurologic	-12.1508
▁isolation	-12.1508
▁marrow	-12.1509
▁envision	-12.1509
▁stereo	-12.1509
▁linguist	-12.1509
▁Barry	-12.151
▁belly	-12.1511
ambia	-12.1512
▁exponentially	-12.1512
▁Democratic	-12.1513
▁Titanic	-12.1514
▁iconic	-12.1516
▁richest	-12.1518
▁protective	-12.1523
▁curl	-12.1524
▁Wide	-12.1529
▁Uber	-12.1529
▁crashes	-12.153
▁bacterial	-12.1541
▁via	-12.1543
Huh	-12.1545
▁reporter	-12.1593
▁Hav	-12.1609
▁lump	-12.1639
specially	-12.1639
▁skeptic	-12.1639
minded	-12.1645
▁associate	-12.1657
▁expo	-12.1668
▁align	-12.1671
▁manifest	-12.1672
▁electromagnet	-12.1675
▁manuscript	-12.1675
▁Amazing	-12.1675
▁Baltimore	-12.1675
▁Compassion	-12.1675
▁Edison	-12.1675
▁Guatemala	-12.1675
▁Kyoto	-12.1675
▁fireflies	-12.1675
▁gallons	-12.1675
▁grocery	-12.1675
▁multinational	-12.1675
▁obligation	-12.1675
▁oyster	-12.1675
▁spontaneously	-12.1675
▁yourselves	-12.1675
▁fantasy	-12.1675
▁frequencies	-12.1675
▁siblings	-12.1675
▁tangible	-12.1675
▁gaze	-12.1675
▁grabbed	-12.1675
▁enlighten	-12.1675
▁mustache	-12.1675
▁deciding	-12.1675
▁liberate	-12.1675
▁problematic	-12.1675
▁Game	-12.1675
▁scholarship	-12.1675
▁erase	-12.1675
▁symmetrical	-12.1675
▁applies	-12.1676
▁slope	-12.1676
▁captain	-12.1676
▁mixture	-12.1677
▁employment	-12.1677
▁manifestation	-12.1677
▁Poland	-12.1677
▁accountability	-12.1677
▁assessment	-12.1678
escalat	-12.1678
▁firing	-12.1679
▁entities	-12.1679
▁blueprint	-12.168
▁potent	-12.168
▁hometown	-12.168
▁Ella	-12.1683
▁inherited	-12.1684
▁mandate	-12.1684
▁passage	-12.1685
▁characteristic	-12.1686
▁Whereas	-12.1687
▁biases	-12.1694
▁exit	-12.1695
▁Kal	-12.1695
▁Fall	-12.1699
▁altered	-12.1699
▁Cut	-12.1704
▁progression	-12.1705
▁Mel	-12.1707
▁apes	-12.1726
MG	-12.1732
▁settle	-12.174
third	-12.176
▁zip	-12.1778
▁register	-12.1785
fairy	-12.1801
▁distribute	-12.1827
▁blu	-12.1835
lasting	-12.1842
▁Euro	-12.1843
▁scholar	-12.1844
equipped	-12.1844
peanut	-12.1844
responsibilities	-12.1844
▁Achilles	-12.1844
▁Excellent	-12.1844
▁Nanopatch	-12.1844
▁Oakland	-12.1844
▁Toronto	-12.1844
▁Voyage	-12.1844
▁evaluate	-12.1844
▁hamburger	-12.1844
▁mycelium	-12.1844
▁revelation	-12.1844
astronomy	-12.1844
▁Avenue	-12.1844
▁Circle	-12.1844
▁Pepsi	-12.1844
▁Vancouver	-12.1844
▁cooperative	-12.1844
▁frustrating	-12.1844
▁liberty	-12.1844
▁libraries	-12.1844
▁premise	-12.1844
▁synapse	-12.1844
▁autonomy	-12.1844
▁cardiac	-12.1844
▁Freud	-12.1844
▁slogan	-12.1844
▁Model	-12.1844
▁carries	-12.1845
▁priorities	-12.1845
▁desktop	-12.1845
▁strains	-12.1847
▁Left	-12.1847
▁voters	-12.185
▁Kind	-12.1851
▁cement	-12.1851
▁inherently	-12.1851
huh	-12.1855
▁Hawking	-12.1856
▁Hard	-12.1857
vaccinated	-12.1862
Cola	-12.1862
▁secondary	-12.1864
▁upgrade	-12.1917
▁Teacher	-12.1924
glass	-12.1934
▁performer	-12.1942
energy	-12.1946
imagine	-12.1949
Wind	-12.195
attle	-12.1958
▁commission	-12.1962
▁rode	-12.1973
▁redefine	-12.1975
▁heroin	-12.2003
uestion	-12.2012
Uncle	-12.2017
▁Darfur	-12.2017
▁Everglades	-12.2017
▁Fahrenheit	-12.2017
▁Virtual	-12.2017
▁absurd	-12.2017
▁biofuel	-12.2017
▁defect	-12.2017
▁leopard	-12.2017
▁literacy	-12.2017
▁prevalence	-12.2017
▁publisher	-12.2017
▁Discover	-12.2017
▁anxious	-12.2017
▁unleash	-12.2017
▁dysfunction	-12.2017
▁ladder	-12.2017
▁autistic	-12.2017
▁Emma	-12.2017
▁wives	-12.2017
▁hallucinations	-12.2017
▁Plato	-12.2017
▁Almost	-12.2018
▁superpower	-12.2018
Barack	-12.2018
▁lightning	-12.2019
ipcar	-12.202
Psycho	-12.2023
▁Ground	-12.2029
▁BJ	-12.2033
▁valve	-12.2036
onsider	-12.2045
▁sync	-12.2049
▁Dean	-12.2059
operated	-12.2064
▁receiver	-12.2088
acquired	-12.2089
▁clap	-12.2146
enberg	-12.2164
▁trail	-12.2167
chemical	-12.2177
▁orphan	-12.2191
▁Accord	-12.2192
▁Murray	-12.2192
▁Progress	-12.2192
▁Tamiflu	-12.2192
▁appreciation	-12.2192
▁compliment	-12.2192
▁conviction	-12.2192
▁dragonflies	-12.2192
▁Madagascar	-12.2192
▁Magazine	-12.2192
▁abortion	-12.2192
▁appliance	-12.2192
▁authoritarian	-12.2192
▁coincidence	-12.2192
▁disadvantage	-12.2192
▁invasion	-12.2192
▁Diego	-12.2192
▁altogether	-12.2192
▁metabolism	-12.2192
▁Lawrence	-12.2192
▁romance	-12.2192
▁stairs	-12.2192
▁singular	-12.2192
▁rigid	-12.2193
▁index	-12.2195
▁breakdown	-12.2195
▁cabinet	-12.2196
▁Mahat	-12.2196
▁Fast	-12.2196
▁Rather	-12.2197
▁planner	-12.2199
▁fungi	-12.22
ranging	-12.2201
▁NB	-12.2204
▁gait	-12.2207
▁ancestor	-12.2211
▁intentional	-12.2217
▁Mario	-12.222
▁fame	-12.2254
▁thermo	-12.2261
▁tourist	-12.2301
color	-12.2335
▁tilt	-12.2346
agnostic	-12.237
▁pharma	-12.2371
supernova	-12.2371
▁Ministry	-12.2371
▁Pentagon	-12.2371
▁bacterium	-12.2371
▁curtain	-12.2371
▁easiest	-12.2371
▁fluctuation	-12.2371
▁fractal	-12.2371
▁gasoline	-12.2371
▁gravitational	-12.2371
▁indication	-12.2371
▁manipulation	-12.2371
▁metabolic	-12.2371
▁nonsense	-12.2371
▁rectangle	-12.2371
▁reproduction	-12.2371
▁sulfide	-12.2371
▁summary	-12.2371
▁undergraduate	-12.2371
▁Group	-12.2371
▁Network	-12.2371
▁nuclei	-12.2371
▁anatomy	-12.2371
▁genomic	-12.2371
▁unseen	-12.2371
▁idiot	-12.2371
▁Creative	-12.2371
▁Idaho	-12.2371
▁Grace	-12.2371
▁violate	-12.2371
▁conquer	-12.2371
▁Text	-12.2371
▁Hadr	-12.2371
▁hammer	-12.2372
▁Agency	-12.2372
▁Marcus	-12.2372
▁internet	-12.2375
▁scientifically	-12.2381
▁Face	-12.2381
▁washed	-12.2385
▁injection	-12.2387
▁Opera	-12.2387
conflict	-12.2387
▁Romo	-12.2388
▁Coca	-12.2392
▁symptom	-12.2392
▁Pope	-12.2393
▁relie	-12.2398
▁Diet	-12.24
sharing	-12.2409
▁Anna	-12.2412
▁Julia	-12.2438
▁baker	-12.2438
surfing	-12.2443
▁Juan	-12.2469
▁Teach	-12.2472
▁disappoint	-12.2536
▁assess	-12.2549
▁Anonymous	-12.2552
▁Companies	-12.2552
▁Dubai	-12.2552
▁League	-12.2552
▁Mahmoud	-12.2552
▁Photoshop	-12.2552
▁Tahrir	-12.2552
▁cholera	-12.2552
▁clarity	-12.2552
▁controversy	-12.2552
▁cybercriminal	-12.2552
▁mobilize	-12.2552
▁rhino	-12.2552
▁solemn	-12.2552
▁stadium	-12.2552
▁wavelength	-12.2552
▁Conference	-12.2552
▁Miami	-12.2552
▁Scratch	-12.2552
▁distress	-12.2552
▁finite	-12.2552
▁slaughter	-12.2552
▁thrust	-12.2552
▁soccer	-12.2552
▁scroll	-12.2553
▁essay	-12.2553
▁Anybody	-12.2553
▁tribal	-12.2553
▁encyclopedia	-12.2553
▁greed	-12.2553
▁citizenship	-12.2554
▁correlate	-12.2554
▁cellphone	-12.2554
▁flick	-12.2555
▁profitable	-12.2555
biotic	-12.2555
▁legend	-12.2556
▁mature	-12.2556
▁Sony	-12.256
▁sadness	-12.2565
▁viable	-12.2566
▁trou	-12.2574
▁governor	-12.2574
▁distraction	-12.2575
reflective	-12.2579
▁Max	-12.2588
▁gig	-12.26
▁neo	-12.2603
flush	-12.2604
▁optic	-12.2628
AIDS	-12.2637
driving	-12.2637
good	-12.2642
large	-12.2659
▁proto	-12.2678
appreciated	-12.2689
achieving	-12.2738
▁CNN	-12.2738
▁Flickr	-12.2738
▁Oregon	-12.2738
▁Russell	-12.2738
▁Soldier	-12.2738
▁abnormal	-12.2738
▁accused	-12.2738
▁anesthesia	-12.2738
▁cathedral	-12.2738
▁competitor	-12.2738
▁delicate	-12.2738
▁frightened	-12.2738
▁immigrant	-12.2738
▁octopus	-12.2738
▁plankton	-12.2738
▁propaganda	-12.2738
▁province	-12.2738
▁puberty	-12.2738
▁violin	-12.2738
Yesterday	-12.2738
▁Corporation	-12.2738
▁Depression	-12.2738
▁Goliath	-12.2738
▁Survey	-12.2738
▁Tennessee	-12.2738
▁ghost	-12.2738
▁patience	-12.2738
▁Isaac	-12.2738
▁Jesse	-12.2738
▁Falcon	-12.2738
▁encode	-12.2738
▁Aaron	-12.2738
▁Algeria	-12.2738
▁shaping	-12.2738
▁Tiger	-12.2738
▁posture	-12.2738
▁overseas	-12.2738
▁grape	-12.2738
▁casual	-12.2738
▁imitate	-12.2738
▁banned	-12.2738
▁vanish	-12.2739
▁Potter	-12.2739
▁noticing	-12.274
▁approximately	-12.274
▁regardless	-12.274
▁passport	-12.2741
▁Jason	-12.2742
▁baseline	-12.2742
▁Check	-12.2744
traumatic	-12.2744
▁resort	-12.2745
▁Bond	-12.2746
▁sexuality	-12.2747
▁mapped	-12.2747
▁Someone	-12.2748
▁donated	-12.2748
▁grim	-12.2751
▁flute	-12.2798
▁Mama	-12.2804
JC	-12.2814
conditioning	-12.2827
structure	-12.2849
green	-12.2894
Bat	-12.2909
▁Merc	-12.292
▁Maldives	-12.2926
▁altruism	-12.2926
Fantastic	-12.2926
▁Bahamas	-12.2926
▁Bonica	-12.2926
▁Cassini	-12.2926
▁Fortune	-12.2926
▁Holocaust	-12.2926
▁Mississippi	-12.2926
▁Panbanisha	-12.2926
▁RISD	-12.2926
▁Samuel	-12.2926
▁biosphere	-12.2926
▁celebrating	-12.2926
▁eBay	-12.2926
▁fierce	-12.2926
▁seafood	-12.2926
▁relativity	-12.2926
Monkey	-12.2926
Picture	-12.2926
▁Titus	-12.2926
▁committee	-12.2926
▁denied	-12.2926
▁temper	-12.2926
▁masterpiece	-12.2927
▁grammar	-12.2927
▁spear	-12.2927
▁Captain	-12.2927
▁opposition	-12.2927
▁famine	-12.2927
▁petition	-12.2927
▁Europa	-12.2927
▁Program	-12.2928
▁referred	-12.2928
▁mythology	-12.2928
▁criticism	-12.2929
▁empowerment	-12.293
▁copper	-12.293
▁textile	-12.2933
▁oven	-12.2935
▁Snow	-12.2937
▁MK	-12.2939
▁chill	-12.2947
▁Shake	-12.2955
directed	-12.2967
registered	-12.2993
addicted	-12.3024
▁Sub	-12.3084
▁Antarctic	-12.3111
espite	-12.3115
▁Bono	-12.3117
model	-12.3118
Probably	-12.3119
▁Agnes	-12.3119
▁CERN	-12.3119
▁Economist	-12.3119
▁Ninety	-12.3119
▁Raisuddin	-12.3119
▁aluminum	-12.3119
▁chemotherapy	-12.3119
▁involving	-12.3119
▁neurogenesis	-12.3119
generative	-12.3119
▁Colorado	-12.3119
▁Exxon	-12.3119
▁Interviewer	-12.3119
▁eastern	-12.3119
▁elbow	-12.3119
▁inexpensive	-12.3119
▁mammoth	-12.3119
▁modified	-12.3119
▁parameters	-12.3119
▁parliament	-12.3119
▁promising	-12.3119
▁prosecutor	-12.3119
▁pursuing	-12.3119
▁resemble	-12.3119
▁sediment	-12.3119
plasma	-12.3119
▁glove	-12.3119
▁meditation	-12.3119
▁wreck	-12.3119
▁Amanda	-12.3119
▁Micro	-12.3119
▁Witness	-12.3119
▁True	-12.3119
▁doubling	-12.3119
▁lamb	-12.3119
▁funeral	-12.3119
▁bionic	-12.3119
▁charm	-12.3119
▁Malawi	-12.3119
▁Brand	-12.3119
▁Gwen	-12.3119
▁dispute	-12.3119
▁acute	-12.3119
▁Vietnamese	-12.3119
▁ramp	-12.3119
▁bombsight	-12.3119
tuck	-12.312
▁multiverse	-12.312
▁choir	-12.312
boyfriend	-12.312
▁Anyone	-12.312
▁Online	-12.3128
▁Marx	-12.3129
▁mustard	-12.3129
▁stepping	-12.3131
▁Alto	-12.3137
▁composer	-12.3152
▁antibiotic	-12.3155
midst	-12.3156
▁peek	-12.3157
uite	-12.316
runner	-12.3169
developers	-12.3228
▁lend	-12.3262
talk	-12.328
▁Josh	-12.3315
censor	-12.3315
adolescence	-12.3315
surrender	-12.3315
wrestle	-12.3315
▁Melinda	-12.3315
▁Millennium	-12.3315
▁Tehran	-12.3315
▁calculating	-12.3315
▁convincing	-12.3315
▁excuses	-12.3315
▁extensive	-12.3315
▁galleries	-12.3315
▁injustice	-12.3315
▁lesbian	-12.3315
▁nucleus	-12.3315
▁occupation	-12.3315
▁opponent	-12.3315
▁syringe	-12.3315
induced	-12.3315
▁Channel	-12.3315
▁Club	-12.3315
▁Collect	-12.3315
▁annoying	-12.3315
▁fishermen	-12.3315
▁neglect	-12.3315
▁pepper	-12.3315
▁prohibit	-12.3315
▁visceral	-12.3315
▁chaotic	-12.3315
▁diminish	-12.3315
▁orgasm	-12.3315
▁socket	-12.3315
▁geometric	-12.3315
▁IMF	-12.3315
▁petals	-12.3315
▁salary	-12.3315
ounce	-12.3315
▁Caltech	-12.3315
▁minimal	-12.3315
▁motorcycle	-12.3315
▁anthropologist	-12.3316
▁Ohio	-12.3316
▁transferred	-12.3316
▁Yves	-12.3316
▁Moses	-12.3317
▁Prison	-12.3317
▁shade	-12.3317
▁executed	-12.3318
▁seawater	-12.3319
plumb	-12.3319
▁lure	-12.3319
▁deliberately	-12.332
▁cease	-12.3321
▁wax	-12.3321
▁personalities	-12.3322
▁weakness	-12.3323
luent	-12.3324
▁monk	-12.3325
▁vice	-12.3328
▁coup	-12.3329
harvesting	-12.3337
▁accountable	-12.3337
▁marginal	-12.3347
▁JA	-12.3348
▁asset	-12.3363
preventable	-12.3384
technology	-12.341
security	-12.3411
lateral	-12.3411
different	-12.3418
heated	-12.3454
athlete	-12.3483
▁chick	-12.3508
▁literal	-12.3508
▁encrypt	-12.3513
▁tempo	-12.3514
▁Fibonacci	-12.3515
▁Hitler	-12.3515
▁Jennifer	-12.3515
▁MBA	-12.3515
▁applause	-12.3515
▁commodities	-12.3515
▁crocodile	-12.3515
▁declining	-12.3515
▁generosity	-12.3515
▁happiest	-12.3515
▁hurdle	-12.3515
▁janitor	-12.3515
▁juggling	-12.3515
▁physiology	-12.3515
▁regulator	-12.3515
determination	-12.3515
▁Armstrong	-12.3515
▁Gaza	-12.3515
▁Kanzi	-12.3515
▁Origin	-12.3515
▁Recently	-12.3515
▁contagious	-12.3515
▁dissolve	-12.3515
▁enthusiasm	-12.3515
▁geeks	-12.3515
▁helmet	-12.3515
▁mundane	-12.3515
▁resonance	-12.3515
▁specimen	-12.3515
▁widespread	-12.3515
▁Together	-12.3515
▁Vinci	-12.3515
▁Tweet	-12.3515
▁mutant	-12.3515
▁Gando	-12.3515
▁Ryan	-12.3515
▁stiff	-12.3515
▁halve	-12.3515
▁eager	-12.3515
▁compact	-12.3515
▁Town	-12.3515
▁Pain	-12.3515
▁Glenn	-12.3515
▁bulk	-12.3515
▁submitted	-12.3515
▁portray	-12.3516
▁orphanage	-12.3516
▁blogger	-12.3517
▁confusion	-12.3518
▁Senate	-12.3518
▁visitors	-12.3518
▁disruptive	-12.3518
▁admitted	-12.3519
▁potatoes	-12.3519
▁Duke	-12.3519
▁causal	-12.3519
▁acceptance	-12.352
▁rival	-12.352
▁knot	-12.3521
▁accomplishment	-12.3523
▁colorful	-12.3527
▁puff	-12.3528
▁Gay	-12.3528
▁certainty	-12.353
▁conceptual	-12.3607
leaning	-12.3621
science	-12.3632
sound	-12.3648
Dear	-12.3665
▁overlap	-12.3667
emission	-12.3679
possible	-12.3679
writing	-12.368
AG	-12.3691
▁compass	-12.3692
▁Fran	-12.3717
▁Biosphere	-12.3719
▁Enceladus	-12.3719
▁Guardian	-12.3719
▁Nevada	-12.3719
▁Stirling	-12.3719
▁Strange	-12.3719
▁Thanksgiving	-12.3719
▁calcium	-12.3719
▁certificate	-12.3719
▁eradication	-12.3719
▁limestone	-12.3719
▁nonetheless	-12.3719
▁railroad	-12.3719
▁census	-12.3719
▁juggle	-12.3719
▁powder	-12.3719
▁quantities	-12.3719
▁wolves	-12.3719
▁Rush	-12.3719
▁internship	-12.3719
▁recreate	-12.3719
▁CIA	-12.3719
▁rotating	-12.3719
Friend	-12.3719
▁carrier	-12.372
▁Compare	-12.372
▁Wired	-12.3722
▁differentiate	-12.3722
▁Walter	-12.3723
▁Still	-12.3726
▁versa	-12.3728
▁ooh	-12.3731
▁keen	-12.3734
▁Motor	-12.3735
namely	-12.3773
▁Plu	-12.3833
centered	-12.3866
▁rabbi	-12.3896
sighted	-12.3903
▁possess	-12.391
bladder	-12.3927
responsive	-12.3927
▁Hampshire	-12.3927
▁IKEA	-12.3927
▁Jonathan	-12.3927
▁Movember	-12.3927
▁Toyota	-12.3927
▁athletic	-12.3927
▁cultivate	-12.3927
▁entitled	-12.3927
▁flexibility	-12.3927
▁grassroots	-12.3927
▁migraine	-12.3927
▁replied	-12.3927
▁surviving	-12.3927
▁testosterone	-12.3927
▁voyage	-12.3927
▁PDF	-12.3927
▁midnight	-12.3927
▁reclaim	-12.3927
▁shield	-12.3927
▁superior	-12.3927
▁technologist	-12.3927
▁Eighty	-12.3927
▁degraded	-12.3927
Sleep	-12.3927
▁memorize	-12.3927
▁humankind	-12.3927
▁shuttle	-12.3927
▁Roots	-12.3927
▁backpack	-12.3927
Hotel	-12.3927
▁Sadly	-12.3927
cheek	-12.3928
▁entrepreneurial	-12.3928
▁distill	-12.3928
▁marvelous	-12.3928
▁erotic	-12.3928
centric	-12.3928
▁utiliz	-12.3928
▁resonate	-12.3928
▁conscience	-12.3928
▁constructive	-12.3928
▁jury	-12.3929
▁shove	-12.3929
▁Archie	-12.3929
▁grassland	-12.3929
▁Jenn	-12.3929
▁western	-12.3929
nanometer	-12.3929
▁distinctive	-12.3931
▁Planet	-12.3931
▁Christianity	-12.3933
▁offshore	-12.3933
▁Karl	-12.3934
▁erupt	-12.3935
thank	-12.395
computer	-12.3952
great	-12.3958
growing	-12.3959
▁slot	-12.3964
intelligent	-12.399
contacted	-12.4003
▁Islamist	-12.4013
▁foi	-12.4016
▁Khan	-12.4018
Uh	-12.4074
eater	-12.4088
▁societ	-12.4131
▁guilt	-12.4132
▁enthusiast	-12.4139
sourcing	-12.414
▁Archimedes	-12.414
▁Bassem	-12.414
▁CAPTCHA	-12.414
▁Digital	-12.414
▁Embassy	-12.414
▁Foreign	-12.414
▁Galileo	-12.414
▁Isabel	-12.414
▁Knowing	-12.414
▁Lakota	-12.414
▁Moscow	-12.414
▁RNG	-12.414
▁Reagan	-12.414
▁ambiguity	-12.414
▁approval	-12.414
▁benign	-12.414
▁buzz	-12.414
▁cartilage	-12.414
▁catastrophic	-12.414
▁comparable	-12.414
▁disabilities	-12.414
▁horrific	-12.414
▁imperfect	-12.414
▁introducing	-12.414
▁perpetrat	-12.414
▁pervasive	-12.414
▁replacing	-12.414
▁savanna	-12.414
▁servant	-12.414
▁temptation	-12.414
▁unacceptable	-12.414
▁incorporate	-12.414
▁infrared	-12.414
▁introvert	-12.414
▁synchronize	-12.414
izzy	-12.414
▁PRI	-12.414
▁draft	-12.414
▁niece	-12.414
▁shuffle	-12.414
▁praise	-12.414
▁minerals	-12.414
▁radar	-12.414
▁immerse	-12.414
▁crater	-12.414
▁dentist	-12.414
▁drip	-12.414
▁hatred	-12.414
▁Clear	-12.4141
▁Judge	-12.4141
▁polymer	-12.4142
▁Jimmy	-12.4142
▁Venter	-12.4142
▁Worldchanging	-12.4142
▁Jonas	-12.4144
▁quiz	-12.4146
▁Poem	-12.4147
▁hatch	-12.4148
▁Chair	-12.4149
▁corporation	-12.4197
control	-12.421
lapping	-12.4224
speaking	-12.4243
violence	-12.4267
▁bake	-12.4291
▁incremental	-12.4304
▁apparent	-12.4348
▁inherent	-12.4348
▁psychiatri	-12.4354
▁automatic	-12.4357
▁Campaign	-12.4357
▁Mongolia	-12.4357
▁Thursday	-12.4357
▁Universe	-12.4357
▁Vermeer	-12.4357
▁barrels	-12.4357
▁delusion	-12.4357
▁embodied	-12.4357
▁gigantic	-12.4357
▁grief	-12.4357
▁irrelevant	-12.4357
▁laundry	-12.4357
▁paralysis	-12.4357
▁reproductive	-12.4357
▁rhetoric	-12.4357
▁stratosphere	-12.4357
▁unemployment	-12.4357
▁unequal	-12.4357
▁Democracy	-12.4357
▁curator	-12.4357
▁evaporate	-12.4357
▁quantity	-12.4357
▁treasure	-12.4357
▁Village	-12.4357
▁commute	-12.4357
▁hypotheses	-12.4357
▁unemployed	-12.4357
▁Shoots	-12.4357
▁dragged	-12.4357
▁lazy	-12.4357
▁crust	-12.4357
▁depressing	-12.4357
▁venue	-12.4357
scatter	-12.4357
▁Maslow	-12.4357
▁Oscar	-12.4357
▁scope	-12.4358
▁swear	-12.4358
▁personnel	-12.4358
▁notebook	-12.4358
▁Grey	-12.4358
▁reply	-12.4358
▁Tracy	-12.4359
▁billboard	-12.4359
▁glide	-12.436
▁hallway	-12.436
▁haunt	-12.4361
▁pearl	-12.4362
▁presidential	-12.4363
▁pore	-12.4364
Environmental	-12.4366
▁misuse	-12.4367
▁chemo	-12.4387
▁Film	-12.4421
▁buck	-12.4464
crowded	-12.4524
species	-12.4538
reviewed	-12.4551
▁stole	-12.4555
▁expose	-12.4566
▁hung	-12.4567
governmental	-12.4571
▁cabin	-12.4575
mpathetic	-12.4579
regulating	-12.4579
▁Baghdad	-12.4579
▁Barbie	-12.4579
▁Cameron	-12.4579
▁Dimitri	-12.4579
▁Lesterland	-12.4579
▁bloom	-12.4579
▁confusing	-12.4579
▁exclude	-12.4579
▁hobby	-12.4579
▁nectar	-12.4579
▁nonviolent	-12.4579
▁numerous	-12.4579
▁recipient	-12.4579
▁releasing	-12.4579
▁restricted	-12.4579
▁BBC	-12.4579
▁Hopkins	-12.4579
▁Mission	-12.4579
▁amateurs	-12.4579
▁analytical	-12.4579
▁intangible	-12.4579
▁loneliness	-12.4579
▁millisecond	-12.4579
▁prevail	-12.4579
▁varieties	-12.4579
▁whistling	-12.4579
ocracy	-12.4579
▁embark	-12.4579
▁surplus	-12.4579
▁timber	-12.4579
▁Magic	-12.458
▁unstable	-12.458
▁aquatic	-12.458
▁superstar	-12.458
▁warfare	-12.458
esteem	-12.458
▁basking	-12.458
▁conspiracy	-12.458
▁duration	-12.458
▁Dream	-12.458
▁Early	-12.458
Contra	-12.458
▁Rosling	-12.458
▁Android	-12.458
tolerant	-12.458
▁modify	-12.458
mimicry	-12.458
▁Batman	-12.458
▁Theater	-12.458
▁Raise	-12.4581
▁biotech	-12.4582
▁blindfold	-12.4582
▁viewpoint	-12.4583
▁Jackson	-12.4583
▁Solly	-12.4583
▁Image	-12.4583
▁verge	-12.4585
▁shortcut	-12.4586
▁beast	-12.4588
▁blanket	-12.4591
▁skate	-12.4593
▁dorm	-12.4603
Engineer	-12.4807
▁Galois	-12.4807
▁Mathematica	-12.4807
▁Nollywood	-12.4807
▁Oliver	-12.4807
▁Philippines	-12.4807
▁Sergio	-12.4807
▁Studio	-12.4807
▁acceleration	-12.4807
▁beloved	-12.4807
▁beneficial	-12.4807
▁charities	-12.4807
▁incomplete	-12.4807
▁larvae	-12.4807
▁packaging	-12.4807
▁puncture	-12.4807
▁smuggl	-12.4807
▁Convention	-12.4807
▁Ecuador	-12.4807
▁Generation	-12.4807
▁Pearl	-12.4807
▁Rouge	-12.4807
▁attorney	-12.4807
▁pediatric	-12.4807
▁vegetation	-12.4807
▁wrinkl	-12.4807
▁Stories	-12.4807
▁deceive	-12.4807
▁shelves	-12.4807
▁jeans	-12.4807
▁selves	-12.4807
wiring	-12.4807
▁bluefin	-12.4807
partisan	-12.4807
▁alliance	-12.4807
▁chalk	-12.4807
▁inviting	-12.4807
▁Down	-12.4807
▁temporal	-12.4807
▁urgent	-12.4807
▁terminal	-12.4807
▁sought	-12.4807
▁grind	-12.4807
▁Portland	-12.4808
▁shipped	-12.4809
▁iteration	-12.4809
▁Dark	-12.481
▁insula	-12.4819
engage	-12.4836
doubt	-12.4837
mobile	-12.4838
Good	-12.4839
everything	-12.4841
▁Berg	-12.4848
▁potato	-12.5034
▁mortal	-12.5038
▁marvel	-12.5039
▁Jose	-12.5039
▁Record	-12.5039
Beautiful	-12.5039
physiological	-12.5039
seizure	-12.5039
▁Brilliant	-12.5039
▁Control	-12.5039
▁Gordon	-12.5039
▁Graham	-12.5039
▁Harlem	-12.5039
▁IDEO	-12.5039
▁Malaysia	-12.5039
▁Walmart	-12.5039
▁accompanied	-12.5039
▁adequate	-12.5039
▁collide	-12.5039
▁complication	-12.5039
▁cyclist	-12.5039
▁existential	-12.5039
▁gratitude	-12.5039
▁hypothetical	-12.5039
▁mortgage	-12.5039
▁negotiating	-12.5039
▁obscure	-12.5039
▁playground	-12.5039
▁prejudice	-12.5039
▁psyche	-12.5039
▁radius	-12.5039
▁rainbow	-12.5039
▁simulator	-12.5039
▁symphony	-12.5039
▁tadpole	-12.5039
▁thunder	-12.5039
▁unpredictable	-12.5039
▁velocity	-12.5039
Tomorrow	-12.5039
▁Goodbye	-12.5039
▁Hudson	-12.5039
▁Missouri	-12.5039
▁catalog	-12.5039
▁implicit	-12.5039
▁variability	-12.5039
▁Normal	-12.5039
▁ATM	-12.5039
▁Joan	-12.5039
▁uncover	-12.5039
▁Cohen	-12.5039
▁irrita	-12.5039
▁censorship	-12.5039
▁Lesters	-12.504
▁Saint	-12.504
▁permit	-12.504
▁hurry	-12.504
▁curse	-12.504
▁Brook	-12.504
▁Donald	-12.504
▁polish	-12.504
▁consultant	-12.5041
▁clapping	-12.5042
▁encryption	-12.5042
counterintuitive	-12.5042
▁courageous	-12.5042
▁raft	-12.5043
▁Money	-12.5044
▁portable	-12.5044
▁possession	-12.5059
fabrication	-12.5066
▁justify	-12.5073
Actor	-12.5098
fashioned	-12.5124
friend	-12.5138
function	-12.5144
yeah	-12.5152
stitution	-12.5215
▁excite	-12.5259
▁Unit	-12.5262
▁jewel	-12.5276
▁ADHD	-12.5277
▁Broadmoor	-12.5277
▁Copernicus	-12.5277
▁Essentially	-12.5277
▁Judaism	-12.5277
▁Laptop	-12.5277
▁Madison	-12.5277
▁Matthew	-12.5277
▁Midwest	-12.5277
▁Papua	-12.5277
▁Picasso	-12.5277
▁Thousands	-12.5277
▁USDA	-12.5277
▁algebra	-12.5277
▁ambassador	-12.5277
▁anecdote	-12.5277
▁capacities	-12.5277
▁clarify	-12.5277
▁confession	-12.5277
▁constrained	-12.5277
▁drowning	-12.5277
▁educating	-12.5277
▁excellence	-12.5277
▁glory	-12.5277
▁indirect	-12.5277
▁investigating	-12.5277
▁lightweight	-12.5277
▁malign	-12.5277
▁nickname	-12.5277
▁paragraph	-12.5277
▁quantitative	-12.5277
▁railway	-12.5277
▁rainfall	-12.5277
▁suspicious	-12.5277
▁synthesis	-12.5277
▁worries	-12.5277
▁Choir	-12.5277
▁Morgan	-12.5277
▁provoke	-12.5277
▁retrospect	-12.5277
▁Terence	-12.5277
▁dictate	-12.5277
▁lawsuit	-12.5277
▁behaving	-12.5277
▁melody	-12.5277
▁royal	-12.5277
▁Lanka	-12.5277
Blood	-12.5278
▁bleeding	-12.5278
▁tennis	-12.5278
▁scoop	-12.5278
▁choreograph	-12.5278
▁Feel	-12.5278
▁emergent	-12.5278
▁supercomputer	-12.5278
▁battlefield	-12.5278
▁replicator	-12.5278
▁Martian	-12.5278
▁Clark	-12.5279
▁Protect	-12.5279
▁wetland	-12.5279
▁ripped	-12.5279
▁Maryland	-12.528
▁hike	-12.5299
cooked	-12.5318
contaminated	-12.533
commissioned	-12.5354
mounted	-12.5382
frame	-12.5456
▁thrill	-12.5505
▁frequent	-12.5512
▁Volunteer	-12.5521
▁Alfred	-12.5521
▁Asperger	-12.5521
▁Capital	-12.5521
▁Collider	-12.5521
▁Helvetica	-12.5521
▁Kentucky	-12.5521
▁Mitchell	-12.5521
▁Stanley	-12.5521
▁Stockholm	-12.5521
▁Vienna	-12.5521
▁abusive	-12.5521
▁activism	-12.5521
▁administrator	-12.5521
▁antidepressant	-12.5521
▁arriving	-12.5521
▁automated	-12.5521
▁comprehensive	-12.5521
▁continuum	-12.5521
▁dependence	-12.5521
▁estrogen	-12.5521
▁fingertips	-12.5521
▁giraffe	-12.5521
▁humiliation	-12.5521
▁ozone	-12.5521
▁spawn	-12.5521
▁sponge	-12.5521
▁turbine	-12.5521
▁unintended	-12.5521
▁vibrating	-12.5521
▁volcanic	-12.5521
▁wetsuit	-12.5521
deprive	-12.5521
extrovert	-12.5521
▁DDT	-12.5521
▁Furby	-12.5521
▁Morocco	-12.5521
▁promotion	-12.5521
▁pronounce	-12.5521
▁uplift	-12.5521
▁throat	-12.5521
▁Growing	-12.5521
▁Ready	-12.5521
▁deplet	-12.5521
▁vector	-12.5521
▁Eames	-12.5521
derived	-12.5521
▁Genome	-12.5521
▁worn	-12.5521
▁kitten	-12.5521
▁withdraw	-12.5522
▁prophet	-12.5522
▁beaver	-12.5522
▁elders	-12.5522
▁forehead	-12.5522
▁Transition	-12.5522
▁Guess	-12.5522
▁biomaterial	-12.5522
▁Bowl	-12.5522
▁pension	-12.5522
▁championship	-12.5523
▁fundraising	-12.5523
▁aerial	-12.5523
▁pollute	-12.5523
▁queue	-12.5523
▁Pitt	-12.5523
▁standpoint	-12.5524
▁USB	-12.5524
▁Diana	-12.5525
▁aviation	-12.5525
▁teddy	-12.5525
▁bypass	-12.5534
▁nitr	-12.5555
cross	-12.5584
bearing	-12.5671
▁disturb	-12.5694
industrial	-12.5702
▁affirm	-12.5705
▁fisc	-12.5709
sustaining	-12.574
▁uncertain	-12.577
explosive	-12.5771
pheromone	-12.5771
▁Dublin	-12.5771
▁Eduardo	-12.5771
▁Festival	-12.5771
▁Hiroshima	-12.5771
▁Hundreds	-12.5771
▁Mandarin	-12.5771
▁Senegal	-12.5771
▁Species	-12.5771
▁Traditional	-12.5771
▁Wednesday	-12.5771
▁debris	-12.5771
▁doodling	-12.5771
▁hurricane	-12.5771
▁imaginary	-12.5771
▁insecure	-12.5771
▁lettuce	-12.5771
▁mammography	-12.5771
▁miraculous	-12.5771
▁pneumonia	-12.5771
▁scuba	-12.5771
▁supplement	-12.5771
categoriz	-12.5771
▁Alexandria	-12.5771
▁Hispanic	-12.5771
▁Kabul	-12.5771
▁condemn	-12.5771
▁convenience	-12.5771
▁devastated	-12.5771
▁faculty	-12.5771
▁fertility	-12.5771
▁foreground	-12.5771
▁guidance	-12.5771
▁improbable	-12.5771
▁nurturing	-12.5771
▁proposing	-12.5771
▁rigorous	-12.5771
▁solitary	-12.5771
▁superhero	-12.5771
▁vague	-12.5771
▁ancestry	-12.5771
▁subsequent	-12.5771
▁Operations	-12.5771
▁packet	-12.5771
▁sniff	-12.5771
▁strapped	-12.5771
▁Doctors	-12.5771
▁shiny	-12.5771
▁minimize	-12.5771
▁Nano	-12.5771
▁motto	-12.5771
▁regain	-12.5771
▁genital	-12.5771
▁instability	-12.5771
▁Vision	-12.5772
▁Trek	-12.5772
▁biotechnology	-12.5772
▁Chief	-12.5772
▁banjo	-12.5772
▁jewelry	-12.5772
▁mutate	-12.5772
▁provision	-12.5773
▁swam	-12.5774
▁Benki	-12.5774
▁announcement	-12.5774
▁agile	-12.5775
Mommy	-12.578
▁tolerate	-12.578
mouth	-12.5805
seller	-12.5821
fitting	-12.5827
▁employee	-12.5869
▁dominate	-12.5965
▁inflate	-12.5983
▁Victoria	-12.6
▁Command	-12.6027
▁league	-12.6028
▁paradise	-12.6028
Vagina	-12.6028
evident	-12.6028
hectare	-12.6028
▁Anthony	-12.6028
▁Aurora	-12.6028
▁Eleanor	-12.6028
▁Federal	-12.6028
▁Jacques	-12.6028
▁Klein	-12.6028
▁Laboratory	-12.6028
▁Study	-12.6028
▁Sudhir	-12.6028
▁Ukraine	-12.6028
▁accommodate	-12.6028
▁astronomical	-12.6028
▁auditorium	-12.6028
▁browsing	-12.6028
▁capsule	-12.6028
▁coconut	-12.6028
▁cumulative	-12.6028
▁ethanol	-12.6028
▁excerpt	-12.6028
▁exoplanet	-12.6028
▁fracture	-12.6028
▁intricate	-12.6028
▁pivot	-12.6028
▁prototyping	-12.6028
▁Illinois	-12.6028
▁Myriad	-12.6028
▁NIH	-12.6028
▁beekeepers	-12.6028
▁gecko	-12.6028
▁irrigation	-12.6028
▁liberation	-12.6028
▁navigation	-12.6028
▁repertoire	-12.6028
▁revenge	-12.6028
▁thriving	-12.6028
▁unfinished	-12.6028
▁retrofit	-12.6028
▁Board	-12.6028
▁Critic	-12.6028
▁Delta	-12.6028
▁racism	-12.6028
▁tweak	-12.6028
▁Though	-12.6028
▁restoration	-12.6028
▁strive	-12.6028
▁Rift	-12.6028
▁hunch	-12.6028
▁unveil	-12.6028
▁Ranger	-12.6028
▁Mmm	-12.6028
▁ideological	-12.6028
▁Mellon	-12.6028
▁Forbes	-12.6028
▁edited	-12.6029
▁serial	-12.6029
▁Correct	-12.6029
Greg	-12.6029
▁Grant	-12.6029
carved	-12.6032
▁Past	-12.6043
meaning	-12.6111
watch	-12.6122
teacher	-12.6147
voice	-12.6147
▁contaminat	-12.6233
▁prioritize	-12.6234
symmetric	-12.629
Extreme	-12.6291
commerce	-12.6291
wrestling	-12.6291
▁Beatles	-12.6291
▁Botswana	-12.6291
▁Broadway	-12.6291
▁Challenge	-12.6291
▁Cochrane	-12.6291
▁Elephant	-12.6291
▁Financial	-12.6291
▁Intelligence	-12.6291
▁Netflix	-12.6291
▁OPEC	-12.6291
▁apparatus	-12.6291
▁applaud	-12.6291
▁bandwidth	-12.6291
▁bronze	-12.6291
▁bruise	-12.6291
▁combining	-12.6291
▁daunting	-12.6291
▁democratize	-12.6291
▁immigration	-12.6291
▁incubator	-12.6291
▁liberating	-12.6291
▁lithium	-12.6291
▁malnutrition	-12.6291
▁maximize	-12.6291
▁microRNA	-12.6291
▁pregnancy	-12.6291
▁psychic	-12.6291
▁rediscover	-12.6291
▁ridicule	-12.6291
▁secular	-12.6291
▁unnatural	-12.6291
▁Aimee	-12.6291
▁Arkansas	-12.6291
▁Local	-12.6291
▁TBP	-12.6291
▁cruise	-12.6291
▁discrete	-12.6291
▁drowned	-12.6291
▁equator	-12.6291
▁histories	-12.6291
▁policing	-12.6291
▁sympathy	-12.6291
▁virtuous	-12.6291
▁fungus	-12.6291
▁pledge	-12.6291
▁undercover	-12.6291
▁Drake	-12.6291
▁mysteries	-12.6291
▁maze	-12.6291
▁relieved	-12.6291
▁initiate	-12.6291
▁Troy	-12.6291
▁Geneva	-12.6291
▁Horse	-12.6291
▁rotation	-12.6291
steak	-12.6291
▁crises	-12.6291
▁mainframe	-12.6291
▁literary	-12.6291
▁nomad	-12.6292
ialect	-12.6292
▁dragging	-12.6292
▁sunset	-12.6292
entrepreneurship	-12.6293
▁stink	-12.6293
Help	-12.6297
▁obey	-12.6304
▁reconnect	-12.6357
▁allocat	-12.6368
▁implication	-12.6401
unta	-12.6421
stretched	-12.6484
organization	-12.6499
machine	-12.6505
Great	-12.6509
white	-12.6511
would	-12.6512
course	-12.6512
guided	-12.6514
▁Ala	-12.6518
▁Tasmania	-12.6533
▁Hawk	-12.6543
▁browse	-12.6554
jelly	-12.6561
efficacy	-12.6561
▁Acumen	-12.6561
▁Bonnie	-12.6561
▁Charlotte	-12.6561
▁Kurzweil	-12.6561
▁Leadership	-12.6561
▁Maitreya	-12.6561
▁Mechanical	-12.6561
▁Najmuddin	-12.6561
▁PIPA	-12.6561
▁StoryCorps	-12.6561
▁Swahili	-12.6561
▁Sweeney	-12.6561
▁arbitrary	-12.6561
▁downstairs	-12.6561
▁elevated	-12.6561
▁empirical	-12.6561
▁horrified	-12.6561
▁integrating	-12.6561
▁mammogram	-12.6561
▁occupied	-12.6561
▁pancreatic	-12.6561
▁penicillin	-12.6561
▁propeller	-12.6561
▁prostitute	-12.6561
▁quantify	-12.6561
▁snapshot	-12.6561
▁sulfur	-12.6561
▁toothbrush	-12.6561
▁tuberculosis	-12.6561
▁vapor	-12.6561
▁vicious	-12.6561
▁ESG	-12.6561
▁Harbor	-12.6561
▁Rachel	-12.6561
▁Reserve	-12.6561
▁altruist	-12.6561
▁glance	-12.6561
▁Boeing	-12.6561
▁Devil	-12.6561
Mobile	-12.6561
▁Austin	-12.6561
▁optimal	-12.6561
▁overlooked	-12.6561
▁asylum	-12.6561
▁Weibo	-12.6561
▁nanotechnology	-12.6561
▁casualties	-12.6561
▁poop	-12.6562
Leave	-12.6562
▁Week	-12.6562
▁suitcase	-12.6562
▁Pardon	-12.6562
▁Northwest	-12.6562
▁damaging	-12.6562
▁discourse	-12.6562
▁Erik	-12.6562
▁sank	-12.6562
▁editing	-12.6562
▁blunt	-12.6562
▁geological	-12.6562
▁arose	-12.6562
▁fingerprint	-12.6563
bolt	-12.6566
alignment	-12.6568
assured	-12.6622
similarity	-12.6678
▁circumstance	-12.6679
respect	-12.6775
oxy	-12.6795
trophy	-12.6838
Develop	-12.6838
▁magnify	-12.6839
arithmetic	-12.6839
preservation	-12.6839
testimony	-12.6839
▁Baxter	-12.6839
▁Bueno	-12.6839
▁Chernobyl	-12.6839
▁Chicken	-12.6839
▁Congolese	-12.6839
▁Constitution	-12.6839
▁Cultural	-12.6839
▁DIY	-12.6839
▁Emmanuel	-12.6839
▁Happiness	-12.6839
▁Minnesota	-12.6839
▁Saddam	-12.6839
▁Special	-12.6839
▁Tarahumara	-12.6839
▁admission	-12.6839
▁annoyed	-12.6839
▁antibodies	-12.6839
▁barbershop	-12.6839
▁carpenter	-12.6839
▁constellation	-12.6839
▁discriminate	-12.6839
▁eliminating	-12.6839
▁fission	-12.6839
▁hippocampus	-12.6839
▁homicide	-12.6839
▁hygiene	-12.6839
▁inadequate	-12.6839
▁orangutan	-12.6839
▁pristine	-12.6839
▁stunned	-12.6839
▁synesthesia	-12.6839
▁tectonic	-12.6839
▁Dragon	-12.6839
▁glut	-12.6839
▁latitude	-12.6839
▁removing	-12.6839
▁spoil	-12.6839
▁stunning	-12.6839
▁homosexual	-12.6839
▁recreation	-12.6839
▁resign	-12.6839
▁windmill	-12.6839
▁varied	-12.6839
...♫	-12.6839
▁Linda	-12.6839
▁Treating	-12.6839
▁anchor	-12.684
▁aspirin	-12.684
Bomb	-12.6841
▁magnifi	-12.6844
▁Eye	-12.6844
colonial	-12.6845
▁Helen	-12.6845
▁Crime	-12.685
spective	-12.6875
scientific	-12.688
growth	-12.6882
through	-12.6882
between	-12.6882
Bull	-12.6889
disturbed	-12.6905
connected	-12.6907
▁sentiment	-12.6928
▁confuse	-12.7107
▁inherit	-12.7108
▁Environment	-12.7113
▁Thai	-12.7125
Leymah	-12.7125
sanitary	-12.7125
▁Airbnb	-12.7125
▁Alhambra	-12.7125
▁Bageye	-12.7125
▁Bilbao	-12.7125
▁Bureau	-12.7125
▁Celsius	-12.7125
▁Cyril	-12.7125
▁Harriet	-12.7125
▁Initiative	-12.7125
▁Negroponte	-12.7125
▁Odysseus	-12.7125
▁Orchestra	-12.7125
▁PISA	-12.7125
▁Passage	-12.7125
▁Plastic	-12.7125
▁Poetry	-12.7125
▁Scientific	-12.7125
▁Speaking	-12.7125
▁Symphony	-12.7125
▁Uruguay	-12.7125
▁Velcro	-12.7125
▁adversity	-12.7125
▁balancing	-12.7125
▁bioluminescence	-12.7125
▁bioluminescent	-12.7125
▁brute	-12.7125
▁ceramic	-12.7125
▁cerebral	-12.7125
▁charcoal	-12.7125
▁communal	-12.7125
▁decentralized	-12.7125
▁degradation	-12.7125
▁disbelief	-12.7125
▁disparate	-12.7125
▁eyebrow	-12.7125
▁hominid	-12.7125
▁illiterate	-12.7125
▁memorable	-12.7125
▁modification	-12.7125
▁pollutants	-12.7125
▁pragmatic	-12.7125
▁reconcile	-12.7125
▁semester	-12.7125
▁toddler	-12.7125
▁unaware	-12.7125
▁yogurt	-12.7125
certified	-12.7125
▁Summer	-12.7125
▁Swedes	-12.7125
▁Tyler	-12.7125
▁congress	-12.7125
▁crochet	-12.7125
▁discharge	-12.7125
▁filament	-12.7125
▁gamma	-12.7125
▁hydrant	-12.7125
▁sprawl	-12.7125
▁thorough	-12.7125
▁Product	-12.7125
▁arteries	-12.7125
▁tropics	-12.7125
banese	-12.7125
▁hyena	-12.7125
▁tinker	-12.7125
▁Disease	-12.7125
▁unsustainable	-12.7125
▁hippie	-12.7125
▁availability	-12.7125
▁erosion	-12.7125
▁scalable	-12.7125
▁Calais	-12.7125
▁foragers	-12.7125
▁roommate	-12.7125
▁competent	-12.7125
▁tactics	-12.7125
▁begging	-12.7125
▁submarine	-12.7125
▁plunge	-12.7125
▁Panama	-12.7125
▁Needles	-12.7126
▁dining	-12.7126
Oops	-12.7127
replicating	-12.7127
bitten	-12.7129
▁halt	-12.7129
builder	-12.7142
▁Arr	-12.7148
Champ	-12.715
trusting	-12.723
▁optimist	-12.7261
evolution	-12.7262
performance	-12.7264
written	-12.7264
▁lava	-12.7317
▁constitut	-12.7371
ustainable	-12.7379
disproportionate	-12.7419
▁Cleveland	-12.7419
▁Cornell	-12.7419
▁EEG	-12.7419
▁Fellow	-12.7419
▁Gapminder	-12.7419
▁Hussein	-12.7419
▁Kickstarter	-12.7419
▁Mauritius	-12.7419
▁McGowan	-12.7419
▁Morning	-12.7419
▁Mouaz	-12.7419
▁Naghma	-12.7419
▁Pascal	-12.7419
▁Triceratops	-12.7419
▁Usually	-12.7419
▁accelerator	-12.7419
▁adolescents	-12.7419
▁catalyst	-12.7419
▁compartment	-12.7419
▁cosmetic	-12.7419
▁desirable	-12.7419
▁evaluation	-12.7419
▁ignorant	-12.7419
▁plague	-12.7419
▁primal	-12.7419
▁relevance	-12.7419
▁swirl	-12.7419
▁teapot	-12.7419
▁terrestrial	-12.7419
▁treadmill	-12.7419
▁unbelievably	-12.7419
▁upstairs	-12.7419
▁uranium	-12.7419
▁Bihar	-12.7419
▁Dominica	-12.7419
▁Hannah	-12.7419
▁Ruby	-12.7419
▁astounding	-12.7419
▁deflect	-12.7419
▁mangrove	-12.7419
▁nudge	-12.7419
▁nursing	-12.7419
▁plaster	-12.7419
▁Jamie	-12.7419
▁mismatch	-12.7419
▁knob	-12.7419
▁measles	-12.7419
Hindi	-12.7419
▁alpha	-12.7419
▁ignite	-12.7419
▁crave	-12.7419
phobic	-12.7419
▁zoning	-12.7419
▁Often	-12.7419
▁dreadful	-12.7419
berries	-12.7419
▁Persian	-12.7419
▁offense	-12.7419
▁Commandments	-12.7419
▁inertia	-12.7419
condense	-12.7419
▁sideways	-12.7419
▁dried	-12.7419
Guys	-12.7422
▁Sign	-12.7423
▁decode	-12.7424
chlor	-12.744
flour	-12.7454
churches	-12.7525
coordinated	-12.7536
judged	-12.7546
definition	-12.7663
figure	-12.7665
onald	-12.7693
execute	-12.7717
uantum	-12.7722
▁municipal	-12.7722
Communication	-12.7722
Jarrett	-12.7722
arrogant	-12.7722
composite	-12.7722
dispersed	-12.7722
▁Administration	-12.7722
▁Barefoot	-12.7722
▁Brigades	-12.7722
▁CPU	-12.7722
▁Chapter	-12.7722
▁Committee	-12.7722
▁District	-12.7722
▁Faiza	-12.7722
▁FreeSpeech	-12.7722
▁Gallery	-12.7722
▁Istanbul	-12.7722
▁JPL	-12.7722
▁Kuwait	-12.7722
▁Langley	-12.7722
▁Leviathan	-12.7722
▁Nazis	-12.7722
▁SOPA	-12.7722
▁Schwarzschild	-12.7722
▁Scrapper	-12.7722
▁Simpson	-12.7722
▁Skycar	-12.7722
▁Viagra	-12.7722
▁acronym	-12.7722
▁aerodynamic	-12.7722
▁ambiguous	-12.7722
▁apprentice	-12.7722
▁atrazine	-12.7722
▁butterfly	-12.7722
▁cafeteria	-12.7722
▁contributor	-12.7722
▁diffuse	-12.7722
▁drank	-12.7722
▁facilitate	-12.7722
▁gorilla	-12.7722
▁hummingbird	-12.7722
▁imaginative	-12.7722
▁immoral	-12.7722
▁immortality	-12.7722
▁immunity	-12.7722
▁imprisoned	-12.7722
▁incarcerated	-12.7722
▁incarceration	-12.7722
▁inorganic	-12.7722
▁junior	-12.7722
▁medieval	-12.7722
▁modular	-12.7722
▁motivator	-12.7722
▁perceptual	-12.7722
▁poacher	-12.7722
▁prompt	-12.7722
▁propulsion	-12.7722
▁prosecute	-12.7722
▁reception	-12.7722
▁scissors	-12.7722
▁serotonin	-12.7722
▁simplify	-12.7722
▁squirrel	-12.7722
▁unlimited	-12.7722
▁vibrant	-12.7722
▁Brenda	-12.7722
▁Lower	-12.7722
▁energetic	-12.7722
▁pennies	-12.7722
▁landfill	-12.7722
▁buffer	-12.7722
▁trafficked	-12.7722
▁BMI	-12.7722
▁Polar	-12.7722
▁guidelines	-12.7722
▁Animal	-12.7722
▁holistic	-12.7722
▁cereal	-12.7722
▁Easy	-12.7722
▁gently	-12.7722
▁Major	-12.7722
▁sociologist	-12.7722
▁uprising	-12.7722
▁pinpoint	-12.7722
▁teammate	-12.7722
▁Rabbi	-12.7722
jerk	-12.7722
decoration	-12.7741
▁historian	-12.7752
▁verify	-12.7774
hello	-12.7856
▁replica	-12.7889
grandma	-12.7924
▁hallucinat	-12.8034
▁Announcer	-12.8034
▁reservation	-12.8034
retroviral	-12.8034
▁Bollywood	-12.8034
▁Cameroon	-12.8034
▁Conservation	-12.8034
▁Corexit	-12.8034
▁Fifteen	-12.8034
▁Galvao	-12.8034
▁Geiger	-12.8034
▁Hyderabad	-12.8034
▁Jabbar	-12.8034
▁Jenipher	-12.8034
▁Milwaukee	-12.8034
▁Neumann	-12.8034
▁Nowadays	-12.8034
▁Poverty	-12.8034
▁Robotics	-12.8034
▁Rockefeller	-12.8034
▁Sioux	-12.8034
▁UNAIDS	-12.8034
▁adjacent	-12.8034
▁anonymity	-12.8034
▁astonished	-12.8034
▁automotive	-12.8034
▁bipolar	-12.8034
▁cognition	-12.8034
▁coherent	-12.8034
▁destined	-12.8034
▁disseminat	-12.8034
▁dominance	-12.8034
▁elastic	-12.8034
▁emphasis	-12.8034
▁framing	-12.8034
▁hazard	-12.8034
▁heartbeat	-12.8034
▁identification	-12.8034
▁ignoring	-12.8034
▁leisure	-12.8034
▁monopoly	-12.8034
▁proliferation	-12.8034
▁rejuvenat	-12.8034
▁reservoir	-12.8034
▁ripple	-12.8034
▁taxpayer	-12.8034
▁template	-12.8034
▁veterinarian	-12.8034
▁widow	-12.8034
▁Douglas	-12.8034
▁Marilyn	-12.8034
▁Serbia	-12.8034
▁discomfort	-12.8034
▁executives	-12.8034
▁humiliate	-12.8034
▁millennium	-12.8034
▁vibrate	-12.8034
▁Twain	-12.8034
▁reckless	-12.8034
▁mound	-12.8034
▁Holland	-12.8034
▁ecologist	-12.8034
▁lousy	-12.8034
▁abalone	-12.8034
▁embed	-12.8034
▁racist	-12.8034
▁Whale	-12.8034
▁aspire	-12.8034
▁ultrasound	-12.8034
▁scandal	-12.8034
▁southwest	-12.8034
▁Sobule	-12.8034
squeak	-12.8034
▁Susie	-12.8034
▁Color	-12.8034
▁Satan	-12.8035
▁Jacob	-12.8035
helix	-12.8035
▁Honor	-12.8035
▁tickle	-12.8036
Davis	-12.804
▁Magn	-12.8041
▁enslav	-12.8042
▁Stalin	-12.8069
probably	-12.8083
orbital	-12.8103
▁increment	-12.8111
actua	-12.8149
▁Director	-12.8164
gatherer	-12.8263
Clean	-12.8297
rtical	-12.8326
▁complement	-12.8357
Believe	-12.8357
apartheid	-12.8357
determining	-12.8357
disciplinary	-12.8357
megawatt	-12.8357
propelled	-12.8357
therapeutic	-12.8357
▁Bolivia	-12.8357
▁Descartes	-12.8357
▁Herbie	-12.8357
▁Heritage	-12.8357
▁Instagram	-12.8357
▁Management	-12.8357
▁Mubarak	-12.8357
▁NATO	-12.8357
▁NYU	-12.8357
▁advancing	-12.8357
▁avenue	-12.8357
▁capturing	-12.8357
▁cowboy	-12.8357
▁desalination	-12.8357
▁diabetic	-12.8357
▁epiphany	-12.8357
▁exhilarating	-12.8357
▁fatigue	-12.8357
▁feminine	-12.8357
▁guiding	-12.8357
▁librarians	-12.8357
▁microwave	-12.8357
▁perpetual	-12.8357
▁pollinators	-12.8357
▁prevalent	-12.8357
▁respiratory	-12.8357
▁rotten	-12.8357
▁sapiens	-12.8357
▁unhealthy	-12.8357
▁unimaginable	-12.8357
▁unthinkable	-12.8357
▁zodiac	-12.8357
jealous	-12.8357
▁Changing	-12.8357
▁Charter	-12.8357
▁MBI	-12.8357
▁acquisition	-12.8357
▁imitation	-12.8357
▁jurisdiction	-12.8357
▁nanotube	-12.8357
▁rudder	-12.8357
▁Jeep	-12.8357
▁Knight	-12.8357
▁proxy	-12.8357
▁Ezra	-12.8357
▁rupees	-12.8357
▁purse	-12.8357
Rockett	-12.8357
▁anomaly	-12.8357
▁ingenious	-12.8357
qualify	-12.8357
▁glands	-12.8357
Box	-12.8357
▁fringe	-12.8357
Hamlet	-12.8362
▁Petri	-12.8362
▁Linu	-12.8364
ometric	-12.8443
punched	-12.8569
Walking	-12.8632
▁announce	-12.8669
▁deliberate	-12.8681
▁intellect	-12.869
▁Holly	-12.869
Citizen	-12.869
Exactly	-12.869
▁Barbara	-12.869
▁Dawkins	-12.869
▁Dennett	-12.869
▁Enjoy	-12.869
▁GPHIN	-12.869
▁Gertrude	-12.869
▁Gillian	-12.869
▁INCRA	-12.869
▁Malcolm	-12.869
▁Mozambique	-12.869
▁Ottoman	-12.869
▁PTSD	-12.869
▁Samantha	-12.869
▁Sergey	-12.869
▁Styrofoam	-12.869
▁Toraja	-12.869
▁astrolabe	-12.869
▁centigrade	-12.869
▁malware	-12.869
▁oxide	-12.869
▁periphery	-12.869
▁populated	-12.869
▁postcards	-12.869
▁prominent	-12.869
▁prosperous	-12.869
▁relaunchers	-12.869
▁solidarity	-12.869
▁spores	-12.869
▁supermassive	-12.869
sampling	-12.869
▁Diamond	-12.869
▁Granny	-12.869
▁Hemisphere	-12.869
▁Maltese	-12.869
▁STEM	-12.869
▁Silence	-12.869
▁Stroman	-12.869
▁activation	-12.869
▁bargain	-12.869
▁beehive	-12.869
▁blaming	-12.869
▁buddy	-12.869
▁comparative	-12.869
▁crease	-12.869
▁discount	-12.869
▁divergence	-12.869
▁extremist	-12.869
▁illumination	-12.869
▁instinctively	-12.869
▁irregular	-12.869
▁lexicon	-12.869
▁livelihood	-12.869
▁pigmented	-12.869
▁plutocrat	-12.869
▁repetitive	-12.869
▁shrunk	-12.869
▁simplified	-12.869
▁stockpile	-12.869
▁swept	-12.869
▁terabyte	-12.869
▁wondrous	-12.869
Michelle	-12.869
disposal	-12.869
▁Front	-12.869
▁cosmology	-12.869
▁doodle	-12.869
▁dwarf	-12.869
▁imbalance	-12.869
▁occurrence	-12.869
▁spoof	-12.869
▁stubborn	-12.869
▁thermostat	-12.869
▁tiniest	-12.869
▁Utah	-12.869
▁durable	-12.869
▁Parents	-12.869
▁ballast	-12.869
▁biodegrad	-12.869
▁pollinate	-12.869
▁guru	-12.8691
▁Utopia	-12.8691
▁costume	-12.8691
▁vase	-12.8691
Blind	-12.8691
▁trawl	-12.8692
▁endemic	-12.8693
▁lyric	-12.8696
Thou	-12.8697
▁Silv	-12.8706
stitch	-12.873
▁Terri	-12.8848
▁Grove	-12.8867
square	-12.888
People	-12.8973
▁dedicate	-12.9017
▁contradict	-12.9022
▁lymph	-12.9033
Terroris	-12.9035
cradle	-12.9035
tewardship	-12.9035
▁Accenture	-12.9035
▁BERT	-12.9035
▁Beveridge	-12.9035
▁Crazy	-12.9035
▁Differen	-12.9035
▁Diplomat	-12.9035
▁Fraser	-12.9035
▁Gehry	-12.9035
▁Haryana	-12.9035
▁Immediately	-12.9035
▁Karachi	-12.9035
▁Kinect	-12.9035
▁Pharaoh	-12.9035
▁Valdez	-12.9035
▁Vivian	-12.9035
▁Volvo	-12.9035
▁amplify	-12.9035
▁arrival	-12.9035
▁balconies	-12.9035
▁continuity	-12.9035
▁deceased	-12.9035
▁degrading	-12.9035
▁denominat	-12.9035
▁deprivation	-12.9035
▁derivative	-12.9035
▁desperation	-12.9035
▁engulf	-12.9035
▁fountain	-12.9035
▁hostility	-12.9035
▁integral	-12.9035
▁maggots	-12.9035
▁marshmallow	-12.9035
▁moisture	-12.9035
▁oblivious	-12.9035
▁pavilion	-12.9035
▁pigmentation	-12.9035
▁placing	-12.9035
▁portfolio	-12.9035
▁skyscraper	-12.9035
▁swollen	-12.9035
▁tornado	-12.9035
▁tunneling	-12.9035
▁unfamiliar	-12.9035
▁width	-12.9035
▁Manchester	-12.9035
▁ROD	-12.9035
▁UFO	-12.9035
▁analyst	-12.9035
▁cockpit	-12.9035
▁craving	-12.9035
▁credible	-12.9035
▁enclosure	-12.9035
▁geyser	-12.9035
▁humbling	-12.9035
▁innocence	-12.9035
▁puzzling	-12.9035
▁sabbatical	-12.9035
▁EPA	-12.9035
▁exaggerate	-12.9035
▁fiddle	-12.9035
▁mutilate	-12.9035
▁underwear	-12.9035
▁squatter	-12.9035
▁Adult	-12.9035
▁Giving	-12.9035
▁Gould	-12.9035
▁sensual	-12.9035
▁Eagle	-12.9035
▁warrant	-12.9035
▁AAA	-12.9035
▁vendor	-12.9035
decisive	-12.9035
▁incision	-12.9035
▁scripture	-12.9035
▁charisma	-12.9035
Ballet	-12.9035
▁Pleo	-12.9035
SHA	-12.9035
▁Lucas	-12.9035
Complete	-12.9036
Foot	-12.9036
▁enact	-12.9036
Heroes	-12.9036
replication	-12.9037
NBC	-12.9042
ehind	-12.9045
Philippe	-12.9049
▁resume	-12.9071
bureaucratic	-12.9175
Finding	-12.9187
blended	-12.9204
freaking	-12.9333
seeker	-12.9335
nutrient	-12.9352
▁amaze	-12.9375
Jurassic	-12.9392
arguably	-12.9392
▁Certainly	-12.9392
▁Chechnya	-12.9392
▁Copernican	-12.9392
▁Effect	-12.9392
▁Florence	-12.9392
▁Gabriel	-12.9392
▁Galaxy	-12.9392
▁Mushroom	-12.9392
▁NFL	-12.9392
▁Nashville	-12.9392
▁Patients	-12.9392
▁Pleurobot	-12.9392
▁Prozac	-12.9392
▁Shirley	-12.9392
▁UNICEF	-12.9392
▁Wisconsin	-12.9392
▁Yahoo	-12.9392
▁appetite	-12.9392
▁bottleneck	-12.9392
▁buttermilk	-12.9392
▁compelled	-12.9392
▁energies	-12.9392
▁epilepsy	-12.9392
▁frugal	-12.9392
▁horrifying	-12.9392
▁imposing	-12.9392
▁kettle	-12.9392
▁misconception	-12.9392
▁misunderstood	-12.9392
▁rhyme	-12.9392
▁rubbish	-12.9392
▁sprinkle	-12.9392
▁suburbia	-12.9392
▁unpleasant	-12.9392
▁utilitarian	-12.9392
▁Bonnet	-12.9392
▁Experiment	-12.9392
▁Harris	-12.9392
▁naught	-12.9392
▁paintbrush	-12.9392
▁sequester	-12.9392
▁starvation	-12.9392
▁telecom	-12.9392
▁wilderness	-12.9392
administer	-12.9392
▁Eileen	-12.9392
▁Libby	-12.9392
▁Chapel	-12.9392
▁drastic	-12.9392
subsidize	-12.9392
endurance	-12.9392
▁hawk	-12.9392
▁motive	-12.9392
▁Reddit	-12.9392
legged	-12.9392
▁Brent	-12.9392
▁premier	-12.9392
▁Classic	-12.9392
▁Loren	-12.9393
pods	-12.9394
Write	-12.9394
emitting	-12.9405
haired	-12.9414
pitched	-12.9431
World	-12.9439
happiness	-12.9449
Lux	-12.9458
inhabited	-12.946
▁patrol	-12.9481
sponsored	-12.9523
manufactured	-12.9524
conditioned	-12.9568
environmentalist	-12.9572
▁primo	-12.9589
exploited	-12.9652
▁suspend	-12.9746
▁Interesting	-12.9753
cogniz	-12.9762
piracy	-12.9762
Jessica	-12.9763
lecommunications	-12.9763
▁Already	-12.9763
▁Auschwitz	-12.9763
▁Bandura	-12.9763
▁Belgium	-12.9763
▁Buckminster	-12.9763
▁Enron	-12.9763
▁Hazara	-12.9763
▁Lindbergh	-12.9763
▁Medicare	-12.9763
▁Natalie	-12.9763
▁Newcastle	-12.9763
▁Nikola	-12.9763
▁Okapi	-12.9763
▁Potato	-12.9763
▁Principle	-12.9763
▁Rufus	-12.9763
▁Sunshine	-12.9763
▁TEDGlobal	-12.9763
▁Tempest	-12.9763
▁Universal	-12.9763
▁aquaculture	-12.9763
▁bumblebee	-12.9763
▁classmates	-12.9763
▁cochlea	-12.9763
▁collaborating	-12.9763
▁conjecture	-12.9763
▁firefight	-12.9763
▁heterosexual	-12.9763
▁humidity	-12.9763
▁manipulating	-12.9763
▁menstruation	-12.9763
▁participatory	-12.9763
▁quadruple	-12.9763
▁striving	-12.9763
▁supplier	-12.9763
▁unravel	-12.9763
detached	-12.9763
tactile	-12.9763
▁Buddhism	-12.9763
▁Connect	-12.9763
▁Creek	-12.9763
▁Gamma	-12.9763
▁Gilbert	-12.9763
▁Pandora	-12.9763
▁appointment	-12.9763
▁broadband	-12.9763
▁deceptive	-12.9763
▁embodiment	-12.9763
▁inferior	-12.9763
▁miniature	-12.9763
▁preliminary	-12.9763
▁skydiving	-12.9763
▁tackling	-12.9763
▁Apparently	-12.9763
▁anticipation	-12.9763
▁bureaucracy	-12.9763
▁defecat	-12.9763
▁disclose	-12.9763
▁gratification	-12.9763
▁legitimacy	-12.9763
▁scarcity	-12.9763
▁sophistication	-12.9763
▁tribute	-12.9763
pollination	-12.9763
▁Growth	-12.9763
▁Legend	-12.9763
▁collage	-12.9763
▁goggles	-12.9763
▁gyrus	-12.9763
assisted	-12.9763
Anything	-12.9763
▁burglar	-12.9763
▁dairy	-12.9763
▁perfume	-12.9763
▁staple	-12.9763
Serious	-12.9763
▁alternate	-12.9763
▁Clinic	-12.9764
Kerry	-12.9764
▁Aqua	-12.978
▁peacebuild	-12.9827
inflated	-12.9828
remember	-12.9947
transformational	-12.9969
purpose	-13.006
historians	-13.0109
inspirational	-13.0123
avail	-13.0147
▁Monologues	-13.0147
▁Sixty	-13.0147
Budapest	-13.0147
Kelvin	-13.0147
assembling	-13.0147
compliance	-13.0147
medicinal	-13.0147
wield	-13.0147
▁Architecture	-13.0147
▁Cartesian	-13.0147
▁Culture	-13.0147
▁Explorer	-13.0147
▁Makoko	-13.0147
▁Miguel	-13.0147
▁Occasionally	-13.0147
▁Shenzhen	-13.0147
▁Stacey	-13.0147
▁accumulation	-13.0147
▁charging	-13.0147
▁convulsion	-13.0147
▁elevation	-13.0147
▁exaggeration	-13.0147
▁fascination	-13.0147
▁gadgets	-13.0147
▁horribly	-13.0147
▁hyperbolic	-13.0147
▁influenza	-13.0147
▁insignificant	-13.0147
▁leukemia	-13.0147
▁metadata	-13.0147
▁motivating	-13.0147
▁nanoparticles	-13.0147
▁nugget	-13.0147
▁paleontologist	-13.0147
▁peripheral	-13.0147
▁persuasion	-13.0147
▁philanthropist	-13.0147
▁privatiz	-13.0147
▁provocative	-13.0147
▁qualitative	-13.0147
▁remorse	-13.0147
▁ribbon	-13.0147
▁ruthless	-13.0147
▁sanctuary	-13.0147
▁scramble	-13.0147
▁surrogate	-13.0147
▁umbrella	-13.0147
Moderator	-13.0147
pocalypse	-13.0147
sleeve	-13.0147
▁amputation	-13.0147
▁approximation	-13.0147
▁asphalt	-13.0147
▁brigade	-13.0147
▁contemplate	-13.0147
▁indefinite	-13.0147
▁mistrust	-13.0147
▁plaque	-13.0147
▁precaution	-13.0147
▁tempting	-13.0147
▁tragedies	-13.0147
▁bankrupt	-13.0147
▁persistence	-13.0147
▁Future	-13.0147
▁appalling	-13.0147
▁Route	-13.0147
▁parrot	-13.0147
▁crayon	-13.0147
▁Beyon	-13.0147
▁hustle	-13.0147
▁ventilate	-13.0147
▁Improv	-13.0148
▁Tropic	-13.0148
cubes	-13.0362
▁impairment	-13.0547
▁narcissist	-13.0547
Rebecca	-13.0547
communicator	-13.0547
exercising	-13.0547
extraterrestrial	-13.0547
nephew	-13.0547
submission	-13.0547
▁Accra	-13.0547
▁Capitol	-13.0547
▁Cargill	-13.0547
▁Declaration	-13.0547
▁Dickinson	-13.0547
▁Duolingo	-13.0547
▁Governor	-13.0547
▁Gowanus	-13.0547
▁HeForShe	-13.0547
▁Jeremy	-13.0547
▁Matthieu	-13.0547
▁Rubik	-13.0547
▁UNESCO	-13.0547
▁Urban	-13.0547
▁accustomed	-13.0547
▁amygdala	-13.0547
▁antiangiogenic	-13.0547
▁bailout	-13.0547
▁balcony	-13.0547
▁celestial	-13.0547
▁concussion	-13.0547
▁contraceptives	-13.0547
▁coumarin	-13.0547
▁detergent	-13.0547
▁entrenched	-13.0547
▁evoke	-13.0547
▁gradient	-13.0547
▁indicating	-13.0547
▁intertwined	-13.0547
▁nutshell	-13.0547
▁outweigh	-13.0547
▁petroleum	-13.0547
▁proximity	-13.0547
▁squirt	-13.0547
▁subsidies	-13.0547
▁tempted	-13.0547
▁visibility	-13.0547
Beauty	-13.0547
Skeptic	-13.0547
Temple	-13.0547
grazing	-13.0547
▁Brunel	-13.0547
▁Express	-13.0547
▁Kafka	-13.0547
▁Maasai	-13.0547
▁Message	-13.0547
▁Passion	-13.0547
▁Ridge	-13.0547
▁Ultra	-13.0547
▁Wagner	-13.0547
▁bouncing	-13.0547
▁brilliance	-13.0547
▁caterpillar	-13.0547
▁corpus	-13.0547
▁crammed	-13.0547
▁crux	-13.0547
▁dementia	-13.0547
▁diffusion	-13.0547
▁exploding	-13.0547
▁feminism	-13.0547
▁judging	-13.0547
▁plummet	-13.0547
▁precursor	-13.0547
▁salamander	-13.0547
▁substrate	-13.0547
▁suspicion	-13.0547
stellar	-13.0547
▁Answer	-13.0547
▁Chopin	-13.0547
▁circulate	-13.0547
▁discourage	-13.0547
▁evolutionarily	-13.0547
▁secrecy	-13.0547
▁Hulk	-13.0547
▁dispense	-13.0547
▁Babies	-13.0547
▁Eliot	-13.0547
▁razor	-13.0547
▁rifle	-13.0547
righteous	-13.0548
▁Knee	-13.0548
Travel	-13.055
colonization	-13.055
avoidance	-13.058
flux	-13.0623
stranded	-13.0635
heikh	-13.086
▁intersect	-13.0943
ncyclopedia	-13.0962
Built	-13.0964
▁Yugoslav	-13.0964
▁detriment	-13.0964
Intelligent	-13.0964
barbecue	-13.0964
neutrino	-13.0964
▁Aquarium	-13.0964
▁Architects	-13.0964
▁Boltzmann	-13.0964
▁Calcutta	-13.0964
▁Excel	-13.0964
▁Ghraib	-13.0964
▁Hirshhorn	-13.0964
▁Jenesis	-13.0964
▁Literally	-13.0964
▁Marduk	-13.0964
▁Rainforest	-13.0964
▁Specifically	-13.0964
▁Spinosaurus	-13.0964
▁Studies	-13.0964
▁Traffic	-13.0964
▁Veteran	-13.0964
▁academia	-13.0964
▁advocacy	-13.0964
▁appendage	-13.0964
▁arousal	-13.0964
▁brink	-13.0964
▁cursor	-13.0964
▁demonstrating	-13.0964
▁eclipse	-13.0964
▁electoral	-13.0964
▁embroidery	-13.0964
▁epidemiologi	-13.0964
▁eternity	-13.0964
▁fragrance	-13.0964
▁hexagon	-13.0964
▁hologram	-13.0964
▁hyacinth	-13.0964
▁implies	-13.0964
▁incidence	-13.0964
▁inclusion	-13.0964
▁inflection	-13.0964
▁invisibility	-13.0964
▁kidnapped	-13.0964
▁kidnapping	-13.0964
▁lexicograph	-13.0964
▁maternal	-13.0964
▁miscarriage	-13.0964
▁monarchy	-13.0964
▁monumental	-13.0964
▁ominous	-13.0964
▁pellets	-13.0964
▁photosynthesis	-13.0964
▁progeria	-13.0964
▁prolific	-13.0964
▁psychotherapy	-13.0964
▁redefining	-13.0964
▁rehearse	-13.0964
♫	-13.2914
