▁	312424
,	274139
.	224726
__SEP__	220736
s	194729
▁the	174410
▁to	111941
'	109667
▁of	101449
▁a	95385
▁and	95147
▁that	79344
▁I	74334
▁in	68894
▁is	55960
▁it	54897
▁you	54602
▁we	49316
t	40636
▁And	38018
▁this	36509
-	28057
▁was	27302
0	26248
▁for	25710
re	25597
▁are	24601
▁have	24128
▁people	23646
ing	23443
▁they	23287
▁on	22707
▁--	21711
▁with	21621
d	21559
▁can	20991
ed	20827
▁So	20481
?	19733
▁what	19239
▁be	19066
▁about	18634
▁at	16675
▁as	16643
▁not	16133
▁do	16075
▁all	16048
m	16024
▁one	14979
▁there	14938
▁my	14274
▁so	14206
▁like	14188
▁"	13974
▁It	13928
▁from	13590
▁world	13176
▁time	12948
▁but	12868
▁an	12660
:	12426
1	12405
▁our	12085
▁or	11994
▁years	11917
▁just	11875
▁We	11634
ly	11401
▁out	11362
▁But	11203
▁me	11200
▁if	11051
▁these	11019
ve	11006
▁things	10940
▁know	10725
▁very	10505
▁them	10383
▁The	10381
▁up	10367
▁by	10197
▁he	10072
▁going	10020
▁when	9818
▁because	9643
▁more	9617
▁had	9576
er	9554
▁make	9293
▁see	9275
y	9266
▁think	9235
▁who	9148
▁were	8992
e	8992
▁their	8876
▁which	8794
▁your	8733
p	8613
▁would	8577
▁how	8523
▁really	8473
▁get	8352
▁thing	8169
c	8087
2	8025
▁us	7857
r	7706
▁life	7705
▁back	7676
▁work	7658
▁here	7521
▁then	7493
▁has	7412
n	7299
▁This	7228
▁some	7142
▁don	7125
▁into	7119
▁You	7109
▁actually	6988
al	6841
▁want	6835
▁way	6835
o	6741
▁will	6703
▁where	6675
▁go	6649
a	6648
▁lot	6622
ll	6596
▁good	6556
▁now	6517
▁other	6411
▁kind	6360
▁Now	6339
g	6330
▁could	6310
▁They	6101
▁been	6090
u	6040
▁percent	5967
es	5738
▁said	5687
▁no	5680
5	5534
b	5529
in	5488
▁day	5423
▁something	5411
▁over	5371
▁right	5341
▁two	5308
▁than	5274
▁those	5251
▁first	5187
▁In	5151
▁A	5085
▁fact	5062
▁put	5047
▁also	5003
▁got	4885
▁much	4841
▁little	4827
le	4746
▁look	4732
▁say	4653
▁talk	4636
▁That	4625
9	4557
▁year	4554
▁today	4531
▁only	4521
▁she	4484
▁thought	4469
▁his	4456
▁change	4434
▁need	4425
▁most	4410
▁made	4404
en	4374
▁find	4328
▁even	4288
▁idea	4275
▁human	4252
▁called	4199
▁many	4186
▁great	4166
▁take	4153
▁problem	4133
▁started	4118
▁S	4095
▁new	4029
i	3990
3	3965
ic	3953
▁did	3952
▁brain	3933
▁story	3904
▁around	3894
▁What	3892
▁important	3884
▁different	3839
▁big	3832
▁He	3827
▁ago	3796
▁♫	3783
▁down	3768
▁her	3749
▁system	3747
▁There	3742
▁water	3737
▁bit	3698
▁use	3666
▁give	3660
▁start	3632
▁question	3630
▁part	3587
or	3586
▁show	3578
▁through	3557
▁place	3526
▁same	3523
▁data	3506
▁come	3501
▁every	3491
l	3446
▁technology	3419
an	3417
ur	3416
th	3404
f	3371
▁women	3361
ri	3355
▁being	3342
▁love	3314
▁three	3307
;	3298
▁point	3290
▁doing	3273
▁end	3264
▁long	3251
▁well	3226
ch	3207
ra	3202
4	3188
▁If	3183
▁E	3166
ation	3158
▁million	3123
ter	3114
▁found	3109
▁wanted	3075
ers	3072
▁any	3056
it	3050
▁Africa	3043
▁school	3000
▁understand	2997
▁children	2927
8	2895
▁Well	2894
▁real	2865
▁person	2847
▁Earth	2825
la	2808
▁feel	2798
▁tell	2792
▁power	2786
▁why	2772
ar	2761
▁live	2757
▁call	2747
il	2746
▁sort	2714
ion	2708
▁country	2707
▁F	2703
li	2700
▁after	2673
S	2669
▁own	2664
▁didn	2663
▁money	2641
on	2639
▁information	2638
w	2632
el	2630
▁thinking	2626
ity	2616
▁let	2602
▁should	2593
▁design	2592
▁last	2577
▁space	2576
▁C	2566
▁un	2565
6	2553
k	2543
▁working	2541
▁kids	2540
▁man	2540
v	2500
▁home	2499
▁future	2494
▁light	2493
able	2472
▁went	2450
▁might	2440
▁better	2435
▁car	2428
▁number	2396
▁before	2395
▁de	2390
I	2387
▁course	2365
▁another	2363
▁hand	2358
▁hard	2357
ent	2356
▁off	2353
▁times	2337
ma	2332
▁left	2331
▁able	2325
▁food	2322
▁happened	2319
▁body	2317
lo	2314
▁never	2313
▁room	2309
▁play	2301
us	2298
▁dollars	2298
▁still	2288
▁energy	2284
▁stuff	2283
▁Internet	2281
▁high	2279
7	2273
de	2271
▁moment	2268
▁side	2265
▁together	2262
▁create	2260
▁T	2244
▁small	2243
▁science	2238
▁him	2225
"	2224
▁countries	2222
▁interesting	2219
z	2215
▁men	2212
▁sense	2212
ac	2207
ate	2205
▁happen	2205
x	2169
▁next	2168
▁talking	2165
▁came	2153
▁building	2152
▁told	2150
▁America	2144
ul	2131
ce	2130
ne	2129
▁God	2122
▁B	2119
se	2119
▁TED	2113
▁few	2102
▁again	2086
▁social	2072
▁reason	2070
▁India	2070
▁When	2066
▁used	2066
▁United	2066
▁lives	2057
▁does	2056
▁between	2048
▁mean	2045
▁each	2043
▁too	2028
▁simple	2019
▁States	2016
▁family	2010
ness	2006
▁build	2005
▁learn	1999
▁G	1988
▁making	1987
ment	1984
,"	1981
▁picture	1981
▁mind	1971
▁days	1966
▁case	1963
▁experience	1963
▁pretty	1958
▁care	1951
ha	1950
▁billion	1932
▁p	1924
▁looking	1922
▁process	1914
▁bad	1914
▁asked	1911
▁planet	1902
▁hope	1902
as	1897
▁example	1892
▁remember	1887
▁answer	1876
▁coming	1873
▁wrong	1869
▁city	1866
▁project	1863
▁doesn	1862
▁done	1855
▁open	1850
▁help	1849
▁head	1846
▁computer	1844
▁whole	1843
▁problems	1842
▁China	1840
▁ever	1839
h	1836
▁Because	1829
▁half	1825
▁Yeah	1822
▁set	1817
C	1810
is	1806
▁believe	1802
▁true	1801
ive	1792
▁makes	1790
te	1788
ol	1787
▁book	1786
▁four	1784
▁business	1773
▁living	1771
▁community	1763
▁young	1759
▁move	1754
▁matter	1751
▁age	1742
A	1741
▁child	1736
▁always	1731
▁trying	1731
est	1726
▁health	1724
▁ideas	1722
▁guy	1720
▁cancer	1719
▁cells	1715
▁top	1715
▁imagine	1713
▁try	1710
▁war	1707
▁away	1703
ca	1700
▁amazing	1695
▁job	1680
▁may	1679
▁looked	1672
▁history	1671
▁control	1670
▁American	1670
▁words	1669
▁read	1668
▁months	1663
et	1657
▁R	1655
▁basically	1633
▁U	1626
▁York	1626
!	1625
▁run	1618
▁inside	1614
▁face	1613
▁public	1613
▁music	1606
▁single	1606
▁means	1601
▁using	1599
▁How	1596
mp	1594
▁co	1592
▁minutes	1587
▁night	1584
ry	1581
▁She	1581
ist	1579
▁five	1579
▁global	1578
▁model	1574
▁word	1569
▁universe	1569
to	1568
▁took	1566
▁maybe	1563
▁education	1556
▁form	1551
▁works	1551
▁beautiful	1550
ant	1549
▁am	1547
▁heard	1545
ie	1543
▁line	1542
▁heart	1540
▁language	1540
un	1535
▁My	1535
▁stop	1535
▁For	1529
▁become	1523
age	1517
▁order	1513
▁species	1513
▁group	1510
up	1507
▁friends	1506
▁everything	1504
man	1502
▁old	1502
▁nature	1499
at	1494
▁second	1493
▁One	1492
▁couple	1486
▁under	1483
ta	1480
▁P	1476
os	1475
▁stories	1475
co	1470
▁best	1469
ies	1469
▁video	1467
▁As	1466
▁turn	1463
▁questions	1460
▁enough	1452
mo	1448
▁research	1447
▁getting	1442
ho	1441
▁government	1439
▁animals	1437
▁knew	1435
▁past	1434
▁hear	1431
▁happening	1425
▁piece	1424
▁People	1419
▁quite	1413
▁hours	1411
ting	1410
▁DNA	1410
▁society	1408
▁learned	1406
▁comes	1405
▁D	1403
▁bring	1403
▁No	1402
D	1400
▁woman	1399
▁less	1394
▁decided	1390
▁share	1388
▁These	1388
▁students	1387
▁ask	1385
▁century	1382
▁self	1381
▁level	1378
▁mother	1373
▁study	1372
▁built	1371
▁places	1370
▁probably	1366
▁sound	1352
▁game	1352
▁happy	1351
▁art	1347
▁without	1343
▁disease	1340
▁O	1333
ia	1322
rs	1320
▁view	1320
▁land	1318
▁environment	1314
▁air	1310
M	1308
▁paper	1303
▁free	1302
▁company	1302
▁state	1299
▁house	1299
▁guys	1291
▁completely	1284
ty	1284
ian	1281
▁anything	1276
▁Here	1275
▁such	1273
ut	1270
▁walk	1269
▁All	1268
▁per	1266
▁team	1266
ism	1265
▁saw	1264
▁turns	1260
▁across	1250
▁Thank	1248
▁huge	1247
ci	1246
▁eyes	1246
▁Let	1246
▁machine	1244
ine	1235
▁front	1233
ck	1232
▁black	1232
▁pre	1229
▁New	1227
▁says	1225
▁English	1223
be	1221
▁far	1220
▁worked	1217
bi	1217
▁scale	1216
▁lots	1215
▁death	1215
▁seen	1215
▁father	1213
▁cities	1210
ated	1210
▁close	1209
▁later	1207
▁large	1206
▁cell	1203
▁taking	1203
▁else	1200
P	1196
▁difference	1194
▁Re	1193
hi	1190
▁created	1187
ally	1182
▁having	1181
tic	1179
▁changed	1176
▁early	1176
▁easy	1175
▁ways	1171
▁goes	1171
▁figure	1170
▁systems	1169
▁kinds	1169
▁grow	1168
op	1167
▁oil	1167
▁happens	1163
▁learning	1163
▁population	1159
na	1155
tion	1154
▁market	1153
vi	1152
▁Google	1152
Z	1152
▁keep	1151
▁reality	1146
’	1143
▁Europe	1140
R	1135
ized	1133
▁N	1133
▁World	1132
▁fish	1129
ge	1128
▁finally	1127
▁To	1125
ba	1125
▁W	1121
▁con	1116
▁natural	1115
▁hands	1112
▁pay	1111
▁area	1110
▁almost	1108
▁M	1107
less	1107
▁gave	1103
▁while	1102
▁culture	1102
▁Do	1101
▁common	1100
▁beginning	1100
▁Ma	1099
▁saying	1099
▁deal	1098
▁leave	1096
▁short	1091
▁six	1090
▁thousands	1090
▁difficult	1087
▁already	1087
ling	1085
▁surface	1083
▁nothing	1082
▁image	1082
▁feet	1079
▁yet	1078
▁cost	1077
▁both	1076
▁dis	1072
▁fear	1068
id	1067
▁test	1066
am	1064
▁challenge	1063
▁phone	1061
▁media	1061
▁wonderful	1060
▁once	1059
▁ocean	1058
L	1058
▁whether	1056
▁possible	1056
▁size	1056
▁often	1051
▁turned	1050
▁week	1049
▁powerful	1046
▁needed	1045
▁someone	1045
com	1044
▁entire	1044
▁middle	1038
ous	1037
▁parents	1036
▁began	1034
▁within	1033
▁program	1033
▁full	1029
▁companies	1027
T	1025
▁Or	1025
▁moving	1025
▁V	1023
▁myself	1019
▁looks	1019
▁felt	1018
▁South	1018
▁longer	1016
sh	1015
▁Chinese	1014
▁Why	1013
▁pro	1012
▁poor	1010
▁red	1008
▁local	1008
▁rest	1001
▁ground	1001
em	1001
▁quickly	998
▁sure	998
▁die	995
um	993
ted	990
▁behavior	988
▁terms	987
▁stage	986
O	985
▁amount	985
▁realized	984
▁opportunity	983
▁spend	983
▁K	982
▁buy	982
old	981
bo	978
▁morning	978
▁growth	977
▁sea	977
ary	975
ance	970
▁interested	970
ating	969
▁Mo	968
E	968
▁wasn	963
pe	961
ir	961
▁parts	959
▁economy	958
▁nice	953
ad	953
▁color	951
▁weeks	950
▁kid	949
ize	947
▁support	947
▁cool	946
▁humans	946
▁experiment	946
▁blood	946
▁fun	942
ton	941
▁simply	939
▁field	936
▁speak	932
▁step	930
▁write	930
▁green	929
▁until	927
▁blue	926
▁political	926
the	926
▁must	924
fi	924
[	923
ble	923
▁De	922
▁met	920
▁feeling	919
bu	918
]	918
▁eat	917
▁patients	916
▁stand	915
▁innovation	913
▁name	913
▁everybody	912
▁fire	912
▁lost	912
▁numbers	910
▁Chris	909
B	909
ical	908
▁audience	906
me	905
▁issue	904
▁girl	903
▁hold	902
▁won	902
▁act	900
▁guess	899
▁isn	899
▁economic	899
▁spent	898
▁film	898
▁born	897
▁incredible	896
mi	894
▁became	893
▁complex	892
▁watch	892
▁map	890
▁clear	890
▁friend	889
line	888
▁average	887
▁key	887
▁though	886
di	885
ow	885
▁animal	885
▁War	884
▁white	883
ver	883
▁chance	882
▁network	881
▁books	881
▁low	881
▁areas	879
om	879
▁produce	878
▁At	877
▁structure	877
▁since	876
ard	875
ful	873
Q	872
▁climate	870
▁material	868
▁exactly	867
▁forward	866
▁miles	864
▁theory	862
▁measure	862
▁attention	862
▁robot	861
▁dead	860
▁shows	859
▁individual	858
▁bottom	858
▁ability	858
mer	858
▁somebody	857
nt	856
▁fly	856
▁itself	854
▁gets	853
▁risk	853
▁dark	850
ring	849
cy	849
▁lab	849
▁sub	848
▁realize	846
▁West	845
▁impact	844
▁sex	843
▁technologies	841
▁cut	841
▁scientists	839
▁HIV	839
▁solution	838
▁access	838
▁ourselves	837
▁North	837
▁against	836
ga	833
▁result	832
▁Man	832
▁images	831
▁themselves	829
▁knowledge	824
▁sitting	824
▁sometimes	822
▁along	821
▁table	820
▁tools	820
▁voice	820
▁movement	819
▁African	817
ach	813
▁force	812
▁girls	811
▁third	810
▁literally	809
▁couldn	808
▁truth	808
ish	807
▁cars	805
▁special	805
▁baby	805
▁OK	803
ial	802
side	802
▁sun	802
▁approach	801
ni	801
▁issues	800
▁seven	797
▁son	795
▁eye	795
▁Ba	794
▁rather	793
▁development	793
▁pick	793
▁particular	792
ig	790
▁office	790
▁journey	789
K	788
N	787
▁reasons	787
▁perfect	786
▁least	785
he	784
▁code	784
▁explain	782
▁outside	782
▁fast	782
▁growing	781
▁Then	781
▁ex	779
▁others	779
▁brought	777
▁everyone	776
▁non	776
▁normal	775
▁wrote	773
▁industry	773
▁news	773
▁running	771
▁deep	771
▁understanding	770
▁Today	770
wa	770
▁talked	769
—	769
▁meet	768
▁dream	768
▁choice	767
ru	767
▁personal	765
▁screen	764
▁patient	764
▁physical	763
▁telling	762
▁based	762
son	762
▁break	761
▁situation	761
▁instead	761
▁online	761
▁ice	760
▁door	759
▁solve	758
▁law	755
▁shape	754
▁giving	753
▁street	751
▁...	751
dy	750
▁fall	750
▁Be	749
▁center	748
▁response	746
▁starting	745
ip	743
ator	743
▁focus	742
▁present	741
▁sit	740
▁similar	739
▁taken	739
The	739
▁vision	739
▁hundreds	738
▁object	738
▁box	737
▁class	736
ot	735
uc	734
▁period	733
mon	733
▁success	733
▁Me	731
▁pictures	730
▁plant	730
▁developed	728
▁product	728
▁resources	726
▁star	725
▁absolutely	722
▁Americans	722
no	722
▁computers	721
▁evidence	720
▁arm	720
▁drugs	720
▁stay	719
year	719
▁rate	718
▁Some	717
▁wall	717
▁millions	714
▁Mars	713
▁East	713
▁schools	712
▁discovered	710
▁Okay	710
▁bigger	710
▁recently	708
▁rules	706
ns	706
▁generation	705
▁message	705
go	704
▁yeah	704
▁bio	703
▁effect	703
▁designed	702
▁Le	702
▁drive	701
▁type	701
▁certain	701
per	700
▁wind	698
tra	698
▁eight	697
▁carbon	697
▁save	697
▁relationship	697
▁Indian	697
▁given	696
▁City	696
▁begin	694
▁cr	694
▁send	693
log	692
▁trust	691
▁camera	690
▁San	690
during	690
▁showed	689
▁list	688
▁yourself	688
▁playing	688
▁Co	687
ran	686
▁month	686
▁groups	686
▁behind	685
▁follow	684
▁listen	683
▁changing	683
▁perhaps	682
▁revolution	682
X	680
▁tiny	679
▁writing	679
▁sleep	679
▁device	679
ious	678
nd	678
▁concept	677
▁fine	676
▁takes	675
ah	675
▁meaning	675
▁seeing	672
▁stick	671
▁wait	671
▁lose	671
▁action	669
▁involved	668
▁mass	668
▁mine	668
▁smart	668
▁Imagine	667
▁reach	665
▁needs	664
♪	664
ped	663
▁solar	663
ization	662
▁cannot	662
ill	662
▁develop	662
▁goal	661
▁add	661
▁boy	661
▁skin	661
▁software	660
▁drug	659
▁Just	658
▁medicine	658
time	657
▁continue	657
▁basic	657
▁speed	656
▁evolution	655
gu	654
G	654
con	654
▁London	654
▁Ho	653
▁Sa	652
▁exciting	651
gen	651
▁Pa	649
▁teachers	649
▁teach	648
▁fight	646
▁store	645
▁died	645
▁price	644
▁favorite	644
▁plan	644
▁thank	643
▁Afghanistan	643
▁medical	641
▁sounds	640
▁digital	640
▁role	640
▁general	639
▁village	638
▁incredibly	637
▁bar	637
▁ready	637
▁tried	636
▁violence	636
▁modern	635
▁expect	635
▁tend	635
H	635
▁hot	634
▁whatever	634
▁safe	634
▁materials	633
▁lived	633
▁late	632
▁Can	630
▁games	630
▁compassion	630
▁CA	630
▁developing	629
▁leaders	629
▁University	627
▁crazy	627
▁major	627
▁worth	626
▁treatment	626
▁Western	626
▁creating	626
▁California	626
▁memory	626
▁notice	626
▁Y	625
▁potential	625
we	625
ak	625
▁context	625
▁touch	624
▁hour	624
▁clean	624
▁perspective	623
▁v	623
fe	623
▁hundred	622
▁position	621
▁robots	621
▁increase	620
che	619
▁changes	619
▁Ka	619
▁results	618
▁square	618
F	618
▁plants	618
▁road	618
▁strong	617
▁secret	617
▁value	616
ities	614
▁shot	614
▁tree	614
ap	614
nce	612
▁jobs	611
▁happiness	611
▁hit	610
▁college	610
do	610
▁ball	610
▁pattern	609
▁flow	609
▁John	608
▁tool	608
▁poverty	608
▁democracy	608
▁worse	607
▁crisis	606
▁anymore	605
▁Facebook	605
▁path	603
▁Ha	603
▁models	602
▁cases	601
▁genes	601
and	600
▁gone	600
▁hospital	600
▁starts	600
hu	598
▁communities	598
▁known	597
▁L	597
▁kill	597
▁creative	596
tor	595
▁either	594
▁spread	594
▁provide	593
▁trees	592
fa	591
▁excited	591
▁national	591
▁minute	591
▁security	590
▁police	590
▁individuals	590
▁gas	589
ists	589
▁movie	589
▁On	588
▁visual	588
▁putting	588
ke	588
▁choose	587
if	587
▁totally	587
▁Ca	587
▁super	586
▁families	586
▁Our	585
▁inter	585
lic	584
▁waste	584
oo	583
▁walking	583
▁pain	582
ward	582
▁slow	582
que	581
▁alive	581
▁quality	580
▁biggest	580
▁track	580
▁bed	579
▁Not	578
ang	577
▁projects	576
▁moral	576
Well	575
▁exist	575
▁moved	575
▁shift	575
ny	574
▁Ro	573
▁showing	572
▁teacher	572
▁faster	571
▁higher	571
▁record	571
▁conversation	571
▁objects	571
▁student	570
▁progress	570
▁wife	570
▁micro	570
▁watching	569
▁grew	569
▁Right	566
▁impossible	566
ray	566
▁La	565
▁plastic	565
▁scientific	564
▁eventually	564
▁forest	564
iv	563
ative	563
▁career	563
land	562
▁doctor	562
▁search	561
▁Li	560
▁fit	560
▁board	560
ab	560
▁conflict	559
▁post	558
▁rich	557
▁complicated	557
▁region	557
out	557
way	556
▁fuel	556
▁bacteria	556
▁including	556
▁Great	556
▁finding	555
ka	555
▁recognize	555
▁website	554
▁supposed	554
▁stars	552
▁floor	551
▁killed	551
▁positive	550
▁travel	550
▁win	549
▁wouldn	549
▁Go	549
▁activity	549
▁extremely	548
▁train	548
▁organization	547
▁main	547
▁connected	547
▁page	547
▁version	547
▁brains	546
▁text	545
▁taught	545
▁cold	545
ff	545
▁sky	544
▁content	543
ite	543
▁check	543
▁daughter	542
▁prison	542
▁Ki	540
▁older	540
▁count	539
▁thousand	539
izing	539
▁decision	539
You	538
▁Hu	538
▁extraordinary	538
▁lead	537
▁biology	537
ever	537
▁Hey	537
▁source	536
▁buildings	536
▁largest	536
."	535
▁attack	535
▁song	535
▁physics	535
▁machines	534
▁workers	534
ki	534
▁purpose	534
▁instance	533
▁allowed	532
▁math	531
▁meant	531
▁suddenly	531
▁dangerous	530
▁successful	529
▁freedom	528
▁cat	528
▁essentially	527
▁training	527
▁Twitter	527
▁genetic	526
▁Good	525
▁report	525
ging	525
▁ended	525
▁electricity	524
▁An	524
▁led	524
▁Bill	524
▁respond	522
▁alone	522
▁nuclear	520
men	519
▁conditions	519
▁site	518
qui	518
ture	518
▁treat	516
▁pull	516
▁Iraq	516
▁address	515
▁reading	515
What	515
▁solutions	515
▁By	515
▁studies	515
▁interest	515
▁connect	515
▁standing	514
ors	514
▁protect	513
lan	513
▁female	513
W	512
▁fundamental	512
▁service	512
▁critical	511
▁subject	511
▁drop	511
▁dog	511
▁web	510
▁decisions	510
▁National	510
led	510
▁Brazil	510
ex	509
▁sell	509
▁patterns	509
▁mom	509
▁larger	508
▁respect	508
▁Con	507
▁David	507
▁pressure	507
▁points	506
▁shown	506
▁traditional	506
▁products	506
▁strange	506
▁quick	505
▁anyone	505
▁temperature	505
▁Japan	505
▁bunch	505
▁European	505
▁expensive	504
▁app	504
▁virus	504
ping	502
▁pieces	502
▁lower	501
like	501
▁seems	500
▁policy	500
▁decide	500
▁architecture	499
▁race	499
▁Bo	499
▁direction	499
▁lines	498
▁gives	497
ions	496
▁aid	496
▁skills	496
▁extra	496
▁intelligence	495
▁smaller	495
▁Washington	495
▁minds	495
▁mental	494
▁affect	493
▁practice	493
▁accident	493
▁hair	492
▁draw	492
▁Asia	492
ps	491
▁unique	491
▁Audience	491
▁communication	490
▁worry	490
▁forms	489
▁legs	489
ight	489
▁stress	489
end	488
▁Cha	488
▁meters	488
ning	487
▁loved	487
▁flu	487
▁neurons	487
▁Web	486
▁return	486
▁specific	485
▁French	484
▁rise	484
▁park	483
▁military	483
ile	483
▁feed	482
▁cu	482
▁bodies	482
▁international	481
▁cross	481
▁weight	481
▁survive	480
pro	480
▁foot	480
ner	480
▁Dr	479
ible	479
▁earlier	478
▁healthy	478
▁allow	477
▁email	476
use	476
▁peace	476
har	475
▁trade	475
▁capital	474
▁gr	474
▁famous	474
▁Al	474
ris	474
▁H	474
▁function	474
▁Car	474
ger	473
▁rule	473
▁sign	473
▁Pro	473
▁AIDS	473
▁financial	472
▁familiar	472
▁term	471
▁Su	471
▁immediately	471
▁account	471
▁performance	470
▁listening	470
red	470
▁rain	469
▁failure	469
▁ran	469
▁forget	468
▁range	468
▁diseases	466
▁massive	466
by	466
▁humanity	466
▁effective	466
▁dance	466
▁beauty	465
▁fantastic	465
▁wealth	464
▁seem	464
ja	464
▁bomb	463
▁press	463
▁decade	463
▁photo	463
▁town	462
▁demand	462
▁yes	461
▁current	461
▁doctors	461
▁waiting	461
▁heat	460
▁boat	459
▁soon	459
▁available	458
▁sorts	458
▁asking	458
par	457
▁predict	457
▁choices	457
▁institutions	457
▁Mi	457
▁charge	456
▁Life	456
▁enormous	456
▁differently	455
▁obvious	455
▁imp	455
▁costs	455
▁religion	454
▁river	454
ology	453
▁raise	453
▁haven	452
▁trouble	452
▁target	452
▁especially	452
V	452
▁Ta	451
▁politics	451
▁ahead	451
▁atmosphere	451
▁anti	450
▁magic	449
den	449
▁degrees	448
▁decades	448
▁Te	445
▁legal	445
▁photograph	445
▁babies	445
▁Bi	444
▁corner	444
▁Di	443
▁named	442
▁prevent	441
▁production	441
▁blind	441
▁enjoy	441
▁mission	441
▁slide	441
▁becomes	440
▁series	440
▁communicate	440
▁sand	440
▁meeting	439
▁actual	438
▁creativity	438
▁income	438
▁Yes	437
▁walked	437
▁radio	437
▁Ja	437
▁distance	437
▁GDP	437
▁written	436
▁private	436
▁Big	436
▁genome	435
▁agree	435
▁answers	435
rt	435
▁explore	434
▁stopped	434
▁dad	434
▁spot	433
▁sat	432
▁England	432
one	432
▁challenges	432
▁afraid	432
▁towards	431
▁First	431
lit	431
▁visit	431
▁push	430
▁services	430
▁British	430
▁infrastructure	429
▁beyond	429
▁Australia	429
▁edge	429
▁several	428
▁Oh	428
ov	428
▁governments	428
▁match	427
ther	427
▁nine	427
▁connection	427
van	427
▁Middle	427
▁wish	426
▁driving	425
ain	425
▁terrible	425
▁final	425
▁Anderson	425
cal	425
▁Every	424
▁Kenya	424
▁Ph	423
▁laws	423
▁George	423
▁male	423
▁Se	422
ium	422
▁landscape	422
▁levels	422
▁fix	422
▁gun	422
▁Gu	421
▁cover	421
▁citizens	421
med	421
▁Ar	421
▁active	421
▁sent	420
▁summer	420
▁colleagues	420
▁aren	420
da	420
▁teaching	420
▁likely	420
▁Germany	420
▁boys	420
▁funny	419
ari	419
▁chair	418
▁engine	418
▁task	418
light	418
▁Don	418
▁sector	418
▁After	418
▁cycle	417
▁mobile	417
▁apply	417
▁emotional	416
▁onto	416
▁Lo	416
▁passion	416
▁remarkable	416
▁speech	416
lin	416
ding	415
▁Sha	415
▁With	414
▁relationships	414
▁gene	414
▁Sun	414
▁invented	414
▁responsibility	413
▁event	413
▁sick	413
▁nation	413
vis	413
▁rock	412
▁Of	412
off	412
▁understood	412
▁greatest	411
▁bridge	411
▁tissue	410
▁argue	410
▁Mu	410
▁television	410
▁conference	409
▁crime	409
▁dying	409
▁dreams	408
▁anybody	408
▁link	408
▁Mexico	408
▁types	408
▁surgery	407
▁bear	407
▁Si	407
▁block	407
hy	406
▁sentence	405
▁ship	404
▁professional	404
▁smell	404
▁bank	404
▁mis	404
▁Who	403
ob	403
▁Maybe	403
▁Ga	403
▁experiments	403
▁artist	403
▁join	403
▁engineering	403
▁states	403
▁oxygen	402
▁rights	401
▁condition	401
▁switch	401
▁Richard	401
▁describe	401
▁MIT	400
▁sequence	400
▁organizations	400
▁planets	400
▁improve	400
▁effects	400
▁examples	399
▁camp	399
▁straight	399
ability	398
▁slightly	398
▁devices	398
▁jump	398
▁forever	398
▁feels	397
istic	397
▁classroom	397
▁Jo	397
▁aware	396
▁particularly	395
▁character	395
▁St	395
▁card	395
▁investment	395
▁rid	394
▁campaign	394
▁popular	393
▁certainly	393
▁Einstein	393
▁wild	393
▁complexity	392
▁greater	392
▁further	391
▁okay	391
▁consider	389
▁complete	389
▁designers	389
▁streets	388
▁capacity	388
▁helped	388
▁shared	388
▁vote	387
ably	387
▁drawing	387
ju	387
▁supply	387
▁importantly	387
cent	387
▁glass	386
▁flying	386
▁closer	386
▁consciousness	386
▁random	386
▁obviously	385
rate	385
▁lucky	385
▁pop	385
ake	385
ign	385
▁leg	385
▁among	384
▁birth	384
▁markets	384
▁J	384
▁worst	383
▁urban	383
au	383
▁roll	383
▁nobody	382
▁standard	382
▁zero	382
▁sad	382
▁cause	381
▁identity	381
▁programs	380
▁Even	380
▁express	379
▁window	379
▁everywhere	379
val	379
ey	379
▁societies	379
rat	379
▁scientist	378
▁balance	378
▁sustainable	378
▁airplane	377
Oh	377
▁matters	377
▁paid	376
fer	376
▁reduce	376
▁Wow	376
▁missing	376
▁Che	376
▁tough	376
▁Amazon	376
▁broken	376
lock	375
▁noticed	374
▁throw	374
▁Dan	374
▁pounds	374
▁environmental	374
▁Are	374
▁near	374
▁Most	373
▁easily	373
▁definition	373
▁total	373
▁speaking	373
▁husband	373
▁networks	373
king	372
▁efficient	372
▁molecules	372
▁hole	372
▁honest	372
ified	371
q	371
▁cultural	371
▁continent	371
air	371
▁afford	370
▁gap	370
mar	370
ship	369
▁quote	369
▁imagination	369
han	369
▁played	369
term	368
▁island	368
▁background	368
▁serious	368
▁multi	367
▁differences	367
▁plane	367
U	367
meter	367
▁bus	367
▁graph	366
▁bought	365
▁flight	365
▁Po	365
▁stem	364
▁NASA	364
ler	364
▁accept	364
▁tells	364
ord	364
▁avoid	363
▁threat	363
▁Nigeria	363
▁alternative	362
No	362
▁biological	362
▁please	362
▁party	362
▁interview	362
▁trip	362
ou	362
▁hearing	362
▁catch	361
▁President	361
▁cave	361
▁bees	361
▁farm	360
▁noise	360
chi	359
▁brand	359
▁puzzle	359
▁chain	359
▁evolved	359
▁Ben	359
▁possibly	359
▁birds	358
▁civilization	358
ib	358
▁crowd	358
▁museum	357
▁experiences	357
▁lights	357
▁weird	357
▁helping	357
▁Times	356
▁coffee	356
▁scene	356
▁earth	356
▁bottle	356
▁trial	355
▁Vi	355
▁emotions	355
▁Mar	355
▁mountain	355
ries	355
▁original	354
▁transform	354
▁depend	354
ng	354
▁surprise	354
▁moon	354
▁achieve	353
▁published	353
uff	353
▁opposite	353
▁offer	352
▁justice	352
▁recent	352
▁operation	352
▁Iran	352
▁Street	352
▁Center	351
▁bread	351
▁above	351
py	351
▁flag	351
hand	350
▁mouth	350
▁Pi	350
let	349
▁diversity	349
▁carry	349
▁paint	349
ack	349
▁civil	349
▁somewhere	348
▁basis	348
af	348
▁date	348
▁significant	348
▁stuck	348
▁knowing	348
▁Harvard	348
▁Japanese	347
▁competition	347
ide	347
▁lack	346
aw	346
▁tremendous	346
▁Da	346
▁allows	346
▁notion	346
▁Where	346
▁discover	345
▁br	345
▁argument	345
rk	345
▁reward	345
▁reflect	345
▁collect	345
▁commercial	344
▁pass	344
▁forces	344
▁influence	344
▁desert	344
▁invest	344
▁easier	344
▁core	344
▁Lu	343
▁Human	343
▁Paul	343
▁brother	343
gy	342
▁interact	342
▁article	342
▁desire	342
▁Congress	342
▁directly	341
We	341
▁im	341
▁inspired	341
rus	341
▁Canada	341
ier	341
▁reaction	340
▁Look	340
▁proud	340
▁highly	339
▁opportunities	339
▁dive	339
▁Britain	339
▁struggle	339
▁Israel	338
▁spending	338
▁signal	338
▁horse	338
▁cheap	337
▁grade	337
▁TV	337
▁motor	336
▁Arab	336
ook	336
▁Those	336
▁France	336
▁chemical	336
▁truly	335
▁Sh	335
▁Like	335
▁gain	335
▁extreme	335
▁suffering	335
▁Francisco	335
▁Art	335
▁Los	335
▁soil	334
▁breast	334
▁foundation	334
▁damage	333
▁lunch	333
▁neighborhood	333
▁indeed	333
ay	332
▁eating	332
▁artists	332
▁phones	332
▁joy	332
▁wonder	332
▁gift	332
▁mouse	332
▁Ne	331
▁negative	331
▁central	331
▁finish	331
▁structures	331
▁fail	330
ina	330
▁labor	330
▁hell	330
▁letter	330
▁kept	330
▁fair	330
▁cloud	330
▁click	330
▁etc	329
▁bag	329
▁curve	329
▁smile	329
pit	329
▁satellite	329
▁tail	328
▁Darwin	328
▁equal	328
▁leadership	328
▁particles	328
▁engineer	328
▁figured	327
▁ultimately	327
▁painting	327
▁phenomenon	327
▁grand	326
▁bone	326
▁Steve	326
io	326
▁yellow	326
▁effort	325
▁moments	325
▁motion	325
▁metaphor	325
▁advantage	325
ee	324
▁lie	324
▁passed	324
▁document	323
▁fold	323
▁produced	323
▁university	323
▁hurt	323
▁Boston	322
▁tumor	322
▁adults	322
▁newspaper	322
▁bubble	322
▁possibility	322
▁School	322
▁roof	322
for	322
▁fund	322
▁usually	321
▁Un	321
▁deliver	320
▁somehow	320
▁members	320
gh	320
▁creates	320
▁professor	319
▁unit	319
▁marriage	319
form	319
▁creatures	318
▁upon	318
▁poem	318
▁creation	318
ory	318
ley	318
▁criminal	318
▁lesson	317
▁po	317
▁vast	317
kin	317
▁studying	317
▁oceans	317
▁tradition	317
▁fully	317
▁gay	317
▁strength	316
▁faith	316
▁spaces	316
▁giant	316
▁gender	316
▁expression	316
▁Ju	316
▁engineers	316
▁faces	315
▁farmers	315
▁wood	315
▁willing	315
▁Bu	315
▁breath	315
▁represent	314
▁Wi	314
work	314
▁sold	314
ice	314
▁Chicago	313
▁benefit	313
▁events	313
▁separate	313
▁walls	313
za	313
▁virtual	313
▁James	313
▁location	313
▁restaurant	312
▁drink	312
▁hate	312
▁heads	312
▁platform	312
▁sing	312
▁suit	312
▁stream	312
▁wear	311
▁fashion	311
▁organisms	311
▁seconds	311
▁Michael	311
▁patent	311
▁base	310
▁beat	310
ft	310
▁brings	309
▁score	309
▁beings	309
▁focused	309
▁contact	309
dimensional	309
▁Islam	309
ick	308
rap	308
▁pair	308
bringing	308
▁industrial	308
▁elements	308
▁gold	308
▁ants	308
▁mess	308
▁claim	308
▁benefits	308
▁sharing	307
▁strategy	307
▁engage	307
▁sister	307
▁turning	306
▁mechanism	306
▁raised	306
▁debate	306
▁disappear	306
▁becoming	306
▁para	306
▁remind	306
▁depression	306
▁weren	306
▁master	305
▁opinion	305
▁interface	305
▁president	305
▁epidemic	305
▁Sea	305
▁loss	305
▁seat	304
▁slowly	304
▁detect	304
▁insects	304
▁fascinating	304
▁failed	304
▁theater	304
▁honor	303
▁mirror	303
▁finished	303
▁anywhere	303
▁chip	303
▁autism	303
▁discovery	302
▁forth	302
▁magazine	302
▁era	302
▁method	302
▁Women	302
▁manage	302
▁degree	301
▁Russia	301
her	301
▁Am	301
▁trillion	301
▁kilometers	301
▁colors	301
▁married	301
▁climb	300
▁cap	300
▁attempt	300
▁German	300
▁sudden	299
▁necessarily	299
é	299
▁steps	299
▁pig	299
▁clearly	298
▁September	298
▁mathematics	298
▁coast	298
top	298
▁shoes	297
▁religious	297
▁Pakistan	297
▁Boy	297
ash	297
▁brilliant	296
▁Her	296
▁closed	296
based	296
over	295
▁throughout	295
▁bird	295
▁disaster	295
ration	295
▁topic	295
ham	295
▁Wikipedia	295
▁King	294
▁Talk	294
▁shop	294
▁Muslim	294
▁galaxy	294
▁odd	294
▁belong	294
▁held	294
▁wheel	294
▁budget	294
▁grandmother	294
▁double	293
ept	293
▁Bank	293
▁studied	293
▁Another	293
▁exists	292
▁childhood	292
▁Which	292
▁holding	292
▁May	292
▁prove	292
▁universal	291
▁profound	291
▁calls	291
▁release	291
▁weak	291
ock	290
▁Charles	290
▁trick	290
▁parent	290
▁opened	289
gram	289
▁exercise	289
▁ancient	289
▁wearing	289
▁circle	289
▁Valley	289
▁dinner	288
▁fat	288
▁invisible	288
▁note	288
▁worried	288
▁surprised	288
▁blog	288
▁Paris	288
▁Red	288
▁typical	287
▁himself	287
▁concerned	287
▁joke	287
▁stupid	287
▁fairly	287
well	287
▁wondering	287
▁safety	287
▁Two	286
▁principles	286
▁dollar	286
▁clinic	286
▁channel	286
/	286
▁businesses	286
▁traffic	286
▁galaxies	286
▁correct	286
wise	286
▁dress	286
▁GPS	286
press	285
▁June	285
▁leads	285
▁responsible	285
▁consequences	285
▁nervous	285
▁therefore	284
▁statistics	284
▁managed	283
▁discussion	283
▁pages	283
lon	283
▁detail	283
▁taste	283
▁fresh	283
▁chart	283
▁homes	283
▁harder	283
▁moves	282
▁except	282
▁frame	282
▁identify	282
▁layer	282
▁Many	282
▁mark	282
▁chicken	282
▁coral	282
▁believed	281
▁error	281
ise	281
bar	281
ug	281
▁agriculture	281
▁fighting	281
▁watched	281
▁values	281
▁saving	281
▁principle	280
▁due	280
▁designer	280
▁Day	280
▁mentioned	280
▁garden	280
▁dry	280
▁journalist	279
▁row	279
▁generations	279
▁warm	279
ular	279
▁malaria	279
▁Frank	279
▁surprising	278
▁letters	278
▁gentlemen	278
▁useful	278
▁limited	278
▁wave	278
▁cards	278
▁deeply	278
▁du	277
▁bright	277
▁molecule	277
▁include	277
▁factory	277
▁feedback	277
hr	277
▁Institute	277
▁display	277
▁Park	277
▁spirit	277
▁diet	277
▁fossil	276
▁equation	276
▁Ke	276
▁Green	276
?"	275
▁laptop	275
▁nose	275
▁caught	275
▁leader	275
▁promise	275
▁assume	275
▁adapt	275
▁Obama	275
▁electric	274
▁lifetime	274
▁ideal	274
▁interaction	274
▁received	274
▁qua	274
▁transformation	274
▁signals	274
▁fan	273
▁ride	273
▁appear	273
▁leaving	273
▁mistake	273
▁band	273
▁crash	272
▁mix	272
▁experts	272
▁tons	272
▁fill	272
▁Adam	272
▁State	272
▁invention	272
▁meat	272
▁Angeles	272
▁trained	271
▁Science	271
▁quiet	271
▁equipment	271
▁emissions	271
▁load	271
▁clip	271
J	271
▁contract	271
art	271
▁season	271
▁curious	271
▁various	270
▁following	270
▁narrative	270
▁button	270
▁although	270
▁round	270
▁Ge	270
▁pocket	270
▁telescope	270
▁serve	270
▁existence	270
▁occur	269
ana	269
▁healthcare	269
▁belief	269
▁Sweden	269
▁folks	269
▁related	269
▁expand	269
▁mid	269
▁sexual	269
▁compared	269
▁plate	269
▁testing	269
▁lay	268
▁billions	268
▁shoulder	268
▁perception	268
ual	268
▁Apple	268
ification	268
▁inequality	268
▁constantly	267
▁crack	267
▁anyway	267
▁cure	267
ust	267
▁collection	267
▁dimensions	267
▁tape	267
▁comfortable	267
▁protein	267
▁counter	266
▁copy	266
▁print	266
▁independent	266
▁survival	266
▁flat	266
▁wi	266
▁court	266
▁da	265
▁warming	265
▁metal	265
▁grown	265
▁begins	265
▁collective	265
▁medium	265
▁wide	265
▁hidden	265
▁wire	264
ko	264
▁soul	264
▁toilet	264
▁reform	264
▁Christmas	264
▁judge	264
▁Martin	264
▁insight	264
▁net	264
▁neuro	264
▁tens	264
▁weapons	264
▁exchange	264
▁Tom	264
all	263
▁artificial	263
▁partner	263
▁Hi	263
▁weather	263
▁fell	263
▁majority	262
▁stone	262
▁enable	262
▁Over	262
▁Har	262
gar	262
▁perfectly	262
▁Act	262
▁balloon	262
▁economics	261
▁Ten	261
▁Your	261
zi	261
▁tomorrow	261
▁profit	261
lum	261
▁member	261
sum	260
▁distribution	260
▁mostly	260
▁zone	260
▁quantum	260
▁causes	260
▁teeth	260
▁limb	259
▁circuit	259
▁videos	259
▁dynamic	259
▁arms	259
▁illness	259
ero	259
▁tube	259
▁From	259
▁foreign	259
▁sweet	259
▁Mc	259
urg	259
▁mothers	259
cast	259
▁cow	259
▁Basically	258
▁yesterday	258
▁movies	258
▁react	258
▁Global	258
▁invited	257
▁enter	257
▁saved	257
▁Remember	257
▁evil	257
▁practical	257
▁Christian	257
▁laugh	257
▁waves	257
▁reveal	257
▁planning	257
▁lawyer	256
▁January	256
▁launched	256
▁fields	256
net	256
▁transport	256
▁leading	256
▁holes	256
▁pen	256
▁clinical	256
▁vehicle	255
▁capable	255
▁intelligent	255
rop	255
ties	255
car	255
▁disc	255
▁House	254
▁below	254
▁deeper	254
▁Project	254
▁users	254
▁languages	254
▁battery	254
▁poetry	254
▁relative	254
▁everyday	254
▁comment	253
▁command	253
▁shapes	253
▁Thomas	253
▁tall	253
▁soldiers	253
▁operating	253
▁Think	253
▁factors	253
▁rev	253
▁wisdom	253
▁Finally	253
▁bill	253
▁cameras	253
▁protection	252
▁resource	252
▁experienced	252
ek	252
▁wake	252
▁consumption	252
▁photos	252
▁Instead	252
▁His	252
▁Egypt	252
▁players	252
▁carefully	251
▁Microsoft	251
▁CEO	251
▁launch	251
▁surgeon	251
▁talent	251
▁tag	250
▁arrived	250
▁generate	250
ima	250
▁Bar	250
▁lady	250
▁suggest	250
▁stood	249
▁sugar	249
▁property	249
▁doubt	249
atic	249
▁hide	249
own	249
right	249
▁paying	249
▁rocket	249
▁spoke	249
▁possibilities	249
▁Joe	249
▁multiple	249
▁tea	249
▁processes	249
▁expected	249
▁shame	249
▁chemistry	249
▁twice	248
▁cognitive	248
▁spa	248
▁Number	248
▁tr	248
▁filter	248
▁Voice	248
▁microbes	248
▁leaves	248
▁emotion	248
▁peak	248
▁researchers	247
▁empty	247
ome	247
▁fourth	247
▁cook	247
▁string	247
tz	247
▁victims	247
▁hang	246
ending	246
▁lies	246
head	246
▁treated	246
▁instrument	246
▁muscle	246
▁lu	246
▁prototype	246
▁advance	246
▁loud	246
▁risks	246
ura	246
▁studio	245
room	245
▁compare	245
▁Ghana	245
▁statement	245
gi	245
▁Museum	245
▁broke	244
▁presentation	244
▁writer	244
▁Pole	244
▁myth	244
▁credit	244
▁organic	244
▁sum	244
▁robotic	244
▁demo	244
▁analysis	243
▁succeed	243
cla	243
▁participate	243
▁Gulf	243
mate	243
▁voices	243
▁dinosaurs	243
▁Revolution	243
▁concern	242
▁direct	242
▁setting	242
▁Sam	242
▁rare	242
▁kick	242
▁Health	242
▁versus	242
▁Pacific	242
ji	242
▁Korea	242
▁messages	242
▁silence	241
aking	241
▁prop	241
▁properties	241
▁driver	241
▁habit	241
▁pack	241
▁Union	241
▁define	241
▁king	241
▁goals	241
▁killing	241
▁cup	241
▁Woman	241
▁skill	240
▁graduate	240
▁player	240
▁coal	240
▁survey	240
▁senses	240
bling	240
▁feelings	240
▁Bur	240
▁ski	240
▁fellow	240
▁connections	240
▁fiction	240
▁Air	239
▁picked	239
▁accurate	239
▁movements	239
cut	239
▁apart	239
▁fake	239
▁heavy	239
▁prefer	238
▁gang	238
▁Tu	238
▁dots	238
▁adult	238
▁addition	238
▁details	238
▁corruption	237
▁sample	237
▁Latin	237
▁spider	237
▁volume	237
fully	237
▁battle	237
▁calling	237
▁limit	237
▁convinced	237
▁sculpture	236
matic	236
▁essential	236
ung	236
▁Pr	236
▁Greek	236
hop	236
▁cutting	236
▁cultures	236
▁nations	236
▁abuse	236
my	236
▁Win	236
▁aging	236
▁forced	236
▁north	235
▁tip	235
▁remote	235
▁atoms	235
▁arts	235
▁construction	235
cel	235
▁oh	234
▁stock	234
ral	234
▁emerge	234
▁dig	233
▁houses	233
▁opening	233
board	233
▁Robert	233
▁losing	233
▁considered	233
▁Manhattan	233
▁eggs	233
▁effectively	232
▁quarter	232
▁awful	232
of	232
▁grid	232
▁station	232
▁highest	232
scale	232
▁Island	232
▁cents	232
▁Texas	232
▁trials	232
▁signs	232
▁extract	232
▁church	231
▁Africans	231
▁mathematical	231
How	231
▁illusion	231
▁selling	231
▁Higgs	231
▁exact	231
▁host	231
▁phrase	230
▁pump	230
▁sites	230
▁introduce	230
cher	230
▁origin	230
▁Grand	230
▁shoot	230
▁combination	229
▁danger	229
▁capture	229
▁conclusion	229
▁importance	229
▁clever	229
▁sharks	229
craft	228
▁burn	228
ink	228
▁operate	228
▁characters	228
▁exception	228
▁Take	228
▁lessons	228
▁released	228
dia	228
▁conscious	228
▁spectrum	228
$	227
▁rational	227
▁option	227
▁pleasure	227
▁represents	227
aging	227
▁Ethiopia	227
▁gravity	227
▁pin	227
▁Pat	227
▁Bang	227
▁outcome	227
▁maps	227
▁jail	227
▁Give	227
▁breathe	227
▁White	226
▁Mr	226
▁author	226
▁gotten	226
▁swim	226
▁nearly	226
▁underneath	226
▁poll	226
▁Per	226
▁beach	226
▁embrace	226
berg	226
ject	226
▁attitude	226
▁scared	226
▁El	225
▁intellectual	225
▁harm	225
▁technical	225
▁organized	225
▁Mom	225
▁none	225
▁valuable	225
▁mosquito	225
▁awesome	225
▁rapidly	225
▁soft	225
ade	225
▁Narrator	225
▁Haiti	225
▁seemed	224
▁hotel	224
▁designing	224
▁See	224
▁Bush	224
▁convince	224
▁Hollywood	224
▁ordinary	224
▁Bra	224
▁bias	224
▁Stanford	223
▁equivalent	223
▁explanation	223
▁spring	223
▁pitch	223
org	223
▁depends	223
▁covered	223
▁script	223
▁status	223
▁club	223
▁celebrate	223
▁iPhone	223
ned	222
day	222
▁relate	222
▁Pe	222
▁notes	222
▁Law	222
▁Foundation	222
▁Make	222
▁official	221
rick	221
ould	221
▁fruit	221
▁orbit	221
▁More	221
▁Congo	221
▁mile	221
▁height	220
Fi	220
▁dealing	220
pect	220
mine	220
▁sources	220
▁neighbors	220
▁keeping	220
▁vaccine	220
ati	220
▁winter	220
▁River	220
▁snow	220
▁factor	220
▁electrical	219
oid	219
▁transition	219
▁mode	219
▁consumer	219
▁sphere	219
▁south	219
▁vulnerable	219
▁ignore	219
▁determine	219
▁empathy	219
aries	219
▁politicians	219
▁kitchen	218
▁physicist	218
▁equality	218
▁encourage	218
It	218
▁pure	218
▁solid	218
▁Lab	218
▁Olympic	218
▁academic	217
▁invent	217
▁Again	217
ok	217
▁frankly	217
▁user	217
▁silk	217
▁lens	217
Why	217
▁estimate	217
▁filled	216
▁Rio	216
▁employees	216
hack	216
▁flip	216
▁bee	216
ote	216
▁viruses	216
▁infinite	216
▁Super	216
▁bike	216
▁increasing	215
▁roughly	215
▁actions	215
▁personally	215
▁YouTube	215
▁remain	215
▁flies	215
▁loop	215
▁inspiration	215
cha	215
▁Rwanda	215
▁length	215
▁mistakes	215
▁October	214
some	214
▁maintain	214
source	214
▁staff	214
▁rural	214
▁nerve	214
▁Have	214
▁hall	214
▁trans	214
▁manufacturing	214
▁handle	213
▁regular	213
▁sending	213
▁funding	213
▁chemicals	213
▁prize	213
▁suck	213
je	213
▁solved	213
▁tank	213
▁increasingly	213
arian	213
vin	213
▁symptoms	213
▁finance	213
▁license	212
▁bat	212
MA	212
▁steel	212
▁behaviors	212
▁destroy	212
▁mention	212
▁protest	212
▁CO	211
▁However	211
▁admit	211
▁authority	211
▁specifically	211
▁peer	211
▁requires	211
▁prime	211
▁forests	211
▁centers	211
▁Wall	211
▁microscope	211
▁zoom	211
▁illegal	211
▁encounter	211
▁despite	211
▁label	211
▁angry	211
▁absolute	210
ino	210
▁lecture	210
▁Jim	210
▁false	210
▁terrorism	210
▁Actually	210
▁scan	210
▁daily	210
rum	210
▁clock	210
▁tax	210
▁underwater	210
▁worldwide	210
▁formed	210
▁split	210
▁Au	210
rry	210
▁organs	210
▁printing	210
▁shark	210
▁infection	209
▁finger	209
▁Russian	209
aph	209
▁framework	209
▁Atlantic	209
mark	209
▁melt	209
▁unusual	209
▁grain	208
▁bare	208
▁Mark	208
axis	208
▁election	208
▁passionate	208
▁symbol	208
▁drill	208
▁humor	208
▁radical	208
▁techniques	208
▁radiation	208
▁Bible	207
▁environments	207
▁apartment	207
▁pollution	207
▁variation	207
▁require	207
▁interests	207
▁dogs	207
shirt	207
▁sight	206
▁Mary	206
▁element	206
▁perform	206
jo	206
▁Central	206
▁title	206
▁Ni	206
▁habitat	206
▁milk	206
▁Peter	206
ery	206
▁physician	206
▁lying	206
ography	205
▁advanced	205
▁knee	205
▁facing	205
▁firm	205
▁cry	205
▁advice	205
▁components	205
▁mountains	205
ough	205
ik	205
▁intervention	205
▁emerging	205
▁trend	205
▁recover	205
▁miss	205
▁grateful	204
▁technological	204
▁variety	204
ivity	204
hil	204
▁naturally	204
▁angle	204
▁fewer	204
▁Bay	204
▁spec	204
▁Once	204
▁Nations	204
fish	204
▁psychology	204
▁vehicles	204
▁necessary	204
▁management	204
▁Second	203
▁cluster	203
▁suffer	203
▁options	203
▁applications	203
▁boring	203
▁apple	203
grade	203
▁General	203
▁regions	203
▁replace	203
appropriate	203
▁William	203
▁wine	203
▁typically	203
proof	203
▁afternoon	203
▁loan	203
▁alien	203
▁rates	203
▁needle	203
▁International	202
▁sorry	202
▁sports	202
▁Sch	202
▁contain	202
▁Nobel	202
▁auto	202
▁Did	202
▁thumb	202
▁fiber	202
▁meme	202
▁algorithms	202
▁clothes	202
▁director	202
▁contrast	202
▁Antarctica	202
water	201
▁High	201
▁Department	201
▁ten	201
▁challenging	201
▁pal	201
▁Sometimes	201
▁fo	201
▁pill	201
▁predator	201
▁department	201
▁Islamic	201
▁collaboration	201
state	200
▁Alzheimer	200
▁memories	200
▁Bob	200
▁comfort	200
ily	200
▁intention	200
▁Black	200
▁plot	200
▁attacks	200
▁phase	200
▁sheet	200
bound	199
▁efficiency	199
▁cooking	199
▁suppose	199
▁hydrogen	199
▁entirely	199
▁grass	199
▁gut	199
▁paradigm	199
▁feature	199
▁monitor	199
bal	199
▁ecosystem	199
▁scenario	199
▁fishing	199
▁Bl	198
▁reverse	198
▁nest	198
▁thin	198
▁caused	198
▁physically	198
▁weigh	198
▁privacy	198
▁logic	198
▁hospitals	198
▁tonight	198
▁Space	198
▁Child	198
▁wondered	198
▁harvest	198
▁stronger	198
▁Oxford	197
▁fl	197
syn	197
▁figures	197
▁Jewish	197
▁Ko	197
▁blow	197
▁productive	197
▁pilot	197
▁molecular	197
▁attract	197
▁theme	197
▁grab	197
▁meal	197
▁recorded	197
▁prepared	197
▁pollen	197
▁flash	197
▁worker	197
▁mice	197
▁photographs	196
▁tap	196
▁awareness	196
▁buying	196
▁maker	196
▁fingers	196
▁Uganda	196
▁evolve	196
▁convert	196
▁Nature	196
▁mate	196
▁drone	196
▁cortex	196
▁broad	196
▁Part	196
ase	196
▁honey	196
▁Things	196
▁smoke	195
▁carrying	195
▁section	195
▁conservation	195
▁ladies	195
▁protected	195
▁decline	195
▁evening	194
▁review	194
ye	194
▁swimming	194
▁collapse	194
▁visible	194
gged	194
▁confidence	194
▁engaged	194
box	194
▁Time	194
▁conversations	194
▁repeat	193
▁marketing	193
▁mad	193
▁desk	193
▁input	193
▁establish	193
▁hill	193
▁meaningful	193
▁concrete	193
▁blocks	193
▁owner	193
▁pan	192
▁literature	192
▁wireless	192
▁hormone	192
▁Italy	192
▁circumstances	192
▁organ	192
▁birthday	192
▁situations	192
▁Ocean	192
▁shadow	192
▁bug	192
▁divide	192
cer	191
nna	191
▁psychological	191
▁Dad	191
▁destruction	191
▁resistance	191
▁generally	191
▁features	191
▁polar	191
▁exploration	191
▁Inter	191
▁primary	191
▁activities	191
▁ear	191
▁improvement	191
▁shock	191
▁capitalism	191
▁sustainability	191
▁Yorker	191
▁manager	190
▁drives	190
▁MRI	190
▁Mother	190
▁functions	190
▁computing	190
▁mortality	190
▁remove	190
▁pet	190
hood	190
▁deserve	190
back	190
▁geo	190
▁Muslims	190
▁Arabic	190
▁receive	190
▁Du	190
▁Real	189
▁drag	189
▁behave	189
▁innovative	189
▁classes	189
▁clue	189
▁breathing	189
▁introduced	189
▁selection	189
▁escape	189
▁style	189
▁ultimate	189
▁transportation	189
▁Age	189
▁tested	189
dependent	189
▁ancestors	189
ker	189
xi	188
▁wash	188
This	188
▁Florida	188
portrait	188
▁Sunday	188
▁agent	188
▁partners	188
▁Gates	188
▁cord	188
hor	188
▁poet	188
digit	188
▁affected	188
▁liquid	188
▁anger	188
▁added	188
▁observation	188
▁Turn	188
▁tests	188
▁explained	187
▁sunlight	187
▁acting	187
▁discipline	187
▁names	187
▁ritual	187
▁strip	187
▁Girl	187
down	187
▁toxic	187
▁boom	187
▁Smith	187
▁secure	187
▁internal	186
▁evolutionary	186
▁chapter	186
▁unfortunately	186
▁dramatic	186
▁organism	186
▁Par	186
▁boxes	186
▁borders	186
▁grandfather	186
▁combine	186
▁Star	186
▁cheat	186
▁earn	186
▁printer	186
▁commitment	186
▁younger	186
▁recording	186
▁required	185
▁sophisticated	185
ologist	185
▁animation	185
▁increased	185
▁pulled	185
▁organize	185
▁reference	185
▁agenda	185
▁cyber	185
▁whom	185
▁translate	185
▁Egyptian	185
▁severe	185
▁sensors	185
▁therapy	184
ologists	184
▁housing	184
iff	184
▁NGO	184
▁otherwise	184
▁diagram	184
▁complain	184
ini	184
unclear	184
▁route	184
educated	184
bit	184
▁constant	183
▁thick	183
▁telephone	183
▁officer	183
▁careful	183
▁regret	183
▁policies	183
▁bond	183
▁violent	183
▁Back	183
▁followed	182
▁December	182
being	182
making	182
▁file	182
▁coin	182
▁chose	182
▁rocks	182
▁busy	182
▁applied	182
▁relevant	182
▁Spanish	182
Do	182
▁Pen	182
▁August	182
▁monkey	182
aving	182
▁revenue	182
▁March	182
▁seal	181
▁existed	181
house	181
▁previous	181
▁analyze	181
▁Very	181
▁storm	181
▁repair	181
▁motivation	181
▁institution	181
▁infected	181
▁database	181
▁traveling	181
▁processing	181
resolution	181
▁singing	181
▁session	181
▁shut	181
▁bicycle	181
▁centuries	181
▁songs	181
▁fundamentally	180
▁hero	180
▁described	180
▁tech	180
▁customers	180
▁February	180
▁films	180
▁favor	180
▁Put	179
▁hits	179
▁unlike	179
▁collected	179
▁god	179
▁unknown	179
▁genius	179
▁refer	179
▁poster	179
▁lifestyle	179
lash	179
▁pot	179
▁potentially	179
▁Research	179
▁agreed	179
▁equally	178
▁Men	178
▁currently	178
▁mechanical	178
hen	178
▁shell	178
▁flower	177
▁ears	177
▁producing	177
▁closely	177
▁technique	177
bro	177
▁horrible	177
▁permanent	177
▁hook	177
▁creature	177
▁exhibition	177
▁outcomes	177
▁Israeli	177
▁Jack	177
▁abstract	177
▁males	177
▁directions	177
▁psychologist	177
▁wound	176
▁arguments	176
ference	176
▁Jesus	176
▁dense	176
▁records	176
▁providing	176
▁confront	176
ix	176
▁hoping	175
▁witness	175
▁dropped	175
▁lake	175
▁extend	175
▁reached	175
▁fabric	175
▁Square	175
▁golf	175
▁murder	175
▁pile	175
▁sweat	175
pur	174
▁Everybody	174
▁parallel	174
▁driven	174
phy	174
▁architect	174
▁intense	174
▁fluid	174
▁acid	174
▁cute	174
▁dancing	174
▁unexpected	174
▁Children	174
▁vessels	174
▁stayed	173
▁subjects	173
etic	173
point	173
▁application	173
▁photographer	173
▁Str	173
Sahara	173
▁Four	173
▁instruments	173
▁medi	173
▁Tra	173
▁piano	173
▁samples	173
ear	173
▁disorder	173
▁hasn	172
▁Cor	172
zo	172
▁motivate	172
▁globe	172
▁colony	172
▁discuss	172
▁remains	172
▁proteins	172
▁guide	172
▁scary	172
▁Long	172
▁monkeys	172
▁Bangladesh	172
oma	172
▁Rome	172
▁flew	171
pper	171
▁normally	171
▁laboratory	171
▁vaccines	171
▁spiritual	171
▁hyper	171
▁Does	171
▁hungry	171
▁fixed	171
▁border	171
▁library	171
▁judgment	171
▁Ed	171
▁existing	171
▁functional	171
▁whales	171
▁sensitive	171
▁Design	171
▁roads	171
▁youth	171
▁lion	171
▁corals	171
▁bones	171
▁sail	171
▁polio	171
tract	171
▁Soviet	170
▁seriously	170
▁solving	170
▁Video	170
▁occurred	170
▁invite	170
▁compete	170
▁vertical	170
▁implications	170
▁Eastern	170
▁combined	170
▁Pan	170
▁exam	170
▁Tim	170
▁crying	170
▁plans	169
▁obsessed	169
▁Gene	169
▁conclude	169
▁standards	169
▁entrepreneurs	169
▁flowers	169
▁pregnant	169
▁Turkey	169
▁tired	169
▁democratic	169
logical	169
▁Three	169
▁truck	169
▁activist	169
▁Tri	169
▁associated	169
▁enemy	169
bot	169
▁Norway	169
▁recognition	169
▁largely	169
allowing	169
▁worm	169
▁Pre	168
dom	168
▁liver	168
▁economists	168
▁heaven	168
▁pool	168
▁economies	168
▁Home	168
▁Love	168
▁presence	168
▁cartoon	168
▁painful	168
win	168
▁expert	168
▁transplant	167
▁percentage	167
iness	167
▁Would	167
▁depth	167
▁Ebola	167
▁march	167
▁Sir	167
▁Cambridge	167
▁mammals	167
▁slum	167
▁LED	167
▁villages	167
▁root	167
▁column	166
▁signed	166
▁laughing	166
▁inner	166
▁Will	166
▁struck	166
▁limits	166
▁Far	166
ological	166
▁adventure	166
▁joined	166
▁tracking	166
▁elephant	166
▁privilege	166
generated	166
▁defined	166
▁dust	166
▁Court	166
▁lung	165
▁contribute	165
▁barrier	165
▁upset	165
▁Kar	165
▁Prize	165
▁Their	165
▁hopefully	165
▁reserve	165
▁footprint	165
low	165
▁curiosity	165
▁pushing	165
▁guard	165
▁compar	165
▁savings	165
▁implement	164
▁musical	164
▁unless	164
▁units	164
▁nano	164
▁ceiling	164
▁darkness	164
▁regime	164
performing	164
If	164
▁implant	164
▁US	164
ueen	164
aged	164
▁penguins	164
▁missed	164
▁Com	164
▁pose	163
▁novel	163
▁surrounded	163
place	163
▁pace	163
▁antibiotics	163
▁aspect	163
▁neighbor	163
▁inspire	163
▁rely	163
shaped	163
▁Min	163
▁dial	163
▁renewable	163
▁shake	163
long	163
unta	163
▁seek	163
▁falling	163
▁volunteers	163
▁marine	163
▁chocolate	163
▁silent	163
▁meetings	162
▁army	162
▁according	162
quest	162
▁airport	162
▁attend	162
▁obstacle	162
▁leap	162
▁download	162
▁clouds	162
▁salt	162
▁lift	162
▁Mac	161
▁faced	161
▁extent	161
cker	161
▁flood	161
▁shelter	161
▁miracle	161
▁philosopher	161
▁Bell	161
bert	161
▁comic	161
▁courage	161
▁electronic	161
▁rhythm	161
▁destroyed	161
teen	161
uthern	161
▁greenhouse	161
▁Derek	161
▁tricks	161
▁Eric	161
▁Lego	161
▁apparently	160
read	160
rand	160
▁corn	160
tech	160
▁Italian	160
▁philosophy	160
▁architects	160
▁cable	160
dor	160
▁Chile	160
▁mystery	160
graphic	160
▁trait	160
ibility	160
▁minister	160
funded	160
▁crucial	160
▁July	160
▁parking	160
▁blame	160
▁simplicity	160
▁promote	159
udi	159
▁Everything	159
maker	159
▁Mor	159
▁textbook	159
▁Wait	159
drawn	159
▁laser	159
▁interactions	159
▁hadn	159
▁exploit	159
▁Hall	159
▁algorithm	159
▁disorders	159
▁optimistic	159
▁cash	158
▁trigger	158
▁sandwich	158
▁burning	158
▁expo	158
▁Gore	158
▁Other	158
▁furniture	158
▁arch	158
▁consume	158
▁medication	158
▁plenty	158
▁Shi	158
▁earthquake	158
▁Taliban	158
▁wings	158
friendly	158
▁spinal	158
▁Ford	157
▁Last	157
▁toward	157
▁personality	157
▁rescue	157
Hey	157
▁continued	157
▁whale	157
▁grave	157
▁floating	157
▁boss	157
▁measured	157
▁objective	157
rid	157
▁Spain	157
▁tuna	157
MT	157
▁FBI	157
▁hip	157
▁plug	156
▁port	156
▁Open	156
▁Hill	156
ney	156
key	156
▁steal	156
▁tri	156
▁pie	156
▁brave	156
▁strategies	156
▁identical	156
life	156
▁gray	156
▁upper	156
▁productivity	156
▁sir	156
▁Blue	156
▁chaos	156
view	155
our	155
▁Republican	155
▁reduction	155
▁emergency	155
▁dignity	155
▁donor	155
▁automatically	155
▁suggests	155
▁controlled	155
▁Gold	155
▁Gandhi	155
▁Islands	155
▁gate	155
▁spin	155
▁aim	155
▁asset	155
▁suspect	155
▁hunger	155
▁Mike	155
▁edit	155
▁spreading	155
▁Moore	154
▁romantic	154
▁skull	154
▁uncomfortable	154
get	154
roa	154
▁measuring	154
▁symmetry	154
▁slides	154
▁sustain	154
▁electron	154
▁suicide	154
▁brothers	154
▁defend	154
In	154
▁Homo	154
▁queen	154
▁frog	153
vy	153
stream	153
▁orange	153
Yes	153
▁Brian	153
▁cheaper	153
▁scar	153
▁heroes	153
▁Walk	153
▁simulation	153
▁distributed	153
▁pretend	153
▁narrow	153
▁achieved	153
▁shooting	153
▁insurance	153
▁demographic	153
▁usual	153
▁engagement	153
opt	153
▁transparency	153
▁tasks	153
▁diabetes	153
▁Beijing	152
ya	152
plan	152
▁asteroid	152
▁muscles	152
▁sales	152
▁custom	152
▁ticket	152
▁proportion	152
▁trace	152
pound	151
▁entertainment	151
▁psycho	151
▁norm	151
▁granted	151
▁Saturn	151
▁mushroom	151
▁Korean	151
▁Moon	151
▁skeleton	151
▁sheep	151
▁Steven	151
▁recovery	151
▁cousin	151
▁stake	151
▁Church	151
▁Play	151
▁formula	151
▁oxytocin	151
▁behavioral	151
▁engaging	150
ush	150
part	150
▁defense	150
▁seeds	150
▁Cal	150
▁knock	150
▁cart	150
▁precisely	150
▁extinct	150
▁causing	150
▁rough	150
don	150
Y	150
▁classic	150
gal	150
▁paintings	150
serving	150
▁tower	150
▁conventional	150
▁globally	150
▁mega	149
lies	149
▁gesture	149
mination	149
▁properly	149
▁Albert	149
metric	149
▁Brown	149
▁cooperation	149
▁stroke	149
▁hire	149
▁description	149
▁compound	149
ani	149
▁facial	149
▁Friday	149
fusion	149
▁request	149
▁stations	149
▁linked	149
▁domestic	148
▁charity	148
▁Listen	148
▁transfer	148
▁practices	148
▁feeding	148
▁origami	148
▁mentor	148
ridge	148
▁hardware	148
clock	148
▁incentives	148
▁pyramid	148
▁raw	148
▁transformed	148
▁disappeared	148
can	147
Please	147
unk	147
▁bra	147
now	147
▁alter	147
▁ugly	147
▁lungs	147
▁controlling	147
born	147
▁demonstrate	147
▁universities	147
▁tent	147
▁Silicon	147
▁circles	147
▁Mountain	147
▁laughter	147
▁whistle	147
▁intuition	147
▁Gabby	147
▁Ray	147
▁dramatically	147
▁offered	146
▁debt	146
▁overcome	146
▁involves	146
▁methods	146
▁Jeff	146
▁flo	146
▁Come	146
▁Sal	146
▁sisters	146
▁aspects	146
▁killer	146
▁magnetic	146
▁recruit	146
▁banks	146
▁Newton	146
▁bulb	145
▁intuitive	145
▁trends	145
▁wheelchair	145
▁removed	145
▁procedure	145
▁former	145
▁carried	145
▁quit	145
▁lovely	145
▁stack	145
▁mutation	145
foot	145
▁Dutch	145
▁Could	145
▁Chi	145
▁tears	145
▁correspond	145
face	145
▁exploring	145
▁appeal	145
▁sensation	145
▁vital	145
▁mini	145
▁chest	145
▁coach	145
▁citizen	145
▁rebuild	144
▁fascinated	144
▁household	144
▁ridiculous	144
▁Je	144
ene	144
▁dirty	144
▁orchestra	144
▁elite	144
▁empower	144
▁Rob	144
▁clients	144
▁Arctic	144
▁Tanzania	144
▁subtle	144
▁imagined	144
▁Alexander	144
construct	144
▁consumers	144
▁represented	144
▁obesity	144
▁Afghan	144
▁Shanghai	144
American	144
▁nurse	144
▁survivor	144
▁lamp	144
▁consistent	144
▁electro	144
▁mill	144
▁hat	144
▁November	144
▁till	143
ville	143
▁luck	143
▁bother	143
▁interactive	143
▁domain	143
▁wrap	143
▁coat	143
That	143
▁toys	143
▁fool	143
▁drove	143
▁weapon	143
▁recommend	143
▁Since	143
▁vegetable	143
▁Delhi	143
▁scratch	143
class	143
gin	143
▁layers	143
▁partnership	143
▁educational	142
▁interestingly	142
▁Asian	142
▁breakthrough	142
▁preserve	142
▁Wal	142
▁oldest	142
neutral	142
▁pad	142
▁legacy	142
▁committed	142
▁Stop	142
▁relatively	142
▁surely	142
ette	142
▁touched	142
play	142
▁backwards	142
war	142
here	142
called	142
▁capita	142
ancy	142
▁disgust	142
▁beliefs	142
▁leak	142
▁tight	142
▁Scott	142
▁corporate	141
▁provided	141
▁relax	141
oe	141
▁isolated	141
▁density	141
▁transparent	141
▁mono	141
▁windows	141
▁rope	141
treating	141
▁Professor	141
▁theories	141
▁wage	141
▁Yu	141
▁Bronx	141
▁Henry	140
▁elephants	140
▁icon	140
▁smooth	140
▁component	140
▁Council	140
▁divided	140
▁senior	140
▁naked	140
▁bow	140
ealand	140
▁Ken	140
▁sketch	140
bel	140
▁Iranian	140
▁bend	140
▁spill	140
▁package	140
▁strike	140
▁instinct	139
▁regulation	139
bon	139
▁programming	139
▁demonstration	139
▁magical	139
▁tele	139
▁Yet	139
▁actor	139
round	139
▁efforts	139
▁aircraft	139
▁Swiss	139
▁profile	139
▁passenger	139
▁slavery	139
▁passwords	139
▁presented	138
▁robust	138
▁inspiring	138
▁mold	138
▁poorest	138
▁refugees	138
▁ignorance	138
▁crops	138
▁mood	138
▁neck	138
▁diverse	138
▁candidate	138
ese	138
▁tribes	138
ander	138
▁gather	138
▁Army	138
▁advertising	138
▁anxiety	138
▁illustrate	137
▁sauce	137
▁guarantee	137
▁expectations	137
▁dolphins	137
lev	137
▁Vietnam	137
▁shrimp	137
▁Ladies	137
▁volunteer	137
erial	137
▁rainforest	137
▁Han	137
▁Rock	137
▁traveled	137
▁rush	137
▁neuroscience	137
▁Anyway	137
▁drinking	137
▁affordable	137
▁connecting	137
▁BG	137
▁strangers	137
▁achievement	137
▁Rand	136
▁representation	136
▁essence	136
competitive	136
▁neighborhoods	136
▁Minister	136
▁marker	136
▁collecting	136
▁Lord	136
▁Nelson	136
▁semi	136
▁vacuum	136
▁calculation	136
ball	136
▁Northern	136
▁nurses	136
▁ban	136
▁recipe	136
▁dish	136
▁victim	136
▁Indonesia	136
▁dictionary	136
▁agencies	136
stone	136
▁Coke	136
hour	135
▁external	135
ew	135
▁depressed	135
▁brown	135
▁persist	135
▁definitely	135
▁immune	135
▁Santa	135
▁Hawaii	135
▁ecosystems	135
▁speaker	135
rated	135
▁richer	135
▁actors	135
▁glacier	135
▁arrive	134
▁however	134
▁smoking	134
▁seats	134
▁interacting	134
▁dioxide	134
▁absorb	134
▁accepted	134
▁kiss	134
▁bull	134
▁attractive	134
▁hydro	134
▁occasion	134
▁bullet	134
▁Saturday	134
▁initiative	134
▁accessible	134
power	134
▁ethical	134
▁gear	134
▁fortune	134
▁printed	134
▁confident	134
▁pink	134
▁appeared	134
▁chosen	134
▁Koran	134
▁Saudi	134
▁grandchildren	134
▁Dur	134
▁uncle	134
▁Yemen	134
▁baseball	134
▁rating	134
▁district	133
▁permission	133
▁garage	133
▁Nick	133
zar	133
▁spark	133
▁underground	133
▁Indus	133
▁searching	133
▁recognized	133
▁dozen	133
▁terrorists	133
▁boundaries	133
roll	133
▁keyboard	133
▁unbelievable	133
▁injury	132
▁Howard	132
▁tick	132
▁dump	132
▁Brazilian	132
▁Watch	132
▁chief	132
▁adjust	132
▁symbols	132
▁pushed	132
▁ingredients	132
▁rising	132
▁smallpox	132
▁tragedy	132
▁borrow	132
▁helicopter	132
▁reefs	132
▁cop	132
▁embedded	132
▁federal	132
▁mechanics	132
▁virtually	131
▁delight	131
▁inventor	131
▁governance	131
▁refugee	131
▁resist	131
▁Mont	131
ith	131
▁thrown	131
▁parties	131
frequency	131
▁soap	131
▁nets	131
▁algae	131
▁helpful	131
▁protecting	131
▁surveillance	131
take	130
▁lighting	130
▁roots	130
▁Technology	130
▁Suddenly	130
▁liberal	130
▁reputation	130
not	130
▁experimental	130
ola	130
tories	130
▁Lincoln	130
▁dinosaur	130
▁entered	130
▁happier	130
▁integrated	130
▁projection	130
▁Alex	130
▁reaching	130
▁farmer	130
▁latest	130
cellular	130
▁drivers	130
▁relations	130
▁Stone	130
▁Jordan	130
▁investing	130
▁focusing	130
▁spectacular	130
▁conservative	130
▁Johnson	129
▁attached	129
▁disagree	129
▁Pu	129
▁concert	129
AT	129
▁replicate	129
▁sharp	129
▁dedicated	129
list	129
▁output	129
▁poison	129
▁frozen	129
▁resolve	129
▁opera	129
▁dancer	129
▁Ireland	129
▁neuron	129
▁Palestinian	129
▁fur	129
▁alarm	128
▁addict	128
▁realm	128
tub	128
▁highway	128
▁chimpanzees	128
▁settle	128
▁pole	128
tale	128
▁Switzerland	128
▁pause	128
▁Carl	128
▁commit	128
▁bathroom	128
▁calculate	128
▁participants	128
▁Ham	128
▁Any	128
▁discoveries	128
▁Brad	128
▁Andrew	128
▁computation	128
▁captured	128
▁Kh	128
▁Neanderthal	128
▁locked	128
▁hypothesis	128
▁Peace	128
▁beetle	128
▁stretch	128
▁contribution	128
▁Leonardo	128
í	128
▁Ron	128
▁rent	127
▁System	127
▁manipulate	127
▁Nigerian	127
▁Six	127
▁Seattle	127
▁interpret	127
▁dear	127
▁convey	127
▁biodiversity	127
▁dynamics	127
▁TEDTalk	127
▁vagina	127
▁Jupiter	127
▁briefly	127
▁failing	127
▁Hans	127
second	127
▁acknowledge	127
▁elections	127
▁Social	127
▁explode	126
▁bath	126
▁Nike	126
CA	126
word	126
▁transmission	126
▁Brother	126
▁sacred	126
▁tragic	126
▁Christ	126
▁explosion	126
▁Brooklyn	126
▁facility	126
▁mindset	126
▁twin	126
▁slip	126
▁April	126
put	126
▁tension	125
▁Perhaps	125
free	125
▁ought	125
▁While	125
▁iron	125
▁editor	125
mus	125
▁twist	125
▁translation	125
level	125
▁Doctor	125
▁leverage	125
▁answered	125
▁Mandela	125
▁Abraham	125
▁comparison	125
▁characteristics	125
▁abilities	125
▁slice	125
▁agency	125
▁kidney	125
▁variable	125
▁transmit	125
▁mall	125
▁speakers	125
▁visited	125
▁irre	125
▁hackers	125
▁suggesting	125
▁Net	125
gras	125
▁watt	124
▁capability	124
▁assignment	124
▁bucks	124
▁consequence	124
load	124
SA	124
▁ratio	124
▁Carolina	124
▁routine	124
▁particle	124
▁inevitable	124
▁exposed	124
▁Tony	124
▁conduct	124
▁Roman	124
▁breaking	124
▁warning	124
▁autonomous	124
▁quad	124
bid	124
▁County	124
▁bin	124
▁smartphone	124
▁reactor	124
▁teenagers	124
▁pandemic	124
▁marry	124
▁Kevin	123
▁linear	123
▁biologists	123
▁informed	123
▁profession	123
hoo	123
▁gases	123
▁Atlanta	123
▁Media	123
▁tunnel	123
▁copyright	123
▁artistic	123
▁globalization	123
tron	123
▁alcohol	123
▁gam	123
▁diamond	123
▁extinction	123
▁glad	123
▁instructions	123
▁dominant	123
▁Pretty	123
▁Stage	123
▁colleague	123
▁tribe	123
▁triangle	123
▁mimic	123
▁bats	123
▁Eve	123
▁neat	122
▁crap	122
▁whatsoever	122
▁punch	122
▁Nobody	122
tail	122
▁painted	122
▁bored	122
▁struggling	122
▁pigeon	122
▁historical	122
▁scanner	122
▁photography	122
▁category	122
town	122
▁journal	122
▁sensor	122
▁combat	122
▁electronics	122
▁cartoons	122
▁Ku	122
▁magnet	122
imme	122
▁smarter	122
▁Bruno	122
▁concentration	122
assemble	122
▁excuse	122
▁terror	122
book	122
▁PMS	122
▁cheese	121
▁Catholic	121
▁silly	121
▁football	121
▁Work	121
▁forgotten	121
resistant	121
▁spoken	121
▁served	121
▁panels	121
lop	121
▁delivered	121
hrew	121
▁rot	121
▁urge	121
▁bump	121
away	121
▁insist	121
▁participation	121
▁rice	121
▁confirm	121
▁Iceland	121
▁Syria	121
hold	121
▁Argentina	121
▁verb	121
▁Ted	121
▁pursue	120
fifth	120
▁USA	120
▁dialogue	120
▁distant	120
▁Lake	120
▁spell	120
▁surrounding	120
▁tied	120
▁plain	120
pping	120
▁Industrial	120
▁honestly	120
▁resilience	120
▁Also	120
▁shocked	120
yard	120
▁surprisingly	120
▁synthetic	120
▁reported	120
▁navigate	120
▁fee	120
▁format	120
▁Aristotle	120
▁trauma	120
▁Feynman	120
▁nutrition	120
▁relation	120
▁frustrated	120
▁investors	120
▁rarely	120
▁yield	120
▁Rick	119
▁rotate	119
▁fragile	119
▁suggestion	119
▁hanging	119
▁sacrifice	119
▁array	119
▁pulling	119
▁picking	119
▁nor	119
door	119
▁dose	119
▁landed	119
▁reconstruct	119
▁tongue	119
▁observe	119
▁IBM	119
▁musicians	119
▁Force	118
▁confused	118
▁trucks	118
▁Watson	118
▁Louis	118
▁cliff	118
▁Unfortunately	118
▁predictions	118
▁conv	118
▁Five	118
made	118
▁footage	118
▁terrorist	118
▁jet	118
▁identified	118
▁imagery	118
▁prediction	118
▁destiny	118
▁mask	118
▁lap	118
▁reduced	118
▁diagnosed	118
▁sport	118
▁approaches	118
▁optimism	118
▁Lebanon	117
▁connectivity	117
▁quo	117
▁poly	117
▁fought	117
▁highlight	117
▁camel	117
▁appreciate	117
▁tune	117
▁accelerate	117
▁manual	117
▁nowhere	117
▁aesthetic	117
▁probability	117
j	117
▁College	117
▁shit	117
▁homework	117
aeda	117
▁sink	117
▁pathway	117
▁PM	117
▁initial	117
▁Detroit	117
▁assumptions	117
▁prisoners	117
▁clay	116
▁drift	116
▁shopping	116
third	116
▁Mexican	116
▁duck	116
▁crossing	116
▁laid	116
▁Monterey	116
▁signature	116
▁strand	116
▁fabulous	116
▁impression	116
▁industries	116
▁kingdom	116
▁Only	116
▁crystal	116
▁cake	116
▁inches	116
▁installation	116
▁soup	116
▁Telescope	116
▁paradox	116
▁predicted	116
▁Jones	116
▁Copenhagen	116
▁substance	116
run	116
▁winner	116
▁anonymous	116
▁neural	116
▁glamorous	116
▁ensure	116
▁anticipate	116
▁horizon	116
▁drum	116
ographic	116
▁arrested	116
▁constructed	115
▁gods	115
▁condom	115
▁decrease	115
▁colonies	115
▁ethnic	115
▁bizarre	115
▁Hong	115
▁reject	115
▁stable	115
▁separated	115
▁arrow	115
▁overall	115
▁sleeping	115
active	115
▁somewhat	115
▁passing	115
▁Redwood	115
▁devil	115
▁Ear	115
▁methane	115
▁restore	115
▁Singapore	115
▁insect	114
▁begun	114
▁opposed	114
elect	114
▁render	114
ada	114
▁Matt	114
▁ethic	114
▁fragment	114
▁hemisphere	114
▁expansion	114
▁originally	114
▁difficulty	114
▁wipe	114
▁SETI	114
▁selfish	114
▁astonishing	114
▁soldier	114
▁kilo	114
▁proper	114
▁contrary	114
▁uncertainty	114
▁Half	114
▁stranger	114
▁vulnerability	114
▁automobile	113
▁branch	113
▁acquire	113
adding	113
▁healthier	113
▁sensory	113
He	113
▁Government	113
▁wired	113
▁reef	113
heart	113
▁simulate	113
▁paralyzed	113
▁Twenty	113
Look	113
▁vent	113
▁Geographic	113
▁flaw	113
▁safer	113
▁grasp	113
▁DVD	113
▁glasses	113
▁Daniel	113
▁northern	113
▁bask	113
▁joint	113
▁Berlin	113
▁Coast	113
▁hum	113
▁dolphin	113
▁Spring	113
oil	113
▁Free	113
▁Medic	113
▁egg	113
▁partly	112
▁rapid	112
▁tackle	112
gro	112
interest	112
▁qualities	112
▁campus	112
▁fortunately	112
▁attach	112
▁surf	112
▁dimension	112
▁primitive	112
gotta	112
▁detector	112
▁aggressive	112
▁clothing	112
▁Shakespeare	112
▁Light	112
zing	112
▁tear	112
▁invested	112
▁dozens	112
▁damn	112
▁dumb	112
▁boo	112
▁fortunate	112
▁Bhutan	112
▁intersection	112
▁Disney	112
▁Parkinson	112
▁goat	112
▁welcome	111
▁fraction	111
▁enhance	111
▁mathematicians	111
▁server	111
▁musician	111
ifying	111
uous	111
▁announced	111
▁Get	111
▁Show	111
▁additional	111
▁shout	111
oon	111
▁Tro	111
▁proposed	111
▁broadcast	111
▁panic	111
▁capabilities	111
lethal	111
▁radically	111
▁supermarket	111
▁threshold	111
▁burned	111
trapped	111
▁spray	111
▁Pennsylvania	111
▁tweet	111
▁Apollo	111
▁regard	111
▁fraud	111
▁prosperity	111
▁logo	110
▁flexible	110
▁expanding	110
▁collaborative	110
dollar	110
▁Stephen	110
▁grad	110
organizing	110
▁suggested	110
▁imaging	110
▁propose	110
▁Society	110
▁viewer	110
▁Comp	110
▁climbing	110
▁freak	110
▁expedition	110
▁Benjamin	110
▁rod	110
vision	110
▁civic	110
▁returned	110
▁squa	110
▁panel	110
▁Cro	110
▁burst	110
▁disability	110
▁fastest	110
▁Sarah	110
lick	109
▁boil	109
▁arise	109
▁appearance	109
▁experiencing	109
▁bang	109
▁forgot	109
▁Abou	109
▁binary	109
▁portion	109
▁valley	109
▁Year	109
▁Nav	109
wood	109
▁pizza	109
print	109
atomic	109
▁History	109
rich	109
▁Australian	109
▁whi	109
▁employ	109
▁NSA	109
▁openness	109
▁east	108
▁analogy	108
▁mayor	108
▁marketplace	108
▁slave	108
▁Something	108
▁nutrients	108
▁pour	108
▁Everyone	108
▁gradually	108
▁geek	108
▁Was	108
▁Kong	108
▁creator	108
▁Berkeley	108
▁pride	108
illa	108
▁Before	108
flow	108
▁interpretation	108
▁Clinton	108
▁determined	108
▁FDA	108
▁primate	108
▁Ram	108
▁pulse	108
▁emit	108
▁fate	108
▁audio	108
volt	107
▁consist	107
sufficient	107
▁Lot	107
▁drought	107
▁flee	107
ggle	107
▁reminded	107
wan	107
▁someday	107
▁wherever	107
▁overwhelming	107
▁disconnect	107
▁agreement	107
▁Mumbai	107
▁Camp	107
▁Water	107
▁Bali	107
▁matrix	107
▁elderly	107
▁Security	107
▁chat	107
▁homeless	107
▁screw	106
▁recall	106
▁magnitude	106
▁Read	106
▁Georgia	106
ku	106
▁fed	106
▁initially	106
▁fault	106
related	106
▁passive	106
▁simultaneously	106
▁shrink	106
▁Milk	106
▁leaf	106
centimeter	106
▁Trans	106
▁teenager	106
▁golden	106
▁Amy	106
▁register	106
▁gentleman	106
▁crush	106
▁translated	106
▁eliminate	106
▁upside	106
▁precise	106
▁diploma	106
▁mining	106
▁Philadelphia	106
▁adopted	106
human	106
▁insane	106
▁Greece	106
▁Pass	106
▁Supreme	106
▁publish	105
▁gallon	105
▁supported	105
▁CD	105
▁mixed	105
▁barrel	105
▁morality	105
▁Music	105
▁infant	105
▁gathering	105
millimeter	105
▁closing	105
▁extended	105
▁weekend	105
▁cigarette	105
▁fence	105
▁wealthy	105
▁deck	105
▁washing	105
▁innocent	105
▁generous	105
▁Virginia	105
▁despair	105
▁nuts	105
▁detection	105
▁Arabia	105
▁Milo	105
▁survived	105
▁genocide	105
▁mobility	105
assembly	105
lia	105
▁Jews	105
▁badly	105
▁Whoa	105
▁dating	105
▁blah	104
▁dopamine	104
▁factories	104
▁Ooh	104
Yeah	104
▁pond	104
▁significantly	104
▁Live	104
▁winning	104
▁shine	104
▁compelling	104
▁membrane	104
▁nonprofit	104
▁explaining	104
new	104
▁Mall	104
▁woke	104
▁friendship	104
▁compassionate	104
á	104
▁retire	104
▁proposition	104
▁corporations	104
▁excitement	104
▁workforce	104
▁entering	104
▁chase	104
▁slime	104
▁Jane	104
▁currency	104
▁cricket	103
▁forgive	103
▁stunt	103
▁parasite	103
▁statistical	103
▁crew	103
▁enterprise	103
▁brutal	103
▁Charlie	103
▁succeeded	103
▁Titan	103
▁instant	103
▁completed	103
▁Alaska	103
▁formal	103
▁Business	103
▁sexy	103
▁Arthur	103
▁deploy	103
Be	103
▁Netherlands	103
▁neither	103
▁Fortunately	103
▁limitations	103
▁Organization	103
▁Mill	103
▁brief	103
▁choosing	103
▁deforestation	103
▁wrist	103
wind	103
▁peaceful	103
▁microphone	103
▁dung	103
▁Jerusalem	103
▁curriculum	103
chrom	103
▁millennia	103
▁Education	103
▁pray	102
▁govern	102
▁Up	102
century	102
▁inform	102
▁luxury	102
▁strongly	102
▁workplace	102
▁banana	102
▁trap	102
▁export	102
▁bribe	102
▁agricultural	102
▁client	102
▁rats	102
▁bold	102
fro	102
▁structural	102
▁Cape	102
▁fulfill	102
▁Monday	102
▁Mozart	102
▁intimate	102
enabled	102
▁vaccinat	102
▁unconscious	102
▁southern	102
▁minimum	102
▁antenna	102
▁shall	102
▁Elizabeth	102
▁awkward	102
▁beaten	102
▁Boo	102
▁Tokyo	102
blown	101
▁intended	101
▁sew	101
controversial	101
▁phenomena	101
▁tendency	101
▁buried	101
▁snake	101
▁expecting	101
▁Suppose	101
▁Phil	101
▁wedding	101
▁assistance	101
▁pioneer	101
▁Linux	101
▁Never	101
▁parachute	101
▁silver	101
▁distinct	101
▁Office	101
▁ego	101
▁extension	101
▁customer	101
▁collectively	101
▁flourish	101
▁collision	101
▁enforcement	101
▁hiding	101
▁beautifully	101
▁phantom	100
▁reproduce	100
▁trash	100
▁uniform	100
▁prior	100
▁facilities	100
▁Academy	100
▁rubber	100
▁beam	100
▁Mount	100
▁Young	100
Go	100
▁wow	100
My	100
▁microbial	100
▁classical	100
▁storytelling	100
▁margin	100
▁cotton	100
▁included	100
angle	100
▁nerd	100
▁bush	100
▁dilemma	100
▁palm	100
▁straightforward	100
▁educate	100
▁entropy	100
engineer	100
▁shower	100
▁Goals	100
▁bake	99
▁immense	99
▁hardest	99
corrupt	99
▁purchase	99
▁categories	99
fold	99
holder	99
▁terribly	99
▁manner	99
▁Machine	99
▁kidding	99
▁interviewed	99
▁compromise	99
▁canopy	99
▁girlfriend	99
▁authorities	99
generating	99
▁diagnosis	99
▁shipping	99
▁successfully	99
fuel	99
▁exhaust	99
▁trajectory	99
▁farming	99
▁institutional	98
▁formation	98
▁subway	98
▁attribute	98
▁Democrat	98
▁aspiration	98
▁mainly	98
▁syndrome	98
▁adopt	98
▁crawl	98
scribe	98
▁socially	98
▁Tibet	98
wandering	98
▁chamber	98
▁correctly	98
▁native	98
▁photographed	98
▁valid	98
version	98
▁Kids	98
▁mysterious	98
▁asleep	98
verbal	98
▁blindness	98
animate	98
▁spike	98
Okay	98
worth	98
▁Map	98
▁risky	98
▁pup	98
▁improved	98
▁tiles	98
▁sculpt	97
blowing	97
▁garbage	97
▁theoretical	97
▁advocate	97
▁Canadian	97
▁select	97
▁cube	97
▁acoustic	97
▁primarily	97
trove	97
▁hired	97
▁reinvent	97
▁reflection	97
▁throwing	97
▁ownership	97
▁blend	97
intensive	97
▁Intel	97
▁jam	97
▁tsunami	97
▁Hubble	97
ken	97
▁Venus	97
▁miserable	97
friend	97
▁loose	97
fire	97
▁calm	97
▁Seven	97
▁rob	97
▁occasionally	97
▁underlying	97
▁architectural	97
▁Eventually	97
rror	97
▁continu	97
▁artwork	97
▁Craig	97
▁dictator	97
▁approaching	97
▁perceive	97
▁Development	97
▁Abed	97
frontal	97
▁phosphorus	97
psychopath	97
clusive	96
▁Medicine	96
▁investigate	96
▁stomach	96
body	96
But	96
▁suffered	96
▁pun	96
▁awake	96
▁Next	96
▁Civil	96
▁diarrhea	96
▁Gar	96
▁Fund	96
▁Buddha	96
▁incident	96
person	96
▁ironic	96
shelf	96
▁cruel	96
▁Hold	96
▁Library	96
▁indicate	96
▁graphics	96
▁Liberia	96
field	96
▁counting	96
▁disturb	96
▁DH	96
▁Step	96
▁Bro	96
▁Everest	96
▁raped	96
▁exhibit	96
▁addiction	96
▁password	96
▁Edward	96
▁impressive	96
▁Ross	96
▁tattoo	96
▁dare	96
▁backyard	96
▁torture	96
▁Journal	96
▁Poli	96
▁geometry	96
▁Harry	95
ean	95
▁reasonable	95
efficient	95
▁endless	95
type	95
▁collaborator	95
▁glue	95
▁strategic	95
Don	95
▁elegant	95
▁figuring	95
▁Thailand	95
▁researcher	95
▁Sound	95
▁shoe	95
▁annual	95
▁expertise	95
▁tries	95
▁frontier	95
▁chemist	95
▁scheme	95
step	95
▁receptor	95
▁RNA	95
▁momentum	95
▁Tuesday	95
▁exposure	95
▁visualize	95
▁Nairobi	95
▁jar	95
▁Jon	95
▁Hy	95
▁encrypt	95
▁Syrian	95
▁substantial	94
▁items	94
▁install	94
▁unfold	94
▁lever	94
▁ruin	94
▁chimpanzee	94
▁listened	94
▁Ch	94
▁elected	94
▁emerged	94
position	94
▁temporary	94
▁Post	94
▁mild	94
▁vessel	94
▁excellent	94
▁float	94
▁Phoenix	94
▁safely	94
▁fancy	94
▁profoundly	94
style	94
▁Bern	94
zero	94
RA	94
▁punishment	94
▁Giussani	94
▁steppe	94
So	94
▁prepare	94
▁ALS	94
▁rank	94
▁Pop	94
▁Laden	94
▁Pete	94
Let	93
▁Nothing	93
▁pencil	93
▁pedestrian	93
▁realizing	93
cost	93
▁angel	93
▁hunt	93
▁instantly	93
▁jellyfish	93
▁jumped	93
▁embarrassing	93
▁intent	93
▁patch	93
▁Trade	93
▁possess	93
▁analog	93
▁principal	93
▁branches	93
▁burden	93
found	93
▁archive	93
▁striking	93
▁genetically	93
▁Port	93
four	93
▁unable	93
▁astronomer	93
▁Alice	93
▁admire	93
▁perceived	93
▁ambition	93
▁bind	93
▁CRISPR	93
▁representative	92
▁herself	92
▁Out	92
▁Indeed	92
▁Swedish	92
▁encouraged	92
anthrop	92
▁minus	92
▁destination	92
▁Hospital	92
▁detailed	92
changing	92
fulness	92
▁blank	92
▁staying	92
▁authentic	92
▁canvas	92
uch	92
▁steer	92
▁elsewhere	92
stein	92
▁beating	92
▁unhappy	92
▁summit	92
▁Beau	92
▁decor	92
▁bowl	92
▁terrified	92
▁schizophrenia	92
▁Connecticut	92
▁Norden	92
▁cocaine	91
void	91
▁naive	91
▁covering	91
▁rose	91
▁redesign	91
▁priest	91
▁amateur	91
▁Lagos	91
▁accumulate	91
▁Joshua	91
▁pharmaceutical	91
▁Warren	91
▁iPod	91
▁administration	91
▁mineral	91
▁nearby	91
▁cooperate	91
▁phenomenal	91
▁onstage	91
▁Christopher	91
▁wider	91
▁None	91
▁rub	91
▁overnight	91
▁desperately	91
▁grandparents	91
▁hub	91
▁Nepal	91
▁Simon	91
▁Find	91
▁surround	90
▁belt	90
▁Computer	90
▁precious	90
▁humanitarian	90
▁Wright	90
▁sake	90
▁bedroom	90
▁upward	90
▁Buddhist	90
▁freeze	90
▁brick	90
Mart	90
▁cream	90
▁interconnected	90
known	90
▁Wood	90
▁graduated	90
▁absence	90
▁Michigan	90
▁Marine	90
▁shy	90
olar	90
▁Greenland	90
▁remained	90
▁dawn	90
▁KB	90
▁Ash	90
▁stimulate	90
▁specialist	90
▁hunting	90
▁Miss	90
▁observed	90
▁promised	90
▁diving	90
▁retirement	90
▁Sylvia	90
▁glucose	90
▁assumption	90
▁widely	90
▁involve	90
▁toast	90
▁Somalia	90
▁Tunisia	90
material	90
looking	90
offend	90
▁viral	90
▁stair	90
▁Party	90
▁messy	90
skeletal	90
▁Natural	90
▁glamour	90
▁predictable	89
▁unprecedented	89
▁overhead	89
▁mentally	89
▁Association	89
▁Arizona	89
▁ecological	89
▁Van	89
▁wildlife	89
▁terrifying	89
▁chunk	89
hhh	89
▁leather	89
▁monster	89
▁fertilizer	89
▁reducing	89
ronic	89
▁reliable	89
▁interrupt	89
▁closest	89
▁blink	89
▁divorce	89
touch	89
▁smallest	89
▁Larry	89
▁Jersey	89
▁estate	88
▁continuing	88
▁Lady	88
▁rip	88
▁distinguish	88
▁Third	88
▁economist	88
▁sixth	88
▁Maria	88
▁Ana	88
storm	88
▁glow	88
▁hybrid	88
▁eaten	88
▁defeat	88
▁breed	88
▁storage	88
▁descend	88
▁empowered	88
▁container	88
▁whisper	88
▁proved	88
▁virtue	88
▁pat	88
▁Public	88
▁manufacturer	88
▁proven	88
illennium	88
▁Tesla	88
▁rape	88
▁protocell	88
▁hitting	88
▁candle	88
▁arrest	88
▁Power	88
▁stability	88
▁incentive	88
▁Scientist	88
▁obese	88
▁Portugal	88
▁dough	88
▁disabled	88
▁update	88
▁rethink	87
▁lonely	87
▁commission	87
▁retreat	87
▁mud	87
▁Bert	87
lapse	87
▁constraints	87
shot	87
▁venture	87
driven	87
▁mutual	87
▁riot	87
▁enemies	87
▁guilty	87
▁ecology	87
▁Hope	87
▁spine	87
dding	87
▁thread	87
▁Tower	87
▁Jefferson	87
▁align	87
▁relief	87
▁Plan	87
▁improving	87
▁taxes	87
▁shocking	87
▁ongoing	87
▁threatened	87
▁genuine	87
▁wishes	87
▁diagnostic	87
how	87
▁translator	87
▁investigation	87
▁wheat	87
master	87
▁swing	87
▁expectancy	87
▁purple	87
▁Rover	87
▁Cyrus	87
▁delay	86
▁crop	86
▁hierarchy	86
▁chop	86
▁Republic	86
▁Colombia	86
▁temple	86
▁grip	86
Can	86
▁Brea	86
▁Lev	86
▁civilian	86
▁legislation	86
▁pirate	86
▁compress	86
▁discovering	86
▁Johnny	86
change	86
▁Canyon	86
▁amazed	86
▁trivial	86
▁Pur	86
▁Luther	86
▁employer	86
▁Montana	86
▁ambitious	86
▁Fire	86
▁visualization	86
▁Top	86
▁Caribbean	85
▁harness	85
▁assure	85
▁creep	85
▁smiling	85
▁independence	85
▁defi	85
▁gathered	85
▁Data	85
▁screaming	85
▁frightening	85
▁Himalaya	85
▁Kennedy	85
▁bench	85
▁explicit	85
▁rolling	85
▁Philip	85
▁mat	85
▁breakfast	85
▁Columbia	85
▁excess	85
▁Lama	85
▁mammal	85
▁kit	85
▁Beach	85
▁arguing	85
▁negotiate	85
▁terrain	85
▁Peru	85
aj	85
pee	85
▁Libya	85
▁insulin	85
▁probe	85
▁hug	85
▁realities	85
▁lottery	85
▁advertise	85
▁Cambodia	85
▁lifespan	85
▁Austria	85
▁Run	85
▁downtown	84
▁refine	84
▁Joseph	84
▁span	84
▁seeking	84
▁concentrated	84
▁encouraging	84
▁migration	84
▁texture	84
▁realization	84
▁amongst	84
▁interior	84
▁vacation	84
▁Allen	84
▁locally	84
▁supplies	84
▁banking	84
stick	84
▁processor	84
▁delivery	84
▁elevator	84
▁conducted	84
▁troops	84
▁critic	84
▁App	84
▁storyteller	84
▁restrict	84
▁voting	84
▁philanthropy	84
▁Dallas	84
▁luckily	84
▁influenced	84
jack	84
▁bamboo	84
▁activate	84
▁chronic	84
▁Kepler	84
▁feminist	84
▁Book	84
▁personalized	84
▁jihad	84
▁Univers	84
▁astronaut	84
▁Namibia	84
▁nowadays	84
▁continuous	83
▁remaining	83
▁Add	83
▁Orleans	83
▁Ali	83
▁workshop	83
chasing	83
▁mapping	83
▁gained	83
▁execute	83
▁counsel	83
▁Interestingly	83
▁Sierra	83
▁towel	83
▁germ	83
▁territory	83
pathogen	83
▁lobby	83
▁thrilled	83
▁Cat	83
▁spacecraft	83
▁Service	83
▁Venezuela	83
▁warrior	83
▁upload	83
▁Bosnia	83
▁located	83
▁Alright	83
▁Oklahoma	83
spen	83
▁junk	83
▁sperm	83
▁Kiribati	83
▁casual	83
▁confine	83
▁Treat	83
▁artifact	83
▁stereo	83
▁tie	83
▁foster	83
▁biologist	83
▁resembl	83
▁Brit	83
▁scaling	83
eyed	83
▁marathon	83
▁Stewart	83
▁priority	83
▁requirement	83
▁heritage	83
▁boots	82
▁carpet	82
▁remarkably	82
▁seemingly	82
▁prevention	82
▁recycling	82
minute	82
▁spinning	82
▁Dam	82
▁invitation	82
▁Massachusetts	82
▁grabb	82
adapted	82
▁diameter	82
▁technically	82
▁staircase	82
▁Sudan	82
▁Lewis	82
▁deliberate	82
▁squeeze	82
▁impulse	82
▁offspring	82
▁timing	82
▁constrain	82
▁contradiction	82
▁neuroscientist	82
▁poo	82
▁ceremony	82
▁mesh	82
▁tiger	82
bury	82
▁accuracy	82
▁bonus	82
▁Pittsburgh	82
▁Small	82
▁batteries	81
▁ubiquitous	81
▁persuade	81
▁healing	81
▁Movement	81
▁communicating	81
▁performed	81
▁bite	81
▁negotiation	81
Aid	81
▁teaches	81
▁convenient	81
▁Bud	81
▁Environment	81
▁Similarly	81
▁jaw	81
▁distort	81
▁losses	81
▁suppress	81
five	81
▁advise	81
▁Denmark	81
▁outbreak	81
▁nightmare	81
▁hated	81
alai	81
▁Iraqi	81
▁proceed	81
▁mum	81
▁estimated	81
▁zoo	81
▁Freedom	81
▁cookie	81
corn	81
▁prostate	81
▁Taiwan	81
▁therapist	81
▁champion	81
▁denial	81
thermal	81
▁Hand	81
▁gorgeous	81
▁segment	81
▁indigenous	81
▁injured	81
▁trafficking	81
scape	81
▁decent	81
▁knife	81
▁catching	81
▁Chuck	81
▁sidewalk	81
▁Tasmanian	81
oney	80
▁Common	80
▁historically	80
▁journalism	80
▁snap	80
▁Kingdom	80
▁retail	80
▁flame	80
▁informal	80
▁useless	80
▁Start	80
▁Roger	80
▁scream	80
▁cockroach	80
hether	80
▁Garden	80
▁transistor	80
imbabwe	80
▁filmmaker	80
▁offering	80
▁calories	80
▁selected	80
▁contemporary	80
▁Stand	80
law	80
▁consciously	80
▁Bangalore	80
▁fluorescent	80
▁Cap	80
▁slight	80
▁Notice	80
band	80
▁magnificent	80
▁refrigerator	80
▁kilogram	79
world	79
▁therapies	79
▁merely	79
▁stigma	79
▁spiral	79
▁slower	79
▁Sex	79
▁laughed	79
▁cosmos	79
▁trailer	79
▁preparing	79
▁magician	79
▁hunter	79
▁Kansas	79
▁drunk	79
▁breeding	79
▁beneath	79
▁assign	79
stimulation	79
Hello	79
Keith	79
▁tutor	79
▁mite	79
▁injuries	79
self	79
▁pipeline	79
▁scaffold	79
▁prayer	79
▁earliest	79
▁appreciat	79
▁jazz	79
▁prince	79
ER	79
▁preach	79
▁distinction	79
▁Lee	79
▁innovate	79
▁monitoring	79
yl	79
▁empire	79
▁Danny	79
▁Food	79
▁Line	79
▁delicious	79
▁EDI	79
▁owe	78
▁Paulo	78
▁criticize	78
count	78
▁transcend	78
▁sanitation	78
▁correlation	78
▁collapsed	78
▁inevitably	78
▁Mind	78
▁Ste	78
▁rebel	78
▁prescription	78
▁Honey	78
▁volcano	78
▁introduction	78
▁proposal	78
▁copied	78
▁stolen	78
Isn	78
activated	78
▁remix	78
▁irony	78
▁devastating	78
▁penguin	78
Prince	78
▁poke	78
▁division	78
mitt	78
▁electrodes	78
▁stopping	78
▁apologize	78
▁exclusive	78
▁browser	78
▁punish	78
▁Cuba	78
▁guest	78
▁Snowden	78
▁Nicole	78
▁liar	78
uh	78
▁hypo	78
▁mankind	78
▁toxin	78
▁obsolete	78
▁tapir	78
▁contributed	77
▁publishing	77
▁yards	77
wash	77
▁collaborate	77
▁spouse	77
▁lowest	77
▁unlock	77
▁lawn	77
▁emphasize	77
▁helium	77
▁psychiatrist	77
▁yell	77
▁Word	77
▁athletes	77
▁Empire	77
▁consumed	77
▁OECD	77
▁prisoner	77
▁triple	77
▁warehouse	77
▁Radio	77
▁virgin	77
▁prosthetic	77
▁fisheries	77
▁fever	77
▁Lyn	77
▁Rose	77
▁legitimate	77
▁packed	77
bone	77
▁extraordinar	77
▁Palm	77
▁flavor	77
Jeopardy	77
▁Obviously	76
▁specialized	76
▁alphabet	76
▁cosmic	76
▁historic	76
▁Kosovo	76
▁readers	76
▁immortal	76
▁worthy	76
▁equity	76
▁stamp	76
▁Heart	76
▁neocortex	76
enjoying	76
▁statistic	76
▁intrinsic	76
▁helpless	76
▁blast	76
▁composition	76
▁explorer	76
▁frequently	76
▁Land	76
▁ultra	76
▁augment	76
▁grace	76
rained	76
▁Building	76
▁drew	76
▁Norwegian	76
▁declare	76
weep	76
▁Luckily	76
▁summarize	76
▁fatal	76
▁tide	76
▁connectome	76
▁behalf	76
▁nitrogen	76
▁adaptation	76
▁Carnegie	76
▁installed	76
▁Nice	76
▁Jean	76
▁evaluat	76
ime	76
▁precision	76
▁pants	76
▁Drug	76
▁taboo	76
▁operator	76
▁irrational	76
▁LHC	76
▁juice	76
▁peel	76
▁vibration	76
▁asthma	76
▁immediate	75
mula	75
natural	75
▁Muhammad	75
▁consent	75
▁horror	75
▁instruction	75
var	75
▁blade	75
▁swallow	75
hole	75
▁endeavor	75
▁glimpse	75
▁recur	75
▁Woo	75
▁inflation	75
▁harmful	75
▁surgeries	75
▁Natasha	75
▁flap	75
iction	75
▁cardboard	75
▁distract	75
▁endangered	75
▁Amsterdam	75
▁crab	75
phone	75
▁consensus	75
▁Victorian	75
▁dim	75
▁invade	75
▁convention	75
▁Cancer	75
▁politician	75
▁doubled	75
▁Galapagos	75
▁Country	75
post	75
▁likelihood	75
▁tolerance	75
▁Cold	75
▁multiply	75
▁transit	75
▁Roosevelt	75
▁pursuit	75
▁replaced	75
controller	75
▁Venice	75
▁Fish	75
▁horizontal	75
▁chimps	75
Wow	74
▁gross	74
▁unlikely	74
▁mainstream	74
▁default	74
▁calculated	74
▁migrate	74
▁receiving	74
▁compose	74
▁executive	74
destruct	74
▁puppet	74
▁guitar	74
▁regularly	74
ask	74
▁brush	74
▁Bio	74
consuming	74
▁Beethoven	74
▁recession	74
▁cheer	74
▁merit	74
▁SMS	74
▁outdoor	74
▁suspended	74
▁describing	74
▁satisfy	74
▁intact	74
▁veteran	74
▁Justice	74
▁assistant	74
▁occupy	74
▁believing	74
▁hint	74
▁replacement	74
▁strict	74
▁geography	74
standing	74
▁Kenyan	74
Where	74
▁Golden	74
▁Death	74
▁bounce	74
▁penalty	74
▁dropping	74
▁handful	74
▁Len	74
▁headache	74
▁congestion	74
▁Princeton	74
▁harbor	73
▁vocal	73
▁optical	73
▁documentary	73
▁Leone	73
▁calendar	73
▁accent	73
▁devote	73
▁demonstrated	73
▁stabilize	73
tropical	73
▁entertain	73
▁rabbit	73
▁penis	73
▁jungle	73
▁Large	73
▁Through	73
▁Susan	73
eastern	73
▁sooner	73
▁repeated	73
▁Sydney	73
▁hopeful	73
▁symmetries	73
▁harmony	73
▁teenage	73
▁discrimination	73
▁cope	73
▁Report	73
generation	73
▁thrive	73
▁enzyme	73
▁democracies	73
▁Dave	73
▁fallen	73
▁welfare	73
articulate	73
▁accomplish	73
▁Bear	73
▁Evan	73
▁Julian	73
▁Virgin	72
▁Jobs	72
▁subjective	72
▁overwhelmed	72
When	72
▁minority	72
▁broader	72
▁Language	72
▁hostile	72
powered	72
▁stereotype	72
▁Julie	72
▁maneuver	72
▁couch	72
▁technician	72
▁Jamaica	72
▁freezing	72
▁Person	72
▁separation	72
▁erect	72
▁deployed	72
▁envelope	72
▁lifted	72
▁sale	72
▁rescued	72
▁Invest	72
tuned	72
▁earning	72
▁Scotland	72
▁rejected	72
▁cylinder	72
atar	72
▁humble	72
▁skip	72
▁anniversary	72
▁calculator	72
▁bucket	72
▁coordination	72
▁odor	72
section	72
▁steam	72
▁Rule	71
▁tomato	71
▁rig	71
▁merge	71
▁atheist	71
▁hut	71
▁announce	71
▁nasty	71
▁vitamin	71
▁modest	71
▁boost	71
▁iceberg	71
▁catastrophe	71
▁echo	71
▁ingredient	71
▁basketball	71
▁Roo	71
▁Emily	71
▁gallery	71
▁cinema	71
▁playful	71
wire	71
▁comedy	71
▁Skype	71
technology	71
▁contest	71
▁privileged	71
▁Tele	71
▁flesh	71
▁biomass	71
▁infectious	71
▁abundance	71
▁unfair	71
▁youngest	71
▁utter	71
▁abandoned	71
▁trading	71
▁retina	71
▁typing	71
▁intervene	71
▁Norman	71
▁association	71
▁wore	71
▁iPad	71
▁Information	71
▁dictionaries	71
▁foi	71
▁Index	71
▁peculiar	71
▁evolving	71
▁Merc	71
▁prostitution	71
▁Native	71
▁improvise	71
frame	71
▁vivid	71
▁Mola	71
▁Rich	70
▁Defense	70
▁corridor	70
▁intensity	70
half	70
horn	70
▁Company	70
carbon	70
▁idiot	70
▁applause	70
▁squid	70
▁Francis	70
▁spatial	70
▁cubic	70
▁taxi	70
▁Nu	70
▁cloth	70
▁educator	70
▁residents	70
▁cattle	70
▁Guinea	70
▁Siberia	70
▁Nathan	70
▁Ushahidi	70
▁accomplished	70
▁Pink	70
▁inmates	70
income	70
conductor	70
▁Pakistani	70
▁exponentially	70
▁aggregate	70
▁blob	70
▁deficit	70
▁previously	70
▁Carol	70
▁dirt	70
▁Cross	70
▁SP	70
▁episode	70
▁adoption	70
▁warmer	70
▁smash	70
▁hometown	70
▁drain	70
▁Grow	70
▁Costa	70
▁Rica	70
▁eradicate	70
▁Forget	70
▁Secretary	70
▁LGBT	70
▁Turing	70
▁Alpha	70
▁Leader	70
▁CMU	70
▁inhibit	69
▁RSW	69
▁buses	69
▁Dead	69
▁recycled	69
▁fog	69
collar	69
RB	69
▁mathematician	69
▁BMW	69
▁scanning	69
▁vend	69
▁compute	69
▁randomly	69
▁Somebody	69
▁longevity	69
▁Thirty	69
▁machinery	69
▁transformative	69
oriented	69
▁Turk	69
▁configuration	69
▁Pixar	69
▁macro	69
▁dip	69
▁humility	69
▁diplomacy	69
documented	69
▁chef	69
▁vary	69
▁Dec	69
▁attracted	69
▁DARPA	69
▁commodity	69
▁praying	69
▁Learning	69
▁insert	69
two	69
▁Station	69
▁deposit	69
▁Finland	69
▁Rat	69
▁hacking	69
▁kindergarten	69
▁imagining	69
▁Dick	69
▁Alabama	69
▁Cities	69
▁Edinburgh	69
▁Babylon	69
▁wooden	69
▁Perfect	69
▁Doaa	69
▁Under	68
ither	68
▁abroad	68
racial	68
▁shepherd	68
▁refuse	68
▁obtain	68
▁sexually	68
▁elementary	68
▁Teszler	68
▁pleasant	68
volving	68
▁belly	68
▁Darfur	68
▁Sputnik	68
▁happily	68
▁sneak	68
▁coverage	68
▁trunk	68
▁discussing	68
▁navigat	68
▁masses	68
▁overlap	68
▁UCLA	68
▁Beck	68
▁authenticity	68
▁polite	68
▁fade	68
western	68
▁Patient	68
▁Glass	68
▁frustration	68
▁angiogenesis	68
▁resilient	68
course	68
▁lobe	68
▁convicted	68
▁minor	68
▁Happy	68
▁boundary	68
▁prospect	68
▁Without	68
▁disappointed	68
▁Recently	68
▁sneakers	68
▁livestock	68
▁chess	68
spot	68
▁literacy	68
▁Fifty	68
▁Unlike	68
▁holiday	68
▁goodbye	68
▁spi	68
▁generic	68
▁entrance	68
▁siblings	68
▁Type	68
▁alert	68
▁intimacy	68
Cloud	68
▁Michelangelo	67
▁illustration	67
▁consideration	67
▁SARS	67
▁swarm	67
▁defining	67
▁priorities	67
▁capitalist	67
▁Bonobo	67
▁farther	67
▁simplest	67
▁arrangement	67
▁dune	67
▁expense	67
OK	67
▁historian	67
▁circular	67
▁resurrect	67
▁Forest	67
▁reinforce	67
▁exotic	67
vascular	67
▁tricky	67
▁disk	67
▁embarrassed	67
▁Barry	67
▁scare	67
▁Mel	67
▁fantasy	67
▁accountability	67
▁duty	67
▁systematically	67
▁Cup	67
▁eternal	67
▁selective	67
▁economically	67
▁snail	67
▁refused	67
▁harsh	67
▁Plato	67
▁scientifically	67
▁philosophical	67
▁Direct	67
▁basement	67
▁competing	67
▁execution	67
▁tire	67
▁locomotion	67
▁Parliament	67
▁Renaissance	67
propelle	67
▁Incredible	67
▁cellphone	67
lessness	67
▁End	67
▁piss	67
▁Fair	66
▁contributing	66
▁Irish	66
▁emergence	66
kilometer	66
▁prim	66
wide	66
▁acres	66
uber	66
▁Old	66
▁Way	66
▁album	66
▁tagged	66
▁Excellent	66
▁improvisation	66
▁grant	66
▁McDonald	66
▁pesticide	66
▁orientation	66
▁dishes	66
▁regenerate	66
▁payment	66
▁celebrity	66
▁Jerry	66
▁sponsor	66
▁conceptual	66
▁metabolism	66
▁isolation	66
▁Secondly	66
▁reporter	66
▁mating	66
Cent	66
▁rail	66
▁entities	66
▁transaction	66
▁stain	66
▁scarce	66
▁wrapped	66
▁marijuana	66
▁receiver	66
▁Head	66
▁Full	66
▁Arduino	66
▁Oregon	66
▁juvenile	66
▁halfway	65
▁forecast	65
▁gentle	65
▁sequencing	65
▁institute	65
▁pixel	65
▁Hawking	65
▁Hyper	65
eanwhile	65
▁nail	65
▁Side	65
responsibilities	65
▁shaking	65
▁sensing	65
pouring	65
▁converge	65
▁Ultimately	65
▁concentrate	65
▁desperate	65
▁Euro	65
▁cult	65
▁Nico	65
▁performer	65
▁Prime	65
▁staggering	65
▁consult	65
▁utterly	65
▁unfortunate	65
▁recognizing	65
▁scrap	65
▁iconic	65
▁remotely	65
▁mosque	65
▁favela	65
▁caregiver	65
▁generator	65
▁optimize	65
effective	65
▁vocabulary	65
▁airline	65
▁assault	65
▁ideology	65
▁Baltimore	65
▁turtle	65
▁Lear	65
▁Climate	65
▁arc	65
▁calculus	65
▁memorial	65
▁pricing	65
▁Wolfram	65
▁cage	65
▁Babbage	65
▁gasoline	64
▁thermo	64
▁approximately	64
▁noisy	64
▁integration	64
▁Fast	64
▁Kyoto	64
stance	64
▁Pick	64
▁Slow	64
▁internet	64
conscious	64
▁straw	64
▁ingenuity	64
▁crude	64
▁astronomy	64
▁fuck	64
▁celebration	64
▁deepest	64
▁Fox	64
▁wives	64
▁Base	64
▁imperative	64
▁hive	64
▁practicing	64
▁hamburger	64
Who	64
▁famine	64
▁Margaret	64
▁computational	64
▁bacterium	64
▁threaten	64
▁drama	64
▁chew	64
▁Titanic	64
▁Teacher	64
▁blur	64
▁digitize	64
▁significance	64
▁altogether	64
MG	64
▁Angel	64
LT	64
▁underestimate	64
EM	64
threatening	64
▁empowerment	64
▁accelerating	64
risk	64
▁passes	64
luck	64
▁Rosetta	64
▁feather	64
▁kite	64
▁Cultur	64
▁fungi	64
▁envision	64
▁biosphere	64
▁swap	64
▁whip	64
▁sovereign	64
▁terrific	64
▁copies	64
Wonder	64
▁Solar	64
▁Katrina	64
▁autistic	64
▁Tennessee	63
▁gadget	63
▁Vegas	63
▁skeptic	63
▁Royal	63
▁blueprint	63
▁submit	63
▁Jill	63
▁Desert	63
▁clarity	63
▁headquarters	63
▁AIMS	63
▁Until	63
▁heroin	63
▁obsession	63
▁Wild	63
▁Although	63
▁superpower	63
▁Idaho	63
▁integrity	63
▁dominated	63
▁captain	63
▁silicon	63
▁Both	63
▁Hindu	63
▁Mahat	63
▁redefine	63
▁Pepsi	63
▁abandon	63
▁immigrant	63
▁slogan	63
cientific	63
▁Yale	63
▁salmon	63
▁ultraviolet	63
▁Commission	63
▁Truth	63
▁progressive	63
▁rhino	63
▁elaborate	63
▁controversy	63
▁FO	63
▁gravitational	63
ambia	63
▁identities	63
▁revolutionary	63
▁Uber	63
▁guerrilla	63
▁yeast	63
▁Whitopia	63
Psycho	62
▁Amazing	62
▁steady	62
▁Jazeera	62
▁Huh	62
▁Point	62
▁Darwinian	62
▁funeral	62
▁systematic	62
▁managing	62
contained	62
▁Kelly	62
▁Guatemala	62
▁integrate	62
▁Count	62
link	62
▁clone	62
▁mount	62
▁blew	62
▁preparation	62
communica	62
▁nonetheless	62
▁Close	62
▁Low	62
▁synapse	62
▁dragonflies	62
other	62
▁oven	62
▁chemotherapy	62
▁Simple	62
▁chord	62
▁Poor	62
▁cartoonist	62
▁settlement	62
▁sadness	62
▁adolescent	62
▁Bring	62
ocratic	62
▁Bulgaria	62
▁intend	62
▁inherently	62
▁Scratch	62
▁Oakland	62
▁employment	62
▁manufacture	62
▁migrant	62
▁indicator	62
▁replied	62
front	62
▁planned	62
supernova	62
▁seawater	62
▁propaganda	62
▁distress	62
▁Cairo	62
▁cholera	62
▁Ella	62
▁Stay	62
▁obligation	61
▁bay	61
▁plankton	61
▁progression	61
▁slept	61
tenth	61
▁Poland	61
▁abstraction	61
▁undergraduate	61
▁fractal	61
▁index	61
▁scholar	61
case	61
▁Night	61
▁utility	61
▁crows	61
▁eco	61
▁statue	61
▁symbolic	61
▁monument	61
▁Stein	61
orough	61
▁Marshall	61
▁beef	61
▁Democratic	61
▁protective	61
walk	61
▁council	61
▁accomplishment	61
▁multinational	61
▁peanut	61
discriminat	61
▁observing	61
▁frequencies	61
programmed	61
▁intriguing	61
▁exquisite	61
▁criteria	61
▁biases	61
▁continuously	61
▁disrupt	61
▁racing	61
▁lesbian	61
▁firing	61
▁bacterial	61
▁analyzing	61
▁Bridge	61
▁Diego	61
▁overseas	61
Barack	61
▁Starbucks	61
▁hump	61
▁Mau	61
▁maintenance	61
leaning	61
Cola	61
▁Left	61
▁Nanopatch	61
▁Grace	61
▁yourselves	60
▁erase	60
▁crashes	60
▁constitution	60
▁publisher	60
▁slope	60
▁mob	60
▁mobilize	60
▁Cooper	60
▁rectangle	60
▁Colorado	60
▁cardiac	60
▁giga	60
▁dismiss	60
▁Fahrenheit	60
▁desktop	60
▁swamp	60
▁Edison	60
▁Scottish	60
▁violin	60
▁Master	60
▁carro	60
▁gaze	60
▁via	60
▁Math	60
▁competitor	60
▁Mediterranean	60
▁autonomy	60
profit	60
▁deciding	60
▁Lawrence	60
▁spaghetti	60
▁Max	60
▁Palestine	60
▁cabinet	60
speed	60
▁marrow	60
▁disappoint	60
▁sexuality	60
▁repeatedly	60
▁prosecutor	60
▁neurogenesis	60
▁greed	60
▁Change	60
▁ashamed	60
▁disabilities	60
▁maximum	60
▁inherited	59
▁skeptical	59
▁stumble	59
▁Creative	59
▁Modern	59
▁chromosomes	59
built	59
▁orphan	59
▁cocktail	59
▁curl	59
▁premise	59
▁characteristic	59
▁Toronto	59
▁loo	59
▁Anna	59
fulfilling	59
▁steep	59
▁avatar	59
▁occurring	59
▁astro	59
▁Bruce	59
▁Jennifer	59
▁Freud	59
▁inexpensive	59
▁voters	59
▁richest	59
▁plea	59
story	59
▁embracing	59
▁composer	59
▁easiest	59
▁friction	59
▁Shake	59
▁morph	59
▁PowerPoint	59
▁reflex	59
▁inhabit	59
▁Franklin	59
▁tourist	59
▁Ministry	59
▁Vancouver	59
▁NB	59
▁satisfied	59
▁ambulance	59
▁Isaac	59
▁triumph	59
▁JF	59
▁ease	59
▁Emma	59
▁participating	59
▁Virtual	59
▁Mahmoud	59
▁problematic	58
▁Kibera	58
▁Whereas	58
▁lightning	58
▁shining	58
▁encyclopedia	58
▁encode	58
▁passage	58
▁scholarship	58
ó	58
▁spite	58
▁Students	58
▁Miami	58
▁accountable	58
▁anthropologist	58
▁numb	58
▁dysfunction	58
▁unseen	58
▁distribute	58
▁genomic	58
▁pea	58
▁Wilson	58
▁absurd	58
▁Deep	58
▁urbanization	58
▁tangible	58
▁causal	58
▁reuse	58
▁injection	58
▁mandate	58
▁valve	58
quality	58
▁sulfide	58
▁Spider	58
▁cathedral	58
▁Photoshop	58
▁faint	58
▁spontaneously	58
▁nuclei	58
qualified	58
▁symmetrical	58
▁baseline	58
▁Corporation	58
▁ladder	58
▁meditation	58
invasive	58
▁insult	58
▁nonviolen	58
▁Interviewer	58
▁multiverse	58
▁manuscript	58
▁enthusiasm	58
▁Almost	58
▁Game	58
▁Accord	58
▁Circle	58
▁rehabilitation	58
▁fuzzy	58
▁observer	58
▁Diet	58
▁governor	58
▁Pantheon	58
▁laboratories	58
▁altruism	58
▁essay	58
▁retain	58
▁Pope	58
▁mustache	58
▁knot	58
▁invasion	58
▁gait	58
athlete	58
▁niece	58
▁RNG	58
▁planner	58
▁Economist	58
▁exit	57
▁committee	57
▁eBay	57
▁minimal	57
▁Pentagon	57
child	57
▁import	57
flat	57
▁Josh	57
▁protocol	57
▁anxious	57
ightened	57
▁IMF	57
▁physiology	57
biotic	57
▁Snow	57
▁sensitivity	57
▁Sadly	57
▁Rap	57
▁cooperative	57
▁crank	57
▁ancestor	57
▁grape	57
apping	57
▁Group	57
midst	57
▁MO	57
▁manifest	57
▁Soldier	57
▁trail	57
▁exceed	57
▁coordinate	57
▁escalat	57
▁pharma	57
▁cafe	57
▁hallucinations	57
▁insula	57
▁tribal	57
▁Bond	57
▁Maldives	57
▁unleash	57
▁coincidence	57
▁Robin	57
▁Rather	57
▁satisfaction	57
▁disruptive	57
▁carries	57
▁heroic	57
▁diagnose	57
▁assessment	57
▁delete	57
▁embryo	57
▁festival	57
▁Network	57
▁devise	57
ã	57
▁singular	57
▁rigid	57
▁opposition	57
▁Mama	57
▁Fortune	57
▁Everglades	57
▁Fall	57
▁Ground	57
cultural	57
▁passport	57
assuming	57
▁Madagascar	57
▁wolves	57
▁RISD	57
▁Gwen	57
▁Discover	56
▁profitable	56
▁Except	56
▁prioritize	56
▁surgical	56
▁buck	56
▁flock	56
▁zip	56
▁Anybody	56
▁socio	56
▁accuse	56
▁claw	56
▁fireflies	56
▁broccoli	56
▁worship	56
▁Guardian	56
▁enthusiast	56
▁Cuban	56
▁relativity	56
glass	56
screen	56
▁solemn	56
▁Magazine	56
▁romance	56
▁Tiger	56
▁wander	56
▁digging	56
▁flexibility	56
▁conviction	56
three	56
▁manipulation	56
▁Ann	56
▁libraries	56
▁curtain	56
JC	56
▁intrigue	56
▁Flickr	56
minded	56
etropolitan	56
▁grammar	56
▁Speak	56
▁stadium	56
▁Avenue	56
▁Veronica	56
▁larvae	56
▁unemployment	56
▁Houston	56
▁League	56
▁vanish	56
▁patience	56
▁Sebastian	56
▁cybercriminal	56
▁Achilles	56
▁Aaron	56
▁Bonica	56
▁cement	55
▁blogger	55
▁tilt	55
▁orgasm	55
▁calculating	55
lateral	55
Friend	55
▁mycelium	55
▁conquer	55
▁salary	55
▁posture	55
▁associate	55
▁Depression	55
▁liberate	55
▁specimen	55
▁indication	55
▁Tamiflu	55
▁Vinci	55
▁syringe	55
▁bulk	55
▁Oprah	55
▁technologist	55
▁oyster	55
▁chick	55
▁Opera	55
▁blessed	55
▁Algeria	55
▁puff	55
operated	55
▁Police	55
▁Exxon	55
radiat	55
▁breakdown	55
▁Code	55
▁assess	55
▁Economic	55
▁galleries	55
degree	55
▁font	55
▁hacker	55
▁Dubai	55
▁puberty	55
▁abortion	55
▁potent	55
▁heavily	55
▁Trust	55
▁greet	55
▁Malawi	55
centric	55
▁JA	55
▁reproduction	55
▁CNN	55
▁Romo	55
▁Potter	54
▁powder	54
▁shade	54
▁grocery	54
▁incremental	54
ounce	54
▁Rush	54
▁copper	54
▁anatomy	54
▁regardless	54
▁Yesterday	54
▁vice	54
▁transmitted	54
enabling	54
ipcar	54
▁mast	54
▁slaughter	54
▁Dylan	54
▁Mississippi	54
▁anesthesia	54
▁noticing	54
script	54
▁prohibit	54
▁Holocaust	54
▁fluctuation	54
conditioning	54
▁soccer	54
held	54
▁Tehran	54
▁Glenn	54
ranging	54
▁Someone	54
▁province	54
▁gratitude	54
cheek	54
▁parliament	54
temporal	54
▁summary	54
▁perpetrat	54
▁relie	54
▁flute	54
▁Progress	54
▁rival	54
▁personalities	54
▁leopard	54
▁elbow	54
▁glove	54
▁applies	54
▁bypass	54
▁frustrating	54
correct	54
▁characterize	54
▁Text	54
turn	54
▁Hundreds	54
▁scroll	54
▁Taylor	54
▁Melinda	54
▁gigantic	54
adolescence	54
▁companion	54
▁Model	54
▁fingertips	54
▁Ohio	54
▁Bahamas	54
▁compass	54
▁memorize	54
▁admitted	54
▁Jesse	54
▁confusion	54
▁depict	54
▁humankind	54
▁criticism	54
▁Tweet	54
▁Caltech	54
▁textile	54
▁slam	54
▁versa	54
mediate	54
fairy	54
▁citizenship	54
▁Coca	54
▁Europa	54
▁Gando	54
▁pervasive	53
▁Moses	53
▁violate	53
▁Understand	53
wheel	53
▁octopus	53
▁Julia	53
▁Jason	53
▁surviving	53
▁ramp	53
▁velocity	53
▁compliment	53
▁incorporat	53
▁commodities	53
▁choir	53
▁Falcon	53
harming	53
▁Gaza	53
▁conserv	53
▁Senate	53
▁Face	53
▁eradication	53
▁metabolic	53
▁Compassion	53
▁Alto	53
▁Voyager	53
▁crises	53
▁Strange	53
equipped	53
▁Town	53
▁chalk	53
ompanies	53
▁midnight	53
▁viable	53
▁diminish	53
▁liberty	53
▁Hitler	53
▁PDF	53
▁distraction	53
▁Bono	53
▁seafood	53
▁Panbanisha	53
▁Murray	53
▁clap	53
▁Walter	53
▁Marcus	53
positive	53
▁Vietnamese	53
▁Conference	53
▁fame	53
▁disadvantage	53
handed	53
▁Amanda	53
▁bombsight	53
▁visitors	52
▁Jimmy	52
▁displaced	52
▁opponent	52
▁hurdle	52
▁chaotic	52
▁ghost	52
▁Baby	52
▁Cassini	52
▁spear	52
▁microscopic	52
▁imitate	52
▁outrage	52
▁forehead	52
▁submarine	52
▁peek	52
▁occupation	52
▁mundane	52
▁Program	52
▁manifestation	52
▁Brand	52
▁Agency	52
rooted	52
▁eager	52
▁catastrophic	52
▁masterpiece	52
▁Agnes	52
▁Sub	52
▁generosity	52
▁mixture	52
▁Antarctic	52
▁Engine	52
▁Digital	52
▁sentiment	52
▁Anonymous	52
▁acute	52
▁Reagan	52
▁defect	52
▁cried	52
▁Anyone	52
▁dude	52
ploy	52
▁correlate	52
▁thylacine	52
▁neglect	52
▁parameters	52
directed	52
▁irrelevant	52
▁hallway	52
▁chill	52
▁fishermen	52
▁warfare	52
▁thrust	52
▁Archie	52
▁testosterone	52
▁Doug	52
controlled	52
▁motorcycle	51
▁Market	51
▁differ	51
▁jury	51
▁hatred	51
▁compil	51
▁quantity	51
piece	51
▁Channel	51
▁Volunteer	51
▁Together	51
▁glu	51
▁calcium	51
▁limestone	51
▁grief	51
▁blanket	51
culture	51
generative	51
▁Captain	51
▁differentiate	51
esteem	51
▁frightened	51
ggling	51
▁flick	51
▁authoritarian	51
▁banned	51
▁modified	51
▁nonsense	51
▁dissolve	51
▁cartilage	51
AG	51
▁LOL	51
▁Thousands	51
▁Armstrong	51
▁Tahrir	51
▁Micro	51
itis	51
▁mature	51
▁restrictions	51
▁consultant	51
▁folk	51
▁injustice	51
▁Eighty	51
▁Teach	51
▁Titus	51
▁Marx	51
▁Ninety	51
▁shortcut	51
▁stratosphere	51
uestion	51
▁Venter	51
▁shred	51
▁Biosphere	51
▁Energy	51
▁degraded	51
▁IKEA	51
▁Samuel	51
organism	51
sensitive	51
▁Online	51
▁Club	51
ummy	51
▁petals	51
▁hammer	50
▁Tree	50
▁imperfect	50
▁Kanzi	50
▁numerous	50
▁Toyota	50
Africa	50
▁abnormal	50
▁Christianity	50
▁annoying	50
▁Hadr	50
▁guilt	50
▁skate	50
▁Nano	50
▁radar	50
▁Nevada	50
▁True	50
▁crocodile	50
▁recycle	50
▁servant	50
▁resort	50
▁BBC	50
▁Survey	50
▁conscience	50
▁CIA	50
▁potatoes	50
▁orphanage	50
▁delusion	50
▁Father	50
▁reply	50
▁mortgage	50
▁Witness	50
governmental	50
▁convincing	50
▁equator	50
▁Galileo	50
▁grassroots	50
▁violation	50
▁curator	50
▁dispute	50
▁indirect	50
▁Cohen	50
ike	50
traumatic	50
ç	50
▁combin	50
▁Chair	50
▁chap	50
▁courageous	50
▁Compare	50
synchron	50
▁polymer	50
▁monsoon	50
▁contagious	50
▁hatch	50
▁surrender	50
▁mutant	50
▁nucleus	50
▁Kentucky	50
▁Clark	50
▁submersible	50
▁pillar	50
▁Convention	50
▁juggle	50
▁grim	50
nanometer	50
▁symphony	50
▁Collect	50
▁happiest	50
▁CAPTCHA	50
▁ooh	49
▁backpack	49
▁worthwhile	49
▁Lanka	49
▁Probably	49
▁monk	49
▁Million	49
▁Mission	49
▁aviation	49
▁extensive	49
▁waterfall	49
▁shelves	49
dged	49
▁helmet	49
counterintuitive	49
▁legend	49
izzy	49
▁blindfold	49
frequent	49
▁certificate	49
▁Portuguese	49
▁symptom	49
▁pregnancy	49
Uh	49
▁censor	49
▁resonance	49
sourcing	49
▁recreate	49
▁impose	49
▁Motor	49
▁Ryan	49
▁auditorium	49
school	49
77	49
▁Lakota	49
▁unemployed	49
▁flex	49
▁entity	49
▁regulator	49
sighted	49
▁petition	49
▁clich	49
▁infrared	49
▁acceptance	49
▁Isabel	49
è	49
▁Origin	49
▁lend	49
▁playground	49
▁Mario	49
▁resonate	49
▁Poem	49
▁Goodbye	49
▁loneliness	49
▁Essentially	49
▁offshore	49
▁mythology	49
▁CERN	49
▁policing	49
social	49
▁dentist	49
▁MBA	49
▁evaporate	49
▁internship	49
▁janitor	49
▁Bassem	49
▁lamb	49
▁complication	48
▁Russell	48
▁improbable	48
▁elders	48
▁sediment	48
▁prevalence	48
appreciated	48
▁beneficial	48
▁Moscow	48
▁Yves	48
▁shuttle	48
▁insecure	48
▁Jonathan	48
▁nanotechnology	48
▁Thanksgiving	48
▁Planet	48
▁Hebrew	48
▁remov	48
▁analytical	48
▁Khan	48
▁enrich	48
bladder	48
▁hypotheses	48
▁circulation	48
▁distill	48
▁Dimitri	48
▁unpredictable	48
▁promot	48
▁halve	48
▁rhetoric	48
▁standpoint	48
▁mammoth	48
▁Still	48
▁attorney	48
▁battlefield	48
▁declining	48
▁Grey	48
▁widespread	48
▁promising	48
▁finite	48
▁visceral	48
▁bionic	48
contacted	48
▁wreck	48
▁billboard	48
▁Raisuddin	48
▁affirm	48
▁Village	48
▁Duke	48
▁crust	48
▁temptation	48
▁victory	48
▁census	48
▁Jenn	48
unshine	48
▁dorm	48
▁Brook	48
▁Studio	48
▁Enceladus	48
▁biotech	48
▁Lesterland	48
etween	47
ifteen	47
Lux	47
▁manipulat	47
▁Raise	47
▁optimal	47
▁buzz	47
▁inherent	47
▁laundry	47
▁timber	47
▁fierce	47
▁throat	47
▁infect	47
▁misuse	47
▁Barbie	47
▁fundraising	47
▁Living	47
▁scope	47
▁intricate	47
▁Knowing	47
▁lump	47
▁erupt	47
▁Papua	47
▁Scot	47
▁pivot	47
lude	47
▁incomplete	47
▁unacceptable	47
▁convenience	47
▁Gordon	47
burn	47
▁embodied	47
▁intangible	47
▁aluminum	47
▁delicate	47
▁voyage	47
keeper	47
▁depressing	47
▁prescribe	47
▁Control	47
▁Yellow	47
▁Rosling	47
▁urine	47
▁benign	47
▁stall	47
▁blessing	47
▁Missouri	47
▁Oscar	47
▁urgent	47
orrow	47
▁Android	47
espite	47
▁carrier	47
▁Malaysia	47
Contra	47
cycle	47
echanical	47
▁geometric	47
▁Thursday	47
▁Prison	47
▁Nollywood	47
▁pepper	47
▁Illinois	47
▁savanna	47
▁sync	47
▁Self	47
▁Baghdad	47
▁wavelength	47
induced	47
▁Cameron	47
▁assembled	47
▁Ecuador	47
▁Solly	47
▁Judge	47
reviewed	47
▁migraine	47
group	47
▁hobby	47
▁Goliath	47
▁Stirling	46
▁bandwidth	46
▁Senegal	46
▁approval	46
▁bloom	46
▁shaping	46
▁shove	46
▁tennis	46
▁ambiguity	46
▁slot	46
▁mutate	46
▁Record	46
▁Midwest	46
▁debris	46
▁antibiotic	46
▁Turkish	46
▁submitted	46
▁Shoots	46
▁Jackson	46
▁railroad	46
▁transferred	46
▁circulat	46
▁constructive	46
▁tropics	46
▁compact	46
▁doubling	46
conflict	46
▁societ	46
▁censorship	46
▁alliance	46
▁surplus	46
▁ATM	46
▁corporation	46
▁lazy	46
▁penetrate	46
▁unintended	46
▁Berg	46
▁inviting	46
▁Archimedes	46
▁terminal	46
▁Democracy	46
▁quantities	46
▁impaired	46
▁modules	46
▁equilibrium	46
▁anecdote	46
▁verge	46
▁incidentally	46
▁hurricane	46
▁Hotel	46
▁venue	46
ö	46
▁unstable	46
▁synchronize	46
▁existential	46
▁paralysis	46
▁stink	46
▁Tracy	46
▁Correct	46
▁Vermeer	46
▁simulator	46
▁Fibonacci	46
▁Money	45
▁cease	45
▁Saint	45
▁ethanol	45
▁lawsuit	45
▁raft	45
▁Financial	45
▁tuberculosis	45
▁synthesis	45
centered	45
▁bunk	45
phobic	45
▁Extra	45
▁thunder	45
politi	45
▁shield	45
▁shipped	45
▁superhero	45
▁wax	45
▁choreograph	45
▁pave	45
▁promotion	45
▁horrific	45
▁Galois	45
▁algebra	45
▁Walmart	45
▁hypothetical	45
▁Daddy	45
▁entitled	45
▁Mathematica	45
▁psyche	45
▁Commun	45
million	45
▁snapshot	45
▁electromagnetic	45
▁sober	45
▁TBP	45
▁Mellon	45
▁celebrating	45
▁Picture	45
▁stole	45
▁Brilliant	45
▁harass	45
▁simplistic	45
▁nectar	45
▁varieties	45
▁athletic	45
▁rainfall	45
▁vegetation	45
▁remittance	45
▁literal	45
▁Maryland	45
▁Batman	45
▁shoreline	45
▁Dream	45
▁Judaism	45
▁Oliver	45
▁verse	45
▁pneumonia	45
security	45
▁haunt	45
▁introvert	45
▁reproductive	45
▁quiz	45
▁rabbi	45
▁cultivate	45
▁Embassy	45
▁fisc	45
▁whistling	45
▁Portland	45
Actor	45
▁Sergio	45
▁novelty	44
▁prevail	44
▁Normal	44
▁reclaim	44
▁hung	44
worn	44
▁hollow	44
▁jewelry	44
▁interfere	44
▁examine	44
▁duration	44
▁Image	44
▁commute	44
▁ideological	44
▁Federal	44
▁ambassador	44
▁erotic	44
▁denied	44
▁introducing	44
▁activat	44
▁distinctive	44
▁racism	44
▁pediatric	44
▁rainbow	44
specially	44
▁acceleration	44
▁landfill	44
entrepreneurship	44
▁selves	44
▁shuffle	44
▁disruption	44
▁Traditional	44
▁psychiatri	44
▁portray	44
sumption	44
▁graffiti	44
▁personnel	44
▁Dark	44
▁conspiracy	44
▁Hawk	44
▁uncover	44
▁recipient	44
derived	44
▁exoplanet	44
▁rediscover	44
▁hippocampus	44
▁quantitative	44
▁embark	44
▁Wired	44
▁Mongolia	44
▁supercomputer	44
▁abundant	44
▁collide	44
▁Worldchanging	44
▁scuba	44
imposed	44
▁charities	44
▁Morocco	44
▁evaluate	43
brain	43
▁praise	43
forward	43
▁keen	43
▁Maslow	43
▁Alfred	43
▁treasure	43
▁reluctan	43
▁synesthesia	43
▁shallow	43
▁Hungarian	43
▁Picasso	43
▁vector	43
▁stiff	43
▁Collider	43
▁suitcase	43
▁Hiroshima	43
▁eyebrow	43
▁Copernicus	43
evident	43
▁accompanie	43
▁divine	43
▁swear	43
emission	43
▁pursuing	43
tolerant	43
▁oppos	43
league	43
▁Magic	43
▁penicillin	43
▁entrepreneurial	43
▁Southeast	43
market	43
confidence	43
▁stir	43
▁releas	43
Having	43
▁replacing	43
▁confusing	43
▁Chief	43
▁Beatles	43
fashioned	43
▁guidance	43
▁Hurricane	43
▁missile	43
▁preschool	43
▁expose	43
▁boson	43
specific	43
▁incarceration	43
Mommy	43
▁giraffe	43
▁glorious	43
hypertension	43
▁shiny	43
▁wetsuit	43
▁Hudson	43
▁Eames	43
▁gecko	43
▁replicator	43
▁Robot	43
▁beekeepers	43
▁ADHD	43
▁pessimist	43
▁Vienna	43
▁Grant	43
▁confession	43
▁horrified	43
▁rotating	43
▁investigating	43
▁fungus	43
▁Jonas	43
▁chemo	43
▁Aimee	43
▁packaging	43
▁Theater	43
▁Movember	43
▁Broadway	42
▁lithium	42
▁Valenti	42
▁foreground	42
▁hygiene	42
▁capacities	42
stitution	42
▁malnutrition	42
▁Martian	42
▁crater	42
▁Hampshire	42
▁toddler	42
▁scanned	42
▁fuse	42
▁retrospect	42
▁employee	42
▁USDA	42
▁Furby	42
▁catalog	42
▁paradise	42
▁Nicholas	42
▁polish	42
▁prejudice	42
▁continuum	42
▁competent	42
▁seize	42
▁royal	42
▁modify	42
▁referred	42
▁astounding	42
▁Innovation	42
▁altruist	42
▁Mitchell	42
▁geographical	42
▁behaving	42
▁Saddam	42
▁Kabul	42
▁revenge	42
▁banjo	42
▁juggling	42
▁hurry	42
▁Awesome	42
▁NIH	42
bank	42
▁epic	42
▁marvelous	42
▁swo	42
▁grassland	42
▁Helvetica	42
▁Hispanic	42
partisan	42
▁Ranger	42
▁Special	42
▁curse	42
▁permit	42
▁Graham	42
▁hind	42
▁lightweight	42
▁subsequent	42
▁orangutan	42
▁negotiating	42
bearing	42
▁Clar	42
▁Evolution	42
▁notebook	42
▁checklist	42
▁superconductor	42
▁jacket	42
▁genital	42
▁Eleanor	42
▁nickname	42
▁cumulative	42
▁Rag	42
▁Trek	42
solving	42
▁apparent	42
▁tadpole	42
▁Diana	42
▁Harlem	42
▁Generation	42
▁Broadmoor	42
▁doodling	42
▁aquatic	41
▁discrete	41
explosive	41
color	41
scatter	41
▁secular	41
economic	41
▁comprehensive	41
▁Stockholm	41
▁outrageous	41
▁arbitrary	41
▁nurturing	41
▁OPEC	41
▁paragraph	41
▁solitary	41
▁Pardon	41
megawatt	41
▁prototyping	41
▁Donald	41
▁Botswana	41
▁exclude	41
▁feat	41
▁misery	41
▁sympathy	41
▁Build	41
ripped	41
▁mammogram	41
▁Philippines	41
▁drip	41
▁serotonin	41
▁browse	41
▁superior	41
▁reconnect	41
▁prophet	41
▁estrogen	41
▁Campaign	41
opulation	41
welve	41
▁melody	41
▁Morgan	41
▁Dublin	41
knit	41
▁sponge	41
stepping	41
▁Bowl	41
▁cyclist	41
▁draft	41
▁Bolt	41
▁activism	41
▁Forbes	41
▁gossip	41
▁motto	41
▁fingerprint	41
▁excellence	41
▁treadmill	41
▁Jacques	41
▁radius	41
▁stimulus	41
value	41
▁pearl	41
▁puncture	41
typical	41
▁Rouge	41
▁Critic	41
▁ozone	41
▁unfinished	41
▁antidepressant	41
▁Hopkins	41
▁Najmuddin	41
▁Sudhir	40
▁instability	40
▁Rachel	40
hmm	40
wrinkle	40
▁Film	40
▁Charlotte	40
colonial	40
▁nitr	40
▁Boeing	40
▁Alexandria	40
▁automated	40
▁Laptop	40
▁socket	40
▁Pitt	40
▁Erik	40
▁justify	40
▁championship	40
▁Capital	40
growing	40
▁deplet	40
▁superstar	40
▁porn	40
▁adulthood	40
symmetric	40
▁thriving	40
proving	40
▁Celsius	40
▁Challenge	40
alactic	40
▁pension	40
▁Shortly	40
▁faculty	40
basin	40
▁Surely	40
▁Mandarin	40
▁agile	40
▁Species	40
▁Bonnie	40
▁mortal	40
regulating	40
▁Wednesday	40
▁Ukraine	40
▁Asperger	40
efficacy	40
▁Aurora	40
▁administrator	40
rthodox	40
▁DDT	40
▁Stanley	40
▁Eduardo	40
▁lymph	40
▁Tomorrow	40
▁deceive	40
▁Nowadays	40
▁meadow	40
▁Bageye	40
▁railway	40
▁acronym	40
Thank	40
▁detach	40
▁Claus	40
▁offensive	40
▁Anthony	40
▁Choir	40
▁fission	40
▁Arkansas	40
▁Genome	39
▁implicit	39
sustaining	39
▁lava	39
▁glide	39
▁courtyard	39
▁Klein	39
▁variant	39
▁spontaneous	39
▁IDEO	39
▁implication	39
▁jeans	39
prehensi	39
▁CPU	39
▁scoop	39
quarters	39
▁cereal	39
▁worries	39
▁Constitution	39
▁teddy	39
rogue	39
▁Typically	39
▁disbelief	39
▁veterinarian	39
▁educating	39
▁Tasmania	39
vocation	39
▁geological	39
▁erosion	39
▁ridicule	39
▁uncertain	39
▁mammography	39
commerce	39
▁liberation	39
▁thrill	39
▁adequate	39
▁unequal	39
▁excite	39
▁antibodies	39
▁Extreme	39
▁PIPA	39
▁memorable	39
▁bruise	39
▁Lisa	39
▁crisp	39
▁Terence	39
▁ovari	39
▁Matthew	39
▁Pearl	39
▁Kurzweil	39
green	39
avian	39
▁spawn	39
▁Giant	39
▁undercover	39
▁sniff	39
▁cafeteria	39
▁pancreatic	39
▁maximize	39
▁pollute	39
▁dependence	39
▁Disease	39
▁retrofit	39
Leymah	39
engage	38
chlor	38
▁variability	38
composite	38
▁prostitute	38
▁Elephant	38
▁enforce	38
▁illiterate	38
▁perceptual	38
▁fertility	38
▁template	38
▁obey	38
intelligent	38
▁napkin	38
▁windmill	38
▁miraculous	38
▁modular	38
▁stab	38
▁potato	38
woman	38
▁sterile	38
stretched	38
▁ultrasound	38
▁yogurt	38
titled	38
▁arteries	38
▁Command	38
▁nuance	38
▁zoning	38
▁arose	38
▁Though	38
▁virtuous	38
▁reconcile	38
▁Nikola	38
▁smuggle	38
▁immigration	38
▁recreation	38
categoriz	38
AIDS	38
▁scalable	38
▁rupees	38
▁arguably	38
driving	38
▁uprising	38
▁Maitreya	38
▁nomad	38
▁steak	38
▁devastated	38
▁NATO	38
▁Product	38
▁abusive	38
▁beloved	38
wrestling	38
▁minimize	38
▁strive	38
▁discomfort	38
▁maze	38
▁heartbreak	38
▁ingenious	38
▁unveil	38
▁hedge	38
▁Swahili	38
▁strap	38
▁hunch	38
▁Therefore	38
▁kitten	38
▁Linda	38
▁Istanbul	38
▁Harbor	38
▁pennies	38
▁regain	38
▁clapping	38
▁hyena	38
▁provoke	38
▁JPL	38
▁incubator	38
▁StoryCorps	38
▁turbine	38
▁cobra	38
▁vapor	37
▁Twain	37
▁relieved	37
sound	37
▁jewel	37
▁capsule	37
▁foragers	37
▁sought	37
▁pronounce	37
▁bioluminescence	37
▁literary	37
▁hippie	37
▁vegetarian	37
▁Delta	37
▁Gapminder	37
▁pornography	37
▁volcan	37
▁queue	37
▁rigorous	37
▁heartbeat	37
▁inflate	37
▁Minnesota	37
apartheid	37
▁reception	37
actua	37
▁applaud	37
▁Bueno	37
▁instructor	37
contaminated	37
▁DIY	37
▁degradation	37
▁physiological	37
▁instinctively	37
▁resign	37
▁vicious	37
▁unsustainable	37
▁vibrating	37
▁Often	37
▁Acumen	37
▁tactics	37
▁EEG	37
▁barber	37
▁dictate	37
▁stunning	37
▁SOPA	37
▁daunting	37
obbing	37
▁centigrade	37
▁imaginative	37
▁blunt	37
▁uplift	37
▁Geneva	37
control	37
present	37
▁burial	37
▁asylum	37
▁fridge	37
▁sank	37
▁Myriad	37
▁hike	37
▁dining	37
▁Rockefeller	37
▁Develop	37
▁communal	37
▁plague	37
▁Transition	37
▁Tarahumara	37
▁Velcro	37
▁tolerate	37
▁Cochrane	37
▁misconception	37
▁downstairs	37
▁anonymity	37
▁apprentice	37
▁adversity	37
▁unfamiliar	37
▁alpha	37
▁circumstance	37
▁Alhambra	37
▁Negroponte	37
▁sulfur	37
▁Mauritius	37
▁vague	37
▁Cyril	37
▁Weibo	37
▁Dragon	37
▁Austin	36
conceived	36
▁conceive	36
▁pledge	36
▁cosmology	36
▁tinker	36
▁cruise	36
▁congress	36
▁mysteries	36
▁Viagra	36
▁gorilla	36
▁Uruguay	36
▁optimist	36
▁relevance	36
▁dominate	36
▁repertoire	36
▁decentralized	36
▁Emmanuel	36
▁gyrus	36
▁hallucinat	36
▁slap	36
▁livelihood	36
▁pristine	36
▁measurable	36
▁psychic	36
▁obscure	36
Star	36
▁hominid	36
soluble	36
▁swam	36
disciplinary	36
▁Thai	36
▁Java	36
aternal	36
▁Consider	36
▁seizure	36
▁byproduct	36
▁charcoal	36
▁cognition	36
▁Statistic	36
▁excerpt	36
▁Devil	36
▁homosexual	36
▁Baxter	36
▁Chernobyl	36
▁Crime	36
▁semester	36
▁decode	36
▁democratize	36
▁Protect	36
▁periphery	36
▁solidarity	36
▁Airport	36
▁unthinkable	36
▁marvel	36
▁admission	36
▁District	36
▁measles	36
▁ecologist	36
Mobile	36
▁damaging	36
▁pub	36
▁glance	36
▁beaver	36
▁guidelines	36
▁linguistic	36
Leave	36
▁inhabitants	36
▁imaginary	36
▁Mouaz	36
▁purse	36
▁latitude	36
▁Persian	36
▁elusive	36
▁starvation	36
ustainable	36
▁Netflix	36
▁immoral	36
▁Kickstarter	36
▁Hannah	36
▁bluefin	36
▁barbershop	36
▁Scrapper	36
▁PISA	36
▁Harriet	36
▁unlimited	35
▁apparatus	35
▁supplement	35
▁Mmm	35
▁Ezra	35
▁excavat	35
▁Congolese	35
▁astronomical	35
▁geese	35
▁contaminat	35
▁facade	35
▁availability	35
▁identification	35
▁integrating	35
▁begging	35
▁Malaria	35
▁prevalent	35
▁pollinate	35
▁mangrove	35
▁starving	35
▁confuse	35
writing	35
▁classmates	35
▁Clearly	35
▁desperation	35
▁tiniest	35
▁taxpayer	35
fused	35
▁flare	35
▁maggots	35
guided	35
▁epiphany	35
placing	35
▁Orange	35
▁Summer	35
▁municipal	35
▁dominance	35
▁metro	35
▁clarify	35
▁Cleveland	35
▁empirical	35
▁fatigue	35
▁congratulat	35
▁Vision	35
▁quantify	35
▁catalyst	35
gatherer	35
▁Intelligence	35
▁elevated	35
▁Needles	35
▁astrolabe	35
▁Announcer	35
▁lesion	35
▁speculate	35
▁Yep	35
▁unaware	35
▁Milwaukee	35
rushed	35
▁stubborn	35
▁Airbnb	35
voice	35
▁auction	35
▁inertia	35
▁tweak	35
▁Madison	35
▁lettuce	35
▁stew	35
▁Poetry	35
▁sprawl	35
▁suspicious	35
▁Rift	35
▁Odysseus	35
▁Bilbao	35
▁Administration	34
▁Cornell	34
environmentalist	34
▁cosmetic	34
▁proposing	34
▁Usually	34
▁Commandments	34
▁bolt	34
▁inadequate	34
▁Happiness	34
▁Sergey	34
▁aerodynamic	34
▁irrigation	34
model	34
▁fracture	34
▁tectonic	34
▁ceramic	34
▁anomaly	34
estament	34
▁Laboratory	34
▁Study	34
ample	34
▁filament	34
▁PET	34
▁carpenter	34
▁bronze	34
▁comedian	34
ubbed	34
▁auditory	34
▁gloom	34
dispersed	34
▁Interesting	34
▁Sioux	34
▁decipher	34
▁intellect	34
▁Holland	34
▁Neuro	34
▁vibrate	34
▁accommodate	34
▁simplify	34
examined	34
▁sweeping	34
▁racist	34
▁Geiger	34
▁annoyed	34
▁ignite	34
▁sociologist	34
▁homicide	34
▁substitute	34
▁Festival	34
▁shrunk	34
nspired	34
▁Secret	34
▁Chicken	34
Citizen	34
▁Hindi	34
▁bargain	34
▁Helen	34
▁Malcolm	34
▁immunity	34
▁arriving	34
▁squirrel	34
▁Jarrett	34
▁desalination	34
Philippe	34
▁skyscraper	34
▁Yellowstone	34
▁visualiz	34
▁Barbara	34
▁Triceratops	34
▁Wisconsin	34
▁toothbrush	34
▁supermassive	34
▁ESG	34
▁uranium	34
▁sabbatical	34
▁FreeSpeech	34
▁derivative	33
watch	33
▁rejuvenat	33
▁eliminating	33
▁deflect	33
▁fringe	33
▁peacekeep	33
▁influenza	33
▁respiratory	33
▁audition	33
▁constellation	33
replication	33
▁Grove	33
▁adjacent	33
▁BMI	33
▁microwave	33
▁spores	33
▁Fields	33
▁Conservation	33
▁flatten	33
▁accelerator	33
orbital	33
▁Robotics	33
▁stunned	33
Good	33
▁northeast	33
Thou	33
▁demonstrat	33
▁nevertheless	33
▁Estonia	33
▁balancing	33
science	33
▁thro	33
▁cerebral	33
▁Prozac	33
▁Bureau	33
▁Symphony	33
▁Swedes	33
▁hydrant	33
blood	33
▁Initiative	33
good	33
▁Hussein	33
▁abalone	33
▁Marilyn	33
▁certified	33
▁atrazine	33
▁urgency	33
+	33
▁liberating	33
▁dreadful	33
speaking	33
▁Pascal	33
▁residential	33
▁brute	33
▁plutocrat	33
▁prompt	33
dragging	33
▁anchor	33
▁varied	33
▁evapor	33
▁Operations	33
▁Calais	33
▁mismatch	33
▁durable	33
Michelle	33
▁energetic	33
▁bioluminescent	33
▁reckless	33
Heroes	33
▁condemn	33
▁wool	33
function	33
boriginal	33
▁Utah	33
▁whiskey	33
▁UNICEF	33
▁knitting	33
▁Lebanese	33
▁Feel	33
▁Neumann	33
replicating	33
▁joking	33
▁halt	33
▁imitation	33
▁Langley	33
▁exhilarating	33
▁carcinogen	33
▁Kiva	33
▁incarcerated	33
#	33
▁crochet	33
▁Barefoot	33
▁Utopia	33
▁UNAIDS	33
▁motivator	33
▁elastic	33
▁Euclid	33
Vagina	33
sanitary	33
▁Jeep	33
▁McGowan	33
▁Naghma	33
▁Jenipher	33
▁complement	32
▁holistic	32
author	32
▁modification	32
▁precipitat	32
lecommunications	32
▁Chapter	32
▁Sweeney	32
▁jealous	32
▁appointment	32
▁Kismet	32
▁Julius	32
▁Loren	32
▁mound	32
▁replica	32
▁Wolf	32
▁PTSD	32
▁scandal	32
▁oblivio	32
▁Bolivia	32
paid	32
▁energies	32
retroviral	32
▁Stalin	32
▁hostility	32
▁constitute	32
▁unimaginable	32
▁coconut	32
▁perpetual	32
industrial	32
▁salad	32
▁thermostat	32
transcendence	32
▁Angola	32
▁Gallery	32
▁Gillian	32
▁butterflies	32
▁scissors	32
▁imbalance	32
▁Battle	32
▁Grab	32
▁innocence	32
▁Reserve	32
endurance	32
coordinated	32
▁NYU	32
literate	32
▁pragmatic	32
disturbed	32
▁humiliation	32
Every	32
▁unhealthy	32
▁Satan	32
▁Poverty	32
▁Leviathan	32
▁sapiens	32
protected	32
▁twenty	32
▁Fellow	32
species	32
▁gently	32
▁teapot	32
▁increment	32
▁nursing	32
▁BJK	32
▁hummingbird	32
▁ROD	32
▁upstairs	32
▁Schwarzschild	32
▁Bollywood	32
▁Yahoo	32
▁Animal	32
▁browsing	32
▁postcards	32
▁credible	32
▁Hyderabad	32
▁Faiza	32
▁Mermaid	32
▁deceased	32
▁INCRA	32
▁Samantha	32
▁doodle	32
▁costume	32
▁Maltese	32
▁Nashville	31
▁paintbrush	31
▁staple	31
▁Herbie	31
▁verify	31
▁oxide	31
▁hazard	31
▁facilitate	31
▁Manchester	31
▁utopia	31
▁buddy	31
▁gratification	31
▁Cameroon	31
▁Orchestra	31
▁reservation	31
▁testimony	31
people	31
▁marginalized	31
teacher	31
▁surge	31
▁Styrofoam	31
▁Corexit	31
▁Accenture	31
▁captur	31
▁plummet	31
▁Evelyn	31
▁extremist	31
▁Douglas	31
troop	31
▁plunge	31
▁TEDGlobal	31
▁cochlea	31
▁Valdez	31
▁restrain	31
▁dementia	31
▁patron	31
▁Effect	31
▁warrant	31
tewardship	31
▁appetite	31
▁Silence	31
▁precedent	31
▁Karachi	31
▁transgender	31
▁Chechnya	31
▁Gertrude	31
▁menstruation	31
▁embed	31
▁tenure	31
computer	31
▁crave	31
▁junior	31
▁paleontologist	31
▁Medicare	31
▁regulated	31
▁ambiguous	31
▁premature	31
▁aspire	31
ompulsive	31
▁ballast	31
▁nudge	31
concentrat	31
▁pollinators	31
▁swirl	31
▁Magn	31
▁Mubarak	31
▁anticipation	31
▁width	31
▁Instagram	31
▁Ruby	31
▁Nag	31
▁Haryana	31
▁Buckminster	31
▁Serbia	31
▁Jabbar	31
▁Lauren	31
▁widow	31
▁Rabbi	31
▁aquaculture	31
▁Senator	31
▁Tempest	31
▁phthalate	31
▁Galvao	31
▁Brigades	31
▁Gehry	30
▁Dawkins	30
▁epilepsy	30
▁monopoly	30
▁drank	30
machine	30
▁privatiz	30
▁Volvo	30
▁Simpson	30
freaking	30
▁Major	30
▁Linu	30
▁policymakers	30
▁Descartes	30
▁plaster	30
bureaucratic	30
▁Diamond	30
▁anthropology	30
▁imprisoned	30
▁beehive	30
▁fiddle	30
▁Plastic	30
fitted	30
▁rubbish	30
▁charisma	30
▁unpleasant	30
compliance	30
▁advancing	30
▁vibrant	30
▁Ottoman	30
▁trawl	30
▁Diplomat	30
▁Crazy	30
▁Horse	30
▁dyslexic	30
▁exaggerate	30
▁Petri	30
▁narrat	30
▁discharge	30
▁integral	30
▁boreal	30
▁EPA	30
nconvenient	30
▁contradict	30
stabiliz	30
Welcome	30
▁albeit	30
▁Kinect	30
▁resume	30
▁Shirley	30
▁acquisition	30
▁Libby	30
▁residu	30
▁patrol	30
▁hectares	30
▁repetitive	30
ggie	30
▁Charter	30
▁shaman	30
▁Stroman	30
▁Beveridge	30
▁STEM	30
▁humiliate	30
▁trafficked	30
▁Guinness	30
▁disparate	30
graphers	30
▁contributor	30
▁diffuse	30
▁desirable	30
▁reservoir	30
▁Florence	30
▁audacious	30
▁cockpit	30
▁Connect	30
▁framing	30
▁conceivabl	30
▁NFL	30
▁disseminat	30
▁butterfly	30
▁Northwest	30
organization	30
▁Kuwait	30
▁Macintosh	30
▁defecat	30
▁tenderness	30
▁Apparently	30
▁offense	30
▁irregular	30
▁Stacey	30
nephew	30
▁bipolar	30
▁amygdala	30
▁relaunchers	30
▁GPHIN	30
▁Riley	30
condense	29
▁horrifying	29
▁Ventur	29
▁palace	29
▁reshape	29
▁interdependenc	29
▁Eagle	29
▁simplified	29
▁dividing	29
▁lexicon	29
▁Natalie	29
▁subsidiz	29
▁Place	29
▁Gabriel	29
▁Differen	29
▁ripple	29
▁Express	29
▁Dennett	29
▁judging	29
▁definitive	29
▁lyric	29
▁scarcity	29
▁illumination	29
▁leukemia	29
▁occurrence	29
▁dairy	29
▁Capitol	29
▁Michel	29
▁concussion	29
▁emulate	29
▁tornado	29
▁electora	29
▁Honor	29
▁embryonic	29
▁Choice	29
▁plural	29
▁bumblebee	29
▁poacher	29
▁intersect	29
▁seductive	29
▁nutshell	29
▁brilliance	29
▁translating	29
Jessica	29
▁sequester	29
▁amaze	29
▁Whitney	29
▁Blackberry	29
▁Principle	29
▁Pandora	29
▁therapeutic	29
▁stockpile	29
▁assassin	29
▁Vivian	29
▁moisture	29
▁mutilate	29
▁motive	29
▁dengue	29
▁intestine	29
▁bankrupt	29
▁Chapel	29
▁Tyler	29
▁UNESCO	29
▁Management	29
NBC	29
affle	29
▁Rhode	29
▁legitimacy	29
▁humidity	29
▁leisure	29
▁MBI	29
haired	29
▁Cyber	29
▁automation	29
▁Pharaoh	29
assembling	29
▁Ghraib	29
▁Hemisphere	29
▁Jacob	29
▁AAA	29
▁marshmallow	29
▁Granny	29
▁transcript	29
▁Toraja	29
▁Nova	29
▁microRNA	29
▁allocate	28
white	28
▁seatbelt	28
▁arrival	28
▁naught	28
▁Mozambique	28
performance	28
connected	28
▁circus	28
▁deduc	28
▁refrigeration	28
▁forbidden	28
▁crease	28
▁Rufus	28
▁supplier	28
▁Exactly	28
colonization	28
▁terrestrial	28
SHA	28
▁rehearse	28
▁Classic	28
▁Argentin	28
throw	28
▁Communication	28
▁emphasis	28
▁alternate	28
▁amplify	28
▁portfolio	28
sponsored	28
▁balcony	28
▁proliferation	28
▁burglar	28
▁Boltzmann	28
▁Committee	28
▁sophistication	28
▁inferior	28
▁amputation	28
▁automotive	28
inflated	28
submission	28
▁participatory	28
▁Color	28
factor	28
enchant	28
▁Gayla	28
▁puzzling	28
▁adverse	28
▁unexplored	28
▁knob	28
▁engulf	28
▁kettle	28
▁drastic	28
grown	28
▁philanthropist	28
▁Specifically	28
▁Moderator	28
▁secrecy	28
▁quadruple	28
uantum	28
transformational	28
▁buttermilk	28
▁Dickinson	28
▁coalition	28
▁proxy	28
▁zodiac	28
▁lousy	28
▁Auschwitz	28
administer	28
▁migrat	28
▁exaggeration	28
growth	28
▁discarded	28
▁insignificant	28
▁evolutionarily	28
averse	28
▁communist	28
▁remorse	28
▁withdraw	28
▁detergent	28
▁Front	28
▁wobbl	28
▁multiplied	28
▁astonished	28
▁charging	28
▁rehearsal	28
trawberry	28
▁venom	28
ynthetic	28
▁BERT	28
▁estimation	28
pocalypse	28
▁conjecture	28
▁Pleurobot	28
▁swollen	28
▁pavilion	28
▁Fraser	28
▁Buddhism	28
▁frugal	28
▁Adrian	28
▁Shenzhen	28
▁trustworthy	28
▁recline	28
▁Dreadnoughtus	28
▁Okapi	28
▁pigmentation	28
▁sensual	27
▁bureaucracy	27
▁kilowatt	27
▁precaution	27
▁provocative	27
▁foremost	27
▁Family	27
▁Aqua	27
▁Already	27
▁yoga	27
rotting	27
▁feminine	27
▁Clinic	27
▁sanctuary	27
▁Architecture	27
inspirational	27
▁balconies	27
▁photosynthesis	27
▁Occasionally	27
▁Copernic	27
▁enslave	27
▁plywood	27
▁invisibility	27
▁Bonnet	27
▁persuasion	27
▁Crisis	27
▁denominator	27
capita	27
▁diabetic	27
▁tempting	27
▁Adult	27
disproportionate	27
▁ominous	27
▁ninth	27
▁Gilbert	27
▁unnecessary	27
▁temporarily	27
▁dedicate	27
▁squint	27
direction	27
▁Miguel	27
Buck	27
▁academia	27
▁Governor	27
▁bundle	27
▁Bride	27
▁Belgium	27
neutrino	27
manufactured	27
▁synonymous	27
▁Birmingham	27
▁speculation	27
rhythm	27
▁Owens	27
▁pheromones	27
▁corps	27
▁peacebuild	27
▁Experiment	27
identifie	27
▁Eileen	27
▁Folks	27
▁porch	27
▁rearrange	27
▁grappl	27
▁Enron	27
▁illustrat	27
▁incision	27
▁subsidies	27
▁sequel	27
▁contemplate	27
▁fertilize	27
▁Janeiro	27
▁jurisdiction	27
▁credibility	27
▁inorganic	27
stitch	27
▁Route	27
decisive	27
▁epidemiologi	27
▁plausibl	27
▁Eisenhower	27
▁fascination	27
▁Nirvana	27
▁Curiosity	27
▁choke	27
▁UFO	27
▁Duolingo	27
eureka	27
▁Kelvin	27
▁Rotterdam	27
▁Nixon	27
▁unicorn	27
adulter	27
righteous	27
▁contraceptives	27
▁Michoac	27
▁Monologues	27
▁Makoko	27
▁Immediately	27
▁Newcastle	27
▁Legend	27
▁Maasai	27
▁fountain	26
▁influential	26
▁Lindbergh	26
▁ruthless	26
▁schizophrenic	26
▁Explorer	26
▁nugget	26
nutrient	26
▁perfume	26
▁destined	26
▁nanoparticles	26
▁skyrocket	26
▁perseverance	26
▁Follow	26
▁Majesty	26
▁Sport	26
▁coherent	26
▁appalling	26
▁unravel	26
▁separating	26
▁questionnaire	26
▁Authority	26
▁dwarf	26
▁Jeremy	26
▁doctrine	26
▁accumulating	26
▁Write	26
ilitary	26
▁dispense	26
assisted	26
▁rudder	26
instruct	26
▁Future	26
▁buffer	26
▁analyst	26
▁Agriculture	26
▁Hirshhorn	26
▁evoke	26
▁magnify	26
▁blaming	26
▁communism	26
▁litigation	26
▁prominent	26
▁degrading	26
▁Rubik	26
▁malware	26
▁peripheral	26
▁opaque	26
avail	26
▁synagogue	26
▁approximation	26
▁southwest	26
Listen	26
▁ribbon	26
▁Jenesis	26
▁HeForShe	26
Tai	26
▁misunderstood	26
definition	26
▁hawk	26
▁porous	26
▁revisit	26
▁enclosure	26
▁Wrong	26
▁primordial	26
▁synthesizer	26
▁Period	26
custome	26
▁Urban	26
▁wondrous	26
▁detriment	26
granddaughter	26
▁cowboy	26
▁Enjoy	26
▁preliminary	26
▁oppression	26
▁eagle	26
▁exclusion	26
▁metadata	26
▁monastery	26
▁parrot	26
▁tobacco	26
normal	26
▁chimney	26
▁multitasking	26
▁Brunel	26
▁asphalt	26
▁petroleum	26
▁embroidery	26
▁arthritis	26
Jurassic	26
possum	26
▁Century	25
▁advocacy	25
▁Answer	25
▁exploding	25
Student	25
▁Ernest	25
▁gradient	25
ncyclopedia	25
▁annihilat	25
▁heterosexual	25
physics	25
▁Calcutta	25
▁suicidal	25
=	25
▁Chopin	25
▁hologram	25
▁collaborat	25
▁feasible	25
▁blush	25
▁Veteran	25
▁motivating	25
▁elevation	25
▁Balinese	25
▁Gowanus	25
▁blaz	25
▁relentless	25
▁disguise	25
▁razor	25
▁utilize	25
▁Technologies	25
▁sensible	25
▁dashboard	25
▁Petersburg	25
cross	25
▁laureate	25
▁cursor	25
▁neurologist	25
▁simulating	25
▁Vincent	25
▁mistrust	25
▁impunity	25
▁Hazara	25
written	25
▁Tucson	25
nstrual	25
▁hustle	25
▁tribute	25
▁Pollock	25
▁horribly	25
▁bottleneck	25
▁Feminist	25
vitro	25
▁Studies	25
platin	25
pplied	25
▁intertwined	25
▁rebreather	25
▁eternity	25
▁cascade	25
defined	25
▁duplicate	25
▁dessert	25
▁guiding	25
▁disclose	25
▁surrogate	25
▁Albania	25
Choose	25
▁embodiment	25
▁franchise	25
▁geyser	25
▁Admin	25
stranded	25
▁Literally	25
▁radiologist	25
▁cholesterol	25
▁tragedies	25
▁Aquarium	25
▁Hungary	25
▁collapsing	25
▁Torosaurus	25
▁Hurtigruten	25
▁Potato	25
▁Rajasthan	25
▁Hulk	25
▁coumarin	25
▁KIPP	25
▁progeria	25
evolution	24
▁Behind	24
▁unbelievably	24
▁Torvalds	24
▁Cartesian	24
▁striving	24
▁indicating	24
▁Britannica	24
▁rifle	24
▁messenger	24
▁Attenborough	24
▁compell	24
▁infamous	24
▁antiangiogenic	24
▁Nuclear	24
▁populated	24
insurgency	24
▁patriarch	24
/7	24
▁Improv	24
▁GreenLab	24
%	24
▁hospice	24
▁Doubl	24
▁Occupy	24
keeping	24
▁Bluetooth	24
▁Member	24
▁avenue	24
▁champagne	24
▁mourn	24
▁ventilation	24
▁plaque	24
deprived	24
▁accumulation	24
▁bulldoze	24
▁malignant	24
▁recyclable	24
▁breeze	24
▁seduction	24
▁Rainforest	24
Skeptic	24
▁persuasive	24
▁hyperbolic	24
▁Vaccin	24
▁substrate	24
▁Declaration	24
fetched	24
▁brothel	24
▁Accra	24
▁typewriter	24
utonomous	24
▁intercept	24
▁compliant	24
▁Collaborator	24
▁Creativity	24
▁bonobo	24
▁Galaxy	24
▁Matthieu	24
▁Nintendo	24
▁DMCA	24
▁squeez	23
▁blogosphere	23
▁Neptune	23
building	23
▁Horizon	23
▁Architects	23
▁acquir	23
▁Brussels	23
▁instantaneous	23
square	23
▁bisexual	23
▁analytics	23
▁Lucifer	23
▁Scandinavia	23
expression	23
▁Census	23
▁daydream	23
ñ	23
▁Splashy	23
▁celebrities	22
▁impairment	22
▁rhyme	22
itochondria	22
▁Cargill	22
▁Karajan	22
)	21
violence	21
“	21
”	18
@	17
ù	16
structured	15
!]	15
ï	13
ü	12
à	11
ø	11
–	11
(	8
ê	8
Á	8
ā	8
É	7
[#	7
^	7
ć	6
ë	6
‘	6
ī	5
[@	5
ä	4
$7	4
ZX	4
â	4
XXX	3
QQ	3
7%	3
£	3
çã	3
*	3
♫	3
â	3
อร่อย	3
æ	3
________	3
ô	3
ì	3
!!!	2
ò	2
ē	2
!!!!!	2
Č	2
	2
XX	2
7/7	2
777	2
送你葱	2
!!	2
7]	2
ě	2
ū	2
[7	2
[$	1
Zé	1
¡	1
à!	1
][	1
]!	1
Å	1
/7/	1
¢	1
Ç	1
[#7	1
——	1
+7	1
€	1
++	1
Q!	1
̊	1
!”	1
’”	1
ZZ	1
