_	4033000
NOUN	724027
PUNCT	590688
PRON	559136
VERB	520898
ADP	408528
DET	366621
AUX	305248
s	281923
▁,_	273265
ADJ	261189
ADV	248253
▁._	219255
▁the	206938
CCONJ	171333
P	125208
ART	124254
PROPN	117604
▁to	117460
SCONJ	107837
▁of	101600
▁a	98862
▁and	95362
▁'	89134
▁	84425
▁that	79362
y	77936
▁I	75379
▁in	67842
ed	61010
ing	60172
▁we	58385
NUM	57434
▁is	56808
▁you	54631
▁it	53158
ly	40390
▁be	39326
▁And	38071
▁thi	36543
▁on	28345
▁was	28147
t	26819
re	26557
0	26157
▁for	25273
▁are	24958
▁have	24590
▁with	23962
m	23841
▁do	22435
▁--	21712
▁n	20111
d	20093
▁?_	19993
'	19990
▁what	19941
▁So	19887
▁-_	19624
▁can	19044
▁"	18972
▁about	18635
▁The	17834
▁not	16829
ould	16623
▁at	16575
▁as	16357
▁an	15975
▁all	15911
▁my	15215
▁there	14937
J	14879
▁like	14855
INT	14786
▁people	14258
n	14165
▁one	14128
▁so	14125
▁It	14107
▁fro	13607
▁but	12787
1	12356
▁:_	12265
▁w	12245
▁our	12088
▁just	11850
▁or	11808
▁We	11807
cause	11532
▁thing	11465
▁us	11444
▁But	11241
▁if	11057
▁these	11022
▁see	10987
▁out	10855
▁me	10824
▁up	10748
▁think	10737
▁know	10717
very	10513
▁them	10382
▁by	10240
e	10183
▁year	10077
▁going	10025
▁when	9824
▁had	9735
▁he	9722
▁more	9621
▁get	9206
ve	9068
▁some	8996
es	8982
▁their	8877
▁who	8851
▁look	8793
▁which	8790
▁your	8744
▁how	8672
▁want	8649
▁really	8476
▁go	8109
2	7997
▁world	7724
▁time	7716
▁c	7649
▁You	7589
ies	7584
▁has	7529
en	7525
▁here	7490
▁Thi	7424
▁other	7357
▁actual	7300
▁into	7094
h	6998
▁way	6869
▁where	6782
▁will	6659
▁did	6616
▁now	6571
▁Now	6379
▁every	6339
▁make	6034
ose	5950
▁say	5879
er	5773
▁start	5736
▁need	5725
▁right	5696
▁said	5687
▁take	5546
5	5495
▁work	5451
▁th	5450
▁something	5419
▁no	5359
▁than	5281
▁two	5247
▁got	5175
▁first	5147
lso	5125
▁call	5074
▁over	4933
▁kind	4891
▁back	4884
▁He	4873
▁muc	4849
▁little	4820
▁lot	4812
▁come	4789
▁That	4751
▁most	4675
▁talk	4653
9	4543
▁In	4505
▁life	4470
▁she	4446
▁his	4410
▁What	4399
▁day	4387
▁even	4285
▁many	4193
▁any	4155
ll	4131
▁wh	4119
▁different	4035
▁change	4015
▁good	4002
▁new	3935
3	3933
▁doe	3923
around	3902
▁through	3852
▁There	3799
♫	3786
▁being	3767
▁down	3728
▁use	3677
▁mean	3650
▁her	3642
▁idea	3618
▁human	3518
▁same	3505
▁Well	3446
▁try	3439
▁problem	3435
day	3423
▁show	3393
ce	3357
▁If	3341
;	3298
▁doing	3282
▁great	3251
▁al	3247
▁may	3242
▁three	3232
▁A	3198
▁put	3189
▁tell	3158
▁place	3111
▁part	3090
▁well	3072
▁percent	3046
▁system	2978
made	2968
▁again	2926
▁long	2909
▁find	2894
r	2878
▁give	2859
,	2854
▁fact	2840
▁question	2828
▁e	2800
ity	2784
one	2756
▁own	2721
st	2678
other	2668
▁turn	2654
.	2631
▁happen	2626
4	2604
._	2597
▁should	2596
▁important	2595
▁thought	2569
▁let	2565
▁after	2524
▁him	2513
▁last	2503
▁its	2501
▁ca	2474
went	2464
▁better	2438
▁end	2434
▁off	2432
▁might	2427
▁big	2426
able	2419
▁before	2400
▁Be	2377
▁high	2374
▁help	2365
▁course	2365
X	2361
ion	2351
▁never	2346
▁able	2326
▁love	2306
self	2294
▁example	2293
▁still	2288
a	2283
8	2278
▁million	2273
▁together	2265
▁few	2242
▁point	2232
▁design	2230
al	2213
▁story	2195
▁old	2194
▁ago	2191
next	2165
▁water	2159
▁came	2154
▁school	2152
▁brain	2139
▁When	2138
▁sort	2111
omen	2111
▁bit	2101
each	2093
▁How	2092
ally	2091
tween	2085
▁play	2084
in	2081
6	2080
▁learn	2057
▁found	2053
▁number	2051
▁technology	2011
▁data	1980
▁become	1964
▁too	1963
▁small	1956
▁believe	1940
▁feel	1932
7	1893
▁understand	1892
done	1869
▁hear	1859
ves	1851
out	1848
▁ask	1842
▁ever	1828
▁live	1816
▁whole	1809
ways	1807
▁four	1799
l	1798
▁real	1798
▁guy	1785
▁create	1775
ness	1774
▁second	1774
▁power	1774
▁person	1766
▁hard	1759
▁car	1746
est	1733
▁large	1731
▁light	1728
be	1723
▁children	1723
▁building	1714
▁away	1713
▁working	1703
▁cell	1699
w	1695
ok	1683
▁liv	1681
▁country	1680
ld	1676
▁reason	1667
!	1664
▁health	1647
▁No	1644
coming	1615
▁famil	1599
▁computer	1585
▁picture	1584
▁five	1583
▁dollar	1581
▁experience	1567
on	1560
▁home	1559
▁information	1559
▁money	1550
▁space	1536
▁sense	1535
▁moment	1531
▁case	1530
thing	1522
▁per	1513
▁My	1512
▁One	1511
▁kids	1507
▁form	1503
▁open	1502
▁communit	1498
▁project	1492
▁mak	1489
▁basic	1485
▁month	1480
▁social	1478
nough	1470
▁left	1468
▁process	1459
▁future	1458
ic	1450
▁man	1448
▁gett	1444
▁group	1439
▁best	1435
▁interesting	1428
▁animal	1424
▁bring	1421
quite	1417
▁energ	1415
▁These	1414
▁read	1414
o	1413
▁develop	1406
▁She	1396
▁times	1391
▁less	1387
ever	1385
▁probabl	1380
▁answer	1377
▁body	1375
▁walk	1360
▁job	1358
▁food	1355
▁science	1349
▁half	1346
▁Wh	1341
▁planet	1339
▁countr	1337
▁room	1330
▁hand	1326
▁stuff	1326
▁move	1323
▁U	1321
▁build	1320
▁keep	1318
▁Do	1316
▁possibl	1312
▁Let	1309
▁hour	1307
▁grow	1306
▁young	1305
ything	1304
▁under	1301
▁allow	1298
▁am	1296
▁creat	1296
▁else	1292
▁lives	1289
where	1288
▁prett	1287
▁For	1287
▁name	1280
▁model	1279
such	1278
▁face	1277
▁side	1277
▁area	1275
▁government	1271
▁business	1270
▁billion	1261
▁saw	1260
▁matter	1258
▁line	1253
across	1252
▁piece	1249
▁week	1249
▁global	1241
▁realize	1239
▁men	1239
▁student	1227
us	1227
▁complete	1216
▁As	1214
▁simple	1212
▁later	1207
▁bad	1206
▁C	1205
▁makes	1204
▁asked	1203
▁far	1201
▁Africa	1200
▁level	1200
▁minute	1199
▁care	1197
▁hav	1194
▁particular	1186
most	1184
▁seem	1183
▁set	1183
S	1176
▁ways	1171
▁share	1164
▁All	1164
▁happens	1156
▁close	1156
ether	1153
▁image	1149
▁American	1143
▁city	1134
▁game	1133
▁New	1125
▁thousand	1124
eady	1122
▁societ	1122
▁single	1121
▁term	1121
▁figure	1116
▁interest	1115
▁watch	1111
▁Thank	1110
▁Earth	1110
▁study	1109
▁while	1102
▁inside	1101
▁saying	1099
▁hope	1099
▁disease	1099
▁age	1095
▁imagine	1090
▁remember	1088
▁To	1088
▁alr	1087
▁machine	1086
▁top	1086
▁mind	1085
ation	1084
▁sure	1080
▁E	1078
▁control	1078
▁book	1077
▁yet	1076
▁public	1076
▁mov	1076
▁both	1076
▁market	1072
▁certain	1070
▁test	1070
th	1069
▁six	1069
▁order	1068
▁nothing	1068
▁histor	1054
▁cost	1052
▁language	1052
▁head	1049
▁discover	1044
▁often	1044
ther	1033
▁child	1032
▁issue	1031
▁exact	1030
▁amazing	1027
▁wrong	1026
▁patient	1016
▁run	1015
▁beautiful	1015
▁girl	1012
▁true	1010
▁couple	998
ment	995
▁un	984
▁Unit	982
um	971
▁lead	971
▁entire	969
▁full	963
▁final	962
▁difference	961
▁buil	961
▁cancer	958
▁hundred	949
▁individual	947
▁words	946
▁unti	941
[	939
▁material	937
▁research	937
▁stop	937
]	936
▁On	930
▁house	926
▁challenge	926
▁result	925
▁centur	917
▁self	916
▁word	914
▁environment	913
▁everybody	913
▁Internet	913
▁works	911
▁force	910
▁music	905
▁fast	904
▁kne	902
▁speci	900
▁decided	898
came	898
▁quick	897
▁friends	897
▁America	895
▁education	895
▁state	894
▁though	887
▁value	886
▁universe	884
▁heart	883
▁night	882
▁deep	877
▁follow	875
’	875
taking	874
▁leave	874
▁States	871
▁natural	871
▁must	871
ne	869
▁video	868
OK	867
▁woman	866
▁spend	865
▁nature	864
▁stori	864
▁happening	863
▁speak	861
▁somebod	859
▁huge	859
▁sometime	858
ty	854
▁stand	853
▁eat	852
▁ra	852
▁third	850
▁since	848
▁scale	848
▁economic	847
▁free	847
▁bigge	841
▁phone	840
▁God	840
▁robot	840
▁war	838
▁program	838
▁oursel	837
▁front	837
▁clear	836
▁..._	835
msel	830
▁Oh	823
company	819
▁Or	818
▁past	817
▁ones	813
▁Some	813
▁India	813
▁B	812
▁along	811
▁parent	811
▁Oka	811
haps	809
▁culture	809
▁pay	808
▁cause	807
▁focus	805
▁mother	801
▁S	797
▁leas	797
▁risk	795
▁team	792
▁ocean	791
▁sound	791
▁network	790
▁solution	790
▁product	790
▁plant	788
▁population	782
▁structure	781
▁TED	780
▁bas	780
▁air	776
▁early	776
▁size	775
▁scientist	775
ry	771
—	771
stead	769
▁fly	768
▁color	768
▁art	765
▁exist	762
▁difficult	760
▁object	760
▁gav	759
▁poor	759
▁black	758
le	757
▁happ	757
▁field	756
▁drive	755
▁step	754
▁outside	751
▁b	751
▁paper	749
▁fish	749
▁news	746
▁local	746
gan	745
▁pick	745
▁experiment	744
▁amount	743
▁China	741
▁death	741
▁kill	738
▁teacher	736
▁buy	734
▁seven	732
▁listen	731
▁tree	730
▁recent	728
▁Every	726
ese	725
▁learning	724
▁shape	723
▁land	722
▁behavior	722
▁middle	719
▁relationship	716
▁engineer	715
hind	713
▁citi	709
▁choice	709
▁feeling	709
▁deal	707
▁safe	706
is	706
▁eyes	706
▁effect	705
▁support	705
▁father	704
▁econom	700
▁yourself	698
▁given	698
▁simpl	697
▁realit	696
▁wait	694
▁explain	692
▁beginning	690
▁dur	689
▁friend	689
less	688
ten	686
▁common	686
▁powerful	685
▁York	683
▁surface	683
▁view	682
▁oil	682
▁pattern	680
▁act	679
▁rule	679
▁easy	677
▁physical	677
▁wonderful	673
▁At	672
▁stay	669
▁movement	668
▁low	666
▁abilit	666
ory	664
♪	664
▁compani	662
▁T	661
▁D	661
▁decision	660
▁map	659
▁obvious	659
ither	655
▁arm	653
▁media	653
▁major	652
▁M	652
▁fee	652
▁short	651
▁device	649
▁wo	649
▁political	649
▁voice	646
▁known	646
▁normal	646
felt	645
▁total	644
▁hands	644
▁rate	643
▁doctor	643
▁eight	642
▁reach	641
cy	639
▁personal	638
▁organization	637
▁tried	636
▁film	636
▁absolute	636
▁save	634
▁near	633
▁send	628
▁rest	628
▁add	627
▁center	626
▁People	626
▁growth	626
▁ground	624
▁begin	623
▁o	622
▁generation	621
▁W	621
ous	620
▁treat	618
▁Just	613
▁perfect	613
▁opportunity	612
▁service	611
▁spen	611
▁solve	611
▁Yea	607
▁t	607
▁blue	606
▁Yes	605
▁write	604
▁notice	604
▁strong	604
▁slow	603
▁Our	603
▁extreme	599
▁wall	599
▁stage	597
▁wonder	597
▁protect	597
▁impact	597
▁white	596
▁condition	594
▁expect	594
▁present	593
▁situation	592
▁record	590
▁source	590
lost	590
▁toward	588
▁climate	587
▁sitt	586
▁hit	585
▁shows	585
▁access	585
credible	585
▁message	584
▁green	581
▁measure	581
▁travel	581
▁blood	580
ton	579
▁break	579
▁DNA	578
▁red	576
▁complex	576
▁chance	575
▁cool	575
▁CA	575
▁fight	574
▁nice	572
▁Not	572
▁increase	572
▁Right	572
▁met	570
▁literal	567
▁An	567
▁de	567
▁average	566
▁decade	566
Z	565
▁hold	565
▁produce	564
i	562
aught	562
▁born	559
▁continue	558
▁di	558
▁fall	557
▁morning	557
▁approach	555
▁sea	554
▁bottom	553
▁camera	551
rought	551
▁innovation	551
▁manage	551
▁potential	550
▁industr	550
▁audience	549
▁artist	546
▁forward	546
▁train	546
rote	545
▁cut	544
ers	540
D	539
▁sun	539
▁action	538
▁knowledge	538
▁understanding	538
▁sex	537
▁die	536
▁pull	536
▁sign	534
▁Can	534
▁pass	534
▁studie	532
ish	530
▁factor	530
▁attention	530
▁raise	529
▁sudden	528
alone	528
▁serious	527
▁fear	527
▁cover	525
▁consider	525
▁technologi	523
▁runn	522
▁giv	522
▁miles	517
▁lab	516
▁tools	514
▁qualit	514
▁key	514
▁movie	513
▁photograph	512
▁essential	511
▁guess	511
▁page	511
▁R	510
▁books	507
▁dark	506
▁telling	505
▁goal	505
▁memor	504
▁soon	503
▁re	503
▁worth	502
▁non	501
▁law	500
▁easi	498
▁development	498
▁specific	497
▁meet	495
▁site	495
▁sell	494
▁current	493
▁hospital	493
▁rich	493
▁World	493
▁forest	492
▁English	492
▁kid	492
▁tin	491
▁With	490
▁late	490
▁avail	488
▁African	487
▁general	487
ary	487
as	487
▁class	485
land	485
▁electric	484
▁track	484
▁involv	483
changing	483
▁dead	482
▁main	482
special	480
A	480
▁represent	479
▁Europe	479
▁special	479
man	477
▁type	477
▁push	477
▁office	477
▁Where	477
▁sit	477
▁plan	476
▁fun	476
▁degree	475
online	475
▁equal	474
▁effective	473
▁journey	469
▁among	469
▁South	469
▁resources	468
an	466
▁similar	465
▁touch	465
▁yes	465
▁village	464
▁activit	464
▁conversation	464
▁fundamental	463
ond	462
▁By	461
▁dream	460
SYM	460
lar	460
▁thank	459
▁event	459
▁leg	459
▁attack	458
▁search	458
▁code	457
▁speed	457
▁smart	456
▁baby	456
▁region	456
▁period	453
▁sleep	453
▁evidence	452
▁miss	452
▁spread	451
▁street	451
▁worker	450
▁describe	450
▁recognize	450
▁medical	450
▁Google	450
▁modern	449
▁Look	448
▁box	447
▁truth	447
▁response	446
▁eye	446
▁J	446
▁connect	445
c	444
▁digital	443
▁scientific	443
▁incredibl	443
▁ice	443
Q	442
▁song	441
▁require	440
▁Al	439
▁direct	439
V	438
▁writing	438
▁affect	438
▁role	437
▁function	436
▁foot	436
▁Chin	436
body	435
▁includ	434
▁drugs	433
▁list	432
▁putt	432
▁fund	431
▁subject	430
▁nine	430
▁drug	430
▁carbon	429
▁First	428
▁son	428
▁several	427
▁benefit	426
▁connection	425
▁table	425
▁Maybe	423
▁flow	423
▁After	419
▁suggest	419
ism	419
▁national	418
▁software	417
▁favorite	417
▁institution	417
▁price	416
▁Th	415
▁invent	415
▁park	415
▁usual	414
▁teach	414
▁success	413
▁nation	413
▁Who	412
▁position	411
▁waste	410
▁extraordinar	410
▁collect	410
▁anybody	408
▁aware	408
▁return	408
▁fair	407
▁onto	407
▁finding	406
▁zero	406
▁remain	405
▁practice	404
▁join	404
▁virus	404
▁Of	403
▁tend	403
▁conscious	403
▁trust	403
▁violen	402
▁necessar	402
▁vision	402
▁successful	401
▁predict	401
▁wish	400
▁mass	400
▁visual	399
or	398
▁treatment	398
▁throw	397
▁shift	397
▁democrac	397
▁provide	396
▁sounds	395
kay	395
▁designer	395
ance	394
▁genetic	393
▁exciting	393
▁creative	393
▁lose	393
▁molecule	392
▁block	392
▁medicine	392
▁led	392
▁further	391
▁leaders	391
▁conflict	391
▁securit	391
▁craz	390
▁signal	390
▁evolution	390
▁direction	390
▁clean	389
ily	389
▁count	388
▁concept	388
▁fire	387
▁stick	387
▁surprise	386
▁finish	385
▁adult	385
▁nobod	384
▁hole	383
▁character	382
▁choose	382
ife	381
▁detail	381
▁produc	381
▁meaning	381
▁police	381
▁eventual	381
▁Even	380
▁agree	380
▁skin	379
▁draw	379
▁chemical	379
▁mental	379
▁screen	378
▁positive	377
▁gas	377
▁fix	376
▁gre	376
▁wear	376
▁letter	375
▁neuron	375
▁male	375
more	375
▁colleague	374
▁element	374
▁Most	373
▁link	373
▁connected	373
▁fuel	372
▁version	372
▁meeting	372
▁visit	372
▁prevent	372
K	372
▁carry	372
▁G	371
▁revolution	371
▁North	371
▁publish	371
how	370
▁square	370
▁immediate	369
▁moral	369
▁appear	368
▁shot	368
▁transform	367
▁sent	367
▁perspective	366
▁college	365
▁supposed	365
▁meter	364
▁fine	364
▁card	363
▁possibilit	363
▁star	362
pover	362
▁earlie	362
▁trial	362
▁traditional	361
▁address	360
▁accept	360
ting	360
▁Are	360
▁depend	359
▁West	359
▁emotion	358
▁fail	358
▁store	358
▁Chris	357
▁Japan	357
▁context	357
▁task	357
▁reduce	356
▁international	356
▁door	355
▁income	355
ard	355
▁Go	354
▁meant	354
▁invest	354
▁offer	353
▁critical	353
▁bunch	352
▁wind	352
▁boy	352
crisis	351
k	351
▁road	351
▁brains	351
▁report	350
▁inspire	350
▁mine	350
▁wealth	350
▁tool	349
abilit	349
▁career	349
▁enter	348
▁famous	348
▁release	347
▁expert	347
▁content	347
▁standard	346
▁militar	346
▁above	346
▁principle	346
▁worse	346
▁plastic	346
▁improve	346
▁happiness	346
▁warm	345
▁concern	345
▁genes	345
▁female	345
▁fit	345
age	344
▁secret	344
▁lower	343
▁progress	343
▁enjoy	343
▁rise	343
▁excited	343
▁achieve	342
▁reading	342
▁please	342
▁launch	342
▁tru	341
▁compassion	341
though	340
older	340
▁terribl	340
▁board	339
▁cold	338
▁impossibl	338
▁account	337
▁War	337
▁complicated	337
▁interact	336
▁pain	335
▁text	335
▁massive	335
▁ultimate	334
▁nuclea	333
▁freedom	333
▁indeed	333
▁afford	332
head	332
▁F	331
▁fill	331
kept	331
▁galax	331
▁check	330
▁private	329
▁HI	328
▁lesson	328
▁website	328
▁policy	328
▁TV	328
▁mention	327
▁hot	327
▁typical	327
▁respond	327
▁wave	327
▁citizens	327
▁original	326
▁post	326
▁training	326
▁stars	326
▁win	326
▁blind	326
▁perform	326
▁writ	325
▁range	325
▁financial	325
▁pressure	324
▁Man	324
▁series	323
refore	323
▁race	322
▁prison	322
▁deliver	322
▁temperature	321
▁stopp	321
▁unique	321
▁dangerous	320
▁relative	320
▁remarkabl	320
▁alive	319
▁Afghan	318
▁Like	317
▁communication	317
▁significant	316
▁decide	316
▁skills	316
▁bone	316
▁strange	315
▁purpose	315
▁path	314
▁daughter	314
▁yea	314
▁driv	312
▁press	312
lly	311
ful	311
▁biolog	311
▁organism	311
▁physic	310
▁bacteria	310
▁increasing	309
▁argument	309
▁enormous	307
▁humanit	307
▁bodie	307
▁demand	306
▁user	306
▁evolv	305
▁math	305
▁co	305
▁unit	305
▁slight	305
▁performance	304
▁virtual	304
▁K	304
▁Which	304
▁charge	304
▁propert	304
-	303
▁define	303
▁L	303
▁constant	303
▁creature	303
▁roll	303
▁saving	303
▁effort	302
▁target	301
▁O	301
▁neighborhood	301
▁cheap	301
▁intelligence	301
▁instance	301
▁r	301
▁East	301
▁player	301
▁expensive	301
▁forth	301
▁bed	300
▁edge	300
▁convince	300
▁German	298
▁mom	298
▁willing	298
▁ball	298
▁universit	297
▁painting	297
▁peace	297
▁transport	296
▁heat	296
C	296
N	296
ood	295
▁Universit	295
▁drink	295
▁stress	295
magine	295
▁brother	295
ist	294
▁pound	294
▁jump	294
▁separate	293
▁familiar	292
▁teaching	292
▁floor	292
▁wild	292
▁drop	292
aid	291
by	291
▁influence	291
▁strateg	290
▁capital	290
ership	290
▁respect	290
z	289
▁active	289
▁email	289
▁production	289
▁vehicle	289
▁luck	288
▁architecture	288
▁legal	287
▁fantastic	287
▁religion	287
▁apply	286
▁surviv	286
▁cross	286
▁City	286
▁minds	286
▁catch	285
▁distance	285
▁aid	285
▁environmental	285
▁capacit	285
▁politic	285
▁particle	284
istan	284
▁responsibilit	284
▁cultural	284
▁weight	283
▁Your	283
▁survive	283
▁protein	282
▁breath	282
▁communicate	281
▁Mars	281
▁gain	281
▁farm	280
low	280
▁except	280
▁interview	280
▁emotional	280
▁beaut	280
▁web	279
▁mobile	279
▁ant	279
▁wide	279
ization	279
▁trade	278
▁boat	278
▁Indian	278
▁farmer	278
▁Dr	277
▁interaction	277
/	277
Two	276
water	276
▁useful	275
▁ran	275
▁sky	275
▁biological	275
▁H	274
▁extra	274
▁random	274
▁dog	274
▁sensor	274
▁honest	273
▁feed	273
▁types	273
▁destroy	272
▁remind	272
▁rain	272
▁serve	272
▁professional	272
▁San	271
▁summer	271
▁failure	271
▁Ver	271
▁tissue	271
▁Many	271
▁atmosphere	271
▁layer	270
▁underst	270
▁infrastructure	270
▁sister	270
▁various	270
▁Second	270
▁surger	269
▁expand	269
▁sexual	269
▁cycle	268
side	268
▁genome	268
▁babi	268
▁investment	267
▁landscape	267
▁compar	267
▁anyway	267
▁print	266
▁London	265
▁laws	265
▁sustainabl	265
▁conference	264
▁speech	264
▁identit	264
▁efficient	264
▁popular	264
▁paint	264
▁wors	263
▁From	263
▁television	263
▁collective	263
▁pre	263
▁supply	262
▁apart	262
▁town	261
▁cook	261
▁seat	261
▁disappear	260
▁spoke	260
▁capture	260
▁mission	260
▁sat	259
▁Great	259
▁states	259
▁sample	259
▁pai	258
▁sing	258
▁weapon	258
▁coral	258
▁belief	258
▁trouble	258
▁streets	258
▁slide	257
▁explore	257
▁birth	257
▁document	257
▁consequence	257
▁magic	257
▁dy	256
spite	256
▁twi	255
▁rock	255
▁crime	255
▁sector	255
▁shark	255
▁enable	254
▁beat	254
▁finger	254
▁none	254
▁forget	254
▁sentence	254
▁method	254
▁straight	254
▁double	253
▁profound	253
▁smell	253
▁urban	253
▁hair	253
▁dad	253
ian	252
▁dance	252
▁spot	252
nstead	252
▁profit	251
▁circle	251
▁bear	251
▁mix	251
▁dynamic	251
▁border	250
▁sequence	250
▁poet	250
▁passion	250
wise	250
▁California	250
▁organ	250
▁super	250
▁feature	249
▁mistake	249
▁station	249
▁careful	248
▁bank	248
▁sick	248
▁loss	248
▁campaign	248
▁boys	248
▁radio	248
▁blow	247
▁brand	247
▁bough	247
▁Facebook	247
▁engine	247
▁afr	246
▁chair	246
▁neighbor	246
▁X	246
▁match	246
▁avoid	246
▁outcome	246
▁Think	246
▁Western	245
▁muscle	245
▁creativ	245
▁John	244
▁option	244
▁complexit	244
▁oh	244
▁insect	244
▁vast	244
▁technique	244
▁controll	243
▁threat	243
▁dot	243
▁worry	243
▁organiz	242
▁engag	242
▁soldier	242
▁prove	241
▁broken	241
▁tremendous	241
▁article	241
▁provid	241
▁driver	241
▁core	241
▁bar	241
▁contain	241
▁quote	240
▁cap	240
▁National	240
▁notion	240
▁graduate	240
▁ship	240
▁party	240
▁wire	239
▁promise	239
▁Brit	239
ey	239
▁window	238
▁gene	238
▁contact	238
▁sustain	238
▁European	238
▁Take	238
▁gold	238
ach	238
▁balance	237
▁consumer	236
▁lack	236
▁surprising	236
▁net	236
▁glass	236
▁vaccine	236
▁related	236
▁won	235
▁definition	235
▁giant	235
▁victim	235
▁oxygen	235
▁plane	234
▁rapid	234
▁funny	234
▁instrument	234
▁drawing	233
▁climb	233
▁sub	233
▁receiv	233
▁Hey	232
▁dreams	232
ACE	232
▁husband	232
▁Over	232
▁bridge	232
$	232
ought	231
▁His	231
▁vote	231
▁corner	230
▁unfortunate	230
SP	230
▁researcher	230
▁classroom	230
▁hearing	230
▁flight	230
▁members	230
▁commercial	229
▁shar	229
▁knowing	229
▁diversit	229
▁etc	229
▁gap	229
▁continent	228
▁central	228
▁dimension	228
son	228
▁rough	228
▁basi	228
▁accident	228
▁application	228
▁tough	227
▁express	227
▁rare	227
▁Arab	227
▁engage	227
▁earth	226
▁component	226
▁Did	226
▁switch	226
▁forever	226
▁birds	226
▁island	225
▁dramatic	225
eath	225
▁Muslim	225
▁fashion	225
▁alternative	224
▁root	224
▁reaction	224
▁aspect	223
▁civilization	223
▁satellite	223
▁negative	222
ch	222
▁civil	222
▁De	221
▁Actua	221
▁background	221
▁sold	221
▁grand	221
▁Any	221
▁limit	221
▁bus	221
▁cat	220
▁burn	220
▁photo	219
▁kilometer	219
▁Y	219
▁opposite	219
▁date	219
u	219
▁museum	218
▁justice	218
▁Un	218
▁Mr	218
▁imagination	218
▁recover	218
▁detect	218
▁Again	218
▁scene	218
▁opportunit	217
▁See	217
▁reward	217
▁batter	217
▁David	216
ia	216
▁More	216
▁desire	216
▁plann	216
▁airplane	215
▁emerg	215
tuck	215
▁dinosaur	215
▁proud	214
▁industrial	214
▁grade	214
▁noise	214
▁mountain	214
▁stem	214
▁religious	213
▁graph	213
▁president	213
▁weird	213
▁coffee	213
▁ecosystem	213
▁include	213
▁identify	213
▁Good	212
▁Twitter	212
▁Asia	211
▁radical	211
▁mouth	211
▁hopeful	211
▁Iraq	211
▁advantage	211
▁platform	211
▁anti	210
▁yellow	210
▁base	210
▁competition	210
▁operat	210
▁architect	209
▁remote	209
▁bottle	209
▁invit	209
▁monkey	209
ier	208
▁damage	208
▁correct	208
▁desert	208
▁rid	208
▁Sometime	208
▁magazine	207
▁tradition	207
iddle	207
▁suffering	207
▁election	207
light	206
▁trip	206
▁adapt	206
▁translate	206
▁estimate	206
▁hero	206
▁gender	206
▁whale	206
▁motion	206
▁Brazil	206
▁algorithm	206
▁soil	205
▁technical	205
▁mess	205
▁sorr	205
▁mechanism	205
▁ancient	205
▁due	205
care	205
▁attempt	204
▁Have	204
▁expression	204
▁dimensional	204
▁pair	203
▁claim	203
▁suffer	203
▁bubble	202
▁sand	202
▁disorder	202
▁encourage	202
▁bees	202
▁chose	201
▁regular	201
▁coast	201
ble	200
▁holding	200
▁French	200
ver	200
▁phenomeno	200
▁master	200
▁debate	200
▁cloud	199
▁spaces	199
▁reflect	199
▁electronic	199
▁labor	199
ford	199
▁empower	199
▁CO	199
▁corrupt	199
▁restaurant	198
▁AIDS	198
▁mouse	198
▁p	198
▁location	198
▁extend	197
▁sad	197
▁seed	197
▁flower	197
▁interface	197
▁tie	197
▁foundation	197
▁succeed	197
▁Washing	196
▁puzzle	196
▁argue	196
▁responsibl	196
ine	196
▁marriage	196
▁fresh	195
▁authorit	195
▁universal	195
▁brilliant	195
▁colon	195
▁emission	194
la	194
▁bag	194
T	194
▁budget	194
▁odd	194
▁shock	194
▁criminal	194
▁frame	193
▁professor	193
▁childhood	193
▁operation	193
▁curve	193
▁marrie	193
▁replace	193
▁river	193
▁honor	192
tic	192
▁hate	192
▁resistan	192
▁micro	191
▁collapse	191
▁newspaper	191
▁Life	191
▁trick	191
▁reveal	191
▁patent	191
▁laugh	190
O	190
▁fold	190
▁Big	190
▁generate	190
▁litera	190
▁multi	190
▁hurt	190
▁clinical	190
▁previous	190
ize	190
▁motor	189
night	189
▁tumor	189
▁stream	189
▁dai	189
▁independent	189
▁limited	189
▁dozen	189
▁bird	189
▁struggle	189
▁Bill	188
▁statistic	188
▁transformation	188
▁invisibl	188
▁score	188
▁leaving	187
▁spin	187
▁unlike	187
▁names	187
▁click	187
▁Web	187
▁gay	187
▁theater	186
▁lung	186
▁bright	186
▁adopt	186
▁fascinating	186
▁chip	185
▁whom	185
▁surround	185
▁poem	185
▁arriv	185
▁sum	185
▁George	185
▁closed	185
ling	184
▁f	184
ive	184
▁creation	184
▁symbol	184
▁volunteer	184
▁wood	184
ural	184
▁flu	184
▁dinner	183
▁discussion	183
▁cry	183
▁smile	183
▁grown	183
▁exercise	183
▁display	182
▁politician	182
▁hidden	182
▁stoo	182
▁round	182
▁hell	182
▁copy	182
▁disaster	182
▁lay	182
▁lunch	182
▁faith	182
▁injur	182
wood	182
time	181
▁note	181
▁proper	181
▁comfortabl	181
▁dry	181
▁moon	181
▁tail	181
it	180
▁narrative	180
▁artificial	180
▁suit	180
▁lock	180
▁broad	180
▁app	179
ging	179
▁opinion	179
▁exchange	179
ra	179
▁multiple	179
▁Sun	179
▁epidemic	179
▁collection	178
▁atom	178
▁load	178
▁era	178
▁strength	178
▁vers	178
▁occur	178
▁channel	178
▁folks	178
▁hop	178
▁bread	178
▁brief	177
▁precise	177
▁mathematic	177
▁associat	177
▁row	177
▁gift	177
ur	177
▁mid	177
▁intelligent	177
▁topic	176
▁seek	176
▁worri	176
▁GDP	176
▁float	176
▁variet	176
▁assume	176
▁trillion	176
▁partner	175
▁truck	175
▁fossil	175
x	175
▁metal	175
orrow	175
▁roof	175
▁spirit	175
▁cure	175
ical	175
▁zone	175
▁Paul	175
▁analys	175
▁mirror	174
▁Sea	174
▁generat	174
▁traffic	174
▁existence	174
▁opening	174
▁Australia	174
▁wake	174
R	174
▁leader	174
▁shoes	173
tion	173
▁compare	173
▁Thanks	173
▁organic	173
▁wheel	173
▁Per	173
▁shop	173
▁breast	173
▁insight	173
▁quant	172
▁homes	172
▁cognitive	172
▁Art	172
▁peer	172
▁pack	172
▁quarter	171
▁metaphor	171
nt	171
▁mathematical	171
▁foreign	171
▁refugee	171
▁elephant	171
▁fell	170
▁introduc	170
▁nervous	170
▁feedback	170
▁consumption	170
▁depression	170
▁tech	170
▁tens	170
▁practical	170
▁mothers	170
▁Mexic	170
▁shoulder	170
▁Green	170
el	170
▁heads	170
▁PM	170
▁customer	170
▁crowd	170
▁Richard	169
▁applie	169
▁equip	169
▁grandmother	169
▁circuit	169
▁garden	168
▁lifetime	168
▁Everything	168
▁crash	168
▁ring	168
▁official	168
▁Thre	168
▁joke	167
▁stupid	167
▁discuss	167
▁invention	167
▁England	167
▁meat	167
▁malaria	167
▁advanc	167
▁occurr	167
ship	167
mber	167
▁economist	167
▁equivalent	166
▁importan	166
▁calling	166
▁operate	166
▁distribution	166
▁diet	166
▁novel	166
▁quiet	166
▁Audience	166
▁credit	166
wide	166
▁ray	166
▁Their	166
▁involve	166
▁weather	166
▁Island	165
▁King	165
▁Come	165
▁journalist	165
▁Harv	165
▁curious	165
▁tear	165
▁talent	165
▁terrorist	165
▁fourth	165
▁wisdom	165
▁symptom	165
▁killing	164
▁vessel	164
▁survey	164
ar	164
▁setting	164
▁govern	164
utism	164
▁actor	163
▁laptop	163
▁agenc	163
▁joy	163
▁Iran	163
▁Times	163
▁volume	163
▁writer	162
▁Her	162
▁Kenya	162
▁lift	162
▁inner	162
▁member	162
▁gather	162
▁judge	162
▁according	162
▁photos	162
ter	161
▁crack	161
▁combination	161
▁Einstein	161
▁dealing	161
▁infect	161
▁telescope	161
▁cartoon	160
▁intellectual	160
▁heavy	160
▁agricultur	160
▁puts	160
▁lie	160
▁videos	160
▁inequalit	160
▁ancestor	160
▁limb	159
▁chain	159
▁President	159
▁MIT	159
▁bits	159
▁cutting	159
▁string	159
▁scar	159
▁pocket	159
b	159
▁chicken	159
▁determine	159
▁pollut	158
▁Other	158
▁taste	158
▁ordinar	158
▁plate	158
▁belong	158
▁therap	158
▁employee	158
▁evil	158
▁yester	157
▁construction	157
▁medium	157
▁speaker	157
ie	157
▁hide	157
▁soul	157
▁title	157
▁clip	157
▁la	157
▁error	157
▁clinic	157
▁resource	156
▁lawyer	156
▁evolutionar	156
▁Last	156
▁robotic	156
men	156
▁north	156
▁addition	156
▁empty	156
▁mile	156
▁arts	156
▁peak	156
▁stone	156
▁doubt	155
▁Center	155
g	155
▁lies	155
▁initial	155
▁illness	155
▁perception	155
▁fac	154
▁enem	154
▁toilet	154
▁equation	154
▁privilege	154
▁mammal	154
▁reef	154
ium	154
ma	154
▁nose	154
▁transition	154
▁los	154
▁Amazon	154
▁awful	154
▁manufactur	154
▁dolphin	154
▁gun	153
▁accurate	153
▁protection	153
▁Los	153
▁nurse	153
▁skill	153
▁abuse	153
▁camp	153
▁construct	153
▁microbe	153
▁happi	153
▁sugar	152
▁prototype	152
ta	152
▁undern	152
▁maintain	152
▁poll	152
▁harm	152
▁button	152
▁crop	152
▁laborator	152
erson	151
▁appropriate	151
▁threaten	151
▁Pleas	151
▁section	151
▁electrical	151
▁stock	151
▁N	151
▁NASA	151
ture	150
▁pure	150
▁School	150
▁king	150
▁Jam	150
▁stranger	150
▁convert	150
▁bill	150
▁Re	149
▁Am	149
▁Hi	149
▁broke	149
▁hat	148
▁gentlem	148
▁length	148
▁habitat	148
▁dis	148
▁south	148
▁grass	148
▁introduce	148
▁pop	148
▁attract	148
▁Day	148
▁sweet	148
▁bomb	148
▁Israel	148
▁review	148
▁incentive	148
▁dress	148
▁pig	148
▁Street	147
▁grid	147
▁demonstrate	147
▁Brita	147
▁solid	147
▁filter	147
▁surgeon	147
▁Congress	147
▁capabilit	147
▁balloon	147
▁grain	146
▁chemistr	146
▁plus	146
▁flat	146
▁appreciate	146
ley	146
▁encounter	146
▁reform	146
▁pump	146
▁explor	146
▁obes	146
▁former	145
▁Francisc	145
▁rocket	145
▁client	145
▁mortal	145
▁spring	145
▁comment	144
▁Nigeria	144
▁technological	144
▁physicist	144
▁participate	144
▁advance	144
▁statement	144
▁Bos	144
▁musician	144
▁violent	144
▁conclusion	144
▁programm	144
▁season	144
▁style	144
▁flag	144
▁cup	144
▁facilit	143
▁Since	143
▁illegal	143
▁Canad	143
▁combin	143
▁fat	143
te	143
ant	143
▁status	143
é	143
▁panel	143
so	143
▁fellow	143
▁Wow	143
▁lady	142
▁rescue	142
▁prediction	142
▁solv	142
▁rational	142
▁director	142
▁definite	142
▁ride	142
▁bare	142
▁circumstance	142
▁librar	142
▁steel	142
▁efficienc	141
▁molecular	141
▁relate	141
up	141
▁explanation	141
▁tri	141
▁vulnerabl	141
▁presentation	141
▁Human	141
▁participat	141
▁hotel	141
▁orbit	141
▁passionate	141
▁fruit	140
▁Real	140
▁firm	140
▁infinite	140
▁attach	140
f	140
▁phrase	140
▁assumption	140
▁spectrum	140
▁label	140
▁historical	140
▁ideal	140
▁soft	140
the	139
▁chart	139
▁comput	139
▁regard	139
▁jail	139
▁GP	139
▁coal	139
▁church	139
▁meaningful	139
▁conduct	139
▁extract	139
▁battle	139
▁Chicago	139
▁Yet	139
▁valuable	139
▁pleasure	139
▁categor	139
▁staff	138
▁beach	138
▁Anyway	138
▁sensitive	138
▁winter	138
ware	138
com	138
fish	138
▁perceive	138
▁receive	138
▁react	138
▁scan	137
▁forgot	137
▁Bank	137
▁teeth	137
▁danger	137
▁empath	137
▁chimpanzee	137
ise	137
▁monitor	137
▁sides	137
▁sculpture	137
▁penguin	137
▁Four	136
▁gravit	136
▁pen	136
▁Institute	136
p	136
▁primar	136
▁prime	136
▁Ju	136
▁La	136
▁finance	136
▁BG	136
▁decline	136
▁teenager	136
▁boundar	135
▁kitchen	135
▁grant	135
▁radiation	135
▁mountains	135
▁thanks	135
▁unusual	135
▁entertain	135
▁clever	135
▁Dan	135
▁loop	135
▁reverse	135
▁rat	135
▁sheet	135
▁assembl	134
▁fiber	134
▁tall	134
▁academic	134
▁dirt	134
▁instant	134
▁democratic	134
▁intervention	134
▁courage	134
▁graphic	134
▁harvest	134
▁biologist	134
▁automatic	134
▁contract	134
▁cave	134
▁fake	134
▁habit	133
▁remove	133
▁loan	133
▁host	133
▁flie	133
▁arrest	133
▁Whil	133
▁Angel	133
▁mosquito	133
▁severe	133
▁cent	133
▁tag	132
▁tax	132
▁kick	132
▁dogs	132
▁st	132
▁trend	132
▁sophisticate	132
▁personalit	132
▁Steve	132
▁remov	132
▁awesome	132
▁password	132
co	132
▁pilot	132
▁silence	132
▁collaboration	132
▁shoot	131
▁height	131
▁grab	131
▁attitude	131
ber	131
▁YouTube	131
▁shame	131
destruction	131
▁bin	131
▁France	131
▁innovative	131
▁input	131
▁horse	131
▁earn	130
ated	130
▁inform	130
▁variation	130
▁Ne	130
▁productive	130
▁department	130
▁liquid	130
▁physician	130
▁zoom	130
▁reference	129
llo	129
▁apartment	129
▁relevant	129
▁iron	129
H	129
▁implication	129
▁band	129
▁phase	129
▁dense	129
▁nerve	129
▁Michael	129
▁horribl	129
▁agent	129
▁confiden	129
▁hydrogen	129
▁Park	129
▁stor	128
▁predator	128
▁handle	128
▁origin	128
▁swim	128
▁inevitabl	128
▁icon	128
▁inspiration	128
▁pro	128
▁iPhone	128
▁drill	128
▁combine	128
▁myth	128
▁bias	128
▁II	128
▁fortunate	128
▁eggs	128
▁bike	128
▁prepared	128
W	128
▁visibl	127
▁charit	127
▁framework	127
▁sphere	127
▁establish	127
▁angle	127
▁repeat	127
▁observation	127
▁Charles	127
▁illusion	127
am	127
▁hunt	127
▁Valle	127
▁repair	127
▁concrete	127
▁analog	126
▁musical	126
▁loud	126
▁false	126
▁escape	126
ri	126
▁ingredient	126
▁court	126
▁printing	126
▁studio	126
▁terroris	126
▁hang	126
▁license	126
▁improvement	126
▁breathe	125
▁Russia	125
▁Science	125
▁myster	125
ate	125
▁rap	125
▁infection	125
I	125
▁divers	125
▁psychological	125
▁nest	125
▁Sam	125
▁behave	124
▁activist	124
▁fiction	124
▁priva	124
▁meal	124
▁educat	124
▁swimm	124
ttle	124
▁Talk	124
▁evolve	124
rtex	124
▁permanent	124
▁measur	124
▁Ten	123
▁manager	123
▁mechanical	123
▁da	123
▁evening	123
▁hack	123
▁dropp	123
▁sports	123
▁Bang	123
▁antibiotic	123
▁apparent	123
line	123
em	123
▁club	123
▁Darwin	123
▁afternoon	123
▁Paris	123
▁prisoner	123
▁storm	123
▁hous	123
▁Pakistan	123
▁unknown	123
▁fle	122
▁sight	122
▁polici	122
E	122
▁clock	122
▁wash	122
▁microscope	122
▁knee	122
▁grandfather	122
▁officer	122
▁scared	122
▁prize	122
▁State	122
▁caus	122
▁deserve	122
dom	122
▁exploration	122
▁script	122
▁thin	122
▁silk	122
▁lecture	121
▁angr	121
▁frequenc	121
▁struggl	121
▁Ph	121
▁partners	121
▁suck	121
▁g	121
▁psycholog	121
▁CEO	121
▁committ	121
▁Project	121
▁resolution	121
▁comfort	121
▁shut	121
▁alien	121
▁conservation	120
▁challeng	120
▁Give	120
▁wine	120
▁fan	120
▁wars	120
▁Turk	120
▁paradigm	120
▁Me	120
▁bio	120
B	120
▁weigh	120
▁argu	120
▁employ	120
▁tank	120
▁tip	120
▁tape	120
▁drone	120
▁Ca	119
▁pour	119
▁danc	119
▁nor	119
▁tune	119
▁theme	119
nfortunate	119
▁embrace	119
▁cluster	119
▁Five	119
▁clothes	119
▁exhibition	119
▁shadow	119
▁Thom	119
▁September	119
▁Will	119
▁internal	119
▁expos	119
▁pile	119
fore	118
▁advice	118
▁desk	118
▁integrat	118
▁upper	118
▁discipline	118
▁selection	118
io	118
▁expectation	118
et	118
▁spider	118
▁wireless	118
▁busy	118
▁Boy	118
▁bond	118
▁contrast	118
▁download	118
▁counter	118
▁characteristic	118
▁percentage	118
▁item	118
▁continu	117
▁telephone	117
▁presence	117
▁Final	117
▁lad	117
truck	117
▁Health	117
▁abstract	117
▁symmetr	117
▁recording	117
▁protest	117
▁mere	117
▁contribute	117
▁wound	117
▁na	117
▁file	117
▁split	117
▁chapter	117
▁Adam	117
▁tap	117
▁implement	117
▁portrait	116
▁emergenc	116
▁depth	116
▁entrepreneurs	116
▁select	116
▁revenue	116
▁Pacific	116
▁Tom	116
▁secure	116
▁roads	116
bel	116
▁greenhouse	116
▁toxic	116
▁hall	116
▁boring	116
▁vertical	116
▁install	116
▁intense	116
▁House	115
▁Stan	115
▁burning	115
what	115
▁obsess	115
▁divid	115
▁parallel	115
▁capitalis	115
▁rush	115
▁May	115
▁Number	115
▁overall	115
lf	115
▁elder	115
▁El	115
▁commitment	114
▁Egypt	114
▁humor	114
▁snow	114
way	114
red	114
▁suppose	114
▁Fe	114
▁mad	114
▁pool	114
▁exten	114
▁apple	114
▁Jun	114
▁motivation	114
▁bicycle	114
axis	114
▁Wikipedia	114
▁V	113
▁emerge	113
▁Swede	113
ong	113
▁instruction	113
▁Nation	113
Something	113
▁heal	113
▁weak	113
emember	113
hi	113
▁Obama	113
▁observ	113
▁Mary	113
▁White	112
go	112
▁densit	112
▁acid	112
▁fascinat	112
▁Abou	112
▁Basic	112
▁Jim	112
▁tour	112
▁rocks	112
▁hormone	112
▁mice	112
▁birthday	112
▁Global	112
▁marine	112
work	111
▁inter	111
▁lifestyle	111
▁frank	111
▁distribut	111
▁prefer	111
▁feeding	111
▁psychologist	111
▁Apple	111
▁milk	111
▁announc	110
▁raw	110
▁afterward	110
▁photographer	110
▁exception	110
▁organize	110
▁database	110
▁favor	110
▁pitch	110
▁educational	110
▁route	110
ng	110
▁cord	110
▁Museum	109
▁Robert	109
▁rely	109
▁backward	109
▁defense	109
▁celebrate	109
▁aim	109
▁gut	109
F	109
▁oppos	109
▁exponential	109
▁trigger	109
▁ears	109
▁diagram	109
ol	109
▁animation	109
▁narrow	108
▁renewable	108
▁witness	108
▁carri	108
▁plent	108
▁accelerat	108
▁admit	108
ac	108
▁classe	108
▁invite	108
▁philosoph	108
▁flood	108
▁cheat	108
▁mathematician	108
ial	108
▁cloth	108
ee	107
▁ex	107
▁ritual	107
▁corporate	107
▁seal	107
▁barrier	107
▁welcome	107
ent	107
▁boxe	107
▁Islam	107
▁confront	107
▁falls	107
▁fifth	107
▁logic	107
▁fluid	107
▁scenario	107
▁Age	107
▁hook	107
▁January	106
▁stands	106
▁unexpected	106
ham	106
▁exploit	106
▁globe	106
▁divide	106
▁Centr	106
▁Christmas	106
▁judgment	106
▁shirt	106
▁blog	106
▁Antarctic	106
▁grateful	105
▁Le	105
▁conclude	105
▁Never	105
▁cable	105
▁piano	105
▁poster	105
▁Get	105
▁genius	105
▁Congo	105
▁flip	105
▁medication	105
▁Del	105
▁intend	105
▁desperate	105
▁wise	105
▁Latin	105
▁nei	105
▁isolat	105
▁footprint	105
▁immun	105
▁trace	104
▁ignore	104
▁author	104
▁ignoran	104
▁minister	104
▁beside	104
▁recycl	104
▁session	104
▁Red	104
▁compound	104
▁shell	104
▁Ah	104
▁stretch	104
▁continuous	104
▁recogni	103
▁fabric	103
▁lion	103
▁elect	103
ana	103
▁dedicat	103
▁hearts	103
▁Sahara	103
ground	103
▁Joe	103
▁US	103
▁crucial	103
surance	103
▁behavioral	103
▁asset	103
▁conventional	102
▁salt	102
▁Part	102
▁boss	102
▁contribut	102
▁spiritual	102
▁anger	102
▁silent	102
▁windows	102
▁identical	102
▁shall	102
▁vital	102
▁engagement	102
▁cow	102
▁painful	102
▁overcome	102
▁tired	101
▁gray	101
▁Korea	101
▁raising	101
▁heaven	101
▁Space	101
▁Star	101
L	101
▁steal	101
▁senior	101
▁laser	101
▁hunger	101
▁walks	101
▁traged	101
▁strike	101
▁shelter	101
▁tea	101
▁ticket	101
ha	101
▁guide	101
▁Greek	101
▁gang	101
▁killer	100
▁dust	100
▁agenda	100
▁Gulf	100
▁wage	100
▁sail	100
▁Tell	100
▁ear	100
▁liver	100
▁bug	100
▁consume	100
▁Frank	100
▁classic	100
rising	100
▁suspect	100
▁drove	100
▁Free	100
▁smok	100
▁objective	100
rew	100
▁Holly	100
▁intention	100
▁elite	100
▁River	100
▁Voice	100
▁illustrate	99
▁clouds	99
▁Ben	99
while	99
▁proof	99
▁knock	99
▁consistent	99
▁smoke	99
▁mate	99
▁gon	99
▁meme	99
▁disabilit	99
▁reserve	99
▁philosopher	99
▁transfer	99
▁prosper	99
▁citizen	99
▁plot	99
▁transplant	99
▁advertis	99
▁shooting	99
▁stepp	99
right	99
▁trait	99
▁implant	99
▁chocolate	98
▁lake	98
▁identifie	98
▁accomplish	98
▁beer	98
▁Nothing	98
▁regime	98
▁earthquake	98
▁rhythm	98
rs	98
▁interactive	98
▁bend	98
▁pregnan	98
▁Microsoft	98
▁boom	98
▁golf	98
▁household	98
▁consum	98
▁till	98
▁cooperat	98
▁froze	97
▁functional	97
▁leap	97
▁electron	97
▁Foundation	97
▁urge	97
▁obstacle	97
▁column	97
▁propos	97
▁march	97
▁Arm	97
G	97
▁terrifi	97
▁Next	97
▁polio	97
▁St	97
▁stack	97
▁ten	97
▁blame	97
▁domestic	97
▁suicide	97
▁diagnos	97
tlantic	96
▁breed	96
▁magnetic	96
ification	96
▁tube	96
▁NGO	96
▁stroke	96
▁Islamic	96
▁youth	96
▁faci	96
▁authentic	96
▁murder	96
▁Bush	96
▁coin	96
▁recruit	96
▁cute	96
▁Pole	96
▁Peter	96
▁Was	96
▁indicate	96
▁hungr	96
os	96
▁debt	96
▁guard	96
▁Dad	96
▁Higgs	96
▁asteroid	96
▁productivit	96
ches	95
▁Manhattan	95
oxide	95
▁vegetable	95
▁embedded	95
▁appeal	95
▁ceiling	95
▁Thing	95
▁darkness	95
▁domain	95
▁reported	95
▁pray	95
▁pretend	95
▁reject	95
na	95
▁clue	95
▁participant	95
▁Martin	95
▁International	95
▁tower	95
city	95
▁promote	95
▁Dur	95
▁regulation	95
▁thumb	95
▁Bot	95
▁edit	95
▁guarantee	95
▁miracle	95
▁frog	95
▁optimistic	95
▁passenger	95
▁reduction	94
▁tight	94
▁liberal	94
▁shake	94
▁Russian	94
U	94
▁distant	94
▁corporation	94
▁curiosit	94
▁simulation	94
▁partnership	94
▁quit	94
to	94
▁deploy	94
▁federal	94
▁excite	94
▁request	94
town	94
▁confuse	94
▁sales	94
▁priorit	94
▁slides	93
▁representation	93
▁bulb	93
▁printer	93
▁banks	93
▁pill	93
▁absorb	93
▁tuna	93
▁description	93
▁procedure	93
ndeed	93
▁donor	93
kind	93
▁district	93
▁orange	93
▁confident	93
ors	93
▁Texa	93
life	93
▁lens	93
dge	93
▁demographic	93
▁Air	92
▁airport	92
▁Ghana	92
▁abandon	92
▁trans	92
▁needle	92
▁unbelievabl	92
pox	92
▁scratch	92
▁General	92
▁Department	92
▁Lu	92
▁accessibl	92
id	92
▁hip	92
:	92
den	92
▁cyber	92
▁ill	92
▁imagin	92
▁Revolution	92
▁comic	92
▁mushroom	92
▁rebuild	92
▁candidate	92
children	92
▁hire	92
▁skull	92
gun	92
▁intuitive	92
▁Wom	92
▁dignit	91
▁inspiring	91
▁capita	91
▁chief	91
▁pace	91
▁ethical	91
▁Mark	91
▁leak	91
▁alter	91
▁Narrat	91
▁adventure	91
op	91
▁furniture	91
▁laughing	91
▁shipp	91
▁conservative	91
▁li	91
▁regret	91
▁Make	90
▁Up	90
▁melt	90
▁profile	90
▁complain	90
▁spectacular	90
▁mold	90
▁surveill	90
▁uncomfortabl	90
▁hir	90
▁mechanic	90
▁mutation	90
▁node	90
uch	90
▁entrepreneur	90
▁utter	90
▁extinct	90
▁linear	90
▁corn	89
▁magical	89
▁disgust	89
hood	89
▁gesture	89
▁subtle	89
▁Ma	89
▁Black	89
▁Rio	89
▁slum	89
▁headline	89
▁textbook	89
▁flexibl	89
▁probabilit	89
▁Christian	89
▁spill	89
▁worm	89
▁skeleton	89
▁diabet	89
▁upset	88
▁legac	88
▁dig	88
▁cast	88
gen	88
▁ridiculous	88
▁limitation	88
▁chest	88
▁ta	88
▁Scott	88
▁arrive	88
▁cash	88
▁anxiet	88
▁refer	88
▁Olympic	88
▁fisher	88
▁demonstration	88
dependent	88
il	88
▁fragil	88
▁initiative	88
▁realm	87
▁brown	87
▁views	87
▁naked	87
▁cousin	87
▁Ba	87
▁Wall	87
▁autonomous	87
▁pointed	87
▁transparent	87
▁doors	87
▁inventor	87
▁strand	87
▁experimental	87
▁calculate	87
▁Haiti	87
▁pyramid	87
▁yield	87
▁transparen	87
▁nutrient	87
▁sheep	87
▁pink	87
▁command	87
at	86
▁chao	86
▁restore	86
▁analyz	86
▁external	86
▁compell	86
▁Co	86
▁dominant	86
▁calculation	86
ka	86
▁freak	86
▁Back	86
▁ugl	86
▁borrow	86
▁uncle	86
▁leverage	86
▁DH	86
▁resolve	86
ure	86
▁Ocean	86
▁Ox	86
▁hanging	85
▁output	85
▁attend	85
▁ultra	85
▁romantic	85
▁achievement	85
▁ensure	85
▁measurement	85
▁theori	85
▁mal	85
▁neuroscience	85
▁Lab	85
▁Mom	85
▁digit	85
pit	85
▁helicopter	85
▁systematic	85
▁destin	85
▁essence	85
▁simpli	85
▁extinction	85
▁Act	85
▁acknowledge	85
▁rent	84
▁projection	84
▁mail	84
▁defend	84
▁Law	84
▁Octo	84
▁flash	84
▁northern	84
▁frighten	84
▁fortune	84
▁intuition	84
over	84
▁guilt	84
▁surrounding	84
▁mis	84
▁connectiv	84
▁thick	84
▁decrease	84
▁array	84
house	83
▁tackle	83
ilit	83
▁gradual	83
86	83
▁aircraft	83
▁Nature	83
▁synthetic	83
▁Jewish	83
▁Mother	83
▁ending	83
▁trends	83
▁preserv	83
▁bump	83
▁brave	83
▁fed	83
▁breakthrough	83
▁rainforest	83
▁punch	83
▁survivor	83
▁neural	83
▁Blue	83
▁concert	83
▁copie	83
▁None	83
cellular	83
▁gase	83
▁calculat	83
▁smooth	83
BI	83
▁comet	83
▁wings	83
▁investor	83
▁east	82
▁pipe	82
ir	82
▁bound	82
▁additional	82
▁dear	82
▁fulfill	82
▁concentration	82
▁football	82
▁trajector	82
▁sharp	82
▁relations	82
▁pet	82
▁attractive	82
▁failing	82
▁norm	82
▁highlight	82
▁combat	82
▁Long	82
▁biodivers	82
▁tragic	82
▁highway	82
stone	82
▁mark	82
▁basket	82
▁dump	82
▁slaver	82
▁gear	82
▁Uganda	82
▁algae	82
▁contribution	81
▁tunnel	81
▁Vietnam	81
ious	81
nda	81
▁twist	81
▁agricultural	81
▁shrimp	81
ip	81
▁recipe	81
▁civic	81
▁tone	81
▁tricks	81
▁laid	81
heimer	81
▁shopp	81
▁Di	81
ice	81
▁routine	81
ably	81
▁dive	81
▁Bible	81
▁ski	81
▁bee	81
▁analyze	81
▁neutral	80
▁inch	80
▁Soviet	80
▁Time	80
▁hid	80
▁reputation	80
▁confirm	80
▁Ital	80
pe	80
▁tropic	80
▁ignor	80
▁rating	80
▁sweat	80
▁convey	80
▁scann	80
▁sacred	80
▁southern	80
▁adjust	80
▁High	80
▁Third	80
▁crossing	80
▁comparison	80
▁repeated	80
▁dose	80
▁marker	80
▁hill	80
▁queen	80
▁glacier	80
▁mood	80
▁Egyptian	80
▁navigate	80
▁winner	80
▁rope	80
laughter	80
▁reactor	80
ney	79
84	79
▁MRI	79
▁tension	79
▁spell	79
▁lane	79
▁baseball	79
▁tribes	79
▁Should	79
▁Child	79
▁robust	79
▁permission	79
▁Span	79
▁explosion	79
▁substance	79
▁warning	79
▁resist	79
▁boil	79
ni	79
▁min	79
▁coat	79
▁Put	78
▁branch	78
col	78
▁polar	78
▁stole	78
▁frequent	78
▁underly	78
▁ink	78
▁pr	78
▁anonymous	78
▁fragment	78
▁neat	78
ied	78
▁portion	78
rice	78
▁interpret	78
▁competitive	78
▁vagina	78
▁tweet	78
▁handed	78
▁van	78
▁Girl	78
▁slice	78
▁Out	78
▁motivat	78
M	78
▁improv	78
▁Ethiopia	78
hildren	78
▁bat	78
▁coordinat	78
▁soap	78
▁depress	78
ocin	78
▁Obvious	77
▁burie	77
▁Bay	77
▁sacrifice	77
▁glad	77
▁format	77
▁profession	77
▁figur	77
▁sink	77
▁determined	77
▁Prize	77
▁pandemic	77
▁journal	77
▁origami	77
▁galler	77
▁collaborative	77
▁relax	77
▁pot	77
▁dish	77
▁Love	77
▁unclear	77
▁Po	77
▁fraction	77
me	77
▁chromosome	77
▁imag	77
que	76
▁variable	76
▁Eastern	76
▁god	76
der	76
▁Ed	76
ile	76
▁frustrate	76
▁bother	76
▁sill	76
▁Israeli	76
uthern	76
▁Prince	76
▁Florid	76
▁bathroom	76
▁pause	76
▁Pro	76
▁agreement	76
▁simultaneous	76
▁helpful	76
▁installation	76
▁astonishing	76
▁marry	76
▁excuse	76
▁pathway	76
▁strip	76
▁Dece	76
▁transmission	76
▁aesthetic	76
▁observe	76
ua	76
▁owner	76
▁makers	76
▁serving	76
▁Sure	76
▁currenc	76
▁pole	76
▁inherent	76
▁pioneer	76
PR	76
▁Home	76
▁structural	76
rctic	76
▁Six	75
▁reliabl	75
▁magnet	75
▁celebrat	75
▁translation	75
▁dial	75
▁pursue	75
▁hyper	75
▁traffick	75
clock	75
▁mat	75
▁Moo	75
▁div	75
ro	75
▁mode	75
bru	75
▁plain	75
▁joint	75
▁addict	75
▁Smith	75
▁mask	75
▁constraint	75
▁passive	75
▁Through	75
▁Jer	75
▁resident	75
▁insist	75
▁lethal	75
▁port	75
▁Spa	75
▁tendenc	75
▁dialogue	75
▁Rwanda	75
ball	75
▁occasional	75
▁ratio	75
▁garage	75
▁athlete	75
▁wheelchair	75
▁computation	74
izing	74
▁manual	74
▁signature	74
▁chas	74
art	74
▁bullet	74
▁paralyz	74
led	74
▁gathering	74
▁expedition	74
▁peaceful	74
▁arise	74
▁editor	74
▁smartphone	74
▁Count	74
▁vacuum	74
▁copyright	74
▁Gates	74
▁Pe	74
▁Jesu	74
ite	74
▁Bob	74
▁expansion	74
▁native	74
▁bow	74
▁fabulous	73
▁entit	73
▁Lin	73
▁poison	73
▁con	73
▁rivers	73
▁Technolog	73
▁jelly	73
board	73
▁instinct	73
▁dictionar	73
▁experienc	73
vi	73
▁choos	73
▁winning	73
▁Sa	73
▁impression	73
▁imager	73
▁drift	73
▁programmer	73
▁mysterious	73
▁sandwich	73
▁attribute	73
▁Ab	73
▁burst	73
hand	73
▁spark	73
▁tribe	73
▁stake	73
▁keyboard	73
▁kidney	73
▁KB	73
▁reinvent	72
▁gods	72
▁assignment	72
▁immense	72
▁primitive	72
▁kiss	72
48	72
▁pos	72
▁cliff	72
▁campus	72
▁Video	72
▁shrink	72
▁reduc	72
▁mindset	72
▁alcohol	72
▁Jack	72
▁valley	72
▁Rome	72
cer	72
▁compete	72
▁dancer	72
▁lamp	72
▁wrap	72
▁award	72
▁electrode	72
▁pit	72
▁pulse	72
vill	71
▁woke	71
ology	71
▁threshold	71
▁shin	71
▁acre	71
ak	71
ible	71
▁Hill	71
▁aggressive	71
▁En	71
▁Italian	71
▁proportion	71
▁Democrat	71
▁gate	71
▁i	71
▁Research	71
rway	71
▁shout	71
▁inject	71
▁resilienc	71
▁commodit	71
▁neck	71
▁dat	71
▁curricul	71
▁statistical	71
▁custom	71
▁twin	71
▁nonprofit	71
▁bang	71
▁hackers	71
▁approache	71
▁vulnerabilit	71
▁luxur	71
stage	71
▁opera	71
▁mentor	71
▁Court	71
▁Virgin	71
▁ecological	71
▁August	71
▁genocide	71
ner	71
▁metha	71
▁Yorker	71
ping	71
▁orchestra	71
ci	70
▁Grand	70
▁ha	70
▁thrill	70
▁barrel	70
▁ai	70
▁recommend	70
▁pride	70
▁logical	70
▁annual	70
▁vi	70
▁package	70
▁spray	70
▁egg	70
▁mimic	70
▁slave	70
▁embrac	70
▁crew	70
▁upside	70
▁grasp	70
▁drought	70
▁sensation	70
▁locat	70
▁Cambri	70
▁caves	70
▁bats	70
▁oxy	70
▁pie	69
▁Lad	69
▁tile	69
▁Brown	69
▁mayor	69
▁Unti	69
▁educate	69
▁marketplace	69
▁plug	69
▁interpretation	69
▁Sorry	69
ex	69
▁Northern	69
▁grandparent	69
▁crush	69
▁broadcast	69
▁register	69
▁hypothesi	69
▁pose	69
▁pharmaceutical	69
47	69
▁bombs	69
▁innocent	69
▁optimis	69
▁exhibit	69
▁distinct	69
▁Asian	69
▁microbial	69
▁selfish	69
▁Sunday	69
▁clos	69
▁intersection	69
▁Wi	69
▁reproduce	69
▁replicate	69
▁guns	69
▁developer	69
▁gallon	69
▁troop	69
▁bucks	69
▁Square	69
▁export	69
▁concentrat	69
▁suggestion	69
▁Beij	69
▁TEDTalk	69
▁scanner	69
▁condom	69
▁beetle	69
▁terror	68
▁triangle	68
un	68
▁duck	68
▁advocate	68
▁nuts	68
▁disconnect	68
▁silver	68
▁fate	68
▁bizarre	68
▁honey	68
▁delight	68
aday	68
▁preserve	68
▁compromise	68
▁Kid	68
▁legislati	68
▁Edi	68
▁Ya	68
▁x	68
esis	68
▁supermarket	68
▁Republican	68
force	68
▁ruin	68
▁audio	68
▁descend	68
▁Open	68
▁Design	68
▁Mountain	68
▁intensive	68
▁representative	68
▁detection	68
▁pigeon	68
▁wrapp	68
▁garbage	68
▁automobile	67
ero	67
▁metric	67
▁millimeter	67
▁appearance	67
▁shine	67
▁neuro	67
▁architectural	67
▁overwhelming	67
▁supplie	67
▁extension	67
▁ho	67
▁LED	67
▁cake	67
▁quantit	67
▁burden	67
▁determin	67
▁quest	67
▁clay	67
itarian	67
▁weekend	67
▁contemporar	67
▁enterprise	67
▁generous	67
▁producer	67
▁Dere	67
▁goat	67
▁detector	67
▁eradicat	67
▁Tes	67
rofessor	67
▁dominat	67
▁minim	67
▁crawl	67
▁blend	67
▁expectanc	67
▁creator	67
▁trash	67
▁fool	66
mer	66
▁tongue	66
▁approve	66
▁cheese	66
▁craft	66
▁op	66
▁Wait	66
RB	66
▁ma	66
▁reasonable	66
▁sport	66
▁propose	66
▁guid	66
▁compassionate	66
▁shore	66
ge	66
▁mapping	66
▁rape	66
▁screw	66
▁wider	66
▁Sir	66
▁endless	66
ane	66
▁Lego	66
▁antenna	66
▁dumb	66
gentleman	66
▁parasite	66
▁Silicon	66
▁exam	66
round	66
▁horizon	66
▁primari	66
▁formula	66
tor	66
▁slim	66
▁formation	66
▁blank	66
▁west	65
like	65
87	65
ncy	65
▁consist	65
iness	65
atrix	65
▁viral	65
▁Church	65
▁Ho	65
▁Palestinian	65
▁classical	65
▁territor	65
▁bath	65
ap	65
ris	65
▁tent	65
▁arrow	65
▁Eric	65
▁soup	65
▁unconscious	65
▁manner	65
▁girlfriend	65
▁par	65
▁Fortun	65
▁March	65
▁Men	65
▁outer	65
▁palm	65
▁delivery	65
▁rose	65
▁bribe	65
▁censor	65
▁prepare	65
▁primate	65
▁geo	65
▁hemisphere	65
▁homeless	65
▁subway	65
▁server	64
▁Gene	64
▁Mac	64
▁fears	64
some	64
▁Listen	64
ju	64
▁beating	64
▁intimate	64
▁torture	64
▁Iranian	64
▁homework	64
▁strategic	64
▁deforest	64
▁incident	64
tra	64
▁loving	64
▁uniform	64
▁microphone	64
▁compress	64
▁spontaneous	64
ina	64
▁realiz	64
▁devil	64
▁striking	64
▁ethic	64
▁Ala	64
▁precious	64
▁brutal	64
▁Fa	64
bola	64
amma	64
ti	64
▁Bell	64
▁washing	64
▁coach	64
▁Mike	64
▁unprecedented	63
tude	63
fa	63
▁interior	63
istic	63
▁chamber	63
▁settl	63
▁flaw	63
▁bold	63
▁defeat	63
▁fence	63
▁shit	63
▁specialist	63
▁impressive	63
▁kingdom	63
▁Ray	63
▁fanc	63
ative	63
▁exposure	63
▁bla	63
▁damn	63
▁wedding	63
▁Litt	63
▁unfold	63
▁cotton	63
▁Dutch	63
▁seeming	63
▁Brazilian	63
▁moralit	63
▁upload	63
▁activate	63
▁indigen	63
▁logo	63
ealand	63
▁Saturn	63
▁friendship	63
▁unemploy	63
▁glamor	63
▁diamond	63
▁entry	63
▁uncertaint	63
▁stunt	63
▁camps	63
BM	63
▁snake	63
▁update	62
ueen	62
▁sufficient	62
▁magni	62
▁beam	62
▁Chile	62
▁Minister	62
▁Super	62
▁theoretical	62
▁equit	62
▁reflection	62
▁Alexand	62
▁Sara	62
▁mineral	62
▁cigarette	62
▁compet	62
nforcement	62
▁Se	62
▁specializ	62
▁membrane	62
▁mild	62
▁venture	62
▁lit	62
▁Taliban	62
aking	62
diac	62
▁deck	62
▁awkward	62
▁Mandel	62
▁Friday	62
▁rubber	62
▁Leonard	62
BC	62
▁elegant	62
▁altitude	62
▁centimeter	62
▁glasse	62
▁foods	62
▁cart	62
▁heavi	62
▁mobil	62
▁chunk	62
▁verb	62
▁Con	62
▁astronomer	62
▁watt	62
▁canop	62
▁recall	62
▁diagnosi	62
▁camel	62
▁Ford	61
▁amateur	61
▁tsunami	61
▁despair	61
▁Na	61
▁Korean	61
▁retirement	61
▁calm	61
▁cosm	61
▁stabilit	61
om	61
▁hunter	61
▁manipulate	61
▁cruel	61
▁dare	61
een	61
▁assistan	61
eda	61
▁Nel	61
▁align	61
de	61
▁Ri	61
▁commit	61
▁proposition	61
▁bi	61
▁fires	61
▁Peace	61
▁collision	61
tz	61
▁proven	61
▁substantial	61
▁leaf	61
▁Gandhi	61
▁Ro	61
▁assign	61
▁workplace	61
▁pan	61
▁harness	61
88	61
▁suspend	61
ck	61
▁occasion	61
▁Ever	61
▁mutual	61
▁civilian	61
▁Moon	61
▁wandering	61
▁yoursel	60
▁Swi	60
▁intrigu	60
▁Year	60
▁ongoing	60
▁coca	60
▁Van	60
▁overwhelm	60
▁rotate	60
▁excellen	60
▁dawn	60
▁Henr	60
▁alarm	60
▁archive	60
▁static	60
▁loose	60
▁Council	60
▁Jew	60
▁insane	60
▁disabl	60
▁vot	60
▁bowl	60
▁Has	60
▁personaliz	60
▁contrar	60
▁pant	60
▁bedroom	60
estate	60
▁believ	60
▁Brun	60
▁Net	60
▁geometr	60
▁terrifying	60
place	60
▁Tanzania	60
▁Josh	60
ph	60
lin	60
▁Mc	60
LT	60
▁administration	60
▁Tu	60
▁landing	60
▁Bronx	60
▁motivate	60
▁via	60
▁tagg	60
▁activat	60
▁Homo	60
▁inherit	60
▁Hall	60
▁Saudi	60
▁sel	60
▁Ka	60
▁dilemma	60
▁strain	59
▁Lake	59
▁brick	59
▁redesign	59
▁Jeff	59
▁Penn	59
do	59
▁tale	59
▁fired	59
tan	59
▁dut	59
▁Brian	59
▁rethink	59
▁endanger	59
▁tubes	59
▁cod	59
▁ceremon	59
▁genuine	59
▁steer	59
▁trauma	59
▁blogs	59
▁addiction	59
▁executive	59
▁spike	59
▁disagree	59
▁collaborator	59
▁pad	59
▁exclusive	59
▁geek	59
▁banana	59
let	59
va	59
▁storytell	59
▁infant	59
fall	59
▁Eight	59
44	59
▁Twenty	59
▁Pan	59
▁artwork	59
elief	59
▁deaf	59
▁scheme	59
▁miserable	59
▁fault	59
68	59
▁pedestrian	59
▁lo	59
▁bust	59
▁manufacturer	59
▁sauce	59
▁Compan	59
▁institutional	59
▁sens	59
▁glue	59
▁confine	59
▁offering	59
▁absence	58
▁pin	58
▁Carolin	58
▁feminist	58
▁founder	58
▁sixth	58
▁frontier	58
▁Lord	58
▁encrypt	58
▁prepar	58
▁encouraging	58
▁reconstruct	58
▁principal	58
drew	58
▁bored	58
▁punish	58
▁dies	58
▁diagnostic	58
ives	58
▁correspond	58
▁winds	58
▁acquir	58
▁MT	58
▁interconnected	58
▁glow	58
▁Snow	58
▁monitoring	58
nia	58
▁Social	58
ig	58
▁Wal	58
▁Newton	58
▁fertilizer	58
▁temporar	58
▁dragg	58
▁iPod	58
▁singer	58
▁ethnic	58
▁cue	58
▁historic	58
▁documentar	58
▁phosphor	58
▁downtown	58
▁dung	58
▁Sal	58
▁upward	58
▁Shanghai	58
▁shower	58
▁Doctor	58
▁fraud	58
▁Gab	58
▁whistle	58
▁hierarch	58
▁dopamine	58
▁ape	58
▁tattoo	58
▁Monte	57
▁Ki	57
▁proposal	57
▁minus	57
▁seas	57
▁Medica	57
ut	57
▁Watch	57
▁calorie	57
hur	57
▁drown	57
▁distinguish	57
▁stomach	57
▁Neanderthal	57
▁fusion	57
▁phenomena	57
po	57
▁straightforward	57
▁virtue	57
▁Sudden	57
▁flags	57
▁recogniz	57
▁crystal	57
ide	57
▁Cal	57
▁Tim	57
▁nights	57
▁thinker	57
▁division	57
▁Jo	57
▁chronic	57
▁grave	57
▁Jane	57
▁William	57
▁receptor	57
set	57
▁flourish	57
▁punishment	57
▁impress	57
▁minorit	57
▁nerd	57
▁ambitio	57
▁maker	57
▁log	57
▁Rose	57
▁angel	57
▁phenomenal	57
▁eliminat	57
▁swing	57
▁deliberate	57
▁bless	57
▁realistic	57
▁sanit	57
▁Media	57
▁texture	56
xcept	56
▁jet	56
▁dropping	56
▁jar	56
▁Stop	56
▁shak	56
▁Johnson	56
car	56
▁explicit	56
▁backyard	56
▁trivial	56
▁harmon	56
▁anticipat	56
▁Brookl	56
▁Bangladesh	56
▁riot	56
▁aspiration	56
▁bind	56
▁delay	56
▁refus	56
▁persuade	56
spring	56
▁Fort	56
▁Fey	56
▁horizontal	56
▁astronaut	56
▁parachute	56
▁retreat	56
ollege	56
▁Koran	56
▁outbreak	56
▁purpl	56
▁grabb	56
▁filmmaker	56
▁Thai	56
▁transmit	56
▁Santa	56
▁demo	56
▁composition	56
▁AK	56
onica	56
▁Ta	55
▁hybrid	55
▁degrad	55
▁ecolog	55
▁Far	55
▁Rather	55
▁ambition	55
▁pursuit	55
▁thread	55
entropy	55
▁starv	55
▁foster	55
▁naive	55
▁geograph	55
▁ironic	55
▁syndrome	55
oo	55
sha	55
▁temple	55
▁terrain	55
▁Andrew	55
▁breakfast	55
▁employer	55
▁outrage	55
▁relation	55
▁cube	55
▁wheat	55
mo	55
▁controversial	55
▁branche	55
▁Ok	55
▁rank	55
nce	55
▁Ha	55
▁requirement	55
▁Argentin	55
▁Nove	55
▁container	55
▁worrying	55
▁Brother	55
▁segment	55
▁declare	55
▁retire	55
well	55
▁Du	55
▁System	55
▁visualization	55
▁assemble	55
▁logg	55
▁le	55
bai	55
▁visualize	55
▁carpet	55
▁belt	55
▁referr	55
▁Aristot	55
▁popp	55
▁Way	55
▁lands	55
▁magnificent	55
▁bell	55
▁Vi	54
▁kidd	54
▁optical	54
▁sketch	54
▁pipeline	54
▁convenient	54
▁unlock	54
▁taxe	54
▁deposit	54
▁sperm	54
▁drag	54
▁satisfy	54
▁mainstream	54
▁negotiation	54
▁Us	54
▁Ge	54
▁gra	54
▁exhaust	54
▁blink	54
ean	54
ler	54
▁prostate	54
▁pizza	54
▁strict	54
▁monster	54
▁Government	54
í	54
▁Jordan	54
▁indoor	54
▁Mart	54
▁Half	54
▁occupy	54
▁prior	54
▁devastating	54
PA	54
▁readers	54
▁News	54
▁Tony	54
▁steam	54
▁diameter	54
stock	54
▁Try	54
▁grocer	54
▁spacecraft	54
▁partial	54
▁SS	54
▁keys	54
▁potato	54
▁canvas	54
▁Force	53
▁phantom	53
sleep	53
▁pencil	53
ran	53
▁spiral	53
▁lonel	53
▁candle	53
▁whisper	53
▁Hans	53
▁banker	53
▁atomic	53
▁artifact	53
▁empire	53
▁Coke	53
▁tiger	53
▁masse	53
▁Fift	53
▁Nick	53
▁promot	53
▁cricket	53
▁divorce	53
▁chimp	53
▁tide	53
▁horror	53
▁hub	53
▁teenage	53
▁mount	53
▁cream	53
▁ideolog	53
▁earning	53
▁tick	53
▁Syria	53
▁discriminati	53
▁migration	53
▁celebrit	53
ER	53
▁Catholic	53
▁smil	53
▁commission	53
▁describ	53
▁jazz	53
▁Mum	53
▁Indonesia	53
▁lap	53
▁realization	53
▁warrior	53
▁ubiquitous	53
▁sidewalk	53
▁paradox	53
▁trap	53
▁workshop	53
▁vary	53
▁embryo	53
▁planetar	53
▁accura	53
cut	53
▁span	53
▁sibling	53
▁Accord	53
▁Miss	53
▁summit	53
▁Fi	52
▁Col	52
iest	52
▁processor	52
witzer	52
▁unhapp	52
▁emphasize	52
▁Abraham	52
▁Roy	52
▁lifespan	52
▁legitimate	52
▁innovate	52
▁knife	52
▁investigation	52
▁communicat	52
▁veteran	52
▁destination	52
▁achiev	52
▁tar	52
▁mines	52
▁Cyr	52
▁orient	52
▁Cuba	52
▁Kev	52
▁stereotype	52
▁maxim	52
▁denial	52
▁screaming	52
▁approximate	52
▁informal	52
▁similarit	52
▁sin	52
▁Keep	52
ibilit	52
▁enzyme	52
uk	52
▁association	52
▁Hav	52
▁schizophreni	52
▁aggregate	52
▁ego	52
▁kilo	52
76	52
▁Redwood	52
▁Nike	52
ud	52
▁Probab	52
▁shoe	52
▁RS	52
▁jewel	52
▁boost	52
▁suppress	52
▁harmful	52
▁Stage	52
▁Nigerian	52
aving	51
▁nano	51
▁priest	51
▁Da	51
▁embarrassing	51
46	51
end	51
▁Turns	51
▁verbal	51
▁shy	51
▁cooperate	51
▁explod	51
▁gram	51
▁formal	51
▁Mu	51
ja	51
▁Mean	51
▁tolerance	51
▁mud	51
▁probe	51
▁multiply	51
▁episode	51
▁teache	51
▁transmitt	51
▁welfare	51
wa	51
▁screens	51
▁insert	51
ga	51
▁Alex	51
▁nutrition	51
▁incarcerat	51
▁guest	51
▁spinn	51
▁infectious	51
▁wishe	51
val	51
▁useless	51
da	51
▁sew	51
▁Work	51
half	51
cal	51
▁Berli	51
▁libert	51
▁Albert	51
▁fantas	51
▁sake	51
▁correlation	51
sulin	51
tta	51
▁juice	51
▁distinction	51
▁amaz	51
▁inmate	51
▁Portug	51
▁prescription	51
ogether	51
▁accidental	51
▁accelerate	51
▁jaw	51
evit	51
▁Kan	51
▁Academ	51
▁vacation	51
▁trapp	51
▁transit	51
▁Saturday	51
▁diarrhea	51
▁Telescope	51
▁TEDster	51
ndustrial	51
▁psychopath	51
aa	51
▁Late	51
▁crow	51
▁Yo	51
▁MK	51
▁boots	50
▁Clinton	50
gging	50
▁Mexican	50
ring	50
kin	50
▁dependenc	50
▁mesh	50
sburg	50
▁peculiar	50
▁frustration	50
▁Organization	50
▁Business	50
▁cosmo	50
▁shocking	50
▁flavor	50
▁separation	50
▁Securit	50
▁Geograph	50
▁br	50
▁Spring	50
▁independen	50
▁cylinder	50
gie	50
▁eliminate	50
▁Australian	50
▁sale	50
▁Coast	50
▁packag	50
ul	50
▁Lo	50
▁Amy	50
▁obtain	50
▁Absolute	50
▁Linu	50
▁trad	50
▁Still	50
▁Atlant	50
▁harbor	50
▁pirate	50
▁Histor	50
▁chemist	50
▁toxin	50
▁drain	50
▁Louis	50
▁Berk	50
▁envelope	50
ko	50
▁overhead	50
point	50
ram	50
lihood	50
▁summarize	50
▁spine	50
▁gluco	50
▁Pretty	50
▁atheist	50
▁Show	50
▁Hope	50
▁Detroit	50
▁Gold	50
▁sir	50
▁Pop	50
▁creep	50
▁cows	50
▁Singapore	49
▁Lar	49
▁Pitt	49
▁decent	49
▁pursu	49
iv	49
▁victor	49
oc	49
▁prey	49
ase	49
▁explorer	49
▁intensit	49
▁Daniel	49
▁assault	49
ator	49
▁consent	49
▁bite	49
▁mall	49
▁purchase	49
▁lean	49
▁remix	49
per	49
▁migrant	49
▁playful	49
▁fatal	49
▁chase	49
▁therapist	49
▁heel	49
▁Shakespeare	49
▁exot	49
▁leather	49
▁integrate	49
▁Societ	49
▁intrinsic	49
▁convict	49
▁typ	49
▁nitrogen	49
▁Lester	49
▁swallow	49
▁lotter	49
lium	49
▁gorgeous	49
▁por	49
▁Steven	49
obi	49
▁payment	49
▁Rand	49
▁Mi	49
▁elevator	49
▁Stephen	49
▁convention	49
▁Seven	49
mar	49
▁SW	49
irs	49
▁impulse	49
▁AB	49
▁carve	49
▁psychiatr	49
▁viewer	48
▁flame	48
▁modest	48
▁glimpse	48
▁translator	48
▁Watson	48
▁philosophical	48
▁introduction	48
▁flesh	48
▁nast	48
▁diploma	48
openha	48
▁timing	48
▁Ask	48
▁smash	48
▁helpless	48
▁computational	48
▁Scot	48
▁philanthrop	48
▁default	48
▁fluorescent	48
▁corridor	48
▁Apri	48
▁wrist	48
bo	48
▁stabilize	48
▁schedule	48
UN	48
▁Eve	48
▁explode	48
▁donation	48
▁anticipate	48
▁salar	48
ger	48
nman	48
▁chains	48
book	48
▁intent	48
▁interrupt	48
aker	48
▁delicio	48
▁impos	48
▁thrive	48
▁heritage	48
▁regulate	48
▁Carl	48
fin	48
ros	48
▁Parkinson	48
▁cockroach	48
▁cookie	48
▁spreads	48
ino	48
▁zoo	48
74	48
▁trailer	48
▁import	48
▁germ	48
▁jihad	48
▁glamo	48
▁protocell	48
▁warehouse	47
▁transistor	47
▁Jones	47
▁corners	47
▁bleed	47
▁scrap	47
▁CD	47
rous	47
▁Interesting	47
▁bioluminescen	47
▁scream	47
▁margin	47
▁wow	47
▁Jona	47
▁critic	47
▁defining	47
▁Har	47
tial	47
▁Young	47
▁invitation	47
▁neocort	47
▁Water	47
▁Kenn	47
▁vibration	47
▁regulat	47
▁consensu	47
▁expense	47
▁DVD	47
▁Bali	47
▁execution	47
▁endeavor	47
▁Supreme	47
▁spatial	47
▁warmer	47
▁capitalist	47
▁racial	47
▁sweep	47
▁Harr	47
▁hostile	47
▁operator	47
á	47
▁collaborate	47
▁adolescent	47
▁SM	47
▁nightmare	47
▁abundance	47
▁bacterial	47
▁Gree	47
ox	47
▁preference	47
▁Iceland	47
▁sponsor	47
▁lawn	47
▁neuroscientist	47
▁bamboo	47
▁contradiction	47
oven	47
▁skelet	47
▁brush	47
▁firefl	47
▁marathon	47
▁render	46
▁negotiate	46
pa	46
▁crap	46
▁USA	46
ow	46
▁reache	46
▁appreciat	46
ank	46
▁sequenc	46
▁arter	46
▁spare	46
▁enhance	46
▁Canadian	46
▁belly	46
▁Rick	46
▁affair	46
▁vivid	46
▁Pat	46
▁cri	46
▁deception	46
▁anniversar	46
▁imp	46
gi	46
64	46
berg	46
▁investigate	46
▁dispos	46
▁valid	46
▁hint	46
▁owe	46
▁horses	46
▁immortal	46
▁subjective	46
▁panic	46
▁album	46
▁Christians	46
▁headquarter	46
▁deficit	46
▁scaling	46
▁arena	46
▁confess	46
▁prayer	46
▁blob	46
▁adaptation	46
▁semi	46
▁Ky	46
▁maneuver	46
▁Say	46
▁melting	46
▁selective	46
ause	46
▁Benjam	46
▁patch	46
▁sneaker	46
▁hopeless	46
▁thus	46
eley	46
ately	46
▁Bru	46
▁volcano	46
▁utilit	46
▁Play	46
▁Move	46
▁Trad	46
ho	46
▁scaffold	46
▁staircase	46
▁hut	46
▁coverage	46
▁locomot	46
▁Kong	45
▁blast	45
▁swarm	45
▁precis	45
78	45
▁Sound	45
▁sole	45
▁menu	45
▁Development	45
▁simulat	45
▁eastern	45
▁vice	45
▁journalis	45
▁shatter	45
▁Canc	45
▁freeze	45
▁bore	45
▁fever	45
▁rabbit	45
▁steep	45
ped	45
▁Syrian	45
▁Charli	45
fare	45
▁refuse	45
▁Education	45
▁lucki	45
uke	45
▁aunt	45
▁progressive	45
▁gross	45
▁Similar	45
▁blade	45
▁erect	45
scope	45
▁arrangement	45
▁provider	45
▁collar	45
▁hotte	45
▁stamp	45
▁tenth	45
▁Walk	45
▁dough	45
▁inclusive	45
ster	45
▁index	45
ami	45
▁inflation	45
▁intact	45
▁transaction	45
▁ban	45
homa	45
SD	45
▁Disney	45
jo	45
▁Arabia	45
ad	45
▁manag	45
▁automat	45
▁asthma	45
▁prosthetic	45
▁forecast	45
▁coordinate	45
▁pathogen	45
▁Ted	45
▁screening	45
▁Goal	45
▁yell	44
▁elaborate	44
▁visitor	44
▁compute	44
▁forgive	44
▁Ar	44
▁tourist	44
▁circula	44
▁penis	44
ab	44
▁underestimate	44
▁historian	44
ventual	44
▁storyteller	44
▁bush	44
▁mari	44
ois	44
▁symmetric	44
▁pond	44
▁chew	44
▁k	44
erusal	44
▁Machine	44
▁voluntar	44
▁criteri	44
▁accountabilit	44
▁Secret	44
▁Stone	44
▁Under	44
ating	44
▁revolutionar	44
▁regenerate	44
▁greet	44
▁pleasant	44
▁acquire	44
▁generic	44
▁browser	44
opper	44
tine	44
▁transformati	44
▁mite	44
▁wip	44
▁tutor	44
▁stair	44
▁transferr	44
racing	44
▁passe	44
▁herd	44
▁trunk	44
▁stimulation	44
▁stare	44
▁diagnose	44
▁Natural	44
▁disrupt	44
▁junk	44
▁stain	44
▁jungle	44
▁juvenile	44
▁Job	44
▁virgin	44
▁voter	44
hip	44
ah	44
▁integration	44
▁mosque	44
▁SETI	44
▁Bo	44
off	44
▁rang	44
▁learner	44
RA	44
▁tapir	44
▁lever	44
▁replacement	44
gar	44
▁refrigerator	44
▁LG	44
▁taboo	44
lor	44
▁reporter	44
▁JF	44
▁acoustic	44
▁odor	44
verse	44
▁chef	43
▁harsh	43
ternet	43
CD	43
▁bioma	43
▁curl	43
▁microscop	43
table	43
▁nail	43
▁donat	43
▁embarrass	43
lept	43
▁contest	43
▁Moz	43
▁simulate	43
▁recession	43
▁eternal	43
▁infra	43
▁undergraduate	43
▁bounce	43
▁opposition	43
▁vocabular	43
▁assistant	43
▁towel	43
▁controvers	43
▁Public	43
nburg	43
▁Te	43
▁spouse	43
af	43
▁Brad	43
▁NS	43
ardboard	43
▁mega	43
▁retain	43
▁crude	43
▁alike	43
van	43
▁carrie	43
▁warn	43
▁Light	43
▁deni	43
▁lobby	43
▁tomato	43
ola	43
▁digg	43
▁bucket	43
violet	43
▁Bett	43
▁Cape	43
org	43
▁freez	43
▁basement	43
▁practic	43
▁passage	43
▁orientation	43
▁Roman	43
▁superpower	43
▁Alic	43
▁numer	43
▁FD	43
▁Phila	43
elphi	43
▁stagger	43
▁vari	43
sia	43
▁headache	43
▁Earl	43
▁ac	43
▁Milk	43
▁astronom	43
▁Bhutan	43
▁melod	43
▁alert	43
▁replicat	43
velt	43
▁guitar	43
▁crab	43
▁Gar	43
▁lobe	43
▁Mil	43
▁flap	43
▁rear	42
▁Lebanon	42
▁regional	42
▁Computer	42
▁disk	42
▁manifest	42
▁resurrect	42
li	42
traction	42
bb	42
▁accumulat	42
▁protocol	42
▁Mount	42
▁bacteri	42
▁fuse	42
▁JA	42
▁dishe	42
▁hu	42
▁Edward	42
▁indicator	42
▁nois	42
▁illustration	42
▁pixel	42
sky	42
▁SP	42
▁Medicine	42
▁assess	42
▁digest	42
▁MR	42
▁Ice	42
▁irrational	42
▁caregiver	42
az	42
▁associate	42
▁favela	42
▁fuzz	42
▁scare	42
ung	42
▁sensitivit	42
▁concentrate	42
▁drama	42
▁flock	42
▁triple	42
▁vent	42
oline	42
▁immigrant	42
▁Citi	42
▁mo	42
▁pesticide	42
▁filling	42
▁proceed	42
▁commons	42
▁controller	42
▁Op	42
tenance	42
▁psychiatrist	42
▁Michel	42
▁GG	42
▁owners	42
▁jur	42
▁slope	42
▁macro	42
▁airline	42
▁inhabit	42
sel	42
▁Librar	42
▁Ra	42
▁Li	42
▁faint	42
▁kilogram	42
▁Power	42
▁feeds	42
▁distort	42
▁envision	42
▁se	42
▁hallucination	42
▁investigat	42
▁McDonald	42
▁congesti	42
▁drunk	42
▁physiolog	42
▁parameter	42
▁augment	42
▁authors	42
▁accumulate	42
▁restriction	42
▁settlement	42
77	42
▁differentiate	42
▁enlighten	42
▁squeeze	42
▁Countr	42
▁minimal	41
▁fi	41
▁encode	41
lvani	41
▁celebration	41
▁prostituti	41
▁shed	41
▁Craig	41
▁cafe	41
▁l	41
▁flee	41
▁rains	41
▁piss	41
▁transcend	41
sang	41
▁contaminat	41
lov	41
▁liar	41
▁slip	41
▁statue	41
▁usage	41
▁flipp	41
▁Thirt	41
▁decid	41
▁feather	41
▁drum	41
▁Laden	41
▁Sp	41
rt	41
▁Hospital	41
▁lasting	41
therland	41
▁displac	41
han	41
#	41
larity	41
▁bann	41
▁awake	41
▁progression	41
▁intentional	41
▁Rock	41
▁Aid	41
▁Recent	41
▁liberat	41
▁isolation	41
▁cocktail	41
▁penalt	41
▁Matt	41
ade	41
▁resilien	41
▁restrict	41
▁entrance	41
▁idiot	41
▁emergence	41
broad	41
▁awe	41
kyo	41
▁manufacture	41
arrow	41
▁Civil	41
▁spite	41
DI	41
▁protecti	41
▁mapp	41
▁hydro	41
▁council	41
▁Ross	41
▁Titan	41
▁secondar	41
▁equipp	41
▁retina	41
▁Hubb	41
▁ooh	41
▁apologize	41
▁AM	41
▁stadium	41
▁din	41
▁module	41
▁western	41
▁Hawaii	41
▁soc	41
▁spa	41
▁minded	41
▁bench	41
▁multinational	41
▁Holo	41
▁angiogen	41
▁exit	40
onsider	40
▁yards	40
▁Pre	40
▁nucle	40
▁floors	40
▁Su	40
▁wander	40
▁Christopher	40
▁trail	40
▁consideration	40
▁lover	40
▁technician	40
▁premise	40
ssociation	40
▁cage	40
▁conquer	40
▁cop	40
▁axe	40
▁educator	40
▁quo	40
▁submit	40
▁cope	40
▁ches	40
▁festival	40
course	40
▁marks	40
▁Ron	40
▁manifestation	40
▁prospect	40
ari	40
▁cleaner	40
he	40
▁mill	40
▁suburb	40
▁preparation	40
▁hug	40
ez	40
▁magician	40
blew	40
▁.	40
▁prop	40
▁veil	40
▁stimulate	40
▁baker	40
▁Nair	40
▁obsolet	40
▁Marine	40
▁rigid	40
▁Montana	40
▁Suppose	40
▁modeling	40
▁jam	40
nic	40
▁performer	40
together	40
▁arbitrar	40
67	40
▁distress	40
▁satisfaction	40
RIS	40
▁Post	40
▁summar	40
▁stimulat	40
▁Alaska	40
▁Clear	40
▁Simon	40
▁distribute	40
▁constrain	40
lock	40
▁puppet	40
▁chop	40
▁conceive	40
▁meditat	40
▁sp	40
▁fractal	40
▁significan	40
▁Joseph	40
▁Find	40
tive	40
▁fur	40
sance	40
oster	40
ergy	40
▁configuration	40
▁institute	40
▁Gi	40
mi	40
▁taxi	40
▁connectome	40
▁EM	40
▁manipulat	39
▁opt	39
▁Sh	39
▁rotat	39
▁blueprint	39
▁Sierra	39
ett	39
▁integr	39
sual	39
root	39
▁Student	39
▁induc	39
▁regulator	39
▁stumbl	39
▁seventh	39
▁fin	39
istine	39
ifi	39
▁assure	39
ction	39
▁Book	39
▁Carne	39
▁embodie	39
▁Cha	39
▁abundant	39
▁innovator	39
har	39
▁surgical	39
▁chemotherap	39
▁poly	39
▁invasion	39
▁rott	39
▁Learn	39
▁Mill	39
▁unfair	39
ep	39
▁Map	39
bu	39
space	39
▁Ken	39
▁mixture	39
no	39
▁Georgia	39
▁Inter	39
AG	39
▁prosecutor	39
▁acute	39
▁tribal	39
▁famine	39
▁symbolic	39
▁metabolism	39
▁Allen	39
▁funeral	39
alo	39
▁tablet	39
▁ghost	39
▁firing	39
▁Ad	39
▁Monday	39
▁negotiat	39
▁exquisite	39
▁steady	39
▁Jefferson	39
▁differ	39
▁Old	39
▁turtle	39
▁RM	39
▁vitamin	39
▁ladder	39
▁scarce	39
▁catastrophe	39
app	39
▁destructive	39
▁Scientist	39
▁Apollo	39
▁thermal	39
▁Hold	39
▁cellphone	39
▁Color	39
▁Ru	39
▁Nepal	39
▁depriv	39
▁slogan	39
▁authoritarian	39
ang	39
▁butterfl	39
▁migrate	39
▁iceberg	39
bati	39
▁pregnanc	39
▁intervene	39
makers	39
▁Stewar	39
au	39
▁gravitational	39
▁dictionarie	39
▁enhanc	39
▁calcul	39
▁overlook	39
▁silicon	39
▁Bat	39
▁Hawk	39
▁dome	39
▁cholera	39
form	39
▁cooperative	39
▁mustache	39
▁pancrea	39
▁captain	39
titude	39
▁Phoenix	39
▁nonviolen	39
▁scholarship	39
▁accent	39
▁eyed	39
▁Treat	39
acco	39
▁hive	39
▁Tit	39
▁rail	38
ot	38
▁admitted	38
▁OE	38
▁criticiz	38
▁disappointed	38
▁Lee	38
▁Republic	38
▁genomic	38
▁frontal	38
▁autonom	38
▁unleash	38
▁continual	38
▁squid	38
▁Kosov	38
▁Start	38
▁BJ	38
▁heroic	38
▁skeptic	38
▁Port	38
▁dismiss	38
ack	38
▁enrich	38
spread	38
▁inexpensive	38
▁equi	38
▁Car	38
▁revelation	38
▁bombing	38
▁conviction	38
▁immers	38
▁anthropologist	38
▁disrupti	38
▁Defen	38
▁catastrophic	38
▁mini	38
bi	38
▁crank	38
▁metabolic	38
▁extensive	38
▁encyclopedia	38
▁Tower	38
▁assist	38
▁competitor	38
▁devise	38
▁disturbing	38
▁Pr	38
▁Mo	38
▁lighter	38
▁qualifie	38
▁execut	38
▁grad	38
▁flexibilit	38
▁imperative	38
▁autist	38
▁publisher	38
▁rehabilitati	38
▁alphabet	38
seas	38
▁beef	38
▁Cold	38
▁holiday	38
▁polariz	38
▁urbanization	38
▁thrust	38
▁invasive	38
tangible	38
▁radi	38
▁composer	38
▁compos	38
▁gigant	38
▁Hmm	38
we	38
lo	38
▁Connecti	38
▁curator	38
▁avatar	38
▁enabl	38
band	38
▁relativ	38
▁grip	38
▁oven	38
▁fr	38
▁Wolf	38
▁penn	38
▁cinema	38
▁lightn	38
▁synapse	38
lage	38
sas	38
▁ancestr	38
▁DR	38
▁ward	38
▁Music	38
▁kite	38
▁Ari	38
▁snail	38
▁Rover	38
▁Ex	37
▁ingenu	37
▁enthusias	37
▁ham	37
▁Know	37
ines	37
▁PC	37
▁Too	37
▁intimac	37
▁polite	37
▁impose	37
▁folk	37
▁province	37
▁matche	37
▁Top	37
ki	37
▁Somalia	37
ov	37
▁Cat	37
▁solo	37
ou	37
▁brake	37
▁greed	37
▁Philip	37
oto	37
▁Notice	37
▁Fin	37
chi	37
coli	37
▁Cart	37
rum	37
▁Gius	37
▁Office	37
▁im	37
▁portray	37
▁PowerPoint	37
▁biase	37
▁conceptual	37
ians	37
▁Canyon	37
▁Sylvi	37
can	37
▁Turn	37
▁diminish	37
▁Nativ	37
▁petition	37
▁deriv	37
▁resemble	37
▁potent	37
▁contagio	37
ff	37
▁Camp	37
▁Fund	37
▁Swed	37
▁moist	37
▁Coc	37
▁absurd	37
power	37
▁caps	37
▁globaliz	37
▁Building	37
▁couch	37
▁Austria	37
▁Mall	37
▁kindergart	37
▁persist	37
▁eighth	37
▁bulk	37
▁Ji	37
ax	37
▁cartoonist	37
▁fighter	37
▁assessment	37
▁swamp	37
▁Oo	37
▁climber	37
▁Whoa	37
▁plankt	37
▁ambulance	37
ison	37
▁biofuel	37
▁Peru	37
▁remembering	37
▁behold	37
▁settle	37
▁Bas	37
▁Indus	37
▁abstraction	37
▁salmon	37
▁Norden	37
▁Lago	36
long	36
ribbe	36
▁orphan	36
q	36
ui	36
ru	36
▁reclaim	36
▁Hy	36
▁sadness	36
▁foi	36
▁Data	36
ight	36
▁admir	36
▁Colombia	36
▁Columbia	36
▁invad	36
▁unsee	36
▁ALS	36
▁reader	36
▁Sudan	36
▁butter	36
▁eco	36
▁touche	36
▁committee	36
▁anatom	36
▁vein	36
▁urgent	36
▁replac	36
▁Iraqi	36
▁submitt	36
▁beneficia	36
▁problematic	36
than	36
▁iPad	36
▁neglect	36
▁Ven	36
▁modify	36
▁convincing	36
▁hacker	36
▁calculator	36
▁arc	36
▁ease	36
▁kit	36
▁adolescence	36
▁reproduction	36
▁RNA	36
▁modifi	36
▁tempt	36
▁millennia	36
box	36
▁flush	36
▁Buddha	36
▁Rob	36
▁newly	36
▁Bi	36
▁myceli	36
oma	36
▁shepherd	36
field	36
▁Pass	36
▁fame	36
▁causal	36
▁sh	36
▁Food	36
▁humili	36
▁obsession	36
aging	36
all	36
▁cement	36
esday	36
▁retail	36
▁fertil	36
▁lips	36
▁loser	36
▁towns	36
▁articulate	36
▁manipulation	36
▁woods	36
▁receiver	36
▁excess	36
▁Lot	36
▁baseline	36
▁observer	36
▁ripp	36
▁friction	36
▁reflectiv	36
▁Venus	36
▁delete	36
▁Dallas	36
tar	36
▁auto	36
▁pric	36
▁resort	36
▁carrot	36
▁subsid	36
▁guerrilla	36
▁velocit	36
▁Yemen	36
▁hatred	36
▁Elizabeth	36
▁desktop	36
▁Small	36
▁hamburger	36
uc	36
▁injection	36
▁essay	36
▁gaze	36
▁Heart	36
▁Vinc	36
▁obligation	36
▁Michigan	36
fu	36
▁Buddhist	36
▁quad	36
▁Soon	35
tts	35
▁fungi	35
▁bypass	35
▁viewing	35
grade	35
▁glove	35
▁Polic	35
bra	35
▁dragonfl	35
▁dispute	35
▁forum	35
not	35
▁dissolve	35
▁supporti	35
▁planting	35
▁pok	35
▁curtain	35
▁champion	35
▁Simpl	35
▁thorough	35
▁Guard	35
▁devoted	35
▁legend	35
▁worldview	35
▁follower	35
▁Death	35
▁powder	35
sani	35
▁publication	35
net	35
▁Help	35
▁hills	35
rse	35
▁chaotic	35
▁eras	35
▁developmental	35
▁insult	35
▁accus	35
▁improvisation	35
nel	35
▁prioritize	35
▁symphon	35
▁Common	35
genes	35
▁fog	35
ima	35
▁lin	35
▁reproductive	35
▁sticker	35
▁Isa	35
▁stimul	35
▁anxious	35
▁purchas	35
▁calci	35
▁socio	35
▁Himalaya	35
▁jumps	35
▁fingertip	35
mbo	35
▁skeptical	35
▁pervasive	35
66	35
▁Certain	35
▁grammar	35
▁submarine	35
▁Jess	35
▁Empire	35
▁vegetati	35
▁supernova	35
zone	35
▁sediment	35
AR	35
▁pollinat	35
gua	35
▁Lewi	35
▁examin	35
▁honeybee	35
▁Kepler	35
▁tilt	35
▁Yellow	35
met	35
eith	35
▁gentle	35
▁sulfide	35
▁antibod	35
▁foreg	35
▁optimize	35
▁fierce	35
▁calendar	35
▁generator	35
▁gait	35
▁Ell	35
▁delicate	35
▁stigma	35
▁manuscript	35
▁Namibia	35
▁Line	35
▁Luck	35
▁shelve	35
▁Milo	35
▁thylacine	35
▁CMU	35
▁Chuck	34
▁timber	34
▁ventilat	34
Bay	34
▁tooth	34
▁humble	34
▁parliament	34
▁numb	34
▁Garden	34
▁gras	34
pping	34
ologist	34
▁frustrating	34
▁opponent	34
▁propaga	34
▁cathedral	34
rit	34
▁gadget	34
▁hammer	34
▁diplomat	34
▁leopard	34
▁admire	34
▁Down	34
▁visionar	34
▁vocal	34
▁collaborat	34
▁belonging	34
ft	34
▁Sad	34
▁prevalence	34
ai	34
▁Venezuela	34
nal	34
▁blogger	34
▁newborn	34
▁planner	34
lash	34
gu	34
▁uncover	34
▁Large	34
▁Colli	34
▁cabinet	34
▁TB	34
▁Got	34
▁rebel	34
▁customiz	34
▁illuminat	34
gra	34
▁posture	34
▁Lady	34
▁Bio	34
▁circulation	34
cher	34
lves	34
sight	34
▁monarch	34
▁rectangle	34
ulu	34
▁Climate	34
▁Norwegian	34
▁Had	34
▁skip	34
otto	34
zo	34
▁cheer	34
pago	34
▁fails	34
▁electro	34
▁hallway	34
▁Bar	34
ake	34
▁lump	34
▁appl	34
▁rag	34
▁noble	34
▁textile	34
lan	34
▁peanut	34
▁Chi	34
ius	34
▁wrestl	34
▁yard	34
▁ridge	34
▁larva	34
▁elbow	34
▁paste	34
ctor	34
▁Golden	34
▁Pete	34
▁IM	34
▁brainstorm	34
▁bask	34
▁janitor	34
ica	33
▁romance	33
▁emitt	33
▁Dead	33
▁holder	33
▁examine	33
▁vibrat	33
▁electromagnetic	33
▁wipe	33
▁chick	33
▁Kenyan	33
▁scal	33
▁midst	33
don	33
▁minor	33
▁conception	33
▁indication	33
▁assum	33
and	33
▁offshor	33
port	33
ctopus	33
rick	33
lit	33
▁oyster	33
▁Johnny	33
▁weakness	33
▁impair	33
leans	33
▁marked	33
▁specimen	33
▁wetland	33
▁worship	33
▁humbl	33
▁startup	33
▁sync	33
▁Warr	33
▁chord	33
▁Mind	33
▁traumatic	33
▁cease	33
▁Sch	33
▁unite	33
phy	33
▁fled	33
iro	33
▁Less	33
▁vo	33
▁metropoli	33
▁plott	33
▁notic	33
▁inhibit	33
▁animat	33
cha	33
▁indirect	33
▁Wire	33
▁Grow	33
▁facult	33
▁revolutionize	33
▁vest	33
▁finite	33
▁scroll	33
▁instinctive	33
▁Emil	33
▁fluctuation	33
▁stratospher	33
▁Dave	33
▁fisherm	33
▁disadvantage	33
▁missile	33
▁Movement	33
▁fatt	33
▁painter	33
▁fundrais	33
▁Kiri	33
▁pubert	33
eddy	33
+	33
▁recipient	33
▁outdoor	33
▁font	33
▁Pen	33
▁defect	33
▁outward	33
▁criticism	33
▁voyage	33
▁irrelevan	33
▁fuck	33
▁nurtur	33
▁duration	33
▁End	33
ennis	33
▁accomplishment	33
▁Gala	33
▁playground	33
▁billboard	33
ug	33
▁optic	33
▁Hous	33
▁bionic	33
▁doubling	33
▁valve	33
▁triumph	33
▁pillar	33
▁meta	33
▁bitter	33
▁Often	33
sterda	33
food	33
war	33
rid	33
▁unst	33
▁Muh	33
▁Norman	33
▁fec	33
▁ethan	33
▁Pier	33
▁breakdown	33
▁puff	33
▁alumin	33
▁mund	33
▁claw	33
▁mytholog	33
CT	33
ghett	33
▁Story	33
▁spade	33
▁whistl	33
▁Jay	32
▁bake	32
▁terminal	32
▁refin	32
▁proton	32
▁Live	32
▁imprison	32
▁yeast	32
▁justify	32
▁Alright	32
▁Nor	32
▁Bud	32
▁heroin	32
▁lure	32
▁resonate	32
▁blogg	32
▁compass	32
▁declin	32
▁Fried	32
▁genero	32
▁reasonabl	32
▁beds	32
▁horrific	32
▁strengthen	32
▁Roger	32
▁releas	32
lcome	32
▁hypothes	32
▁methodolog	32
▁conscience	32
libr	32
gh	32
▁masterpiece	32
▁incremental	32
▁Kh	32
▁unpredictab	32
▁democratiz	32
▁backpack	32
▁cops	32
cent	32
fold	32
▁loneli	32
▁Taiwan	32
▁thankful	32
▁compact	32
▁warp	32
▁Service	32
▁lesbian	32
▁meaningless	32
▁memorial	32
Y	32
▁Step	32
uite	32
▁doom	32
▁hi	32
nmark	32
saw	32
unch	32
▁audaci	32
▁appliance	32
▁pollutant	32
▁paraly	32
▁expose	32
▁satisfie	32
▁Liberia	32
▁torn	32
▁Libya	32
▁technologist	32
▁AT	32
lix	32
promising	32
▁motorcycle	32
quatic	32
▁Siberia	32
▁liter	32
▁Nav	32
▁choir	32
▁sw	32
▁nonsens	32
▁injustice	32
▁existential	32
▁anesthesi	32
arity	32
▁TEDx	32
▁needles	32
▁adaptive	32
▁wreck	32
▁carrier	32
HC	32
midnight	32
▁Hindu	32
▁sho	32
▁rig	32
▁battlefield	32
▁Change	32
▁helmet	32
▁Dick	32
▁fad	32
▁ST	32
▁coincidence	32
▁Nic	32
▁entrepreneuri	32
▁bent	32
▁Lead	32
▁bull	32
▁Massac	32
huse	32
▁lapse	32
▁Prime	32
▁spott	32
▁Swa	32
▁distill	32
▁internship	32
▁Nathan	32
▁hairs	32
▁bonus	32
▁passport	32
▁biosphere	32
bot	32
▁rib	32
▁adequate	32
▁Christ	32
▁psycho	32
▁benign	32
▁complaint	32
▁temporal	32
▁lense	32
▁toast	32
mino	32
▁shap	32
▁crashe	32
▁Danny	32
▁syringe	32
▁mammoth	32
▁Tasmanian	32
▁Cars	31
▁Fast	31
▁mock	31
▁praise	31
tech	31
view	31
▁grape	31
▁abortion	31
▁accompanie	31
▁listener	31
▁boyfriend	31
rin	31
▁Veg	31
▁possess	31
▁visceral	31
▁seize	31
▁keen	31
▁occupi	31
▁consult	31
ged	31
▁approval	31
▁entitle	31
▁vet	31
state	31
▁tender	31
▁secular	31
▁plac	31
▁violation	31
▁Bu	31
▁superior	31
▁bl	31
▁fade	31
▁dece	31
▁daylight	31
▁industrialize	31
▁dug	31
▁counsel	31
▁dude	31
▁Tri	31
▁singular	31
▁niece	31
zi	31
back	31
▁Sex	31
rief	31
ã	31
▁outlet	31
▁Jen	31
▁Ni	31
▁upgrade	31
▁Skyp	31
▁prevail	31
▁Forget	31
▁redefine	31
▁budd	31
shine	31
ogue	31
▁confusion	31
▁debri	31
▁prejudice	31
top	31
▁cybercriminal	31
▁sue	31
▁deployment	31
▁uh	31
▁gangs	31
▁Frankl	31
▁buyer	31
▁Believe	31
▁arous	31
▁deny	31
▁emit	31
▁depict	31
ala	31
ndex	31
▁reli	31
▁surplus	31
▁Journal	31
▁merit	31
rk	31
▁radar	31
cumen	31
▁irre	31
▁delusion	31
▁heated	31
imbabwe	31
▁slaughter	31
▁subsequent	31
▁Katrina	31
▁chill	31
▁patien	31
▁exceptional	31
▁oppress	31
▁constitution	31
▁anomal	31
▁wavelength	31
▁harass	31
▁cris	31
▁superhero	31
▁esteem	31
▁pigment	31
▁propell	31
▁Nata	31
▁Philipp	31
▁Main	31
arliament	31
▁improvise	31
▁bay	31
ira	31
▁Julie	31
▁blanket	31
tention	31
▁poetic	31
ional	31
▁mortgage	31
▁overlap	31
▁regenerati	31
viation	31
▁monk	31
▁pale	31
▁lime	31
▁operational	31
▁mature	31
▁Marc	31
▁athletic	31
▁incidental	31
▁ideological	31
ps	31
▁petal	31
▁NA	31
nformation	31
▁comprehensive	31
▁resonance	31
▁distraction	31
▁halve	31
▁violin	31
▁sculpt	31
▁Rea	31
cover	31
wear	31
▁polymer	31
▁tipp	31
▁vaccinat	31
▁arrang	31
▁stereo	31
teen	31
▁quantitative	31
zona	31
urine	31
▁Ardu	31
▁conductor	31
▁Mola	31
CC	30
▁wax	30
ew	30
▁cheek	30
▁divine	30
▁SB	30
▁Dea	30
▁vector	30
cou	30
▁migrat	30
rop	30
▁submersible	30
▁Rule	30
fi	30
▁charter	30
▁hollow	30
▁depressing	30
▁pity	30
▁centered	30
▁Va	30
▁swo	30
▁believer	30
▁prophet	30
▁consultant	30
inal	30
▁dri	30
▁prim	30
▁Sub	30
▁evaluate	30
▁laz	30
bro	30
fiti	30
▁crocodile	30
▁throat	30
▁promotion	30
▁pun	30
▁possession	30
▁auditorium	30
▁Short	30
▁humid	30
▁Bad	30
eague	30
cus	30
▁geographic	30
▁verge	30
eval	30
▁miser	30
▁Williams	30
▁Pal	30
▁fung	30
▁vis	30
▁jacket	30
▁uninten	30
▁neurological	30
iego	30
▁preach	30
▁geographical	30
▁marvelous	30
▁annoying	30
▁Marsha	30
ado	30
ridge	30
▁straw	30
▁grind	30
caust	30
▁UCL	30
▁blessing	30
▁intangible	30
▁Exact	30
za	30
▁redefin	30
▁optimal	30
▁hectare	30
▁Side	30
rich	30
▁Hundred	30
ole	30
▁bomber	30
▁equator	30
▁responsive	30
▁drip	30
▁maximize	30
▁mum	30
▁originate	30
▁Mid	30
▁beast	30
rose	30
▁Desert	30
▁Window	30
▁nurture	30
▁glory	30
▁alliance	30
ograph	30
▁z	30
▁arrogan	30
og	30
▁distinctive	30
stein	30
▁epic	30
▁shuttle	30
▁Aust	30
▁shallow	30
hren	30
▁Send	30
▁Susan	30
▁sting	30
▁chalk	30
▁snap	30
▁Darwinian	30
▁Victorian	30
▁attorney	30
▁Sydney	30
▁Evan	30
venge	30
alai	30
▁Lama	30
▁volt	30
py	30
▁intricate	30
▁LGBT	30
▁reply	30
angelo	30
▁glorious	30
▁initiat	30
▁commander	30
▁Nicole	30
gram	30
▁commands	30
▁divergen	30
▁Slow	30
▁migraine	30
dor	30
abbage	30
▁reflex	30
▁Mama	30
▁Tur	30
▁shield	30
▁casual	30
▁bombsight	30
zler	30
▁Cor	29
▁Rich	29
cat	29
▁ambiguit	29
▁nuclei	29
▁ruler	29
▁Point	29
▁Wilson	29
▁algebra	29
▁monsoon	29
ub	29
▁Julian	29
▁occupation	29
▁evident	29
▁minimize	29
riving	29
▁cerebr	29
stream	29
▁sands	29
▁Medit	29
▁certificate	29
▁treasure	29
▁Excuse	29
ji	29
▁graf	29
▁Game	29
▁Station	29
▁elevat	29
▁mobilize	29
ual	29
▁CN	29
▁activis	29
▁monument	29
▁tele	29
▁shortage	29
▁wetsuit	29
▁Tor	29
tler	29
▁pepper	29
▁volcan	29
▁rendering	29
▁wallet	29
▁crater	29
▁beard	29
▁Report	29
dad	29
▁Radio	29
▁chat	29
▁Language	29
▁Hard	29
▁sensibl	29
▁Patient	29
ament	29
▁bounc	29
vy	29
▁Cross	29
▁sovereign	29
▁Plan	29
▁rage	29
▁orphanage	29
▁irrigat	29
▁broc	29
▁builder	29
▁canal	29
▁courts	29
▁violat	29
▁railroad	29
▁presum	29
▁Speak	29
▁yo	29
▁dentist	29
▁preferr	29
▁provision	29
▁decentraliz	29
▁agnostic	29
▁nanotechnolog	29
▁backup	29
▁bandw	29
ature	29
▁clon	29
▁Stay	29
▁regain	29
vian	29
▁supercomputer	29
▁surrender	29
▁perpetrator	29
ora	29
▁Spider	29
▁geological	29
ological	29
▁Oak	29
▁haunt	29
▁pe	29
airo	29
▁graduat	29
▁hypothetical	29
▁temptation	29
▁unacceptabl	29
▁dim	29
▁Palestin	29
▁railway	29
▁orgasm	29
▁laundr	29
▁snapshot	29
▁Alpha	29
▁Forest	29
▁repli	29
▁stripp	29
▁du	29
▁tuberc	29
ulosi	29
▁Normal	29
▁visualiz	29
▁Depressio	29
▁MS	29
▁Copernic	29
▁exclude	29
▁Anna	29
▁Rena	29
▁Ger	29
▁MA	29
▁mentors	29
▁reus	29
▁RI	29
bama	29
▁Sing	29
ca	29
▁misuse	29
▁altruism	29
▁folds	29
▁carti	29
MG	29
uddin	29
▁Mel	29
rus	29
etic	29
▁agil	29
▁grassland	29
▁emergen	29
▁placebo	29
▁Call	28
▁frie	28
▁Use	28
▁Irish	28
▁offend	28
▁Intel	28
▁solita	28
▁contractor	28
▁vicious	28
▁recreation	28
▁Genom	28
▁Gal	28
▁dragon	28
▁pops	28
stan	28
ify	28
ik	28
▁prov	28
cker	28
▁char	28
▁linguistic	28
▁attendan	28
▁Jean	28
▁slipp	28
▁Happ	28
▁buzz	28
erran	28
pp	28
▁stall	28
▁census	28
▁bully	28
▁enforce	28
▁experimentation	28
vascular	28
▁Modern	28
ington	28
▁MoM	28
▁Poor	28
▁mobiliz	28
▁Gen	28
▁biotechnolog	28
▁innate	28
illa	28
▁implicit	28
▁NI	28
▁Noa	28
eur	28
ept	28
fensive	28
▁CI	28
▁sketche	28
▁Mal	28
nutrition	28
▁Ash	28
▁surf	28
▁eager	28
▁Economic	28
▁generalize	28
▁forc	28
Barack	28
▁Bridge	28
stabilit	28
▁recycle	28
▁Cambodia	28
complete	28
▁rabbi	28
▁pupp	28
▁constructive	28
▁reminder	28
▁rediscover	28
▁Francis	28
▁hurdle	28
▁burial	28
▁unnecessar	28
▁dispers	28
▁accommodate	28
ini	28
▁mandate	28
▁tactic	28
▁mediate	28
▁Ministr	28
▁suburban	28
▁Abu	28
▁tapp	28
▁Kara	28
▁Along	28
▁evaporat	28
▁verse	28
▁Pi	28
uck	28
▁lawsuit	28
▁Solar	28
▁Ultimate	28
▁Fall	28
foot	28
▁Master	28
fe	28
▁relevanc	28
▁haul	28
▁unequal	28
▁guideline	28
▁bearing	28
▁inefficient	28
taller	28
ada	28
ltimo	28
DE	28
tica	28
plan	28
▁Davi	28
▁Hyper	28
flu	28
▁Ninet	28
▁knot	28
▁auditor	28
▁Night	28
▁abusi	28
▁reconnect	28
▁Sputnik	28
▁moth	28
ay	28
▁fitte	28
▁Pakistani	28
▁bloom	28
▁thermo	28
ook	28
ao	28
▁reimagin	28
▁optimiz	28
▁Missi	28
ippi	28
ib	28
▁sock	28
▁lamb	28
▁gel	28
▁Costa	28
▁swap	28
▁improbab	28
▁eradicate	28
ectar	28
▁spawn	28
▁petrol	28
▁Bol	28
ggle	28
▁Guinea	28
v	28
▁Pink	28
NG	28
▁solemn	28
▁closet	28
▁rooftop	28
▁Bolt	28
▁mutilat	28
frontal	28
▁erotic	28
▁boson	28
MW	28
▁Cap	27
ith	27
▁tails	27
▁nanometer	27
▁Las	27
▁Kelly	27
ke	27
▁slot	27
▁Deep	27
▁unifie	27
▁skie	27
▁sci	27
▁servant	27
%	27
▁Vent	27
▁functionalit	27
▁disc	27
lic	27
▁changer	27
▁polic	27
▁refrigerat	27
▁Pix	27
king	27
▁Fox	27
pi	27
▁Ga	27
▁pest	27
▁endur	27
▁devastat	27
▁swear	27
▁Case	27
away	27
▁DARPA	27
▁cone	27
▁freeway	27
▁Self	27
▁murderer	27
▁Nu	27
ani	27
▁cardio	27
▁armor	27
▁mistaken	27
▁coma	27
▁Serious	27
▁forbid	27
▁grader	27
▁Wa	27
▁Network	27
if	27
▁remittance	27
▁fictional	27
▁hung	27
▁corresponding	27
▁ethnicit	27
▁ambassador	27
▁respirator	27
▁Achill	27
pu	27
▁bark	27
▁Tru	27
▁cur	27
▁mutant	27
▁northeast	27
▁venue	27
▁Sit	27
▁simulator	27
▁estrogen	27
▁Test	27
▁crosse	27
▁simplistic	27
ue	27
▁adjacen	27
cuba	27
▁Among	27
▁racis	27
▁Hel	27
▁explosive	27
▁Bring	27
▁signing	27
▁forehead	27
▁reluctant	27
▁deer	27
▁SAR	27
▁wor	27
▁underwa	27
▁toleran	27
▁anecdote	27
▁undergo	27
pt	27
▁leaning	27
▁Mov	27
▁compliment	27
▁pivot	27
▁facilitate	27
▁rubb	27
▁Cooper	27
▁Ja	27
▁void	27
aw	27
▁unto	27
emia	27
▁disruption	27
▁Tunisia	27
▁recommendation	27
▁reconstruction	27
▁prototyp	27
▁cosmolog	27
▁Alr	27
▁spaceship	27
▁amuse	27
▁Band	27
▁rip	27
▁governor	27
▁balcon	27
▁recreate	27
▁metaphorical	27
▁sulfur	27
▁embark	27
▁fairy	27
▁heartbreak	27
▁PhD	27
▁shortcut	27
▁Tro	27
oon	27
▁obey	27
▁unaware	27
▁biotech	27
cu	27
▁raft	27
▁Maria	27
▁waterfall	27
▁Han	27
▁perceptual	27
▁analytical	27
▁hurricane	27
▁rides	27
▁shade	27
▁joyful	27
▁hippocamp	27
▁discard	27
▁cogniti	27
▁Jas	27
▁Tibet	27
▁Ag	27
▁Bosnia	27
mark	27
▁iteration	27
flow	27
▁gentl	27
▁Che	27
ucky	27
▁mindful	27
▁stripe	27
▁serial	27
▁va	27
▁draft	27
▁synchronize	27
▁conspirac	27
▁doll	27
▁pore	27
cro	27
▁Lang	27
▁meadow	27
▁clap	27
▁synthesi	27
▁Beet	27
▁stiff	27
▁Beck	27
▁beekeeper	27
▁Perfect	27
▁Ushahidi	27
Gowan	27
▁booth	26
od	26
▁Buy	26
▁interfere	26
▁Whit	26
▁Close	26
▁polish	26
▁tuck	26
▁Kal	26
▁photon	26
▁disturb	26
▁Westerner	26
▁synthesize	26
▁plugg	26
▁rainbow	26
▁incorporate	26
▁matern	26
▁Max	26
strong	26
▁animate	26
▁cultivate	26
▁Acc	26
▁feasib	26
▁puncture	26
▁nomad	26
▁patholog	26
▁Bear	26
ette	26
counterintuitive	26
▁po	26
▁latitude	26
▁peek	26
▁millisecond	26
▁Oliv	26
▁pronounce	26
▁clash	26
▁timeline	26
▁protester	26
▁pneumo	26
▁centraliz	26
▁dual	26
▁sneak	26
▁proliferat	26
▁v	26
▁trustworth	26
▁Head	26
▁Gri	26
▁specialize	26
▁IT	26
▁teas	26
▁penetrate	26
▁Field	26
▁circulat	26
▁reuse	26
▁establishment	26
av	26
▁seasonal	26
▁Incredible	26
▁attachment	26
▁repertoire	26
▁jean	26
▁scholar	26
▁pur	26
▁merc	26
▁capsule	26
▁dye	26
NO	26
▁Save	26
▁payoff	26
▁condemn	26
▁steril	26
▁forager	26
▁communal	26
▁dictate	26
▁Cel	26
▁diffus	26
▁menstruat	26
▁cubic	26
▁cabin	26
▁Kim	26
▁whip	26
▁Gord	26
▁grim	26
▁Easter	26
▁checklist	26
▁eros	26
▁portal	26
ater	26
▁Sur	26
▁mutate	26
▁Fair	26
icious	26
▁Trac	26
▁rival	26
▁suspicious	26
▁inhabitant	26
▁substitute	26
▁sham	26
▁Shar	26
old	26
ç	26
▁defi	26
▁Text	26
▁template	26
▁Lawrence	26
ED	26
▁seizure	26
▁certifi	26
▁Add	26
▁collector	26
▁lik	26
oke	26
▁echo	26
ylan	26
FL	26
▁Glass	26
▁Wood	26
worm	26
▁Wars	26
▁uplift	26
▁viewpoint	26
▁BMW	26
ries	26
▁Gra	26
▁bands	26
▁landfill	26
▁scatter	26
secure	26
ux	26
▁annoy	26
▁administrator	26
▁Inside	26
▁moderate	26
▁badge	26
erial	26
▁token	26
▁renew	26
▁unimaginabl	26
▁enthusiastic	26
everal	26
▁abnormal	26
ó	26
▁gossip	26
▁exceed	26
scape	26
▁flute	26
▁excellence	26
▁astronomical	26
▁organizer	26
▁Group	26
finish	26
▁env	26
▁calv	26
▁reconcile	26
▁dominate	26
pont	26
▁lend	26
▁characteriz	26
heid	26
Neil	26
glo	26
▁unsustainabl	26
▁nickname	26
▁rubbl	26
▁Jaz	26
eera	26
▁gland	26
▁tolerate	26
hire	26
▁unthink	26
▁Nan	26
▁orangutan	26
▁efficac	26
▁lander	26
▁gecko	26
▁Justine	26
▁Low	25
▁epiphan	25
▁Freud	25
▁hom	25
gle	25
▁astonish	25
▁worrie	25
▁Bab	25
▁expressive	25
▁imitate	25
▁nuance	25
▁introvert	25
ars	25
▁separat	25
▁zo	25
▁vibran	25
▁grace	25
▁blurr	25
▁Democracy	25
▁socket	25
pan	25
ound	25
▁biograph	25
▁correction	25
▁summ	25
iel	25
▁Par	25
▁illiterate	25
▁standardize	25
▁qualify	25
▁undermine	25
▁Pa	25
unk	25
▁Wild	25
▁Samu	25
▁paragraph	25
▁hypertensi	25
▁mic	25
daho	25
▁teens	25
▁catalyst	25
▁Pick	25
entagon	25
▁peel	25
adi	25
omi	25
▁hobby	25
▁herb	25
venue	25
▁pension	25
▁Guatemala	25
▁convenience	25
▁persistent	25
▁Darfur	25
▁ruling	25
rink	25
▁preschool	25
▁Fred	25
=	25
▁supplement	25
▁announcement	25
▁juggl	25
▁Margar	25
▁brut	25
▁conform	25
▁monopol	25
MF	25
▁empirical	25
▁TR	25
▁roller	25
▁paradi	25
▁Pepsi	25
OL	25
▁Carol	25
▁desir	25
▁Lind	25
▁Creative	25
dus	25
▁thoughtful	25
▁pearl	25
▁Nine	25
▁queue	25
▁plunge	25
▁physiological	25
▁analytic	25
▁Julia	25
tting	25
▁hygien	25
▁sympath	25
▁Model	25
▁Titanic	25
▁remark	25
▁Truth	25
▁pessimist	25
▁excerpt	25
▁flatten	25
▁sniff	25
▁Fly	25
▁Trust	25
▁Type	25
▁teen	25
▁restoration	25
▁livelihood	25
ronto	25
▁Cup	25
▁knitt	25
▁strive	25
▁medi	25
▁resign	25
▁merg	25
▁miraculous	25
hei	25
▁Sony	25
▁nun	25
▁Code	25
balone	25
▁Murray	25
▁Hol	25
▁superstar	25
inner	25
▁fertiliz	25
ibera	25
▁Math	25
▁Shi	25
▁crust	25
ascar	25
▁zip	25
▁participator	25
▁Um	25
▁homosexual	25
▁turbine	25
▁ovari	25
born	25
▁sapien	25
▁Emma	25
▁Hu	25
▁Com	25
▁Village	25
▁Russe	25
▁lava	25
HO	25
▁clicks	25
▁confusing	25
▁marvel	25
▁rena	25
▁spear	25
▁dodo	25
economic	25
▁Tay	25
▁variant	25
ila	25
▁packet	25
mas	25
cca	25
▁Oregon	25
eum	25
▁Fish	25
▁veterinarian	25
▁bury	25
▁mustard	25
▁sober	25
▁virtu	25
▁Virtual	25
KA	25
▁squeez	25
▁testimon	25
qui	25
▁gatherer	25
cratch	25
▁sociologist	25
▁Brain	25
▁Grace	25
▁mammograph	25
▁Uber	25
▁beep	25
▁antidepressant	25
▁Everglade	25
▁Picture	24
▁extremist	24
▁digitize	24
▁semester	24
aba	24
▁desalinat	24
▁commerc	24
▁vibrate	24
▁Luc	24
▁hoo	24
▁cynic	24
▁league	24
▁sa	24
▁clapp	24
▁Director	24
▁rotation	24
▁distract	24
▁improvis	24
▁fet	24
▁entr	24
▁Leg	24
ompassion	24
▁compatib	24
▁simplify	24
▁pee	24
▁marginaliz	24
▁Gall	24
▁theft	24
▁surfing	24
▁cruise	24
▁instructor	24
▁Baby	24
▁hood	24
▁twenty	24
adequate	24
▁rigorous	24
▁humane	24
enberg	24
▁aspire	24
ement	24
ode	24
▁Kath	24
liberation	24
▁behav	24
illin	24
piece	24
zoning	24
▁asylum	24
▁Million	24
▁detach	24
▁Hadr	24
▁Amazing	24
▁wrinkle	24
▁Ark	24
▁switche	24
ella	24
▁pledge	24
▁fitting	24
ult	24
berry	24
▁heck	24
▁reliev	24
▁penetrat	24
▁damag	24
▁pal	24
▁disparit	24
▁tailor	24
▁wasp	24
▁roommate	24
dding	24
▁Mose	24
▁unveil	24
▁Drugs	24
sors	24
▁complication	24
▁Honey	24
▁disparate	24
▁reinforce	24
▁racist	24
▁merge	24
▁forage	24
▁resembl	24
▁Fo	24
▁persever	24
▁prescrib	24
▁Corporation	24
▁immigration	24
▁handy	24
▁alarming	24
▁hind	24
j	24
▁counterpart	24
▁competenc	24
▁Mada	24
▁villager	24
▁ingenious	24
▁emphasi	24
▁taxpayer	24
▁plague	24
▁balanc	24
▁Wonder	24
▁Cassi	24
cela	24
▁Europ	24
▁competent	24
▁den	24
▁wir	24
▁Mahat	24
▁Discover	24
▁setup	24
▁nudge	24
▁hurry	24
down	24
▁stat	24
▁compris	24
▁embarrassment	24
▁curse	24
▁eyebrow	24
▁lesion	24
▁mandat	24
▁exoplanet	24
▁Aspe	24
▁Ali	24
▁soar	24
▁centi	24
jan	24
▁synesthe	24
▁synthesiz	24
▁Circle	24
▁stunning	24
Agnes	24
▁periodic	24
▁Huh	24
▁devote	24
▁seamless	24
bucks	24
mba	24
▁rep	24
▁Sri	24
▁payload	24
▁traveler	24
ill	24
▁Mont	24
▁radioactiv	24
▁plaster	24
▁intra	24
▁dip	24
▁evaluation	24
acci	24
▁systemic	24
ev	24
▁fingerprint	24
▁widen	24
▁Uncle	24
hold	24
ough	24
▁wool	24
▁identification	24
▁Si	24
▁permit	24
du	24
è	24
▁composite	24
▁sunn	24
▁Mau	24
▁touris	24
▁AO	24
▁billionaire	24
▁arithmetic	24
▁dislike	24
▁suitcase	24
▁scoop	24
▁poop	24
▁catalog	24
▁sponge	24
▁surge	24
roid	24
▁Shir	24
▁Fat	24
▁Flick	24
▁fracture	24
▁tectonic	24
▁Gol	24
▁horrifi	24
▁morph	24
▁AI	24
▁PH	24
▁bookstore	24
▁relational	24
weight	24
eopard	24
▁respectful	24
bone	24
▁strapp	24
▁pheromone	24
rane	24
▁droplet	24
▁discrete	24
▁pickle	24
▁lightweight	24
▁Cloud	24
▁Millenni	24
▁carcinogen	24
▁NB	24
IMS	24
▁Bonobo	24
▁NL	24
▁Saint	23
▁crowds	23
▁fabricate	23
▁degradation	23
▁Ram	23
ving	23
gged	23
▁ge	23
▁residu	23
▁Wide	23
▁ador	23
▁Juan	23
▁acronym	23
▁Hand	23
▁col	23
▁parade	23
ati	23
ku	23
Channel	23
▁versa	23
▁companion	23
▁Bever	23
our	23
▁byproduct	23
▁Beyon	23
▁temporari	23
▁pedal	23
▁shove	23
▁saturat	23
nterviewer	23
▁BC	23
▁Rem	23
▁Gh	23
▁Jenn	23
▁deadline	23
▁modular	23
▁coherent	23
ink	23
▁Magazine	23
▁vend	23
▁Progress	23
tu	23
▁extraction	23
hell	23
▁obscure	23
▁doo	23
▁Doug	23
step	23
▁hijack	23
elecommunication	23
▁hike	23
▁contradict	23
▁multipli	23
ale	23
▁cemeter	23
limited	23
▁clone	23
▁Cala	23
▁Minne	23
▁escalat	23
▁Teach	23
▁casualt	23
▁Economist	23
used	23
▁bombard	23
▁tinie	23
▁ridicule	23
▁withdraw	23
▁execute	23
▁Though	23
▁classmate	23
▁pinpoint	23
▁Ground	23
▁mist	23
▁contemplat	23
▁Kar	23
▁fission	23
▁dictator	23
hran	23
▁union	23
▁Record	23
oid	23
▁notebook	23
▁cultivat	23
▁rejection	23
▁Rod	23
▁gam	23
▁cosmetic	23
▁exile	23
▁Father	23
▁misconception	23
▁UV	23
rank	23
ba	23
▁mantra	23
▁postcard	23
▁rhetoric	23
▁vague	23
▁Thousand	23
▁affection	23
▁commentar	23
▁uncertain	23
inth	23
▁brows	23
▁Near	23
▁Jami	23
▁Strange	23
▁messag	23
▁Jacque	23
▁holistic	23
zing	23
▁Falcon	23
▁astounding	23
▁humiliation	23
▁Patric	23
▁fleet	23
▁notation	23
▁Plu	23
▁Federal	23
▁propeller	23
▁dominance	23
▁toddler	23
▁Fantastic	23
▁inflate	23
▁constitute	23
▁Sebastia	23
▁MO	23
▁imitat	23
▁Cameron	23
▁geometric	23
▁algorithmic	23
▁Don	23
▁applaud	23
▁Tami	23
ward	23
eb	23
▁cult	23
▁Palm	23
▁Bond	23
awa	23
▁swirl	23
▁pollinator	23
▁Town	23
▁scandal	23
▁mama	23
▁homicide	23
▁quantify	23
▁Kind	23
▁auction	23
▁cycl	23
▁cyclist	23
▁Gaza	23
ark	23
▁strap	23
4/7	23
▁integral	23
▁giraffe	23
▁Walter	23
▁reptile	23
▁shredd	23
onze	23
▁Club	23
▁prox	23
▁scholars	23
-'	23
▁carbonate	23
▁reactiv	23
▁translat	23
▁gifted	23
▁peripher	23
▁Market	23
▁cock	23
▁Mello	23
▁intimidat	23
sari	23
▁susceptib	23
▁discomfort	23
▁savanna	23
load	23
▁propulsi	23
▁downsta	23
▁uprising	23
▁pastor	23
▁oblivio	23
▁dictatorship	23
▁Galile	23
▁alpha	23
▁mammogram	23
rex	23
▁Rica	23
▁converge	23
ISA	23
▁Phil	23
▁projector	23
▁terrestrial	23
▁basin	23
walk	23
▁seque	23
▁Mos	23
polar	23
▁weave	23
▁Stein	23
▁beans	23
▁Diet	23
▁Mai	23
belief	23
▁Commission	23
▁adversit	23
▁Rais	23
▁hominid	23
▁Pantheon	23
▁championship	23
▁cumulative	23
▁Teacher	23
osphere	23
▁banjo	23
▁Innovation	23
▁Roo	23
▁incubator	23
▁hull	23
▁Fear	23
Speech	23
▁Essential	23
▁bolt	23
RL	23
▁Hungarian	23
Corp	23
▁bladder	23
▁imaginative	23
▁napkin	23
▁Nevada	23
razine	23
▁tadpole	23
▁arrival	22
▁Brand	22
tus	22
▁differential	22
▁oral	22
▁vegetarian	22
utheast	22
▁reception	22
▁Leo	22
▁psychic	22
▁boot	22
▁Glenn	22
▁yogurt	22
▁advancement	22
▁confrontation	22
matic	22
▁appall	22
▁prostitute	22
▁lu	22
▁energetic	22
▁Engineer	22
▁posts	22
▁porn	22
nonymous	22
▁mash	22
▁Stor	22
din	22
▁classifi	22
▁diplomatic	22
tification	22
▁sighted	22
▁Islamist	22
▁NY	22
▁Comp	22
ek	22
▁Nag	22
feld	22
▁blunt	22
▁gamer	22
▁hostilit	22
▁evaporate	22
▁daunting	22
her	22
▁fundamentalist	22
▁Dubai	22
▁amaze	22
▁objection	22
of	22
eign	22
▁hippie	22
▁sleeve	22
▁fisc	22
▁mainframe	22
▁pornograph	22
▁DM	22
▁invade	22
▁loyalt	22
▁unnatural	22
▁browse	22
oil	22
▁SO	22
▁DD	22
culture	22
▁downside	22
rail	22
▁Hotel	22
▁Sadd	22
▁legg	22
▁correlat	22
▁reckless	22
▁bald	22
▁Jennifer	22
▁excessive	22
ury	22
▁subset	22
▁Mon	22
▁reservation	22
▁desperat	22
▁corp	22
▁geneticist	22
▁nitr	22
environmentalist	22
▁Further	22
rah	22
▁dam	22
▁Alto	22
▁Conference	22
lines	22
▁residential	22
▁hence	22
pro	22
▁Jon	22
▁twentie	22
▁wid	22
▁Ti	22
▁maze	22
▁contributor	22
▁inflat	22
▁Wit	22
▁skyscraper	22
▁forbidd	22
▁convergen	22
▁Sevent	22
ition	22
▁necessit	22
▁amplify	22
▁widow	22
aptain	22
▁runner	22
▁apparatus	22
▁statistician	22
▁lettuce	22
@	22
▁unfamiliar	22
▁biops	22
▁simplifie	22
times	22
▁Aur	22
▁accelerator	22
▁dogma	22
▁Cu	22
▁Solomon	22
▁mob	22
▁nurs	22
▁facade	22
▁sequester	22
▁precipitat	22
▁mangrove	22
▁Br	22
list	22
itis	22
▁Swee	22
▁microwave	22
▁constellation	22
▁therapeutic	22
▁Mobil	22
▁hump	22
▁SR	22
▁AV	22
▁populat	22
▁carpenter	22
▁ceramic	22
▁Face	22
▁Cole	22
▁Tele	22
▁bureaucrac	22
▁prescribe	22
▁offender	22
▁Tree	22
▁BL	22
▁Mario	22
▁drastic	22
▁genital	22
▁whil	22
iff	22
▁foreigner	22
▁Chad	22
hr	22
▁nut	22
▁rupee	22
▁stink	22
▁bid	22
▁Oil	22
mart	22
▁fridge	22
▁prevalent	22
▁Coh	22
sea	22
▁tweak	22
▁Image	22
▁Exxon	22
▁packing	22
ura	22
▁Tweet	22
▁Left	22
▁communist	22
ending	22
urani	22
▁Politic	22
▁immunit	22
▁sanctuar	22
▁sewer	22
▁counselor	22
▁graceful	22
ithium	22
▁mantis	22
▁announce	22
▁headphone	22
MI	22
▁evaluat	22
▁breasts	22
▁Kent	22
▁MBA	22
▁dunes	22
▁typeface	22
▁cereal	22
DL	22
tric	22
▁outline	22
▁supplier	22
▁Isabel	22
ngue	22
▁groom	22
▁polls	22
▁juni	22
▁Enlighten	22
gon	22
▁imbalance	22
▁anchor	22
▁Hud	22
cul	22
▁MM	22
▁Meli	22
igital	22
▁Shoot	22
▁cafeteria	22
▁hunch	22
▁insulat	22
▁cubicle	22
▁slate	22
▁Nanopatch	22
▁Run	22
DG	22
beat	22
▁beaver	22
▁deflect	21
▁Jackson	21
▁premature	21
▁segregat	21
▁potter	21
▁forgett	21
▁rumor	21
▁Pearl	21
▁MP	21
▁Word	21
▁thunder	21
▁olive	21
uous	21
▁adviser	21
▁ga	21
▁interven	21
▁admission	21
▁Maldiv	21
▁horn	21
chan	21
▁bait	21
▁conc	21
▁elusive	21
▁cherish	21
▁jurisdiction	21
▁Environmental	21
▁mound	21
▁magnify	21
▁Tiger	21
▁waist	21
▁marking	21
▁dissect	21
brew	21
▁scripture	21
▁litigat	21
▁Loc	21
▁kin	21
▁gorilla	21
var	21
▁prompt	21
▁Film	21
▁Walker	21
▁sunset	21
▁slipper	21
▁spit	21
▁micron	21
▁gyr	21
▁hostage	21
▁courtyard	21
▁worthless	21
▁redundan	21
▁Whitopia	21
▁Mou	21
bed	21
lip	21
▁foresee	21
sexual	21
▁anthropolog	21
▁partisan	21
▁proportional	21
▁VC	21
▁Clark	21
▁erase	21
▁cit	21
▁Mari	21
▁slam	21
shot	21
▁hugg	21
▁demonstrat	21
▁Excellen	21
▁prince	21
▁perpetual	21
▁anonym	21
▁coalition	21
master	21
▁Judge	21
▁prohibit	21
▁flex	21
▁commandment	21
▁Guy	21
▁Control	21
▁infuse	21
▁crochet	21
▁donate	21
worth	21
▁supporter	21
▁oxide	21
▁hover	21
▁interference	21
▁Mad	21
▁tyrann	21
▁slash	21
▁distracted	21
▁Eco	21
▁Senat	21
▁immoral	21
▁Understand	21
▁Bono	21
▁peril	21
▁assured	21
im	21
▁Mosco	21
cular	21
vil	21
bas	21
▁beg	21
▁Hell	21
▁Fib	21
▁electora	21
▁Harle	21
▁Dear	21
▁appetite	21
▁incorporat	21
▁Check	21
▁recorder	21
▁hazard	21
thermal	21
▁Bert	21
bit	21
▁attain	21
▁youngster	21
▁seroton	21
▁Current	21
▁unpleasant	21
▁compose	21
▁spoil	21
▁cough	21
▁vacan	21
▁bruise	21
▁vapor	21
▁deplet	21
▁Rush	21
▁Survey	21
▁comedian	21
▁Bern	21
▁Motor	21
burg	21
▁notorious	21
▁allocate	21
cast	21
▁tinker	21
▁Convention	21
break	21
▁stakeholder	21
▁aerodynamic	21
▁hummingbird	21
▁Ke	21
tical	21
▁flare	21
▁sprawl	21
▁Aw	21
▁Row	21
▁Emba	21
▁tribute	21
▁ultrasound	21
▁treadmill	21
▁unhealth	21
utu	21
▁apprentice	21
)	21
cho	21
▁Den	21
▁medal	21
▁cochlea	21
▁cancel	21
▁optimist	21
disproportionate	21
▁pat	21
manda	21
▁ballot	21
▁Hero	21
▁flick	21
PEC	21
▁logistic	21
hrir	21
▁Barry	21
▁inquir	21
▁reservoir	21
▁Tara	21
▁Gand	21
▁semina	21
▁Portland	21
▁accumulation	21
▁Jur	21
▁captur	21
▁dedicate	21
▁Photoshop	21
▁Hurricane	21
▁peacekeep	21
▁Poet	21
▁battles	21
▁awaken	21
▁skirt	21
▁knit	21
cles	21
▁audition	21
▁Laborator	21
wana	21
▁shoreline	21
▁hydrocarbon	21
▁jo	21
▁complet	21
“	21
▁inappropriate	21
▁que	21
▁Financial	21
▁Odysse	21
▁mimick	21
▁hedge	21
▁Potter	21
PL	21
▁dataset	21
▁lineage	21
rtie	21
▁biomaterial	21
▁bureaucratic	21
▁Min	21
corn	21
▁Nazi	21
▁Romo	21
▁teapot	21
▁canoe	21
▁Soldier	21
▁decipher	21
iger	21
▁sanitar	21
▁extrovert	21
▁heartbeat	21
▁superconductor	21
▁PDF	21
▁aquaculture	21
▁Coch	21
▁doodl	21
banish	21
massive	21
▁FOX	21
▁Len	20
▁Monkey	20
▁plantation	20
▁advertisement	20
▁rearrange	20
▁Von	20
▁Toyota	20
▁advoca	20
▁refine	20
▁Lib	20
ich	20
▁Juli	20
▁clinician	20
text	20
▁Rosling	20
▁pub	20
▁Balkan	20
▁Cut	20
▁Eat	20
▁paw	20
▁sentiment	20
▁rub	20
▁weep	20
▁lip	20
mel	20
▁ver	20
▁rug	20
▁suspens	20
llen	20
▁outsider	20
▁RG	20
▁poke	20
▁primordial	20
▁el	20
emost	20
▁acquisition	20
▁diffuse	20
▁jealous	20
ache	20
▁photosynthesi	20
▁philanthropist	20
▁Ban	20
▁Living	20
▁influen	20
▁stark	20
▁Yu	20
▁su	20
▁fram	20
coal	20
▁replicator	20
▁Malawi	20
ata	20
▁Dian	20
▁tire	20
▁Juda	20
▁fatigue	20
▁Cod	20
ulate	20
▁webcam	20
▁deceive	20
▁detriment	20
▁kitten	20
▁Dream	20
▁Rachel	20
▁feminin	20
▁deem	20
▁Aaron	20
▁Pack	20
▁spor	20
▁thou	20
▁Personal	20
▁ob	20
▁jerk	20
▁funder	20
▁derive	20
▁scarc	20
▁criticize	20
▁joking	20
▁verify	20
shift	20
▁millennial	20
▁Oscar	20
▁snack	20
▁sword	20
urance	20
▁dropout	20
▁intellect	20
▁royal	20
▁collide	20
ester	20
▁cradle	20
▁inclin	20
▁motive	20
▁comparative	20
▁memoriz	20
▁Sustain	20
▁neo	20
▁feat	20
▁sued	20
▁Board	20
▁princess	20
▁Rif	20
▁Pri	20
▁Dark	20
lk	20
▁Karl	20
▁navigation	20
▁articulat	20
▁millenni	20
▁benchmark	20
▁jack	20
▁deepen	20
▁trickle	20
▁Differen	20
▁rob	20
▁irritat	20
▁curv	20
lbert	20
▁pluck	20
▁Johns	20
▁Hiroshi	20
▁Por	20
▁doctrine	20
▁modification	20
cientific	20
▁rodent	20
▁enlist	20
rry	20
▁Voyage	20
craft	20
▁cling	20
mination	20
hole	20
▁teammate	20
ometer	20
▁Protect	20
wash	20
▁jets	20
▁dashboard	20
▁Raise	20
tub	20
▁crown	20
▁geologist	20
▁foam	20
▁steward	20
terior	20
▁Road	20
▁instrumental	20
are	20
▁landmark	20
▁Fire	20
▁Land	20
▁mono	20
▁Mayor	20
▁hyena	20
▁rally	20
▁prominent	20
▁Gues	20
ali	20
atar	20
▁Ecuador	20
▁influenza	20
aste	20
▁Chief	20
▁stance	20
ker	20
hhh	20
▁nanoscale	20
▁soda	20
▁inertia	20
▁automo	20
▁Typical	20
▁resin	20
▁rod	20
▁roost	20
▁Cultur	20
hma	20
▁wilderness	20
▁megawatt	20
▁castle	20
▁transgender	20
▁quiz	20
▁elastic	20
▁plasma	20
▁glance	20
▁infinit	20
▁chin	20
▁lous	20
▁Prison	20
▁venom	20
▁inward	20
log	20
▁intern	20
▁fearless	20
▁Nano	20
uick	20
▁reinforc	20
▁discharge	20
▁Jamaica	20
▁ripple	20
▁dreadful	20
▁spectra	20
▁appointment	20
▁Alf	20
bound	20
▁levitat	20
▁mast	20
▁memorize	20
moor	20
▁nonverbal	20
▁buck	20
▁arthriti	20
▁shareholder	20
gg	20
▁toothbrush	20
▁vendor	20
▁crisp	20
▁interdependenc	20
▁Stir	20
▁posting	20
▁Ready	20
sota	20
▁aura	20
▁megacit	20
▁ramp	20
iffe	20
ign	20
▁Archi	20
bule	20
▁Lakota	20
data	20
▁craving	20
▁gli	20
In	20
▁pea	20
▁cobra	20
▁tapestr	20
▁soundscape	20
▁toaster	20
anzi	20
”	20
▁com	19
▁Az	19
▁Pant	19
zz	19
▁buffer	19
▁arrange	19
▁imperfect	19
▁metro	19
logy	19
▁replication	19
▁sculptor	19
vin	19
▁Woo	19
▁granddaughter	19
▁Pay	19
bil	19
▁stunn	19
▁encompass	19
▁ranch	19
▁leisure	19
▁skinn	19
▁husk	19
▁tires	19
ellar	19
▁sentien	19
▁attacker	19
giv	19
▁marble	19
▁Litera	19
▁Sha	19
bul	19
▁Morocc	19
▁gum	19
▁secretar	19
▁salad	19
▁steak	19
▁repositor	19
▁plummet	19
bar	19
▁forgiveness	19
▁yog	19
▁revolt	19
▁dune	19
▁massage	19
▁Mat	19
▁sc	19
abul	19
▁summon	19
▁goof	19
▁enroll	19
▁Ryan	19
▁fo	19
incidence	19
▁disagreement	19
▁mismatch	19
▁Lis	19
▁iv	19
▁Scr	19
▁ATM	19
▁intrac	19
ara	19
.-	19
▁coil	19
▁KS	19
▁loo	19
▁sampl	19
▁fond	19
▁Marx	19
▁pac	19
▁Ann	19
▁cru	19
▁unp	19
▁indefinite	19
▁undertake	19
▁Mot	19
▁nephew	19
▁compensate	19
▁legitima	19
ampaign	19
▁Area	19
▁flour	19
▁whiske	19
llin	19
▁tense	19
▁blur	19
▁fetch	19
▁decorat	19
▁hatch	19
▁implie	19
rap	19
▁analyst	19
▁Cro	19
▁cel	19
ix	19
▁lymph	19
nar	19
▁bargain	19
ates	19
▁clarify	19
▁Dam	19
▁deform	19
▁loyal	19
▁ranking	19
▁Sala	19
▁lyric	19
▁pragmatic	19
▁reside	19
▁entrenche	19
▁unravel	19
▁gripp	19
▁Traditional	19
▁Mut	19
▁outweigh	19
▁Ros	19
nki	19
▁diver	19
▁nutritional	19
▁purse	19
▁Serge	19
▁humiliat	19
▁replica	19
▁underpin	19
▁intestine	19
▁staple	19
lies	19
▁derivative	19
▁handl	19
▁underlie	19
▁para	19
▁embody	19
▁costume	19
▁Stand	19
▁offense	19
▁Bih	19
rill	19
▁Dai	19
tune	19
▁Bra	19
▁blam	19
▁tomb	19
los	19
▁Birds	19
▁recurren	19
▁rejuvenat	19
▁pod	19
▁dr	19
chu	19
▁precedent	19
▁apolog	19
▁liberate	19
▁stubborn	19
clusion	19
▁Hopkin	19
▁IDE	19
▁energiz	19
▁withstand	19
▁knob	19
▁TS	19
▁stockpile	19
▁telecom	19
▁ply	19
▁violate	19
▁eater	19
uba	19
▁subconscious	19
▁Mongol	19
▁librarian	19
▁empti	19
fell	19
▁atrocit	19
▁kn	19
▁dementia	19
▁onion	19
▁ribbon	19
▁Sixt	19
▁apprais	19
▁coerc	19
▁doc	19
▁peripheral	19
▁fork	19
▁Fifth	19
▁orbital	19
▁vertebrate	19
▁Giant	19
ome	19
▁cite	19
▁evoke	19
EM	19
▁coward	19
▁increment	19
▁Chair	19
▁vanish	19
▁Grey	19
uestion	19
morph	19
▁matur	19
▁congress	19
▁Mayan	19
▁bitch	19
▁Special	19
▁Operation	19
▁charg	19
▁biomedic	19
▁Auto	19
▁solu	19
sane	19
▁dyslexi	19
▁lemon	19
▁suite	19
▁Trans	19
▁rust	19
aire	19
▁charisma	19
▁Senegal	19
▁Vel	19
▁upstream	19
▁trader	19
▁Ve	19
▁seller	19
▁Tra	19
▁plume	19
▁trance	19
rock	19
organic	19
▁Humanit	19
ire	19
▁prosthes	19
▁upsta	19
raham	19
▁Baha	19
▁revers	19
▁tether	19
▁cavit	19
▁Ana	19
▁Khan	19
▁smack	19
▁rhino	19
▁PI	19
▁utiliz	19
▁albe	19
▁powerless	19
▁plutocrat	19
osa	19
▁Build	19
▁engulf	19
▁Barbie	19
▁Page	19
▁Robot	19
trude	19
olic	19
▁aisle	19
▁Magic	19
▁refresh	19
▁coup	19
▁Serg	19
▁drawer	19
cock	19
▁Extreme	19
▁PS	19
▁unchang	19
▁exhilarating	19
▁Aye	19
▁persuasi	19
▁inspect	19
▁dorm	19
▁carb	19
von	19
▁decoration	19
▁Papua	19
▁squeak	19
▁gloom	19
▁vascular	19
▁Mahmo	19
▁portfolio	19
▁inferior	19
▁barbershop	19
▁Gwe	19
▁forensic	19
▁Dublin	19
▁digitiz	19
▁ecologist	19
▁impatient	19
▁Cle	19
▁incorrect	19
hapel	19
▁EC	19
▁Sleep	19
▁seatbelt	19
▁VR	19
▁phthalate	19
▁Nash	18
read	18
erra	18
▁hanger	18
▁artisan	18
▁provocative	18
▁grandma	18
▁HP	18
▁quark	18
▁filament	18
▁sorrow	18
▁Wo	18
▁guru	18
▁Fab	18
▁chatt	18
▁abyss	18
▁wond	18
▁endemic	18
lese	18
national	18
▁mediocr	18
▁dull	18
▁dwarf	18
ads	18
▁defy	18
▁Eye	18
birth	18
▁instruct	18
▁latter	18
▁Au	18
▁enact	18
▁Independent	18
▁Burm	18
und	18
▁Tel	18
▁synonymous	18
▁Matthew	18
▁Sue	18
▁miner	18
▁asymmetric	18
leg	18
▁temperat	18
▁slid	18
ansa	18
▁seeker	18
▁Laptop	18
▁Wind	18
rilliant	18
▁Picasso	18
▁Festival	18
▁prestig	18
▁affluen	18
▁insecurit	18
▁sonic	18
▁Beatle	18
▁fundamentalism	18
▁Osa	18
▁erupt	18
▁decod	18
▁Money	18
▁Disease	18
▁Euro	18
etas	18
NES	18
▁flowering	18
▁disappointment	18
▁parrot	18
▁wrestle	18
▁inspirational	18
▁correlate	18
▁psyche	18
▁centric	18
iful	18
▁Archimed	18
▁Critic	18
rom	18
ken	18
▁divert	18
▁relocate	18
▁Ham	18
aki	18
▁Bagh	18
▁commute	18
▁Jud	18
▁inflict	18
▁Momm	18
gel	18
▁perfection	18
ambiguous	18
▁decay	18
▁pathetic	18
▁paranoi	18
▁schizophrenic	18
▁Ig	18
▁seren	18
▁Mar	18
▁spiritualit	18
▁absent	18
▁Madi	18
▁laureate	18
▁bead	18
▁crave	18
▁motivator	18
▁disclose	18
▁rebound	18
tel	18
▁privatiz	18
▁kidnappe	18
ambia	18
▁umbrella	18
world	18
▁speculat	18
▁slamm	18
▁Fed	18
▁Worldchanging	18
▁avenue	18
▁sermon	18
▁pediatrician	18
▁Mandar	18
▁diar	18
cene	18
▁Gu	18
▁modes	18
▁legislator	18
▁traumatiz	18
▁republic	18
▁hydrant	18
roadway	18
glasse	18
SM	18
▁hy	18
cule	18
▁skydiv	18
▁Merc	18
▁Blood	18
▁Hispanic	18
▁unexplo	18
▁proxim	18
▁puzzling	18
▁Roug	18
▁bundle	18
▁bra	18
▁viewers	18
▁Negro	18
▁dysfunctional	18
fir	18
▁Dar	18
▁Bueno	18
▁warrant	18
For	18
She	18
▁blindfold	18
▁rode	18
▁predominant	18
ö	18
▁Laur	18
▁squirrel	18
rez	18
▁precursor	18
▁slap	18
ception	18
▁Malaysia	18
▁Indiana	18
▁transcenden	18
▁niche	18
▁compulsive	18
found	18
▁exaggerat	18
▁App	18
▁collid	18
▁coache	18
▁Ukrain	18
▁Contra	18
▁predicti	18
uant	18
▁dealer	18
▁Berg	18
assem	18
▁repetitive	18
mming	18
▁Read	18
▁Tyle	18
▁pillow	18
▁Fran	18
▁nanotube	18
▁fringe	18
▁experimenter	18
uz	18
▁Hanna	18
wick	18
▁thermostat	18
▁microRNA	18
▁cramm	18
▁rack	18
▁ripe	18
▁Conservati	18
▁owl	18
▁doodle	18
▁requir	18
▁bagg	18
▁brillian	18
▁forger	18
▁Airport	18
▁surpass	18
▁pitche	18
▁Mas	18
▁prob	18
agement	18
▁marketer	18
▁Dra	18
▁troubling	18
▁Evolution	18
▁bumblebee	18
▁PRI	18
▁multitask	18
dale	18
▁fax	18
air	18
▁epilep	18
▁sanction	18
EF	18
▁Safe	18
▁altruistic	18
▁cab	18
IKE	18
itra	18
▁Parad	18
▁CB	18
▁foolish	18
▁contingen	18
▁Mathematica	18
▁sta	18
▁naught	18
▁DIY	18
▁synchron	18
▁decisive	18
▁fluent	18
▁Nico	18
SE	18
▁relian	18
▁Sata	18
▁Generation	18
▁shrunk	18
NC	18
▁skyrocket	18
▁Galva	18
▁oceanograph	18
ef	18
▁rude	18
▁measl	18
▁Feel	18
▁euro	18
▁champions	18
▁shal	18
▁pl	18
▁Boom	18
▁Donald	18
▁virulen	18
▁Hyde	18
▁Spin	18
▁imitation	18
▁Missou	18
▁Vienn	18
▁accountant	18
▁Hul	18
▁recreat	18
cies	18
▁tornado	18
▁Morgan	18
▁Rat	18
ibo	18
wesome	18
▁USD	18
▁cracker	18
▁sandwiche	18
cam	18
▁Pate	18
▁academi	18
▁relentless	18
▁handbag	18
▁KT	18
▁bonobo	18
▁prehistor	18
▁medicinal	18
▁biomimic	18
iath	18
▁beheading	18
▁cymatic	18
▁handwrit	17
ollock	17
▁theorem	17
▁Saul	17
lity	17
spora	17
▁Mitchell	17
▁Lyn	17
▁ominous	17
▁Erik	17
▁Cla	17
▁goose	17
▁expresse	17
▁Goldi	17
▁Gehr	17
agne	17
▁soak	17
▁southwest	17
▁specialization	17
▁bloodstream	17
▁Needles	17
▁nominate	17
▁Tal	17
▁palace	17
▁advised	17
▁culminat	17
osi	17
▁Ethiopian	17
▁ounce	17
▁dire	17
viv	17
listic	17
▁cliche	17
▁reconcili	17
use	17
▁incision	17
▁Babylon	17
▁Persian	17
▁curb	17
▁robber	17
▁Thursday	17
▁kicks	17
▁Ko	17
▁cofounde	17
▁monolith	17
▁considerabl	17
II	17
▁misunderst	17
▁drums	17
▁ponder	17
▁campfire	17
▁resourceful	17
▁edition	17
▁strawberr	17
▁Mach	17
ardon	17
eautiful	17
▁nostalgi	17
▁provok	17
famous	17
▁reckon	17
▁furious	17
▁pul	17
▁fibro	17
▁BR	17
▁seductive	17
▁charm	17
▁je	17
▁Shad	17
▁cr	17
▁Harbor	17
▁spy	17
▁Forb	17
▁Android	17
▁Invest	17
▁liabilit	17
▁fist	17
▁Trek	17
reach	17
▁Tak	17
▁outlier	17
▁pave	17
▁administer	17
▁questionnaire	17
▁Cam	17
▁blackboard	17
▁synthesizer	17
▁ankle	17
▁conceivabl	17
▁moons	17
▁precaution	17
▁conjure	17
▁Mann	17
▁Twi	17
▁devour	17
▁cam	17
▁saint	17
estial	17
▁chok	17
▁Wednesday	17
▁sprint	17
▁Elephant	17
▁geolog	17
▁Bloom	17
▁CAPTCHA	17
elimina	17
▁Citizen	17
▁Stevens	17
▁bon	17
▁Joy	17
▁occurrence	17
▁socializ	17
mate	17
▁wield	17
urg	17
▁persisten	17
▁leverag	17
nstrual	17
▁launche	17
▁ministr	17
▁exceeding	17
▁dries	17
▁Git	17
▁manu	17
▁Fine	17
▁sweater	17
ein	17
▁neutrino	17
▁Java	17
literate	17
▁greener	17
bre	17
▁Week	17
▁pavilion	17
▁synagogue	17
▁Roll	17
▁Electric	17
▁Gre	17
▁secre	17
▁undermin	17
▁alternate	17
rate	17
▁adore	17
▁compil	17
▁Shah	17
▁charming	17
▁litter	17
ain	17
▁Wales	17
▁dysfunction	17
▁heterosexual	17
▁vase	17
far	17
▁tapes	17
▁Cur	17
▁acknowledg	17
▁adverse	17
▁Cas	17
▁degrade	17
▁vaccination	17
▁sling	17
spiring	17
▁elevate	17
gat	17
ska	17
NT	17
▁pinnacle	17
▁circus	17
▁atmospher	17
▁Develop	17
▁interval	17
▁gym	17
ndra	17
▁exert	17
▁Superma	17
▁asphalt	17
▁elevation	17
▁pellet	17
▁stir	17
▁Plato	17
▁aquari	17
▁Uru	17
▁epi	17
▁Leader	17
aque	17
▁lexico	17
▁sexis	17
▁coworker	17
▁Ep	17
mail	17
▁windmill	17
▁autops	17
ubar	17
▁embed	17
▁imam	17
rat	17
▁paintbrush	17
▁headlight	17
▁marginal	17
▁paleontologist	17
▁responder	17
▁Geoff	17
▁denominator	17
▁contraction	17
▁gateway	17
▁miniaturiz	17
▁dock	17
▁Ranger	17
▁bleach	17
drop	17
▁Sudh	17
▁Rub	17
▁overfish	17
▁frugal	17
▁Midwest	17
▁folder	17
▁Parent	17
▁Stockh	17
▁missionar	17
nity	17
▁graves	17
ats	17
owing	17
mann	17
▁locate	17
mont	17
▁volatile	17
▁Ly	17
take	17
▁plow	17
eal	17
▁Mak	17
▁scu	17
▁patron	17
▁Pur	17
▁Luk	17
▁amygdala	17
▁halt	17
▁intercept	17
▁Broad	17
▁prohibition	17
▁dice	17
▁interrogat	17
▁affirm	17
bor	17
ano	17
for	17
▁persecut	17
▁hawk	17
▁unf	17
▁malleab	17
▁relauncher	17
▁resume	17
▁cargo	17
▁shaman	17
▁reversal	17
▁Goodb	17
▁choreograph	17
▁lone	17
▁emulate	17
▁activation	17
▁paddle	17
▁noon	17
▁Anthon	17
▁Player	17
▁transcript	17
▁isolate	17
▁inference	17
▁squatter	17
▁infer	17
▁ineffective	17
▁Crime	17
▁autobiograph	17
▁Cura	17
"	17
▁nap	17
rado	17
Vision	17
chk	17
▁termite	17
▁poo	17
▁Aim	17
▁headset	17
▁Nichol	17
▁Temp	17
▁Sto	17
echanical	17
ureau	17
▁Compare	17
▁Hum	17
▁cursor	17
▁Dec	17
▁Buffet	17
RO	17
▁illuminate	17
percussion	17
▁tan	17
nny	17
▁exoskeleton	17
▁Maslow	17
▁antiretroviral	17
▁Sina	17
▁dividend	17
▁mailbox	17
acin	17
▁batch	17
▁Studio	17
▁McCa	17
▁jamm	17
▁Baker	17
ath	17
▁grouper	17
▁LS	17
▁marsh	17
▁Robotic	17
▁flop	17
▁Poem	17
▁NM	17
▁pollinate	17
▁garment	17
Hex	17
vana	17
umor	17
HD	17
▁Choir	17
▁Rocket	17
▁Dimitr	17
▁pup	17
angiogen	17
▁Biospher	17
▁sincere	16
▁runway	16
▁credib	16
▁Neuman	16
▁Hunter	16
ille	16
▁hoop	16
▁dia	16
▁instill	16
▁spac	16
▁practitioner	16
▁Stu	16
▁multicultural	16
▁smuggl	16
▁champ	16
▁discount	16
fer	16
▁burglar	16
▁Made	16
▁Writ	16
▁Sufi	16
▁advisor	16
▁heap	16
lec	16
scent	16
ifying	16
enture	16
▁welcom	16
▁Challenge	16
ngular	16
▁fl	16
boriginal	16
▁sack	16
vit	16
▁Shake	16
post	16
pers	16
▁Oop	16
▁hyperbolic	16
▁Jose	16
▁judg	16
▁definitive	16
▁Nazis	16
▁gradient	16
▁EEG	16
active	16
itz	16
▁Sim	16
▁tenure	16
▁Hot	16
▁disco	16
▁laborer	16
▁tackl	16
▁roam	16
▁aero	16
tah	16
▁spreadsheet	16
▁plausibl	16
▁Kat	16
ntelligence	16
ae	16
CO	16
▁offset	16
▁Major	16
▁righteous	16
▁numerical	16
par	16
▁fuss	16
▁Hind	16
▁messenger	16
▁vitr	16
▁Getting	16
▁lipid	16
focal	16
▁unhe	16
▁stretche	16
▁wizard	16
▁relay	16
▁alleged	16
▁embass	16
▁ballet	16
▁intermedia	16
▁sabbatical	16
▁advocat	16
▁fla	16
▁Rita	16
▁cortic	16
▁Bowl	16
gal	16
dental	16
edible	16
ova	16
▁Ern	16
▁tur	16
▁butcher	16
mple	16
▁tease	16
▁transmitter	16
▁Animal	16
▁utilize	16
▁tradeoff	16
▁synerg	16
▁invert	16
▁compliance	16
▁dissent	16
▁examination	16
lux	16
person	16
▁Study	16
athan	16
▁loom	16
▁Blair	16
▁yearning	16
▁outdoors	16
▁Huss	16
▁collaps	16
▁cohesi	16
▁delightful	16
▁Smart	16
version	16
▁condens	16
lah	16
▁broaden	16
rio	16
ixon	16
▁symbolize	16
stick	16
ermaid	16
▁Summer	16
ule	16
disciplinar	16
▁Organ	16
▁grower	16
▁Search	16
▁Greg	16
▁adage	16
▁plumb	16
▁Grant	16
▁neurologist	16
chai	16
ela	16
▁Para	16
▁humanoid	16
arian	16
▁Alexandria	16
▁crowdsourc	16
▁administrative	16
▁Tar	16
▁pianist	16
▁accord	16
▁ingest	16
▁prosecut	16
cted	16
▁gravel	16
▁disappoint	16
▁Rocke	16
▁SK	16
▁Leave	16
▁Der	16
▁chore	16
▁innocen	16
▁monumental	16
▁franchise	16
▁intersect	16
▁porch	16
▁brothel	16
▁whipp	16
▁tedious	16
▁splitt	16
▁massacre	16
▁antidote	16
▁revisit	16
▁sophistication	16
ender	16
▁Lanka	16
▁undo	16
▁Plant	16
▁bushe	16
▁Commandment	16
▁ignite	16
▁ag	16
▁spam	16
▁shaft	16
▁Ur	16
▁relie	16
bert	16
▁interg	16
▁Burn	16
olm	16
▁barb	16
thic	16
▁cu	16
ump	16
▁Bach	16
▁wiggle	16
▁wearable	16
▁gauge	16
ail	16
▁Jarr	16
▁rehearsal	16
▁ambien	16
▁embroider	16
▁Mauriti	16
▁Mao	16
▁TM	16
eanor	16
lude	16
▁waterfront	16
iller	16
▁cascade	16
oe	16
▁battl	16
tted	16
▁gambl	16
▁hail	16
▁Happi	16
▁thickness	16
▁seaweed	16
▁Huge	16
▁needless	16
▁Ahmed	16
▁lick	16
▁shuffle	16
▁decode	16
proof	16
▁Jan	16
▁swimmer	16
▁boomer	16
▁monaster	16
▁Chang	16
uff	16
▁echoe	16
▁Award	16
RT	16
▁CPU	16
tti	16
▁crane	16
▁Mur	16
related	16
▁preacher	16
ena	16
▁Ley	16
mah	16
rial	16
▁amber	16
onald	16
▁lb	16
cross	16
lla	16
▁rebuil	16
▁reunite	16
CA	16
nta	16
ular	16
▁Architectur	16
▁rot	16
▁multimedia	16
▁Break	16
▁hyperactiv	16
hose	16
▁collage	16
▁classify	16
▁adversar	16
▁pacemaker	16
▁Name	16
▁bik	16
▁dread	16
▁misunderstand	16
ahoo	16
word	16
▁ruthless	16
▁scarf	16
ymphon	16
▁Orchestra	16
▁skier	16
nya	16
▁estimat	16
code	16
▁sensual	16
▁Martian	16
▁highland	16
▁maggot	16
▁clan	16
significant	16
Global	16
▁hardwir	16
▁advertise	16
▁Total	16
lateral	16
zu	16
▁tr	16
▁involuntar	16
▁surrogate	16
▁bo	16
▁flashlight	16
▁combusti	16
▁shorten	16
rash	16
▁panick	16
▁radiologist	16
▁rigg	16
▁inequit	16
▁Friends	16
▁latrine	16
▁fulfillment	16
▁cellulos	16
▁disguise	16
▁photographic	16
▁shav	16
▁Helen	16
▁saddle	16
▁kits	16
▁jumble	16
▁siz	16
▁Cool	16
▁enclosure	16
shes	16
▁overload	16
▁crease	16
▁Rag	16
ndent	16
▁crest	16
▁vocation	16
▁Vagina	16
SF	16
▁coconut	16
▁Clean	16
room	16
▁Speci	16
▁pigmentation	16
▁suburbia	16
▁swam	16
▁beehive	16
▁fu	16
▁Hamp	16
rana	16
▁SL	16
▁obsessive	16
▁Les	16
▁dumm	16
▁vow	16
▁eruption	16
▁eel	16
▁sushi	16
▁Jak	16
▁molt	16
▁mason	16
▁extremis	16
yriad	16
▁biodegrad	16
▁Cruz	16
▁daf	16
▁Stac	16
▁TD	16
▁progeri	16
▁Form	15
ulation	15
▁shad	15
▁Val	15
▁robb	15
▁stigmatiz	15
overt	15
▁turbulent	15
▁Mor	15
▁Bit	15
▁Environment	15
▁protagonist	15
▁Willi	15
▁indicat	15
▁Klein	15
▁tack	15
▁thirst	15
▁Dance	15
▁pals	15
▁paycheck	15
lace	15
▁tasting	15
ardo	15
▁grey	15
▁bugg	15
eck	15
▁plaque	15
▁toolbox	15
MRI	15
▁incompatib	15
▁horrify	15
▁salut	15
▁Sen	15
▁intertwine	15
gro	15
▁launder	15
icit	15
▁corrosi	15
▁cartel	15
era	15
itan	15
▁gig	15
▁dives	15
AM	15
▁narrat	15
▁mystic	15
▁ghetto	15
▁Place	15
▁Belgi	15
▁advise	15
▁escap	15
▁cub	15
nitiative	15
void	15
▁dictators	15
▁setback	15
▁submission	15
▁supreme	15
▁perish	15
▁Bel	15
▁Lou	15
▁twel	15
style	15
▁Bor	15
▁Pac	15
▁Fla	15
▁Kate	15
▁instantaneous	15
▁Charlotte	15
▁Reserve	15
▁embodiment	15
▁chi	15
▁Met	15
ique	15
▁debut	15
▁philanthropic	15
working	15
ET	15
▁anarch	15
▁Bina	15
▁handheld	15
bla	15
▁apt	15
▁brew	15
▁fearful	15
▁impairment	15
▁Researcher	15
▁persuasion	15
▁glaze	15
▁Idea	15
ofi	15
▁mourn	15
▁dressing	15
▁fellows	15
ico	15
oul	15
▁quot	15
▁Commun	15
▁Allow	15
▁tract	15
▁Schwarz	15
▁imm	15
▁contemplate	15
▁outskirt	15
▁incapa	15
▁dismantle	15
▁annihilat	15
▁Warne	15
▁marche	15
▁razor	15
▁funk	15
▁outperform	15
▁pajama	15
▁harden	15
▁Infinit	15
▁peeling	15
OS	15
▁chole	15
terol	15
▁shave	15
▁qualitative	15
▁unsafe	15
▁Jerem	15
▁Orwell	15
▁Bret	15
▁Algeria	15
icular	15
idle	15
oca	15
▁Char	15
▁Levi	15
▁Doc	15
▁nugget	15
pad	15
eastern	15
ika	15
▁Manch	15
▁Douglas	15
▁Maya	15
▁generalization	15
▁hierarchical	15
▁Farmer	15
▁exaggeration	15
▁Eames	15
▁ballast	15
▁plea	15
arch	15
▁bottleneck	15
▁suspicion	15
▁Genetic	15
▁discriminate	15
▁slug	15
eduction	15
▁communis	15
▁brochure	15
▁Twa	15
▁constituenc	15
▁facilitator	15
▁Boeing	15
▁detergent	15
▁fountain	15
▁crapp	15
▁laparoscopic	15
▁crani	15
tador	15
▁perpetuat	15
flection	15
rger	15
▁pins	15
▁aversion	15
▁enhancement	15
▁prep	15
▁AS	15
▁emerald	15
▁exclusion	15
▁debat	15
▁insurgenc	15
▁rifle	15
▁Communication	15
▁handout	15
ote	15
LAM	15
▁eyeball	15
▁manne	15
▁downward	15
▁geopolitic	15
▁elegan	15
▁Bull	15
▁neurologic	15
▁mitigate	15
▁arsenal	15
▁Rwandan	15
▁ED	15
▁Might	15
▁dangl	15
teric	15
▁Universe	15
▁Farm	15
▁kilowatt	15
▁nurser	15
▁crunch	15
▁-	15
▁daydream	15
▁compensati	15
▁cor	15
▁Orange	15
▁lightbulb	15
▁impoverish	15
▁vault	15
▁appendage	15
▁pointer	15
▁logarithm	15
▁Shack	15
atomic	15
▁Grove	15
▁Honor	15
▁suicid	15
structure	15
▁Horse	15
▁Authorit	15
ogram	15
▁Viagra	15
mine	15
▁braver	15
▁poisoning	15
▁utilitarian	15
▁oop	15
▁steroid	15
▁miniatur	15
▁churn	15
eman	15
▁Beau	15
▁phy	15
▁speculation	15
▁stab	15
▁advent	15
▁psychotherap	15
different	15
▁sway	15
▁snapp	15
▁stalk	15
▁cowboy	15
▁nourish	15
▁Volunteer	15
▁Bulgaria	15
▁poacher	15
▁Vil	15
▁substrate	15
▁Shark	15
▁weaken	15
▁Gas	15
▁Galax	15
ock	15
▁faithful	15
dan	15
▁Must	15
▁influenc	15
uda	15
?	15
▁Chernobyl	15
▁turnaround	15
▁reassuring	15
animate	15
rod	15
▁thigh	15
▁Panama	15
▁patriarch	15
▁milestone	15
CAT	15
▁eloquent	15
▁diabetic	15
▁amputation	15
▁formulate	15
▁degenerat	15
▁Serbia	15
▁tro	15
ockey	15
▁locker	15
▁exercis	15
▁quadruple	15
▁comprehend	15
▁orchard	15
▁Floren	15
▁Standard	15
▁preced	15
▁carcass	15
▁patriot	15
▁deed	15
▁spectroscop	15
▁discourag	15
▁Kis	15
▁disast	15
▁terabyte	15
dside	15
▁Malt	15
▁coloniz	15
▁Fisher	15
▁tacti	15
▁cog	15
▁Str	15
▁actress	15
▁unwa	15
▁pinch	15
▁perimeter	15
oli	15
math	15
▁Flu	15
trey	15
▁insur	15
▁momentous	15
opter	15
imi	15
▁hopp	15
▁symbio	15
▁mu	15
▁irregular	15
▁Stroma	15
heim	15
▁Barbar	15
roa	15
▁DO	15
▁bunk	15
▁outstanding	15
clamation	15
▁Northwest	15
▁Lim	15
trophy	15
▁pine	15
▁Constitution	15
▁sovereignt	15
▁Bart	15
▁Simpson	15
▁snippet	15
▁Hal	15
lop	15
AC	15
▁Airbnb	15
▁clerk	15
▁investigator	15
▁flashe	15
ignifi	15
▁ferment	15
▁punctuat	15
▁Ball	15
▁dresse	15
▁duct	15
▁malignan	15
▁ravage	15
▁grill	15
▁harp	15
▁pluripoten	15
▁pharmac	15
▁hologram	15
▁kettle	15
ocation	15
ike	15
▁juggler	15
▁Chicken	15
▁Donne	15
▁convers	15
▁ba	15
▁Stalin	15
▁colonial	15
▁walker	15
▁swin	15
extraterrestrial	15
▁stumble	15
▁plank	15
olph	15
▁trainer	15
▁Wang	15
▁downhill	15
grown	15
▁Team	15
▁Billi	15
▁thro	15
▁Action	15
▁Dragon	15
antha	15
yana	15
▁surfer	15
zman	15
zhen	15
▁nanoparticle	15
▁NP	15
▁humpback	15
▁ginger	15
▁rudder	15
▁contraceptive	15
emption	15
▁Full	15
▁encouragement	15
▁salamander	15
HIN	15
▁upstreamist	15
upp	15
▁INC	15
▁superintelligen	15
SG	15
meer	15
huma	15
▁dragline	15
▁expenditure	14
part	14
▁Valentin	14
▁EU	14
▁fide	14
▁verifi	14
▁Canal	14
rbie	14
▁neutron	14
▁cello	14
▁handcuff	14
▁Igbo	14
▁boo	14
▁Rap	14
jad	14
▁memoir	14
▁Fellow	14
him	14
▁deteriorat	14
▁Edu	14
▁blossom	14
▁mag	14
▁Dominican	14
uter	14
▁lord	14
▁deregulat	14
▁smuggler	14
▁dent	14
▁watershed	14
▁squirt	14
▁Aquariu	14
mond	14
▁caption	14
▁oas	14
▁Ottoman	14
dah	14
nowledge	14
ario	14
▁clam	14
▁savor	14
▁Lion	14
▁squish	14
▁woo	14
▁uterus	14
rso	14
▁chemo	14
▁deceptive	14
▁Runn	14
▁Mass	14
▁altar	14
▁spu	14
▁granular	14
▁conduc	14
▁sociolog	14
▁Off	14
▁Carlo	14
▁applica	14
▁preferabl	14
▁sponsors	14
▁Wor	14
igible	14
▁schematic	14
▁theorist	14
▁Harris	14
ago	14
▁fer	14
ades	14
boxe	14
▁categoriz	14
▁Gabriel	14
▁Bow	14
▁grue	14
▁Increasing	14
▁striving	14
▁studios	14
▁Gl	14
monar	14
▁Kurzweil	14
▁Instagram	14
▁communicator	14
▁caste	14
▁Tomm	14
▁palette	14
come	14
▁stove	14
bury	14
▁idealis	14
dministration	14
▁quotation	14
▁seduce	14
▁PET	14
▁recess	14
▁vigorous	14
▁microorganism	14
▁excruciating	14
gger	14
▁untouch	14
▁carving	14
▁skyline	14
▁robe	14
▁shard	14
▁fanci	14
▁paraphras	14
stand	14
▁serif	14
▁compost	14
▁inadvertent	14
▁Mard	14
▁concussion	14
▁initiate	14
▁sav	14
▁Pain	14
▁scrambl	14
▁backbone	14
▁rehab	14
▁Emmanuel	14
▁remak	14
▁orthodox	14
▁usher	14
▁dissident	14
▁overhear	14
▁reshape	14
▁exchang	14
▁linger	14
igr	14
▁Studie	14
▁fifty	14
▁Barn	14
▁addicti	14
▁tab	14
▁abs	14
▁Future	14
▁Viking	14
tter	14
▁Inuit	14
western	14
▁hay	14
▁devotion	14
▁provoke	14
▁landmine	14
▁Gapminder	14
▁Mob	14
uction	14
inister	14
▁reformer	14
▁Rhode	14
▁Message	14
▁biblical	14
handler	14
Family	14
▁rider	14
▁retrofitt	14
▁Bare	14
atic	14
▁defender	14
▁Train	14
horn	14
▁bureaucrat	14
▁paradoxical	14
press	14
▁municipal	14
▁Bolivia	14
▁disturbance	14
▁sever	14
▁seminar	14
rative	14
▁stride	14
▁UFO	14
▁flirt	14
▁dic	14
▁induce	14
▁def	14
gate	14
▁Malari	14
▁boardroom	14
▁furnace	14
▁saucer	14
▁Phone	14
▁funni	14
▁Reg	14
▁modul	14
▁bailout	14
▁Ai	14
▁empathize	14
▁Bee	14
▁Kik	14
hoe	14
▁Nep	14
cons	14
tory	14
▁Nino	14
▁Vo	14
LL	14
▁Brenda	14
▁mountaintop	14
▁abduct	14
▁carriage	14
locks	14
▁dazzl	14
▁adrenalin	14
▁editorial	14
▁willful	14
▁underdog	14
▁pira	14
▁homophobi	14
▁bystander	14
▁premi	14
▁torch	14
▁Johannes	14
istence	14
▁dexter	14
▁Fan	14
▁fellowship	14
▁plural	14
▁noun	14
▁CS	14
▁modalit	14
▁cardiologist	14
▁tug	14
ogen	14
▁Masa	14
▁apath	14
▁dwell	14
▁Planet	14
path	14
▁limitless	14
▁sympathetic	14
▁Yemeni	14
▁civiliz	14
neurotransmitter	14
alactic	14
▁restless	14
▁Impossib	14
▁Devil	14
▁crayon	14
munition	14
▁puls	14
▁Mali	14
▁equate	14
▁yaw	14
▁biochemistr	14
osh	14
▁merchant	14
▁dodg	14
▁Kay	14
▁Easy	14
bou	14
▁grazing	14
▁PT	14
▁Bobb	14
▁facet	14
▁Rama	14
▁Kuwait	14
▁dec	14
▁hum	14
▁typewriter	14
▁whack	14
▁Harrie	14
▁Marco	14
▁orthopedic	14
▁Follow	14
▁aggressi	14
▁replay	14
▁CL	14
▁exo	14
▁firework	14
▁bathe	14
ritage	14
▁patche	14
▁Moham	14
appointed	14
▁rebellion	14
hili	14
▁hype	14
▁archaeolog	14
▁Plastic	14
▁queer	14
▁Cous	14
teau	14
▁Key	14
reek	14
▁EB	14
USB	14
▁crook	14
▁jig	14
etti	14
▁Battle	14
ige	14
▁unicorn	14
▁demons	14
uma	14
▁Foot	14
▁microprocessor	14
▁reverberat	14
▁alleviate	14
▁Crick	14
▁fluke	14
▁spook	14
▁Ste	14
lett	14
▁disseminat	14
▁recharge	14
bus	14
▁obscur	14
lia	14
hotom	14
▁Brook	14
psychotic	14
▁duplicate	14
▁eclipse	14
▁Grandma	14
child	14
NIC	14
ryl	14
▁unpack	14
▁animator	14
▁Cornell	14
stical	14
▁bean	14
▁prairie	14
▁tun	14
harmonic	14
▁outlaw	14
▁hmm	14
▁Angola	14
▁skim	14
ascal	14
▁Milan	14
▁prolong	14
▁barbari	14
▁Morning	14
▁taxonom	14
itch	14
▁Burk	14
▁Tech	14
▁Song	14
▁propagat	14
▁brigade	14
▁lag	14
AL	14
▁spectacle	14
▁Aus	14
▁Bayes	14
▁await	14
shy	14
ccasional	14
▁Diver	14
▁etern	14
▁savage	14
owa	14
▁innovat	14
▁Alberto	14
▁kidnapping	14
▁Flo	14
▁buffalo	14
▁immunize	14
▁kelp	14
▁Nova	14
▁remorse	14
▁judicia	14
▁Jamaican	14
▁una	14
▁reassemble	14
▁Guil	14
▁novelist	14
wn	14
▁characterize	14
▁tier	14
▁conserv	14
▁Gee	14
▁hotspot	14
▁soybean	14
▁lid	14
▁coarse	14
▁Sela	14
▁truthful	14
▁approximation	14
▁Kerr	14
▁transcendent	14
▁Agricultur	14
▁urchin	14
▁Cameroon	14
▁Leban	14
▁pois	14
▁detaine	14
custome	14
▁Senator	14
teful	14
mega	14
▁Kickstarter	14
▁strangl	14
erence	14
▁SA	14
▁Tasmania	14
▁mop	14
▁Shen	14
▁fragrance	14
▁gha	14
▁Path	14
pex	14
▁Bam	14
▁Dol	14
▁Aveli	14
▁jit	14
iform	14
marin	14
into	14
▁Share	14
ipher	14
▁immersi	14
▁geyser	14
▁amphibian	14
▁beacon	14
▁Complete	14
▁grandmaster	14
▁Faiza	14
▁Kins	14
▁Transition	14
▁stent	14
▁Kick	14
▁excavat	14
▁probiotic	14
▁astrolabe	14
▁Gayl	14
▁throwaway	14
▁Bage	14
▁Chech	14
▁Doh	14
▁Scoop	14
▁Owen	14
▁Thula	14
▁comb	13
▁recap	13
▁Vin	13
▁Carbon	13
▁Jet	13
▁Lear	13
riff	13
▁cutter	13
row	13
▁Buckminster	13
▁Fuller	13
▁Hack	13
▁rampa	13
▁radiate	13
▁financ	13
▁Tol	13
pole	13
▁presiden	13
usp	13
▁conserve	13
▁genealog	13
▁starch	13
▁rehearse	13
▁banal	13
aries	13
▁dubi	13
▁inspector	13
▁Hang	13
▁McLuhan	13
▁domesticate	13
▁bothers	13
▁trawl	13
▁Clinic	13
▁TH	13
▁Dust	13
▁residence	13
▁supernatural	13
▁whistleblower	13
▁Diplomat	13
▁advis	13
▁magnifi	13
▁complacen	13
eline	13
▁pu	13
▁contempt	13
▁Lie	13
▁fluorescen	13
▁delta	13
▁enslav	13
▁Tw	13
▁Dry	13
▁escort	13
ante	13
▁authoriz	13
▁Want	13
tooth	13
▁commut	13
▁Tod	13
sale	13
lus	13
▁Bernard	13
▁entail	13
link	13
▁colossal	13
dia	13
▁fare	13
unity	13
▁captiv	13
nger	13
▁Beside	13
NH	13
▁prophec	13
▁ferr	13
▁Cyber	13
▁lobster	13
▁repetiti	13
▁coherenc	13
ON	13
▁filth	13
▁electromagnet	13
▁clogg	13
▁hallmark	13
▁replenish	13
▁Ethan	13
▁Protest	13
▁Linked	13
▁sprout	13
▁Latino	13
heart	13
▁undesir	13
elle	13
▁Nucle	13
▁unc	13
▁proceeding	13
▁Grann	13
▁cannon	13
▁rescu	13
▁Tai	13
▁parasit	13
▁Charter	13
▁Jung	13
escent	13
▁Drug	13
▁toxicit	13
▁debilitat	13
▁disorient	13
reasonable	13
▁Athen	13
did	13
▁arch	13
▁pollute	13
iev	13
win	13
bran	13
▁complian	13
▁Mira	13
credit	13
▁gluten	13
▁barbecue	13
▁dealers	13
▁Adult	13
▁videotape	13
▁unions	13
ndi	13
lima	13
▁contextual	13
▁palpabl	13
▁Explorer	13
▁kiosk	13
spective	13
una	13
▁smiley	13
▁thousandth	13
▁Glacier	13
people	13
▁rhyme	13
▁Hai	13
▁expo	13
▁Industr	13
▁Chen	13
peror	13
bath	13
▁Utopia	13
▁defensive	13
ometric	13
▁conceal	13
▁disclosure	13
idi	13
▁Colon	13
▁crowdsource	13
▁invisib	13
polis	13
utum	13
▁ignit	13
▁epidemiolog	13
▁Lance	13
▁swell	13
▁Bla	13
747	13
▁linguist	13
▁Reddit	13
▁Vote	13
▁recyclable	13
▁styl	13
▁caffein	13
▁steadi	13
▁validat	13
burn	13
del	13
anga	13
▁Sach	13
▁hal	13
▁nav	13
▁eleven	13
▁lust	13
▁peck	13
▁succumb	13
▁Principle	13
▁Kamen	13
▁haircut	13
▁kisse	13
▁demolish	13
▁reign	13
▁overlapp	13
▁overdose	13
▁sip	13
▁reco	13
▁Nin	13
▁calibrat	13
▁reunion	13
▁breeze	13
▁darn	13
▁Treasur	13
▁bastard	13
▁airbag	13
▁blush	13
▁culprit	13
▁Rott	13
▁plaza	13
▁Witt	13
ennial	13
▁Cook	13
▁Words	13
▁motel	13
spiration	13
ried	13
reconceive	13
erine	13
▁Cow	13
▁complementar	13
▁Marie	13
▁labyrinth	13
▁ascend	13
▁moss	13
▁runaway	13
▁spher	13
▁phon	13
▁counteract	13
bject	13
▁isotope	13
▁municipalit	13
▁Jaw	13
▁barre	13
▁rung	13
▁slick	13
▁gamble	13
▁EPA	13
▁displace	13
▁Clay	13
▁undoubt	13
▁Ow	13
iscons	13
▁vici	13
▁Chapter	13
▁heighten	13
▁sift	13
▁ballistic	13
▁warden	13
▁ec	13
▁Win	13
▁spearhead	13
▁Eagle	13
▁hashtag	13
▁mon	13
▁Opera	13
▁subsidiz	13
▁Command	13
storm	13
▁Highway	13
▁titani	13
▁hexagon	13
▁devastation	13
assic	13
leigh	13
▁hap	13
▁auntie	13
▁Knight	13
▁reset	13
▁Curiosit	13
▁barcode	13
xi	13
asia	13
▁spectator	13
▁conductiv	13
▁HC	13
▁dessert	13
▁acu	13
▁Natali	13
▁cyberattack	13
▁purposeful	13
▁Whale	13
▁conservationist	13
nterface	13
▁Luca	13
▁mechanistic	13
▁Gaga	13
RS	13
▁Valdez	13
▁inhale	13
▁creed	13
▁flora	13
▁Spla	13
▁tactical	13
▁Him	13
▁Mist	13
▁chant	13
▁interconnect	13
▁speculate	13
▁nam	13
▁compartment	13
▁amputee	13
▁pediatric	13
▁registr	13
▁bunker	13
▁supervis	13
▁hardship	13
uran	13
▁tenaci	13
▁curate	13
▁cassette	13
▁directive	13
▁feminis	13
▁marit	13
▁Michelle	13
▁confer	13
urek	13
▁chap	13
▁reciprocal	13
strip	13
▁choreographer	13
▁sla	13
▁outsourc	13
▁darling	13
▁relegate	13
▁Immediate	13
▁investigati	13
screen	13
▁Bonnie	13
▁donkey	13
ulli	13
▁contaminate	13
▁craftsman	13
▁Gang	13
▁perma	13
▁graze	13
▁defecat	13
▁spong	13
▁Gun	13
▁Non	13
aux	13
▁OS	13
▁delegation	13
▁Salva	13
▁Macintosh	13
▁Naj	13
▁formulation	13
▁antique	13
▁tickle	13
sonar	13
▁mistrust	13
▁presumption	13
▁Univers	13
▁Rebe	13
▁Rive	13
▁subscribe	13
▁yacht	13
▁Shame	13
▁negativ	13
▁var	13
▁pH	13
▁Nir	13
▁epidemiologist	13
▁biomechanic	13
after	13
owitz	13
▁trench	13
▁interconnection	13
▁retailer	13
▁ya	13
▁localiz	13
consistent	13
▁slang	13
awkins	13
▁prosc	13
▁raid	13
▁crutch	13
▁departure	13
arily	13
zen	13
▁wiki	13
▁revert	13
▁mach	13
▁pupil	13
▁frown	13
▁superficial	13
▁Nar	13
▁Oz	13
▁caution	13
▁thorn	13
▁stereotypical	13
▁cramp	13
▁junkie	13
▁propriet	13
ieber	13
usie	13
▁Race	13
▁witnesse	13
▁sculptural	13
raba	13
▁stitch	13
▁starve	13
▁refuge	13
idge	13
▁Chan	13
▁Hands	13
▁Victoria	13
idal	13
▁monet	13
▁relat	13
▁submerge	13
▁chainsaw	13
▁chimney	13
▁cosmologist	13
irming	13
▁eagle	13
▁Apart	13
▁clearance	13
▁rhinovirus	13
▁capillar	13
▁cushion	13
▁Emergenc	13
▁Sandy	13
▁barber	13
▁arable	13
etter	13
hou	13
▁dismay	13
▁orchid	13
▁remnant	13
catch	13
▁hospice	13
▁narcissist	13
▁bloodline	13
ude	13
▁cou	13
▁Ideal	13
▁Mah	13
ozy	13
▁Committe	13
▁Diamond	13
▁Butler	13
▁breathtaking	13
▁Lynn	13
▁denounce	13
fus	13
▁retrospect	13
▁windshield	13
pod	13
▁Coach	13
▁Sty	13
hu	13
▁Tric	13
▁decorati	13
▁boast	13
▁Hor	13
rofo	13
▁shooter	13
▁Hurt	13
▁shuffl	13
▁shipyard	13
▁frantic	13
elli	13
▁Poll	13
▁Effect	13
SC	13
▁Adrian	13
▁Bilb	13
semen	13
▁clutter	13
▁Claus	13
▁mania	13
▁marshmallow	13
▁Scrapper	13
▁Brigade	13
atops	13
▁Furby	13
▁PCB	13
loid	13
zero	13
ipper	12
uru	12
▁Monet	12
▁justifi	12
▁neon	12
iable	12
▁Volvo	12
▁Mozambi	12
▁archiv	12
▁groove	12
▁evocati	12
▁Compar	12
blood	12
▁flatter	12
case	12
isco	12
uza	12
▁unify	12
▁constituent	12
▁fiddle	12
▁renown	12
▁cheetah	12
▁Bur	12
▁undergrad	12
▁Vander	12
▁barbaria	12
boat	12
▁electrifie	12
▁Extra	12
▁chu	12
▁hundredth	12
ynthetic	12
▁critter	12
ental	12
▁reframe	12
tick	12
▁Express	12
▁Rad	12
▁critique	12
▁Yugoslav	12
▁ecstas	12
variabl	12
▁latch	12
▁clutch	12
▁Pool	12
▁LOLcat	12
pour	12
▁Tab	12
▁successive	12
▁Kazak	12
izer	12
▁restorati	12
▁bachelor	12
▁herring	12
▁Holland	12
▁frail	12
▁Clo	12
▁Blind	12
▁Drive	12
▁Speed	12
ylon	12
▁romanticize	12
cation	12
▁repress	12
▁referral	12
▁spat	12
▁thirty	12
▁skateboard	12
▁hone	12
▁safeguard	12
gow	12
▁NE	12
▁dar	12
▁diagonal	12
▁Designer	12
▁commonalit	12
▁coincide	12
▁gi	12
▁vial	12
▁Robins	12
▁outfit	12
▁Choice	12
▁abolish	12
▁preoccup	12
▁lurk	12
known	12
▁indiscriminate	12
▁consolidat	12
▁splendid	12
▁dub	12
lie	12
minent	12
▁Ang	12
▁Corp	12
▁plumber	12
▁parody	12
▁microsecond	12
obal	12
▁DC	12
▁shutter	12
▁Robin	12
▁amplifie	12
▁spice	12
▁vine	12
▁nutritio	12
▁Arno	12
ilence	12
▁sausage	12
▁modernist	12
vant	12
▁Rubi	12
▁Tora	12
▁Kera	12
▁grizzl	12
▁insurgent	12
▁Christin	12
▁doorstep	12
▁spur	12
ched	12
▁bash	12
▁Announce	12
bon	12
oni	12
▁Mushroom	12
▁feeder	12
spar	12
▁Craz	12
▁Ezra	12
▁Declar	12
ethos	12
held	12
bank	12
▁understate	12
▁mart	12
▁Elv	12
▁metaboliz	12
▁desolate	12
▁issu	12
▁Moderat	12
▁informati	12
▁peasant	12
▁titan	12
cle	12
▁descen	12
▁LA	12
▁Anders	12
▁Giv	12
▁sec	12
koko	12
▁bankrupt	12
will	12
▁jogg	12
▁Bin	12
▁Navi	12
▁flopp	12
▁Shaw	12
▁leash	12
▁dwindl	12
oxic	12
haraoh	12
▁Wiki	12
▁fe	12
▁reintroduce	12
▁District	12
▁Folk	12
▁guardian	12
ruct	12
▁immunization	12
▁regress	12
▁sadde	12
▁tast	12
▁qualification	12
usa	12
▁homeland	12
▁Magn	12
▁futil	12
▁Month	12
▁urbanis	12
▁rever	12
▁commemorat	12
▁sentenc	12
▁Eisen	12
▁chopp	12
▁Surge	12
▁Grab	12
▁constitutional	12
ria	12
ptu	12
▁Gilli	12
▁Blackberry	12
▁Kite	12
▁oppose	12
▁disma	12
▁Carro	12
▁renovat	12
▁lexicograph	12
▁retrospective	12
▁Dys	12
▁Joan	12
▁senator	12
▁outlook	12
▁diner	12
omic	12
▁Blak	12
▁shortcoming	12
pparent	12
rift	12
▁Huck	12
▁bot	12
▁glider	12
▁biochemical	12
▁bullshit	12
▁rhythmic	12
readnought	12
▁Liver	12
▁bandage	12
▁distortion	12
▁spik	12
▁dissonance	12
▁consisten	12
▁internalize	12
▁Jabb	12
▁payback	12
▁Pot	12
finance	12
▁Collect	12
▁depletion	12
ugh	12
▁coincidental	12
▁translucen	12
▁sanct	12
▁proactive	12
▁amoeba	12
tain	12
▁scent	12
▁dialect	12
▁speculati	12
▁Temple	12
▁clich	12
▁solver	12
ethical	12
leton	12
▁dissipate	12
▁timescale	12
▁Lindberg	12
▁dweller	12
▁tang	12
misphere	12
▁Coral	12
ace	12
▁Dog	12
▁tumbl	12
▁Columb	12
▁mislead	12
▁crystalliz	12
▁intake	12
▁contraption	12
▁Bris	12
▁tidy	12
▁illitera	12
▁proclaim	12
mun	12
▁turkey	12
▁Ci	12
▁RD	12
▁entangle	12
▁prosecution	12
▁Paleo	12
▁dwelling	12
▁disciplinar	12
ethyl	12
rump	12
▁dips	12
orne	12
▁Brent	12
convenient	12
▁darken	12
▁Fiji	12
orium	12
nuclea	12
▁Hein	12
▁ja	12
▁tickl	12
▁polarit	12
▁cha	12
▁telegraph	12
▁Crisis	12
▁swapp	12
▁Audi	12
▁sledge	12
dina	12
▁situat	12
▁millionaire	12
▁interpla	12
▁Mmm	12
▁circulate	12
▁whal	12
▁puddle	12
hasa	12
▁gasse	12
▁Medic	12
▁myriad	12
ench	12
▁Creat	12
▁Samar	12
▁conjecture	12
abha	12
▁Program	12
▁deconstruct	12
▁crafts	12
▁democratize	12
▁unwilling	12
▁freed	12
▁CE	12
▁retrofit	12
▁Hour	12
▁Raja	12
aunt	12
▁Route	12
cautious	12
▁Spirit	12
▁CDC	12
▁modulate	12
▁shack	12
plankt	12
▁Eno	12
▁gem	12
nnett	12
▁reviewer	12
▁libertarian	12
▁glide	12
▁canyon	12
▁utopian	12
▁endure	12
▁Hippocrat	12
uja	12
▁Robbi	12
llows	12
▁id	12
▁roast	12
▁divin	12
▁adjustment	12
▁sailor	12
▁sourc	12
▁Rain	12
nect	12
▁Hugh	12
▁Box	12
skill	12
▁chatter	12
▁unconta	12
biotic	12
▁symbiotic	12
▁giga	12
▁toothp	12
▁pseudo	12
▁wretche	12
▁Sand	12
niz	12
▁endowment	12
osaurus	12
▁gasp	12
▁swift	12
▁footnote	12
nick	12
▁Lenn	12
▁tenta	12
▁qua	12
▁miserabl	12
▁calamit	12
▁masculin	12
▁shrub	12
AIDS	12
▁juxtaposition	12
▁Ferm	12
▁botanical	12
▁maid	12
uri	12
cep	12
▁recursive	12
▁navigat	12
▁mug	12
▁naturalist	12
▁eminent	12
▁funnel	12
▁Levin	12
▁subtitle	12
▁Newcast	12
▁Wake	12
▁affectionate	12
▁retard	12
▁rotor	12
izzy	12
▁Dud	12
▁rev	12
ague	12
▁unconditional	12
rand	12
gill	12
▁deput	12
▁grit	12
▁Weather	12
▁Classic	12
▁advert	12
▁Prosper	12
▁contracepti	12
▁perfume	12
▁orchestrate	12
▁Ultra	12
▁repay	12
▁BE	12
▁hysterical	12
NK	12
▁petrochemical	12
▁scaveng	12
▁unsu	12
▁prolif	12
▁swoop	12
▁alley	12
▁revolv	12
▁consultation	12
▁neurosurgeon	12
▁tractor	12
▁Sky	12
pin	12
ivore	12
wall	12
▁protector	12
▁Mine	12
▁Mona	12
▁padd	12
▁rut	12
ourne	12
▁interdependen	12
plex	12
▁insufficient	12
▁Hawaiian	12
▁youthful	12
▁megabyte	12
▁proteomic	12
▁Hoo	12
▁oncologist	12
onologue	12
▁pota	12
▁assay	12
icide	12
▁Photograph	12
▁Violen	12
▁fluff	12
▁gill	12
▁cherr	12
▁Capital	12
▁Origin	12
▁Twin	12
▁dispersant	12
▁Corexit	12
▁bride	12
▁splash	12
▁actuator	12
▁tanker	12
ieu	12
▁Hart	12
nted	12
▁implicat	12
xter	12
▁jirga	12
▁cyborg	12
▁Romantic	12
▁absorpti	12
▁Burr	12
▁LOL	12
▁Anne	12
▁Darwinis	12
▁Beth	12
▁Jani	12
▁crate	12
▁caterpillar	12
▁joystick	12
FC	12
▁Hunt	12
wards	12
▁Somali	12
▁typograph	12
▁fleeting	12
tha	12
▁plutonium	12
▁Sophi	12
▁Cage	12
▁Cra	12
ject	12
▁frack	12
▁Bandu	12
▁Ata	12
lliance	12
▁Inc	12
▁WorldWide	12
▁peacebuild	12
▁List	12
ahedron	12
▁Lick	12
▁torque	12
▁Lof	12
Lab	12
▁Rosi	12
milk	12
▁Pleuro	12
▁memetic	12
▁Fras	12
▁mockingbird	12
ssex	12
▁Justin	12
▁Kiva	12
ggy	12
▁adhesive	12
▁floss	12
▁Skycar	12
▁Peer	12
▁recline	12
Justine	12
Len	12
▁Sho	11
▁burger	11
▁tabletop	11
▁pavement	11
cloth	11
▁Feminist	11
▁capp	11
eras	11
tuition	11
▁Caucas	11
▁Frederic	11
▁sunrise	11
▁trapping	11
▁sophomore	11
▁mute	11
▁anesthetic	11
▁enigma	11
▁mafia	11
due	11
▁patroll	11
▁registration	11
▁Identi	11
▁impersona	11
▁Pala	11
trust	11
▁Shaba	11
▁diversif	11
▁poach	11
▁eeri	11
vantage	11
▁successor	11
▁Tend	11
bin	11
▁squint	11
▁gardener	11
▁Wonderful	11
▁Urban	11
▁Milit	11
▁prick	11
▁boulder	11
▁pilgrimage	11
▁catheter	11
ailing	11
▁voil	11
asca	11
ainforest	11
▁Babylonian	11
▁longitud	11
▁Target	11
▁diaper	11
▁Fold	11
elve	11
▁skat	11
▁correspondence	11
▁procrastinat	11
▁retriev	11
▁deviation	11
▁silo	11
▁fil	11
inform	11
▁effortless	11
▁Shadow	11
▁Kam	11
torial	11
ubert	11
▁Member	11
▁tracker	11
▁accusation	11
▁broadcaster	11
ystic	11
▁Siri	11
▁premier	11
▁multiplicati	11
▁Horn	11
▁governors	11
vald	11
▁conven	11
atch	11
AT	11
trol	11
▁barn	11
sava	11
▁Micro	11
▁doorway	11
▁electrochemi	11
▁hilarious	11
▁catcher	11
▁Chef	11
▁graft	11
▁unbearabl	11
▁Pra	11
▁turm	11
▁Scandinavia	11
▁Sey	11
▁trim	11
anguish	11
▁Pandora	11
▁Kro	11
▁Meyer	11
▁seism	11
▁aphid	11
hib	11
▁Female	11
▁salv	11
▁abdomen	11
▁Locke	11
▁motorbike	11
▁Travel	11
▁Ric	11
▁aromat	11
▁imprint	11
▁Timo	11
▁remediat	11
▁expire	11
▁vener	11
pecific	11
▁granddad	11
▁corona	11
▁sprinkle	11
▁Byr	11
tress	11
▁Desc	11
artes	11
▁bracket	11
▁breadwinner	11
▁Mile	11
▁rapper	11
▁troll	11
uca	11
▁Convers	11
sidious	11
▁personalize	11
▁Woods	11
▁permeate	11
▁slapp	11
afi	11
stonia	11
▁Period	11
▁ordinari	11
▁UC	11
raib	11
vo	11
▁Grame	11
ution	11
▁Culture	11
▁EV	11
tcom	11
▁Direct	11
Ex	11
▁Fer	11
▁Iron	11
▁petri	11
▁Creativ	11
▁skipp	11
▁mime	11
▁Transparen	11
▁creationist	11
erative	11
▁northwest	11
▁crippl	11
normal	11
▁Balle	11
▁quirk	11
▁Eil	11
▁momm	11
▁panda	11
▁cataract	11
bling	11
▁mush	11
▁squash	11
▁Elder	11
▁Success	11
▁blockbuster	11
▁prose	11
▁alienat	11
▁Hirsh	11
▁dipp	11
ctur	11
▁Tata	11
▁Memori	11
eers	11
▁Knee	11
▁Capit	11
▁lobbyist	11
rruption	11
bane	11
▁conspir	11
▁Beat	11
▁disseminate	11
▁perch	11
▁reviv	11
▁alternat	11
▁picnic	11
▁burrow	11
▁delegate	11
▁redistribut	11
▁agitat	11
▁tangle	11
eeming	11
sensitive	11
▁Sign	11
▁Dew	11
▁Lock	11
▁muck	11
▁Madam	11
▁Finn	11
TH	11
▁economical	11
▁spec	11
▁propagate	11
▁avert	11
▁Experiment	11
▁Sweet	11
regulat	11
▁soundtrack	11
aku	11
▁topograph	11
▁endow	11
▁Empath	11
▁milligram	11
page	11
www	11
▁serendipit	11
▁archetype	11
▁cobble	11
▁goo	11
▁thermodynamic	11
▁Gravit	11
▁waterproof	11
▁Gross	11
▁Mis	11
▁Lex	11
▁Architect	11
▁Hux	11
▁ephe	11
meral	11
▁scout	11
▁osteo	11
▁Access	11
▁impossibilit	11
dam	11
▁freezer	11
▁crossroad	11
▁emulat	11
▁ridd	11
▁unambiguous	11
die	11
▁tub	11
▁Press	11
quat	11
▁Enjoy	11
▁overlay	11
pock	11
dium	11
▁Angelin	11
▁euphori	11
▁misinform	11
amer	11
▁turbulen	11
▁wiper	11
▁Eleven	11
▁perk	11
▁Schr	11
▁bud	11
▁ugli	11
rance	11
▁oblige	11
▁Hungar	11
iz	11
▁reel	11
▁imperfection	11
▁Pam	11
▁Perc	11
▁Uni	11
▁Perr	11
▁reconfigur	11
▁autos	11
▁menopaus	11
▁perverse	11
▁Mouse	11
▁Kir	11
hin	11
lga	11
▁hetero	11
▁riders	11
▁lobbie	11
▁climax	11
▁Shin	11
▁Ear	11
▁elicit	11
Built	11
▁prosecute	11
▁bonuse	11
▁ensur	11
▁Reach	11
▁binocular	11
▁KI	11
▁custod	11
▁qui	11
lider	11
▁subtract	11
hstan	11
▁Beaut	11
▁Electro	11
▁flicker	11
▁Reef	11
▁flake	11
schel	11
▁snatch	11
▁discretion	11
▁Fight	11
▁entitlement	11
▁accelerometer	11
▁possum	11
▁Adi	11
▁breaker	11
▁Mik	11
▁anthrop	11
fire	11
▁condense	11
▁sour	11
nstop	11
▁chronological	11
▁Biolog	11
▁frostbit	11
▁clump	11
▁fossilize	11
▁almond	11
▁ensu	11
▁additive	11
ames	11
▁deteriorate	11
▁Sandr	11
▁capsize	11
▁dash	11
▁straighten	11
▁auro	11
▁converse	11
▁eff	11
rium	11
▁Join	11
▁Cause	11
▁quota	11
▁gigabyte	11
▁Bonne	11
▁Advanc	11
▁Leah	11
▁Bosnian	11
▁PG	11
▁tournament	11
▁Jeep	11
▁vaccinate	11
OM	11
cchi	11
▁Guin	11
▁layout	11
▁coating	11
▁banish	11
▁Hondura	11
ipur	11
centric	11
▁Regard	11
treat	11
▁abrupt	11
scale	11
gulf	11
▁unchar	11
▁goddess	11
▁Kahn	11
scribe	11
▁Chev	11
▁outsource	11
▁Intelligent	11
▁randomize	11
nan	11
▁specification	11
roy	11
▁lagg	11
▁takeoff	11
▁fusi	11
gur	11
▁gigawatt	11
▁veterinar	11
woman	11
▁deliberation	11
▁Ellen	11
▁muffin	11
▁wheeler	11
▁clunk	11
▁reprogram	11
▁Wool	11
▁bount	11
▁sine	11
▁urg	11
apest	11
nvisibl	11
▁cla	11
▁cartograph	11
▁farthe	11
realistic	11
▁quarry	11
▁perpetuate	11
▁lateral	11
protect	11
▁juic	11
wan	11
itude	11
RCA	11
▁Popular	11
▁sentimental	11
▁Bund	11
▁Kai	11
▁Shut	11
▁carpool	11
▁scour	11
▁colonialis	11
▁ru	11
▁amputate	11
▁informant	11
▁sparse	11
hem	11
▁Summi	11
▁Bac	11
udi	11
▁overtake	11
▁catapult	11
▁academ	11
▁frivolous	11
▁proto	11
▁quadriplegi	11
▁stagnat	11
▁reappear	11
▁infanc	11
olite	11
▁futurist	11
▁Ott	11
▁mitochondria	11
▁scooter	11
▁zipp	11
▁breakup	11
▁inverse	11
▁Kelvin	11
▁Metropoli	11
linear	11
▁ranger	11
▁Archive	11
▁Casa	11
vor	11
▁bidd	11
▁recurr	11
▁Geo	11
argass	11
▁plight	11
▁restraint	11
▁inconsistenc	11
▁Fact	11
ueensland	11
▁supervisor	11
▁enshrin	11
▁Ivo	11
▁Scal	11
utt	11
▁stealth	11
▁confound	11
▁warhead	11
phil	11
▁whims	11
▁Buddhis	11
▁Mag	11
akash	11
▁accompany	11
▁lenti	11
▁regrow	11
lot	11
▁lattice	11
SS	11
guan	11
▁landlord	11
▁unmann	11
▁sunk	11
▁gelatin	11
nese	11
nky	11
▁streak	11
bart	11
▁bubbl	11
▁murmur	11
▁tumble	11
▁ditch	11
▁dissertation	11
Cause	11
▁McKin	11
ander	11
▁miscarri	11
▁Preg	11
▁disintegrat	11
MT	11
▁commuter	11
▁depiction	11
abo	11
▁deathbed	11
ncyclopedia	11
▁glut	11
▁router	11
▁relieve	11
▁superinte	11
▁fingernail	11
▁taint	11
▁mus	11
▁lumber	11
▁Hama	11
▁misinterpret	11
aster	11
▁Kha	11
▁brittle	11
▁nozzle	11
▁orb	11
▁Fro	11
Murdo	11
▁streamlin	11
idden	11
▁fable	11
▁displacement	11
▁womb	11
▁cortiso	11
▁contaminant	11
–	11
▁adventur	11
gham	11
▁rebreather	11
▁territorial	11
▁parabola	11
▁adhere	11
▁ferocious	11
▁skillful	11
efront	11
▁Bess	11
bias	11
▁barbers	11
pop	11
▁Tap	11
▁Glori	11
▁sunflower	11
▁blockage	11
▁Confuci	11
▁perceiv	11
borough	11
acle	11
▁scrutin	11
▁kangaroo	11
▁slab	11
▁tempo	11
iki	11
▁firefighter	11
▁unprepared	11
▁sandstone	11
▁Theodo	11
sek	11
▁riddle	11
▁Fra	11
▁sitcom	11
▁Minute	11
▁Wave	11
▁km	11
▁trumpet	11
▁Sens	11
City	11
▁spoon	11
▁Chop	11
▁filmmak	11
▁magne	11
▁nann	11
▁Sherm	11
▁Moll	11
▁capitaliz	11
▁inert	11
theism	11
▁Lauren	11
frost	11
▁uni	11
vidian	11
cama	11
hil	11
▁Curt	11
▁trickster	11
illi	11
mour	11
▁tembere	11
▁courtroom	11
▁subscription	11
▁Atlas	11
▁boycott	11
▁Improv	11
▁Euclid	11
▁glaci	11
▁hustle	11
SHA	11
▁acro	11
CK	11
▁Vivi	11
▁Hazara	11
▁Goth	11
▁moonshot	11
▁teme	11
▁Heal	11
▁spoofer	11
▁bioen	11
▁Googler	11
▁Somer	11
rkat	11
▁Cloni	11
loop	11
▁PalmPilot	11
▁omega	11
▁liminal	11
▁refuel	10
▁Letter	10
▁mosaic	10
▁Salt	10
▁commercializ	10
▁specifi	10
▁Alp	10
▁Commerc	10
▁triangula	10
▁wit	10
▁Equal	10
pal	10
ager	10
stoy	10
▁anecdotal	10
▁hobbi	10
glass	10
▁conceit	10
▁coyote	10
▁Pino	10
▁genitali	10
ama	10
▁console	10
▁narcotic	10
CM	10
▁babe	10
▁sac	10
wheel	10
▁intensifi	10
▁ecsta	10
▁abus	10
▁CSI	10
▁militia	10
▁uncommon	10
▁mussel	10
▁Burg	10
▁healer	10
▁admitt	10
Cash	10
elic	10
▁JE	10
▁reconsider	10
▁scorpion	10
▁skylight	10
▁villain	10
tat	10
▁syllable	10
▁interst	10
▁skater	10
▁Kol	10
▁zebra	10
rong	10
▁Fernand	10
▁pic	10
▁Leib	10
▁Kill	10
tron	10
▁mindless	10
▁Conscious	10
▁deterrent	10
ntu	10
▁predat	10
▁connotation	10
▁Alg	10
▁unbe	10
▁modem	10
iva	10
▁Brunel	10
presence	10
itzer	10
▁Martine	10
▁Roth	10
▁Damas	10
▁snowball	10
▁Production	10
▁hush	10
▁mortar	10
▁grandkid	10
▁volatil	10
still	10
▁wig	10
▁eject	10
▁Kool	10
▁Gott	10
▁fertilize	10
▁ple	10
▁Governor	10
▁Centur	10
▁Larami	10
▁comeback	10
▁sacrific	10
▁intrigue	10
iring	10
▁Ap	10
▁institutionaliz	10
▁Wagner	10
▁inconvenience	10
▁scor	10
▁corpse	10
▁sati	10
▁soot	10
▁ti	10
▁rightful	10
▁invok	10
raille	10
emise	10
naut	10
▁reshap	10
iah	10
▁habe	10
▁incentivize	10
▁cohort	10
rma	10
▁aristocra	10
▁Ambassador	10
▁gratuitous	10
▁pimp	10
map	10
▁empathetic	10
▁pelvi	10
▁shovel	10
▁Fuku	10
▁fixate	10
▁subscriber	10
▁blaz	10
▁preview	10
▁briquette	10
▁deduc	10
▁Artist	10
▁lender	10
▁damp	10
▁formidabl	10
sche	10
genic	10
Me	10
▁Anas	10
▁archaeologist	10
▁restor	10
▁Enr	10
▁org	10
▁indulge	10
hai	10
▁Match	10
▁enslave	10
▁Sab	10
▁Lay	10
▁Sacr	10
▁Hunting	10
▁inferr	10
▁Winni	10
▁Liz	10
▁Eli	10
▁amplification	10
▁Arav	10
▁bilingual	10
▁Paula	10
▁foil	10
▁Ridge	10
▁emblem	10
▁Chau	10
gist	10
hower	10
▁Block	10
▁Dow	10
▁retract	10
endgame	10
▁logistical	10
▁predictor	10
▁proverbial	10
▁dreamer	10
▁Khal	10
▁rewrite	10
baba	10
upper	10
▁pedagog	10
happiness	10
▁stru	10
▁Upp	10
▁beak	10
▁endorse	10
wei	10
▁Metaphor	10
▁dilut	10
▁majest	10
▁stewards	10
▁hoc	10
▁idol	10
▁Mer	10
▁surreal	10
▁Basin	10
▁externalit	10
▁Daily	10
▁attentive	10
▁doughnut	10
▁Ada	10
▁minaret	10
▁disrespect	10
▁precondition	10
comb	10
vision	10
mouth	10
▁trump	10
▁repurpos	10
▁frenz	10
▁sal	10
▁Egg	10
▁frauds	10
▁statu	10
▁trac	10
▁handwash	10
broken	10
hound	10
▁substitution	10
▁depart	10
inson	10
▁Pray	10
▁utopia	10
▁Polar	10
▁dams	10
conventional	10
▁Mini	10
▁slack	10
bug	10
ffer	10
ibu	10
▁Cath	10
▁scribble	10
▁Wol	10
ita	10
▁Cret	10
▁quartz	10
▁shred	10
njunction	10
▁invoke	10
▁cryptic	10
grunt	10
▁presume	10
▁Silk	10
akh	10
▁Wealth	10
▁flux	10
▁restrain	10
▁erode	10
▁Burt	10
thri	10
kill	10
opulation	10
▁decoupl	10
▁Francesc	10
deli	10
therap	10
▁Ironic	10
▁farmland	10
▁Male	10
▁morpholog	10
▁Meet	10
ido	10
▁enthusiast	10
chlor	10
▁enchant	10
▁captive	10
▁airb	10
▁Tamp	10
▁gal	10
▁Xiao	10
▁rugged	10
▁laminate	10
ei	10
▁fanatic	10
▁Anni	10
▁preconception	10
▁sneeze	10
▁reiterate	10
fusing	10
▁bale	10
▁decreas	10
▁dart	10
▁Ski	10
▁diligent	10
▁brainwave	10
▁Thought	10
▁dime	10
▁grandson	10
▁subtraction	10
wire	10
▁mango	10
▁patt	10
culin	10
bat	10
▁Kafka	10
▁Ordinar	10
nuck	10
▁truce	10
▁grum	10
▁categorize	10
▁expend	10
▁tireless	10
▁consecutive	10
▁loudspeaker	10
▁engrav	10
▁deluge	10
▁gunfi	10
▁tread	10
▁alibi	10
▁Frog	10
▁Tibetan	10
▁pasture	10
▁symbolism	10
▁factual	10
▁ulcer	10
▁communica	10
▁beneficiar	10
▁destabiliz	10
▁sectarian	10
▁loft	10
▁Okapi	10
▁Yar	10
▁irreversibl	10
▁Bless	10
▁affirmation	10
▁repel	10
▁catalyze	10
▁oppressi	10
▁Nicola	10
▁allergi	10
▁receipt	10
▁gourmet	10
▁forge	10
▁eavesdrop	10
▁Algerian	10
▁photovoltaic	10
▁Matter	10
▁remodel	10
▁Sisyph	10
▁Push	10
▁interruption	10
▁placement	10
▁Hany	10
▁Sami	10
fal	10
▁Excel	10
▁drumm	10
▁evangelical	10
▁Hew	10
pool	10
oko	10
ickel	10
▁Hamme	10
▁Kni	10
eller	10
▁Purpl	10
▁resent	10
▁pathogenic	10
▁glorifi	10
▁Sat	10
▁Ak	10
▁subvert	10
▁uninhabit	10
▁allegiance	10
bright	10
▁Madd	10
▁bacon	10
usk	10
▁curat	10
▁Patagonia	10
amount	10
▁telephon	10
educat	10
▁Montre	10
▁audi	10
▁Log	10
▁pra	10
▁nude	10
continent	10
▁semiconductor	10
▁Champ	10
▁weightless	10
social	10
▁til	10
▁horseshoe	10
▁speck	10
▁compartmentaliz	10
▁valu	10
▁rectang	10
▁dissatisf	10
▁Tob	10
▁Ado	10
▁saliva	10
▁Mahab	10
▁Brah	10
▁twinkl	10
▁twitch	10
▁Monro	10
▁perturbation	10
▁deprive	10
▁demobiliz	10
▁overstate	10
▁cosmopolitan	10
phage	10
rky	10
▁acoustician	10
▁escalate	10
▁torment	10
▁companions	10
▁vomit	10
▁swelling	10
▁cocoon	10
▁transcribe	10
▁Collaborator	10
▁chloro	10
▁SUV	10
▁zin	10
▁Anthropo	10
virus	10
▁Elio	10
▁fratern	10
▁Dirt	10
midst	10
▁utterance	10
▁interpersonal	10
▁Stick	10
▁Consumer	10
▁worshipp	10
▁Remarkabl	10
tract	10
hoenix	10
▁automate	10
trove	10
▁rapist	10
▁psyched	10
▁Berm	10
Bath	10
▁limp	10
▁Journalist	10
▁extrapolate	10
▁propel	10
▁reminisc	10
▁mor	10
▁humanize	10
▁normaliz	10
▁ju	10
▁colonoscop	10
▁Claud	10
▁prima	10
▁consorti	10
▁egalitarian	10
▁unknow	10
▁roadside	10
▁Firefl	10
▁blister	10
▁tripod	10
liver	10
▁Pu	10
▁Past	10
▁vanishing	10
cursion	10
▁comprehensi	10
▁quas	10
rmant	10
saver	10
▁breastfeed	10
▁babysitter	10
▁rake	10
▁Abo	10
▁coffin	10
▁dehumaniz	10
annica	10
▁earring	10
▁testicle	10
▁moan	10
▁transplantation	10
▁anesthetize	10
▁gloss	10
▁Leh	10
▁Bedouin	10
▁conquest	10
▁Denisovan	10
mpress	10
▁armpit	10
▁intolera	10
▁shiver	10
ruba	10
▁royalt	10
▁reveren	10
▁encapsulate	10
▁scourge	10
▁dynam	10
▁Tamil	10
▁vul	10
exist	10
▁expansive	10
▁spiderweb	10
▁meteorite	10
pulsion	10
iju	10
▁necklace	10
uten	10
▁Correct	10
▁finalist	10
▁Maasai	10
bridge	10
▁barricade	10
▁Gui	10
▁Oslo	10
▁Kurd	10
▁dand	10
▁Limo	10
▁bimetal	10
▁muse	10
▁Spread	10
▁reinvest	10
▁Matth	10
▁patrol	10
▁persuad	10
▁steriliz	10
▁sali	10
quin	10
▁audit	10
ugg	10
▁Physical	10
uent	10
▁galvaniz	10
tonewall	10
▁Cell	10
▁psychos	10
gras	10
witz	10
▁leaflet	10
▁Bats	10
asa	10
▁impostor	10
oodle	10
▁Table	10
▁infidel	10
▁tray	10
▁Moral	10
▁milkweed	10
▁disillusion	10
▁Paper	10
▁subsidize	10
▁Tunisian	10
▁irresponsibl	10
FO	10
▁holographic	10
▁inhibitor	10
▁phobia	10
arriage	10
▁LM	10
▁clench	10
gio	10
▁bodi	10
▁Dictionar	10
▁Mori	10
sophist	10
▁tame	10
▁Axi	10
▁circl	10
▁boggling	10
▁restroom	10
▁fox	10
▁auster	10
▁retaliat	10
▁Kob	10
ij	10
▁gee	10
achi	10
▁sneakerhead	10
▁biofluorescen	10
oque	10
▁Arman	10
▁Electronic	10
▁narcos	10
▁denie	10
▁epoch	10
▁Petri	10
otho	10
▁uphill	10
▁Sutherland	10
▁fright	10
▁bun	10
▁archaic	10
ctus	10
hot	10
▁unload	10
▁aggregat	10
uixot	10
▁interspe	10
▁brace	10
▁Gho	10
▁metastas	10
▁legislature	10
▁detonat	10
▁hypothesize	10
▁Gorge	10
▁epileptic	10
▁convulsion	10
▁Pythagor	10
akir	10
▁ballroom	10
▁DMCA	10
rgh	10
▁chatroom	10
▁yum	10
▁Definit	10
▁Cent	10
▁carp	10
▁Mathematic	10
▁wack	10
algae	10
uga	10
▁Sug	10
▁Columbian	10
▁infantry	10
▁rover	10
▁uber	10
▁stomatopod	10
echo	10
▁Flag	10
▁chorus	10
▁prosod	10
artu	10
▁Alis	10
▁waitress	9
▁Lux	9
▁Smithson	9
▁hemorrhag	9
unny	9
▁unrel	9
▁aquifer	9
▁Steel	9
▁techie	9
▁conditioner	9
▁gin	9
▁Dennis	9
▁bleak	9
▁Bright	9
plasma	9
TI	9
▁clown	9
▁memo	9
MB	9
▁formaldehyde	9
▁simplification	9
▁grapple	9
▁Euros	9
▁luc	9
▁cybercrim	9
ñ	9
▁flier	9
▁ROV	9
▁tribu	9
▁crum	9
▁Rumi	9
▁Front	9
▁Shell	9
▁genu	9
xious	9
▁safari	9
umba	9
▁Karen	9
▁knuckle	9
▁actua	9
▁au	9
ragg	9
▁agonizing	9
▁pathologist	9
▁illustrat	9
▁hotline	9
tuff	9
▁skate	9
lam	9
▁Vaccine	9
raf	9
▁Dap	9
▁optional	9
mite	9
government	9
▁Glas	9
Tech	9
▁CH	9
▁Watt	9
▁quadran	9
▁knight	9
▁Tam	9
▁Elliot	9
▁stabb	9
▁UCS	9
▁neurobiologist	9
▁abid	9
▁pap	9
ubun	9
lab	9
▁Schul	9
▁Album	9
lick	9
▁groan	9
▁Else	9
▁Laws	9
ega	9
▁Worker	9
▁Bangladeshi	9
▁genre	9
uckerberg	9
▁livestream	9
▁stutter	9
axo	9
▁conceptualize	9
▁Pul	9
▁vista	9
▁dispatch	9
▁broker	9
▁poignant	9
CH	9
▁Massi	9
▁illustrator	9
▁Affair	9
▁bipartisan	9
▁Problem	9
▁Ol	9
▁faction	9
▁constrict	9
ashion	9
▁compiler	9
▁trek	9
▁Dodge	9
▁indulgence	9
▁digesti	9
▁reorganize	9
▁totalitarian	9
▁Cambodian	9
▁Ignor	9
▁Prior	9
▁Moi	9
▁Ahmad	9
▁antiqu	9
▁brighten	9
▁Reformat	9
glob	9
lender	9
▁Kor	9
▁BA	9
dol	9
▁anatomical	9
▁Found	9
▁battalion	9
▁unsettl	9
▁kernel	9
prene	9
▁Brea	9
player	9
▁Flow	9
rthodox	9
▁termin	9
▁Danger	9
▁migrator	9
arty	9
mini	9
going	9
donna	9
▁pundit	9
▁Astro	9
▁cutaway	9
▁Conf	9
▁backdoor	9
▁Bitcoin	9
▁crumbl	9
▁testify	9
▁Admin	9
▁Jong	9
▁holo	9
practical	9
gali	9
▁inaction	9
▁circa	9
▁str	9
▁Hua	9
▁elde	9
▁throne	9
▁conclusive	9
▁Arch	9
▁Rum	9
▁Nichols	9
▁snowflake	9
▁glu	9
▁Tong	9
▁tenant	9
▁serendipitous	9
▁impenetrab	9
▁showcase	9
▁purport	9
▁swan	9
▁raisin	9
▁crescen	9
▁wisp	9
▁Jovi	9
endous	9
peg	9
▁playwright	9
▁Northeast	9
▁notch	9
▁foll	9
▁uneas	9
▁subtl	9
▁urbaniz	9
▁lent	9
▁devou	9
ears	9
▁Physician	9
tail	9
▁Sar	9
▁intro	9
▁semantic	9
▁crypto	9
▁foul	9
front	9
dec	9
▁franc	9
▁Nikola	9
▁ox	9
▁Operat	9
coat	9
▁Statistical	9
▁Disorder	9
ectom	9
▁Psychologi	9
andem	9
▁dispose	9
▁Bacteria	9
▁Walt	9
▁torpedo	9
▁microbiolog	9
▁aeronautic	9
▁Wur	9
▁lace	9
coma	9
▁Wish	9
ST	9
▁Hur	9
▁anthr	9
▁bro	9
▁Rabbi	9
▁pleas	9
▁prune	9
▁stirring	9
▁dilute	9
lios	9
▁respective	9
▁Bai	9
ference	9
▁gaz	9
MA	9
▁Kant	9
▁jumbo	9
▁cyclone	9
▁Neo	9
▁maim	9
▁Manag	9
▁blower	9
pot	9
guard	9
▁Proct	9
▁Gamb	9
▁borough	9
wig	9
▁Silver	9
▁mural	9
▁multitude	9
phe	9
▁bail	9
▁deba	9
ulent	9
span	9
▁felon	9
▁fascinate	9
unge	9
▁afar	9
▁Bia	9
face	9
▁Individual	9
▁nostril	9
▁misdiagnos	9
▁trivia	9
▁shipment	9
▁Pon	9
▁Finger	9
▁barr	9
▁ellip	9
▁polyp	9
rwin	9
▁radiat	9
▁Gay	9
▁Cambria	9
▁Hale	9
astro	9
desic	9
▁Initia	9
▁lush	9
▁del	9
▁revis	9
▁imply	9
▁stethoscope	9
nage	9
tolerance	9
▁terrace	9
▁Born	9
ninsula	9
▁Jok	9
phone	9
▁concession	9
▁Gambi	9
lever	9
vivor	9
▁incentiviz	9
▁Skeptic	9
▁concoction	9
kov	9
▁moonlight	9
▁flo	9
▁reassur	9
▁Mei	9
▁max	9
▁invertebrate	9
▁facto	9
nson	9
erge	9
▁comrade	9
▁gunshot	9
ropical	9
▁Begin	9
▁wobbl	9
uinea	9
▁Touch	9
▁Laureate	9
shade	9
▁sto	9
▁Pun	9
▁harr	9
▁Criminal	9
▁Carri	9
dict	9
track	9
▁rodeo	9
▁Graduate	9
▁solicit	9
▁wanna	9
▁Sel	9
US	9
▁transien	9
▁syllabus	9
▁grenade	9
exhausti	9
olar	9
▁climat	9
▁radiant	9
▁sniper	9
▁Method	9
cken	9
▁Meta	9
▁Tour	9
ime	9
▁merger	9
▁blackout	9
▁terawatt	9
▁Chamber	9
▁Southwest	9
▁Jump	9
▁varie	9
jet	9
▁congregation	9
▁Rev	9
▁astrophysic	9
trial	9
▁mover	9
oja	9
▁attic	9
▁Torture	9
▁spl	9
▁Ye	9
▁geometrical	9
▁drape	9
immer	9
▁unbor	9
tute	9
▁outcast	9
▁Serb	9
▁innoc	9
▁leftover	9
Fi	9
▁Tyrannosaur	9
▁Assembl	9
▁cadaver	9
▁PV	9
azzo	9
paper	9
kara	9
▁Write	9
▁Prius	9
▁Puer	9
▁Rest	9
▁proportionate	9
▁regrett	9
▁banner	9
publishe	9
▁Niels	9
▁bloat	9
▁override	9
▁colonize	9
mobile	9
▁clueless	9
▁Vacan	9
▁Pluto	9
romeda	9
▁expanse	9
▁haze	9
ludge	9
▁Taji	9
▁Sinclair	9
ographic	9
▁Indo	9
▁angst	9
▁formalize	9
▁betray	9
▁reintegrat	9
lvin	9
▁Kerm	9
▁reassure	9
▁Psycho	9
▁Mala	9
▁breeder	9
▁grappl	9
▁Fitz	9
▁driveway	9
▁Double	9
▁pulley	9
▁Connect	9
unta	9
own	9
LM	9
popular	9
▁AAA	9
▁gush	9
▁Combin	9
▁rete	9
school	9
olecular	9
bly	9
▁conduit	9
▁undisc	9
▁faucet	9
entry	9
ntern	9
▁Cartesian	9
suit	9
▁metaphysic	9
▁sharpen	9
▁painstaking	9
▁retro	9
▁fli	9
▁uncann	9
▁meditate	9
▁revive	9
aya	9
▁grann	9
▁Kun	9
diment	9
▁Ful	9
▁motorize	9
▁Carme	9
▁overflow	9
▁Edge	9
llusion	9
▁exacerbate	9
▁hypothermi	9
▁bestseller	9
▁Cost	9
▁halo	9
▁spasm	9
▁Bust	9
▁Photo	9
▁sulfate	9
▁Sardinia	9
▁bullie	9
▁permea	9
characterization	9
▁Opportunit	9
dust	9
▁escalator	9
uvre	9
wich	9
▁comp	9
week	9
▁mint	9
▁TG	9
▁scalp	9
▁Ferr	9
▁plead	9
▁periodical	9
ensus	9
run	9
▁hassle	9
▁inducte	9
▁Hear	9
▁headwind	9
▁pretzel	9
▁untouchable	9
▁misfortune	9
▁exterminat	9
▁Hug	9
▁Bon	9
▁Antoni	9
▁Bomba	9
▁exaggerate	9
▁ante	9
▁Caraca	9
▁yank	9
▁exuberan	9
▁morbid	9
hol	9
▁stroll	9
▁GM	9
▁tracing	9
peace	9
rut	9
▁Holi	9
▁demoraliz	9
▁Conne	9
▁Horizon	9
▁elude	9
arus	9
▁licens	9
▁extravagan	9
dispens	9
▁Kwa	9
▁delicac	9
▁crevasse	9
cumber	9
▁Incident	9
▁Nintendo	9
▁Merced	9
▁Pig	9
▁Vibrio	9
▁Engel	9
▁Veteran	9
rateful	9
isse	9
▁Interact	9
grass	9
▁clar	9
ilateral	9
▁Visual	9
▁phenotype	9
▁gur	9
▁Bunn	9
▁lac	9
▁Bionic	9
▁coauthor	9
▁temper	9
▁precipi	9
▁Sla	9
amus	9
▁evade	9
▁conspicuous	9
ampire	9
▁cervi	9
▁covet	9
▁meltdown	9
▁Beli	9
▁assurance	9
▁Person	9
population	9
disc	9
▁ESP	9
▁bulldozer	9
▁suffocat	9
cake	9
▁Chip	9
▁Sister	9
▁clot	9
▁Victor	9
▁inflammator	9
anne	9
vinc	9
▁Institution	9
▁Appli	9
▁Passion	9
▁Kap	9
▁disengag	9
kinetic	9
▁coffeehouse	9
▁stimulant	9
▁shun	9
Bot	9
ccupy	9
▁enco	9
▁wicked	9
represent	9
fun	9
bag	9
▁brass	9
▁deport	9
▁Olu	9
▁fang	9
▁Investment	9
▁Guang	9
▁Jua	9
▁Matrix	9
▁inhuman	9
profe	9
▁Ren	9
▁discern	9
▁squa	9
gence	9
▁Heaven	9
▁restricti	9
▁Calcu	9
▁overestimate	9
blow	9
▁megafauna	9
▁casino	9
bring	9
▁Vit	9
▁eyewitness	9
▁Sports	9
▁crusade	9
▁Terr	9
▁Atten	9
▁Nokia	9
▁arguer	9
▁Nak	9
▁roar	9
▁succession	9
▁observat	9
▁gran	9
▁procession	9
▁handshak	9
▁karat	9
hari	9
▁retrain	9
▁Glad	9
▁Lega	9
lian	9
risk	9
▁Boulder	9
coherent	9
▁remed	9
▁Euler	9
▁cornerstone	9
interrupt	9
▁pleasur	9
▁Liberal	9
static	9
rmed	9
▁Ashle	9
▁noodle	9
▁chaplain	9
▁desiccat	9
llum	9
▁oak	9
▁buffet	9
▁meritocrat	9
▁Pran	9
▁warlord	9
▁gymn	9
shore	9
▁Chao	9
▁augmentation	9
▁interlock	9
▁deducti	9
▁demoniz	9
▁beginner	9
▁pala	9
hun	9
acia	9
ailway	9
▁Odd	9
▁Ferris	9
▁crucifi	9
▁criminalize	9
▁resell	9
tallic	9
▁premiere	9
guel	9
▁assassination	9
▁Cheetah	9
▁Invent	9
bard	9
▁Independen	9
▁Ran	9
▁legitimize	9
▁juncture	9
EMA	9
nhuman	9
▁mumble	9
▁antipsychotic	9
▁brin	9
▁pistol	9
▁Dome	9
▁Sting	9
▁inundat	9
▁Answer	9
▁Biafra	9
icha	9
▁Spect	9
▁tremor	9
▁Bubble	9
▁Income	9
▁Mick	9
▁absorben	9
▁experien	9
▁gravitate	9
▁VI	9
adesh	9
▁archer	9
▁motif	9
▁valuation	9
▁extremit	9
▁gyre	9
▁Kare	9
▁congratulation	9
▁redevelop	9
▁dizzy	9
▁zap	9
▁pendulum	9
▁altruist	9
▁MOOC	9
LB	9
score	9
▁leatherback	9
▁alligator	9
gaga	9
spen	9
laug	9
▁Theat	9
▁constru	9
trinsic	9
▁Skid	9
▁Neuro	9
▁Tuc	9
ucifer	9
▁subdivision	9
▁GB	9
quake	9
▁san	9
▁triplet	9
▁Shredd	9
▁Maker	9
▁scrot	9
▁Kendal	9
▁soprano	9
▁Torosaurus	9
▁lollipop	9
▁peripet	9
oling	9
▁Cheeto	9
ongratulation	8
▁recapitulate	8
▁wedge	8
stration	8
▁Reduc	8
▁swat	8
aystack	8
▁rigor	8
▁retroviral	8
▁acoustical	8
script	8
luster	8
NSF	8
▁supersonic	8
▁inexorabl	8
▁reinterpret	8
▁sparkl	8
▁fiddl	8
pant	8
alph	8
▁GI	8
▁Buck	8
▁pol	8
▁hesitate	8
ulous	8
▁sailboat	8
▁fig	8
▁Haw	8
▁DA	8
▁BO	8
▁param	8
▁gangster	8
▁Olymp	8
▁Glob	8
▁interrelated	8
trap	8
▁viper	8
▁detective	8
▁Imag	8
▁der	8
▁Statu	8
▁Polis	8
ilapi	8
urgeon	8
▁paraplegic	8
▁persona	8
▁burqa	8
▁drench	8
▁patern	8
▁Diane	8
demeanor	8
▁dup	8
▁griev	8
spot	8
nesthesiologist	8
▁Atha	8
▁despot	8
zzar	8
▁feast	8
▁prospecti	8
▁traverse	8
▁credential	8
rapture	8
Card	8
▁discoverer	8
▁pathological	8
▁Chaga	8
▁uproot	8
▁Throw	8
▁Cher	8
▁idealiz	8
▁impediment	8
▁herald	8
connected	8
▁cathar	8
▁journalistic	8
▁inscription	8
ema	8
▁Oma	8
▁backseat	8
▁Participant	8
▁Support	8
▁attribut	8
armac	8
rojan	8
▁sandal	8
▁pragmatis	8
nfrastructure	8
▁hyp	8
cry	8
irstream	8
▁impoten	8
▁Gail	8
▁Bride	8
zeal	8
▁confi	8
▁salin	8
▁schm	8
▁forcibl	8
▁infest	8
taka	8
▁southeast	8
▁Billion	8
▁Reut	8
▁declassif	8
▁predicat	8
iscus	8
▁Marian	8
▁Doro	8
▁ninja	8
▁Deco	8
▁decree	8
▁scribbl	8
▁Libert	8
▁camouflage	8
▁File	8
▁ovation	8
▁sublim	8
▁axon	8
▁damned	8
▁Ach	8
▁barter	8
▁Gramm	8
▁posit	8
▁tyrant	8
▁Luxemb	8
▁objectiv	8
▁ki	8
▁revitaliz	8
▁hormonal	8
▁witch	8
▁MacC	8
▁FAA	8
▁bluff	8
▁ISI	8
▁throughput	8
▁kiln	8
parallel	8
▁Sys	8
▁reap	8
▁merci	8
▁ze	8
coup	8
▁Seth	8
▁Explorat	8
avi	8
▁wrench	8
LA	8
▁accuse	8
▁Keene	8
▁smog	8
▁Terra	8
▁pamphlet	8
▁Relat	8
ebate	8
▁Chap	8
▁Bike	8
▁allowance	8
lical	8
▁percolate	8
▁assert	8
▁ludicrous	8
process	8
xchange	8
▁fallac	8
▁Ku	8
▁chuck	8
▁Dakota	8
fill	8
▁suff	8
technology	8
rian	8
rque	8
litude	8
▁inscribe	8
▁communicative	8
▁presenter	8
▁soci	8
▁clamp	8
mendment	8
▁Anti	8
▁strata	8
▁pedestal	8
▁commissioner	8
▁omni	8
▁ligament	8
balance	8
▁Complex	8
▁deficienc	8
▁crowdfund	8
▁Rep	8
▁Mayo	8
▁defuse	8
▁progen	8
▁rewire	8
▁moratorium	8
▁stale	8
▁Said	8
quest	8
▁repressi	8
▁inaugurat	8
▁parch	8
▁Ami	8
ulp	8
▁infrequent	8
▁Remote	8
▁Aero	8
▁Kra	8
▁humming	8
▁overheat	8
▁checker	8
▁Jar	8
▁Rare	8
buil	8
productive	8
▁Officer	8
▁Nord	8
▁affirmative	8
▁galact	8
khar	8
junction	8
▁unanimous	8
▁compel	8
▁Coal	8
antu	8
▁Device	8
grid	8
▁parliamentar	8
hock	8
▁sq	8
onia	8
▁Plat	8
▁Limb	8
▁Comed	8
rald	8
▁redeem	8
▁Minor	8
▁imperialis	8
▁Bomb	8
▁directional	8
▁copulat	8
▁fem	8
▁wobble	8
▁shopkeeper	8
etch	8
▁DU	8
utilize	8
▁Jacob	8
▁Rough	8
▁demoli	8
▁evict	8
▁discourage	8
▁Friend	8
▁OMG	8
▁lavish	8
welt	8
▁slit	8
▁pitiful	8
▁Potato	8
▁HD	8
sitation	8
▁sensational	8
▁Hobbes	8
▁unmar	8
▁Morris	8
▁outlive	8
esha	8
▁Herman	8
▁washer	8
▁Proto	8
▁Pyth	8
▁adept	8
▁epiphyte	8
opp	8
▁ammoni	8
▁lizard	8
▁fudg	8
▁Daw	8
hat	8
▁Cran	8
stopp	8
▁Gate	8
CG	8
▁microfluidic	8
▁Hump	8
▁Dav	8
▁crevice	8
▁diversion	8
▁hasten	8
akar	8
▁photojournalist	8
▁unwitting	8
▁meticulous	8
▁Calculat	8
▁nomination	8
▁hoist	8
▁erection	8
▁lumin	8
▁refurbish	8
▁sigh	8
▁Xerox	8
▁stray	8
atal	8
▁Honest	8
▁typolog	8
▁servic	8
hemo	8
growth	8
▁clitor	8
▁Era	8
crony	8
▁Slim	8
avail	8
▁truss	8
▁widget	8
gne	8
▁promoter	8
▁Concert	8
▁Fische	8
▁recite	8
lift	8
▁Sheikh	8
▁Niger	8
▁ration	8
ophone	8
▁Kod	8
turi	8
▁tusk	8
vatar	8
▁Hemlock	8
▁Smok	8
▁boundless	8
▁inquisitive	8
vold	8
nourish	8
▁stre	8
▁redirect	8
▁worsen	8
▁perpetrat	8
▁trespass	8
▁incurr	8
▁Phillip	8
▁Croatia	8
elation	8
▁McC	8
▁photocopie	8
▁reboot	8
▁pi	8
▁Lean	8
agger	8
▁maiden	8
▁veg	8
▁vermi	8
▁brak	8
▁Bionicle	8
▁Inspire	8
▁homeowner	8
▁roach	8
▁mechaniz	8
▁tendon	8
▁linkage	8
▁Termina	8
▁Continu	8
▁imper	8
▁Webb	8
▁precipitous	8
▁gr	8
▁FM	8
▁Reader	8
▁Religion	8
▁squea	8
luent	8
▁trekk	8
esponsibilit	8
unus	8
▁forefather	8
▁Otto	8
▁quarrie	8
▁outfitt	8
▁Pygm	8
▁Kno	8
▁topolog	8
▁incomprehensi	8
▁encroach	8
▁Rosali	8
iving	8
▁religios	8
enia	8
alafel	8
▁Amnes	8
▁tripl	8
▁latte	8
ited	8
▁Resist	8
▁Spielberg	8
▁Santo	8
▁stylize	8
▁bioengineer	8
icorn	8
▁defibrillator	8
▁kneel	8
bbie	8
▁menacing	8
▁ston	8
berto	8
rches	8
loy	8
▁Yad	8
▁Round	8
ungu	8
▁Bottom	8
ensibl	8
▁propa	8
▁mitigat	8
▁salon	8
pati	8
▁Ara	8
▁Bird	8
▁Wil	8
▁spann	8
▁avid	8
▁onward	8
▁Grandpa	8
▁grammatical	8
▁jug	8
▁chute	8
antic	8
▁distinguishe	8
▁procreati	8
▁proponent	8
dence	8
▁superorganism	8
▁caretak	8
▁strait	8
trayal	8
ulnerabilit	8
arcelo	8
▁Bori	8
▁centrifuge	8
▁Dari	8
rystal	8
▁NPR	8
▁XM	8
▁wi	8
▁reflector	8
▁Choos	8
▁techno	8
▁thug	8
▁inspection	8
▁heroine	8
flo	8
▁housewi	8
▁coco	8
▁Investigat	8
▁navigator	8
▁Set	8
▁Marg	8
▁consign	8
▁biologic	8
▁accredit	8
▁Protei	8
▁twirl	8
▁recit	8
▁Jacobs	8
▁Starr	8
▁monologue	8
▁Physic	8
▁Cave	8
oro	8
▁tepui	8
▁Straw	8
▁interchange	8
▁Wilk	8
▁postpone	8
ected	8
abi	8
▁Aldo	8
luck	8
▁inoculat	8
▁Pilot	8
▁Venture	8
▁CM	8
▁Safeway	8
▁snor	8
▁gratifying	8
▁Ricard	8
▁Judi	8
▁theologian	8
nterior	8
▁hitchhik	8
▁twig	8
▁Abdul	8
shop	8
▁Franc	8
▁mesmeriz	8
▁idiosyncra	8
ckles	8
▁apocalyptic	8
▁cloak	8
amara	8
▁insanit	8
▁schism	8
▁Taj	8
tomy	8
▁Reason	8
▁creationis	8
▁synap	8
ritte	8
ech	8
▁Astroturf	8
▁solidify	8
▁signifi	8
▁accessori	8
▁Enric	8
▁somber	8
rotocol	8
▁zillion	8
▁IR	8
▁Transport	8
▁craftsm	8
▁parochial	8
▁conversational	8
zens	8
▁sage	8
▁subordinate	8
▁Bir	8
egitimate	8
▁intricac	8
tec	8
▁melanchol	8
▁Calvin	8
cid	8
▁exhum	8
▁Grave	8
▁humongous	8
▁Khali	8
smak	8
▁inevitabilit	8
▁pitcher	8
▁Sultan	8
▁circumcis	8
▁dirigible	8
▁juxtapose	8
▁Whirlwind	8
▁interactiv	8
▁rim	8
▁geni	8
(	8
▁acry	8
▁Plain	8
▁Arr	8
anthrop	8
▁diverg	8
bble	8
▁moron	8
symmetr	8
duous	8
▁Tip	8
▁cunning	8
closure	8
▁TaskRabbit	8
▁Berr	8
rdinand	8
▁Draw	8
▁roaring	8
▁VM	8
▁commence	8
▁dispense	8
▁Bhu	8
▁vigilant	8
▁comical	8
RES	8
▁SH	8
▁Original	8
procrastinate	8
▁Benz	8
▁merchandis	8
▁landline	8
▁Adapt	8
▁Cosm	8
▁contour	8
▁immerse	8
▁correspondent	8
▁fatali	8
▁Giacom	8
▁hermit	8
▁quantifie	8
▁Mons	8
fri	8
▁Volta	8
smith	8
▁puppeteer	8
▁Cir	8
▁shale	8
▁gyps	8
urban	8
▁Hono	8
▁Belt	8
▁overeat	8
▁nominee	8
▁revel	8
▁Vik	8
▁Goat	8
▁incubat	8
▁pebble	8
▁subversive	8
▁buttock	8
▁Glamo	8
▁incessant	8
▁neurolog	8
armament	8
▁barge	8
ulling	8
▁disconcert	8
▁scrubb	8
▁differentiat	8
medicine	8
▁disperse	8
▁Rafi	8
▁biscuit	8
▁tutorial	8
▁Rid	8
▁scarie	8
▁Buzz	8
▁combinatori	8
apot	8
▁testif	8
▁gracious	8
angi	8
arta	8
imal	8
▁gymnas	8
▁disregard	8
Damn	8
▁Guide	8
upert	8
▁songwrit	8
rizon	8
▁hibernat	8
▁reciproc	8
▁beverage	8
▁gatekeeper	8
▁stump	8
odoo	8
▁mamma	8
▁secretion	8
▁Visit	8
▁criminaliz	8
▁j	8
▁Spend	8
vik	8
▁wrath	8
▁Chimpanzee	8
▁Laz	8
▁voicemail	8
wave	8
boy	8
▁abnormalit	8
atari	8
▁Atkin	8
▁consequent	8
▁Malthus	8
▁partition	8
▁kinesthetic	8
▁Mendel	8
▁MB	8
▁masturbat	8
--_	8
abba	8
▁Gan	8
▁Inmate	8
▁FI	8
▁Clar	8
anal	8
enter	8
▁Ishi	8
▁rivalr	8
▁evacuat	8
▁whiteboard	8
▁Barric	8
▁smoker	8
▁impart	8
▁Pine	8
▁militant	8
▁Meadow	8
▁rejoice	8
▁debi	8
▁Fide	8
▁pier	8
▁SI	8
oulevard	8
▁bowel	8
▁beekeep	8
▁Shuffle	8
▁Sahar	8
izzar	8
Jazz	8
mitten	8
▁Luri	8
▁clou	8
▁disengage	8
▁polygon	8
▁deflation	8
▁postulate	8
▁Mir	8
▁sideline	8
actic	8
▁astrophysicist	8
imb	8
▁Marl	8
inter	8
ourg	8
▁relic	8
▁caval	8
▁meditator	8
▁smelt	8
▁Fail	8
▁Bau	8
▁Toxo	8
▁Jeann	8
▁Fru	8
▁antioxidant	8
▁Loren	8
▁sunbath	8
▁cellar	8
▁Krishna	8
pine	8
▁Galen	8
▁erod	8
▁overconfiden	8
▁referen	8
▁idio	8
itte	8
might	8
▁afflict	8
▁brewer	8
▁octave	8
▁repuls	8
▁Kevlar	8
▁engender	8
▁indict	8
▁Meso	8
▁juggle	8
▁Cliff	8
▁hypocri	8
▁siege	8
location	8
▁Pomp	8
▁parox	8
▁enorm	8
Vo	8
▁biog	8
▁extracurricular	8
CLU	8
▁multicellular	8
▁Ghanaian	8
▁excavate	8
▁lunat	8
▁unl	8
▁GCSE	8
▁Provin	8
▁Ramo	8
▁Organiz	8
rges	8
▁Product	8
eplay	8
▁indigna	8
▁pooh	8
▁clums	8
▁Tembere	8
▁Vari	8
▁Ree	8
ketch	8
heav	8
▁Lest	8
ejection	8
▁wingsuit	8
▁BAS	8
▁Entrepreneurs	8
▁Ode	8
▁Carder	8
▁wildfire	8
▁neurotic	8
stoke	8
curable	8
Script	8
▁hiccup	8
▁Keat	8
obo	8
▁Beatrice	8
addock	8
▁Bag	8
glow	8
▁chariot	8
▁reforest	8
▁Sarg	8
asso	8
▁dirtie	8
▁reactivate	8
▁Gua	8
▁irreveren	8
▁MAS	8
▁outnumber	8
estro	8
▁mul	8
▁snug	8
flyer	8
▁Maj	8
▁Turbo	8
▁decrypt	8
▁Paol	8
▁chees	8
▁schema	8
▁Debora	8
▁seams	8
fford	8
▁whirlwind	8
yama	8
▁receptacle	8
▁Kuznet	8
ù	8
kut	8
▁weblog	8
▁Valenc	8
agenc	8
▁spigot	8
▁Smile	8
ttendee	8
▁Denn	8
▁Pleo	8
▁sled	8
▁gibbon	8
▁NG	8
▁snowboard	8
▁Usa	8
▁HA	8
▁Klei	8
▁Torajan	8
cade	7
motion	7
▁Figur	7
▁Powe	7
▁RF	7
annon	7
▁fab	7
▁clad	7
▁Terminal	7
▁Heath	7
▁Reich	7
▁enclose	7
tria	7
▁shrine	7
▁oversee	7
▁dum	7
crow	7
▁pharmacolog	7
▁pharmacist	7
▁superfl	7
▁refram	7
▁HT	7
▁prosaic	7
▁Create	7
▁confiscate	7
▁exporter	7
▁reproduc	7
▁counterfeit	7
▁unsuspecting	7
olo	7
▁lucifer	7
▁spew	7
▁crustacean	7
▁luminescen	7
Space	7
▁empathiz	7
▁elitist	7
▁Process	7
▁dispossess	7
▁Celebrat	7
adema	7
▁Feder	7
Strip	7
▁careless	7
▁shrug	7
▁Christie	7
roencephalogra	7
▁declaration	7
▁hyperbol	7
ilhou	7
▁Kle	7
▁quizz	7
▁genotype	7
▁selfless	7
ori	7
▁Monster	7
etris	7
▁pon	7
▁zombie	7
▁recuperat	7
zzi	7
ü	7
▁MTT	7
▁sucker	7
▁snare	7
fathom	7
▁psychoanalyst	7
▁comply	7
▁exor	7
▁Migrant	7
▁Tea	7
▁cannabi	7
NJ	7
gli	7
aria	7
eff	7
quoi	7
▁arid	7
▁gu	7
unnel	7
▁Commissioner	7
apoli	7
▁immaterial	7
▁occupie	7
▁Integrat	7
difference	7
▁permitt	7
igan	7
tchie	7
▁shantytown	7
▁Blogg	7
noid	7
▁Yankee	7
▁oxygenat	7
ntertain	7
▁discriminat	7
▁cantilever	7
▁luxurious	7
▁promiscu	7
▁garde	7
▁Cube	7
▁Brin	7
▁bugger	7
▁Kirk	7
▁Stephan	7
▁decimat	7
ienne	7
nsect	7
▁cucumber	7
▁piercing	7
▁secrete	7
▁Tere	7
▁cigar	7
▁fascist	7
▁Broke	7
▁crumple	7
annibal	7
▁decompi	7
▁melan	7
▁sentinel	7
▁Jeh	7
opoly	7
▁choke	7
igma	7
mission	7
▁Lesl	7
azi	7
▁specify	7
▁irreducibl	7
▁terminat	7
▁matriarch	7
▁bland	7
▁devalue	7
▁adversarial	7
▁socialist	7
▁Rosa	7
▁undetect	7
▁irritab	7
bad	7
▁exp	7
▁Gadd	7
layer	7
cane	7
system	7
▁Stru	7
▁hideous	7
▁confluen	7
▁Schw	7
▁predisposition	7
▁helic	7
▁lowland	7
avage	7
▁guise	7
finder	7
▁pessimis	7
▁Communit	7
▁boon	7
Map	7
izen	7
rush	7
chev	7
itchen	7
▁verna	7
▁interpreter	7
▁hitch	7
▁revolve	7
loa	7
▁hatche	7
▁falcon	7
▁Includ	7
agh	7
▁troublemaker	7
▁Strat	7
▁Corn	7
shoot	7
▁proliferate	7
▁Dum	7
qualifie	7
▁Ster	7
▁squad	7
▁Dono	7
▁Lea	7
▁averag	7
▁counterterroris	7
▁gall	7
jev	7
▁voucher	7
examine	7
elope	7
▁syntax	7
▁apocalyp	7
plausibl	7
▁Ancient	7
potent	7
▁rhetorical	7
▁Merri	7
▁Angr	7
▁firewall	7
▁fortress	7
▁complement	7
itiba	7
▁exacerbat	7
▁lucid	7
▁Fun	7
affle	7
▁octo	7
▁myopic	7
▁Clare	7
▁Addi	7
▁bam	7
ermal	7
▁populate	7
▁underpinning	7
buster	7
▁Value	7
coast	7
▁huddle	7
▁caravan	7
lau	7
▁Camera	7
▁gull	7
▁grub	7
▁quarantine	7
▁loung	7
▁veneer	7
▁aspirin	7
▁Uran	7
cultural	7
▁fascis	7
▁iconograph	7
▁Krypton	7
▁Nile	7
▁resonat	7
▁aerosol	7
bill	7
conduct	7
▁Pol	7
illion	7
▁mot	7
▁Alam	7
▁Penguin	7
▁cacophon	7
undra	7
grain	7
direct	7
▁Econom	7
▁replie	7
ister	7
tentia	7
▁ooze	7
▁inflammat	7
▁maverick	7
recept	7
▁kickstart	7
787	7
▁necrophilia	7
▁Scout	7
mode	7
▁materialize	7
▁stud	7
▁parcel	7
▁enabler	7
▁updat	7
▁nauti	7
▁attache	7
▁incongru	7
▁Equ	7
andro	7
▁adjective	7
▁Snake	7
▁echolocati	7
▁Biological	7
▁imbue	7
▁disappearance	7
▁Geni	7
▁mattress	7
▁nuke	7
▁contextualize	7
▁bifurcat	7
▁accretion	7
▁Clemen	7
▁Regen	7
▁antith	7
▁regenerat	7
▁Condo	7
▁errand	7
▁violinist	7
▁ellipse	7
▁astro	7
ubb	7
▁predictabl	7
▁sneez	7
▁filtrat	7
▁Dickens	7
▁repulsive	7
▁calori	7
▁injector	7
▁Pale	7
▁Shall	7
nada	7
▁Trin	7
clav	7
▁reinforcement	7
▁Mega	7
hore	7
▁tortur	7
▁Room	7
UM	7
▁comprise	7
▁hoax	7
▁Patriot	7
angle	7
▁sutur	7
▁Ariel	7
▁misbehav	7
▁prioritiz	7
▁gleam	7
▁Rabi	7
olla	7
▁unpla	7
screw	7
▁forceful	7
▁enlarg	7
▁Worm	7
▁unspeakabl	7
uper	7
▁decriminaliz	7
▁medic	7
▁Collecti	7
lectic	7
AID	7
▁braille	7
▁View	7
▁Versa	7
▁wand	7
▁mutter	7
▁Comic	7
▁Extraordinar	7
▁Cotton	7
▁conditional	7
▁Terri	7
▁Return	7
▁tripp	7
▁affiliation	7
▁retiree	7
rov	7
uarter	7
▁Vic	7
▁Clai	7
▁waltz	7
▁cheerleader	7
▁circum	7
▁Canop	7
▁copepod	7
▁robin	7
▁Gaia	7
▁ahh	7
▁assassinate	7
▁TEDM	7
▁hijab	7
▁headscar	7
▁Heather	7
istress	7
▁Theme	7
▁enforc	7
spirational	7
▁vaporize	7
▁leapfrog	7
▁microchip	7
▁martyr	7
▁congratulate	7
▁monstro	7
▁mischie	7
▁Basel	7
▁ebb	7
▁Chapl	7
securit	7
▁Sash	7
▁Mice	7
▁Mold	7
▁Liquid	7
▁Baptist	7
▁Fountain	7
impos	7
▁Observat	7
▁uneven	7
▁Braun	7
▁Dhara	7
uisance	7
▁Statistic	7
quaint	7
▁breach	7
▁Fau	7
urpose	7
▁Siren	7
▁phil	7
▁Sculpey	7
▁Assum	7
▁vertebra	7
▁TA	7
▁evacuate	7
withstand	7
▁commune	7
▁despise	7
keeper	7
▁phen	7
▁individualize	7
▁overturn	7
▁Sak	7
▁Lesbo	7
▁Slov	7
bab	7
▁accommodation	7
▁resonant	7
▁Chu	7
Tun	7
▁API	7
▁grownup	7
▁decimal	7
▁kiloton	7
▁quiver	7
▁refiner	7
▁cascad	7
habi	7
▁misspell	7
▁Pedr	7
imo	7
▁mater	7
▁retouche	7
▁XY	7
ontemporar	7
important	7
▁endocrin	7
rmative	7
▁checkpoint	7
▁McKi	7
▁clergy	7
▁Mimi	7
▁Musk	7
▁landmass	7
▁tum	7
erg	7
▁sur	7
▁Ukrainian	7
▁Uzbek	7
▁Separate	7
▁Waste	7
▁Yuk	7
▁Hat	7
▁sporulat	7
rrrr	7
▁Argu	7
OMA	7
▁illogical	7
▁Tribun	7
▁handkerchief	7
same	7
▁Mess	7
▁Rapid	7
▁trig	7
▁headdress	7
elian	7
▁artful	7
▁hobbyist	7
▁Polynesia	7
▁Ob	7
gera	7
▁enlarge	7
▁incredul	7
▁amplitude	7
hru	7
▁appreciati	7
▁Hatz	7
▁Eviden	7
▁trope	7
▁deadlie	7
▁amusing	7
▁firefight	7
▁Biologi	7
extrica	7
▁languish	7
▁captivat	7
▁delve	7
▁reductionist	7
▁gutter	7
year	7
▁rout	7
▁diverge	7
▁Starck	7
▁temperament	7
atcher	7
▁mystif	7
▁beget	7
▁crumble	7
▁jettison	7
▁Date	7
GB	7
▁hypersonic	7
▁Techno	7
▁Flat	7
▁convuls	7
▁HM	7
▁karm	7
valence	7
▁herder	7
▁reced	7
▁Trini	7
▁Nicaragua	7
▁monotonous	7
▁rupture	7
▁Archae	7
▁volu	7
▁revision	7
▁milieu	7
▁acquaint	7
▁scold	7
▁kicker	7
▁pip	7
▁commentator	7
adish	7
▁Socrat	7
▁resurgen	7
▁rationalize	7
▁brib	7
zym	7
onnie	7
▁Hamburg	7
▁peg	7
▁Border	7
phyll	7
à	7
osmos	7
▁kg	7
▁retrovirus	7
▁cauliflower	7
▁substitut	7
▁Tib	7
uron	7
▁baffl	7
▁wagon	7
▁exhal	7
▁carbohydrate	7
▁retool	7
▁Lonel	7
▁decibel	7
▁axle	7
roxi	7
rawn	7
▁Habit	7
▁disobe	7
▁grandios	7
▁drawback	7
▁hospitaliz	7
kel	7
blanc	7
ctive	7
ulsi	7
▁Kui	7
▁enrag	7
▁parse	7
▁saunter	7
▁forearm	7
▁localize	7
▁Fri	7
▁precarious	7
▁tranquil	7
▁maximiz	7
Net	7
▁railing	7
▁Mujahid	7
▁defendant	7
guide	7
▁Gum	7
▁photoreceptor	7
▁Sloan	7
▁predispose	7
▁furthe	7
▁Metr	7
▁Piazz	7
articular	7
▁Pyramid	7
▁Enter	7
nol	7
▁intermediar	7
▁buff	7
dmiral	7
▁ke	7
▁Wilb	7
▁geoengineer	7
wind	7
atur	7
▁Blog	7
▁regiment	7
mula	7
bitua	7
▁Programm	7
order	7
▁interfer	7
▁abbreviat	7
▁PB	7
▁mansion	7
▁coupon	7
▁Reu	7
▁Score	7
▁wealthie	7
▁vintage	7
enji	7
iyan	7
▁MAN	7
FE	7
FORM	7
▁WIT	7
▁Laugh	7
▁predate	7
otta	7
▁Sula	7
sumption	7
▁weirdo	7
▁rehydrati	7
▁featur	7
▁rect	7
▁Sag	7
jack	7
▁sprinter	7
▁frill	7
bread	7
▁homo	7
▁impartial	7
▁hurd	7
▁preoccupation	7
tale	7
▁kludg	7
▁embedd	7
▁yak	7
axe	7
▁justification	7
▁Lisb	7
▁Pull	7
bine	7
▁turbo	7
essori	7
semble	7
acre	7
▁Eis	7
▁SAT	7
▁Barney	7
▁Olive	7
▁buckle	7
▁rewrit	7
▁Saf	7
▁mythic	7
▁popularize	7
▁toenail	7
▁purge	7
▁hedonis	7
▁salvage	7
▁leach	7
aneous	7
▁Rac	7
liter	7
▁Yah	7
▁reprogramm	7
ronic	7
rofluid	7
▁chuckle	7
▁bulge	7
▁Scripture	7
▁inquire	7
▁glimmer	7
▁fledg	7
▁pronunciation	7
▁nasal	7
▁woodpecker	7
▁bureau	7
▁Kala	7
▁handicraft	7
▁profil	7
atura	7
surfing	7
▁parainfluenza	7
▁Poli	7
▁hardco	7
implicit	7
▁metronome	7
▁Bulgarian	7
▁Sil	7
gree	7
▁Ptolem	7
▁Piece	7
▁Gibra	7
▁Correction	7
▁Bod	7
ukh	7
▁Cinema	7
▁Breath	7
▁heredit	7
▁lol	7
▁bitcoin	7
▁visa	7
▁Sono	7
▁grieve	7
▁alcoholic	7
▁loath	7
▁emphatic	7
▁uphold	7
▁eyelash	7
▁undef	7
▁retrieve	7
▁Melani	7
safe	7
▁socialize	7
▁aphorism	7
▁generati	7
▁NAND	7
harata	7
▁denote	7
▁spi	7
▁Spaniard	7
▁ramification	7
Hub	7
▁coefficient	7
▁calibrate	7
▁grasshopper	7
elated	7
hospita	7
▁snapper	7
▁golia	7
▁Siemens	7
▁Maid	7
▁sweatshop	7
▁Tribe	7
hazard	7
▁Gersh	7
dded	7
▁Kelle	7
▁transgression	7
▁solvent	7
▁chrom	7
▁handicap	7
undr	7
uett	7
▁transpir	7
▁Financ	7
▁Hazar	7
▁horr	7
▁servo	7
▁thicken	7
▁bumme	7
▁McL	7
▁Shoe	7
▁swath	7
▁Kand	7
gai	7
▁Adventist	7
hog	7
plin	7
liv	7
▁Pad	7
hopstick	7
▁chopper	7
agora	7
▁versatil	7
▁palli	7
▁neutralize	7
▁Chamb	7
▁vertic	7
▁Conservative	7
▁concentrator	7
lumni	7
▁Sid	7
father	7
▁insecticide	7
anger	7
▁newsroom	7
▁chirp	7
cide	7
▁papercutting	7
▁luna	7
▁slur	7
lance	7
▁flamingo	7
▁bliss	7
▁devi	7
▁habituat	7
▁Breivik	7
ayer	7
▁Hof	7
▁cereb	7
love	7
business	7
▁popul	7
▁profanit	7
ydia	7
coloniz	7
▁Kub	7
idney	7
▁scribe	7
▁superstition	7
▁cashier	7
▁Haitian	7
▁pictograph	7
▁bracelet	7
▁freight	7
▁exhilarati	7
▁Mole	7
▁singularit	7
▁LD	7
▁mermaid	7
▁decarboniz	7
▁gerontolog	7
▁improbabilit	7
▁emancipat	7
▁gator	7
▁dystonia	7
▁indig	7
▁adulter	7
▁Kip	7
▁Moh	7
pamine	7
▁horoscope	7
▁Frankenstein	7
ania	7
▁psychoanaly	7
▁micrometeorite	7
▁Mesopotamia	7
▁ocul	7
aft	7
omfort	7
▁crib	7
park	7
▁McNugget	7
▁tenet	7
▁hamster	7
▁disintegrate	7
yota	7
▁spoof	7
▁Memor	7
atum	7
▁certify	7
▁unsurprising	7
evel	7
▁Eme	7
▁Blanc	7
▁quarti	7
▁malign	7
▁hoove	7
▁Carpe	7
▁Brahmin	7
via	7
▁pineapple	7
poch	7
▁diatom	7
ako	7
tering	7
▁vigil	7
lua	7
▁rewind	7
▁inhaler	7
▁enterpris	7
▁schoolteacher	7
▁slumber	7
anthropomorphize	7
pharmaceutical	7
▁Dinosaur	7
▁stilt	7
▁Oke	7
▁bipedal	7
▁spru	7
▁Dynamic	7
▁explanat	7
▁occupational	7
▁bobbin	7
ecession	7
▁Lesson	7
sighted	7
▁plaint	7
▁chemokine	7
▁transgress	7
▁stagnation	7
orex	7
▁emoti	7
▁Copa	7
cabana	7
brid	7
▁fella	7
▁bridg	7
umbl	7
▁Kraus	7
▁kook	7
▁lecturer	7
▁Supp	7
▁Olde	7
▁coastline	7
▁obsessional	7
▁mulch	7
nthia	7
▁tubul	7
^	7
▁dishonest	7
▁stomp	7
▁Lovelace	7
▁boar	7
▁wristwatch	7
▁Embrac	7
ota	7
mmm	7
▁Stack	7
▁slopp	7
▁Donn	7
▁sag	7
▁realist	7
▁trolley	7
▁Shri	7
▁feedstock	7
cycle	7
▁Michoac	7
▁lamprey	7
▁quilt	7
shmi	7
▁neuromodulator	7
ishop	7
▁watercolor	7
▁leapfrogg	7
amel	7
▁Okoll	7
▁Buch	7
cheri	7
▁Perform	7
▁Employee	7
▁Bald	7
▁valentine	7
necdo	7
▁stylish	7
cliff	7
▁spinneret	7
▁technocrat	7
▁rewild	7
▁XDR	7
nister	7
▁perplex	7
▁Tudo	7
▁quadrill	7
Sphere	7
▁marsupial	7
▁reorganiz	7
▁stri	7
▁Pari	7
▁eulog	7
▁recombine	7
▁Phel	7
evic	7
▁interpenetrat	7
▁Basi	7
▁dredg	7
ildes	7
▁discontinuit	7
▁Riker	7
▁destitut	7
▁Cooki	7
▁Proton	7
▁Amunds	7
Mail	7
▁Allo	7
▁Extrovert	7
▁Yak	7
position	7
▁volant	7
▁microblogg	7
▁Taser	7
▁Petra	7
▁parall	7
MM	7
▁antelope	7
▁Seva	7
▁Tz	7
▁bristlecone	7
▁headrest	7
▁precogniti	7
nagnoris	7
wksb	7
aggie	7
▁Shephe	7
▁NRK	7
▁Rata	7
▁plutocra	7
▁etching	6
hocolate	6
▁extinguish	6
▁scrutiniz	6
▁impe	6
▁visco	6
▁Pentium	6
▁Dollar	6
▁triangulate	6
▁lifeline	6
▁superstring	6
▁molest	6
▁Selig	6
esar	6
▁laborious	6
▁Dori	6
▁rewir	6
▁ROM	6
vish	6
▁sch	6
▁Enrique	6
▁inexplicabl	6
▁habitual	6
▁bloodsh	6
▁Adria	6
verage	6
▁restructur	6
EC	6
▁itinera	6
▁whirl	6
▁WikiLeak	6
▁copi	6
▁Champion	6
ocular	6
▁archeologist	6
determined	6
▁stagna	6
▁dynamite	6
▁Character	6
▁excise	6
brandt	6
▁Mede	6
▁ledge	6
▁beckon	6
▁enrollment	6
▁Ng	6
▁Course	6
▁domin	6
uro	6
▁Sugar	6
▁Worth	6
entious	6
ruff	6
normous	6
▁croc	6
▁mangle	6
▁Colomb	6
▁Til	6
▁Price	6
▁Fresh	6
opyright	6
▁Remittance	6
▁uncontrollabl	6
deal	6
▁kidnapper	6
▁Diam	6
lando	6
lene	6
▁restart	6
▁reenter	6
▁precede	6
▁sunburn	6
▁untru	6
quarter	6
▁Diarrhea	6
dder	6
▁Moment	6
▁PD	6
▁titillat	6
▁tabloid	6
▁measurabl	6
▁moderat	6
▁opiate	6
▁telegram	6
▁Boot	6
▁fervent	6
lasting	6
▁Sock	6
▁hog	6
▁aroma	6
▁terro	6
▁Frei	6
▁mingl	6
▁refinement	6
▁refract	6
▁Risk	6
▁Hook	6
▁Sicil	6
▁Roh	6
▁Ventur	6
speci	6
▁overestimat	6
▁rickshaw	6
haul	6
▁bleep	6
▁obscene	6
▁Kib	6
▁voracious	6
▁ornament	6
▁pierce	6
▁Carrie	6
▁dialectic	6
kk	6
▁Creation	6
▁lodge	6
distinguish	6
▁remedi	6
▁Cind	6
phenol	6
▁decompose	6
▁tasti	6
▁decompos	6
▁snobb	6
▁usurp	6
▁Katy	6
collection	6
controversial	6
llate	6
▁ricket	6
▁Fur	6
▁PAC	6
▁heft	6
▁caregiv	6
▁Surpris	6
▁reflexive	6
▁obedien	6
▁omniscien	6
▁mortuar	6
awi	6
▁scramble	6
▁Parag	6
▁Golf	6
▁unrest	6
tepad	6
ryan	6
▁supremacist	6
▁smug	6
asse	6
gabe	6
▁homemaker	6
bal	6
ulla	6
▁decrepit	6
eppe	6
NAS	6
DA	6
▁tau	6
▁Relativ	6
▁insulate	6
▁unquot	6
▁unelect	6
▁Evel	6
percepti	6
oom	6
▁Cheng	6
▁Demet	6
▁Gradua	6
▁converg	6
▁conve	6
▁Eurasia	6
▁compli	6
▁cuff	6
▁Idiot	6
▁negotiable	6
▁Isle	6
▁Chase	6
▁blowout	6
▁Albania	6
liber	6
▁generational	6
▁Modi	6
▁dun	6
▁petrifie	6
▁Karolin	6
▁Kurt	6
▁Dig	6
▁midwi	6
accessibl	6
▁TE	6
▁Perse	6
▁guar	6
▁recluse	6
▁Terrorist	6
▁sympathize	6
▁Tho	6
▁burner	6
▁refute	6
▁bonk	6
focus	6
▁alchemist	6
▁humanist	6
▁Blank	6
▁Argentine	6
▁sheath	6
▁Leb	6
▁underperform	6
▁carro	6
▁Pimp	6
▁Mui	6
▁depressant	6
▁Teen	6
▁Cesare	6
▁Translat	6
▁graveyard	6
▁feud	6
▁CV	6
▁disinfect	6
▁Lynch	6
▁Hara	6
▁Nurse	6
erkel	6
ibut	6
aca	6
▁Branson	6
▁conferenc	6
ironment	6
▁fumbl	6
urture	6
▁fifteen	6
enuous	6
▁unscientific	6
▁Exo	6
▁debug	6
▁Encourag	6
fruit	6
▁reevaluate	6
▁Stro	6
▁homogeneous	6
▁crucifix	6
▁storyline	6
▁Till	6
▁befriend	6
▁Wash	6
▁unfulfill	6
▁consequential	6
▁Silv	6
▁euthanize	6
▁inexperience	6
▁supervise	6
▁squawk	6
▁Batter	6
▁parabol	6
▁circumvent	6
▁disprove	6
▁Swe	6
▁Traffic	6
▁biker	6
▁Migration	6
▁superb	6
▁Peni	6
▁borrower	6
late	6
▁lax	6
▁appendi	6
melon	6
runch	6
▁bulldoze	6
▁snout	6
laid	6
▁roadblock	6
▁morgue	6
lifie	6
▁nationalist	6
▁Goss	6
▁Silent	6
▁trilo	6
▁Resource	6
▁occupan	6
▁congest	6
tips	6
▁Alleg	6
▁Experience	6
▁humiliate	6
▁Imperial	6
▁Body	6
▁lichen	6
▁Rex	6
▁improper	6
▁Hoffman	6
▁Roche	6
▁Dia	6
▁Naga	6
▁predecessor	6
▁Agent	6
▁rattl	6
ocardi	6
▁synchroniz	6
uji	6
▁hegemon	6
▁Centi	6
▁Pollut	6
uest	6
▁incinerat	6
▁Platoni	6
▁Puppet	6
▁AC	6
▁topsoil	6
▁certificat	6
▁unequivocal	6
▁insure	6
▁Behavior	6
▁HB	6
etera	6
▁Expert	6
▁plat	6
▁intruder	6
illings	6
▁unsolv	6
check	6
rarian	6
▁bankruptc	6
▁amenit	6
▁stimulator	6
▁turf	6
▁hairdresser	6
▁eighteen	6
▁Priva	6
▁microbio	6
▁raindrop	6
▁equalize	6
▁garner	6
▁kidnap	6
▁tariff	6
▁Lockheed	6
▁obliterate	6
▁Boon	6
▁cache	6
▁Carre	6
▁incurable	6
▁Tourist	6
hrli	6
▁configur	6
▁Surina	6
charge	6
▁hallucinat	6
▁unnam	6
▁Presto	6
referential	6
▁biomarker	6
▁Barri	6
▁Garret	6
▁dormitor	6
group	6
▁infirm	6
▁Suff	6
▁scam	6
mitted	6
▁Fit	6
▁replant	6
▁indebted	6
▁Indonesian	6
ogenic	6
▁plunder	6
Art	6
anza	6
▁mistreat	6
▁Aria	6
▁gigaton	6
▁unwind	6
buds	6
▁wring	6
▁Volkswagen	6
▁stadi	6
▁Munic	6
▁stenc	6
peak	6
▁Scho	6
vous	6
gang	6
▁Rang	6
▁disassembl	6
▁Baz	6
▁wag	6
▁Airb	6
▁Burundi	6
▁EO	6
▁tentative	6
▁deficien	6
▁prerequisite	6
▁olfact	6
▁lowercase	6
▁asshole	6
▁uncontroll	6
foil	6
▁pony	6
dimensional	6
lithograph	6
xygen	6
▁generalist	6
▁resol	6
▁canister	6
flux	6
planetar	6
▁Elizabethan	6
▁bioterroris	6
Bar	6
▁egotis	6
▁Bogota	6
▁scorecard	6
gala	6
▁Tan	6
▁Ooo	6
▁armature	6
escence	6
▁Ador	6
uf	6
▁Edd	6
▁fibr	6
▁grin	6
▁Tuft	6
▁flipper	6
▁Ske	6
▁seamount	6
mount	6
▁Sharp	6
▁flank	6
ruck	6
▁regurgitat	6
pathetic	6
▁infiltrate	6
▁infiltrat	6
▁hairstyle	6
▁stabiliz	6
▁Mae	6
▁lame	6
▁handlebar	6
▁oppressor	6
▁hinge	6
▁machete	6
▁endors	6
▁squat	6
▁plato	6
▁monoton	6
▁Refugee	6
▁revise	6
▁stew	6
▁invariant	6
successful	6
▁cadre	6
▁Miracle	6
▁resettl	6
▁Shap	6
▁relocation	6
▁Lotus	6
▁Concord	6
▁Pastor	6
▁lance	6
▁reignite	6
onchi	6
▁trouser	6
▁crumb	6
▁platin	6
▁nightclub	6
▁Blow	6
bench	6
▁catalogue	6
▁occ	6
share	6
▁sco	6
▁Liberian	6
▁Charle	6
▁influencer	6
▁Gut	6
▁medicate	6
eil	6
▁serpent	6
▁consol	6
▁Jude	6
wright	6
crabble	6
▁Mauri	6
▁Strong	6
▁terroriz	6
▁purg	6
▁siren	6
alah	6
▁electroly	6
▁gynecolog	6
omas	6
haus	6
▁Neurologi	6
bully	6
▁permissi	6
▁Click	6
trepid	6
▁skew	6
▁kar	6
▁speleologist	6
▁Czech	6
▁plateau	6
▁climatologist	6
▁Ugh	6
blaze	6
▁homolog	6
▁blonde	6
▁collectiv	6
▁adopter	6
▁euphemis	6
writer	6
▁zeppelin	6
▁gyro	6
alibu	6
▁aching	6
▁Hampton	6
▁Cry	6
▁MC	6
▁deconstructiv	6
oi	6
tadium	6
atalog	6
▁brushe	6
▁smother	6
▁buoyan	6
▁Lankan	6
differentiate	6
loud	6
affect	6
▁cess	6
▁amplifier	6
▁reinnervat	6
▁topographic	6
▁deviate	6
▁immedia	6
▁diligen	6
▁infern	6
▁interviewer	6
▁hydrophone	6
▁vocaliz	6
▁understandabl	6
▁Mahal	6
berger	6
fast	6
▁Civilization	6
▁Marle	6
▁Few	6
▁trembl	6
▁abate	6
▁customize	6
▁smudge	6
pressurize	6
▁Gul	6
▁timetable	6
▁enliven	6
apster	6
▁apologiz	6
▁piazza	6
▁xeno	6
▁Autonom	6
▁Mulli	6
▁Tyr	6
▁hangover	6
▁unofficial	6
▁irrevocabl	6
▁intuit	6
▁Joann	6
wler	6
▁sigmoid	6
▁blu	6
▁decapitat	6
▁secur	6
▁rebellio	6
▁handcraft	6
▁atomize	6
▁lament	6
ovirus	6
▁Scientologist	6
▁cater	6
▁Olso	6
▁vocalization	6
▁computeriz	6
▁assertive	6
▁Rom	6
▁cruci	6
▁rite	6
▁glint	6
▁heretic	6
▁Flint	6
imp	6
▁Capitalis	6
▁UAV	6
▁Humm	6
eca	6
▁Denis	6
▁deletion	6
▁erratic	6
▁wreak	6
Ivo	6
▁mycorrhiza	6
▁Anima	6
▁Forrest	6
utomatic	6
▁absorber	6
▁piston	6
▁goddam	6
actor	6
▁brow	6
▁adventurer	6
▁consultanc	6
▁supermodel	6
▁dishearten	6
bub	6
▁rerun	6
▁telemet	6
▁buoy	6
▁bodyguard	6
izard	6
▁bestow	6
▁apocryphal	6
▁dystopia	6
▁inactiv	6
▁unatta	6
▁velvet	6
▁pseudonym	6
▁Abac	6
▁CR	6
keep	6
uel	6
▁Oso	6
IC	6
▁procrastinator	6
▁discontinu	6
meal	6
▁jarr	6
▁obstruction	6
▁Demos	6
▁thirtie	6
▁Vene	6
▁intestin	6
▁mule	6
▁Cli	6
▁Tuscan	6
▁permutation	6
▁Triangle	6
▁Gov	6
▁Contrast	6
▁splinter	6
etail	6
▁anagram	6
CI	6
▁Schu	6
▁subsidiar	6
▁Customer	6
▁Roa	6
▁atrophie	6
▁glitter	6
▁heater	6
▁saver	6
aware	6
▁nuptial	6
▁Unbelievabl	6
caps	6
market	6
▁abort	6
▁idealist	6
▁Magellan	6
▁fantasiz	6
▁Spot	6
▁Soto	6
spoke	6
▁redistribute	6
▁Tube	6
▁taper	6
▁kap	6
rati	6
▁tuxedo	6
usive	6
▁Factor	6
▁glamoriz	6
hariot	6
▁Shhh	6
▁Wheat	6
▁aspirate	6
▁embolden	6
atchi	6
▁caricatur	6
▁Kart	6
▁Garb	6
▁hypnoti	6
▁kayak	6
robot	6
▁Activis	6
▁Style	6
▁Paint	6
▁multifa	6
▁Dun	6
▁reconcil	6
▁encircle	6
▁piling	6
▁industrious	6
▁theatric	6
iliac	6
▁slaughterhouse	6
▁biome	6
▁scarab	6
▁Chuk	6
▁omission	6
ornia	6
▁Print	6
▁neurophysiolog	6
Sens	6
▁Thou	6
key	6
▁contemplati	6
▁sarc	6
▁ghastl	6
▁Pia	6
block	6
▁devalu	6
▁Jorge	6
▁squiggl	6
▁virtuoso	6
plate	6
▁Giulia	6
▁gag	6
warm	6
igar	6
busi	6
▁nebula	6
▁Hyo	6
ndy	6
WF	6
▁Gelem	6
▁Roma	6
▁hymn	6
▁Haus	6
ucci	6
▁epitomize	6
▁jeep	6
▁paralyze	6
▁operative	6
▁Ahhh	6
▁Miz	6
▁conscientious	6
▁sunscreen	6
▁debunk	6
▁Sav	6
▁Haz	6
aisle	6
arine	6
ocratic	6
bump	6
ircuit	6
▁mashup	6
onical	6
▁cuddl	6
▁abhor	6
▁Material	6
▁Spence	6
▁Merci	6
▁aggregation	6
▁heckl	6
▁Ethe	6
taur	6
▁resid	6
unders	6
▁disgrace	6
▁smirk	6
▁marinat	6
▁Mash	6
remin	6
▁Curve	6
▁Hitch	6
rostate	6
▁antiviral	6
▁oncogene	6
▁fiddler	6
▁Singh	6
▁hypnotize	6
▁disorganize	6
▁vegan	6
▁wrongful	6
▁assimilat	6
▁infertil	6
▁Cheap	6
▁Appro	6
▁Emory	6
▁squadron	6
▁haiku	6
▁beatbox	6
▁alteration	6
▁Civic	6
▁fluctuate	6
▁Dump	6
▁squander	6
▁affective	6
arietal	6
▁capricious	6
▁Vash	6
▁Sikh	6
mphetamine	6
▁constipat	6
▁caf	6
▁Rawl	6
▁claus	6
▁Chor	6
▁neurosurge	6
▁convent	6
afford	6
▁Mobi	6
▁provocation	6
▁grievance	6
▁Booth	6
▁Eugen	6
▁fluctuat	6
▁disembod	6
▁Skinner	6
▁Honeybee	6
▁capitalize	6
bster	6
▁indicati	6
▁snob	6
emic	6
▁Sixth	6
▁savannah	6
▁swivel	6
▁Marcel	6
▁marathoner	6
▁flask	6
illus	6
▁Chester	6
▁oddit	6
▁encase	6
▁Crowd	6
▁boob	6
▁Random	6
▁misdirect	6
lik	6
▁reins	6
▁Meeting	6
▁Tani	6
zig	6
shea	6
▁predomina	6
▁germinate	6
▁urinat	6
articulate	6
▁demograph	6
▁Abbott	6
▁recalibrate	6
▁Marri	6
▁agri	6
▁locavore	6
▁Faul	6
▁luggage	6
▁optim	6
▁bookshop	6
▁cottage	6
▁barrage	6
▁patternicit	6
▁rustle	6
▁rework	6
▁Labor	6
▁hotdog	6
▁espous	6
▁Hank	6
▁Cycl	6
▁Psycholog	6
▁strategist	6
▁unearth	6
ductive	6
▁estuar	6
todes	6
▁Liber	6
▁memorialize	6
▁payroll	6
▁expel	6
▁Gile	6
▁Basil	6
▁Meat	6
▁waft	6
thological	6
IUC	6
▁orator	6
▁Heat	6
▁suffocate	6
▁hieroglyph	6
iza	6
▁whoop	6
laza	6
▁coalesce	6
▁vanishe	6
▁seahorse	6
▁tidi	6
▁Instant	6
▁biogen	6
bacter	6
▁Balochi	6
▁PDA	6
▁eardrum	6
▁compuls	6
▁modernize	6
▁impulsive	6
quila	6
▁LC	6
▁superconduct	6
▁ascertain	6
▁Telecom	6
▁Predator	6
utonomous	6
▁wholehearted	6
lung	6
▁validate	6
▁Commodit	6
▁yarn	6
▁Aqua	6
▁injure	6
vestment	6
▁Steam	6
▁KPI	6
▁Seek	6
▁biometric	6
▁quill	6
▁Wheel	6
▁amass	6
platin	6
ider	6
▁Dong	6
▁Disabilit	6
▁Seren	6
lessi	6
▁dumpster	6
▁exhaustive	6
▁Mood	6
document	6
▁mora	6
▁lagoon	6
▁arbitra	6
▁Turtle	6
▁Shape	6
▁hydrophobic	6
ivide	6
▁premeditat	6
rgis	6
meg	6
▁Astronomer	6
▁welder	6
▁GE	6
▁torrent	6
▁misconstru	6
‘	6
anxiet	6
▁emitter	6
▁emanate	6
▁slee	6
▁Ashan	6
▁Astronom	6
▁Blu	6
▁hunk	6
▁woodcut	6
▁starche	6
▁depot	6
haram	6
▁BRCA	6
▁legalize	6
ork	6
oyer	6
▁oval	6
▁Hacker	6
▁profan	6
▁ordain	6
▁gallop	6
kman	6
▁soften	6
▁Terroris	6
▁allud	6
▁painkiller	6
▁smear	6
idian	6
TEC	6
▁shelv	6
▁hangar	6
▁Teenage	6
▁emb	6
MS	6
▁Disp	6
▁espresso	6
▁professionalize	6
▁Swart	6
▁nematode	6
▁JU	6
▁Borne	6
▁Cedar	6
▁halophyte	6
▁DB	6
▁Hung	6
▁donut	6
hearted	6
▁maca	6
▁slump	6
▁Feminis	6
▁bookshel	6
▁molar	6
imeter	6
ï	6
▁ES	6
▁hustl	6
▁bellwether	6
▁weaver	6
▁logger	6
▁valor	6
lear	6
▁messiah	6
washer	6
blot	6
▁ambi	6
▁asbestos	6
▁ventri	6
▁viv	6
▁ailment	6
channelrhodopsin	6
▁wince	6
▁Myster	6
▁nub	6
▁Siste	6
▁Gustav	6
▁oct	6
▁refusal	6
▁wasteland	6
▁ker	6
▁Cork	6
▁Islamis	6
▁Pike	6
nterpreter	6
cage	6
▁intermission	6
▁Toraja	6
esque	6
▁WISE	6
▁Nikolay	6
aerobic	6
▁Hamil	6
chical	6
▁straddl	6
vaz	6
▁SEAL	6
▁McN	6
▁perfumer	6
▁Prat	6
▁creek	6
▁congresswom	6
ffords	6
▁SOLE	6
▁disposition	6
practice	6
oba	6
wake	6
lore	6
saurus	6
upon	6
enheim	6
▁euthan	6
▁trampoline	6
▁Label	6
burst	6
▁Programme	6
▁starship	6
▁blazar	6
vastatin	6
▁inflame	6
▁invader	6
DF	6
▁Novoc	6
▁latenc	6
▁Frate	6
uperhero	6
▁IGF	6
▁newsprint	6
▁monoculture	6
▁microblogger	6
▁melon	6
nterval	6
▁empiricis	6
fabricati	6
▁Rabbit	6
▁Samb	6
▁Tinker	6
▁clonal	6
▁Mee	6
▁insula	6
▁Drac	6
▁cinder	6
floor	6
▁DAR	6
oalition	6
itori	6
tizens	6
▁Kla	6
▁Israelite	6
▁spectrogra	6
▁slinger	6
▁Lamanite	6
▁calligra	6
▁seafarer	6
mphatic	6
▁Driv	5
▁Historical	5
▁Yard	5
▁Const	5
▁Jac	5
▁RFID	5
▁doorknob	5
▁Atom	5
▁machin	5
uci	5
▁BB	5
roclamation	5
▁paddock	5
▁electrify	5
▁Extrem	5
▁factoid	5
▁puke	5
▁metabolize	5
▁Myco	5
pie	5
▁URL	5
▁smuggle	5
▁ubiquit	5
▁unfil	5
▁Chek	5
▁timid	5
jinn	5
▁Cypr	5
▁Leopard	5
▁connot	5
▁Vani	5
▁exude	5
▁thump	5
▁autocrat	5
▁fistula	5
hepherd	5
▁willow	5
▁Sein	5
kav	5
▁discrepanc	5
▁exempt	5
▁Nerve	5
▁residenc	5
▁Nebu	5
adne	5
▁desecrat	5
▁sacr	5
▁Persia	5
▁dispenser	5
▁overdo	5
▁indulgen	5
manuel	5
▁Dune	5
▁Consen	5
▁dermatologist	5
▁arrowhead	5
oya	5
▁undeniabl	5
▁procure	5
▁Gallo	5
▁Slav	5
▁Metro	5
▁mitt	5
▁turntable	5
▁materialist	5
▁cavi	5
▁vibe	5
▁Snoop	5
▁Dodi	5
▁Wine	5
▁jihadis	5
ø	5
bitant	5
interesting	5
midt	5
solicit	5
▁Attack	5
▁cremat	5
▁sparkle	5
▁Harmon	5
▁cryonic	5
▁Brig	5
▁lamppost	5
▁Limit	5
▁Oval	5
▁gobbl	5
▁Strait	5
▁Promet	5
▁gestat	5
▁nanosecond	5
▁Comput	5
▁Govern	5
▁voyeuris	5
▁incite	5
sheet	5
▁disclaim	5
▁blueberr	5
▁potenc	5
▁Sung	5
▁Sni	5
▁retell	5
unctu	5
pedia	5
raine	5
▁Herr	5
mnesiac	5
OU	5
▁rebell	5
▁factorial	5
▁Symmetr	5
answer	5
▁Essa	5
▁archipelago	5
▁swoosh	5
▁tung	5
▁astrolog	5
▁gimmick	5
lbatross	5
rik	5
▁fuckin	5
▁Humvee	5
▁omnivore	5
▁Depend	5
▁Expect	5
ignment	5
▁shudder	5
▁reformation	5
KO	5
▁shrivel	5
▁fol	5
iage	5
▁Partheno	5
▁consumable	5
▁Own	5
▁zigzag	5
allelujah	5
▁Accept	5
tease	5
▁cleav	5
vasive	5
unction	5
▁admirer	5
▁imperial	5
▁Hocke	5
▁infrastructur	5
▁testimonial	5
soria	5
▁dilate	5
▁nitrate	5
▁PlayStation	5
▁ambivalen	5
▁neurobiological	5
▁Bread	5
▁Omi	5
▁mortifi	5
▁negat	5
apprehension	5
▁obedient	5
▁suppresse	5
▁Greenwa	5
▁prais	5
▁Came	5
LC	5
llegal	5
▁glean	5
▁emigrate	5
▁Whitopian	5
▁Technical	5
ucca	5
▁binder	5
▁Truman	5
njar	5
class	5
▁bayonet	5
▁esp	5
▁Shiv	5
pur	5
▁topical	5
▁thumbnail	5
▁rendition	5
atan	5
▁Eskimo	5
▁fjord	5
▁scorn	5
▁analogue	5
▁Stef	5
▁piggy	5
▁Practice	5
▁stymie	5
▁Relationship	5
▁artifice	5
▁reimburs	5
▁mascot	5
▁Bicycle	5
▁unleav	5
▁Amur	5
▁Kashmir	5
▁hermetic	5
▁Charit	5
▁alphabetical	5
yahu	5
▁Bil	5
▁shimmer	5
uffalo	5
▁Canne	5
▁lenticular	5
pocalyp	5
eaving	5
▁slew	5
▁dynast	5
▁expropriat	5
propos	5
reason	5
▁unobt	5
▁Trail	5
▁discontent	5
▁nudg	5
▁hurried	5
▁Guan	5
anamo	5
▁dilat	5
bladder	5
▁amendment	5
▁statute	5
▁Election	5
▁Grass	5
▁pulp	5
elix	5
▁SIM	5
▁Voda	5
▁Robb	5
wipe	5
▁metastasize	5
▁intensify	5
▁erroneous	5
▁hallucinate	5
▁prudent	5
▁locus	5
▁sickle	5
▁commercialize	5
▁susceptibilit	5
▁admin	5
▁prototypical	5
▁Storm	5
arita	5
▁corru	5
▁Couple	5
MAX	5
▁Rutan	5
▁sponsorship	5
▁Gaul	5
▁astound	5
▁impede	5
▁convolut	5
▁compile	5
▁Winfre	5
fix	5
multiplex	5
▁undress	5
▁dement	5
▁chronicle	5
▁cleric	5
▁overreact	5
▁splint	5
▁splendor	5
▁raster	5
iquette	5
▁Lip	5
cup	5
attractive	5
▁Content	5
▁aphrodisiac	5
▁amend	5
human	5
opath	5
▁homeopath	5
▁emphasiz	5
▁horticultur	5
MEG	5
▁Flip	5
▁SAN	5
CCO	5
▁jagge	5
▁Gobi	5
orphin	5
▁Remove	5
▁Hick	5
▁Pett	5
▁locomotive	5
clinical	5
▁preposterous	5
▁medicaliz	5
▁Strik	5
▁triumphant	5
▁ornithologist	5
▁dyad	5
▁interrogate	5
▁dissociate	5
▁Fue	5
resolve	5
▁devot	5
kwa	5
toria	5
▁barnacle	5
▁Saving	5
▁eyelid	5
▁pothole	5
▁yuck	5
▁McKe	5
▁hoodie	5
▁mole	5
▁superfluid	5
▁Autism	5
▁assisti	5
▁Mirr	5
▁pervert	5
▁musk	5
▁Manifest	5
▁Smoot	5
▁lice	5
aptize	5
▁Shop	5
▁Anto	5
biolog	5
▁carnivore	5
▁paleontolog	5
▁Kymaerica	5
▁Electron	5
▁Remind	5
▁igno	5
▁swami	5
▁ergo	5
▁rememb	5
▁droid	5
▁Rube	5
▁enclave	5
▁Noor	5
▁Pursui	5
▁indelibl	5
▁Schell	5
Land	5
iqui	5
▁Account	5
▁Cartoon	5
▁foreclos	5
▁KF	5
▁graphical	5
▁Fundamental	5
▁Modul	5
▁Duck	5
▁pomp	5
▁cork	5
artnership	5
▁incarnation	5
▁spectrograph	5
▁wiretapp	5
urveill	5
Time	5
App	5
▁Finch	5
▁divisive	5
▁Colo	5
credibly	5
atus	5
▁Explosi	5
▁GR	5
▁Mysterious	5
▁anthem	5
▁brotherhood	5
▁botan	5
▁concentr	5
lette	5
▁bod	5
Ship	5
One	5
▁buttress	5
▁Ilu	5
▁basalt	5
▁Berner	5
shirt	5
▁attenuate	5
▁attenuat	5
ccus	5
desk	5
▁Cognitive	5
rsal	5
▁bumbl	5
▁radicaliz	5
▁bindi	5
abinet	5
▁compilation	5
▁dissolv	5
▁cryptograph	5
▁Etc	5
material	5
isine	5
▁relearn	5
▁ultralight	5
▁quintuple	5
puncture	5
agara	5
▁infringe	5
▁retaliate	5
▁demonstrator	5
▁Shuk	5
orden	5
▁Result	5
▁Dale	5
▁Editor	5
▁unjust	5
▁sketchbook	5
▁Climb	5
▁wrapper	5
▁Frost	5
▁dungeon	5
▁inefficienc	5
▁blissful	5
▁nucleotide	5
▁micrometer	5
▁Lamb	5
▁misnomer	5
electronic	5
▁reposition	5
hallow	5
▁lawful	5
▁dossier	5
▁exemplifie	5
▁Tang	5
▁Polaroid	5
▁beggar	5
orani	5
▁Fuck	5
▁cesspool	5
▁nihilis	5
Frontier	5
▁handicapp	5
▁Kabi	5
▁Birth	5
▁entic	5
▁interw	5
▁conservator	5
▁dyke	5
▁Macedonia	5
▁discord	5
▁balk	5
▁Professional	5
▁Libyan	5
▁tantal	5
▁troupe	5
▁rectif	5
▁Equator	5
▁rental	5
▁uninv	5
▁pacifist	5
▁sabotage	5
▁holies	5
▁slic	5
orta	5
▁polyester	5
pilot	5
▁Lovin	5
▁aquaponic	5
▁congregate	5
▁volition	5
▁alma	5
varnish	5
▁Official	5
▁rivet	5
▁morphological	5
▁anatomic	5
▁sandbag	5
utenan	5
crowd	5
▁peacebuilder	5
▁dispel	5
▁pint	5
▁dehydrat	5
play	5
▁Strategi	5
▁scorch	5
▁brun	5
▁juniper	5
▁Taka	5
▁landslide	5
▁menace	5
▁emanat	5
uar	5
▁Avoid	5
▁woodwork	5
▁Michoacan	5
▁alder	5
▁Porto	5
▁Nyam	5
▁tinkerer	5
▁Krem	5
▁radial	5
▁ceremonial	5
▁primer	5
▁Talent	5
▁percolat	5
ococc	5
▁excit	5
anda	5
maste	5
▁monochrom	5
▁uncompromising	5
▁mariner	5
▁atoll	5
amper	5
cyte	5
SAF	5
▁preemptive	5
mechatronic	5
▁whizz	5
▁elucidat	5
▁heretical	5
interest	5
▁intimidate	5
▁Xbox	5
▁jeopardize	5
▁narrate	5
▁remedie	5
▁beeper	5
▁recede	5
▁Rahm	5
alist	5
▁contestant	5
▁tramp	5
▁Rut	5
▁duff	5
▁jostl	5
▁mineralog	5
▁Mead	5
▁purifie	5
▁biophysic	5
competent	5
▁unreach	5
▁Desi	5
▁beeline	5
▁germinat	5
▁micrograph	5
▁exhale	5
▁reconstitut	5
▁Flyer	5
ozo	5
▁reenact	5
sense	5
▁unlearn	5
▁balm	5
▁ME	5
temporal	5
orescent	5
▁insignifican	5
▁plunderer	5
▁Plexiglas	5
utsi	5
▁Trip	5
visor	5
zar	5
▁unshak	5
otid	5
▁archae	5
▁billow	5
volt	5
anian	5
pend	5
▁coupl	5
▁Firef	5
▁overpower	5
▁lifesav	5
▁gleeful	5
▁drugg	5
▁relapse	5
fiction	5
▁abrasion	5
▁Gro	5
▁citation	5
▁unapologetic	5
highway	5
xyl	5
▁dialog	5
turn	5
▁accrue	5
▁jeweler	5
▁rancher	5
▁atlas	5
tomo	5
▁enthrall	5
▁Mapp	5
▁retrac	5
▁Pavlov	5
▁Biblical	5
▁hydroponic	5
▁academician	5
hift	5
evolution	5
▁Kang	5
bok	5
▁EG	5
▁Deb	5
▁wiggl	5
uzzle	5
stretch	5
▁protracted	5
osni	5
▁muddle	5
▁agonize	5
▁consummat	5
caria	5
▁Cabin	5
▁Measure	5
▁Wu	5
olita	5
voir	5
▁contra	5
▁Weird	5
▁exabyte	5
▁convolution	5
▁Dill	5
▁Marath	5
▁Crom	5
ntercept	5
▁antigen	5
▁hither	5
hihuahua	5
offee	5
▁Pisto	5
▁Column	5
culu	5
▁Fior	5
▁Pira	5
▁unintellig	5
▁oscill	5
▁GN	5
▁Example	5
▁deci	5
▁furrow	5
▁Pioneer	5
▁contend	5
iya	5
▁proficienc	5
▁Benoi	5
brot	5
▁compulsion	5
▁Focus	5
▁demoralize	5
▁underestimat	5
▁Hap	5
zzie	5
ularity	5
▁radiolog	5
▁supplant	5
▁drunken	5
▁clipboard	5
▁merciless	5
▁Hilar	5
▁Scholars	5
▁villa	5
▁weasel	5
bach	5
▁Nye	5
▁jog	5
▁haz	5
▁manipulati	5
▁glib	5
▁Chain	5
▁Dunl	5
▁drudge	5
ideograph	5
▁tempest	5
▁Tul	5
▁categorical	5
wak	5
▁Appreciat	5
▁impeach	5
▁Region	5
▁fianc	5
▁OF	5
▁Jiha	5
▁squatt	5
▁flutter	5
▁candid	5
▁excel	5
▁foldout	5
▁Krug	5
▁Aunt	5
▁Lamar	5
▁Basqu	5
uiet	5
▁rehabilitate	5
▁stitche	5
▁disfigur	5
▁Approximate	5
variance	5
▁nausea	5
▁valet	5
▁Cai	5
heikh	5
▁banquet	5
▁Arcad	5
▁Rudy	5
▁multimillion	5
▁sti	5
▁forgiv	5
▁newcomer	5
▁glare	5
▁Chrom	5
ftware	5
▁Shock	5
▁Axel	5
▁Ostro	5
▁asterisk	5
▁bible	5
▁adulterer	5
▁pitfall	5
▁caricature	5
▁hesita	5
commission	5
▁defer	5
▁renegade	5
▁nobil	5
▁Yama	5
sumabl	5
▁Lena	5
▁stoop	5
▁aristocrat	5
▁Enc	5
razo	5
▁Capr	5
▁Famous	5
▁Hail	5
▁Transform	5
▁megabit	5
▁footballer	5
▁Aldri	5
KG	5
▁Deforest	5
▁grimme	5
▁decorate	5
▁Christoph	5
▁Hawkins	5
ggling	5
▁sprinkler	5
▁workaholic	5
▁Apollonia	5
▁Dop	5
powder	5
phew	5
▁Bagel	5
iliar	5
▁intelligibl	5
▁conjuga	5
▁cardiolog	5
aje	5
▁disenchant	5
▁Solid	5
▁evaluati	5
▁concerto	5
▁billi	5
amble	5
▁wallow	5
▁adamant	5
▁legislate	5
▁Herz	5
▁Philanthrop	5
▁Scha	5
▁broom	5
ilia	5
pede	5
▁Bahrain	5
▁Abid	5
pick	5
▁Emotional	5
▁Slu	5
▁TAC	5
▁Empower	5
▁ventilate	5
▁Facilit	5
▁transatlantic	5
▁UA	5
▁toxicologist	5
▁retardant	5
▁MH	5
▁resounding	5
gov	5
▁Broc	5
▁redwood	5
▁tetrahedron	5
▁bombardier	5
▁coordinator	5
▁Bengal	5
▁multiplic	5
▁Hep	5
▁decor	5
▁connector	5
▁irrigate	5
green	5
▁aquanaut	5
▁Raven	5
▁Jug	5
rugal	5
▁postmodern	5
hri	5
▁subter	5
▁aperture	5
▁gestur	5
▁haptic	5
▁Bei	5
lligator	5
▁slander	5
▁Representative	5
▁whoosh	5
▁grandchild	5
▁Digg	5
▁workbook	5
▁Eva	5
trachea	5
▁homogeniz	5
▁hemispher	5
▁Atmospher	5
tower	5
▁clog	5
▁accentuate	5
▁cricketer	5
agwa	5
▁Conflict	5
▁Prisoner	5
antee	5
▁Prevent	5
▁Task	5
▁heterogeneous	5
▁Kua	5
▁Yin	5
▁inadequa	5
▁unsatisf	5
▁Shirk	5
▁Constant	5
▁Sheep	5
▁succinct	5
easing	5
▁guillotin	5
▁inhibition	5
▁tortoise	5
create	5
▁err	5
▁Chern	5
remarkabl	5
▁wink	5
agat	5
nigma	5
▁IPO	5
▁deflat	5
▁Crow	5
▁excrete	5
▁handset	5
▁overthrow	5
hall	5
radic	5
▁Amit	5
▁Manufactur	5
▁ritualistic	5
▁Sevi	5
876	5
▁subdivid	5
▁wimp	5
▁typesett	5
▁myelo	5
▁spra	5
▁malfunction	5
▁ethicist	5
▁Hospi	5
▁Anton	5
volv	5
rones	5
▁Tusca	5
▁Ticket	5
tube	5
▁underfund	5
ntry	5
▁RK	5
▁stag	5
▁geologic	5
▁favorit	5
▁arterial	5
▁detour	5
▁solidifie	5
▁attest	5
▁keyword	5
inta	5
kata	5
peake	5
parin	5
▁misle	5
▁unroll	5
▁Realiz	5
▁Loon	5
runner	5
▁bac	5
▁slingshot	5
▁Lev	5
▁starling	5
▁illusionist	5
empt	5
▁nutritionist	5
aradoxical	5
▁Cruis	5
▁Artemi	5
▁Trial	5
▁seedling	5
obab	5
▁hydrate	5
▁typho	5
▁soloist	5
▁Stubb	5
▁giggl	5
▁xenophobi	5
▁Gutt	5
ervant	5
▁concurrenc	5
▁Vod	5
▁Conno	5
▁meritocra	5
▁Judgment	5
▁upwell	5
haka	5
anti	5
▁interrelations	5
▁jaundice	5
▁macroscopic	5
▁concede	5
▁Previous	5
▁proverb	5
▁Amhari	5
▁Rau	5
▁manipulator	5
▁sedate	5
adda	5
▁casket	5
nica	5
▁google	5
▁infusion	5
sembl	5
▁instigate	5
▁thrash	5
▁Plei	5
▁ARPA	5
▁Walla	5
▁Appalachian	5
▁Alc	5
dyar	5
▁antagonist	5
▁Drop	5
▁Bambi	5
▁Yip	5
▁reticen	5
fli	5
ritz	5
▁Emotion	5
▁riverbank	5
▁patronizing	5
▁demean	5
▁panthe	5
▁finer	5
▁barrack	5
▁Suz	5
▁pointillis	5
▁ergonomic	5
▁destruct	5
▁chemosynthe	5
▁ponytail	5
▁rattle	5
bald	5
▁Turkmen	5
▁cede	5
▁assort	5
▁Hodg	5
areful	5
▁Shrin	5
▁genocida	5
ocracy	5
umblebee	5
iq	5
ziz	5
▁Assa	5
▁Traffick	5
yndrome	5
recast	5
▁puck	5
▁Musician	5
▁RoboC	5
▁Supermarket	5
▁signify	5
▁Barber	5
▁BlackBerr	5
imini	5
▁Metz	5
▁Sumatra	5
huan	5
▁stereotyp	5
▁gnaw	5
▁perfectionist	5
▁cray	5
▁chisel	5
▁Raphael	5
▁savior	5
▁snuff	5
▁Rust	5
▁priori	5
▁seashell	5
▁underdevelop	5
▁stairwell	5
vesti	5
fauna	5
▁Madur	5
▁iterat	5
rigor	5
▁roundabout	5
▁predilection	5
orbell	5
▁wormhole	5
▁expirat	5
▁Sick	5
▁rac	5
▁defecate	5
▁papaya	5
▁nationalit	5
▁bigot	5
▁trespasser	5
ASCA	5
▁vowel	5
ffin	5
▁Sherpa	5
▁cape	5
euroscience	5
uilla	5
icense	5
▁Agi	5
▁wrinkl	5
▁arouse	5
▁proficien	5
▁lunchroom	5
▁microloan	5
incin	5
nati	5
original	5
▁paraglid	5
flagell	5
ersk	5
▁Struggl	5
▁keynot	5
▁figurative	5
▁Cub	5
▁takeaway	5
washi	5
▁plinth	5
tamina	5
upta	5
▁blatant	5
▁probosc	5
▁purchaser	5
▁coalmine	5
▁minimiz	5
▁ideologue	5
impress	5
▁autograph	5
▁pluralist	5
lastic	5
▁cataly	5
▁Veld	5
▁consonant	5
▁bristle	5
▁embellish	5
ophilia	5
▁Haye	5
▁Robust	5
▁Finish	5
▁heritab	5
ardi	5
▁boggle	5
▁caddy	5
▁Landscap	5
▁perfus	5
▁photobioreactor	5
▁poof	5
▁interneur	5
ntia	5
timulation	5
▁Anesthesi	5
▁eudaimonia	5
▁bookmobile	5
zene	5
▁Andrea	5
▁MDG	5
▁neuropsychologi	5
▁Hendri	5
▁biohack	5
vation	5
▁Famili	5
yrene	5
▁stampede	5
▁defriend	5
hini	5
▁intersectional	5
▁Steine	5
▁sociopath	5
▁sash	5
▁Repair	5
▁Lov	5
racial	5
avoid	5
▁muffle	5
▁BRIC	5
▁teleconferenc	5
▁Atala	5
itopia	5
▁fogg	5
▁Cheer	5
▁Microbio	5
▁bog	5
▁arson	5
▁inconceivabl	5
▁Nadi	5
▁neuroprosthe	5
▁Obe	5
▁Filipino	5
▁Ship	5
▁Stygi	5
▁oscillate	5
chard	5
▁cartridge	5
▁Shangr	5
▁fundraiser	5
▁timb	5
tigation	5
▁locust	5
▁negotiator	5
▁Demand	5
molo	5
monger	5
roz	5
▁monogamous	5
▁rehabilitat	5
▁cripple	5
▁Boo	5
▁Pall	5
lubber	5
▁Resolut	5
▁Armenia	5
ambi	5
▁trawler	5
▁swordfish	5
▁biodegrade	5
▁Spartan	5
▁Engine	5
odorant	5
▁Camara	5
▁flyover	5
ifty	5
▁Cesar	5
▁ELA	5
▁appare	5
▁Decade	5
▁plop	5
▁underline	5
▁zircon	5
▁Fara	5
▁Triplet	5
▁chili	5
▁Eri	5
▁McCu	5
▁Bois	5
▁Prick	5
▁Pear	5
▁Lect	5
▁WM	5
▁trunca	5
▁Borane	5
▁Server	5
▁incumbent	5
▁whiz	5
▁brood	5
▁sixteen	5
▁paternal	5
▁Hilton	5
allowe	5
▁lexigram	5
▁gobble	5
▁Prussian	5
▁monetiz	5
ltar	5
▁couchsurf	5
▁Swazi	5
Swee	5
▁mutilate	5
▁hackerspace	5
▁Bucke	5
▁sprain	5
▁counterlung	5
▁Magellanic	5
▁trampl	5
▁trott	5
▁biomimetic	5
rona	5
▁jeopard	5
▁Mulla	5
▁Smil	5
▁Gecko	5
alfa	5
▁positiv	5
▁Dani	5
▁negligen	5
▁Shot	5
▁Hayd	5
House	5
▁Mitch	5
▁medalist	5
taph	5
▁Siya	5
▁Meggendorfer	5
▁interrogator	5
▁SOC	5
▁sublinear	5
▁glycine	5
▁alanine	5
▁SuperRabbit	5
▁bucardo	5
▁Lanza	5
fel	5
▁Aaaaaa	5
▁Spade	5
pendo	5
▁Lak	5
▁Vexillolog	5
▁Philistine	5
▁Libra	5
CAPTCHA	5
▁TMS	5
▁Milli	5
▁liespotter	5
cester	5
hydrophobic	5
ounterterroris	5
Africa	5
▁Efficien	4
▁Renewable	4
▁Seque	4
▁Relax	4
▁Gerhard	4
▁Papa	4
razz	4
▁Spi	4
▁Fungi	4
bric	4
▁prefabricate	4
▁redress	4
▁Sko	4
▁uncut	4
ubric	4
▁Clif	4
▁Practical	4
adura	4
▁Lup	4
▁crossover	4
▁improvisational	4
▁HTML	4
▁Activit	4
▁Juni	4
▁Associat	4
vasion	4
▁shackle	4
▁launderer	4
▁Berni	4
▁Madoff	4
▁cavern	4
▁Pringle	4
▁klu	4
▁belittle	4
hov	4
▁sultan	4
riz	4
▁Mound	4
nvite	4
▁communi	4
▁baboon	4
favorabl	4
faith	4
▁flogg	4
▁pillag	4
▁Murder	4
▁Erin	4
▁panacea	4
▁decei	4
▁falsehood	4
▁Balkh	4
▁caveman	4
▁gurney	4
▁Calcul	4
▁uninsu	4
hucks	4
▁bicker	4
▁Primate	4
▁Straus	4
▁Exhibit	4
adulter	4
▁impatien	4
▁exasperat	4
▁reluctan	4
dualism	4
▁Foldscope	4
▁Garc	4
▁stirr	4
▁Pepper	4
▁Cock	4
▁Abbe	4
▁Dogg	4
llah	4
▁Grouch	4
▁consolidate	4
▁Tahiti	4
▁simul	4
▁Threat	4
▁weaponize	4
▁township	4
umbi	4
explain	4
▁indignit	4
▁recount	4
▁Campan	4
▁Eb	4
▁Ferran	4
eminent	4
▁Lor	4
thora	4
▁accolade	4
LOVE	4
▁transect	4
▁impregnate	4
▁diametrical	4
telling	4
▁attribution	4
hahaha	4
▁Reykjav	4
▁McEw	4
▁orchestral	4
▁stippl	4
▁acrobatic	4
▁thrip	4
▁scoot	4
▁Shand	4
▁fraternit	4
pez	4
▁preservative	4
composition	4
▁embalming	4
▁metasta	4
▁axilla	4
▁urin	4
▁Chronic	4
▁Darius	4
hurra	4
▁Reservation	4
▁baffle	4
ezza	4
▁buzzword	4
▁Emancipat	4
▁edg	4
cif	4
▁clemen	4
▁seasick	4
▁Mura	4
▁picket	4
lamp	4
arf	4
▁Fighter	4
▁paraph	4
ernali	4
▁redeploy	4
▁reassess	4
▁breadwinn	4
▁gospel	4
▁panop	4
▁forebear	4
▁irrationalit	4
▁Taber	4
gung	4
▁megachurch	4
rmou	4
▁besiege	4
jell	4
cobs	4
▁Milosevi	4
▁crass	4
▁Levitt	4
lateau	4
▁Wak	4
▁illustr	4
▁Yuc	4
▁Wat	4
▁outcompet	4
▁columnist	4
tieth	4
manias	4
▁enunciate	4
isdom	4
▁hitchhiker	4
▁stockpil	4
▁snip	4
▁Expo	4
▁minefield	4
▁pervad	4
▁electrician	4
game	4
▁occult	4
▁Albanian	4
▁GMO	4
▁uncurl	4
▁Josef	4
▁tailpipe	4
rbor	4
▁invoice	4
▁stern	4
oast	4
▁rumble	4
▁affinit	4
▁irradiat	4
spection	4
hemical	4
▁Continent	4
trocar	4
urgical	4
▁epidural	4
▁odious	4
▁soulless	4
brigad	4
▁absolve	4
▁Bli	4
▁troubleshoot	4
▁Waldo	4
▁ungo	4
▁typo	4
▁Additional	4
▁grudge	4
▁polit	4
▁pneumatic	4
▁explorator	4
▁visitation	4
▁truism	4
▁Sequoia	4
▁perforate	4
▁Neck	4
▁Sexual	4
weak	4
▁impu	4
▁shameless	4
▁Flemi	4
▁publicize	4
▁Tig	4
▁transfix	4
constrain	4
▁stupendous	4
▁Terrifying	4
▁mumb	4
▁disincentive	4
▁bragg	4
▁Kosh	4
classical	4
▁spir	4
porosi	4
▁Afr	4
▁Barclay	4
▁heterarch	4
▁storefront	4
▁underscore	4
▁Injur	4
▁transact	4
▁profuse	4
prime	4
▁Linguist	4
▁Diversity	4
▁unspo	4
▁Kuhn	4
iabet	4
▁Albatross	4
▁Approach	4
▁synchronous	4
▁Element	4
▁rideshar	4
▁Livingston	4
▁reelect	4
▁rambl	4
▁conferr	4
illett	4
▁phylogen	4
▁arbore	4
▁reiteration	4
▁mastodon	4
▁irid	4
▁Gorgon	4
▁abdicat	4
▁guild	4
▁cheerful	4
ogi	4
▁cogit	4
▁Pav	4
▁encrust	4
Promised	4
▁stipend	4
egreg	4
anx	4
▁cuddle	4
▁amphibi	4
▁Terribl	4
trusion	4
▁bolster	4
▁unforge	4
▁Telegraph	4
▁Grandmother	4
▁Yang	4
▁Micronesia	4
▁Multi	4
▁infantil	4
▁Pax	4
▁enactment	4
▁complicit	4
▁embargo	4
▁smush	4
▁prodigi	4
▁cancellation	4
▁ejaculate	4
▁ejaculation	4
▁gupp	4
▁Deposit	4
ortgage	4
▁Medal	4
▁ambush	4
▁magnific	4
▁oscillation	4
▁Mugw	4
▁cours	4
▁Nov	4
▁quadcopter	4
▁unfurl	4
▁unfriendl	4
▁Oppenheim	4
▁bazaar	4
▁Airplane	4
▁Highland	4
▁combatant	4
▁Tough	4
▁Emirat	4
trola	4
▁brim	4
gla	4
quawk	4
▁Unif	4
hesi	4
ptococc	4
▁figment	4
▁denomination	4
▁Revel	4
ksha	4
with	4
▁headband	4
▁Depo	4
▁Lil	4
▁obligat	4
▁taxicab	4
▁Barnab	4
▁Mate	4
ifficult	4
▁ashtray	4
▁veggie	4
▁confection	4
▁automaker	4
hammer	4
▁Deutsch	4
competitive	4
▁breadbasket	4
▁epitom	4
Gregor	4
▁rascal	4
▁wheelbarrow	4
▁Scarlet	4
nemploy	4
▁disapprov	4
similar	4
877	4
▁diap	4
service	4
float	4
▁contrive	4
▁Lander	4
termination	4
▁spic	4
▁concoct	4
erunner	4
▁withdrawal	4
▁desponden	4
frame	4
▁Afrika	4
▁Seko	4
▁herba	4
▁quack	4
▁grove	4
▁mummi	4
▁maquette	4
grin	4
▁Divin	4
glycemi	4
▁Scrip	4
hythm	4
▁meddl	4
▁Baba	4
bsent	4
▁Whip	4
▁Craft	4
▁prophes	4
▁Sali	4
rusha	4
▁nanomaterial	4
▁airwa	4
▁scrub	4
▁rearrang	4
church	4
▁diffract	4
▁Magi	4
▁Journalis	4
▁biopolymer	4
▁EMT	4
▁Rash	4
▁Chance	4
▁irredeemabl	4
metric	4
▁wafer	4
strom	4
blique	4
corp	4
folia	4
▁animist	4
▁asympto	4
▁adipo	4
diale	4
▁rendezvous	4
ccompani	4
▁envelop	4
▁cedar	4
▁eukaryot	4
▁Adventure	4
▁dabble	4
▁Elastic	4
▁dictu	4
▁authenticat	4
simil	4
▁Grill	4
▁Track	4
▁Ngu	4
▁Staph	4
▁chestnut	4
▁excell	4
▁thunderstorm	4
▁Gig	4
leaf	4
▁Scali	4
▁unicycl	4
▁Wooo	4
▁velociraptor	4
▁atavism	4
▁congenital	4
▁Edwin	4
▁Rainbow	4
▁clarifi	4
▁novice	4
rimming	4
▁vesicle	4
▁corpor	4
▁slut	4
▁surreptitious	4
▁Scare	4
inoco	4
▁impregna	4
▁Schrod	4
ndish	4
▁panoram	4
pian	4
▁Leop	4
▁oxal	4
taxi	4
▁tarp	4
▁Lasc	4
▁Serp	4
▁Dunn	4
▁psychographic	4
▁Brenn	4
▁gentrif	4
▁Sack	4
left	4
▁Gil	4
typical	4
▁Licht	4
▁colonel	4
▁benevolent	4
assum	4
▁McGil	4
▁resorb	4
▁Sander	4
▁dino	4
▁Hip	4
▁Lith	4
▁Planetar	4
quench	4
▁infuriat	4
▁neglig	4
▁Mug	4
unit	4
▁unmistakabl	4
▁bulletin	4
▁Sink	4
▁unmat	4
sanct	4
▁overrat	4
▁gregarious	4
invigorate	4
lawa	4
consequential	4
▁pudd	4
▁Encounter	4
▁Cristin	4
▁Bren	4
▁Fei	4
▁pervade	4
▁silica	4
▁stroma	4
▁phosphat	4
▁darkroom	4
▁inactivate	4
▁cactus	4
crystallographer	4
▁Gam	4
▁Floo	4
▁disarm	4
▁disciple	4
▁chipp	4
▁godfather	4
▁broil	4
▁coliform	4
▁Aga	4
▁selectiv	4
▁biped	4
▁backpedal	4
▁Shameless	4
▁Neighbor	4
▁Mosc	4
▁birthrate	4
▁moo	4
zmo	4
ogenetic	4
▁proclamation	4
▁devolve	4
▁extrapolation	4
▁schedul	4
rtificial	4
▁Maz	4
▁Kemp	4
▁agglomerat	4
▁babysitt	4
borg	4
▁undulat	4
▁habituate	4
▁denigrat	4
▁juris	4
asmus	4
▁Ellis	4
▁Peanut	4
▁ordina	4
▁undervalue	4
▁Villa	4
▁reopen	4
aisal	4
edict	4
▁Lawyer	4
▁cornfield	4
iguous	4
▁quantifiabl	4
emophil	4
▁Montag	4
▁Galactic	4
▁Aure	4
▁unwrap	4
▁Marcell	4
▁suppos	4
▁inoculate	4
▁messiani	4
▁unaccount	4
▁mingle	4
▁Olympian	4
▁Paralympic	4
ntermittent	4
▁Pina	4
▁rowboat	4
▁Stole	4
zza	4
▁zappe	4
ysmorphophobi	4
▁Scream	4
▁flashback	4
▁PLA	4
▁regrettabl	4
▁Nassa	4
▁unplug	4
▁barcod	4
▁Stock	4
▁provinc	4
▁tolerat	4
▁stro	4
▁Balanc	4
▁shrewd	4
▁undu	4
spatial	4
▁mudslide	4
▁hydrolog	4
▁gyroscope	4
▁Hutchi	4
▁Stato	4
▁shanty	4
▁Gave	4
▁surfboard	4
▁stifle	4
▁montage	4
buque	4
▁stuc	4
▁scen	4
▁unintentional	4
izarr	4
▁McCart	4
▁grav	4
▁Tate	4
▁reconfigure	4
▁FA	4
surface	4
patient	4
▁rou	4
▁incest	4
▁Construct	4
TES	4
compromising	4
▁retir	4
▁pharma	4
▁tantrum	4
▁recidiv	4
ngq	4
▁Pip	4
walker	4
▁DVR	4
vril	4
uebec	4
▁hypoth	4
▁induction	4
▁condescend	4
▁Smoke	4
▁Boreal	4
▁hydroelectric	4
▁Prover	4
▁Valenti	4
▁Bour	4
▁malignanc	4
▁Marrow	4
hav	4
▁Rene	4
▁sieve	4
pinning	4
▁Oriental	4
▁Donors	4
▁submissi	4
▁Leverag	4
▁oncolog	4
nchor	4
▁punitive	4
▁Rookie	4
flinch	4
▁Tropic	4
▁cartographer	4
▁Beetle	4
▁jubil	4
▁unquestionabl	4
onometr	4
▁airlock	4
VF	4
▁ophthalmologist	4
▁perio	4
bioreactor	4
icket	4
▁secession	4
▁Chancell	4
record	4
▁toolbar	4
▁Brock	4
▁vandali	4
▁brownie	4
▁pupa	4
▁Australopithec	4
▁reagent	4
▁Borde	4
▁Blend	4
▁Slip	4
▁unab	4
▁Level	4
IDI	4
▁Instrument	4
dience	4
▁hatchling	4
▁Tierr	4
▁gagg	4
▁urbanize	4
▁barbel	4
▁incapacitate	4
▁nipple	4
▁Peruvian	4
▁Publish	4
▁Nenet	4
▁innumera	4
LMA	4
heaven	4
▁guidebook	4
ASDF	4
▁Delet	4
▁toothpick	4
▁Taxi	4
▁flunk	4
▁cephalopod	4
quist	4
▁Castle	4
▁papilloma	4
▁McCl	4
▁Ambien	4
▁Wino	4
eagle	4
▁hymen	4
oplast	4
▁politiciz	4
Gru	4
accurate	4
▁carpent	4
▁screwdriver	4
▁Multiple	4
dashi	4
▁twitter	4
▁overuse	4
cilia	4
▁Fossil	4
izza	4
Robot	4
optic	4
▁Sino	4
gett	4
▁interdict	4
▁pertain	4
▁floodplain	4
▁Monument	4
▁Mineral	4
ckham	4
iana	4
ourgeois	4
▁reptilian	4
▁Cover	4
▁Oven	4
▁bronchi	4
▁Nail	4
▁sep	4
rious	4
▁lineup	4
▁carnival	4
identifie	4
▁centenarian	4
▁Okinawa	4
▁Orchid	4
pler	4
ichu	4
▁firestorm	4
phili	4
▁neoten	4
▁Scud	4
▁infatuat	4
▁somersault	4
▁screech	4
▁Demographic	4
▁twentysomething	4
▁retin	4
oblast	4
▁budge	4
▁narco	4
▁presid	4
▁bono	4
▁Marxis	4
▁pique	4
▁sequ	4
▁rummag	4
▁Spie	4
▁pilgrim	4
egment	4
rgic	4
ollapse	4
▁Sketch	4
▁spo	4
▁Contest	4
▁Okinawan	4
▁stanza	4
▁reengineer	4
▁leeche	4
▁cob	4
trophic	4
▁Mammogra	4
▁Providenc	4
▁denti	4
▁depressive	4
▁bartender	4
cott	4
▁corollar	4
▁Romania	4
▁Bati	4
▁facetious	4
▁distributor	4
mpassion	4
wab	4
▁Forge	4
▁Machiavellian	4
▁penalize	4
▁Gill	4
▁irregularit	4
▁armchair	4
▁Desk	4
▁complicate	4
▁Raj	4
▁raven	4
▁resp	4
pruden	4
ueer	4
You	4
▁obstetric	4
▁clippe	4
▁Shiva	4
avannah	4
▁deter	4
▁malevolen	4
ALL	4
▁seab	4
[...]
