<unk>	0
<s>	0
</s>	0
__SEP__	0
#	-1.43948
1	-1.80476
0	-2.57118
,	-3.57981
.	-3.78077
▁the	-4.02871
s	-4.3276
▁to	-4.48101
'	-4.5009
▁of	-4.57427
▁a	-4.62735
▁and	-4.63948
▁that	-4.82072
▁I	-4.88846
▁in	-4.98183
▁	-5.13815
▁is	-5.1689
▁you	-5.19355
▁it	-5.22333
▁we	-5.29312
▁And	-5.55479
▁this	-5.59615
t	-5.79579
▁was	-5.8916
▁for	-5.95605
▁are	-5.9992
▁have	-6.00793
▁they	-6.05073
▁on	-6.0726
▁--	-6.11427
▁with	-6.1221
▁can	-6.15748
-	-6.19717
▁So	-6.2011
?	-6.21352
▁what	-6.2369
re	-6.25406
▁be	-6.26359
▁about	-6.26744
ing	-6.39047
▁at	-6.40504
ed	-6.41372
▁not	-6.41574
▁all	-6.42589
▁do	-6.43339
▁as	-6.47081
▁there	-6.51474
d	-6.5265
▁my	-6.53839
▁one	-6.54041
▁people	-6.54077
▁like	-6.55082
▁so	-6.55086
▁"	-6.55775
▁It	-6.57825
▁from	-6.58481
▁but	-6.64282
▁an	-6.66175
:	-6.67997
▁our	-6.70206
▁or	-6.71705
▁just	-6.72157
m	-6.72656
▁We	-6.74982
▁But	-6.78129
▁me	-6.78358
▁out	-6.7914
▁if	-6.79394
▁these	-6.79803
▁very	-6.84267
▁know	-6.85243
▁The	-6.8614
▁up	-6.8703
▁by	-6.87407
▁them	-6.87648
▁going	-6.89187
ve	-6.9077
▁when	-6.91079
▁because	-6.92613
▁he	-6.92713
▁more	-6.93048
▁had	-6.93608
▁think	-6.97106
▁see	-6.98103
▁who	-6.98458
▁were	-7.01054
▁their	-7.01524
▁which	-7.02041
▁your	-7.02724
▁how	-7.03677
▁would	-7.04444
▁really	-7.05571
▁get	-7.06159
2	-7.1149
▁us	-7.12915
▁time	-7.15633
▁world	-7.16944
▁here	-7.18036
▁then	-7.18967
▁has	-7.19456
▁This	-7.21655
ly	-7.22855
▁some	-7.23081
▁into	-7.23545
▁You	-7.23923
▁don	-7.23939
▁actually	-7.25075
▁way	-7.25912
▁now	-7.2948
▁where	-7.29639
▁will	-7.29668
▁years	-7.2975
▁go	-7.30514
▁things	-7.31729
▁other	-7.32576
▁want	-7.33973
▁Now	-7.34302
▁could	-7.35269
▁make	-7.3762
▁They	-7.38563
▁been	-7.38866
y	-7.38975
▁said	-7.4559
5	-7.48926
▁something	-7.50474
▁no	-7.50793
▁right	-7.51639
▁than	-7.53324
▁those	-7.53661
ll	-7.54095
▁two	-7.54664
▁first	-7.55608
▁over	-7.57874
▁also	-7.58435
e	-7.58631
▁back	-7.59514
▁got	-7.59728
▁thing	-7.60098
▁much	-7.6183
▁little	-7.61993
▁look	-7.62633
▁say	-7.64144
er	-7.64892
▁work	-7.65157
▁That	-7.66911
▁In	-7.67507
9	-7.68465
▁only	-7.692
▁need	-7.69613
▁she	-7.7033
▁life	-7.70494
▁his	-7.70573
▁most	-7.70967
▁even	-7.73479
▁take	-7.76023
▁many	-7.76366
▁lot	-7.77793
▁kind	-7.77898
▁new	-7.80454
▁did	-7.81643
▁good	-7.82249
3	-7.8242
n	-7.82788
▁around	-7.82906
▁A	-7.84005
▁♫	-7.84795
▁different	-7.84801
▁What	-7.85327
al	-7.87047
▁There	-7.8735
▁down	-7.87746
▁her	-7.89485
▁through	-7.92299
▁He	-7.93242
▁same	-7.93914
▁every	-7.93968
▁come	-7.9482
▁use	-7.95885
▁being	-7.98593
;	-8.0036
▁doing	-8.01805
▁put	-8.02335
es	-8.02592
▁day	-8.02744
▁three	-8.03401
▁If	-8.04001
4	-8.04414
▁well	-8.08584
▁any	-8.08955
▁percent	-8.09617
▁called	-8.09704
r	-8.12206
▁find	-8.1295
▁made	-8.13066
▁human	-8.13497
8	-8.13899
▁Well	-8.14625
▁tell	-8.15985
▁year	-8.17801
▁why	-8.17914
▁fact	-8.18281
▁change	-8.18483
▁didn	-8.2141
▁own	-8.21804
▁talk	-8.22259
▁great	-8.22301
▁should	-8.23178
▁today	-8.23463
▁idea	-8.24095
▁started	-8.2411
▁after	-8.2568
▁last	-8.26494
6	-8.26607
▁let	-8.28722
▁thought	-8.29146
▁went	-8.30395
▁better	-8.30527
▁might	-8.31216
▁big	-8.31298
"	-8.31474
▁before	-8.31957
▁give	-8.32004
▁important	-8.33366
▁part	-8.33637
▁another	-8.33688
▁course	-8.33738
▁problem	-8.33995
▁off	-8.3459
in	-8.35399
▁never	-8.35453
▁able	-8.35672
▁start	-8.36072
▁system	-8.36396
▁still	-8.36561
▁together	-8.3816
▁him	-8.39476
▁water	-8.4
▁ago	-8.40403
▁show	-8.40608
▁place	-8.41071
c	-8.41528
p	-8.41629
▁next	-8.41754
▁bit	-8.41835
▁story	-8.41902
th	-8.42735
▁came	-8.42815
a	-8.43028
▁brain	-8.43035
▁long	-8.43925
▁few	-8.44874
▁again	-8.4565
▁found	-8.45669
▁mean	-8.46053
▁When	-8.46872
▁does	-8.47354
▁used	-8.47773
▁each	-8.48048
▁between	-8.48099
▁re	-8.49405
▁question	-8.495
▁data	-8.50079
▁technology	-8.5034
▁end	-8.51264
▁too	-8.51291
▁women	-8.52776
▁point	-8.52977
▁love	-8.53452
l	-8.54254
,"	-8.54322
▁example	-8.54572
▁understand	-8.54646
▁looking	-8.54687
S	-8.55153
▁wanted	-8.57774
▁done	-8.578
▁doesn	-8.5789
ers	-8.58225
▁Because	-8.58493
▁call	-8.58658
o	-8.59829
▁ever	-8.60062
b	-8.60135
▁whole	-8.60191
▁its	-8.60333
▁live	-8.60391
▁sort	-8.60538
▁real	-8.60678
▁How	-8.60716
I	-8.6156
▁believe	-8.61981
▁million	-8.62038
▁school	-8.63734
u	-8.63941
▁four	-8.63973
▁trying	-8.64648
▁power	-8.64656
ic	-8.64683
▁person	-8.64972
▁always	-8.65222
▁children	-8.65394
▁try	-8.65398
▁feel	-8.6586
▁away	-8.66251
▁working	-8.6666
▁may	-8.67373
▁help	-8.67775
▁country	-8.67886
▁S	-8.69201
en	-8.69824
le	-8.70048
g	-8.71232
▁design	-8.72859
st	-8.73221
or	-8.73271
▁using	-8.7334
ion	-8.73401
▁means	-8.74368
▁took	-8.7457
▁create	-8.74657
▁E	-8.74706
▁thinking	-8.74731
▁high	-8.74902
▁money	-8.74996
▁information	-8.75122
▁space	-8.75275
▁maybe	-8.7557
▁become	-8.76089
▁home	-8.76335
▁five	-8.76418
▁number	-8.76673
▁un	-8.77062
ation	-8.77723
▁small	-8.7788
▁everything	-8.77936
▁light	-8.78279
▁C	-8.78793
▁kids	-8.78809
▁man	-8.78895
▁old	-8.80053
▁One	-8.80058
▁For	-8.80851
▁left	-8.81569
▁enough	-8.82109
▁best	-8.82173
▁future	-8.82177
▁My	-8.82316
▁second	-8.82571
el	-8.82689
▁getting	-8.82969
ity	-8.83691
▁social	-8.84307
▁She	-8.84657
▁B	-8.84958
▁quite	-8.85064
▁food	-8.8513
▁sense	-8.85202
ro	-8.86192
▁making	-8.86373
able	-8.86397
▁energy	-8.86534
▁ask	-8.8697
▁These	-8.87131
▁U	-8.87231
▁happened	-8.87394
▁less	-8.87414
▁hard	-8.87615
▁talking	-8.87637
▁play	-8.88253
▁comes	-8.88368
▁told	-8.88393
▁probably	-8.88461
▁hand	-8.88517
▁building	-8.88978
▁body	-8.89354
▁build	-8.8938
▁countries	-8.89476
ri	-8.89689
▁interesting	-8.89955
▁without	-8.90117
▁science	-8.90142
▁stuff	-8.90795
▁car	-8.919
▁T	-8.92178
on	-8.92993
ness	-8.92997
▁dollars	-8.93227
▁moment	-8.93453
▁times	-8.93499
▁am	-8.94231
▁coming	-8.94967
▁pretty	-8.95091
▁such	-8.95093
▁side	-8.95463
▁lives	-8.95496
▁Here	-8.95499
▁anything	-8.95554
▁happen	-8.95601
▁saw	-8.95866
A	-8.95867
se	-8.96295
▁men	-8.96865
▁across	-8.9713
ar	-8.97156
▁room	-8.97426
▁care	-8.98236
▁open	-8.98351
▁family	-8.98777
▁Let	-8.98999
▁half	-8.99049
▁learn	-8.99421
▁simple	-8.9963
▁reason	-8.99695
▁later	-9.00105
▁seen	-9.00529
▁under	-9.00883
▁experience	-9.01129
▁asked	-9.01229
▁F	-9.01242
▁Africa	-9.01545
▁de	-9.01811
▁else	-9.01861
▁living	-9.01861
▁As	-9.02099
▁case	-9.02299
▁New	-9.02361
▁All	-9.03062
▁having	-9.03105
li	-9.03197
▁move	-9.03258
i	-9.03341
▁process	-9.03392
▁far	-9.03409
▁goes	-9.03544
▁bad	-9.04211
lo	-9.04576
▁project	-9.04705
▁young	-9.04788
▁says	-9.05338
▁picture	-9.05343
▁computer	-9.05614
C	-9.05795
la	-9.0618
▁happens	-9.0625
▁No	-9.06307
it	-9.06716
▁mind	-9.06764
▁set	-9.07141
▁single	-9.0763
▁city	-9.07636
▁remember	-9.0789
▁makes	-9.08305
▁days	-9.08431
▁almost	-9.09212
il	-9.09224
ur	-9.09261
▁global	-9.09402
▁head	-9.09575
▁while	-9.09605
▁inside	-9.09683
▁public	-9.09849
▁planet	-9.10005
▁health	-9.10023
▁saying	-9.10199
▁already	-9.10641
▁community	-9.10641
▁book	-9.10821
▁control	-9.1083
▁Earth	-9.11001
▁hope	-9.11102
▁billion	-9.11136
▁problems	-9.11234
k	-9.11415
▁Thank	-9.11512
▁top	-9.11663
▁ways	-9.11945
▁yet	-9.12275
▁business	-9.12423
▁answer	-9.12529
▁both	-9.12878
▁matter	-9.13162
▁looked	-9.13284
▁possible	-9.13562
ment	-9.13761
▁whether	-9.1384
▁nothing	-9.13841
▁order	-9.1388
▁six	-9.13913
▁once	-9.13963
h	-9.14339
▁read	-9.14427
▁someone	-9.14698
▁often	-9.14779
▁keep	-9.15738
▁guy	-9.16009
▁within	-9.16397
▁basically	-9.16478
▁age	-9.16821
▁wrong	-9.16954
▁history	-9.17338
▁per	-9.17441
▁myself	-9.17538
▁form	-9.18426
▁true	-9.18694
▁Why	-9.18725
▁bring	-9.18767
▁months	-9.18868
▁ideas	-9.1907
▁child	-9.1959
ies	-9.19636
▁imagine	-9.19822
▁job	-9.19832
▁couple	-9.19871
▁sure	-9.20226
▁face	-9.20431
ter	-9.20686
▁group	-9.20954
an	-9.20957
us	-9.20996
ce	-9.21185
▁heard	-9.21433
ent	-9.21543
▁amazing	-9.21992
ra	-9.22144
D	-9.22637
▁turn	-9.22767
et	-9.22992
▁model	-9.23121
▁cells	-9.23296
▁United	-9.23487
▁war	-9.2365
▁government	-9.23723
▁cancer	-9.23899
to	-9.24377
▁beautiful	-9.24443
▁wasn	-9.24824
▁built	-9.24955
▁looks	-9.24975
▁run	-9.25036
▁night	-9.25168
▁words	-9.25351
▁research	-9.25384
▁stop	-9.25655
▁line	-9.25985
▁until	-9.2671
▁G	-9.2689
▁share	-9.27519
▁piece	-9.27753
▁self	-9.28234
M	-9.28535
▁music	-9.292
ne	-9.29366
▁everybody	-9.29715
▁became	-9.29822
▁knew	-9.29931
▁must	-9.29945
▁word	-9.2996
▁decided	-9.30092
▁language	-9.30138
▁species	-9.30151
▁video	-9.30249
▁Internet	-9.30369
▁though	-9.30613
▁past	-9.30755
▁completely	-9.3094
▁America	-9.31063
▁education	-9.31298
▁heart	-9.31756
▁hear	-9.3197
▁friends	-9.32249
▁universe	-9.32249
f	-9.32467
▁study	-9.32528
▁isn	-9.32878
▁places	-9.32969
▁name	-9.33068
▁learned	-9.33151
▁States	-9.33334
▁happening	-9.33844
▁state	-9.34087
▁since	-9.34167
▁large	-9.34271
▁stories	-9.34508
▁exactly	-9.34522
▁woman	-9.34622
▁huge	-9.3474
▁somebody	-9.34856
▁taking	-9.34966
▁students	-9.35092
▁nature	-9.35311
up	-9.35461
▁itself	-9.35462
▁society	-9.35782
▁animals	-9.35961
▁front	-9.36068
▁Or	-9.36093
▁level	-9.3638
▁works	-9.36708
z	-9.37216
▁ourselves	-9.37523
▁against	-9.37809
▁R	-9.37916
ch	-9.37935
▁themselves	-9.38113
▁sound	-9.38118
▁To	-9.38235
▁sometimes	-9.38826
▁India	-9.39628
▁disease	-9.3991
▁company	-9.40267
ry	-9.40371
▁hours	-9.40532
▁created	-9.4055
▁along	-9.40903
▁art	-9.40934
▁questions	-9.41001
▁mother	-9.41139
▁D	-9.41316
▁OK	-9.41414
▁minutes	-9.41425
▁environment	-9.41691
▁couldn	-9.41797
ma	-9.41989
ate	-9.42063
▁view	-9.42389
▁worked	-9.42445
T	-9.4254
▁God	-9.42727
de	-9.4274
▁Do	-9.4277
▁game	-9.42776
▁rather	-9.42842
▁won	-9.42966
▁P	-9.4311
▁particular	-9.43141
▁figure	-9.43251
ist	-9.43347
▁TED	-9.43585
▁air	-9.43903
est	-9.43927
▁turns	-9.44342
▁least	-9.44342
▁house	-9.44489
▁land	-9.44728
▁Then	-9.44873
▁entire	-9.45028
▁third	-9.45032
▁everyone	-9.45113
▁black	-9.45228
▁close	-9.4534
▁early	-9.45366
▁outside	-9.45658
ta	-9.45748
man	-9.45804
▁thousands	-9.45848
▁kinds	-9.46677
ive	-9.46698
▁instead	-9.47283
▁free	-9.47664
▁test	-9.47682
▁cell	-9.47746
▁...	-9.47777
▁gave	-9.47816
▁seven	-9.47934
age	-9.47991
▁natural	-9.48254
▁happy	-9.48327
na	-9.48593
ck	-9.48595
▁guys	-9.49105
▁difference	-9.49117
▁taken	-9.49209
▁gets	-9.49817
ever	-9.49919
▁deal	-9.4994
te	-9.4999
▁full	-9.50119
▁common	-9.5018
▁market	-9.50318
po	-9.50363
▁American	-9.50369
▁China	-9.50583
un	-9.50724
▁short	-9.50985
▁changed	-9.51268
ting	-9.51501
P	-9.51512
as	-9.5154
▁At	-9.52099
▁leave	-9.52522
▁learning	-9.52627
x	-9.52665
▁machine	-9.52671
▁K	-9.52813
▁co	-9.52964
▁middle	-9.53026
ge	-9.5304
▁M	-9.53192
▁systems	-9.53415
▁area	-9.53423
▁local	-9.53781
▁team	-9.5394
▁news	-9.544
▁father	-9.54411
▁program	-9.54484
▁century	-9.54489
▁Okay	-9.54491
▁rest	-9.54567
▁cities	-9.54972
▁eyes	-9.55025
▁walk	-9.55059
▁pay	-9.55636
▁cost	-9.55838
▁lots	-9.55868
▁given	-9.55886
▁others	-9.55956
▁turned	-9.56042
▁economic	-9.5648
▁beginning	-9.56525
▁difficult	-9.56603
▁yourself	-9.56958
▁behind	-9.57237
▁population	-9.57347
▁size	-9.5742
▁finally	-9.577
year	-9.57816
▁York	-9.57821
op	-9.57848
▁perhaps	-9.57957
▁culture	-9.58106
▁oil	-9.58414
▁began	-9.58435
▁powerful	-9.58514
▁easy	-9.58681
old	-9.58755
▁certain	-9.589
The	-9.58961
▁wonderful	-9.59014
▁media	-9.59961
▁surface	-9.59999
during	-9.6004
▁needed	-9.60067
▁moving	-9.60148
▁companies	-9.60442
▁realized	-9.60586
▁fish	-9.60824
▁Some	-9.60938
▁terms	-9.61016
▁cannot	-9.61037
▁seeing	-9.61132
▁grow	-9.61274
▁poor	-9.61329
id	-9.61458
▁longer	-9.61488
▁simply	-9.61783
▁image	-9.61807
ism	-9.61893
▁paper	-9.61961
▁political	-9.62234
▁week	-9.62269
▁scale	-9.62409
▁hands	-9.62693
B	-9.62815
ized	-9.63229
sh	-9.63566
▁phone	-9.63696
ie	-9.63727
▁spend	-9.6374
O	-9.64047
▁p	-9.64187
▁support	-9.64348
▁reality	-9.64408
ci	-9.6475
▁buy	-9.64971
▁felt	-9.65295
ul	-9.65399
▁tried	-9.65476
▁parents	-9.65509
▁whatever	-9.65524
▁eight	-9.65598
▁amount	-9.65738
▁red	-9.664
ted	-9.66442
▁death	-9.66484
▁parts	-9.66656
▁c	-9.6685
▁ones	-9.66869
▁pro	-9.67039
▁takes	-9.67553
ia	-9.67635
▁quickly	-9.67846
ling	-9.67933
▁con	-9.68214
▁ocean	-9.6825
▁fear	-9.68295
▁spent	-9.68458
▁People	-9.68631
▁O	-9.6864
▁ground	-9.68775
▁growth	-9.68819
▁blood	-9.68954
▁low	-9.69155
▁Ma	-9.69505
L	-9.69606
ty	-9.69618
▁interested	-9.69671
▁opportunity	-9.70069
▁needs	-9.70084
▁gone	-9.70172
no	-9.70239
▁value	-9.70241
ol	-9.70247
▁die	-9.70274
▁Just	-9.70747
▁sea	-9.71053
▁speak	-9.71147
▁behavior	-9.7123
▁field	-9.71262
ut	-9.71319
▁friend	-9.71336
less	-9.71432
▁write	-9.71548
ally	-9.71571
ad	-9.71711
▁individual	-9.71717
w	-9.7178
▁weeks	-9.71838
▁complex	-9.7203
▁either	-9.72211
▁known	-9.72483
at	-9.72493
▁blue	-9.72544
am	-9.72545
rs	-9.72859
▁Our	-9.72891
▁sitting	-9.73222
▁hold	-9.73247
▁ability	-9.73312
▁green	-9.73407
▁economy	-9.73552
▁climate	-9.73723
▁challenge	-9.73774
▁access	-9.74058
▁stage	-9.74079
Well	-9.74183
▁lost	-9.74236
▁met	-9.74327
▁CA	-9.74362
▁white	-9.74595
▁key	-9.75082
▁DNA	-9.75083
▁On	-9.75243
▁chance	-9.75257
▁nice	-9.75427
▁eat	-9.755
▁realize	-9.7564
▁humans	-9.7573
▁animal	-9.76007
▁structure	-9.76038
ous	-9.76064
▁cool	-9.76124
▁incredible	-9.76463
▁Right	-9.76467
▁feet	-9.76506
ha	-9.7653
▁step	-9.76541
N	-9.76545
co	-9.76569
▁Be	-9.76675
▁average	-9.76812
▁explain	-9.76822
▁b	-9.76855
▁feeling	-9.76864
▁risk	-9.76869
mo	-9.77025
▁expect	-9.77033
E	-9.77085
▁morning	-9.77687
▁personal	-9.77711
▁approach	-9.78183
ance	-9.78298
▁cut	-9.78304
▁physical	-9.78321
▁pre	-9.7872
▁W	-9.78831
▁areas	-9.78835
▁Re	-9.78881
▁experiment	-9.78948
▁wouldn	-9.7901
▁kid	-9.79034
▁changes	-9.79082
▁shows	-9.79204
▁clear	-9.7921
▁patients	-9.79486
▁network	-9.79574
▁result	-9.79575
ver	-9.79609
▁bottom	-9.79641
▁innovation	-9.79641
▁watch	-9.79668
▁based	-9.7974
▁fire	-9.79749
▁non	-9.79903
▁material	-9.79995
▁audience	-9.80181
▁growing	-9.80233
▁film	-9.80482
▁born	-9.80544
pe	-9.80643
▁J	-9.80663
▁issue	-9.80675
▁scientists	-9.80748
You	-9.80901
▁color	-9.81067
▁brought	-9.81086
▁Not	-9.81123
▁understanding	-9.81319
ine	-9.81431
▁Can	-9.81468
vi	-9.81479
▁literally	-9.82004
R	-9.82019
▁wrote	-9.82184
▁development	-9.82571
ir	-9.82845
▁attention	-9.82938
▁knowledge	-9.83121
▁map	-9.83358
▁numbers	-9.83596
▁technologies	-9.83854
▁girl	-9.8386
▁pick	-9.84086
bo	-9.84362
▁hundreds	-9.84365
▁forward	-9.84579
▁alone	-9.84795
nt	-9.85106
me	-9.85179
▁dark	-9.85182
▁fun	-9.85431
K	-9.85461
What	-9.85535
▁lab	-9.85721
▁giving	-9.85743
▁miles	-9.85775
▁running	-9.85939
um	-9.86054
ated	-9.86059
▁e	-9.86185
▁developed	-9.86274
▁special	-9.86403
▁center	-9.86549
▁movement	-9.86555
▁guess	-9.86701
▁dis	-9.8674
▁tools	-9.87137
▁fly	-9.87164
▁deep	-9.87345
▁measure	-9.8752
▁starting	-9.8805
▁force	-9.88062
▁break	-9.88107
▁seems	-9.88122
▁books	-9.88142
em	-9.88522
▁anyone	-9.88661
ize	-9.88706
▁telling	-9.88804
▁World	-9.8886
▁solve	-9.88892
▁theory	-9.89058
is	-9.89261
ac	-9.89366
ian	-9.8944
▁sit	-9.89629
▁present	-9.89649
▁impact	-9.89693
▁meet	-9.89882
▁act	-9.89904
▁focus	-9.89913
▁sun	-9.89967
▁Yeah	-9.9035
and	-9.90532
▁solution	-9.90911
be	-9.91059
▁talked	-9.9111
▁voice	-9.91113
ary	-9.91176
▁millions	-9.91202
▁absolutely	-9.91549
▁images	-9.91592
▁rate	-9.91787
▁stay	-9.91937
▁sex	-9.91983
▁period	-9.92038
▁showed	-9.92174
the	-9.92296
▁English	-9.92445
▁type	-9.9246
ful	-9.92502
▁issues	-9.92503
▁normal	-9.92604
▁ex	-9.9261
▁similar	-9.92645
ke	-9.92882
▁save	-9.92972
▁send	-9.93112
▁allow	-9.93187
▁table	-9.93475
▁industry	-9.93676
▁sub	-9.93681
▁online	-9.93688
▁Europe	-9.93872
▁South	-9.93883
▁girls	-9.93895
."	-9.9407
▁discovered	-9.9417
▁dream	-9.9422
▁office	-9.94333
cu	-9.94421
▁stand	-9.94422
▁eye	-9.94491
▁law	-9.94619
ant	-9.94632
▁fast	-9.94663
▁situation	-9.94851
ial	-9.94887
▁resources	-9.94967
▁robot	-9.94997
▁By	-9.95109
▁journey	-9.95131
▁developing	-9.95282
▁creating	-9.95341
G	-9.95349
▁cars	-9.95494
▁baby	-9.95551
▁recently	-9.95801
▁N	-9.95932
tic	-9.96053
▁perfect	-9.96111
▁relationship	-9.96131
▁produce	-9.9614
▁begin	-9.96159
▁gives	-9.96229
▁listen	-9.96455
▁product	-9.96589
▁V	-9.96679
▁dead	-9.96763
▁plant	-9.96769
om	-9.96887
▁designed	-9.96961
▁shape	-9.9697
▁modern	-9.97031
▁truth	-9.97034
▁seem	-9.9705
▁screen	-9.97292
▁Google	-9.97462
▁yes	-9.97474
▁follow	-9.97774
▁drive	-9.97781
▁patient	-9.97905
▁thank	-9.97938
▁soon	-9.9804
▁De	-9.98065
▁major	-9.98092
▁available	-9.98323
ba	-9.98377
▁evidence	-9.98539
▁especially	-9.98756
▁tiny	-9.9876
▁street	-9.98969
time	-9.99354
▁asking	-9.99394
▁basic	-9.99403
▁recognize	-9.9941
line	-9.99417
▁fall	-9.99419
ot	-9.99478
▁continue	-9.99525
▁tend	-9.9958
▁medical	-9.9963
▁playing	-9.99702
ach	-9.99716
▁code	-9.99964
▁response	-10.0029
▁mass	-10.0049
hi	-10.0049
▁incredibly	-10.0051
▁involved	-10.0053
▁generation	-10.0058
▁ice	-10.0075
▁son	-10.0084
▁Oh	-10.0103
▁wonder	-10.0117
▁effect	-10.014
▁bigger	-10.0141
▁digital	-10.0146
▁reasons	-10.0148
▁changing	-10.0148
▁L	-10.0155
▁message	-10.0187
▁groups	-10.019
ap	-10.0195
▁choice	-10.0209
▁carbon	-10.021
▁vision	-10.0213
▁drug	-10.0232
▁haven	-10.0234
▁role	-10.0252
▁lived	-10.027
▁box	-10.0331
▁object	-10.0346
▁computers	-10.0352
▁Yes	-10.0365
▁list	-10.0365
▁writing	-10.0369
▁wall	-10.0373
▁month	-10.0376
▁towards	-10.0392
▁g	-10.0393
▁Chinese	-10.0411
▁beyond	-10.0411
▁solar	-10.0417
▁putting	-10.044
▁drugs	-10.0477
▁several	-10.048
▁hundred	-10.0486
▁pictures	-10.0491
▁First	-10.0503
v	-10.0521
▁arm	-10.0539
va	-10.0539
▁develop	-10.0549
▁reach	-10.0565
▁mine	-10.0584
ster	-10.0589
▁nine	-10.0596
▁Co	-10.0598
mi	-10.0601
▁favorite	-10.0643
▁add	-10.0643
ni	-10.0654
▁potential	-10.0659
▁ma	-10.0659
▁becomes	-10.066
by	-10.0668
ator	-10.0671
▁died	-10.0673
ating	-10.0675
▁lose	-10.0677
▁hit	-10.0689
▁device	-10.0699
▁aren	-10.073
▁national	-10.0738
▁path	-10.0754
▁teach	-10.0758
▁software	-10.0761
▁likely	-10.077
ow	-10.0772
▁communities	-10.0784
▁speed	-10.079
▁stick	-10.0791
▁fight	-10.0791
per	-10.0803
▁After	-10.0808
▁With	-10.0809
▁class	-10.0813
ca	-10.0817
▁wind	-10.0834
▁worth	-10.0857
▁general	-10.0873
nd	-10.088
▁throw	-10.0928
he	-10.0934
▁strong	-10.094
▁camera	-10.0946
▁Maybe	-10.0955
▁onto	-10.0958
▁success	-10.0972
▁anybody	-10.0977
▁action	-10.0999
ti	-10.0999
▁Chris	-10.1001
▁Every	-10.1005
uc	-10.1025
▁late	-10.1031
tra	-10.1048
▁higher	-10.1068
▁trust	-10.1074
▁touch	-10.1074
▁rules	-10.1076
▁mo	-10.1079
▁quality	-10.108
▁Of	-10.1081
▁H	-10.1116
di	-10.1133
▁particularly	-10.1137
▁An	-10.1152
▁violence	-10.1176
▁Who	-10.1205
▁certainly	-10.1209
▁spread	-10.1235
▁moved	-10.1241
▁showing	-10.1241
ard	-10.1242
▁War	-10.1243
▁biggest	-10.1247
cy	-10.1253
▁wait	-10.1255
▁exciting	-10.1272
▁skin	-10.1274
ton	-10.1274
▁largest	-10.1276
▁walking	-10.1277
com	-10.1277
▁wish	-10.1293
▁evolution	-10.1299
▁post	-10.1328
▁schools	-10.1333
▁scientific	-10.1346
▁further	-10.1347
▁obviously	-10.1352
▁okay	-10.1372
▁medicine	-10.1372
▁totally	-10.1377
▁leaders	-10.1383
im	-10.1386
▁safe	-10.1386
▁Ba	-10.1388
▁kill	-10.139
▁creative	-10.1397
ors	-10.1407
▁finding	-10.1422
▁cause	-10.1461
▁among	-10.1472
▁plan	-10.1481
▁materials	-10.1482
▁hour	-10.1486
▁Go	-10.1486
▁lead	-10.1496
▁waste	-10.1511
▁hot	-10.1521
▁sounds	-10.1523
▁plants	-10.1556
▁fit	-10.1559
mp	-10.1565
▁village	-10.1572
▁nobody	-10.1577
▁teachers	-10.1594
▁police	-10.1602
▁St	-10.1602
go	-10.1612
ns	-10.1613
▁protect	-10.1615
▁smart	-10.1623
▁student	-10.1625
F	-10.1631
we	-10.1666
▁Le	-10.167
▁sleep	-10.1688
▁slow	-10.1694
▁ready	-10.1697
Oh	-10.17
▁clean	-10.1703
▁watching	-10.1704
▁choose	-10.1705
▁named	-10.1713
▁results	-10.1715
▁revolution	-10.1727
▁meaning	-10.1739
▁consider	-10.174
▁road	-10.1745
▁everywhere	-10.1784
▁secret	-10.1784
▁led	-10.1787
▁North	-10.1787
▁gas	-10.1801
▁African	-10.1809
▁Most	-10.1812
▁extremely	-10.1815
▁Ha	-10.1822
▁examples	-10.1829
▁travel	-10.183
▁starts	-10.1835
▁hospital	-10.1836
▁door	-10.1837
mer	-10.1848
▁fundamental	-10.1856
▁eventually	-10.1863
▁notice	-10.1883
▁f	-10.1888
▁individuals	-10.1889
▁crazy	-10.189
▁version	-10.1899
▁connected	-10.1908
▁main	-10.1911
▁security	-10.1921
▁context	-10.1943
▁sent	-10.1943
▁record	-10.1964
▁Even	-10.197
▁fine	-10.197
ists	-10.1972
pi	-10.198
▁train	-10.199
▁moral	-10.1995
▁tool	-10.1997
▁allowed	-10.2018
▁tree	-10.2026
land	-10.2031
▁grew	-10.205
▁track	-10.206
▁goal	-10.2067
▁college	-10.2077
▁perspective	-10.2104
▁thousand	-10.2108
▁bio	-10.211
▁near	-10.2124
▁supposed	-10.2136
▁organization	-10.2138
▁boy	-10.2141
▁visual	-10.2144
▁pattern	-10.2163
▁shot	-10.2168
▁search	-10.2169
▁projects	-10.2175
H	-10.2183
▁star	-10.2204
▁connect	-10.2205
▁trees	-10.2211
▁families	-10.2213
▁including	-10.2213
▁essentially	-10.2216
▁pain	-10.2217
▁positive	-10.2218
▁games	-10.2231
▁shown	-10.2238
▁movie	-10.2246
ig	-10.2255
▁traditional	-10.2268
▁robots	-10.2277
▁treat	-10.2289
▁objects	-10.2291
ish	-10.2292
▁models	-10.2295
▁extraordinary	-10.2297
▁source	-10.2298
▁rich	-10.2298
▁forest	-10.2305
▁international	-10.2324
▁poverty	-10.2324
▁wife	-10.2324
▁worse	-10.2324
▁address	-10.2324
▁jobs	-10.2335
▁serious	-10.2344
▁square	-10.2352
▁memory	-10.2379
▁critical	-10.2424
▁West	-10.243
▁democracy	-10.2435
▁bunch	-10.2435
▁attack	-10.2443
▁zero	-10.2447
▁Dr	-10.2455
▁taught	-10.2463
▁meant	-10.2464
We	-10.2465
ect	-10.2485
▁somewhere	-10.2492
▁faster	-10.2498
▁decision	-10.2501
led	-10.2512
fi	-10.2519
▁above	-10.252
▁collect	-10.2526
▁lower	-10.2531
▁killed	-10.2538
like	-10.2547
▁genetic	-10.2548
out	-10.2548
bi	-10.2585
▁doctor	-10.2587
▁career	-10.2596
▁progress	-10.2602
▁larger	-10.2613
▁store	-10.2615
▁board	-10.2636
▁please	-10.2636
▁content	-10.2642
▁ended	-10.2642
▁conversation	-10.2644
▁teacher	-10.2654
▁Al	-10.2659
▁crisis	-10.2662
▁activity	-10.2662
▁super	-10.2663
▁excited	-10.2663
▁Where	-10.2674
ho	-10.2677
▁cases	-10.269
▁bar	-10.2691
▁Today	-10.2691
▁standing	-10.2692
▁suggest	-10.2693
▁happiness	-10.2694
▁suddenly	-10.2695
▁allows	-10.2704
son	-10.2729
ga	-10.2734
▁Don	-10.2741
▁increase	-10.2746
▁plastic	-10.2749
ber	-10.2762
dy	-10.2764
▁conditions	-10.2766
ities	-10.2776
▁compassion	-10.2777
▁famous	-10.2807
▁Those	-10.2807
▁female	-10.2836
▁truly	-10.2836
▁cold	-10.2837
▁Ro	-10.2852
▁minute	-10.2861
▁complicated	-10.2865
nce	-10.2879
▁sell	-10.2881
▁position	-10.2886
▁song	-10.2894
▁check	-10.2895
▁site	-10.2896
▁accept	-10.2896
▁exist	-10.2906
▁specific	-10.2908
▁successful	-10.2917
▁text	-10.2923
▁sp	-10.2929
▁drop	-10.2953
▁indeed	-10.2954
▁rise	-10.2956
ex	-10.2964
▁pull	-10.2973
▁rights	-10.298
▁impossible	-10.2983
▁kept	-10.2983
▁genes	-10.2986
▁buildings	-10.2991
▁cr	-10.2997
▁Sa	-10.3
▁older	-10.3004
▁interest	-10.3007
▁website	-10.3013
No	-10.3016
der	-10.3017
▁Look	-10.3034
▁reading	-10.3037
do	-10.304
▁studies	-10.3043
▁policy	-10.3072
▁floor	-10.3102
▁freedom	-10.3103
▁military	-10.3103
▁TV	-10.3103
▁count	-10.3113
▁cross	-10.3119
side	-10.3124
▁feed	-10.3126
▁HIV	-10.3132
▁products	-10.3139
▁service	-10.3151
▁deliver	-10.3156
king	-10.3165
▁nuclear	-10.3165
▁region	-10.3171
▁workers	-10.3177
▁stars	-10.3191
▁return	-10.3207
▁tells	-10.3217
▁account	-10.3221
▁mention	-10.3224
▁price	-10.3242
▁shift	-10.3243
▁massive	-10.3254
con	-10.3267
▁private	-10.3284
▁financial	-10.3284
▁dangerous	-10.3284
▁training	-10.3303
▁prison	-10.3308
▁purpose	-10.3314
▁subject	-10.3335
▁East	-10.3346
▁usually	-10.3347
▁inter	-10.3372
▁unique	-10.3376
▁Like	-10.3376
▁somehow	-10.3378
▁la	-10.3403
▁temperature	-10.3407
▁series	-10.3407
▁pressure	-10.3407
▁provide	-10.3417
▁Bo	-10.3418
▁range	-10.3419
▁treatment	-10.343
▁alive	-10.3438
▁brains	-10.3439
gen	-10.3471
▁Are	-10.3471
▁race	-10.3471
▁knows	-10.3473
▁decide	-10.3485
▁strange	-10.3496
▁sign	-10.3504
fa	-10.3507
▁Me	-10.3515
ization	-10.3515
▁prevent	-10.353
▁forms	-10.3531
▁draw	-10.3542
▁smaller	-10.3554
▁current	-10.3555
▁practice	-10.3555
▁anymore	-10.3563
▁upon	-10.3575
▁decisions	-10.3584
▁respect	-10.3607
▁win	-10.361
▁yeah	-10.3625
▁electricity	-10.3626
▁page	-10.3629
min	-10.3633
▁mom	-10.364
▁Man	-10.3654
▁physics	-10.3657
▁becoming	-10.3661
▁press	-10.368
▁bacteria	-10.3687
▁biology	-10.3689
▁function	-10.3699
▁pieces	-10.3701
▁solutions	-10.3707
▁patterns	-10.3716
pa	-10.3727
▁math	-10.3727
ring	-10.3736
if	-10.3738
▁healthy	-10.3743
ny	-10.3749
▁mental	-10.3751
▁effective	-10.3755
▁skills	-10.3756
▁capital	-10.3766
▁actual	-10.3778
▁bed	-10.3781
▁enormous	-10.3785
▁trade	-10.3785
▁written	-10.3787
▁raise	-10.3802
▁lines	-10.3805
ud	-10.3811
▁Pa	-10.382
▁sorts	-10.3824
▁environmental	-10.3834
▁Mo	-10.3845
▁anywhere	-10.3849
▁micro	-10.385
▁bo	-10.3853
▁ran	-10.3859
▁weren	-10.3867
▁dog	-10.3874
▁rule	-10.3879
▁income	-10.3892
▁machines	-10.3903
▁charge	-10.3914
▁virtual	-10.3914
▁Li	-10.3914
▁loved	-10.3916
bu	-10.393
que	-10.3931
ak	-10.3933
▁waiting	-10.3936
▁concept	-10.394
▁San	-10.3945
▁explore	-10.3952
▁direction	-10.3979
▁earlier	-10.3979
▁o	-10.3982
▁expensive	-10.3994
W	-10.3996
▁wants	-10.4002
▁bodies	-10.4012
▁intelligence	-10.4012
▁ball	-10.4026
▁ho	-10.4038
▁instance	-10.4045
izing	-10.4047
▁predict	-10.4063
▁doctors	-10.4066
ping	-10.4075
wi	-10.4082
▁heat	-10.4104
▁Americans	-10.4108
▁sky	-10.4111
tor	-10.4111
▁influence	-10.4111
ah	-10.4114
▁town	-10.4122
▁park	-10.4129
▁demand	-10.4144
▁La	-10.4149
▁visit	-10.4161
▁institutions	-10.4165
▁final	-10.4171
▁immediately	-10.4179
▁clearly	-10.4191
da	-10.4198
▁forth	-10.4201
▁seconds	-10.4226
▁respond	-10.4228
▁web	-10.4238
▁Another	-10.4245
▁throughout	-10.4249
▁citizens	-10.4254
▁costs	-10.4256
▁foot	-10.4269
▁listening	-10.4271
Imagine	-10.4278
▁stress	-10.4278
▁Which	-10.4281
▁peace	-10.4281
▁photo	-10.4283
ng	-10.4285
▁hair	-10.4285
▁extra	-10.4294
▁teaching	-10.4302
▁familiar	-10.4312
▁cover	-10.4314
▁neurons	-10.4316
▁points	-10.4317
ions	-10.4319
▁greatest	-10.4319
▁greater	-10.4321
▁en	-10.4345
▁flow	-10.4364
▁diseases	-10.4379
▁himself	-10.438
▁decade	-10.4384
ran	-10.4397
sa	-10.4403
▁performance	-10.4418
ble	-10.443
▁term	-10.4452
os	-10.4462
▁email	-10.4483
▁University	-10.4483
▁rain	-10.4485
▁driving	-10.4487
▁blind	-10.4516
▁religion	-10.4517
▁architecture	-10.4517
▁City	-10.4525
▁corner	-10.4526
▁willing	-10.4532
che	-10.4534
▁fantastic	-10.4552
▁weight	-10.4554
▁remain	-10.4558
▁conflict	-10.4564
ical	-10.4565
ure	-10.4593
▁wide	-10.4594
▁Indian	-10.4599
▁improve	-10.4605
▁survive	-10.461
▁governments	-10.4617
▁Y	-10.462
▁production	-10.4624
▁therefore	-10.4626
▁Mars	-10.4627
▁walked	-10.4627
▁Di	-10.4644
▁spot	-10.4657
▁push	-10.4658
▁mobile	-10.466
▁fuel	-10.4664
ab	-10.4671
▁humanity	-10.4671
oo	-10.4675
▁meeting	-10.4694
▁except	-10.4718
▁communicate	-10.4727
▁cultural	-10.4734
▁urban	-10.4762
▁biological	-10.4762
▁gain	-10.4763
men	-10.4769
wa	-10.477
▁appear	-10.4771
▁join	-10.4786
▁quick	-10.479
▁wealth	-10.4791
▁terrible	-10.4797
▁sat	-10.4809
▁types	-10.4817
▁legs	-10.4819
▁aid	-10.4827
▁decades	-10.4829
ning	-10.484
V	-10.4844
▁services	-10.4847
▁reduce	-10.4854
▁challenges	-10.4862
▁politics	-10.4869
▁Sh	-10.4871
▁radio	-10.4873
▁block	-10.488
▁photograph	-10.4885
fu	-10.4889
▁forget	-10.4905
▁boat	-10.4907
▁engineering	-10.4925
▁character	-10.493
▁values	-10.4944
▁virus	-10.4945
▁useful	-10.4952
▁connection	-10.4955
▁Many	-10.4961
▁minds	-10.4985
▁mission	-10.4987
ag	-10.5007
▁babies	-10.5013
▁beauty	-10.5013
▁Western	-10.5013
▁failure	-10.5013
▁Two	-10.5013
▁colleagues	-10.5025
▁levels	-10.5026
les	-10.503
▁fix	-10.5033
ious	-10.5034
▁distance	-10.5049
▁trouble	-10.5049
▁dance	-10.506
▁standard	-10.5063
▁professional	-10.5064
▁male	-10.5066
ff	-10.5079
▁although	-10.5086
▁popular	-10.5086
▁flu	-10.5099
ward	-10.5111
▁following	-10.5114
▁infrastructure	-10.5122
▁various	-10.5122
one	-10.5126
j	-10.5141
▁helped	-10.5152
▁obvious	-10.5152
▁nation	-10.5153
▁choices	-10.5155
▁describe	-10.5156
▁genome	-10.5159
▁remarkable	-10.5159
▁landscape	-10.5159
▁summer	-10.5159
▁atmosphere	-10.5161
▁condition	-10.5175
▁app	-10.5181
?"	-10.5193
▁London	-10.5196
▁speech	-10.5196
▁investment	-10.5197
ain	-10.5205
▁ch	-10.521
▁shared	-10.521
▁complete	-10.5211
▁organizations	-10.5228
▁disappear	-10.5233
▁anyway	-10.5238
▁invented	-10.5242
▁beings	-10.5249
▁ahead	-10.5255
ee	-10.5259
ug	-10.5264
▁birth	-10.527
▁television	-10.527
▁straight	-10.5308
▁worst	-10.5308
▁ca	-10.5308
▁jump	-10.5328
▁Mar	-10.5329
▁understood	-10.535
▁programs	-10.5363
▁transform	-10.5364
▁conference	-10.5383
▁stopped	-10.5383
▁supply	-10.542
▁event	-10.5446
▁apart	-10.545
▁flying	-10.5453
▁effects	-10.5455
▁total	-10.5457
▁slide	-10.5459
ner	-10.5461
▁ship	-10.547
▁agree	-10.548
▁sh	-10.5488
▁rock	-10.5506
▁artist	-10.5517
▁magic	-10.5518
▁Ca	-10.5521
▁recent	-10.5529
▁cycle	-10.554
ka	-10.5544
▁Your	-10.557
▁California	-10.5573
▁possibly	-10.5573
▁mostly	-10.5583
ey	-10.5603
▁John	-10.561
▁From	-10.5611
▁slightly	-10.5613
▁comp	-10.5613
▁anti	-10.5618
▁below	-10.5621
▁laws	-10.5625
▁sector	-10.565
▁sick	-10.5653
▁n	-10.5653
▁Da	-10.5657
▁task	-10.5672
▁legal	-10.5684
▁aware	-10.5687
▁Afghanistan	-10.5689
▁smell	-10.5689
ence	-10.5705
lic	-10.5724
▁sequence	-10.5727
▁switch	-10.5727
▁streets	-10.5728
▁passion	-10.5731
▁causes	-10.5735
▁original	-10.5761
▁capacity	-10.5767
nstead	-10.5767
▁match	-10.5798
▁crime	-10.5806
▁sand	-10.5808
▁gene	-10.5814
hand	-10.5822
▁paid	-10.5845
▁directly	-10.5851
▁dad	-10.5864
way	-10.5865
▁card	-10.5876
tch	-10.5881
▁meters	-10.5897
▁interact	-10.5905
U	-10.5905
▁w	-10.5918
▁capture	-10.5925
end	-10.5953
▁engine	-10.5957
port	-10.5981
▁v	-10.5985
▁campaign	-10.6004
▁Facebook	-10.6004
▁responsibility	-10.6004
▁bought	-10.6004
▁vast	-10.6004
▁avoid	-10.6025
▁daughter	-10.6032
▁societies	-10.6044
▁relationships	-10.6054
▁Hu	-10.6057
▁achieve	-10.6069
▁afford	-10.6083
▁creativity	-10.6085
▁tremendous	-10.6085
▁twice	-10.6085
▁Think	-10.6085
▁dying	-10.6085
▁speaking	-10.6085
▁Ho	-10.6086
ther	-10.6106
▁degrees	-10.6107
▁easily	-10.6125
▁brand	-10.6125
▁worry	-10.6149
ip	-10.6152
▁detail	-10.6156
▁bridge	-10.6166
▁sustainable	-10.6167
▁published	-10.6171
▁quote	-10.6178
ition	-10.6179
vo	-10.6198
lin	-10.6205
▁ha	-10.621
▁pass	-10.621
▁Ka	-10.622
▁experiments	-10.6224
▁noticed	-10.6229
off	-10.6233
here	-10.6235
▁window	-10.6239
▁roll	-10.6245
▁oxygen	-10.6248
▁afraid	-10.6248
▁commercial	-10.6248
▁funny	-10.6248
▁enjoy	-10.6255
▁li	-10.6256
▁states	-10.6274
▁boys	-10.6283
▁wild	-10.6289
▁His	-10.629
▁broken	-10.6291
▁highly	-10.6295
ill	-10.6313
▁communication	-10.6321
▁significant	-10.6323
▁National	-10.633
▁closer	-10.634
▁played	-10.6342
▁active	-10.6347
▁chemical	-10.6364
▁emotional	-10.6367
ai	-10.6371
▁offer	-10.6374
▁evolved	-10.6379
term	-10.6388
▁core	-10.6388
ps	-10.6406
▁random	-10.6406
▁differently	-10.6407
▁balance	-10.6413
▁lack	-10.6414
▁notion	-10.6418
▁inspired	-10.642
▁efficient	-10.6429
ped	-10.6444
▁catch	-10.6445
▁civil	-10.6449
▁discover	-10.6457
▁Mi	-10.6461
▁Great	-10.6462
▁vote	-10.6464
▁wood	-10.6475
▁devices	-10.6481
▁scientist	-10.6491
▁sta	-10.6493
ative	-10.6513
▁mountain	-10.6523
▁central	-10.6529
ction	-10.653
▁plane	-10.6531
▁helping	-10.6534
all	-10.657
ight	-10.6576
▁glass	-10.6578
▁Over	-10.6583
ability	-10.6596
▁networks	-10.6598
▁enter	-10.6606
▁produced	-10.6611
▁carry	-10.6612
▁equal	-10.6616
▁contact	-10.6616
▁camp	-10.6623
▁giant	-10.6624
▁trip	-10.6625
▁oh	-10.6626
▁hole	-10.6633
act	-10.6635
tion	-10.6645
▁mis	-10.6646
▁etc	-10.6656
io	-10.6659
▁husband	-10.6667
▁identity	-10.6667
▁missing	-10.6676
▁answers	-10.6685
ob	-10.6693
How	-10.6695
ast	-10.6705
▁markets	-10.6705
▁continent	-10.671
▁classroom	-10.671
▁earth	-10.6711
▁r	-10.672
▁hearing	-10.6732
▁Jo	-10.6738
▁planets	-10.6744
▁diversity	-10.6753
▁molecules	-10.6763
▁passed	-10.677
▁designers	-10.6777
▁forces	-10.6788
▁target	-10.6794
▁basis	-10.6796
▁crowd	-10.6796
▁members	-10.6802
▁represent	-10.682
▁surgery	-10.684
▁tough	-10.6842
▁di	-10.6845
▁island	-10.6845
▁nearly	-10.6851
▁seemed	-10.6874
▁report	-10.6875
▁civilization	-10.6884
▁complexity	-10.6887
▁European	-10.6888
▁detect	-10.6912
▁extreme	-10.692
▁fair	-10.6921
▁Lo	-10.6924
▁gotten	-10.6927
▁flight	-10.6928
▁dreams	-10.6943
▁studying	-10.6949
ite	-10.6952
ving	-10.6953
ler	-10.6959
▁bringing	-10.6959
▁farm	-10.6967
▁definition	-10.6976
ath	-10.6985
ship	-10.7005
ctually	-10.701
▁alternative	-10.7016
▁differences	-10.7016
▁spending	-10.702
▁Take	-10.7024
▁engage	-10.7044
Why	-10.7046
▁apply	-10.7052
▁forever	-10.7058
▁eating	-10.706
▁chain	-10.706
▁Po	-10.7073
▁birds	-10.7091
▁trick	-10.7102
▁feels	-10.7104
gi	-10.7105
▁opposite	-10.7105
▁weird	-10.7105
▁graph	-10.7117
▁raised	-10.7125
mon	-10.713
▁remind	-10.7133
▁Again	-10.7149
▁background	-10.7149
▁coffee	-10.7149
▁labor	-10.7154
▁express	-10.7171
▁focused	-10.7187
▁uses	-10.719
▁easier	-10.7194
▁imagination	-10.7195
▁negative	-10.7196
▁fully	-10.7196
▁sold	-10.7197
▁reward	-10.7197
▁gr	-10.7215
▁fund	-10.7215
ay	-10.7224
ray	-10.7238
air	-10.724
▁opportunities	-10.724
▁desire	-10.724
▁party	-10.7262
let	-10.7262
▁none	-10.7268
▁interview	-10.7269
▁airplane	-10.7285
▁scene	-10.7285
▁da	-10.7286
▁museum	-10.7331
▁mid	-10.7331
▁grand	-10.7331
▁effort	-10.7336
▁justice	-10.7341
▁bomb	-10.7362
▁president	-10.7377
ier	-10.7377
▁lucky	-10.7379
▁trial	-10.7384
▁experiences	-10.7385
▁unit	-10.739
oc	-10.7407
▁separate	-10.7408
▁Pro	-10.7414
▁Car	-10.7417
za	-10.7418
ger	-10.7419
▁sa	-10.7421
▁proud	-10.7424
▁See	-10.7429
▁struggle	-10.7438
▁importantly	-10.7457
▁knowing	-10.746
▁honest	-10.7462
sis	-10.7463
▁criminal	-10.7469
▁possibility	-10.7469
▁date	-10.7479
▁benefit	-10.7479
▁held	-10.748
▁signal	-10.7482
ki	-10.7487
▁pack	-10.7507
▁David	-10.7516
▁despite	-10.7516
▁technical	-10.7516
▁moon	-10.7518
It	-10.7533
▁More	-10.7547
▁Brazil	-10.756
▁Twitter	-10.7562
▁platform	-10.7562
▁engineer	-10.7568
▁stem	-10.7568
▁du	-10.7569
▁sharing	-10.7569
ris	-10.7571
ang	-10.7576
gu	-10.7584
based	-10.7588
▁Ne	-10.7609
▁competition	-10.7609
▁yellow	-10.7609
▁noise	-10.7613
▁ultimately	-10.7614
▁neighborhood	-10.7618
dimensional	-10.7623
den	-10.7627
▁turning	-10.764
ile	-10.7642
▁surprise	-10.7642
▁advantage	-10.7656
▁desert	-10.7656
▁identify	-10.7656
▁bottle	-10.7656
▁sc	-10.7678
▁Asia	-10.7678
▁manage	-10.7689
▁magazine	-10.7704
▁mouth	-10.7704
▁stuck	-10.7704
▁consciousness	-10.7705
▁fairly	-10.7712
light	-10.7732
▁painting	-10.7732
qui	-10.7733
▁argue	-10.7737
▁fill	-10.7738
▁Second	-10.7744
ft	-10.7744
▁suffering	-10.7762
▁sad	-10.7767
ology	-10.7771
▁Ki	-10.7773
▁structures	-10.7782
▁ancient	-10.7799
rk	-10.7806
▁argument	-10.7811
▁fold	-10.7826
au	-10.783
▁Iraq	-10.7835
▁multi	-10.7836
▁paint	-10.7836
ging	-10.7841
▁Sometimes	-10.7847
▁flag	-10.7855
ja	-10.7856
▁tissue	-10.7859
▁brother	-10.786
▁due	-10.7863
▁direct	-10.7872
▁religious	-10.7896
▁breast	-10.7896
▁claim	-10.7896
▁leadership	-10.7896
▁motor	-10.7896
▁sexual	-10.7898
▁Bill	-10.7902
▁bear	-10.7909
▁invest	-10.791
▁artists	-10.792
▁entirely	-10.7924
▁soil	-10.7925
▁collective	-10.7938
▁attempt	-10.7944
▁crash	-10.7944
▁necessary	-10.7944
▁phenomenon	-10.7944
▁Japan	-10.7944
▁emotions	-10.7946
▁Once	-10.7948
▁hell	-10.7963
▁bone	-10.7973
▁finish	-10.7977
▁base	-10.7977
▁double	-10.7978
▁adapt	-10.7991
▁Middle	-10.7993
▁estimate	-10.7993
▁regular	-10.7993
▁motion	-10.7994
chi	-10.7998
▁fashion	-10.8019
▁Con	-10.8028
▁benefits	-10.8035
▁industrial	-10.8038
▁creation	-10.8042
▁necessarily	-10.8042
▁sorry	-10.8042
▁opened	-10.8045
▁figured	-10.8051
▁river	-10.8065
▁bank	-10.8087
responsible	-10.8091
▁faith	-10.8091
▁gender	-10.8091
▁lights	-10.8107
val	-10.8117
▁wear	-10.8118
har	-10.8129
▁cheap	-10.8136
▁click	-10.8141
▁university	-10.8141
▁location	-10.8141
▁bright	-10.8141
ified	-10.8142
▁creates	-10.8143
▁matters	-10.8157
▁Ta	-10.816
▁damage	-10.8178
▁rid	-10.8183
▁loss	-10.8189
▁cat	-10.8189
▁studied	-10.8191
▁gift	-10.8191
▁debate	-10.8191
▁CO	-10.8196
▁creatures	-10.8212
▁letter	-10.8221
▁phones	-10.8223
▁pounds	-10.823
▁suit	-10.8236
iv	-10.824
▁failed	-10.8257
ged	-10.8263
▁operate	-10.827
▁beat	-10.8279
▁replace	-10.8291
▁French	-10.8291
▁restaurant	-10.8291
▁hurt	-10.8291
▁brilliant	-10.8291
▁interface	-10.8291
▁farmers	-10.8298
▁cloud	-10.831
▁leading	-10.8324
▁elements	-10.8325
▁document	-10.8332
rt	-10.8333
work	-10.8339
gg	-10.8339
▁marriage	-10.8341
▁curve	-10.8349
▁Su	-10.835
▁bees	-10.8351
▁Good	-10.8351
▁master	-10.8356
▁si	-10.8358
▁leg	-10.8358
▁foundation	-10.8358
▁compared	-10.8361
lan	-10.8362
▁brings	-10.8369
▁Mr	-10.8369
▁Ja	-10.8371
▁ra	-10.8372
ley	-10.8383
fe	-10.8386
▁pop	-10.8389
▁Washington	-10.8392
▁puzzle	-10.8392
▁foreign	-10.8392
▁smile	-10.8392
▁childhood	-10.8393
▁discovery	-10.84
▁Did	-10.8401
▁hate	-10.8426
▁events	-10.8426
▁era	-10.8429
▁walls	-10.8432
▁Web	-10.8435
▁release	-10.8436
▁grade	-10.8436
▁strategy	-10.8443
▁holding	-10.8443
▁mouse	-10.8443
▁lay	-10.8447
▁stream	-10.8474
▁Her	-10.8484
▁dollar	-10.8492
▁professor	-10.8494
▁universal	-10.8494
▁honor	-10.8494
▁British	-10.8494
▁particles	-10.8505
▁fail	-10.8513
▁adults	-10.8515
▁lesson	-10.8526
▁drink	-10.8529
▁fresh	-10.8546
▁poem	-10.8546
▁Kenya	-10.8546
▁typical	-10.8546
of	-10.8556
▁belong	-10.8558
▁bird	-10.8561
▁link	-10.8562
▁managed	-10.8562
▁sister	-10.8569
aw	-10.8577
▁lo	-10.8582
cent	-10.8582
▁degree	-10.8584
▁patent	-10.8598
▁majority	-10.8601
▁expression	-10.861
▁deeply	-10.8617
▁organisms	-10.8629
This	-10.8643
▁newspaper	-10.865
form	-10.8653
▁businesses	-10.8669
▁moments	-10.8673
over	-10.8674
▁edge	-10.8675
ium	-10.8681
▁fighting	-10.8687
▁sudden	-10.8695
▁caught	-10.8702
▁Have	-10.8707
sum	-10.8711
▁fascinating	-10.8713
▁perform	-10.8722
bb	-10.8732
▁generate	-10.874
▁watched	-10.875
ick	-10.8754
▁budget	-10.8755
▁leaving	-10.8755
▁theater	-10.8756
pro	-10.8759
▁independent	-10.877
▁serve	-10.8773
▁tens	-10.879
▁engineers	-10.8801
▁horse	-10.8808
▁unfortunately	-10.8809
▁limited	-10.8821
▁wearing	-10.8826
qua	-10.8834
ack	-10.8841
▁billions	-10.8841
▁believed	-10.8843
▁related	-10.8843
ake	-10.8855
▁fossil	-10.8861
▁lunch	-10.8861
▁otherwise	-10.8864
▁saving	-10.8889
art	-10.8897
▁enable	-10.8902
J	-10.8908
▁dinner	-10.8914
▁exercise	-10.8914
▁court	-10.8914
▁display	-10.8915
▁mess	-10.8916
▁k	-10.8918
▁occur	-10.8918
▁concerned	-10.8924
▁affect	-10.893
▁frame	-10.8931
▁Big	-10.8943
▁interaction	-10.8945
▁ideal	-10.8951
▁spaces	-10.8964
▁invisible	-10.8968
▁hidden	-10.8968
▁discussion	-10.8972
▁Life	-10.8973
▁closed	-10.8976
▁El	-10.8978
▁multiple	-10.8982
▁finished	-10.8986
my	-10.9001
▁profound	-10.9015
▁se	-10.9016
▁bread	-10.9023
▁capable	-10.9023
▁everyday	-10.9025
▁gay	-10.9026
▁qu	-10.9032
▁leads	-10.9032
▁oceans	-10.9037
▁clinical	-10.9057
▁shop	-10.9058
▁layer	-10.9058
▁trained	-10.9063
▁Ph	-10.9072
▁opinion	-10.9077
▁safety	-10.9078
▁copy	-10.9079
▁Very	-10.908
▁constantly	-10.9082
istic	-10.9089
▁prove	-10.9089
▁colors	-10.909
▁slowly	-10.9092
ren	-10.9098
▁grown	-10.9098
▁launch	-10.9115
▁followed	-10.9118
▁row	-10.9127
▁George	-10.9131
▁disaster	-10.9131
▁epidemic	-10.9131
▁novel	-10.9131
▁pig	-10.9133
▁Sun	-10.9137
▁received	-10.9142
ef	-10.9152
▁topic	-10.9154
▁tail	-10.916
▁helps	-10.9162
▁adult	-10.9164
▁promise	-10.9171
▁strength	-10.9173
▁married	-10.9186
▁insects	-10.9187
lar	-10.9196
▁bus	-10.9208
▁described	-10.9213
▁mix	-10.9225
▁calls	-10.9225
▁metal	-10.9232
board	-10.9238
▁warm	-10.924
▁imp	-10.924
▁artificial	-10.9241
▁collection	-10.925
▁invited	-10.9253
▁currently	-10.9254
▁fell	-10.9255
▁exchange	-10.9256
▁launched	-10.9258
▁ten	-10.926
▁perfectly	-10.926
▁sentence	-10.9276
ture	-10.9277
▁parent	-10.9277
▁transformation	-10.9285
▁graduate	-10.9286
▁Bu	-10.929
▁kilometers	-10.9297
▁garden	-10.9297
▁mirror	-10.9297
▁crack	-10.9297
▁Si	-10.9301
▁gun	-10.9304
▁principles	-10.9312
▁clinic	-10.9317
▁article	-10.9332
▁partner	-10.9336
▁leader	-10.9343
▁mathematics	-10.9353
▁dry	-10.9353
▁ride	-10.9377
▁mark	-10.9381
▁folks	-10.9382
▁chair	-10.939
▁relative	-10.9402
▁Everybody	-10.9409
▁survival	-10.941
▁correct	-10.9412
▁highest	-10.9416
▁weapons	-10.9421
▁heads	-10.9425
▁note	-10.9432
ice	-10.9439
▁metaphor	-10.944
▁sum	-10.9448
▁names	-10.9451
ea	-10.9456
▁spoke	-10.9462
▁spirit	-10.9465
▁contract	-10.9466
▁dynamic	-10.9466
▁wake	-10.947
▁whom	-10.9476
▁surprised	-10.9483
▁lie	-10.9485
▁normally	-10.9486
▁exists	-10.9495
car	-10.9509
▁wave	-10.9511
▁transport	-10.9521
▁GDP	-10.9522
▁chart	-10.9523
▁insight	-10.9524
▁consequences	-10.9528
▁band	-10.9532
▁seriously	-10.9537
▁coal	-10.9539
ible	-10.955
▁Se	-10.955
▁threat	-10.9552
▁steps	-10.9557
▁protein	-10.9561
▁shoes	-10.9565
▁define	-10.9565
▁Australia	-10.9567
▁organic	-10.957
▁joy	-10.957
▁signals	-10.9571
▁roof	-10.9579
▁Mexico	-10.9579
▁trillion	-10.9579
▁narrative	-10.958
▁gold	-10.958
▁factory	-10.9587
▁May	-10.959
▁paying	-10.9591
▁begins	-10.9594
▁ring	-10.9595
vis	-10.9612
▁traffic	-10.9626
▁depression	-10.9637
▁versus	-10.9637
▁command	-10.9637
▁comment	-10.9637
▁zone	-10.9637
▁Richard	-10.9637
▁feedback	-10.9637
▁fellow	-10.9637
▁faces	-10.9656
▁seat	-10.9656
▁Mu	-10.9657
▁circle	-10.9659
tive	-10.9664
▁Ad	-10.9668
▁remote	-10.9687
ide	-10.9688
▁compare	-10.9688
▁cognitive	-10.9695
▁existence	-10.9695
ory	-10.9696
▁worried	-10.9697
▁invention	-10.97
▁wheel	-10.9705
so	-10.9718
tern	-10.9725
▁considered	-10.9731
nder	-10.9732
▁principle	-10.9737
▁coral	-10.9737
▁hasn	-10.9752
▁mathematical	-10.9753
▁stupid	-10.9753
▁healthcare	-10.9753
▁nervous	-10.9753
▁operating	-10.9753
▁tons	-10.9756
▁Sp	-10.9759
ju	-10.976
▁mu	-10.9763
▁blog	-10.9766
▁Does	-10.9769
▁testing	-10.977
▁load	-10.9781
▁round	-10.9803
▁surprising	-10.9804
▁quantum	-10.9811
▁galaxies	-10.9811
▁researchers	-10.9812
▁planning	-10.9812
▁comfortable	-10.9812
▁fat	-10.9821
▁Would	-10.9823
▁print	-10.9823
log	-10.9827
▁drawing	-10.9827
▁Gra	-10.9829
fer	-10.9842
▁harder	-10.9851
▁belief	-10.9855
▁molecule	-10.9856
▁Wi	-10.9858
▁England	-10.987
▁curious	-10.987
▁sw	-10.9873
▁associated	-10.9874
▁unless	-10.9876
▁pages	-10.9881
▁experts	-10.9901
▁designer	-10.9901
▁treated	-10.9905
▁letters	-10.9909
▁advance	-10.9915
▁clip	-10.993
ically	-10.993
erson	-10.9932
▁practical	-10.9933
▁intelligent	-10.9936
If	-10.994
▁electric	-10.9943
▁breath	-10.9968
▁meat	-10.997
▁arms	-10.9971
▁wire	-10.9974
▁forced	-10.9975
ple	-10.9977
▁resource	-10.9978
▁circuit	-10.9989
▁Three	-10.9989
▁equivalent	-10.9989
▁stood	-10.9989
▁wisdom	-10.9989
▁weather	-10.9989
▁hopefully	-10.9992
▁Ar	-10.9992
ome	-11
ery	-11.0007
▁emissions	-11.0009
▁Na	-11.0021
▁Their	-11.0023
▁killing	-11.0029
▁cure	-11.0036
▁vehicle	-11.0036
▁moves	-11.0039
top	-11.0045
▁soldiers	-11.0049
▁equipment	-11.0049
▁survey	-11.0049
▁consumption	-11.0049
▁autism	-11.0049
▁laptop	-11.0049
▁daily	-11.0049
▁reform	-11.0051
▁distribution	-11.0052
uff	-11.0056
▁lifetime	-11.0061
▁ants	-11.0079
▁net	-11.0081
▁accident	-11.0097
ably	-11.0102
▁gap	-11.0102
▁exact	-11.0102
▁taste	-11.011
▁Germany	-11.0114
▁opening	-11.0116
▁hide	-11.0119
▁King	-11.0124
▁warming	-11.0128
▁processes	-11.0133
▁saved	-11.0152
▁diet	-11.0154
ue	-11.0164
▁judge	-11.017
▁rural	-11.017
▁Everything	-11.017
▁joke	-11.017
▁combination	-11.017
ane	-11.018
▁dealing	-11.0186
rr	-11.0219
▁method	-11.022
▁picked	-11.0223
▁experienced	-11.0226
▁Audience	-11.0231
▁grandmother	-11.0231
▁participate	-11.0231
▁intellectual	-11.0231
▁importance	-11.0231
▁Ex	-11.0238
▁lies	-11.0256
▁reflect	-11.027
tan	-11.0278
▁inner	-11.0282
▁soul	-11.0287
▁coast	-11.0289
▁generations	-11.0291
▁Einstein	-11.0292
▁galaxy	-11.0292
▁analysis	-11.0292
▁member	-11.0292
▁season	-11.0293
▁Times	-11.0293
▁according	-11.0294
mor	-11.0294
▁credit	-11.0303
▁AIDS	-11.0311
▁fourth	-11.0316
▁selling	-11.0327
gram	-11.0333
▁statistics	-11.0334
▁determine	-11.0339
▁reaction	-11.0346
ero	-11.0347
▁MIT	-11.0354
▁agriculture	-11.0354
▁north	-11.0355
▁limb	-11.0356
▁setting	-11.0359
▁increasingly	-11.036
▁arrived	-11.0362
▁robotic	-11.0374
gan	-11.0376
head	-11.038
▁covered	-11.0384
ib	-11.0385
▁stone	-11.0387
▁mothers	-11.0406
▁keeping	-11.0408
▁toward	-11.0412
▁President	-11.0416
▁plate	-11.0417
▁Other	-11.0417
scale	-11.0424
▁convinced	-11.0429
▁filled	-11.0437
▁tall	-11.0441
ko	-11.0444
▁leaves	-11.0458
▁blow	-11.0467
▁harm	-11.0471
▁mistake	-11.0471
▁broke	-11.0474
▁skill	-11.0477
▁battle	-11.0478
▁error	-11.0478
▁ordinary	-11.0478
▁cur	-11.0482
Hey	-11.0485
▁calling	-11.0488
▁flat	-11.0492
Do	-11.0529
▁photos	-11.0533
▁pocket	-11.0541
▁string	-11.0541
▁chicken	-11.0542
▁property	-11.0542
▁fields	-11.0543
▁bill	-11.0546
▁Gu	-11.0551
▁organized	-11.0554
▁Vi	-11.0563
▁extract	-11.0576
▁caused	-11.0578
▁connections	-11.0584
▁Ri	-11.0596
▁station	-11.0599
▁privilege	-11.0604
▁medium	-11.0604
▁volume	-11.0605
▁construction	-11.0606
▁su	-11.0607
▁driver	-11.0608
▁host	-11.061
▁Iran	-11.0614
ham	-11.0623
▁economics	-11.0623
▁cow	-11.0626
▁users	-11.0649
▁wondering	-11.0653
▁homes	-11.0653
▁hadn	-11.066
▁factors	-11.0665
▁heavy	-11.0668
▁perception	-11.0668
▁peak	-11.0668
▁stock	-11.0668
▁awful	-11.0669
▁equation	-11.0669
▁addition	-11.0703
cal	-11.0705
▁encourage	-11.0717
▁ignore	-11.0722
▁satellite	-11.0728
▁muscle	-11.0728
▁habit	-11.0731
▁Center	-11.0732
▁accurate	-11.0732
▁maintain	-11.0732
▁empty	-11.0732
▁yesterday	-11.0732
▁evil	-11.0732
▁losing	-11.0733
▁toilet	-11.0733
▁abuse	-11.0733
▁Human	-11.0734
▁pet	-11.0738
▁shapes	-11.0746
▁released	-11.0754
▁lu	-11.077
▁malaria	-11.0771
ook	-11.0772
▁limit	-11.0777
▁hang	-11.0781
▁emotion	-11.0789
▁fo	-11.0792
▁operation	-11.0793
▁Amazon	-11.0797
▁prototype	-11.0797
▁underneath	-11.0797
▁title	-11.0797
▁transition	-11.0798
▁tip	-11.0799
▁Bi	-11.0801
ification	-11.0824
row	-11.0834
▁depend	-11.0842
ari	-11.0847
▁introduce	-11.0847
▁movies	-11.0849
tes	-11.0855
▁quarter	-11.0857
▁burn	-11.086
▁rapidly	-11.0866
af	-11.0868
▁author	-11.0869
▁victims	-11.0869
▁protection	-11.0871
▁instrument	-11.0887
▁quiet	-11.0892
▁climb	-11.0894
▁voices	-11.0899
▁fan	-11.09
▁official	-11.0901
nch	-11.0925
▁sample	-11.0926
▁requires	-11.0926
▁tape	-11.0927
▁Harvard	-11.0927
▁cutting	-11.093
▁dimensions	-11.0931
▁contain	-11.0933
Yes	-11.0936
▁players	-11.094
▁rare	-11.0946
▁tube	-11.0949
▁Arab	-11.0951
ana	-11.0966
day	-11.0967
▁electrical	-11.0976
ral	-11.0981
▁sending	-11.0982
▁Mon	-11.0992
▁Japanese	-11.0993
▁battery	-11.0993
▁embrace	-11.0993
▁inequality	-11.0993
▁Street	-11.0993
▁sugar	-11.0993
▁Last	-11.0998
▁deeper	-11.1009
▁counter	-11.1015
▁button	-11.1028
▁Hi	-11.1029
▁movements	-11.1052
▁essential	-11.1052
▁nose	-11.1053
▁Paul	-11.1059
▁NASA	-11.1059
▁Pakistan	-11.1059
▁emerging	-11.1059
▁possibilities	-11.1059
▁properties	-11.1059
▁Britain	-11.1059
▁poetry	-11.106
▁peer	-11.106
▁represents	-11.1062
▁videos	-11.1065
▁advanced	-11.1076
▁tag	-11.1077
▁bi	-11.108
▁cameras	-11.1091
▁require	-11.1111
▁cap	-11.1122
▁facing	-11.1126
▁School	-11.1126
▁variety	-11.1126
▁balloon	-11.1126
▁filter	-11.1127
▁carefully	-11.1132
▁Los	-11.1133
cut	-11.1136
▁appropriate	-11.1136
▁sla	-11.1139
▁waves	-11.1148
nna	-11.1148
▁cards	-11.1151
▁Cha	-11.1159
▁risks	-11.1165
▁nations	-11.1166
▁sites	-11.1171
▁react	-11.1187
ants	-11.1187
▁doubt	-11.1193
▁encounter	-11.1193
▁fiction	-11.1193
▁surgeon	-11.1193
▁management	-11.1194
▁pure	-11.1195
▁languages	-11.12
▁height	-11.1208
▁ski	-11.1223
▁rates	-11.1232
▁Un	-11.1237
▁designing	-11.1242
▁messages	-11.1254
▁Could	-11.126
▁Congress	-11.126
▁illegal	-11.126
▁sweet	-11.126
▁microbes	-11.126
▁tomorrow	-11.126
▁rational	-11.126
▁Francisco	-11.1261
▁chemistry	-11.1261
▁pump	-11.1261
▁gang	-11.1261
▁grid	-11.1262
▁specifically	-11.1262
▁finger	-11.1264
▁holes	-11.1268
ky	-11.1285
rus	-11.1293
rac	-11.13
▁feelings	-11.1303
ograph	-11.1305
▁trials	-11.132
▁absolute	-11.1321
▁arts	-11.1322
▁shoulder	-11.1324
▁spring	-11.1329
▁rocket	-11.133
▁h	-11.1332
source	-11.1336
▁tea	-11.1336
▁inspiration	-11.1337
That	-11.1338
▁soft	-11.135
▁cave	-11.1352
▁Art	-11.1354
▁former	-11.1362
round	-11.1373
▁characters	-11.1375
▁player	-11.1378
▁relate	-11.1383
rate	-11.1387
▁broad	-11.1392
▁technological	-11.1397
▁protest	-11.1397
▁review	-11.1398
▁habitat	-11.1399
▁cup	-11.1402
▁required	-11.1412
▁Pi	-11.1416
▁cook	-11.1418
ily	-11.1423
uch	-11.143
ual	-11.143
▁shoot	-11.1449
kin	-11.145
▁Nigeria	-11.1457
▁increasing	-11.1459
▁user	-11.1459
▁celebrate	-11.1466
▁conclusion	-11.1466
▁length	-11.1466
▁vulnerable	-11.1466
▁root	-11.1472
▁tradition	-11.1472
▁exception	-11.1482
▁Che	-11.1498
▁houses	-11.15
▁laugh	-11.1501
▁talks	-11.1503
▁convince	-11.1521
eep	-11.1526
▁orbit	-11.1532
▁Canada	-11.1535
▁church	-11.1535
▁hotel	-11.1539
▁statement	-11.1542
▁effectively	-11.1551
▁signs	-11.1552
▁details	-11.1553
▁funding	-11.1561
hu	-11.1571
▁dots	-11.1581
▁studio	-11.1605
▁firm	-11.1605
▁fruit	-11.1605
▁Since	-11.1606
▁swim	-11.1606
▁lady	-11.1606
▁sight	-11.1607
▁presentation	-11.1611
▁relatively	-11.1614
▁Mc	-11.1617
grad	-11.1627
▁Israel	-11.1633
▁myth	-11.1637
ries	-11.164
▁Am	-11.1641
▁reveal	-11.1659
use	-11.1664
▁radical	-11.1669
▁producing	-11.1676
▁explanation	-11.1676
▁pleasure	-11.1676
▁status	-11.1676
▁passionate	-11.1681
▁chemicals	-11.1689
▁script	-11.169
▁politicians	-11.1715
ign	-11.1716
▁invent	-11.1728
▁south	-11.1736
▁appreciate	-11.1743
▁France	-11.1747
▁phrase	-11.1747
▁teeth	-11.1747
▁jail	-11.1747
▁roughly	-11.1751
▁mile	-11.1755
▁option	-11.1757
▁bag	-11.176
▁Dan	-11.1782
▁lessons	-11.1787
ians	-11.1789
▁receive	-11.1789
rd	-11.1794
▁Ju	-11.1795
▁forests	-11.1804
▁include	-11.1814
▁danger	-11.1817
▁Chicago	-11.1818
▁academic	-11.1818
▁James	-11.1818
▁valuable	-11.1818
▁Anyway	-11.1818
▁staff	-11.1819
▁fewer	-11.182
▁pen	-11.182
▁Yet	-11.182
▁depends	-11.1821
▁BG	-11.1823
▁buying	-11.1824
▁scan	-11.1825
▁Come	-11.1827
▁ecosystem	-11.1829
▁vaccine	-11.1829
▁outcome	-11.1829
▁consumer	-11.1831
▁king	-11.1838
▁director	-11.184
▁expand	-11.1857
▁En	-11.186
▁handle	-11.1865
▁formed	-11.1872
▁calculate	-11.189
▁decline	-11.189
▁molecular	-11.189
▁corruption	-11.1891
▁evolutionary	-11.1891
▁winter	-11.1892
▁sing	-11.1894
▁hall	-11.1899
▁cru	-11.1906
▁meaningful	-11.1907
▁tap	-11.1916
▁sheet	-11.1922
▁factor	-11.1934
▁historical	-11.1944
▁monitor	-11.1946
▁succeed	-11.1946
▁sources	-11.1948
▁kitchen	-11.1962
▁mosquito	-11.1962
▁shame	-11.1963
▁plot	-11.1963
▁steel	-11.1964
▁Bank	-11.1964
tz	-11.1967
▁symbol	-11.1973
low	-11.1974
▁bee	-11.1977
water	-11.1977
▁techniques	-11.1995
for	-11.1997
our	-11.1999
▁Thanks	-11.2005
gh	-11.2008
si	-11.2013
ina	-11.202
▁gentlem	-11.2024
▁remove	-11.2028
▁thin	-11.2035
▁Institute	-11.2035
▁sculpture	-11.2036
▁bike	-11.2044
yard	-11.2046
▁pair	-11.205
▁bat	-11.2051
▁engaged	-11.206
▁infinite	-11.2074
right	-11.2079
▁assume	-11.2094
▁previous	-11.2102
▁Darwin	-11.2107
▁definitely	-11.2109
▁manufacturing	-11.2109
▁spectrum	-11.2109
▁unusual	-11.2109
▁Boston	-11.2109
▁primary	-11.2109
▁solid	-11.2109
▁internal	-11.211
▁radiation	-11.211
▁dinosaurs	-11.2111
▁worldwide	-11.2112
▁pitch	-11.2116
▁grain	-11.2117
ean	-11.2126
▁mountains	-11.2138
▁carrying	-11.2138
▁symptoms	-11.2141
▁increased	-11.2147
▁demonstrate	-11.2148
▁suffer	-11.215
▁goals	-11.2178
▁clever	-11.2183
▁department	-11.2183
▁flies	-11.2183
▁silence	-11.2183
▁alien	-11.2183
▁snow	-11.2184
▁awareness	-11.2186
▁productive	-11.2186
▁tank	-11.2186
han	-11.2186
▁conscious	-11.219
▁cultures	-11.2195
▁trend	-11.2199
▁introduced	-11.22
▁affected	-11.2206
▁Park	-11.2209
▁actions	-11.222
▁sharks	-11.2233
▁translate	-11.2243
▁collapse	-11.2248
ui	-11.225
▁Islam	-11.2256
▁grab	-11.2258
▁Women	-11.2258
▁YouTube	-11.2258
▁violent	-11.2258
▁attitude	-11.2258
▁democratic	-11.2258
▁input	-11.2258
▁severe	-11.2258
▁variation	-11.2258
▁atoms	-11.2258
▁fake	-11.2259
▁breathe	-11.2262
▁maps	-11.2267
▁Lu	-11.2268
▁applied	-11.2273
▁Muslim	-11.2275
▁score	-11.2275
▁generally	-11.228
▁potentially	-11.2281
▁prime	-11.2297
▁im	-11.2298
ou	-11.2314
room	-11.2316
▁attract	-11.2317
▁tax	-11.2323
▁German	-11.2327
▁harvest	-11.2333
▁illusion	-11.2333
▁intervention	-11.2333
▁conservation	-11.2333
▁reverse	-11.2335
▁collaboration	-11.2335
▁typically	-11.2344
▁bubble	-11.2351
▁feature	-11.2352
▁Han	-11.2355
▁Ben	-11.2362
▁pulled	-11.2375
▁existing	-11.2376
▁origin	-11.2376
▁added	-11.2386
▁organize	-11.2394
▁Ten	-11.2396
▁finance	-11.24
▁centers	-11.24
▁poll	-11.2407
▁sophisticated	-11.2409
▁hydrogen	-11.2409
▁hospitals	-11.241
▁compete	-11.241
▁shut	-11.241
▁Four	-11.2411
▁apartment	-11.2411
▁Sam	-11.2415
▁bra	-11.2415
▁viruses	-11.2416
▁thanks	-11.2421
▁prepared	-11.2423
▁fiber	-11.2424
▁bits	-11.2427
▁fundamentally	-11.243
▁components	-11.2435
▁neighbors	-11.2453
▁recorded	-11.2455
▁blocks	-11.2462
▁II	-11.2464
▁y	-11.2466
▁innovative	-11.2485
▁liquid	-11.2485
▁spider	-11.2485
▁Christian	-11.2485
▁nerve	-11.2485
▁route	-11.2485
▁plus	-11.2493
ulation	-11.2494
▁mechanism	-11.2506
▁employees	-11.2513
▁physically	-11.2517
▁protected	-11.2542
▁reached	-11.2543
▁repeat	-11.2545
▁combine	-11.2553
▁Steve	-11.2554
▁earn	-11.2554
▁recover	-11.2556
▁bias	-11.2559
▁Michael	-11.2562
▁empathy	-11.2562
▁iPhone	-11.2562
▁providing	-11.2562
▁analyze	-11.2562
▁false	-11.2562
▁predator	-11.2562
▁prize	-11.2562
▁confront	-11.2562
▁escape	-11.2562
▁framework	-11.2562
▁prefer	-11.2562
▁sphere	-11.2563
▁observation	-11.2563
▁zoom	-11.2567
ung	-11.2573
▁strip	-11.2581
jo	-11.2583
▁regions	-11.2592
ock	-11.2597
▁interests	-11.2598
▁personally	-11.2602
▁traveling	-11.2611
mar	-11.2614
▁ultimate	-11.2632
▁awesome	-11.2639
▁gravity	-11.2639
▁pilot	-11.2639
▁pollution	-11.2639
▁relevant	-11.2639
▁phase	-11.264
▁toxic	-11.264
▁loud	-11.264
▁equality	-11.2642
▁loop	-11.2644
▁agent	-11.2646
▁dogs	-11.2649
▁drives	-11.2652
▁Day	-11.2653
Fi	-11.2653
ear	-11.2658
▁situations	-11.2666
▁Any	-11.2668
▁naturally	-11.2683
▁weak	-11.269
▁organs	-11.2691
▁eggs	-11.2713
▁sustain	-11.2716
▁lecture	-11.2718
▁license	-11.2718
▁permanent	-11.2718
▁knee	-11.2718
▁Charles	-11.2718
gar	-11.2718
▁fishing	-11.2728
ept	-11.2732
▁election	-11.2742
ank	-11.2745
rat	-11.2752
▁Tu	-11.2765
▁ends	-11.2768
▁solved	-11.2776
▁miss	-11.2777
▁Russia	-11.2783
hor	-11.2788
▁Bar	-11.2791
▁Perhaps	-11.2796
▁While	-11.2796
▁computing	-11.2796
▁concrete	-11.2796
▁destruction	-11.2796
▁milk	-11.2796
▁psychological	-11.2796
▁silk	-11.2796
▁reference	-11.2797
▁liked	-11.2798
ik	-11.28
▁tour	-11.2804
▁suck	-11.2804
▁stronger	-11.2812
▁vehicles	-11.2813
▁Air	-11.2814
long	-11.2814
▁tumor	-11.2822
▁element	-11.2822
▁border	-11.2822
▁shark	-11.2822
In	-11.2824
▁State	-11.2825
rous	-11.2828
▁algorithms	-11.2832
▁joined	-11.2833
meter	-11.2837
▁conversations	-11.2846
▁attacks	-11.2853
▁divide	-11.2861
▁facts	-11.2873
▁Valley	-11.2876
▁Science	-11.2876
▁activities	-11.2876
▁complain	-11.2876
▁policies	-11.2876
▁privacy	-11.2876
▁mechanical	-11.2876
▁mortality	-11.2876
▁ought	-11.2876
▁hoping	-11.2876
▁underwater	-11.2877
▁dense	-11.2877
▁behaviors	-11.2878
▁nest	-11.2878
▁efficiency	-11.2879
▁infection	-11.2879
▁lying	-11.2881
down	-11.2882
▁organ	-11.2895
maker	-11.2912
▁ancestors	-11.2915
rin	-11.294
▁evolve	-11.2941
▁constant	-11.2948
▁dramatic	-11.2955
▁housing	-11.2956
▁repair	-11.2956
▁pill	-11.2956
▁angle	-11.2957
▁processing	-11.2961
ise	-11.2973
▁section	-11.2974
▁scared	-11.2974
ridge	-11.2976
foot	-11.2977
▁diver	-11.2983
life	-11.299
bal	-11.2998
▁aging	-11.3015
▁features	-11.3016
▁talent	-11.302
▁emerge	-11.3021
▁needle	-11.3026
▁sports	-11.303
▁afternoon	-11.3036
▁apparent	-11.3036
▁murder	-11.3036
▁storm	-11.3036
▁lens	-11.3036
▁behave	-11.3036
▁microscope	-11.3036
▁Nobody	-11.3037
▁Also	-11.3037
▁flash	-11.3037
▁dropped	-11.3037
▁authority	-11.3038
▁bug	-11.304
▁Will	-11.3049
ough	-11.3057
▁printing	-11.306
▁split	-11.3073
▁clock	-11.3074
▁institution	-11.3075
▁cast	-11.3075
▁Per	-11.3076
▁driven	-11.3078
▁recording	-11.3087
▁musical	-11.309
▁environments	-11.31
▁fascinat	-11.3101
▁remains	-11.3103
van	-11.3104
▁notes	-11.3112
▁illness	-11.3115
▁drill	-11.3118
▁visible	-11.3118
▁swimming	-11.3118
▁unknown	-11.3118
▁Paris	-11.3119
▁clothes	-11.3119
▁improvement	-11.312
▁PM	-11.3122
▁surrounded	-11.3126
mber	-11.3143
▁partners	-11.3148
back	-11.3151
▁hits	-11.3169
▁comfort	-11.3169
xi	-11.3172
▁officer	-11.3189
uring	-11.3191
▁explained	-11.3195
▁admit	-11.3199
▁vo	-11.3199
▁Du	-11.3199
▁CEO	-11.32
▁advice	-11.32
▁challenging	-11.32
▁deserve	-11.32
▁intense	-11.32
▁literature	-11.32
▁stretch	-11.32
▁grass	-11.32
▁Talk	-11.32
▁wound	-11.32
▁terrorism	-11.32
worm	-11.3201
▁wine	-11.3208
▁equally	-11.3214
▁percentage	-11.3219
▁singing	-11.3219
▁pl	-11.3225
▁Tom	-11.3226
▁agreed	-11.3231
▁weigh	-11.3238
▁functional	-11.3245
▁organism	-11.3247
▁photographs	-11.3257
▁extend	-11.3266
nes	-11.3271
az	-11.3275
▁chose	-11.3278
▁club	-11.3282
▁cluster	-11.3282
▁Project	-11.3282
▁telephone	-11.3282
▁psychology	-11.3282
▁sunlight	-11.3283
▁sail	-11.3284
▁pile	-11.3284
▁exhibition	-11.3285
lus	-11.3287
▁functions	-11.3296
▁tested	-11.3304
▁meal	-11.331
▁Ni	-11.3312
▁younger	-11.3329
▁file	-11.333
▁shock	-11.3332
▁largely	-11.3335
▁pal	-11.3338
ura	-11.334
mate	-11.3345
▁fingers	-11.3362
▁horrible	-11.3366
▁memories	-11.3366
▁shadow	-11.3366
▁smoke	-11.3366
▁thick	-11.3366
ade	-11.3366
▁occurred	-11.3366
▁promote	-11.3366
▁Latin	-11.3366
▁transportation	-11.3368
▁Red	-11.3369
teen	-11.3373
▁sides	-11.3378
▁sensitive	-11.3383
▁circumstances	-11.3391
▁puts	-11.3393
making	-11.3393
▁neighbor	-11.3401
▁applications	-11.3406
▁Th	-11.3412
▁worker	-11.3422
grade	-11.3427
▁Har	-11.3428
▁runs	-11.3428
▁beach	-11.3429
▁kick	-11.3433
▁contribute	-11.3435
▁acting	-11.3437
lock	-11.3441
▁keeps	-11.3448
▁contrast	-11.345
▁cortex	-11.345
▁paradigm	-11.345
▁reject	-11.345
▁exploration	-11.345
▁marine	-11.345
▁sensors	-11.345
▁spiritual	-11.345
▁greenhouse	-11.345
▁wireless	-11.345
▁selection	-11.3451
▁bond	-11.3451
▁download	-11.3452
▁cry	-11.3455
▁busy	-11.3459
▁mistakes	-11.3459
▁infected	-11.346
▁aspect	-11.3486
cle	-11.3489
▁nor	-11.3491
▁tonight	-11.3496
▁Pen	-11.3497
state	-11.35
▁style	-11.3501
▁tie	-11.3502
▁dress	-11.3518
▁abstract	-11.3527
fish	-11.3531
▁desk	-11.3534
▁GPS	-11.3534
▁September	-11.3534
▁Unfortunately	-11.3534
▁chapter	-11.3534
▁flew	-11.3534
▁Health	-11.3534
▁boring	-11.3535
▁steal	-11.3537
▁Five	-11.3542
▁confidence	-11.3544
being	-11.3547
▁apple	-11.3555
▁combined	-11.3556
Look	-11.3562
▁Only	-11.3571
▁amounts	-11.3576
▁tech	-11.3583
ani	-11.3588
▁borders	-11.3592
▁falling	-11.36
▁stayed	-11.3604
net	-11.3614
▁para	-11.3618
▁electronic	-11.3619
▁depth	-11.362
▁revenue	-11.362
▁vertical	-11.362
▁Number	-11.362
▁presence	-11.362
▁angry	-11.362
emember	-11.362
▁rush	-11.362
▁sustainability	-11.362
▁House	-11.362
▁resistance	-11.362
▁commitment	-11.3621
▁attend	-11.3626
▁secure	-11.3634
▁proteins	-11.3647
▁defined	-11.365
ale	-11.3651
▁evening	-11.3653
her	-11.3655
▁upper	-11.3658
▁tracking	-11.3674
▁guide	-11.3678
aging	-11.3681
vin	-11.3684
▁suppose	-11.3691
▁entrepreneurs	-11.3692
▁options	-11.3694
ew	-11.3696
▁Adam	-11.3707
▁cord	-11.3707
▁capitalism	-11.3708
▁Final	-11.3708
▁gut	-11.3709
▁Bro	-11.3716
▁overall	-11.3716
▁wash	-11.373
▁seek	-11.3731
pping	-11.3743
▁expert	-11.3747
▁parking	-11.375
▁ill	-11.3758
▁figures	-11.376
▁odd	-11.3762
▁flower	-11.3777
▁lift	-11.3777
▁allowing	-11.3777
▁theme	-11.3781
▁al	-11.3785
▁unlike	-11.379
▁Green	-11.3793
▁favor	-11.3793
▁Wikipedia	-11.3793
▁motivation	-11.3793
▁parallel	-11.3793
▁bicycle	-11.3793
▁hill	-11.3793
▁somewhat	-11.3794
▁cents	-11.3794
▁Tra	-11.3805
▁thoughts	-11.3811
▁controlled	-11.3815
▁marketing	-11.3816
▁fixed	-11.3833
ong	-11.3837
rop	-11.3841
▁closely	-11.3843
▁inspire	-11.3866
▁trans	-11.3869
▁Egypt	-11.3875
▁flood	-11.3881
▁grandfather	-11.3881
▁Angeles	-11.3882
▁humor	-11.3882
▁boom	-11.3882
▁mice	-11.3885
▁pool	-11.3886
hop	-11.3889
▁cooking	-11.3902
▁hero	-11.3915
▁provided	-11.3923
▁roads	-11.3925
▁signed	-11.3927
▁par	-11.393
▁mad	-11.3932
▁rocks	-11.3946
▁records	-11.3965
▁Global	-11.3969
▁centuries	-11.3969
▁laboratory	-11.3969
▁Something	-11.3969
▁therapy	-11.3969
▁birthday	-11.397
chan	-11.3975
read	-11.3983
▁solving	-11.3983
▁logic	-11.3987
▁Fe	-11.3989
▁burning	-11.3992
house	-11.4
▁establish	-11.4
hr	-11.4008
aving	-11.4014
▁architect	-11.4015
▁application	-11.4015
▁chip	-11.4017
▁Mark	-11.4023
▁bones	-11.4034
▁measured	-11.4037
▁ear	-11.4044
▁demo	-11.4054
▁invite	-11.4054
▁senses	-11.4056
▁Pacific	-11.4058
▁discipline	-11.4058
▁struck	-11.4058
▁march	-11.4059
▁Obama	-11.4059
ult	-11.4061
▁US	-11.4066
▁database	-11.4077
American	-11.409
ria	-11.4101
▁faced	-11.4102
▁educational	-11.4109
▁existed	-11.4109
▁customers	-11.4132
▁convert	-11.4132
▁Gi	-11.4133
▁Abou	-11.4141
▁Museum	-11.4149
▁hormone	-11.4149
▁causing	-11.4149
▁ladies	-11.4149
▁acid	-11.415
▁Apple	-11.415
▁lifestyle	-11.4151
▁Ya	-11.4173
▁Sea	-11.4176
▁deaths	-11.4187
▁algorithm	-11.4198
ose	-11.4205
▁destroy	-11.4206
▁outcomes	-11.4225
▁diagram	-11.4239
▁domestic	-11.4239
▁emergency	-11.4239
▁piano	-11.4239
▁extent	-11.4239
▁trigger	-11.4239
▁Robert	-11.424
▁transfer	-11.424
matic	-11.4241
▁cheat	-11.4242
called	-11.4245
▁Com	-11.425
▁pot	-11.425
▁boxes	-11.4253
▁photographer	-11.426
gy	-11.4264
▁breathing	-11.4265
▁Ru	-11.4281
▁songs	-11.4287
▁truck	-11.429
▁technique	-11.429
▁feeding	-11.4291
▁rely	-11.4292
▁wh	-11.4294
▁pin	-11.4301
▁Christmas	-11.4331
▁narrow	-11.4331
▁scenario	-11.4331
▁transplant	-11.4331
▁unexpected	-11.4331
▁barrier	-11.4331
▁hook	-11.4332
▁Congo	-11.4332
▁floating	-11.4342
▁journalist	-11.4343
▁classes	-11.4344
▁guard	-11.4346
▁destroyed	-11.4348
▁concern	-11.4367
▁offered	-11.4368
▁transformed	-11.4372
▁creature	-11.4384
onic	-11.4386
▁owner	-11.4399
▁poster	-11.44
▁economists	-11.4403
▁wars	-11.4418
▁Bra	-11.4419
▁seal	-11.4421
▁dive	-11.4422
▁courage	-11.4423
▁Frank	-11.4424
▁Basically	-11.4424
▁Thomas	-11.4424
▁economies	-11.4424
▁engaging	-11.4424
▁globe	-11.4424
▁identical	-11.4424
▁library	-11.4424
▁animation	-11.4424
▁Everyone	-11.4425
▁June	-11.4425
▁raw	-11.4425
▁fluid	-11.4425
etic	-11.4426
▁mode	-11.4428
▁villages	-11.4438
▁welcome	-11.4439
▁army	-11.4449
hour	-11.4463
▁ears	-11.4468
▁pushing	-11.4469
▁aspects	-11.4476
▁vessels	-11.4496
▁flip	-11.4515
ges	-11.4516
▁corporate	-11.4517
▁conclude	-11.4517
▁correspond	-11.4517
▁judgment	-11.4517
▁reserve	-11.4517
▁carried	-11.4517
▁shall	-11.4517
▁regime	-11.4518
▁Martin	-11.4518
▁samples	-11.4519
▁Jim	-11.4519
▁Get	-11.452
zo	-11.4527
▁cable	-11.4527
▁hyper	-11.4531
▁meme	-11.4537
▁implications	-11.4547
▁subjects	-11.4547
▁wherever	-11.4553
verse	-11.4555
ax	-11.4559
▁channel	-11.4573
▁standards	-11.4577
ump	-11.458
▁Boy	-11.4584
▁continued	-11.4587
▁careful	-11.461
▁frankly	-11.4612
▁genius	-11.4612
▁measuring	-11.4612
▁medication	-11.4612
▁renewable	-11.4612
▁session	-11.4612
▁defend	-11.4612
▁compound	-11.4612
▁minister	-11.4612
▁dramatically	-11.4612
▁Union	-11.4614
▁White	-11.4615
▁limits	-11.4616
▁plans	-11.4631
▁films	-11.4642
▁drinking	-11.4643
▁whales	-11.4647
▁represented	-11.4648
Yeah	-11.4648
press	-11.465
box	-11.4652
▁stands	-11.4666
▁flowers	-11.4666
▁disorder	-11.4669
▁monkey	-11.467
▁Star	-11.4678
▁edit	-11.4683
▁presented	-11.4691
▁refer	-11.4693
▁profit	-11.4695
▁aim	-11.47
▁January	-11.4707
▁defense	-11.4707
▁neither	-11.4707
▁suspect	-11.4707
▁grateful	-11.4707
▁thumb	-11.4707
▁trace	-11.4707
▁footprint	-11.4707
▁sweat	-11.4707
▁cosm	-11.4711
hood	-11.4717
▁anger	-11.4734
▁whale	-11.4767
▁beside	-11.4768
▁Island	-11.477
▁males	-11.4771
▁dozen	-11.4772
type	-11.4784
▁Korea	-11.4792
▁lock	-11.4792
▁clue	-11.4803
▁recognition	-11.4803
▁automatically	-11.4803
▁engagement	-11.4805
▁asset	-11.4806
▁distributed	-11.4809
Y	-11.4817
▁pan	-11.4833
▁painful	-11.484
efore	-11.484
stream	-11.4841
ending	-11.4851
▁telescope	-11.4864
▁spreading	-11.4869
▁arguments	-11.4877
ological	-11.4894
▁Greek	-11.49
▁regret	-11.49
▁strike	-11.49
▁crucial	-11.49
▁pace	-11.49
▁vital	-11.49
ivity	-11.49
▁reduction	-11.4901
▁committed	-11.4901
▁overcome	-11.4901
▁lake	-11.4902
▁instruments	-11.4903
▁precisely	-11.4905
▁portrait	-11.4908
rum	-11.4913
▁falls	-11.4924
▁Please	-11.4926
▁linked	-11.4931
▁tune	-11.4939
▁architects	-11.4947
▁performing	-11.4949
▁cartoon	-11.4952
mark	-11.4954
▁teams	-11.4954
level	-11.4956
eek	-11.4956
▁traveled	-11.4961
hen	-11.4963
▁component	-11.4964
▁lung	-11.4964
▁colleague	-11.4964
▁dig	-11.497
▁papers	-11.498
▁behavioral	-11.4988
▁proportion	-11.4998
▁drove	-11.4998
▁heaven	-11.4998
▁obsessed	-11.4998
▁senior	-11.4998
▁silent	-11.4998
▁agenda	-11.4998
▁dancing	-11.4998
▁preserve	-11.4998
▁salt	-11.4998
▁ticket	-11.4999
▁Sweden	-11.4999
▁laser	-11.4999
▁interactive	-11.5
oid	-11.5015
▁shooting	-11.5022
▁conventional	-11.5025
▁tro	-11.5026
▁mate	-11.5029
▁spin	-11.503
ase	-11.5033
▁achieved	-11.5034
▁classic	-11.504
▁savings	-11.5045
▁poet	-11.5047
▁gather	-11.506
▁clouds	-11.506
▁mammals	-11.5075
▁empower	-11.508
▁rescue	-11.5082
▁melt	-11.5083
My	-11.5095
▁Ghana	-11.5097
▁insurance	-11.5097
▁polio	-11.5097
▁pregnant	-11.5097
▁Central	-11.5097
▁illustrate	-11.5097
▁elite	-11.5097
▁Gulf	-11.5097
▁resident	-11.5097
▁geo	-11.5098
▁diverse	-11.5099
▁pollen	-11.5099
▁hunger	-11.51
▁Act	-11.5101
▁poorest	-11.5103
▁dust	-11.5104
▁scary	-11.5104
▁tired	-11.5104
▁personality	-11.5105
▁shelter	-11.5127
▁shell	-11.5139
▁electron	-11.5157
well	-11.5158
▁Was	-11.517
▁rooms	-11.5178
▁consume	-11.5178
▁wa	-11.5185
▁Voice	-11.5197
▁Foundation	-11.5197
▁column	-11.5197
▁enemy	-11.5197
▁exploring	-11.5197
▁external	-11.5197
▁philosopher	-11.5197
▁Next	-11.5197
▁stereo	-11.5197
▁River	-11.5198
▁immune	-11.52
▁colony	-11.52
▁comic	-11.52
▁objective	-11.5201
▁verb	-11.5202
▁mentor	-11.5202
▁controlling	-11.5204
▁consistent	-11.5205
▁methods	-11.5214
▁Give	-11.5216
▁windows	-11.5221
▁Wal	-11.5223
ica	-11.5223
▁fi	-11.523
law	-11.5234
Okay	-11.5239
▁prop	-11.5243
▁absorb	-11.5245
▁disc	-11.5248
rid	-11.5254
▁increases	-11.5256
▁Par	-11.5269
avi	-11.527
▁brothers	-11.5273
phy	-11.5278
▁Ed	-11.5282
▁vaccines	-11.5283
zi	-11.5287
▁liver	-11.5294
▁Microsoft	-11.5298
▁chocolate	-11.5298
▁earthquake	-11.5298
▁guarantee	-11.5298
▁implant	-11.5298
▁knock	-11.5298
▁miracle	-11.5298
▁recommend	-11.5298
▁strategies	-11.5298
▁suicide	-11.5298
▁leap	-11.5298
▁Revolution	-11.5298
▁gray	-11.53
▁spinal	-11.5302
▁golf	-11.5304
▁lit	-11.5322
▁mainly	-11.5326
▁exam	-11.5331
▁collecting	-11.5359
▁connecting	-11.5361
▁fabric	-11.5367
▁citizen	-11.537
▁tri	-11.537
dom	-11.5376
bar	-11.5377
▁Pri	-11.5382
▁brief	-11.5393
▁Space	-11.54
▁blame	-11.54
▁embedded	-11.54
▁philosophy	-11.54
▁universities	-11.54
▁mystery	-11.54
▁tight	-11.5401
▁stack	-11.5402
isolated	-11.5403
▁barely	-11.5403
rick	-11.5406
▁boss	-11.5406
▁properly	-11.5407
fully	-11.541
▁shake	-11.5412
▁Min	-11.5424
▁youth	-11.5424
ught	-11.5426
▁removed	-11.5426
▁placed	-11.5429
▁disorders	-11.544
▁cute	-11.5441
▁spec	-11.5445
tech	-11.5451
▁printer	-11.5466
▁struggl	-11.5469
ney	-11.5472
▁Lab	-11.5484
▁efforts	-11.5492
ulate	-11.5496
▁Higgs	-11.5503
▁romantic	-11.5503
▁grave	-11.5503
▁Nations	-11.5503
▁adventure	-11.5503
▁rising	-11.5503
▁hip	-11.5504
▁till	-11.5504
▁household	-11.5504
▁cash	-11.5505
▁Bush	-11.5506
▁Six	-11.5506
▁tries	-11.5507
▁darkness	-11.5511
▁coin	-11.5522
▁Pole	-11.5523
▁crying	-11.5524
▁missed	-11.5525
▁populations	-11.5528
▁sets	-11.553
▁brave	-11.5538
▁optimistic	-11.5543
bit	-11.5545
▁interacting	-11.5547
century	-11.5548
But	-11.5553
▁imagined	-11.5554
lit	-11.5558
▁treating	-11.5567
▁acts	-11.5575
▁elephant	-11.5579
ush	-11.5582
▁grows	-11.5595
▁units	-11.5595
ker	-11.5604
▁Ethiopia	-11.5607
▁Manhattan	-11.5607
▁curiosity	-11.5607
▁frog	-11.5607
▁procedure	-11.5607
▁asteroid	-11.5607
▁raising	-11.5607
▁recruit	-11.5607
▁appeal	-11.5607
▁pretend	-11.5608
▁orange	-11.5608
▁Haiti	-11.5608
▁Peter	-11.5612
▁directions	-11.5613
▁cheaper	-11.5618
▁seed	-11.5635
▁depending	-11.5635
▁produces	-11.5636
▁ste	-11.5638
▁magnetic	-11.5638
▁Bur	-11.5642
▁antibiotics	-11.565
▁tasks	-11.5652
▁pray	-11.5655
class	-11.5655
▁gate	-11.5676
cap	-11.5682
▁appears	-11.5686
▁Ge	-11.5686
▁globally	-11.5694
▁consumers	-11.5697
▁writer	-11.5705
▁involves	-11.571
▁International	-11.5713
▁Texas	-11.5713
▁facial	-11.5713
▁passenger	-11.5713
▁plenty	-11.5713
▁cyber	-11.5713
▁description	-11.5713
▁regulation	-11.5713
▁simulation	-11.5713
▁stroke	-11.5713
▁federal	-11.5713
▁hardware	-11.5713
▁debt	-11.5713
▁tuna	-11.5713
▁domain	-11.5713
▁hungry	-11.5713
▁partnership	-11.5713
▁productivity	-11.5713
ologists	-11.5713
▁Super	-11.5715
▁Jack	-11.5715
▁heroes	-11.5717
▁tower	-11.5718
▁muscles	-11.5719
▁recovery	-11.5721
ndeed	-11.5721
▁Africans	-11.5722
▁oldest	-11.5726
▁rhythm	-11.5726
▁resolution	-11.5731
▁divided	-11.5732
gging	-11.5741
▁corals	-11.5742
▁pit	-11.5751
▁monkeys	-11.5754
play	-11.576
▁seeds	-11.576
▁interactions	-11.5763
Let	-11.5767
▁wage	-11.5769
▁mega	-11.5769
cop	-11.5775
active	-11.5778
ov	-11.5783
▁sales	-11.5784
▁reaching	-11.579
syn	-11.5803
par	-11.5804
▁rough	-11.5812
▁quit	-11.5817
▁Rwanda	-11.5819
▁ceiling	-11.5819
▁density	-11.5819
▁district	-11.5819
▁request	-11.5819
▁leak	-11.5819
▁wrap	-11.5819
▁scratch	-11.5819
▁High	-11.5819
mplicity	-11.5819
▁chest	-11.5821
▁Islamic	-11.5822
▁representation	-11.5823
▁dial	-11.5823
▁mail	-11.5824
▁banks	-11.5828
▁latest	-11.5828
▁Russian	-11.5836
▁fa	-11.5838
▁volunteers	-11.5844
▁killer	-11.5848
pped	-11.5855
▁intention	-11.5856
▁reported	-11.5859
▁wise	-11.587
▁aside	-11.588
▁searching	-11.5885
▁penguins	-11.5886
▁Pe	-11.5897
▁volunteer	-11.5902
▁neighborhoods	-11.5907
▁crops	-11.5912
▁hearts	-11.5917
olds	-11.5917
▁label	-11.5919
ways	-11.5921
▁corn	-11.5925
▁alter	-11.5926
▁brown	-11.5927
▁candidate	-11.5927
▁demographic	-11.5927
▁dioxide	-11.5927
▁elsewhere	-11.5927
▁fulfill	-11.5927
▁liberal	-11.5927
▁Stanford	-11.5927
▁borrow	-11.5927
▁entertainment	-11.5927
▁Grand	-11.5928
▁upset	-11.5929
▁stake	-11.5929
▁herself	-11.5929
stone	-11.5946
run	-11.5952
▁Ah	-11.5952
▁laughing	-11.5953
▁arch	-11.5958
▁lovely	-11.5974
▁pushed	-11.5978
▁auto	-11.6003
bro	-11.6007
▁polar	-11.6011
▁meetings	-11.6012
▁weapon	-11.6012
▁particle	-11.6012
Don	-11.6019
▁arrive	-11.6021
▁Sch	-11.6031
▁cart	-11.6031
▁capita	-11.6033
▁Department	-11.6035
▁Hollywood	-11.6035
▁furniture	-11.6035
▁obesity	-11.6035
▁ridiculous	-11.6035
▁skull	-11.6035
▁Black	-11.6035
▁adjust	-11.6035
▁expectations	-11.6035
▁textbook	-11.6036
▁subtle	-11.6036
▁accessible	-11.6036
▁airport	-11.6037
▁usual	-11.6041
▁stations	-11.6045
▁scar	-11.6047
▁distant	-11.6048
ez	-11.6054
▁walks	-11.6058
▁practices	-11.606
pur	-11.6071
▁prices	-11.6075
▁Lad	-11.6084
dollar	-11.6086
ino	-11.6091
▁rebuild	-11.6096
oe	-11.6103
▁Cal	-11.6103
▁van	-11.6104
cellular	-11.6107
▁bend	-11.612
▁paintings	-11.6122
▁fr	-11.6124
dia	-11.6129
▁Dur	-11.613
▁hire	-11.6131
▁radi	-11.6132
▁extinct	-11.6139
▁William	-11.6145
▁bulb	-11.6145
▁dignity	-11.6145
▁gesture	-11.6145
▁mushroom	-11.6145
▁pursue	-11.6145
▁spectacular	-11.6145
▁underground	-11.6145
▁mimic	-11.6145
▁mutation	-11.6145
▁sandwich	-11.6145
▁Nobel	-11.6146
▁opposed	-11.6147
▁Bang	-11.615
▁dedicated	-11.6152
▁concepts	-11.6153
▁Law	-11.6156
▁uncomfortabl	-11.6156
ya	-11.6161
▁Pat	-11.6168
▁rat	-11.6181
▁visited	-11.62
posing	-11.6212
▁iron	-11.6213
▁Bay	-11.6214
▁incentives	-11.6231
▁rap	-11.6245
▁conduct	-11.6252
uro	-11.6252
▁charity	-11.6256
▁chief	-11.6256
▁concert	-11.6256
▁cousin	-11.6256
▁frozen	-11.6256
▁legacy	-11.6256
▁surveillance	-11.6256
▁Nothing	-11.6256
▁demonstration	-11.6259
▁settle	-11.6259
▁dirty	-11.626
▁exposed	-11.6262
▁locked	-11.6276
▁rent	-11.6276
dor	-11.6282
▁parties	-11.6284
▁craft	-11.6287
place	-11.6313
▁slides	-11.6314
▁Pre	-11.6322
▁collaborat	-11.6323
▁cop	-11.6331
▁indicate	-11.634
▁ethical	-11.6343
▁meter	-11.6367
▁Atlantic	-11.6369
▁Olympic	-11.6369
▁confident	-11.6369
▁disgust	-11.6369
▁orchestra	-11.6369
▁pyramid	-11.6369
▁skeleton	-11.6369
▁yield	-11.6369
▁conservative	-11.6369
▁General	-11.6369
▁spill	-11.637
▁hardly	-11.6371
▁wings	-11.6371
▁bless	-11.6373
▁breaking	-11.6377
▁ga	-11.6378
▁norm	-11.6381
▁fifth	-11.6381
▁tent	-11.6389
▁replicate	-11.6391
▁generated	-11.6416
tail	-11.6431
▁protecting	-11.6443
▁plug	-11.6448
cation	-11.6455
ix	-11.6455
identified	-11.6458
▁wanting	-11.648
▁kilo	-11.6482
▁Woman	-11.6482
▁diabetes	-11.6482
▁intuitive	-11.6482
▁array	-11.6482
▁twin	-11.6482
▁governance	-11.6483
▁proper	-11.6483
▁dump	-11.6484
▁initiative	-11.6484
▁slip	-11.6484
▁DH	-11.6486
▁Really	-11.6486
▁affordable	-11.6486
▁chosen	-11.6488
▁Rio	-11.6488
iness	-11.6492
▁compar	-11.6497
▁editor	-11.6498
▁refugees	-11.6499
some	-11.65
▁Far	-11.6503
▁Rob	-11.6509
▁beliefs	-11.6511
▁provides	-11.6515
▁investing	-11.6522
ok	-11.653
▁layers	-11.6537
▁bother	-11.6538
▁fe	-11.6549
▁nurse	-11.6556
▁Mary	-11.6565
▁surely	-11.6567
▁focusing	-11.658
▁refugee	-11.658
▁icon	-11.6596
▁dominant	-11.6597
▁transparent	-11.6597
▁calculation	-11.6597
▁sketch	-11.6597
▁transparency	-11.6597
▁neck	-11.6597
▁Turn	-11.6597
▁synthetic	-11.6597
▁ugly	-11.6597
▁backwards	-11.6597
▁football	-11.6597
▁sheep	-11.6598
▁mold	-11.6598
▁fool	-11.6598
lut	-11.66
▁delight	-11.66
▁restore	-11.66
▁achievement	-11.66
▁Joe	-11.6602
▁Back	-11.6604
▁tears	-11.6605
▁spoken	-11.6605
▁integrated	-11.6606
▁granted	-11.6606
▁drawn	-11.6612
▁pink	-11.6613
berg	-11.6614
ggle	-11.6618
▁axis	-11.6621
▁printed	-11.663
wn	-11.6645
▁hat	-11.6667
▁impacts	-11.6677
▁Mor	-11.6694
▁dolphins	-11.6703
▁initial	-11.6706
lip	-11.671
▁transmit	-11.6713
▁regard	-11.6713
▁Research	-11.6714
▁chaos	-11.6714
▁combat	-11.6714
▁cooperation	-11.6714
▁freak	-11.6714
▁helicopter	-11.6714
▁inspiring	-11.6714
▁poison	-11.6714
▁profile	-11.6714
▁rainforest	-11.6714
▁reconstruct	-11.6714
▁Tell	-11.6714
▁spark	-11.6714
▁programming	-11.6714
▁leverage	-11.6714
▁agencies	-11.6715
▁pipe	-11.6715
▁ensure	-11.6719
▁Never	-11.6719
fore	-11.672
▁amongst	-11.6723
▁surrounding	-11.6726
▁Tru	-11.6726
▁realm	-11.6738
▁magical	-11.6757
▁characteristics	-11.677
▁Pu	-11.6772
▁ingredients	-11.6781
▁touched	-11.6793
▁Bob	-11.6798
▁Muslims	-11.6804
ncies	-11.6808
▁donor	-11.6808
▁terrorist	-11.6817
▁uncle	-11.6818
▁Age	-11.6821
▁rapid	-11.6825
▁inventor	-11.6826
▁tele	-11.6826
▁addict	-11.6828
▁interpret	-11.683
▁Smith	-11.6831
▁margin	-11.6831
▁Narrator	-11.6831
▁Ocean	-11.6831
▁essence	-11.6831
▁intuition	-11.6831
▁naked	-11.6831
▁northern	-11.6831
▁tragedy	-11.6831
▁jet	-11.6831
▁neuroscience	-11.6831
▁boundaries	-11.6831
▁shore	-11.6831
▁alarm	-11.6831
▁liberat	-11.6832
▁plain	-11.6832
▁Antarctica	-11.6832
▁gear	-11.6832
▁lamp	-11.6833
▁laughter	-11.6833
▁contains	-11.6834
▁anxiety	-11.6837
▁tricks	-11.6838
▁drivers	-11.6845
▁tied	-11.6852
▁bound	-11.6865
▁communications	-11.6872
▁package	-11.6876
▁Make	-11.69
free	-11.6903
q	-11.6928
▁clients	-11.6933
▁victim	-11.6937
▁neuron	-11.6942
▁October	-11.695
▁Uganda	-11.695
▁breakthrough	-11.695
▁decrease	-11.695
▁instinct	-11.695
▁symmetry	-11.695
▁tackle	-11.695
▁enhance	-11.695
▁neural	-11.695
▁twist	-11.695
▁output	-11.695
▁Things	-11.6951
▁bump	-11.6951
▁stable	-11.6951
▁discoveries	-11.6953
▁Bible	-11.6954
▁farmer	-11.6956
▁extinction	-11.6957
▁diagnosed	-11.6958
▁survivor	-11.6959
▁actors	-11.6959
▁pose	-11.6961
▁autonomous	-11.6964
▁fortune	-11.6971
▁letting	-11.6974
▁hanging	-11.6982
▁served	-11.6984
▁proof	-11.6985
▁projection	-11.6997
▁passing	-11.7
▁reduced	-11.7
▁experimental	-11.7005
▁additional	-11.7006
fold	-11.7016
uction	-11.7023
▁doors	-11.7034
▁dish	-11.7039
▁scales	-11.7046
▁hid	-11.7052
▁coat	-11.7057
▁lawyer	-11.7059
▁consequence	-11.7059
▁neuro	-11.7066
▁commit	-11.7069
▁Alzheimer	-11.7071
▁Jewish	-11.7071
▁advertising	-11.7071
▁ethnic	-11.7071
▁mechanics	-11.7071
▁shrimp	-11.7071
▁agricultural	-11.7071
▁contribution	-11.7071
▁probability	-11.7071
▁reputation	-11.7071
▁smooth	-11.7071
▁tragic	-11.7071
▁mood	-11.7071
▁kiss	-11.7071
▁sharp	-11.7071
▁advis	-11.7071
▁theories	-11.7071
▁permission	-11.7071
▁slavery	-11.7071
▁laid	-11.7074
▁None	-11.7085
▁acknowledge	-11.7087
▁nurses	-11.709
▁richer	-11.7092
▁speaker	-11.7094
▁dependent	-11.7102
▁Hol	-11.711
cher	-11.7111
war	-11.7111
▁lungs	-11.7113
▁painted	-11.7115
▁bow	-11.7129
▁discuss	-11.7152
ular	-11.7152
▁mechanisms	-11.7159
▁instant	-11.7161
▁trends	-11.7166
▁conflicts	-11.7171
▁nano	-11.7176
▁pour	-11.7177
▁Mac	-11.7178
▁picking	-11.718
▁physicist	-11.7182
▁Ch	-11.7183
▁strangers	-11.7185
▁civic	-11.7193
▁concentration	-11.7193
▁explosion	-11.7193
▁recipe	-11.7193
▁relax	-11.7193
▁whistle	-11.7193
▁participation	-11.7193
▁convey	-11.7193
▁spell	-11.7193
▁comparison	-11.7193
▁baseball	-11.7193
▁queen	-11.7193
▁aircraft	-11.7193
▁slice	-11.7193
ound	-11.7194
hether	-11.7194
▁Mother	-11.7194
▁tick	-11.7194
▁punch	-11.7194
▁relations	-11.7201
▁gases	-11.7208
unclear	-11.7209
▁pie	-11.7209
▁dear	-11.7212
gon	-11.7222
▁educated	-11.7223
▁landed	-11.723
▁failing	-11.7233
▁agency	-11.7236
▁x	-11.7238
▁dozens	-11.7239
▁Wall	-11.7241
load	-11.7252
▁threaten	-11.7253
▁returned	-11.726
▁ratio	-11.7261
▁suggesting	-11.7265
▁fuels	-11.729
So	-11.729
▁Ko	-11.7291
▁musicians	-11.7298
▁electro	-11.73
▁roots	-11.7306
▁relation	-11.7307
▁hy	-11.7308
▁glacier	-11.7316
▁routine	-11.7316
▁substance	-11.7316
▁threw	-11.7316
▁Third	-11.7316
▁alcohol	-11.7316
▁smoking	-11.7316
▁southern	-11.7316
▁broadcast	-11.7316
▁capability	-11.7317
▁persist	-11.7317
▁attractive	-11.7317
▁east	-11.7318
▁highlight	-11.732
▁sensory	-11.7322
lace	-11.7322
▁briefly	-11.7325
▁marker	-11.7328
▁informed	-11.7331
aries	-11.7332
▁terrorists	-11.7332
plan	-11.7334
een	-11.7334
▁rating	-11.7339
▁participants	-11.7339
▁luck	-11.7339
ancy	-11.7347
▁pointed	-11.7348
▁insist	-11.7353
cker	-11.7354
▁separated	-11.7356
▁dynamics	-11.7359
▁coach	-11.736
▁reminded	-11.7363
▁log	-11.7366
▁opera	-11.7366
▁Ver	-11.7368
▁highway	-11.7369
face	-11.7376
▁electronics	-11.7384
▁dimension	-11.7398
▁tear	-11.7405
gue	-11.7407
▁Kar	-11.7408
▁chimpanzees	-11.7413
▁assumptions	-11.7418
door	-11.7422
▁toys	-11.7432
▁occasion	-11.744
▁Blue	-11.7441
▁biodiversity	-11.7441
▁sacred	-11.7441
▁pandemic	-11.7441
▁tunnel	-11.7441
▁Soviet	-11.7441
▁injury	-11.7441
▁flexible	-11.7441
▁afterwards	-11.7441
▁fraction	-11.7441
▁bullet	-11.7442
▁winner	-11.7442
▁Italy	-11.7442
▁merely	-11.7443
▁happier	-11.7444
late	-11.7444
▁actor	-11.7444
▁rope	-11.7446
▁wipe	-11.7447
▁Egyptian	-11.7449
▁artistic	-11.7449
▁tension	-11.7461
▁speakers	-11.7468
▁lane	-11.7471
ken	-11.7473
vation	-11.7474
▁Part	-11.7475
▁Gene	-11.748
▁Up	-11.7493
▁journal	-11.7494
hoo	-11.7507
wise	-11.7508
▁crossing	-11.7512
▁sisters	-11.7512
▁lighting	-11.7517
ologist	-11.753
▁underly	-11.7554
▁Wa	-11.7556
▁pun	-11.7564
▁branch	-11.7565
▁reefs	-11.7565
▁Child	-11.7567
▁algae	-11.7568
▁facility	-11.7568
▁disagree	-11.7568
▁fragment	-11.7568
▁robust	-11.7568
▁sensation	-11.7568
▁Southern	-11.7568
▁begun	-11.7568
▁glad	-11.7568
gin	-11.7568
▁resist	-11.7568
▁ignorance	-11.7568
▁consist	-11.7568
▁MRI	-11.7569
▁warning	-11.7571
▁grandchildren	-11.7573
▁rarely	-11.7582
▁linear	-11.7583
▁pathway	-11.7588
▁photography	-11.759
▁originally	-11.7592
lf	-11.7595
▁adding	-11.7597
▁sink	-11.7602
▁elephants	-11.7602
▁circles	-11.7606
▁trauma	-11.7608
▁seats	-11.7609
▁employ	-11.7615
▁shopp	-11.7616
▁Ab	-11.7617
▁formula	-11.763
▁predicted	-11.7631
▁funded	-11.7636
third	-11.7637
▁links	-11.764
attached	-11.7646
▁soap	-11.765
▁magnet	-11.7658
▁biologists	-11.7663
▁fed	-11.7663
▁motivate	-11.7668
▁custom	-11.7671
▁Time	-11.7675
▁ecosystems	-11.7677
There	-11.7681
▁predictions	-11.7683
▁dinosaur	-11.7692
▁exploit	-11.7694
▁tribes	-11.7694
▁Girl	-11.7696
▁excuse	-11.7696
▁tweet	-11.7696
▁Eastern	-11.7696
▁marry	-11.7696
▁transmission	-11.7696
▁portion	-11.7696
▁installation	-11.7697
▁boil	-11.7701
can	-11.7709
▁sacrifice	-11.771
▁publish	-11.7716
away	-11.7721
▁ban	-11.7722
▁expanding	-11.7726
▁determined	-11.7727
win	-11.7729
▁Hy	-11.773
▁treatments	-11.7733
arian	-11.7733
eat	-11.7735
pha	-11.7741
▁edges	-11.7765
▁helpful	-11.7766
▁pulling	-11.777
clock	-11.7771
now	-11.7785
▁elections	-11.7785
cho	-11.7788
▁observe	-11.7797
▁fee	-11.7801
ball	-11.7802
▁teenagers	-11.7802
▁symbols	-11.7803
▁construct	-11.7805
▁computation	-11.7806
▁adopt	-11.7808
▁immediate	-11.7818
▁inject	-11.7819
▁inevitabl	-11.782
▁Mad	-11.782
▁interestingly	-11.7825
▁Obviously	-11.7826
▁Oxford	-11.7826
▁Prize	-11.7826
▁abilities	-11.7826
▁aesthetic	-11.7826
▁anonymous	-11.7826
▁buried	-11.7826
▁depressed	-11.7826
▁expedition	-11.7826
▁origami	-11.7826
▁signature	-11.7826
▁simulate	-11.7826
▁structural	-11.7826
▁translation	-11.7826
▁Design	-11.7826
▁Through	-11.7826
▁pause	-11.7826
▁pioneer	-11.7826
▁bathroom	-11.7826
▁fought	-11.7826
▁neat	-11.7826
▁Nature	-11.7826
▁collaborative	-11.7827
▁Long	-11.7827
▁insect	-11.7828
rctic	-11.783
▁astonishing	-11.7832
▁wing	-11.7832
▁frequency	-11.7833
▁radically	-11.7839
▁safer	-11.7842
▁smarter	-11.785
▁extended	-11.7852
▁pad	-11.7852
▁format	-11.7861
▁Mom	-11.7864
power	-11.7883
finite	-11.7897
related	-11.7898
ude	-11.7904
▁navigate	-11.7905
▁profession	-11.7909
▁Israeli	-11.7914
▁graphic	-11.7921
▁passwords	-11.7922
▁partly	-11.7925
▁includes	-11.7938
▁implement	-11.7941
▁witness	-11.7941
▁govern	-11.7945
▁flows	-11.7945
▁dose	-11.7951
▁sensor	-11.7951
▁Inter	-11.7955
▁Florida	-11.7957
▁chromosome	-11.7957
▁dialogue	-11.7957
▁mysterious	-11.7957
▁neutral	-11.7957
▁primitive	-11.7957
▁wheelchair	-11.7957
▁garage	-11.7957
▁crystal	-11.7957
▁Gates	-11.7957
▁soldier	-11.7958
▁urge	-11.7958
▁variable	-11.7958
▁mask	-11.7959
▁pole	-11.7959
▁export	-11.7959
▁agreement	-11.7961
▁globalization	-11.7962
▁reports	-11.7962
▁fastest	-11.7963
ueen	-11.7963
▁supported	-11.7967
lash	-11.7972
hold	-11.7972
▁constructed	-11.7974
▁significantly	-11.7981
▁Hey	-11.7982
▁rip	-11.7998
cha	-11.8002
▁invested	-11.8002
▁entering	-11.801
▁attach	-11.8013
Wow	-11.8033
▁peaceful	-11.8033
He	-11.8041
unk	-11.8049
▁experienc	-11.8066
assemble	-11.8076
Can	-11.8076
ji	-11.8079
oli	-11.809
▁vagina	-11.8091
▁December	-11.8091
▁dictionary	-11.8091
▁fabulous	-11.8091
▁figuring	-11.8091
▁nutrition	-11.8091
▁vacuum	-11.8091
▁submit	-11.8091
▁flee	-11.8091
▁Children	-11.8091
▁smartphone	-11.8091
▁infant	-11.8091
▁connectivity	-11.8091
▁sauce	-11.8091
▁scanner	-11.8091
▁assignment	-11.8092
▁tribe	-11.8093
▁passive	-11.8093
▁unlikely	-11.8102
▁arrested	-11.8104
▁proposed	-11.8104
ole	-11.8104
▁Sal	-11.8104
▁arise	-11.8111
▁gathering	-11.8114
▁reactor	-11.8116
▁translated	-11.8117
▁quo	-11.8124
pper	-11.8127
▁coordinat	-11.8128
▁Tri	-11.8137
▁positions	-11.8162
Where	-11.8168
▁documents	-11.8171
▁bars	-11.8171
▁strand	-11.8176
▁sleeping	-11.8178
▁prisoners	-11.8185
unbelievable	-11.8191
made	-11.8203
wo	-11.8205
▁joint	-11.8207
▁involve	-11.8214
announced	-11.822
▁terror	-11.8224
scribe	-11.8224
▁immense	-11.8226
assembly	-11.8226
▁Spanish	-11.8226
▁category	-11.8226
▁eliminate	-11.8226
▁expansion	-11.8226
▁forgotten	-11.8226
▁shrink	-11.8226
▁fragile	-11.8227
▁investors	-11.8227
▁keyboard	-11.8227
▁Rome	-11.823
▁Out	-11.8231
▁KB	-11.8232
▁operations	-11.8233
▁reef	-11.8235
uk	-11.8235
▁lawyers	-11.8239
▁shocked	-11.8253
▁caring	-11.8263
▁mixed	-11.8266
▁daughters	-11.8267
▁sew	-11.8268
ote	-11.8283
organizing	-11.8286
part	-11.8297
book	-11.8308
▁stores	-11.8315
▁cats	-11.8318
logy	-11.8324
▁answered	-11.8335
▁fla	-11.8352
▁panels	-11.8352
▁precise	-11.8355
▁shaped	-11.8362
▁gods	-11.8362
▁poly	-11.8363
▁August	-11.8363
▁cliff	-11.8363
▁drift	-11.8363
▁gradually	-11.8363
▁industries	-11.8363
▁primarily	-11.8363
▁smallpox	-11.8363
▁threshold	-11.8363
▁reinvent	-11.8363
▁intersection	-11.8363
▁imaging	-11.8363
▁kidney	-11.8364
ati	-11.8365
▁Port	-11.8366
▁burst	-11.8366
▁manual	-11.8366
▁impression	-11.8368
▁campus	-11.8369
▁balls	-11.8369
▁competitive	-11.837
▁targets	-11.8371
▁Cu	-11.8378
test	-11.8379
▁manipulate	-11.8381
aday	-11.8386
▁approaches	-11.8389
▁included	-11.8391
▁nets	-11.8392
▁rob	-11.8402
▁threats	-11.8408
▁explode	-11.841
half	-11.8424
don	-11.8427
while	-11.8442
When	-11.8443
▁heal	-11.8453
▁dancer	-11.8462
▁drag	-11.847
▁bears	-11.8471
▁inform	-11.8476
ima	-11.8481
▁hack	-11.8481
▁hum	-11.8485
▁Pol	-11.85
▁Video	-11.8502
▁aggressive	-11.8502
▁choosing	-11.8502
▁Square	-11.8502
▁frustrated	-11.8502
▁annual	-11.8502
▁rabbi	-11.8502
▁screw	-11.8502
▁silly	-11.8502
▁Court	-11.8502
▁pharmaceutical	-11.8502
▁Italian	-11.8502
▁copyright	-11.8502
▁nonprofit	-11.8502
▁beetle	-11.8502
▁native	-11.8503
▁mindset	-11.8506
▁confused	-11.8507
▁damn	-11.8508
▁physician	-11.8509
▁egg	-11.8511
▁Hill	-11.8515
Sorry	-11.8517
▁adopted	-11.8519
▁slave	-11.8525
elected	-11.8527
▁accidents	-11.853
awa	-11.8534
▁wired	-11.8536
▁burned	-11.8537
▁strongly	-11.8544
▁Put	-11.8545
▁difficulty	-11.8563
▁trucks	-11.8564
▁chips	-11.857
▁survived	-11.857
view	-11.8574
▁rivers	-11.8577
▁Men	-11.8577
ambi	-11.8606
ening	-11.8639
▁TEDTalk	-11.8643
▁ecological	-11.8643
▁valley	-11.8643
▁whatsoever	-11.8643
▁compelling	-11.8643
▁ruin	-11.8643
▁nuts	-11.8643
▁pride	-11.8643
▁Turkey	-11.8643
▁woke	-11.8643
▁Norway	-11.8643
▁Sunday	-11.8643
▁colonies	-11.8643
▁condom	-11.8643
▁spray	-11.8644
▁shout	-11.8644
▁ending	-11.8645
▁weekend	-11.8645
▁Arabic	-11.8646
▁inches	-11.8647
▁elderly	-11.8647
▁imagery	-11.865
▁initially	-11.8651
▁satellites	-11.8652
▁loan	-11.8654
print	-11.866
▁surprisingly	-11.866
▁shine	-11.8671
▁Mill	-11.8672
▁ethic	-11.8675
▁bang	-11.8677
▁disconnect	-11.8679
▁climbing	-11.8679
▁gli	-11.8691
org	-11.8698
▁Tim	-11.8702
▁arrow	-11.8705
▁hackers	-11.8721
▁Sen	-11.873
▁attribute	-11.874
▁award	-11.8741
▁via	-11.8744
▁ate	-11.8746
▁bags	-11.8766
▁float	-11.8769
▁bats	-11.877
▁Yorker	-11.8776
▁distinct	-11.878
▁exhibit	-11.878
▁Cambridge	-11.8785
▁February	-11.8785
▁capabilities	-11.8785
▁closing	-11.8785
▁hypothesis	-11.8785
▁qualities	-11.8785
▁audio	-11.8785
▁Seven	-11.8785
▁automobile	-11.8785
▁leaf	-11.8785
▁emit	-11.8785
▁grasp	-11.8786
▁nutrients	-11.8786
▁quest	-11.8786
▁Brown	-11.8786
▁Somebody	-11.8786
▁crew	-11.8786
▁resilience	-11.8786
▁authorities	-11.8786
▁marketplace	-11.8786
▁pulse	-11.8787
▁interpretation	-11.8787
▁healthier	-11.8789
▁resolve	-11.8795
▁tar	-11.8797
▁wider	-11.8798
▁fur	-11.8799
▁panel	-11.8799
▁sport	-11.88
▁perceived	-11.88
bble	-11.8802
▁stranger	-11.8811
▁anticipate	-11.8817
new	-11.8821
▁dar	-11.8822
▁successfully	-11.8822
▁bur	-11.8828
▁suggestion	-11.8834
▁farming	-11.8841
▁sentences	-11.8842
▁Pan	-11.8842
▁jumped	-11.8849
▁covering	-11.8858
▁bin	-11.886
zero	-11.8873
▁instructions	-11.8876
▁pairs	-11.8903
▁perceive	-11.8916
▁caves	-11.8923
▁fortunate	-11.8923
atic	-11.8925
▁horizon	-11.893
▁diploma	-11.893
▁Ebola	-11.893
▁Jesus	-11.893
▁curriculum	-11.893
▁extension	-11.893
▁genocide	-11.893
▁oxytocin	-11.893
▁serving	-11.893
▁architectural	-11.893
▁brutal	-11.893
▁cheese	-11.893
▁drought	-11.893
▁microbial	-11.893
▁minimum	-11.893
▁reducing	-11.893
▁silver	-11.893
▁crawl	-11.893
▁parasite	-11.893
▁drum	-11.893
▁supermarket	-11.893
▁lean	-11.893
▁burden	-11.8931
▁LED	-11.8931
▁reproduce	-11.8931
▁rice	-11.8931
▁representative	-11.8931
▁Without	-11.8932
▁bored	-11.8934
▁footage	-11.8934
▁cake	-11.8934
▁hitting	-11.8935
▁selfish	-11.8935
▁innocent	-11.8937
▁Should	-11.8939
▁dolphin	-11.8944
▁reactions	-11.8953
▁logical	-11.8954
▁Fo	-11.8956
▁wealthy	-11.8956
▁emerged	-11.8957
take	-11.8958
▁metric	-11.8959
▁fate	-11.8965
mine	-11.8972
▁writers	-11.8974
▁upside	-11.8982
▁channels	-11.899
▁Shi	-11.8999
▁Wow	-11.8999
▁affects	-11.9
▁chat	-11.9023
aba	-11.9036
▁Asian	-11.9037
Ha	-11.9042
▁purchase	-11.9052
▁Gen	-11.9059
▁bombs	-11.9062
▁Church	-11.9077
▁antenna	-11.9077
▁bizarre	-11.9077
▁garbage	-11.9077
▁improving	-11.9077
▁methane	-11.9077
▁optimism	-11.9077
▁pigeon	-11.9077
▁register	-11.9077
▁stunt	-11.9077
▁tendency	-11.9077
▁trajectory	-11.9077
▁Northern	-11.9077
▁Play	-11.9077
▁descend	-11.9077
▁barrel	-11.9077
▁Mountain	-11.9078
▁fraud	-11.9078
▁excitement	-11.9078
▁honey	-11.9078
▁Republican	-11.9078
▁mining	-11.9078
▁blend	-11.9078
▁paralyzed	-11.9081
▁March	-11.9081
oma	-11.9081
▁socially	-11.9086
▁overwhelming	-11.9092
entered	-11.9096
▁profoundly	-11.9097
▁palm	-11.9099
▁prediction	-11.91
▁Home	-11.9104
▁institutional	-11.9104
▁unable	-11.911
▁suffered	-11.911
▁guns	-11.9124
fire	-11.9124
▁interviewed	-11.9131
▁chairs	-11.9131
▁articles	-11.9133
▁improved	-11.914
▁incident	-11.9151
path	-11.9155
heart	-11.917
tune	-11.9176
▁tumors	-11.9178
▁Love	-11.9187
▁tissues	-11.919
▁bubbles	-11.919
▁embarrass	-11.921
▁propose	-11.9212
▁traditions	-11.9215
▁mayor	-11.9215
▁Silicon	-11.9227
▁compromise	-11.9227
▁creator	-11.9227
▁trash	-11.9227
▁expertise	-11.9227
▁microphone	-11.9227
▁generous	-11.9227
▁binary	-11.9227
▁unconscious	-11.9227
▁Chile	-11.9229
▁factories	-11.9229
▁Lego	-11.9229
▁appearance	-11.9229
▁duck	-11.9229
▁genetically	-11.923
oon	-11.9234
▁intended	-11.9236
▁homeless	-11.9241
ppy	-11.925
▁Secondly	-11.925
▁washing	-11.9257
▁advocate	-11.9259
▁Hall	-11.9261
▁dumb	-11.9261
▁prepare	-11.9263
ifying	-11.9264
▁drawings	-11.9267
▁detector	-11.9269
▁producer	-11.9273
▁rank	-11.9273
▁bucks	-11.9276
▁applying	-11.9284
▁journalists	-11.9294
bed	-11.9295
▁goat	-11.9308
OK	-11.9324
point	-11.9326
▁staying	-11.9353
▁select	-11.9359
Who	-11.9366
▁exponential	-11.9371
▁bull	-11.9378
▁Bangladesh	-11.9378
▁facilities	-11.9378
▁paradox	-11.9378
▁prosperity	-11.9378
▁strategic	-11.9378
▁unprecedented	-11.9378
▁beneath	-11.9378
▁distinguish	-11.9378
▁enterprise	-11.9378
▁hemisphere	-11.9378
▁triangle	-11.9378
▁valid	-11.9378
▁clay	-11.9378
▁primate	-11.9379
▁devil	-11.9379
▁simultaneously	-11.9379
▁winning	-11.938
▁quad	-11.938
▁fence	-11.938
▁gentleman	-11.9381
▁hydro	-11.9381
▁homework	-11.9383
▁manner	-11.9384
▁Chi	-11.9385
▁Miss	-11.9387
▁realizing	-11.9387
▁detection	-11.9387
▁viewer	-11.9388
▁clothing	-11.9389
▁endless	-11.9397
stantly	-11.94
▁fra	-11.9401
▁collectively	-11.9401
▁mineral	-11.9403
coming	-11.9404
▁crop	-11.9404
▁reasonable	-11.9405
▁formation	-11.941
▁delivery	-11.941
▁rape	-11.9413
▁confirm	-11.9418
▁rotate	-11.9433
▁corporations	-11.9437
▁completed	-11.9439
▁accelerate	-11.9457
tories	-11.9466
CA	-11.9466
▁mathematicians	-11.947
known	-11.9471
cla	-11.9479
▁bath	-11.9482
▁beautifully	-11.9487
▁scores	-11.9497
▁educate	-11.9517
ink	-11.9531
▁Although	-11.9532
▁Beijing	-11.9532
▁FBI	-11.9532
▁Titan	-11.9532
▁diagnosis	-11.9532
▁Moore	-11.9532
▁precious	-11.9532
▁Derek	-11.9532
▁contemporary	-11.9532
▁tongue	-11.9532
▁forgive	-11.9532
▁Saturn	-11.9532
▁Albert	-11.9532
▁jar	-11.9532
▁ownership	-11.9532
changing	-11.9532
▁forgot	-11.9532
▁rose	-11.9533
▁dung	-11.9533
scope	-11.9534
ographic	-11.9536
▁compassionate	-11.9536
▁subway	-11.9536
▁golden	-11.9537
Wait	-11.9545
▁hired	-11.9553
▁Eric	-11.9554
▁client	-11.9555
▁openness	-11.9558
▁gaps	-11.9564
▁manager	-11.9567
▁AB	-11.9573
▁shirt	-11.9577
▁shit	-11.9586
▁classical	-11.959
▁server	-11.959
▁profits	-11.9593
▁prior	-11.9599
▁camel	-11.96
bel	-11.9608
▁ph	-11.9617
▁formal	-11.963
▁friendly	-11.9631
▁Gore	-11.965
expectancy	-11.9651
▁sin	-11.9657
▁Free	-11.9657
▁badly	-11.9667
▁challenged	-11.9668
▁entrepreneur	-11.9673
▁continuous	-11.9681
▁expecting	-11.9683
▁sculpt	-11.9688
▁luxury	-11.9688
▁membrane	-11.9688
▁striking	-11.9688
▁accumulate	-11.9688
▁bribe	-11.9688
▁gallon	-11.9688
▁humanitarian	-11.9688
▁snake	-11.9688
▁vaccinat	-11.9688
▁watt	-11.9688
▁Minister	-11.9689
▁wildlife	-11.9689
▁Spain	-11.9689
▁fancy	-11.969
▁awake	-11.969
Listen	-11.969
▁disability	-11.969
▁friendship	-11.969
▁dating	-11.9692
▁located	-11.9692
▁Plan	-11.9693
▁beaten	-11.9694
▁items	-11.9694
▁morality	-11.9697
▁Both	-11.9699
▁reflection	-11.97
▁glasses	-11.9701
▁physicists	-11.9702
▁eradicat	-11.9702
▁July	-11.9704
▁hunting	-11.9704
▁hardest	-11.9706
▁Scott	-11.9707
▁relie	-11.9708
▁conducted	-11.9712
▁beating	-11.9712
▁activist	-11.9713
▁musician	-11.9721
▁rats	-11.9723
▁wedding	-11.973
▁Sir	-11.973
▁safely	-11.9734
vor	-11.9734
▁recall	-11.9736
animate	-11.9744
▁photographed	-11.9761
▁bind	-11.977
▁odds	-11.9772
▁Bell	-11.9775
efficient	-11.9788
interest	-11.9788
four	-11.9798
▁Pop	-11.9806
cost	-11.9811
▁install	-11.9829
▁retire	-11.9846
▁blank	-11.9846
▁communi	-11.9846
▁lever	-11.9846
▁Friday	-11.9847
▁Taliban	-11.9847
▁assistance	-11.9847
▁geographic	-11.9847
▁workforce	-11.9847
Technology	-11.9847
▁Until	-11.9847
▁awkward	-11.9847
▁chamber	-11.9847
▁elegant	-11.9847
▁exposure	-11.9847
▁interior	-11.9847
▁vulnerability	-11.9847
▁cotton	-11.9847
▁defeat	-11.9847
▁mobility	-11.9847
▁torture	-11.9847
▁venture	-11.9847
▁calm	-11.9847
▁impressive	-11.9848
ealand	-11.9848
▁Open	-11.9848
ville	-11.9848
▁flaw	-11.9848
▁unfold	-11.9849
▁mono	-11.985
▁Santa	-11.9852
▁analogy	-11.9853
Saharan	-11.9853
▁bold	-11.9854
▁Brazilian	-11.9854
▁Gold	-11.9856
▁Steven	-11.9864
▁someday	-11.9865
▁civilian	-11.9869
▁aspiration	-11.9875
▁encouraged	-11.9884
▁soup	-11.9887
▁telescopes	-11.9906
▁hunter	-11.9911
▁makers	-11.9911
▁rolling	-11.9913
yl	-11.992
▁Sure	-11.9922
bling	-11.9922
▁obstacles	-11.9926
▁researcher	-11.9949
minute	-11.9949
▁Dad	-11.9955
▁specialist	-11.9966
▁uncertaint	-11.9974
▁surround	-11.9975
▁span	-11.9976
▁critic	-11.999
▁loans	-11.9998
centimeter	-12.0008
▁Palestinian	-12.0008
▁acoustic	-12.0008
▁astronomer	-12.0008
▁categories	-12.0008
▁chronic	-12.0008
▁cigarette	-12.0008
▁diamond	-12.0008
▁leather	-12.0008
▁mild	-12.0008
▁terribly	-12.0008
▁theoretical	-12.0008
▁uniform	-12.0008
▁magnitude	-12.0008
▁matrix	-12.0008
▁sponsor	-12.0008
▁terrifying	-12.0008
▁investigate	-12.0008
▁reliable	-12.0008
▁harness	-12.0008
▁limitations	-12.0008
▁kingdom	-12.0008
▁proposition	-12.0009
▁enforcement	-12.0009
▁redesign	-12.0009
▁archive	-12.0009
▁Mike	-12.001
▁activate	-12.0014
▁rubber	-12.0014
▁workplace	-12.0015
▁logo	-12.0017
▁MT	-12.0018
▁Iranian	-12.002
▁upload	-12.0022
▁deck	-12.0023
▁beam	-12.0032
▁CD	-12.0033
▁closest	-12.0034
Ma	-12.0035
▁gathered	-12.0035
ison	-12.0037
▁drone	-12.0038
▁assumption	-12.0039
▁teenager	-12.0041
human	-12.0047
▁Walk	-12.0054
▁Islands	-12.007
▁NGOs	-12.0082
▁bite	-12.0087
▁hunt	-12.0089
▁traits	-12.0093
▁germ	-12.0107
▁Nor	-12.0111
weight	-12.0115
space	-12.0116
ette	-12.0121
mme	-12.0134
but	-12.0162
▁Alexander	-12.0172
▁Council	-12.0172
▁Saudi	-12.0172
▁Tanzania	-12.0172
▁collision	-12.0172
▁despair	-12.0172
▁genuine	-12.0172
▁glamorous	-12.0172
▁mutual	-12.0172
▁rethink	-12.0172
▁substantial	-12.0172
▁temporary	-12.0172
▁tsunami	-12.0172
▁amateur	-12.0172
▁viral	-12.0172
▁banana	-12.0172
▁girlfriend	-12.0172
▁align	-12.0173
▁geek	-12.0173
▁retirement	-12.0173
▁shipping	-12.0174
▁chase	-12.0174
▁static	-12.0175
▁entry	-12.0175
▁patch	-12.0175
▁Ray	-12.0175
▁cruel	-12.0176
▁mapping	-12.0176
▁ego	-12.0176
▁loose	-12.0177
▁desperately	-12.0178
▁announc	-12.0179
▁pond	-12.018
▁continuing	-12.0183
▁stimulate	-12.0184
▁observed	-12.0191
▁steer	-12.0194
▁administration	-12.0194
▁trap	-12.0195
▁surf	-12.0203
▁dressed	-12.0204
▁customer	-12.0212
▁proved	-12.0217
▁upward	-12.022
▁graduated	-12.022
▁historic	-12.0229
▁landing	-12.0229
▁cartoons	-12.0231
▁offering	-12.0241
▁concerns	-12.0245
▁pound	-12.0246
stepped	-12.0255
▁developer	-12.0259
▁epi	-12.0273
▁psycho	-12.029
illa	-12.0293
▁panic	-12.0309
▁activists	-12.0312
holder	-12.0321
▁overwhelm	-12.0322
chu	-12.0332
pend	-12.0334
▁assign	-12.0338
▁Afghan	-12.0339
▁Bronx	-12.0339
▁Gandhi	-12.0339
▁blah	-12.0339
▁deforestation	-12.0339
▁diagnostic	-12.0339
▁dilemma	-12.0339
▁earliest	-12.0339
▁excellent	-12.0339
▁indigenous	-12.0339
▁scheme	-12.0339
▁storytelling	-12.0339
▁yourselves	-12.0339
▁excess	-12.0339
▁confine	-12.0339
▁grandparents	-12.0339
▁stability	-12.0339
▁fault	-12.0339
▁ongoing	-12.0339
▁dawn	-12.0339
▁brick	-12.034
▁glow	-12.034
▁estate	-12.034
▁graphics	-12.034
▁voting	-12.034
nergy	-12.0342
▁App	-12.0342
▁Whereas	-12.0343
▁nerd	-12.0344
▁addiction	-12.0344
▁Moon	-12.0347
▁fortunately	-12.0347
▁chop	-12.0352
▁previously	-12.0356
▁bush	-12.0356
▁Hello	-12.0359
▁honestly	-12.0365
▁update	-12.0367
person	-12.0374
▁succeeded	-12.0377
▁mud	-12.0382
▁affecting	-12.0392
▁Philip	-12.0427
▁counting	-12.0434
iff	-12.0435
burg	-12.044
▁lions	-12.0443
▁Kh	-12.0444
▁analog	-12.0446
▁Str	-12.0465
wing	-12.0467
step	-12.0472
▁drones	-12.0477
▁arrest	-12.0492
hil	-12.0497
▁authentic	-12.0507
▁punish	-12.0508
▁Jeff	-12.0508
▁currency	-12.0508
▁drown	-12.0508
▁legislation	-12.0508
▁supplies	-12.0508
▁Nelson	-12.0508
▁absence	-12.0508
▁contrary	-12.0508
▁exclusive	-12.0508
▁miserable	-12.0508
▁pedestrian	-12.0508
▁principal	-12.0508
▁pursuit	-12.0508
▁storage	-12.0508
▁tattoo	-12.0508
▁refine	-12.0508
▁Henry	-12.0508
▁Brian	-12.0508
▁straightforward	-12.0508
▁flourish	-12.0508
▁devote	-12.0508
▁spike	-12.0508
▁Social	-12.0509
▁Dutch	-12.0509
▁Army	-12.0509
▁tale	-12.0509
▁Media	-12.0509
▁occasionally	-12.0509
▁Homo	-12.0511
▁insane	-12.0511
▁frontier	-12.0512
▁downtown	-12.0512
▁Lake	-12.0512
▁specialized	-12.0514
▁Eight	-12.0515
▁hug	-12.0516
▁Newton	-12.0517
▁lowest	-12.0517
▁exhaust	-12.052
▁proven	-12.0521
▁Howard	-12.0522
▁sufficient	-12.0524
▁mall	-12.0526
roll	-12.0527
▁Korean	-12.0528
▁cue	-12.0535
▁deni	-12.0535
▁fertilizer	-12.0537
cast	-12.0542
▁visualize	-12.0545
▁chimpanzee	-12.0547
▁incentive	-12.0547
▁mammal	-12.0547
▁economist	-12.0547
▁vessel	-12.0547
▁monitoring	-12.0548
▁performed	-12.0562
▁SS	-12.0565
▁Ken	-12.0574
self	-12.0575
▁discovering	-12.0578
▁Win	-12.0578
▁flowing	-12.0594
▁prepar	-12.0605
version	-12.0607
▁bowl	-12.0615
town	-12.0618
▁vari	-12.0618
▁Creat	-12.0629
▁transcend	-12.0646
▁managers	-12.0658
▁physicians	-12.0672
▁impress	-12.0674
▁phenomena	-12.0678
xcept	-12.0681
▁Almost	-12.0681
▁County	-12.0681
▁Delhi	-12.0681
▁Indonesia	-12.0681
▁ambitious	-12.0681
▁dopamine	-12.0681
▁encouraging	-12.0681
▁geometry	-12.0681
▁iPod	-12.0681
▁parachute	-12.0681
▁pizza	-12.0681
▁Twenty	-12.0681
▁altitude	-12.0681
▁executive	-12.0681
▁receptor	-12.0681
▁stomach	-12.0681
▁proposal	-12.0681
▁canopy	-12.0681
▁clar	-12.0681
▁constraints	-12.0681
▁jam	-12.0681
▁loving	-12.0682
▁punishment	-12.0682
▁foster	-12.0682
▁Johnson	-12.0682
▁destiny	-12.0683
▁phenomenal	-12.0683
▁assure	-12.0683
▁requirement	-12.0684
▁aunt	-12.0685
▁overnight	-12.0685
▁interrupt	-12.069
▁Professor	-12.0692
▁strain	-12.0695
▁rig	-12.0695
▁manufacturer	-12.0708
▁AK	-12.0717
▁Cor	-12.0719
ibility	-12.0719
▁promised	-12.0728
cell	-12.0739
RB	-12.0764
powered	-12.0794
aker	-12.0808
▁rituals	-12.0809
ference	-12.0825
▁manufacture	-12.0829
LT	-12.0838
relief	-12.0845
▁teenage	-12.0853
▁corrupt	-12.0855
▁Mandela	-12.0856
▁Peace	-12.0856
▁Sudden	-12.0856
▁Vietnam	-12.0856
▁endangered	-12.0856
▁phantom	-12.0856
▁territory	-12.0856
adequate	-12.0856
▁Shanghai	-12.0856
▁cricket	-12.0856
▁generating	-12.0856
▁millennia	-12.0856
▁persuade	-12.0856
▁terrifie	-12.0856
▁virtue	-12.0856
▁delay	-12.0856
▁hub	-12.0856
▁Carolina	-12.0856
▁seemingly	-12.0856
▁division	-12.0856
▁angel	-12.0856
▁chunk	-12.0857
▁irre	-12.0857
▁elementary	-12.0857
▁filmmaker	-12.0857
▁texture	-12.0858
▁artwork	-12.0859
▁guilty	-12.0859
▁Roman	-12.0862
▁personalized	-12.0863
▁singer	-12.0865
lept	-12.0868
▁backyard	-12.0868
▁sixth	-12.0898
▁biologist	-12.0901
▁enabled	-12.0905
▁Whatever	-12.0909
cular	-12.0911
▁concentrate	-12.0923
▁seeking	-12.0946
▁shifting	-12.0955
▁freely	-12.0956
▁shower	-12.0973
driven	-12.0976
second	-12.0976
world	-12.0976
flow	-12.0978
wandering	-12.0979
▁psychologists	-12.0987
mination	-12.0989
gras	-12.1
▁chemist	-12.1034
▁Neanderthal	-12.1035
▁System	-12.1035
▁astronaut	-12.1035
▁composition	-12.1035
▁entropy	-12.1035
▁knife	-12.1035
▁lobby	-12.1035
▁pencil	-12.1035
▁syndrome	-12.1035
▁temple	-12.1035
▁wrist	-12.1035
▁counsel	-12.1035
▁junk	-12.1035
▁occupy	-12.1035
▁receiving	-12.1035
▁electrodes	-12.1035
▁proceed	-12.1035
▁retreat	-12.1035
▁troops	-12.1035
▁decorat	-12.1035
▁riot	-12.1035
▁Anybody	-12.1035
▁Koran	-12.1035
▁Year	-12.1035
▁Andrew	-12.1036
▁steam	-12.1036
▁canvas	-12.1037
▁semi	-12.1038
▁outbreak	-12.1039
▁branches	-12.104
▁freeze	-12.104
▁stopping	-12.104
▁Rock	-12.1042
Re	-12.1045
▁spa	-12.1047
▁millimeter	-12.1047
▁momentum	-12.1047
▁disable	-12.1048
▁intensive	-12.1049
▁eaten	-12.1052
▁selected	-12.1055
▁empowered	-12.1065
▁contributed	-12.1066
▁predictable	-12.1071
▁collapsed	-12.1075
▁acquire	-12.1077
▁raped	-12.108
▁psychologist	-12.1083
▁ritual	-12.1083
▁password	-12.1083
▁glue	-12.1096
▁worrying	-12.111
▁hated	-12.1117
▁headlines	-12.1124
▁vegetables	-12.1129
body	-12.1139
▁staring	-12.1148
▁slums	-12.1151
▁abandon	-12.1152
worth	-12.1157
pan	-12.1163
▁mal	-12.1179
▁Bio	-12.118
▁extraordinar	-12.1211
▁sir	-12.1213
▁Rather	-12.1217
▁Seattle	-12.1217
▁ambition	-12.1217
▁devastating	-12.1217
▁diameter	-12.1217
▁enemies	-12.1217
▁enzyme	-12.1217
▁hybrid	-12.1217
▁recycling	-12.1217
▁ubiquitous	-12.1217
▁Bruno	-12.1217
▁breakfast	-12.1217
▁migrate	-12.1217
▁trivial	-12.1217
▁accus	-12.1217
▁thread	-12.1217
▁ecology	-12.1217
▁naive	-12.1217
▁contaminat	-12.1217
▁magnificent	-12.1217
▁carpet	-12.1217
▁measurements	-12.1217
▁Work	-12.1217
▁wheat	-12.1217
▁distort	-12.1217
▁cube	-12.1217
▁blink	-12.1217
▁fusion	-12.1217
▁Watch	-12.1217
▁Lord	-12.1217
▁constrain	-12.1217
▁mainstream	-12.1217
▁pipeline	-12.1217
▁bedroom	-12.1217
▁horizontal	-12.1217
▁diving	-12.1218
▁regardless	-12.1218
▁prostate	-12.1218
▁champion	-12.1219
▁visualization	-12.1219
▁blindness	-12.1224
▁realistic	-12.1224
▁prevention	-12.1226
▁Way	-12.1228
▁fatal	-12.1229
▁feminist	-12.1231
▁Jane	-12.1236
▁smallest	-12.124
looking	-12.1243
▁shoe	-12.1263
aeda	-12.1268
▁sexy	-12.1273
▁banking	-12.128
▁risky	-12.1282
▁Ron	-12.1286
▁negotiate	-12.1288
void	-12.129
▁Wil	-12.1291
▁catching	-12.1291
▁bust	-12.1294
▁poo	-12.1304
▁employer	-12.1331
▁Sur	-12.1335
ford	-12.1336
▁kit	-12.1337
flu	-12.1345
▁compress	-12.1347
▁amazingly	-12.1351
tropical	-12.1372
▁Bir	-12.1374
▁container	-12.1381
▁rubb	-12.1381
two	-12.1386
shot	-12.1388
▁Syria	-12.1392
▁Brooklyn	-12.1402
▁College	-12.1402
▁Jordan	-12.1402
▁November	-12.1402
▁arguing	-12.1402
▁cocaine	-12.1402
▁horror	-12.1402
▁potato	-12.1402
▁unhappy	-12.1402
▁Industrial	-12.1402
▁Lincoln	-12.1402
▁Little	-12.1402
▁asleep	-12.1402
▁brush	-12.1402
▁divorce	-12.1402
▁drew	-12.1402
▁investigation	-12.1402
▁purple	-12.1402
▁segment	-12.1402
▁strict	-12.1402
▁Government	-12.1402
▁tiger	-12.1402
▁warrior	-12.1402
▁jellyfish	-12.1402
▁minus	-12.1402
▁onstage	-12.1402
▁flavor	-12.1402
▁emphasize	-12.1402
▁legitimate	-12.1402
▁sperm	-12.1402
▁sidewalk	-12.1403
▁Cuba	-12.1403
▁Ireland	-12.1403
▁spacecraft	-12.1403
▁nodes	-12.1403
▁workshop	-12.1404
▁vary	-12.1404
▁belt	-12.1404
▁Nick	-12.1405
▁Someone	-12.1405
▁Coke	-12.1406
▁readers	-12.141
▁taxes	-12.141
▁controversial	-12.141
▁negotiation	-12.1411
▁sec	-12.1415
▁convenient	-12.1416
▁installed	-12.1421
▁Force	-12.1433
▁swing	-12.1456
eye	-12.1458
▁guid	-12.1461
▁optical	-12.1464
▁automat	-12.1472
eur	-12.1474
▁responded	-12.1494
adi	-12.1498
under	-12.15
▁regulate	-12.1516
▁describ	-12.1517
word	-12.1531
wood	-12.1531
material	-12.1531
▁deposit	-12.1536
▁coordinate	-12.1537
▁grip	-12.1557
▁lap	-12.1567
▁breed	-12.1574
▁compose	-12.1574
▁Catholic	-12.159
▁Gabby	-12.159
▁Leonardo	-12.159
▁Swiss	-12.159
▁accuracy	-12.159
▁advertise	-12.159
▁approved	-12.159
▁artifact	-12.159
▁believing	-12.159
▁calories	-12.159
▁cooperate	-12.159
▁diarrhea	-12.159
▁empire	-12.159
▁frustration	-12.159
▁migration	-12.159
▁spiral	-12.159
▁summit	-12.159
▁terrain	-12.159
▁tutor	-12.159
▁Accord	-12.159
▁declare	-12.159
▁monster	-12.159
▁cream	-12.159
▁association	-12.159
▁infectious	-12.1591
▁destination	-12.1591
▁Stone	-12.1593
▁unlock	-12.1594
▁decent	-12.1595
▁candle	-12.1595
▁Tony	-12.1596
▁amazed	-12.1597
▁distinction	-12.1597
planned	-12.16
▁inevitably	-12.16
▁screaming	-12.1607
▁breeding	-12.1607
▁embarrassing	-12.1612
▁zoo	-12.1612
▁correctly	-12.1615
▁publishing	-12.1615
▁shelf	-12.1617
▁processor	-12.1619
AR	-12.1624
▁useless	-12.1632
▁earning	-12.1633
▁mentally	-12.1634
vil	-12.1652
▁collaborate	-12.1662
▁tan	-12.1676
▁Gar	-12.1681
▁locally	-12.1692
dding	-12.1701
▁banker	-12.1719
AIDS	-12.1724
income	-12.1724
▁Carl	-12.1743
▁Matt	-12.1775
▁slight	-12.1779
▁Doctor	-12.1783
▁communicating	-12.1783
▁innovate	-12.1783
▁jazz	-12.1783
▁schizophrenia	-12.1783
▁squeeze	-12.1783
▁Hawaii	-12.1783
▁approximate	-12.1783
▁bounce	-12.1783
▁correlation	-12.1783
▁drunk	-12.1783
▁impulse	-12.1783
▁injured	-12.1783
▁jihad	-12.1783
▁lonely	-12.1783
▁separation	-12.1783
▁slime	-12.1783
▁smiling	-12.1783
▁veteran	-12.1783
▁whisper	-12.1783
Probably	-12.1783
▁multiply	-12.1783
▁summarize	-12.1783
▁tiles	-12.1783
▁lifespan	-12.1783
▁Redwood	-12.1783
▁evolving	-12.1783
▁Half	-12.1783
▁Anyone	-12.1783
▁echo	-12.1784
▁Trans	-12.1784
▁Nike	-12.1784
▁harmful	-12.1784
▁insert	-12.1785
▁frequently	-12.1786
▁Show	-12.1787
▁sake	-12.1788
▁halfway	-12.1789
▁utterly	-12.179
▁MK	-12.179
▁realization	-12.1794
▁probe	-12.18
▁outdoor	-12.18
▁consciously	-12.1802
▁messy	-12.1806
▁Mean	-12.1808
▁behalf	-12.181
▁gentle	-12.181
onsider	-12.1815
▁shy	-12.1815
▁RS	-12.1815
▁atomic	-12.182
▁revealed	-12.1828
▁worthy	-12.1833
▁statistic	-12.1841
▁Op	-12.1854
All	-12.1859
▁enjoyed	-12.1861
wan	-12.1867
▁informal	-12.1871
▁Arch	-12.1886
rap	-12.1887
uous	-12.192
field	-12.192
generation	-12.192
style	-12.192
frontal	-12.1921
▁bann	-12.1922
kill	-12.1949
▁restrict	-12.1961
▁accomplish	-12.1961
▁scream	-12.1962
▁dirt	-12.1974
▁transit	-12.1978
▁Abraham	-12.1979
▁Berlin	-12.1979
▁Kevin	-12.1979
▁Switzerland	-12.1979
▁Together	-12.1979
▁Yemen	-12.1979
▁episode	-12.1979
▁harbor	-12.1979
▁hierarchy	-12.1979
▁juice	-12.1979
▁obtain	-12.1979
▁peculiar	-12.1979
▁prescription	-12.1979
▁remarkably	-12.1979
▁swallow	-12.1979
▁vacation	-12.1979
▁welfare	-12.1979
▁competing	-12.1979
▁priest	-12.1979
▁sanitation	-12.1979
▁guest	-12.1979
▁tolerance	-12.1979
▁ultra	-12.1979
▁Telescope	-12.1979
▁augment	-12.1979
▁boost	-12.1979
▁illuminat	-12.1979
▁therapist	-12.1979
independence	-12.1979
▁trapped	-12.1979
▁spinning	-12.1979
▁contest	-12.198
▁creep	-12.198
▁equity	-12.198
▁dropping	-12.1981
▁Hong	-12.1981
▁Alex	-12.1981
▁Stage	-12.1985
▁TEDster	-12.1986
▁dominated	-12.1987
▁planetary	-12.199
▁snap	-12.1991
▁clap	-12.1996
▁wishes	-12.2006
▁digit	-12.2006
▁popp	-12.2007
▁consumed	-12.2008
Be	-12.2013
▁randomly	-12.2014
▁destroying	-12.2016
▁tide	-12.2029
ED	-12.2034
▁doubled	-12.2039
▁sale	-12.2054
▁enjoying	-12.2061
▁immun	-12.2068
▁Bor	-12.2077
priority	-12.2092
▁intimate	-12.2099
▁namely	-12.2108
▁vent	-12.2108
wide	-12.2121
Go	-12.2122
wash	-12.2126
▁explorer	-12.2144
Man	-12.2147
▁integrate	-12.2164
▁tire	-12.2165
▁Swed	-12.2177
▁mill	-12.2178
synthesis	-12.2179
▁Clinton	-12.2179
▁Jupiter	-12.2179
▁Mexican	-12.2179
▁Organization	-12.2179
▁Saturday	-12.2179
▁corridor	-12.2179
▁exotic	-12.2179
▁glimpse	-12.2179
▁gorgeous	-12.2179
▁humiliat	-12.2179
▁intrinsic	-12.2179
▁obese	-12.2179
▁Detroit	-12.2179
▁drain	-12.2179
▁jaw	-12.2179
▁Louis	-12.2179
▁psychopath	-12.2179
▁pirate	-12.2179
▁hint	-12.2179
▁phosphorus	-12.2179
▁Indus	-12.2179
▁intervene	-12.2179
▁kidding	-12.2179
▁wrapped	-12.2179
▁Jones	-12.218
articulate	-12.218
▁invitation	-12.218
▁hometown	-12.2181
▁Still	-12.2181
▁Coast	-12.2181
▁deaf	-12.2183
▁retail	-12.2183
▁crap	-12.2183
▁PMS	-12.2184
▁deepest	-12.2187
▁PR	-12.2188
empt	-12.2189
▁SW	-12.2189
▁realities	-12.2192
▁broader	-12.2193
▁accomplished	-12.2196
▁spine	-12.2196
▁Try	-12.2201
▁hacking	-12.2203
▁SP	-12.2204
▁healing	-12.2205
▁Nigerian	-12.2206
▁discussing	-12.2207
▁teaches	-12.2208
▁Amy	-12.2212
▁blown	-12.2215
vy	-12.2216
▁slower	-12.2216
▁USA	-12.2218
▁shocking	-12.222
▁Australian	-12.2222
▁expanded	-12.2225
scape	-12.2239
▁ironic	-12.2247
▁expressed	-12.2253
▁simpler	-12.2255
▁reporting	-12.2258
▁cookie	-12.2275
▁cope	-12.2284
bsolutely	-12.2285
shirt	-12.2324
degree	-12.2324
bound	-12.2327
▁convention	-12.2339
night	-12.2362
rich	-12.2373
▁consult	-12.2377
▁disrupt	-12.2378
▁scholar	-12.2383
lastic	-12.2383
▁import	-12.2383
▁Argentina	-12.2383
▁Atlanta	-12.2383
▁Daniel	-12.2383
▁Monterey	-12.2383
▁Pretty	-12.2383
▁Shakespeare	-12.2383
▁Singapore	-12.2383
▁Watson	-12.2383
▁abundance	-12.2383
▁athletes	-12.2383
▁batteries	-12.2383
▁blob	-12.2383
▁ceremony	-12.2383
▁cylinder	-12.2383
▁default	-12.2383
▁discrimination	-12.2383
▁elevator	-12.2383
▁flesh	-12.2383
▁frightening	-12.2383
▁glamour	-12.2383
▁glucose	-12.2383
▁insulin	-12.2383
▁introduction	-12.2383
▁likelihood	-12.2383
▁macro	-12.2383
▁migrant	-12.2383
▁nitrogen	-12.2383
▁timing	-12.2383
▁translator	-12.2383
▁oppress	-12.2383
▁puppet	-12.2383
▁remix	-12.2383
▁scaffold	-12.2383
▁heritage	-12.2383
▁typing	-12.2383
▁philosophical	-12.2383
▁Stephen	-12.2383
▁consent	-12.2383
▁wore	-12.2383
▁Development	-12.2383
▁boundary	-12.2384
▁Spring	-12.2384
▁stamp	-12.2385
▁digest	-12.2385
▁stolen	-12.2385
▁iconic	-12.2386
▁modest	-12.2389
▁machinery	-12.2395
▁handful	-12.2397
▁Ram	-12.2397
▁helpless	-12.2405
mile	-12.2417
▁warmer	-12.2419
▁forbid	-12.2423
▁aggregate	-12.244
▁slum	-12.2457
volving	-12.2475
▁prim	-12.2483
▁prisoner	-12.249
aph	-12.2492
stick	-12.25
▁prayer	-12.25
▁commission	-12.2523
profit	-12.2531
frame	-12.2532
▁rotat	-12.2534
▁playful	-12.2573
count	-12.2574
occurring	-12.2577
ciety	-12.2577
▁utter	-12.2584
▁intent	-12.2585
▁grant	-12.2588
▁compute	-12.2588
▁Parkinson	-12.2591
▁Aristotle	-12.2591
▁DVD	-12.2591
▁Feynman	-12.2591
▁Security	-12.2591
▁Supreme	-12.2591
▁album	-12.2591
▁assault	-12.2591
▁cubic	-12.2591
▁fluorescent	-12.2591
▁geography	-12.2591
▁marathon	-12.2591
▁neuroscientist	-12.2591
▁offspring	-12.2591
▁precision	-12.2591
▁protocell	-12.2591
▁vibration	-12.2591
voluntary	-12.2591
▁Business	-12.2591
▁cockroach	-12.2591
▁endeavor	-12.2591
▁envelope	-12.2591
▁harmony	-12.2591
▁maneuver	-12.2591
▁mankind	-12.2591
▁thrive	-12.2591
▁warehouse	-12.2591
▁inhibit	-12.2591
▁scaling	-12.2591
▁Iceland	-12.2591
▁Geographic	-12.2591
sensing	-12.2592
▁cosmos	-12.2592
▁hostile	-12.2592
▁flame	-12.2593
▁belly	-12.2594
▁examine	-12.2594
▁Rand	-12.2602
▁buses	-12.2604
▁refused	-12.2607
▁deployed	-12.2607
▁youngest	-12.2612
▁trailer	-12.2615
five	-12.2623
▁labeled	-12.2624
▁resistant	-12.2628
▁lethal	-12.2629
▁lifted	-12.2631
uz	-12.2636
▁Young	-12.2639
▁admire	-12.2641
▁climbed	-12.2645
▁reflected	-12.2648
▁Brad	-12.2649
▁mum	-12.2651
tention	-12.2654
▁instruction	-12.267
▁penguin	-12.267
▁bud	-12.2712
tress	-12.2714
ER	-12.2741
phone	-12.2744
nnie	-12.2744
found	-12.2745
proof	-12.2746
▁suppress	-12.2758
▁provider	-12.2781
▁Char	-12.2786
▁deploy	-12.2786
wind	-12.2794
▁enthusias	-12.2802
▁sneak	-12.2802
▁minor	-12.2803
var	-12.2804
▁April	-12.2804
▁convicted	-12.2804
▁elaborate	-12.2804
▁irrational	-12.2804
▁philanthropy	-12.2804
▁trading	-12.2804
▁transistor	-12.2804
vascular	-12.2804
▁Civil	-12.2804
▁bamboo	-12.2804
▁execution	-12.2804
▁fisheries	-12.2804
▁reinforce	-12.2804
▁schedule	-12.2804
▁sovereign	-12.2804
▁volcano	-12.2804
▁eternal	-12.2804
▁expense	-12.2804
▁therapies	-12.2804
▁heavily	-12.2804
▁nightmare	-12.2804
▁IBM	-12.2804
▁steep	-12.2804
▁dough	-12.2804
▁thus	-12.2804
▁scrap	-12.2804
▁operator	-12.2805
▁bleed	-12.2805
▁scanning	-12.2805
▁conceptual	-12.2805
▁preference	-12.2805
▁pants	-12.2807
▁hopeful	-12.2808
▁denial	-12.2809
▁coverage	-12.2809
▁contradiction	-12.2809
▁preach	-12.281
▁Rick	-12.281
▁nearest	-12.281
▁adaptation	-12.2811
▁thrilled	-12.2812
▁Cape	-12.2812
▁bacterial	-12.2818
ssuming	-12.2819
▁overhead	-12.2822
risk	-12.2829
▁spare	-12.2829
▁computational	-12.2837
itude	-12.284
▁actively	-12.2842
▁repeated	-12.2843
motivated	-12.285
▁laughed	-12.2855
centralized	-12.2857
▁Say	-12.286
lapse	-12.2863
unch	-12.2867
▁argued	-12.2871
▁wander	-12.2872
▁lion	-12.2901
▁criticize	-12.2919
cause	-12.2945
▁lawn	-12.2957
front	-12.2959
craft	-12.2961
master	-12.2972
Here	-12.2994
▁woo	-12.3001
▁refuse	-12.3007
▁distract	-12.3011
▁elder	-12.3014
▁happi	-12.3014
▁desperate	-12.3017
▁entertain	-12.302
▁yell	-12.3021
▁Copenhagen	-12.3021
▁basketball	-12.3021
▁consensus	-12.3021
▁democracies	-12.3021
▁ideology	-12.3021
▁imagining	-12.3021
▁inclusive	-12.3021
▁prosthetic	-12.3021
▁sequencing	-12.3021
▁staircase	-12.3021
▁vivid	-12.3021
accelerating	-12.3021
▁Greece	-12.3021
▁adolescent	-12.3021
▁biomass	-12.3021
▁blur	-12.3021
▁delicious	-12.3021
▁intensity	-12.3021
▁livestock	-12.3021
▁nasty	-12.3021
▁smash	-12.3021
▁suspended	-12.3021
▁transaction	-12.3021
▁Buddhis	-12.3021
▁Jews	-12.3021
▁blade	-12.3021
▁forecast	-12.3021
▁freezing	-12.3021
▁gross	-12.3021
▁blast	-12.3021
▁History	-12.3022
▁generic	-12.3022
▁defining	-12.3022
▁vocal	-12.3022
▁sweep	-12.3022
▁odor	-12.3022
▁arrangement	-12.3022
▁intact	-12.3023
▁selective	-12.3023
▁journalism	-12.3023
▁chew	-12.3023
▁minority	-12.3023
▁Academy	-12.3023
▁crab	-12.3024
▁Kong	-12.3024
▁JF	-12.3026
▁Music	-12.3027
▁subjective	-12.3027
▁progressive	-12.3027
▁recycled	-12.3032
▁irony	-12.3034
▁coastal	-12.3035
▁hopeless	-12.3036
how	-12.3043
▁witnessed	-12.3049
▁masses	-12.3055
month	-12.3064
▁kicked	-12.3065
▁riding	-12.3097
▁deadly	-12.3097
▁prey	-12.3099
▁Van	-12.3103
erran	-12.3104
▁mathematician	-12.311
threatened	-12.3121
hole	-12.3124
▁owe	-12.3129
▁prospect	-12.3134
▁capitalist	-12.3148
▁Arabia	-12.3157
quality	-12.3184
Please	-12.3184
disc	-12.3185
course	-12.3185
three	-12.3185
product	-12.3185
managing	-12.3199
▁stare	-12.32
ella	-12.3224
page	-12.3228
▁diagnose	-12.3229
▁brows	-12.3236
▁Hav	-12.3241
▁resilien	-12.3243
▁accidental	-12.3243
▁Berkeley	-12.3244
▁Jerusalem	-12.3244
▁NSA	-12.3244
▁Office	-12.3244
▁contemplat	-12.3244
▁contributing	-12.3244
▁deficit	-12.3244
▁eastern	-12.3244
▁gallery	-12.3244
▁inflation	-12.3244
▁maximum	-12.3244
▁recognizing	-12.3244
▁taboo	-12.3244
▁Arthur	-12.3244
▁Benjamin	-12.3244
▁Disney	-12.3244
▁Journal	-12.3244
▁converge	-12.3244
▁fluctuat	-12.3244
▁grocery	-12.3244
▁immortal	-12.3244
▁skeletal	-12.3244
▁swarm	-12.3244
▁pleasant	-12.3244
▁helium	-12.3244
▁harsh	-12.3244
▁Teach	-12.3244
▁tomato	-12.3244
espite	-12.3244
▁kilogram	-12.3244
▁Virginia	-12.3244
▁constitution	-12.3244
▁systematically	-12.3244
▁bucket	-12.3244
▁vice	-12.3245
▁trafficking	-12.3245
▁transformative	-12.3245
▁cheer	-12.3245
▁Water	-12.3245
▁Keep	-12.3246
▁couch	-12.3246
▁wow	-12.3246
▁inmates	-12.3246
▁duty	-12.3247
▁penis	-12.3248
▁LG	-12.3249
▁basement	-12.3249
▁flipp	-12.325
▁rebel	-12.3251
▁MR	-12.3251
▁poke	-12.3258
▁losses	-12.3259
▁fade	-12.326
▁JA	-12.326
▁comedy	-12.3272
▁remotely	-12.3272
▁merit	-12.3277
▁interconnected	-12.3278
▁asthma	-12.3282
bone	-12.3285
▁emotionally	-12.3286
▁assumed	-12.3289
▁sooner	-12.3294
▁impose	-12.3304
▁rear	-12.3307
rrow	-12.3312
▁regenerate	-12.3324
▁navigat	-12.3333
▁tourist	-12.3338
▁mini	-12.3341
▁starv	-12.335
digit	-12.3355
▁pat	-12.3357
▁neo	-12.336
▁triple	-12.3411
story	-12.3422
vision	-12.3432
▁rot	-12.3455
▁associate	-12.3456
▁plea	-12.3461
▁unfortunate	-12.3464
▁Under	-12.3468
▁FDA	-12.3471
▁Mumbai	-12.3471
▁SETI	-12.3471
▁anniversary	-12.3471
▁circular	-12.3471
▁integration	-12.3471
▁literacy	-12.3471
▁Computer	-12.3471
▁Education	-12.3471
▁Medical	-12.3471
▁bonus	-12.3471
▁confess	-12.3471
▁democratiz	-12.3471
▁festival	-12.3471
▁injuries	-12.3471
▁jungle	-12.3471
▁juvenile	-12.3471
▁obsession	-12.3471
▁optimize	-12.3471
▁selves	-12.3471
▁stabilize	-12.3471
▁underestimate	-12.3471
▁virgin	-12.3471
▁cattle	-12.3471
▁historian	-12.3471
▁stunn	-12.3471
▁exceed	-12.3471
▁spouse	-12.3471
▁stagger	-12.3471
▁monument	-12.3471
▁greet	-12.3471
▁recession	-12.3471
▁surgeries	-12.3471
▁lottery	-12.3471
▁accent	-12.3471
▁acres	-12.3471
▁Hawk	-12.3471
▁depict	-12.3471
▁Edward	-12.3472
▁headquarters	-12.3472
▁index	-12.3472
▁chef	-12.3472
chasing	-12.3472
▁tapir	-12.3473
▁passage	-12.3475
▁replacement	-12.3476
▁farther	-12.3478
▁Bern	-12.3478
▁fever	-12.3479
▁browser	-12.3479
▁pup	-12.3485
▁overlap	-12.3486
▁payment	-12.3489
▁merge	-12.3489
lian	-12.349
▁Cap	-12.3497
▁bare	-12.3506
▁melting	-12.351
▁longest	-12.3512
▁talented	-12.3518
▁attracted	-12.3522
▁crude	-12.3536
ventilat	-12.3558
▁dim	-12.3567
▁ingredient	-12.357
▁reporter	-12.3572
established	-12.3622
effective	-12.3644
And	-12.3658
God	-12.3662
speed	-12.3679
▁Democrat	-12.3702
▁manifest	-12.3702
▁arrange	-12.3702
▁imagina	-12.3703
▁Mount	-12.3703
▁McDonald	-12.3703
▁immigrant	-12.3703
▁pesticide	-12.3703
▁Apollo	-12.3703
▁Bhutan	-12.3703
▁Eventually	-12.3703
▁Natural	-12.3703
▁achieving	-12.3703
▁assistant	-12.3703
▁cardiac	-12.3703
▁commodity	-12.3703
▁deception	-12.3703
▁guitar	-12.3703
▁illustration	-12.3703
▁indicator	-12.3703
▁opposition	-12.3703
▁parliament	-12.3703
▁practicing	-12.3703
▁protocol	-12.3703
▁resurrect	-12.3703
▁stadium	-12.3703
▁stumble	-12.3703
▁trunk	-12.3703
▁undergraduate	-12.3703
▁worship	-12.3703
▁Public	-12.3703
▁alphabet	-12.3703
▁slope	-12.3703
▁spatial	-12.3703
▁storyteller	-12.3703
▁sympath	-12.3703
promising	-12.3703
▁vocabular	-12.3703
▁mosque	-12.3703
▁ooh	-12.3704
invasive	-12.3704
▁nail	-12.3704
▁encode	-12.3704
▁Milk	-12.3704
▁superpower	-12.3704
▁mite	-12.3704
▁psychiatrist	-12.3705
▁accountability	-12.3705
▁towel	-12.3705
▁employment	-12.3705
▁copies	-12.3706
▁settlement	-12.3706
▁lobe	-12.3706
▁Light	-12.3706
▁adoption	-12.3706
▁systematic	-12.3707
▁alert	-12.3708
▁hut	-12.3708
blew	-12.3708
▁carries	-12.3708
▁inherently	-12.3709
▁refrigerator	-12.3711
▁airline	-12.3713
▁GG	-12.3714
▁Syrian	-12.3716
▁atheist	-12.3718
▁colon	-12.3729
▁headache	-12.3732
▁implemented	-12.3733
▁cage	-12.3743
▁converted	-12.3747
▁synthesize	-12.3758
▁impos	-12.3787
tron	-12.379
shaped	-12.3805
▁politician	-12.3808
▁documentar	-12.3844
▁dispos	-12.385
concentrated	-12.3852
▁equ	-12.3859
posed	-12.3867
▁arc	-12.3883
▁assess	-12.3941
▁Republic	-12.3941
▁inhabit	-12.3941
▁Craig	-12.3942
▁Canadian	-12.3942
▁Fortunately	-12.3942
▁Hospital	-12.3942
▁Lebanon	-12.3942
▁Netherlands	-12.3942
▁Philadelphia	-12.3942
▁Sarah	-12.3942
▁apologize	-12.3942
▁astronomy	-12.3942
▁favela	-12.3942
▁siblings	-12.3942
▁statue	-12.3942
▁calculus	-12.3942
▁caregiver	-12.3942
▁elevate	-12.3942
▁enlighten	-12.3942
▁exaggerat	-12.3942
▁orientation	-12.3942
▁prince	-12.3942
▁racial	-12.3942
▁entities	-12.3942
▁retain	-12.3942
▁retina	-12.3942
▁minimal	-12.3942
▁preced	-12.3942
▁shatter	-12.3942
▁faint	-12.3942
▁Fund	-12.3942
▁racing	-12.3942
▁prostitution	-12.3942
▁digging	-12.3943
▁flock	-12.3943
▁Kids	-12.3943
litary	-12.3943
▁cafe	-12.3943
▁transmitted	-12.3943
▁whip	-12.3943
▁differentiate	-12.3943
▁Wright	-12.3943
▁Harry	-12.3944
▁Marine	-12.3946
▁Laden	-12.3947
▁Camp	-12.3947
▁dishes	-12.3948
▁richest	-12.3949
▁Chap	-12.3951
▁continuously	-12.3953
▁disk	-12.3955
▁stain	-12.3956
▁Vent	-12.3958
▁secondary	-12.3959
▁Intel	-12.3961
pulsion	-12.3962
▁progression	-12.3964
▁dune	-12.3972
▁rescued	-12.3978
▁pul	-12.4004
▁visually	-12.4007
▁regional	-12.4022
dependent	-12.4057
▁hacker	-12.4062
▁humble	-12.4084
corn	-12.4086
stitution	-12.4115
built	-12.4127
percent	-12.4129
▁Map	-12.4148
▁scare	-12.4152
▁infect	-12.4157
▁cloth	-12.4165
▁distribute	-12.4171
▁referr	-12.418
▁drama	-12.4185
▁Charlie	-12.4185
▁Christopher	-12.4185
▁Jersey	-12.4185
▁Medicine	-12.4185
▁Mozart	-12.4185
▁criteria	-12.4185
▁disturbing	-12.4185
▁gravitational	-12.4185
▁laboratories	-12.4185
▁module	-12.4185
▁multinational	-12.4185
▁neocortex	-12.4185
▁pixel	-12.4185
▁premise	-12.4185
▁satisfaction	-12.4185
▁soccer	-12.4185
▁symmetric	-12.4185
nsylvania	-12.4185
▁Joseph	-12.4185
▁Library	-12.4185
▁analyzing	-12.4185
▁celebration	-12.4185
▁cocktail	-12.4185
▁configuration	-12.4185
▁council	-12.4185
▁fantasy	-12.4185
▁holiday	-12.4185
▁institute	-12.4185
▁mobilize	-12.4185
▁terrific	-12.4185
▁abroad	-12.4185
▁stimulation	-12.4185
▁isolation	-12.4186
▁peel	-12.4186
▁piss	-12.4186
▁luckily	-12.4186
▁entrance	-12.4186
▁chess	-12.4186
▁Goals	-12.4186
▁Luther	-12.4186
▁Old	-12.4187
▁emergence	-12.4187
▁Greenland	-12.4187
▁spite	-12.4187
▁celebrity	-12.4188
▁authenticity	-12.4188
▁preparation	-12.4188
▁Sound	-12.419
▁revolutionary	-12.419
pound	-12.4191
▁scientifically	-12.4192
▁protective	-12.4193
▁liar	-12.4193
▁defi	-12.4195
For	-12.4196
▁taxi	-12.4208
assembled	-12.4213
▁Opera	-12.4217
▁discussed	-12.4219
▁pouring	-12.422
atter	-12.4231
▁dam	-12.4281
you	-12.4291
▁Ask	-12.4325
minded	-12.435
▁surviv	-12.437
▁Lama	-12.4372
held	-12.4376
▁trail	-12.4407
▁skeptic	-12.441
▁differ	-12.4434
▁autonom	-12.4435
▁Alaska	-12.4435
▁Cyrus	-12.4435
▁Sierra	-12.4435
▁Thailand	-12.4435
▁Tokyo	-12.4435
▁embracing	-12.4435
▁exquisite	-12.4435
▁fractal	-12.4435
▁idiot	-12.4435
▁prohibit	-12.4435
▁sensitivity	-12.4435
▁shaking	-12.4435
▁significance	-12.4435
▁surgical	-12.4435
▁unfair	-12.4435
▁Kennedy	-12.4435
▁Montana	-12.4435
▁authoritarian	-12.4435
▁congestion	-12.4435
▁integrity	-12.4435
▁metabolism	-12.4435
▁penalty	-12.4435
▁technician	-12.4435
▁ultraviolet	-12.4435
equipped	-12.4435
▁Suppose	-12.4435
▁entitle	-12.4435
▁conquer	-12.4435
▁ancestr	-12.4436
▁feather	-12.4436
▁famine	-12.4436
▁Nepal	-12.4436
▁scholarship	-12.4436
▁inspect	-12.4436
▁acute	-12.4436
▁tribal	-12.4436
▁envision	-12.4436
▁Monday	-12.4436
▁distress	-12.4436
▁improvisation	-12.4436
▁firing	-12.4436
▁rigid	-12.4436
▁iceberg	-12.4436
▁internet	-12.4437
▁baker	-12.4437
▁spear	-12.4437
▁Know	-12.4437
▁connectome	-12.4437
▁Alice	-12.4437
▁manifestation	-12.4437
▁cult	-12.4437
▁swap	-12.4439
▁mandate	-12.444
▁BJ	-12.4442
▁Milo	-12.4443
▁mating	-12.4445
▁Dick	-12.4447
▁lightning	-12.4447
▁DR	-12.4447
▁exponentially	-12.4448
▁exit	-12.445
▁consideration	-12.4451
▁DP	-12.4451
▁magician	-12.4453
▁RM	-12.4456
▁restriction	-12.4459
▁Scr	-12.4465
▁Ross	-12.4466
To	-12.4485
▁legally	-12.4487
▁Less	-12.4521
abandoned	-12.4526
position	-12.4535
▁vegetable	-12.4558
▁trait	-12.4558
▁folk	-12.4559
▁fin	-12.4574
▁continu	-12.4605
zen	-12.4611
▁resemble	-12.4614
mission	-12.4631
Thank	-12.4633
million	-12.4633
case	-12.4654
▁Nav	-12.4658
cumen	-12.4668
▁applie	-12.4677
imb	-12.4678
▁Pete	-12.4686
▁statistical	-12.469
responsibilities	-12.4692
▁RNA	-12.4692
▁Tunisia	-12.4692
▁altogether	-12.4692
▁avatar	-12.4692
▁catastrophe	-12.4692
▁chemotherapy	-12.4692
▁cholera	-12.4692
▁cooperative	-12.4692
▁genomic	-12.4692
▁ghost	-12.4692
▁ladder	-12.4692
▁longevity	-12.4692
▁prosecutor	-12.4692
▁slogan	-12.4692
▁violin	-12.4692
▁vitamin	-12.4692
triguing	-12.4692
▁Georgia	-12.4692
▁Machine	-12.4692
▁deciding	-12.4692
▁dismiss	-12.4692
▁evaluate	-12.4692
▁invasion	-12.4692
▁metabolic	-12.4692
▁observing	-12.4692
▁occupie	-12.4692
▁participating	-12.4692
▁portray	-12.4692
▁regulator	-12.4692
▁steady	-12.4692
▁thrust	-12.4692
▁turtle	-12.4692
▁copied	-12.4692
▁escalat	-12.4692
▁gaze	-12.4692
▁Bosnia	-12.4692
▁funeral	-12.4692
humility	-12.4692
ruce	-12.4692
▁wives	-12.4692
▁fuck	-12.4692
▁encyclopedia	-12.4692
▁cinema	-12.4692
▁Jefferson	-12.4692
▁Defen	-12.4692
▁captain	-12.4692
▁Hubble	-12.4692
▁locomotion	-12.4692
▁priorities	-12.4692
▁Bali	-12.4693
▁tagged	-12.4693
▁mixture	-12.4693
▁cellphone	-12.4693
▁logging	-12.4693
▁disruptive	-12.4693
▁Simon	-12.4693
▁veil	-12.4694
▁potent	-12.4694
▁scarce	-12.4695
▁empowerment	-12.4695
▁hive	-12.4696
▁profitable	-12.4696
▁Phil	-12.47
▁mustache	-12.4703
▁disappointed	-12.4707
genic	-12.4708
▁governor	-12.4713
▁observer	-12.4719
▁tract	-12.472
virus	-12.4722
blowing	-12.4725
acco	-12.4727
▁successes	-12.4728
▁Abed	-12.4733
▁menu	-12.4755
▁Yo	-12.4757
▁heroin	-12.4761
Pa	-12.4783
luck	-12.4784
▁dispers	-12.4794
viable	-12.48
▁Post	-12.4805
▁demonstrat	-12.4808
gro	-12.4809
▁Stan	-12.4822
incidentally	-12.4823
▁negotiat	-12.484
▁eco	-12.4843
▁redefine	-12.4857
▁skip	-12.4862
▁fog	-12.488
▁Columbia	-12.4889
school	-12.4896
spread	-12.4896
▁depriv	-12.4896
write	-12.4898
▁digitize	-12.4916
▁Band	-12.4929
▁dedicat	-12.4939
▁improvise	-12.4941
▁Sahara	-12.4945
La	-12.4952
▁circulat	-12.4953
▁dictator	-12.4955
▁Association	-12.4955
▁Clear	-12.4955
▁Everest	-12.4955
▁Phoenix	-12.4955
▁PowerPoint	-12.4955
▁ambulance	-12.4955
▁anthropologist	-12.4955
▁catastrophic	-12.4955
▁extensive	-12.4955
▁frequencies	-12.4955
▁gasoline	-12.4955
▁identities	-12.4955
▁imperative	-12.4955
▁nonetheless	-12.4955
▁obsolete	-12.4955
▁polite	-12.4955
▁province	-12.4955
▁reproductive	-12.4955
▁revelation	-12.4955
▁salmon	-12.4955
▁slaughter	-12.4955
▁tangible	-12.4955
▁triumph	-12.4955
▁unleash	-12.4955
▁Tibet	-12.4955
▁conviction	-12.4955
▁dysfunction	-12.4955
▁memorial	-12.4955
▁nurture	-12.4955
▁obligation	-12.4955
▁silicon	-12.4955
▁snail	-12.4955
▁swamp	-12.4955
▁violate	-12.4955
compatible	-12.4955
▁overseas	-12.4955
▁squid	-12.4955
▁Power	-12.4955
▁shining	-12.4955
▁noisy	-12.4955
enabling	-12.4955
▁thermal	-12.4955
▁oven	-12.4955
▁Liberia	-12.4955
▁Libya	-12.4955
▁Tower	-12.4955
▁Somalia	-12.4955
▁Learn	-12.4955
▁Sudan	-12.4955
centric	-12.4955
▁grabbed	-12.4955
▁singular	-12.4955
▁Norden	-12.4955
▁diplomacy	-12.4956
▁blueprint	-12.4956
▁assessment	-12.4956
▁curator	-12.4957
▁ease	-12.4957
▁admitted	-12.4957
▁Notice	-12.4958
▁planner	-12.4958
▁sync	-12.4959
▁Peru	-12.4961
▁symbolic	-12.4962
▁Treat	-12.4963
Hmm	-12.497
▁UK	-12.4975
▁cleaner	-12.4977
▁abstraction	-12.4979
▁activated	-12.4979
▁composer	-12.4981
▁Cold	-12.4984
▁matche	-12.5009
Ah	-12.5021
▁erase	-12.5022
bran	-12.5056
▁kite	-12.5057
▁glu	-12.5058
▁heroic	-12.5062
ither	-12.5066
section	-12.5072
▁satisfy	-12.5078
▁unsee	-12.5089
▁obstacle	-12.5091
▁ancestor	-12.5092
note	-12.51
▁headline	-12.5106
passes	-12.5107
stein	-12.5111
▁publisher	-12.5112
standing	-12.5154
mapped	-12.5161
walk	-12.5166
Africa	-12.5166
control	-12.5167
engineering	-12.5181
▁dip	-12.5184
▁combin	-12.5185
NG	-12.519
pecies	-12.5225
▁delicate	-12.5225
▁guerrilla	-12.5225
sourcing	-12.5225
▁Buddha	-12.5225
▁CRISPR	-12.5225
▁Cambodia	-12.5225
▁Fifty	-12.5225
▁Interestingly	-12.5225
▁Joshua	-12.5225
▁Linux	-12.5225
▁Nairobi	-12.5225
▁Similarly	-12.5225
▁Thirty	-12.5225
▁Tuesday	-12.5225
▁absurd	-12.5225
▁abundant	-12.5225
▁angiogenesis	-12.5225
▁bacterium	-12.5225
▁beneficial	-12.5225
▁friction	-12.5225
▁generator	-12.5225
▁gigantic	-12.5225
▁intimacy	-12.5225
▁kindergarten	-12.5225
▁libraries	-12.5225
▁neglect	-12.5225
▁numerous	-12.5225
▁occupation	-12.5225
▁perpetrat	-12.5225
▁reclaim	-12.5225
▁utility	-12.5225
▁Canyon	-12.5225
▁fuzzy	-12.5225
▁honeybee	-12.5225
▁nuclei	-12.5225
▁relativity	-12.5225
▁reproduction	-12.5225
▁cease	-12.5225
▁bulk	-12.5225
▁Wood	-12.5225
▁cement	-12.5225
▁correlate	-12.5226
▁northeast	-12.5226
▁desktop	-12.5226
▁rehabilitation	-12.5226
▁vanish	-12.5226
▁crank	-12.5227
▁replacing	-12.5227
▁fled	-12.5229
▁manipulation	-12.5229
▁voters	-12.523
▁delete	-12.523
▁rays	-12.5231
▁Book	-12.5232
▁Building	-12.5233
▁sadness	-12.5233
▁sexuality	-12.5234
▁intentional	-12.5235
▁biases	-12.5237
▁Fish	-12.5238
▁vest	-12.524
▁Party	-12.5241
▁Jean	-12.5242
▁zip	-12.5242
▁eighth	-12.5244
▁reside	-12.5245
▁cartoonist	-12.5256
▁dent	-12.5264
▁intend	-12.5266
▁receiver	-12.528
▁Gius	-12.5293
▁fame	-12.5298
uite	-12.5314
other	-12.5323
oriented	-12.5331
▁characteristic	-12.5371
▁curl	-12.5394
gency	-12.5401
▁optic	-12.541
▁invade	-12.541
▁compil	-12.5428
screen	-12.5444
controlled	-12.5444
shift	-12.5444
breaking	-12.5454
▁manipulat	-12.5462
conscious	-12.5485
▁tempt	-12.5502
▁Univers	-12.5502
▁conserv	-12.5502
▁orphan	-12.5502
▁Austria	-12.5503
▁Caribbean	-12.5503
▁Empire	-12.5503
▁Larry	-12.5503
▁Michigan	-12.5503
▁Namibia	-12.5503
▁Stewart	-12.5503
▁Sylvia	-12.5503
▁Venus	-12.5503
▁controversy	-12.5503
▁convincing	-12.5503
▁dictionaries	-12.5503
▁essay	-12.5503
▁hamburger	-12.5503
▁iPad	-12.5503
▁ingenuity	-12.5503
▁liberty	-12.5503
▁maintenance	-12.5503
▁marijuana	-12.5503
▁pricing	-12.5503
▁promoting	-12.5503
▁shepherd	-12.5503
▁sulfide	-12.5503
▁symmetries	-12.5503
▁Student	-12.5503
▁calculator	-12.5503
▁calendar	-12.5503
▁curtain	-12.5503
▁displaced	-12.5503
▁dispute	-12.5503
▁hammer	-12.5503
▁pharma	-12.5503
▁reflex	-12.5503
▁resort	-12.5503
▁smuggl	-12.5503
▁Movement	-12.5503
▁committee	-12.5503
▁autistic	-12.5503
▁humankind	-12.5503
▁goodbye	-12.5503
▁flexibility	-12.5503
▁causal	-12.5503
▁collar	-12.5503
▁ashamed	-12.5503
Wonder	-12.5503
▁Garden	-12.5503
▁greed	-12.5504
▁appreciation	-12.5504
▁Step	-12.5504
▁urgent	-12.5505
▁textile	-12.5505
▁mature	-12.5505
▁seawater	-12.5505
▁urbanization	-12.5506
▁baseline	-12.5506
▁Lyn	-12.5506
▁bay	-12.5507
▁pillar	-12.5508
▁fungi	-12.5508
▁problematic	-12.5508
▁spontaneously	-12.5509
▁Beach	-12.5511
▁repeatedly	-12.5513
▁Rover	-12.5513
▁accountable	-12.5516
▁injection	-12.5517
▁glove	-12.5518
▁Heart	-12.5523
▁Fred	-12.5524
▁apes	-12.5526
▁skeptical	-12.5531
▁dorm	-12.5538
▁Iraqi	-12.5578
code	-12.5626
▁overlook	-12.5655
Cola	-12.5668
sensitive	-12.573
script	-12.573
cultural	-12.573
▁disappoint	-12.5772
ristine	-12.5786
▁stigma	-12.5787
▁psychiatri	-12.5787
cientific	-12.5788
imbabwe	-12.5789
▁Carnegie	-12.5789
▁Country	-12.5789
▁Dallas	-12.5789
▁Environment	-12.5789
▁Himalaya	-12.5789
▁Kepler	-12.5789
▁chaotic	-12.5789
▁destructive	-12.5789
▁disabilities	-12.5789
▁eBay	-12.5789
▁fishermen	-12.5789
▁infrared	-12.5789
▁inherited	-12.5789
▁irrigat	-12.5789
▁pervasive	-12.5789
▁physiology	-12.5789
▁plankton	-12.5789
▁prevalence	-12.5789
▁quantities	-12.5789
▁rectangle	-12.5789
▁supernova	-12.5789
anatomy	-12.5789
▁CMU	-12.5789
▁abnormal	-12.5789
▁affirm	-12.5789
▁disadvantage	-12.5789
▁dissolve	-12.5789
▁fierce	-12.5789
▁frustrating	-12.5789
▁manuscript	-12.5789
▁powder	-12.5789
▁pursuing	-12.5789
▁salary	-12.5789
▁sediment	-12.5789
▁symphon	-12.5789
▁thylacine	-12.5789
▁Climate	-12.5789
▁Tesla	-12.5789
▁anxious	-12.5789
▁thorough	-12.5789
▁Tele	-12.5789
generative	-12.5789
▁Small	-12.5789
▁Lagos	-12.5789
▁hatred	-12.5789
▁geometric	-12.5789
▁tilt	-12.5789
▁Large	-12.5789
▁marrow	-12.5789
▁Common	-12.579
▁memorize	-12.579
▁blogger	-12.579
urgency	-12.579
▁legend	-12.579
▁accomplishment	-12.579
▁lump	-12.5791
▁Simpl	-12.5791
▁sneakers	-12.5791
▁dragon	-12.5792
▁insult	-12.5792
▁visitors	-12.5792
▁Native	-12.5793
▁deliberately	-12.5794
▁flush	-12.5794
▁Data	-12.5797
▁affection	-12.5801
▁MO	-12.5803
▁supportive	-12.5804
▁worldview	-12.5805
MG	-12.581
▁lend	-12.5811
Hi	-12.5879
▁reache	-12.5906
specially	-12.5933
▁Maria	-12.5947
▁NGO	-12.5949
▁elect	-12.6021
social	-12.6024
patient	-12.6026
turn	-12.6026
▁gig	-12.6048
▁inherent	-12.6076
▁censor	-12.6083
▁flex	-12.6083
▁Norwegian	-12.6083
▁OECD	-12.6083
▁Portugal	-12.6083
▁Princeton	-12.6083
▁Usually	-12.6083
▁Venezuela	-12.6083
▁applause	-12.6083
▁cabinet	-12.6083
▁defect	-12.6083
▁embodied	-12.6083
▁fireflies	-12.6083
▁gadget	-12.6083
▁generosity	-12.6083
▁grammar	-12.6083
▁grassroots	-12.6083
▁injustice	-12.6083
▁janitor	-12.6083
▁leopard	-12.6083
▁microscopic	-12.6083
▁mycelium	-12.6083
▁opponent	-12.6083
▁patience	-12.6083
▁peanut	-12.6083
▁romance	-12.6083
▁submarine	-12.6083
▁temper	-12.6083
▁uncover	-12.6083
▁yeast	-12.6083
▁Yellow	-12.6083
▁brainstorm	-12.6083
▁cathedral	-12.6083
▁indication	-12.6083
▁intrigue	-12.6083
▁monarch	-12.6083
▁timber	-12.6083
▁utiliz	-12.6083
▁ALS	-12.6083
▁Food	-12.6083
▁prioritize	-12.6083
▁casual	-12.6083
▁rival	-12.6083
▁carrot	-12.6083
▁valve	-12.6083
▁shove	-12.6083
▁bionic	-12.6083
▁citizenship	-12.6084
▁missile	-12.6084
▁entrepreneurial	-12.6084
▁Golden	-12.6086
▁gait	-12.6086
▁posture	-12.6086
▁reflective	-12.6087
▁newborn	-12.6087
▁Grow	-12.6087
▁hallway	-12.6088
▁stepping	-12.6089
▁sang	-12.609
▁Paulo	-12.6091
▁statistically	-12.6092
▁Line	-12.6102
▁customiz	-12.6126
▁flap	-12.613
▁interfere	-12.6132
borne	-12.6142
▁lips	-12.6146
▁strengthen	-12.6153
plex	-12.6165
▁loo	-12.6175
▁shap	-12.6188
lcome	-12.6196
▁symptom	-12.6253
▁ignor	-12.6272
traumatic	-12.6288
acquired	-12.6314
piece	-12.6327
Would	-12.6327
Good	-12.6327
structure	-12.6327
metric	-12.6328
Star	-12.6329
axis	-12.633
Come	-12.6333
friendly	-12.6333
icious	-12.6334
▁fertiliz	-12.6335
▁remov	-12.6338
born	-12.6339
ripped	-12.6344
▁tin	-12.6353
stimulat	-12.6364
▁expose	-12.6371
▁recycle	-12.6373
▁fec	-12.6379
▁societ	-12.6379
▁captur	-12.638
▁thermo	-12.6385
▁indirect	-12.6386
▁subsequent	-12.6386
Keith	-12.6386
▁Connecticut	-12.6386
▁Kiribati	-12.6386
▁Oklahoma	-12.6386
▁Orleans	-12.6386
▁Pittsburgh	-12.6386
▁aluminum	-12.6386
▁arbitrary	-12.6386
▁biosphere	-12.6386
▁celebrating	-12.6386
▁elbow	-12.6386
▁embryo	-12.6386
▁facult	-12.6386
▁galleries	-12.6386
▁mammoth	-12.6386
▁nevertheless	-12.6386
▁pregnancy	-12.6386
▁propaganda	-12.6386
▁quantity	-12.6386
▁rhino	-12.6386
▁shelves	-12.6386
▁specimen	-12.6386
▁victory	-12.6386
▁Jamaica	-12.6386
▁Kansas	-12.6386
▁Roosevelt	-12.6386
▁adolescence	-12.6386
▁calculating	-12.6386
▁distill	-12.6386
▁easiest	-12.6386
▁equilibrium	-12.6386
▁hobby	-12.6386
▁internship	-12.6386
▁lesbian	-12.6386
▁penetrate	-12.6386
▁playground	-12.6386
▁spaghetti	-12.6386
▁synchroniz	-12.6386
▁voyage	-12.6386
▁chord	-12.6386
▁doubling	-12.6386
▁Cancer	-12.6386
▁Royal	-12.6386
▁Often	-12.6386
▁Siberia	-12.6386
▁erupt	-12.6386
▁flick	-12.6386
▁miniatur	-12.6386
▁transferred	-12.6386
▁Secretary	-12.6386
▁resonate	-12.6386
▁modify	-12.6386
▁terminal	-12.6386
▁dwell	-12.6386
▁gym	-12.6386
▁carrier	-12.6386
hhh	-12.6386
▁deplet	-12.6386
▁electromagnetic	-12.6387
▁billboard	-12.6387
▁polymer	-12.6387
▁Brit	-12.6387
▁criticism	-12.6387
▁Danny	-12.6387
▁Prime	-12.6388
▁passport	-12.6388
▁breakdown	-12.6388
▁mund	-12.6388
▁Johnny	-12.6388
▁Nazi	-12.6389
▁spade	-12.6389
▁puff	-12.6389
▁weakness	-12.6391
▁Coca	-12.6392
▁colorful	-12.6394
▁deny	-12.6398
▁illnesses	-12.6399
▁sentiment	-12.64
▁rib	-12.6419
▁conception	-12.6427
▁shred	-12.6436
threatening	-12.6452
reedom	-12.6468
▁fuse	-12.6477
▁clone	-12.6528
loved	-12.6623
design	-12.6637
▁releas	-12.6638
correct	-12.6639
atomic	-12.6639
Every	-12.6639
culture	-12.664
▁packag	-12.6644
▁Side	-12.6648
induced	-12.6684
▁mount	-12.6687
▁dragge	-12.6687
▁numb	-12.6692
▁encrypt	-12.6697
▁meditat	-12.6697
▁analys	-12.6698
▁monk	-12.6698
▁Chuck	-12.6698
▁Denmark	-12.6698
▁Diego	-12.6698
▁Galapagos	-12.6698
▁Kosovo	-12.6698
▁Recently	-12.6698
▁Service	-12.6698
▁Snowden	-12.6698
▁accompanie	-12.6698
▁broccoli	-12.6698
▁confusion	-12.6698
▁cultivate	-12.6698
▁existential	-12.6698
▁genital	-12.6698
▁imprison	-12.6698
▁niece	-12.6698
▁oyster	-12.6698
▁pessimis	-12.6698
▁rainfall	-12.6698
▁syringe	-12.6698
▁unemployment	-12.6698
▁velocity	-12.6698
▁visceral	-12.6698
▁SMS	-12.6698
▁Taiwan	-12.6698
▁buzz	-12.6698
▁choir	-12.6698
▁companion	-12.6698
▁comprehensive	-12.6698
▁duration	-12.6698
▁executed	-12.6698
▁harass	-12.6698
▁helmet	-12.6698
▁horrific	-12.6698
▁introducing	-12.6698
▁loneli	-12.6698
▁modified	-12.6698
▁nonsense	-12.6698
▁nucleus	-12.6698
▁satisfied	-12.6698
▁technologist	-12.6698
esteem	-12.6698
▁parameters	-12.6698
▁wreck	-12.6698
▁backpack	-12.6698
▁benign	-12.6698
▁chick	-12.6698
▁imitate	-12.6698
▁shuttle	-12.6698
▁audaci	-12.6699
▁motorcycle	-12.6699
▁masterpiece	-12.6699
▁Nathan	-12.6699
▁Jobs	-12.6699
▁skate	-12.6699
▁battlefield	-12.6699
▁compass	-12.6699
▁entity	-12.6699
partisan	-12.6699
▁Cultur	-12.6699
▁Invest	-12.6699
▁conscience	-12.6699
▁marvelous	-12.6699
▁coincidence	-12.6699
▁Auto	-12.6699
▁Alright	-12.67
▁distinctive	-12.67
▁shade	-12.67
▁blanket	-12.67
▁courageous	-12.67
▁Down	-12.6701
▁Roger	-12.6701
▁Tasmanian	-12.6701
▁ramp	-12.6701
▁circulation	-12.6701
quatic	-12.6701
▁copper	-12.6701
▁eradication	-12.6702
▁Death	-12.6702
▁Leone	-12.6702
link	-12.6703
▁adaptive	-12.6704
▁explicitly	-12.6704
▁brin	-12.6704
▁reasonably	-12.6705
▁Slow	-12.6706
▁meaningless	-12.6706
▁Fast	-12.6709
▁Mola	-12.671
▁cardio	-12.6712
▁crust	-12.6714
▁distraction	-12.6714
▁reuse	-12.6723
▁Merc	-12.6727
nguish	-12.6739
▁incorporate	-12.6745
utheast	-12.6748
izard	-12.6763
lody	-12.6769
▁polariz	-12.6769
▁Lewi	-12.6773
▁bypass	-12.6814
▁mic	-12.6816
▁dye	-12.6835
▁incremental	-12.684
▁antibiotic	-12.6888
▁buck	-12.6914
engineer	-12.6945
friend	-12.6954
▁Turk	-12.6961
security	-12.6962
▁inexpensive	-12.6962
government	-12.6962
credit	-12.6962
child	-12.6962
shine	-12.6974
▁recreate	-12.6983
▁possess	-12.7009
▁Francis	-12.702
▁Angel	-12.7021
▁straw	-12.7021
Believe	-12.7021
▁Amsterdam	-12.7021
▁Edinburgh	-12.7021
▁Information	-12.7021
▁LGBT	-12.7021
▁Michelangelo	-12.7021
▁Parliament	-12.7021
▁Tech	-12.7021
▁activism	-12.7021
▁altruism	-12.7021
▁approval	-12.7021
▁athletic	-12.7021
▁calcium	-12.7021
▁catalog	-12.7021
▁commodities	-12.7021
▁cybercriminal	-12.7021
▁hypotheses	-12.7021
▁intangible	-12.7021
▁migraine	-12.7021
▁octopus	-12.7021
▁paralysis	-12.7021
▁pediatric	-12.7021
▁prejudice	-12.7021
▁promotion	-12.7021
▁puberty	-12.7021
▁recipient	-12.7021
▁resonance	-12.7021
▁seafood	-12.7021
▁stratosphere	-12.7021
▁suburban	-12.7021
▁superhero	-12.7021
▁vegetation	-12.7021
▁violation	-12.7021
olocaust	-12.7021
▁Hindu	-12.7021
▁Massac	-12.7021
▁Muhammad	-12.7021
▁abortion	-12.7021
▁bureaucrat	-12.7021
▁commute	-12.7021
▁maximize	-12.7021
▁mortgage	-12.7021
▁prevail	-12.7021
▁quantitative	-12.7021
▁radar	-12.7021
▁superior	-12.7021
▁throat	-12.7021
▁geological	-12.7021
▁Leader	-12.7021
▁immerse	-12.7021
▁tennis	-12.7021
▁jury	-12.7021
▁halve	-12.7021
▁Julie	-12.7021
▁prophet	-12.7021
▁temporal	-12.7021
▁permit	-12.7021
▁Commission	-12.7021
▁grape	-12.7021
▁hallucinations	-12.7021
▁midnight	-12.7021
▁drip	-12.7021
▁scroll	-12.7021
▁bombsight	-12.7022
▁equator	-12.7022
▁keen	-12.7022
▁Find	-12.7022
▁nitr	-12.7022
cratic	-12.7022
▁dependence	-12.7022
▁Norman	-12.7023
▁deployment	-12.7023
▁temptation	-12.7023
▁shipped	-12.7023
▁compact	-12.7023
zona	-12.7024
▁Justice	-12.7025
▁Jill	-12.7026
▁undermine	-12.7026
▁Susan	-12.7031
▁Plu	-12.7032
▁hatch	-12.7033
▁dentist	-12.7034
▁grim	-12.7057
huse	-12.7086
▁justify	-12.7094
▁Rica	-12.7138
▁poetic	-12.7186
▁Nu	-12.7214
▁Land	-12.7217
▁Levi	-12.7245
▁Radio	-12.7251
▁admir	-12.7275
▁Polic	-12.7281
lateral	-12.7282
lethal	-12.7295
performing	-12.7295
wheel	-12.7295
specific	-12.7295
brain	-12.7295
positive	-12.7296
▁Trad	-12.733
▁guilt	-12.7348
▁stole	-12.735
▁enforce	-12.7353
▁Virgin	-12.7354
▁recurr	-12.7354
▁Arduino	-12.7354
▁Bangalore	-12.7354
▁Desert	-12.7354
▁Luckily	-12.7354
▁Natasha	-12.7354
▁Skype	-12.7354
▁Sydney	-12.7354
▁Teszler	-12.7354
▁Victorian	-12.7354
▁anesthesia	-12.7354
▁attorney	-12.7354
▁auditorium	-12.7354
▁crocodile	-12.7354
▁declining	-12.7354
▁fingertips	-12.7354
▁gratitude	-12.7354
▁hectare	-12.7354
▁hollow	-12.7354
▁intricate	-12.7354
▁irrelevant	-12.7354
▁obscure	-12.7354
▁offshore	-12.7354
▁optimal	-12.7354
▁summary	-12.7354
▁turbine	-12.7354
▁unintended	-12.7354
▁Babylon	-12.7354
▁Company	-12.7354
▁choreograph	-12.7354
▁delusion	-12.7354
▁imperfect	-12.7354
▁jacket	-12.7354
▁praise	-12.7354
▁rhetoric	-12.7354
▁royal	-12.7354
▁shield	-12.7354
▁submersible	-12.7354
▁surplus	-12.7354
▁treasure	-12.7354
▁wavelength	-12.7354
▁wolves	-12.7354
▁wrestle	-12.7354
▁collide	-12.7354
▁depressing	-12.7354
▁obey	-12.7354
▁regain	-12.7354
▁orgasm	-12.7354
▁Emily	-12.7354
▁Guinea	-12.7354
▁minimize	-12.7354
▁chalk	-12.7354
Excuse	-12.7354
▁Medit	-12.7354
mbiguous	-12.7354
▁verge	-12.7354
basking	-12.7355
▁stir	-12.7355
▁censorship	-12.7355
▁versa	-12.7355
visibility	-12.7355
▁coding	-12.7355
▁multiverse	-12.7355
▁jewelry	-12.7355
▁orphanage	-12.7355
▁unacceptable	-12.7356
▁grassland	-12.7356
▁shallow	-12.7356
▁Nicole	-12.7356
▁Democratic	-12.7357
▁automatic	-12.7357
▁Costa	-12.7357
▁wax	-12.7358
▁invit	-12.7358
tolerant	-12.7359
▁comparable	-12.7359
▁Report	-12.7359
scanned	-12.7361
▁remed	-12.7361
▁dude	-12.7361
▁Evan	-12.7361
▁possession	-12.7367
odd	-12.7376
▁enrich	-12.7384
▁tropic	-12.7408
▁neurological	-12.7411
▁trafficke	-12.7417
▁rage	-12.7427
entrepreneurship	-12.7439
bama	-12.7446
ltered	-12.745
Honey	-12.7454
▁conceive	-12.7491
▁Carol	-12.7505
▁damag	-12.7516
▁captiv	-12.7536
aches	-12.7546
natu	-12.7558
▁corporation	-12.7565
▁Brea	-12.7593
▁outrage	-12.7604
▁Rub	-12.7611
resistant	-12.764
public	-12.764
funded	-12.764
resolution	-12.764
▁morph	-12.7661
▁tid	-12.7672
▁speculati	-12.7688
▁literal	-12.7692
ompassion	-12.7696
▁emphasi	-12.7699
▁Cairo	-12.7699
▁Economic	-12.7699
▁Exactly	-12.7699
▁Finland	-12.7699
▁Katrina	-12.7699
▁LHC	-12.7699
▁Ooh	-12.7699
▁UCLA	-12.7699
▁Ultimately	-12.7699
▁Window	-12.7699
▁accommodate	-12.7699
▁annoying	-12.7699
▁cartilage	-12.7699
▁debris	-12.7699
▁dragonflies	-12.7699
▁ethanol	-12.7699
▁frightened	-12.7699
▁glory	-12.7699
▁grief	-12.7699
▁impaired	-12.7699
▁limestone	-12.7699
▁rediscover	-12.7699
▁savanna	-12.7699
▁sulfur	-12.7699
▁surrender	-12.7699
▁tuberculosis	-12.7699
▁unemployed	-12.7699
▁wetsuit	-12.7699
▁Copernic	-12.7699
▁Doaa	-12.7699
▁Jerry	-12.7699
▁compliment	-12.7699
▁exclude	-12.7699
▁irrita	-12.7699
▁certificate	-12.7699
▁draft	-12.7699
▁hypothetical	-12.7699
▁monsoon	-12.7699
▁pepper	-12.7699
▁railroad	-12.7699
▁railway	-12.7699
▁unstable	-12.7699
▁vector	-12.7699
▁venue	-12.7699
▁knot	-12.7699
▁lamb	-12.7699
▁stiff	-12.7699
▁ideological	-12.7699
▁divine	-12.7699
▁snapshot	-12.7699
▁crater	-12.7699
▁reply	-12.7699
▁haunt	-12.7699
▁Help	-12.7699
▁supercomputer	-12.7699
▁glorious	-12.7699
▁secular	-12.77
▁Though	-12.77
▁Point	-12.77
▁populate	-12.77
▁Alpha	-12.77
▁provision	-12.77
▁mythology	-12.77
▁standpoint	-12.77
▁biotech	-12.77
▁gambl	-12.7701
▁happiest	-12.7701
▁meditation	-12.7701
▁pollute	-12.7701
▁emergent	-12.7702
▁rug	-12.7702
classified	-12.7702
▁hind	-12.7703
▁exploitation	-12.7703
wiring	-12.7704
▁chill	-12.7704
▁similarities	-12.7705
▁disruption	-12.7706
▁consultant	-12.7709
▁Rule	-12.7716
▁conductor	-12.7717
▁Comp	-12.7725
ureau	-12.7727
▁seize	-12.7734
▁weave	-12.7734
▁Rich	-12.7735
▁joyful	-12.7756
▁revolutionize	-12.7757
▁Nico	-12.7767
▁fisc	-12.7797
▁undertak	-12.7827
▁epic	-12.7848
▁Astro	-12.7864
▁employee	-12.7924
▁explod	-12.7932
▁thankful	-12.7946
conduct	-12.7997
organism	-12.7997
secure	-12.7997
carbon	-12.7997
writing	-12.7997
growing	-12.7997
Because	-12.7997
great	-12.7997
group	-12.7999
market	-12.8001
▁socio	-12.8005
logged	-12.8023
▁worrie	-12.8042
▁hung	-12.8047
placing	-12.8055
▁jewel	-12.8055
regulating	-12.8056
▁Babbage	-12.8056
▁Baltimore	-12.8056
▁abusive	-12.8056
▁acceleration	-12.8056
▁algebra	-12.8056
▁arriving	-12.8056
▁bandwidth	-12.8056
▁bloom	-12.8056
▁condemn	-12.8056
▁determination	-12.8056
▁excellence	-12.8056
▁improbable	-12.8056
▁incarceration	-12.8056
▁larvae	-12.8056
▁lawsuit	-12.8056
▁malnutrition	-12.8056
▁nectar	-12.8056
▁ozone	-12.8056
▁policing	-12.8056
▁psyche	-12.8056
▁relevance	-12.8056
▁unequal	-12.8056
▁vapor	-12.8056
▁volcanic	-12.8056
desirable	-12.8056
fertility	-12.8056
▁Cross	-12.8056
▁Vegas	-12.8056
▁analytical	-12.8056
▁census	-12.8056
▁eager	-12.8056
▁graffiti	-12.8056
▁incomplete	-12.8056
▁millisecond	-12.8056
▁pivot	-12.8056
▁remittance	-12.8056
▁responsive	-12.8056
▁simulator	-12.8056
▁solemn	-12.8056
offensive	-12.8056
▁Change	-12.8056
▁Language	-12.8056
▁hurdle	-12.8056
▁implicit	-12.8056
▁initiate	-12.8056
▁intimidat	-12.8056
▁thriving	-12.8056
▁Whitopia	-12.8056
▁erotic	-12.8056
▁queue	-12.8056
▁Kelly	-12.8056
hoven	-12.8056
▁nanotechnology	-12.8056
▁plumb	-12.8056
▁cried	-12.8056
▁instability	-12.8056
▁Index	-12.8056
▁spawn	-12.8057
▁contagious	-12.8057
ompanies	-12.8057
▁Wilson	-12.8057
▁continuum	-12.8057
▁Scottish	-12.8057
▁continually	-12.8057
▁innate	-12.8057
▁Franklin	-12.8057
▁rooftop	-12.8057
▁recreation	-12.8057
▁worthwhile	-12.8057
▁burial	-12.8058
▁methodology	-12.8058
▁bunk	-12.8058
▁encryption	-12.8058
▁guideline	-12.8058
ehind	-12.8058
▁Pink	-12.806
▁bombard	-12.806
▁forcing	-12.806
▁boson	-12.8061
▁Full	-12.8061
▁misuse	-12.8062
▁Darwinian	-12.8064
derived	-12.8067
▁reconnect	-12.8085
▁Stein	-12.8096
nanometer	-12.8105
▁uncertain	-12.8134
colonial	-12.8157
▁originate	-12.819
Barack	-12.8204
▁Julian	-12.8236
▁Julia	-12.8244
▁clon	-12.8255
▁anthr	-12.826
▁styl	-12.8311
predictable	-12.8367
appropriate	-12.8368
solving	-12.8368
conflict	-12.8368
Great	-12.8368
color	-12.8368
guard	-12.8371
cycle	-12.8372
value	-12.8374
▁astonish	-12.841
▁excite	-12.8411
▁dominate	-12.8412
▁refrigerat	-12.8415
▁spontaneous	-12.8419
▁mortal	-12.8425
▁advent	-12.8426
▁Already	-12.8427
▁Kyoto	-12.8427
▁Ministry	-12.8427
▁Palestine	-12.8427
▁SARS	-12.8427
▁Sputnik	-12.8427
▁Ushahidi	-12.8427
▁Venice	-12.8427
▁adjacent	-12.8427
▁anecdote	-12.8427
▁cerebral	-12.8427
▁charities	-12.8427
▁estrogen	-12.8427
▁fundraising	-12.8427
▁hurricane	-12.8427
▁laundry	-12.8427
▁nurturing	-12.8427
▁perceptual	-12.8427
▁prototyping	-12.8427
▁varieties	-12.8427
▁Cooper	-12.8427
▁DARPA	-12.8427
▁Network	-12.8427
▁altruist	-12.8427
▁ambassador	-12.8427
▁capsule	-12.8427
▁dictate	-12.8427
▁meadow	-12.8427
▁provoke	-12.8427
▁servant	-12.8427
▁supplement	-12.8427
▁testimon	-12.8427
▁unaware	-12.8427
▁volatil	-12.8427
▁Patient	-12.8427
▁astronomical	-12.8427
▁embark	-12.8427
▁fracture	-12.8427
▁investigating	-12.8427
▁repertoire	-12.8427
▁turbulen	-12.8427
▁withdraw	-12.8427
▁EDI	-12.8427
▁Perfect	-12.8427
▁balcon	-12.8427
▁racism	-12.8427
▁Physic	-12.8427
▁measurabl	-12.8427
▁serial	-12.8427
▁quiz	-12.8427
League	-12.8427
charging	-12.8427
▁underpin	-12.8427
▁neurogenesis	-12.8427
▁mutant	-12.8427
▁forehead	-12.8427
▁tinker	-12.8427
▁urine	-12.8427
▁Speak	-12.8427
▁Game	-12.8427
▁Renaissance	-12.8427
▁Scotland	-12.8427
▁petals	-12.8427
▁propagat	-12.8427
▁vicious	-12.8427
▁Irish	-12.8427
▁preferred	-12.8428
▁swear	-12.8428
▁cheek	-12.8428
▁iteration	-12.8428
▁misery	-12.8428
▁discard	-12.8428
▁sword	-12.8428
▁raft	-12.8428
▁Fox	-12.8429
▁constructive	-12.8429
▁decode	-12.8429
▁dining	-12.8429
▁feat	-12.8429
▁attachment	-12.843
▁swell	-12.843
▁pore	-12.8432
▁slot	-12.8435
▁evaporate	-12.8435
▁Lang	-12.8436
▁erect	-12.8442
quarters	-12.8455
biotechnology	-12.8473
▁inflate	-12.8513
▁linguistic	-12.8517
dragging	-12.8522
▁diminish	-12.8529
oxic	-12.8543
uestion	-12.8571
mehow	-12.8617
▁humbl	-12.8645
▁emission	-12.8679
acqu	-12.8691
▁Mov	-12.8736
surfing	-12.8739
educated	-12.8752
typical	-12.8752
learn	-12.8753
forward	-12.8754
sharing	-12.8766
▁interconnect	-12.8795
▁wak	-12.8798
▁Whit	-12.8799
▁twenty	-12.8811
counterintuitive	-12.8811
disciplinary	-12.8811
▁BMW	-12.8811
▁Guatemala	-12.8811
▁Jazeera	-12.8811
▁Margaret	-12.8811
▁MoMA	-12.8811
▁Pixar	-12.8811
▁Samuel	-12.8811
▁Toronto	-12.8811
▁administrator	-12.8811
▁antidepressant	-12.8811
▁cognition	-12.8811
▁communal	-12.8811
▁empirical	-12.8811
▁latitude	-12.8811
▁livelihood	-12.8811
▁nonviolent	-12.8811
▁nuance	-12.8811
▁orangutan	-12.8811
▁pancreatic	-12.8811
▁reluctant	-12.8811
▁retrofit	-12.8811
▁rigorous	-12.8811
▁scuba	-12.8811
▁simplistic	-12.8811
▁substitute	-12.8811
▁suspicious	-12.8811
▁template	-12.8811
▁testosterone	-12.8811
▁Amazing	-12.8811
▁Depression	-12.8811
▁Group	-12.8811
▁Ninety	-12.8811
▁Virtual	-12.8811
▁announcement	-12.8811
▁checklist	-12.8811
▁facilitate	-12.8811
▁homosexual	-12.8811
▁landfill	-12.8811
▁municipal	-12.8811
▁paragraph	-12.8811
▁polish	-12.8811
▁rainbow	-12.8811
▁reconcile	-12.8811
▁vibrating	-12.8811
▁Glass	-12.8811
▁Lawrence	-12.8811
▁Marshall	-12.8811
▁Modern	-12.8811
▁Pantheon	-12.8811
▁Spider	-12.8811
▁agnostic	-12.8811
▁bluefin	-12.8811
▁booth	-12.8811
▁convenience	-12.8811
▁epiphan	-12.8811
▁gossip	-12.8811
▁integrating	-12.8811
▁nickname	-12.8811
▁uplift	-12.8811
▁crises	-12.8811
▁fiddl	-12.8811
▁metropolitan	-12.8811
▁physiological	-12.8811
▁Model	-12.8811
▁personnel	-12.8811
▁Emma	-12.8811
▁teddy	-12.8811
▁Better	-12.8811
▁chemo	-12.8811
▁racist	-12.8811
▁disseminat	-12.8812
▁pension	-12.8812
▁scatter	-12.8812
▁aviation	-12.8812
entagon	-12.8812
▁nomad	-12.8812
▁boyfriend	-12.8812
▁bass	-12.8812
▁pearl	-12.8812
▁moderate	-12.8812
▁aerial	-12.8812
▁trustworth	-12.8812
▁erectus	-12.8812
▁Program	-12.8813
▁clash	-12.8813
▁viewpoint	-12.8813
▁mutate	-12.8814
▁ranging	-12.8814
▁medal	-12.8814
▁peek	-12.8814
▁flor	-12.8815
▁tolerate	-12.8816
▁seren	-12.882
▁paradi	-12.882
▁calv	-12.8857
referred	-12.889
igital	-12.8908
outrageous	-12.8921
▁entr	-12.8973
fashioned	-12.8997
Psycho	-12.9011
▁ignoran	-12.902
biotic	-12.9023
lude	-12.909
trained	-12.9111
▁grace	-12.9134
violence	-12.9152
white	-12.9152
model	-12.9153
good	-12.9153
burn	-12.9153
green	-12.9153
▁strap	-12.9173
sexually	-12.9187
acceptable	-12.9189
▁destin	-12.9204
▁frequent	-12.9204
▁marvel	-12.9211
illennium	-12.9211
retroviral	-12.9211
▁Avenue	-12.9211
▁Darfur	-12.9211
▁Democracy	-12.9211
▁Dylan	-12.9211
▁Incredible	-12.9211
▁Murray	-12.9211
▁Pepsi	-12.9211
▁RISD	-12.9211
▁Taylor	-12.9211
▁Village	-12.9211
▁Wolfram	-12.9211
▁ambiguity	-12.9211
▁confusing	-12.9211
▁congress	-12.9211
▁devastated	-12.9211
▁erosion	-12.9211
▁evident	-12.9211
▁gecko	-12.9211
▁hippocampus	-12.9211
▁holistic	-12.9211
▁jeans	-12.9211
▁lymph	-12.9211
▁mammogram	-12.9211
▁miraculous	-12.9211
▁pneumonia	-12.9211
▁respiratory	-12.9211
▁sensible	-12.9211
▁strive	-12.9211
▁superstar	-12.9211
▁undercover	-12.9211
▁unfinished	-12.9211
▁veterinarian	-12.9211
▁vibrate	-12.9211
juggling	-12.9211
ntelligence	-12.9211
▁Field	-12.9211
▁catalyst	-12.9211
▁deteriorat	-12.9211
▁educating	-12.9211
▁excerpt	-12.9211
▁hygien	-12.9211
▁literary	-12.9211
▁medieval	-12.9211
▁seizure	-12.9211
▁stagna	-12.9211
preserving	-12.9211
rapeutic	-12.9211
▁Oregon	-12.9211
▁behaving	-12.9211
▁devised	-12.9211
▁retrospect	-12.9211
▁ruling	-12.9211
▁scalable	-12.9211
▁tuck	-12.9211
▁vibran	-12.9211
▁Conservati	-12.9211
▁Freud	-12.9211
▁unsustainable	-12.9211
▁Type	-12.9211
▁thunder	-12.9211
▁unveil	-12.9211
▁Russe	-12.9211
▁sociologist	-12.9211
▁resign	-12.9211
▁Algeria	-12.9212
▁Differen	-12.9212
cratch	-12.9212
▁Neither	-12.9212
▁plunge	-12.9212
▁persever	-12.9212
▁speculate	-12.9212
▁aspire	-12.9212
▁illiterate	-12.9212
▁Among	-12.9212
▁adulthood	-12.9212
▁preschool	-12.9212
opefully	-12.9212
▁Prison	-12.9213
▁blogging	-12.9213
▁monopol	-12.9213
IMS	-12.9215
▁enthusiastic	-12.9215
framing	-12.9219
▁variant	-12.9229
fused	-12.9237
replicating	-12.9274
▁purchas	-12.9283
regulated	-12.9373
▁foi	-12.9378
▁metaphorical	-12.9397
Cities	-12.9449
▁implication	-12.9495
chlor	-12.9498
fabrication	-12.9569
driving	-12.9569
▁confuse	-12.9613
▁grind	-12.9613
▁derive	-12.9616
▁explicit	-12.9621
▁surge	-12.9626
Jeopardy	-12.9628
Sweeney	-12.9628
balancing	-12.9628
determining	-12.9628
▁Between	-12.9628
▁CNN	-12.9628
▁Economist	-12.9628
▁Everglades	-12.9628
▁Magazine	-12.9628
▁Miami	-12.9628
▁Mississippi	-12.9628
▁Oakland	-12.9628
▁Reagan	-12.9628
▁Rosetta	-12.9628
▁Starbucks	-12.9628
▁antibodies	-12.9628
▁asylum	-12.9628
▁auditory	-12.9628
▁capacities	-12.9628
▁coherent	-12.9628
▁efficacy	-12.9628
▁eyebrow	-12.9628
▁giraffe	-12.9628
▁homicide	-12.9628
▁hurry	-12.9628
▁instructor	-12.9628
▁mammography	-12.9628
▁narco	-12.9628
▁pheromone	-12.9628
▁prostitute	-12.9628
▁sapiens	-12.9628
▁simplify	-12.9628
▁solidarity	-12.9628
▁stimulus	-12.9628
▁taxpayer	-12.9628
▁tiniest	-12.9628
clamation	-12.9628
pprentice	-12.9628
revenge	-12.9628
▁Armstrong	-12.9628
▁Colorado	-12.9628
▁Corporation	-12.9628
▁Vancouver	-12.9628
▁Vinci	-12.9628
▁bureaucrac	-12.9628
▁complication	-12.9628
▁conspiracy	-12.9628
▁discomfort	-12.9628
▁discrete	-12.9628
▁evaluation	-12.9628
▁exoplanet	-12.9628
▁extremist	-12.9628
▁identification	-12.9628
▁immigration	-12.9628
▁nudge	-12.9628
▁plague	-12.9628
▁plaster	-12.9628
▁prosecute	-12.9628
▁reconcili	-12.9628
▁seamless	-12.9628
▁semester	-12.9628
▁wrinkle	-12.9628
▁Beyon	-12.9628
▁certified	-12.9628
▁constitute	-12.9628
▁diffuse	-12.9628
▁psychic	-12.9628
▁tectonic	-12.9628
▁ingenious	-12.9628
▁sponge	-12.9628
▁Idaho	-12.9628
▁cynic	-12.9628
▁embed	-12.9628
▁huh	-12.9628
▁hiring	-12.9628
▁motto	-12.9628
▁socket	-12.9628
▁hypoth	-12.9628
▁bookstore	-12.9628
▁bioluminescence	-12.9628
translating	-12.9628
▁Text	-12.9628
dispens	-12.9628
▁Personal	-12.9628
▁pinpoint	-12.9628
▁suitcase	-12.9628
▁Mahat	-12.9628
▁pedal	-12.9628
▁fingerprint	-12.9628
▁counterpart	-12.9628
literate	-12.9628
▁alpha	-12.9628
▁Compare	-12.9629
▁notebook	-12.9629
▁envy	-12.9629
▁pledge	-12.9629
▁hike	-12.9629
plausibl	-12.9629
▁enroll	-12.9629
▁lesion	-12.9629
▁cruise	-12.9629
▁porn	-12.963
▁Palm	-12.9633
▁chok	-12.9636
inister	-12.9646
varian	-12.9665
Uncle	-12.971
industrialized	-12.9724
psychotic	-12.9751
accelerated	-12.9836
generated	-12.9847
conceived	-12.9886
▁circumstance	-12.9929
▁synthesiz	-12.996
communications	-13.0003
author	-13.0004
industrial	-13.0004
growth	-13.0004
grown	-13.0004
people	-13.0004
different	-13.0004
▁acknowledg	-13.0004
lived	-13.0005
▁contradict	-13.0052
▁evaporat	-13.0053
▁deliberate	-13.0055
nterviewer	-13.0062
▁magnifi	-13.0063
▁Agnes	-13.0063
▁Bonobo	-13.0063
▁Bulgaria	-13.0063
▁Cameron	-13.0063
▁Dubai	-13.0063
▁Europa	-13.0063
▁Goliath	-13.0063
▁Guardian	-13.0063
▁Kibera	-13.0063
▁Madagascar	-13.0063
▁Nevada	-13.0063
▁Record	-13.0063
▁StoryCorps	-13.0063
▁Tahrir	-13.0063
▁Tamiflu	-13.0063
▁Tehran	-13.0063
▁Tweet	-13.0063
▁acronym	-13.0063
▁applaud	-13.0063
▁bioluminescent	-13.0063
▁cumulative	-13.0063
▁cyclist	-13.0063
▁dried	-13.0063
▁fission	-13.0063
▁hominid	-13.0063
▁horrified	-13.0063
▁instinctively	-13.0063
▁integral	-13.0063
▁jurisdiction	-13.0063
▁mangrove	-13.0063
▁misconception	-13.0063
▁modular	-13.0063
▁moisture	-13.0063
▁periphery	-13.0063
▁presumably	-13.0063
▁prevalent	-13.0063
▁propeller	-13.0063
▁reckless	-13.0063
▁sniff	-13.0063
▁tadpole	-13.0063
▁toddler	-13.0063
▁tweak	-13.0063
▁unimaginable	-13.0063
Channel	-13.0063
Fantastic	-13.0063
rthodox	-13.0063
▁BBC	-13.0063
▁Circle	-13.0063
▁Club	-13.0063
▁Gaza	-13.0063
▁Hitler	-13.0063
▁Progress	-13.0063
▁Serious	-13.0063
▁Strange	-13.0063
▁accelerator	-13.0063
▁astounding	-13.0063
▁degradation	-13.0063
▁disbelief	-13.0063
▁hijack	-13.0063
▁league	-13.0063
▁memorable	-13.0063
▁multiplie	-13.0063
▁necessit	-13.0063
▁quantify	-13.0063
▁ridicule	-13.0063
▁sprawl	-13.0063
▁virtuous	-13.0063
▁whistling	-13.0063
▁Discover	-13.0063
▁Fahrenheit	-13.0063
▁Falcon	-13.0063
▁Federal	-13.0063
▁arithmetic	-13.0063
▁disparate	-13.0063
▁dominance	-13.0063
▁ninth	-13.0063
▁vague	-13.0063
▁classmates	-13.0063
▁sterile	-13.0063
izzy	-13.0063
▁discourag	-13.0063
▁qualify	-13.0063
▁residu	-13.0063
▁Isaac	-13.0063
▁scandal	-13.0063
▁Early	-13.0063
▁swirl	-13.0063
▁pub	-13.0063
Houston	-13.0063
▁Saint	-13.0063
▁uprising	-13.0063
▁flatten	-13.0063
▁Edison	-13.0063
▁inhabitants	-13.0063
▁imaginative	-13.0063
▁dictatorship	-13.0063
▁shave	-13.0063
▁banjo	-13.0063
▁bolt	-13.0063
▁Conference	-13.0063
▁championship	-13.0063
▁cosmetic	-13.0063
▁Moses	-13.0064
phobic	-13.0064
gently	-13.0064
▁Jenn	-13.0065
▁hostilit	-13.0065
▁horn	-13.0065
▁Self	-13.0067
esterday	-13.0073
aptain	-13.0074
ecca	-13.0081
▁rub	-13.0095
strapped	-13.0105
▁graceful	-13.0148
loyalty	-13.0151
▁nurs	-13.0153
carved	-13.0209
politi	-13.0221
Contra	-13.0229
Huh	-13.0233
cross	-13.0362
genesis	-13.0368
▁ensu	-13.038
skies	-13.0398
break	-13.0434
rhythm	-13.0458
Just	-13.0458
activate	-13.0469
resolved	-13.0486
▁thrill	-13.0501
▁amaze	-13.0503
▁desperat	-13.0512
cademy	-13.0513
▁Antarctic	-13.0515
▁valu	-13.0516
▁hallucinat	-13.0517
ocracy	-13.0517
▁intellect	-13.0517
galactic	-13.0517
▁Achilles	-13.0517
▁CERN	-13.0517
▁Collider	-13.0517
▁Convention	-13.0517
▁Essentially	-13.0517
▁Exxon	-13.0517
▁Flickr	-13.0517
▁Galileo	-13.0517
▁Gordon	-13.0517
▁Jonathan	-13.0517
▁Lakota	-13.0517
▁MBA	-13.0517
▁Nanopatch	-13.0517
▁Oliver	-13.0517
▁Sebastian	-13.0517
▁Toyota	-13.0517
▁Vietnamese	-13.0517
▁aerodynamic	-13.0517
▁amplify	-13.0517
▁apparatus	-13.0517
▁arrival	-13.0517
▁blunt	-13.0517
▁bruise	-13.0517
▁brute	-13.0517
▁butterflies	-13.0517
▁cafeteria	-13.0517
▁carpenter	-13.0517
▁centigrade	-13.0517
▁ceramic	-13.0517
▁cereal	-13.0517
▁contributor	-13.0517
▁daunting	-13.0517
▁deceased	-13.0517
▁drank	-13.0517
▁drastic	-13.0517
▁elusive	-13.0517
▁energetic	-13.0517
▁facade	-13.0517
▁indulge	-13.0517
▁junior	-13.0517
▁lettuce	-13.0517
▁lithium	-13.0517
▁magnify	-13.0517
▁microwave	-13.0517
▁napkin	-13.0517
▁oxide	-13.0517
▁participatory	-13.0517
▁patron	-13.0517
▁penicillin	-13.0517
▁perpetual	-13.0517
▁reception	-13.0517
▁skyscraper	-13.0517
▁supplier	-13.0517
▁susceptible	-13.0517
▁tactics	-13.0517
▁transgender	-13.0517
▁unfamiliar	-13.0517
▁unlimited	-13.0517
▁unnatural	-13.0517
▁unnecessary	-13.0517
▁unpleasant	-13.0517
▁unthinkable	-13.0517
▁uranium	-13.0517
▁widow	-13.0517
▁yogurt	-13.0517
tumbling	-13.0517
▁Jesse	-13.0517
▁constellation	-13.0517
▁gorilla	-13.0517
▁reservation	-13.0517
▁sanctuar	-13.0517
▁simplifie	-13.0517
▁CIA	-13.0517
▁Survey	-13.0517
▁arteries	-13.0517
▁casualties	-13.0517
▁gamma	-13.0517
▁shiny	-13.0517
▁ignite	-13.0517
▁Aaron	-13.0517
▁Potter	-13.0517
▁Witness	-13.0517
▁maze	-13.0517
▁excavat	-13.0517
▁stink	-13.0517
▁fungus	-13.0517
▁hydrocarbon	-13.0517
▁Lesters	-13.0517
▁IMF	-13.0517
▁Politic	-13.0517
▁eliminating	-13.0517
▁pollinate	-13.0517
▁Lanka	-13.0517
▁Glenn	-13.0518
▁hull	-13.0518
▁admission	-13.0518
▁replicator	-13.0518
▁Theater	-13.0518
▁hunch	-13.0518
▁subset	-13.0518
▁Caltech	-13.0518
▁outfit	-13.0518
▁bald	-13.0518
▁anchor	-13.0518
durable	-13.0519
▁Malawi	-13.0519
omorrow	-13.0519
▁halt	-13.052
Solomon	-13.052
▁Face	-13.052
▁electora	-13.0522
▁hedge	-13.0522
▁Plato	-13.0523
▁clam	-13.0527
anagement	-13.053
▁patrol	-13.0534
gatherer	-13.0536
▁appreciat	-13.0541
spective	-13.0549
Turkish	-13.0605
▁resembl	-13.0658
vaded	-13.0684
imposed	-13.0708
Maryland	-13.077
Cause	-13.0793
mounted	-13.0852
science	-13.0934
Hello	-13.0934
computer	-13.0934
understood	-13.0934
blood	-13.0935
machine	-13.0935
othing	-13.0967
nutrient	-13.0993
▁narrat	-13.0993
megawatt	-13.0993
assembling	-13.0993
dividing	-13.0993
▁Anonymous	-13.0993
▁Bahamas	-13.0993
▁Bonica	-13.0993
▁Cassini	-13.0993
▁Financial	-13.0993
▁Hungarian	-13.0993
▁Innovation	-13.0993
▁Jennifer	-13.0993
▁Movember	-13.0993
▁Normally	-13.0993
▁PDF	-13.0993
▁Panbanisha	-13.0993
▁Photoshop	-13.0993
▁Rachel	-13.0993
▁Raisuddin	-13.0993
▁WHO	-13.0993
▁accumulation	-13.0993
▁acquisition	-13.0993
▁advancing	-13.0993
▁adversity	-13.0993
▁appetite	-13.0993
▁aquaculture	-13.0993
▁atrazine	-13.0993
▁availability	-13.0993
▁barbershop	-13.0993
▁benchmark	-13.0993
▁bronze	-13.0993
▁circum	-13.0993
▁cochlea	-13.0993
▁crochet	-13.0993
▁deceive	-13.0993
▁decipher	-13.0993
▁deflect	-13.0993
▁heartbeat	-13.0993
▁humidity	-13.0993
▁hummingbird	-13.0993
▁hypertension	-13.0993
▁imbalance	-13.0993
▁incarcerated	-13.0993
▁mismatch	-13.0993
▁pornography	-13.0993
▁premature	-13.0993
▁primordial	-13.0993
▁scarcity	-13.0993
▁segregat	-13.0993
▁socioeconomic	-13.0993
▁subsidies	-13.0993
▁superconductor	-13.0993
▁terrestrial	-13.0993
▁treadmill	-13.0993
▁tribute	-13.0993
▁ultrasound	-13.0993
▁vegetarian	-13.0993
▁width	-13.0993
▁Current	-13.0993
▁Engineer	-13.0993
▁Isabel	-13.0993
▁Maldiv	-13.0993
▁Picture	-13.0993
▁Soldier	-13.0993
▁hyena	-13.0993
▁immoral	-13.0993
▁modification	-13.0993
▁reservoir	-13.0993
▁territori	-13.0993
▁trump	-13.0993
▁tyrann	-13.0993
▁utopia	-13.0993
accumulating	-13.0994
disturbed	-13.0994
separating	-13.0994
▁Control	-13.0994
▁Laborator	-13.0994
▁Odysse	-13.0994
▁cherish	-13.0994
▁comprised	-13.0994
▁mutilate	-13.0994
▁proxy	-13.0994
▁seminal	-13.0994
▁zoning	-13.0994
▁Raise	-13.0994
▁Ryan	-13.0994
▁hippie	-13.0994
▁salad	-13.0994
feminine	-13.0994
▁notorious	-13.0994
▁condense	-13.0994
▁Shoot	-13.0994
▁lemon	-13.0994
▁roost	-13.0994
▁bait	-13.0994
▁mound	-13.0994
▁olive	-13.0994
▁outdated	-13.0994
▁sunset	-13.0994
▁Clark	-13.0994
▁subtract	-13.0994
▁Protect	-13.0994
▁mantis	-13.0994
▁comedian	-13.0994
▁geologist	-13.0995
▁verify	-13.0995
▁allocate	-13.0995
▁aisle	-13.0996
▁griev	-13.0998
bullying	-13.0998
▁assert	-13.1
▁restrain	-13.1001
▁Equ	-13.1007
▁Understand	-13.1014
▁peacekeep	-13.1053
dicated	-13.107
▁unbelievabl	-13.112
▁slid	-13.1227
▁optimist	-13.1301
disposal	-13.1302
technology	-13.1373
mentality	-13.1376
blown	-13.1434
confidence	-13.1434
intelligent	-13.1434
Maybe	-13.1434
People	-13.1435
▁Scot	-13.1436
bility	-13.1488
▁thou	-13.1493
▁interdependenc	-13.1493
nstrual	-13.1493
sanitary	-13.1493
wrestling	-13.1493
▁Ecuador	-13.1493
▁Everywhere	-13.1493
▁Excellent	-13.1493
▁Hebrew	-13.1493
▁Hurricane	-13.1493
▁Lesterland	-13.1493
▁Melinda	-13.1493
▁Midwest	-13.1493
▁Moscow	-13.1493
▁Papua	-13.1493
▁Pearl	-13.1493
▁Thousands	-13.1493
▁advocacy	-13.1493
▁anonymity	-13.1493
▁arguably	-13.1493
▁arthriti	-13.1493
▁calibrat	-13.1493
▁charcoal	-13.1493
▁desalination	-13.1493
▁detriment	-13.1493
▁doctrine	-13.1493
▁doodling	-13.1493
▁dwarf	-13.1493
▁embryonic	-13.1493
▁energies	-13.1493
▁enslave	-13.1493
▁exhilarating	-13.1493
▁fatigue	-13.1493
▁infinity	-13.1493
▁influenza	-13.1493
▁knitting	-13.1493
▁philanthropist	-13.1493
▁plasma	-13.1493
▁pollinators	-13.1493
▁pragmatic	-13.1493
▁prominent	-13.1493
▁rearrange	-13.1493
▁revolt	-13.1493
▁rotten	-13.1493
▁scrambl	-13.1493
▁serotonin	-13.1493
▁snack	-13.1493
▁supermassive	-13.1493
▁toothbrush	-13.1493
▁unravel	-13.1493
▁vendor	-13.1493
▁Collect	-13.1494
▁Harlem	-13.1494
▁appointment	-13.1494
▁discharge	-13.1494
▁disclose	-13.1494
▁forensic	-13.1494
▁glance	-13.1494
▁gyrus	-13.1494
▁jealous	-13.1494
▁scissors	-13.1494
▁unhealthy	-13.1494
▁venom	-13.1494
▁Commun	-13.1494
▁Effect	-13.1494
▁Hudson	-13.1494
▁Special	-13.1494
▁Titus	-13.1494
▁credible	-13.1494
▁inferior	-13.1494
▁kitten	-13.1494
▁wilderness	-13.1494
▁Judge	-13.1494
▁Traditional	-13.1494
▁stockpile	-13.1494
sampling	-13.1494
▁offense	-13.1494
▁Oscar	-13.1494
▁millennium	-13.1494
▁premier	-13.1494
▁lyric	-13.1494
▁Close	-13.1494
▁Rosling	-13.1494
▁inertia	-13.1494
▁Film	-13.1495
degrading	-13.1496
▁underlie	-13.1496
▁yog	-13.1496
▁tapestr	-13.1497
▁sentien	-13.1497
▁clarify	-13.1499
▁categorize	-13.1507
replication	-13.1521
llusion	-13.1528
Aye	-13.156
definition	-13.159
▁inclin	-13.163
commissioned	-13.1661
▁redefin	-13.1769
▁increment	-13.1783
▁replica	-13.1802
▁anticipat	-13.1832
heav	-13.1832
haired	-13.1912
▁loyal	-13.1914
estament	-13.1928
fifth	-13.1961
performance	-13.1961
teacher	-13.1961
ustainable	-13.2019
▁legitima	-13.2019
incidence	-13.2019
rilliant	-13.2019
▁flour	-13.2019
bject	-13.2019
▁jelly	-13.202
▁nanotube	-13.202
▁plutocrat	-13.202
▁relentless	-13.202
▁Botswana	-13.202
▁Dublin	-13.202
▁Enceladus	-13.202
▁Fibonacci	-13.202
▁Kentucky	-13.202
▁Matthew	-13.202
▁Origin	-13.202
▁Senegal	-13.202
▁Sergio	-13.202
▁Voyager	-13.202
▁anthropology	-13.202
▁bankrupt	-13.202
▁biomedical	-13.202
▁blaming	-13.202
▁congratulat	-13.202
▁dairy	-13.202
▁dashboard	-13.202
▁derivative	-13.202
▁diffusion	-13.202
▁dyslexi	-13.202
▁embody	-13.202
▁entrenche	-13.202
▁epidemiologi	-13.202
▁evoke	-13.202
▁frugal	-13.202
▁hydrant	-13.202
▁imitation	-13.202
▁infamous	-13.202
▁influential	-13.202
▁laureate	-13.202
▁maternal	-13.202
▁menstruation	-13.202
▁microRNA	-13.202
▁nephew	-13.202
▁outweigh	-13.202
▁pavilion	-13.202
▁plummet	-13.202
▁pollination	-13.202
▁portfolio	-13.202
▁postcards	-13.202
▁seatbelt	-13.202
▁squeak	-13.202
▁stubborn	-13.202
▁suspens	-13.202
▁synesthesia	-13.202
▁temporarily	-13.202
▁trawl	-13.202
▁vertebrate	-13.202
Thanksgiving	-13.202
▁Amanda	-13.202
▁Barbie	-13.202
▁Campaign	-13.202
▁Extreme	-13.202
▁Generation	-13.202
▁Hopkins	-13.202
▁bargain	-13.202
▁convuls	-13.202
▁ecologist	-13.202
▁engulf	-13.202
▁foremost	-13.202
▁geese	-13.202
▁handbag	-13.202
▁leisure	-13.202
▁logistics	-13.202
▁measles	-13.202
▁puzzling	-13.202
▁repositor	-13.202
▁reprogram	-13.202
▁spores	-13.202
▁tornado	-13.202
▁Balkan	-13.202
▁Shortly	-13.202
▁apprais	-13.202
▁cramm	-13.202
▁discriminate	-13.202
▁intestine	-13.202
▁irregular	-13.202
▁joking	-13.202
▁peripheral	-13.202
▁preoccup	-13.202
▁prestig	-13.202
▁puppy	-13.202
▁retriev	-13.202
▁ribbon	-13.202
▁teapot	-13.202
▁buffer	-13.202
▁parrot	-13.202
▁encompass	-13.202
▁knob	-13.202
▁niche	-13.202
▁plume	-13.202
▁purse	-13.202
▁Dream	-13.202
▁tether	-13.202
▁crave	-13.202
▁Tiger	-13.202
▁atrocit	-13.202
▁withstand	-13.202
Sleep	-13.202
▁Morocc	-13.202
▁guru	-13.202
▁metasta	-13.202
▁southwest	-13.202
▁crisp	-13.202
▁paranoi	-13.202
ologues	-13.202
▁endemic	-13.2021
▁fringe	-13.2021
▁implie	-13.2023
assisted	-13.2023
▁skydiv	-13.2028
ollen	-13.2048
colonization	-13.2094
▁antiqu	-13.2131
Daddy	-13.2151
▁dissect	-13.2231
satisfying	-13.2317
▁revolv	-13.2322
connected	-13.2325
▁procrastinat	-13.2339
▁subsidiz	-13.234
Actor	-13.2347
▁tub	-13.2387
rotting	-13.2435
keeping	-13.2448
troverted	-13.246
spiration	-13.247
what	-13.2509
shelf	-13.2516
protected	-13.2516
grain	-13.2516
normal	-13.2516
▁atmospher	-13.2549
▁locate	-13.2561
▁evolutionarily	-13.2575
▁predominant	-13.2575
decisive	-13.2575
destruct	-13.2575
tactile	-13.2575
▁ADHD	-13.2575
▁Alfred	-13.2575
▁Baghdad	-13.2575
▁Bassem	-13.2575
▁Chicken	-13.2575
▁DIY	-13.2575
▁Disease	-13.2575
▁Embassy	-13.2575
▁Festival	-13.2575
▁Galois	-13.2575
▁Helvetica	-13.2575
▁IDEO	-13.2575
▁Illinois	-13.2575
▁Laptop	-13.2575
▁Mahmoud	-13.2575
▁Malaysia	-13.2575
▁McGowan	-13.2575
▁Mongolia	-13.2575
▁Nicholas	-13.2575
▁Picasso	-13.2575
▁Stirling	-13.2575
▁Stockholm	-13.2575
▁Studio	-13.2575
▁Ukraine	-13.2575
▁Uruguay	-13.2575
▁Walmart	-13.2575
▁academia	-13.2575
▁albeit	-13.2575
▁artisan	-13.2575
▁asymmetric	-13.2575
▁biography	-13.2575
▁bipolar	-13.2575
▁brilliance	-13.2575
▁bumblebee	-13.2575
▁conceivabl	-13.2575
▁dementia	-13.2575
▁epilepsy	-13.2575
▁gloom	-13.2575
▁impairment	-13.2575
▁inorganic	-13.2575
▁litigation	-13.2575
▁malware	-13.2575
▁medicinal	-13.2575
▁messenger	-13.2575
▁motivator	-13.2575
▁persuasive	-13.2575
▁plywood	-13.2575
▁privatiz	-13.2575
▁provocative	-13.2575
▁questionnaire	-13.2575
▁repetitive	-13.2575
▁skyrocket	-13.2575
▁sophistication	-13.2575
▁squirrel	-13.2575
▁synonymous	-13.2575
▁thermostat	-13.2575
▁umbrella	-13.2575
motivating	-13.2575
▁Capital	-13.2575
▁Enlightenment	-13.2575
▁Hispanic	-13.2575
▁Mathematica	-13.2575
▁affluen	-13.2575
▁autobiograph	-13.2575
▁avenue	-13.2575
▁bonobo	-13.2575
▁bundle	-13.2575
▁disintegrat	-13.2575
▁doodle	-13.2575
▁elevation	-13.2575
▁multiplic	-13.2575
▁offenders	-13.2575
▁relocate	-13.2575
▁troubling	-13.2575
▁Evolution	-13.2575
▁Gwen	-13.2575
▁Magic	-13.2575
▁abalone	-13.2575
▁filament	-13.2575
▁precursor	-13.2575
▁refresh	-13.2575
▁schizophrenic	-13.2575
▁sermon	-13.2575
▁transcript	-13.2575
Mandarin	-13.2575
▁absent	-13.2575
▁decay	-13.2575
▁marble	-13.2575
▁mediocr	-13.2575
▁shrunk	-13.2575
▁windmill	-13.2575
▁Bueno	-13.2575
▁naught	-13.2575
▁Batman	-13.2575
▁bleach	-13.2575
▁inquiry	-13.2575
▁latter	-13.2575
▁strawberr	-13.2575
▁scribbl	-13.2575
requiring	-13.2575
▁perfume	-13.2576
saturated	-13.2576
▁costume	-13.2576
stellar	-13.2576
▁defecat	-13.2576
▁contingen	-13.2576
prescribed	-13.2576
▁warrant	-13.2576
endurance	-13.2576
Foreign	-13.2577
▁Northwest	-13.2577
grabbing	-13.2579
▁resume	-13.2582
enchant	-13.2591
▁visualiz	-13.2591
▁salv	-13.2602
▁Tyle	-13.2611
▁Berg	-13.2619
building	-13.2648
ticipation	-13.2649
orbital	-13.2671
transcendence	-13.2691
▁reshape	-13.2762
▁insula	-13.2795
onset	-13.2874
quietly	-13.2889
▁aggregat	-13.2996
confirmed	-13.3006
▁advocat	-13.3036
▁unchang	-13.3072
evolution	-13.3103
mobile	-13.3104
organization	-13.3105
figure	-13.3105
World	-13.3105
focus	-13.3105
nversely	-13.3156
eautiful	-13.3163
Citizen	-13.3164
aggression	-13.3164
percussion	-13.3164
▁Archimedes	-13.3164
▁Architectur	-13.3164
▁Austin	-13.3164
▁Beatles	-13.3164
▁CAPTCHA	-13.3164
▁Celsius	-13.3164
▁Challenge	-13.3164
▁Choir	-13.3164
▁Elephant	-13.3164
▁Hampshire	-13.3164
▁Harbor	-13.3164
▁Hiroshima	-13.3164
▁IKEA	-13.3164
▁Jacques	-13.3164
▁Kabul	-13.3164
▁Minnesota	-13.3164
▁Mitchell	-13.3164
▁Monkey	-13.3164
▁NIH	-13.3164
▁Reserve	-13.3164
▁Thursday	-13.3164
▁USDA	-13.3164
▁activation	-13.3164
▁administrative	-13.3164
▁amplifie	-13.3164
▁amygdala	-13.3164
▁antiangiogenic	-13.3164
▁antidote	-13.3164
▁arrogant	-13.3164
▁asphalt	-13.3164
▁butterfly	-13.3164
▁circus	-13.3164
▁cockpit	-13.3164
▁coconut	-13.3164
▁diabetic	-13.3164
▁exoskeleton	-13.3164
▁gradient	-13.3164
▁hardwired	-13.3164
▁heterosexual	-13.3164
▁intractable	-13.3164
▁legislators	-13.3164
▁leukemia	-13.3164
▁lexicon	-13.3164
▁librarians	-13.3164
▁lightbulb	-13.3164
▁monolith	-13.3164
▁ominous	-13.3164
▁paintbrush	-13.3164
▁pennies	-13.3164
▁petroleum	-13.3164
▁pinnacle	-13.3164
▁precaution	-13.3164
▁pseudo	-13.3164
▁reversal	-13.3164
▁rhyme	-13.3164
▁sensual	-13.3164
▁squatter	-13.3164
▁substrate	-13.3164
▁synagogue	-13.3164
▁unexplored	-13.3164
▁wield	-13.3164
▁Cloud	-13.3164
▁Mellon	-13.3164
▁Portuguese	-13.3164
▁cascade	-13.3164
▁fountain	-13.3164
▁jerk	-13.3164
▁penetrati	-13.3164
▁reckon	-13.3164
▁stitch	-13.3164
▁Anthon	-13.3164
▁Delta	-13.3164
▁Fifth	-13.3164
▁conjure	-13.3164
▁crease	-13.3164
▁multimedia	-13.3164
▁occurrence	-13.3164
▁shaft	-13.3164
▁trek	-13.3164
▁typograph	-13.3164
▁palace	-13.3164
▁Hunter	-13.3164
▁defy	-13.3164
▁hawk	-13.3164
▁incision	-13.3164
▁trance	-13.3164
▁Ranger	-13.3164
▁marsh	-13.3164
Awesome	-13.3164
▁Horse	-13.3164
▁extrapolat	-13.3164
▁paddle	-13.3164
Mobile	-13.3164
▁culminat	-13.3164
▁Bowl	-13.3164
▁neurobiolog	-13.3164
▁saddle	-13.3164
▁ministr	-13.3164
▁Needles	-13.3165
▁wobbl	-13.3165
▁Erik	-13.3165
▁cofounde	-13.3166
▁Crime	-13.3169
Leave	-13.3171
▁empti	-13.3172
oetry	-13.3176
elope	-13.3178
▁improvis	-13.3195
Vision	-13.3198
ucifer	-13.3204
▁introvert	-13.3288
▁peacebuild	-13.3299
ficially	-13.3375
graduation	-13.3392
defined	-13.3436
▁carcinogen	-13.355
▁dynam	-13.3564
▁collaps	-13.3724
sufficient	-13.3729
historic	-13.3729
Life	-13.373
happiness	-13.373
billion	-13.373
girl	-13.3737
▁innocen	-13.3758
▁Build	-13.3772
▁accord	-13.3772
▁champ	-13.3779
▁initiati	-13.378
▁militar	-13.3782
▁Develop	-13.3788
ynthetic	-13.3788
enhancing	-13.3789
nitiative	-13.3789
▁Alexandria	-13.3789
▁Asperger	-13.3789
▁Aurora	-13.3789
▁Broadway	-13.3789
▁Cochrane	-13.3789
▁EEG	-13.3789
▁HeForShe	-13.3789
▁Mechanical	-13.3789
▁Mubarak	-13.3789
▁NATO	-13.3789
▁Nollywood	-13.3789
▁OPEC	-13.3789
▁Orchestra	-13.3789
▁Rockefeller	-13.3789
▁Saddam	-13.3789
▁Sudhir	-13.3789
▁TEDGlobal	-13.3789
▁Vermeer	-13.3789
▁Vienna	-13.3789
▁Wednesday	-13.3789
▁bedrock	-13.3789
▁beehive	-13.3789
▁brothel	-13.3789
▁burglar	-13.3789
▁credibility	-13.3789
▁daydream	-13.3789
▁definitive	-13.3789
▁denominator	-13.3789
▁disguise	-13.3789
▁dismantle	-13.3789
▁embodiment	-13.3789
▁empathize	-13.3789
▁extremism	-13.3789
▁franchise	-13.3789
▁ghetto	-13.3789
▁grazing	-13.3789
▁hyperbolic	-13.3789
▁insignificant	-13.3789
▁intermediate	-13.3789
▁judging	-13.3789
▁laparoscopic	-13.3789
▁malignant	-13.3789
▁neurologist	-13.3789
▁neutrino	-13.3789
▁numerical	-13.3789
▁opaque	-13.3789
▁philanthropic	-13.3789
▁phthalates	-13.3789
▁pigmentation	-13.3789
▁practitioner	-13.3789
▁proximity	-13.3789
▁rehearsal	-13.3789
▁revisit	-13.3789
▁ruthless	-13.3789
▁sabbatical	-13.3789
▁snippet	-13.3789
▁spreadsheet	-13.3789
▁sprinkle	-13.3789
▁striving	-13.3789
▁surrogate	-13.3789
▁suspicion	-13.3789
▁tragedies	-13.3789
▁volts	-13.3789
Vagina	-13.3789
▁Blair	-13.3789
▁Dragon	-13.3789
▁Statistic	-13.3789
▁amphibian	-13.3789
▁dengue	-13.3789
▁detergent	-13.3789
▁investigator	-13.3789
▁jumble	-13.3789
▁pianist	-13.3789
▁terabyte	-13.3789
exercising	-13.3789
extraterrestrial	-13.3789
pronounced	-13.3789
▁Eames	-13.3789
▁Gando	-13.3789
▁Happi	-13.3789
▁Mauriti	-13.3789
▁Serbia	-13.3789
▁Shame	-13.3789
▁psychotherap	-13.3789
▁retaliat	-13.3789
▁shaman	-13.3789
▁smack	-13.3789
▁porch	-13.3789
▁reunite	-13.3789
▁Visual	-13.3789
▁devour	-13.3789
▁crippl	-13.3789
▁Floren	-13.3789
eminent	-13.3789
▁triangula	-13.3789
▁Jacob	-13.3789
▁cohesi	-13.3789
▁lenti	-13.3789
Search	-13.3789
▁cortic	-13.3789
▁decompos	-13.379
▁Correct	-13.379
▁induce	-13.3818
▁verifi	-13.3864
harmonic	-13.3868
contacted	-13.3909
althiest	-13.3918
▁glori	-13.3987
▁attribut	-13.3996
focal	-13.4033
▁classify	-13.4046
▁neurologic	-13.4341
predictability	-13.4344
▁incorporat	-13.4354
pplied	-13.4365
portrait	-13.4396
written	-13.4396
nuclear	-13.4396
factor	-13.4397
▁fusi	-13.4411
▁paralyz	-13.4439
▁fragil	-13.445
▁kilowatt	-13.4455
piracy	-13.4455
twentieth	-13.4455
▁Airbnb	-13.4455
▁Barbara	-13.4455
▁Cameroon	-13.4455
▁Chernobyl	-13.4455
▁DDT	-13.4455
▁Dimitri	-13.4455
▁Eleanor	-13.4455
▁Emmanuel	-13.4455
▁Gabriel	-13.4455
▁Geiger	-13.4455
▁Gertrude	-13.4455
▁Hannah	-13.4455
▁Istanbul	-13.4455
▁Julius	-13.4455
▁Mermaid	-13.4455
▁Mouaz	-13.4455
▁Neumann	-13.4455
♫	-15.1912
