<unk>	0
<s>	0
</s>	0
__SEP__	0
,	-2.92369
▁	-2.94913
的	-3.36679
。	-3.41056
了	-4.87689
是	-4.97271
在	-4.98733
和	-5.22944
我	-5.25598
0	-5.35092
我们	-5.36203
▁我	-5.50544
?	-5.52346
▁我们	-5.61895
有	-5.63792
上	-5.73013
一个	-5.77923
你	-5.81703
:	-5.88072
中	-5.88089
1	-5.89531
人	-5.91547
不	-6.02274
到	-6.03099
他们	-6.05125
▁在	-6.08067
说	-6.09408
这个	-6.14208
”	-6.15268
这些	-6.16253
来	-6.16651
它	-6.20058
里	-6.20893
会	-6.21531
“	-6.22548
被	-6.24712
他	-6.25457
2	-6.25798
、	-6.27973
地	-6.29183
用	-6.30578
▁他们	-6.32237
这	-6.32407
去	-6.35211
时	-6.35297
▁这	-6.39031
一	-6.39208
对	-6.41828
.	-6.42813
就	-6.47126
都	-6.47724
从	-6.5168
年	-6.53821
大	-6.54484
可以	-6.56806
▁你	-6.56812
5	-6.57915
▁但	-6.60072
▁所以	-6.61791
能	-6.6362
开始	-6.63628
着	-6.64236
要	-6.64541
也	-6.64791
▁但是	-6.65572
就是	-6.66571
为	-6.66912
很	-6.67077
▁他	-6.6826
▁它	-6.71902
的人	-6.72165
没有	-6.72836
一些	-6.75589
▁这是	-6.77451
做	-6.77689
性	-6.78343
与	-6.78722
的时候	-6.79169
▁而	-6.79543
将	-6.79945
——	-6.80529
出	-6.81639
把	-6.81999
那些	-6.82242
想	-6.82277
过	-6.82398
下	-6.82455
个	-6.836
▁“	-6.84395
呢	-6.8579
她	-6.86984
▁因为	-6.87008
9	-6.87214
问题	-6.87708
非常	-6.88997
3	-6.90859
得	-6.91705
好	-6.94973
后	-6.95453
最	-6.9646
它们	-6.98188
看	-6.9873
者	-6.99308
--	-6.99313
你们	-6.99325
那	-7.01249
所	-7.01739
。”	-7.0315
小	-7.03382
而	-7.0402
工作	-7.0403
自己	-7.0408
▁现在	-7.06354
更	-7.07183
子	-7.0846
多	-7.08575
▁然后	-7.10075
4	-7.10687
人们	-7.11206
一样	-7.11323
于	-7.12717
需要	-7.13705
这种	-7.16228
研究	-7.16988
使用	-7.18485
现在	-7.18769
世界	-7.19499
▁是	-7.20682
点	-7.20916
还	-7.2241
什么	-7.23286
吗	-7.23334
向	-7.23429
我的	-7.23751
水	-7.23948
比	-7.24108
·	-7.24474
不是	-7.24611
们	-7.24709
▁这些	-7.25168
前	-7.25535
8	-7.26221
手	-7.27802
已经	-7.27809
一种	-7.28174
看到	-7.28739
我们的	-7.29035
发现	-7.29282
▁这个	-7.29452
知道	-7.32136
6	-7.32309
以	-7.34155
又	-7.34865
给	-7.35191
斯	-7.36475
改变	-7.3739
这样	-7.375
▁如果	-7.37987
或	-7.38199
进行	-7.39317
可	-7.4019
7	-7.40283
可能	-7.40999
高	-7.4126
像	-7.41584
人类	-7.41711
▁而且	-7.42018
让	-7.42273
时间	-7.42505
能够	-7.42562
家	-7.43015
长	-7.44935
▁和	-7.4566
新	-7.45827
▁她	-7.45981
无	-7.46281
很多	-7.46547
系统	-7.46548
头	-7.47459
设计	-7.48535
起	-7.49074
如何	-7.49351
▁并且	-7.49444
的东西	-7.50288
事	-7.50381
社会	-7.50819
▁它们	-7.50911
▁从	-7.53199
技术	-7.53761
都是	-7.54015
因为	-7.54111
)	-7.5442
你的	-7.5485
▁如果你	-7.5548
美国	-7.56042
成	-7.56092
%	-7.56577
通过	-7.57239
内	-7.57368
光	-7.57504
不同	-7.57528
拉	-7.57923
这是	-7.58843
所有	-7.59006
其他	-7.59243
是一个	-7.59263
尔	-7.59472
▁那	-7.59546
正	-7.59749
公司	-7.59854
开	-7.60643
心	-7.61005
这样的	-7.61268
认为	-7.61549
化	-7.61575
力	-7.61685
之	-7.61711
!	-7.62923
车	-7.63165
的地方	-7.63388
决定	-7.6352
再	-7.63598
▁因此	-7.63722
那个	-7.6421
并	-7.64473
▁来	-7.64762
学	-7.64863
真的	-7.64922
国家	-7.65004
当	-7.65662
发	-7.65681
的是	-7.65738
▁那么	-7.6595
▁一个	-7.66027
▁我想	-7.66429
一下	-7.6705
完全	-7.67119
吧	-7.67169
天	-7.67205
▁并	-7.67386
不会	-7.67941
:“	-7.68034
生	-7.68497
特	-7.68957
任何	-7.69021
只	-7.69114
或者	-7.69158
选择	-7.69875
跟	-7.69985
不能	-7.70127
体	-7.70236
"	-7.70611
只是	-7.71037
关于	-7.71496
-	-7.71827
之后	-7.72478
问	-7.73455
信息	-7.73821
动	-7.74141
还是	-7.74183
东西	-7.75191
▁当	-7.75197
▁就是	-7.76287
外	-7.76399
数据	-7.76442
得到	-7.76592
孩子	-7.76974
来说	-7.7747
希望	-7.77587
面	-7.77835
两	-7.77864
成为	-7.77906
爱	-7.78643
▁或者	-7.78711
他们的	-7.79076
打	-7.79826
科学	-7.80022
克	-7.80412
行	-7.80429
组织	-7.81027
了解	-7.81129
▁以及	-7.81201
分	-7.81447
三	-7.8174
的话	-7.82525
拥有	-7.82649
▁还有	-7.82769
政府	-7.8308
?”	-7.83962
之前	-7.84389
自己的	-7.84565
但	-7.84733
有一个	-7.85391
自	-7.85846
带	-7.85854
正在	-7.86058
没	-7.86595
应该	-7.86682
的问题	-7.86904
理解	-7.87887
机	-7.88138
起来	-7.88677
,“	-7.88932
讲	-7.89007
走	-7.89564
太	-7.90165
出来	-7.9057
叫	-7.90987
城市	-7.911
不同的	-7.91169
一起	-7.9127
动物	-7.9171
中的	-7.91728
发展	-7.92161
▁有	-7.92283
帮助	-7.92311
重	-7.92647
事情	-7.92706
学习	-7.92758
却	-7.92908
我想	-7.93213
无法	-7.93403
教育	-7.93459
大家	-7.93635
还有	-7.94027
先	-7.94275
的事情	-7.94355
如果	-7.94556
数	-7.94837
图	-7.9574
为什么	-7.95869
发生	-7.9587
并不	-7.96114
才	-7.962
生活	-7.96262
▁--	-7.96823
来自	-7.9718
网络	-7.97221
就会	-7.97568
器	-7.97817
▁当然	-7.97868
海	-7.9797
听	-7.98891
▁事实上	-7.99092
利	-7.99172
种	-7.99821
的方式	-8.00153
德	-8.00163
▁你们	-8.00193
e	-8.00252
真正	-8.00355
找到	-8.00428
马	-8.0072
影响	-8.00727
细胞	-8.01002
到了	-8.01269
度	-8.01315
写	-8.01375
思考	-8.01711
线	-8.01754
全球	-8.01904
电	-8.02195
整个	-8.02641
名	-8.02756
量	-8.02874
方式	-8.03432
▁这就是	-8.03436
A	-8.03802
让我	-8.03973
想要	-8.04059
生命	-8.04495
花	-8.04655
一次	-8.04797
万	-8.05045
对于	-8.05226
然后	-8.05424
创造	-8.05867
是个	-8.06254
作	-8.0642
这里	-8.06685
音乐	-8.0693
方面	-8.07003
只有	-8.07026
▁就	-8.07451
流	-8.07495
等	-8.07641
控制	-8.07882
回	-8.08109
那么	-8.08131
怎么	-8.08394
两个	-8.08449
甚至	-8.08461
变	-8.08789
▁对	-8.08845
画	-8.08911
经济	-8.09361
钱	-8.09473
;	-8.09729
利用	-8.0978
其	-8.09839
上的	-8.09841
身	-8.10132
岁	-8.10201
相信	-8.10319
今天	-8.10373
安全	-8.10424
一点	-8.10485
生物	-8.11146
了一个	-8.11187
也是	-8.11208
入	-8.1129
门	-8.11368
科技	-8.1177
让我们	-8.11829
电脑	-8.12269
放	-8.12408
由	-8.12432
间	-8.12506
提供	-8.12542
如此	-8.12557
日	-8.1258
女性	-8.12849
以及	-8.12883
▁也	-8.12957
环境	-8.13198
每	-8.13396
一直	-8.1343
本	-8.13481
把它	-8.13527
如果你	-8.13889
这一	-8.14012
场	-8.14043
健康	-8.14426
吃	-8.14731
全	-8.14804
自然	-8.1483
新的	-8.14834
觉得	-8.14867
许多	-8.15078
故事	-8.15174
是什么	-8.1522
地球	-8.15338
使	-8.15708
真	-8.15757
感到	-8.15927
▁人们	-8.16104
处	-8.16432
所有的	-8.16833
解决	-8.16902
口	-8.16914
的故事	-8.16919
▁你可以	-8.16964
加	-8.16968
学校	-8.17715
大脑	-8.17923
▁这样	-8.18032
文化	-8.18081
a	-8.18256
次	-8.18448
感	-8.18578
月	-8.18599
进	-8.19007
物	-8.19039
那里	-8.19203
条	-8.19281
法	-8.19298
受	-8.19342
相	-8.19391
喜欢	-8.19687
▁♫	-8.19866
▁就像	-8.20082
将会	-8.20252
运动	-8.20628
变得	-8.21011
▁比如	-8.2119
》	-8.21193
地方	-8.21198
存在	-8.21209
《	-8.21277
做的	-8.2132
▁(	-8.21326
方	-8.21374
美	-8.21556
活动	-8.21604
感觉	-8.21626
更多	-8.21634
实验	-8.21824
最后	-8.21973
他的	-8.22137
i	-8.22578
计划	-8.23067
道	-8.23123
是否	-8.23138
啊	-8.23234
艺术	-8.23336
尝试	-8.23713
▁那些	-8.23724
继续	-8.23843
老	-8.23973
气	-8.24035
必须	-8.24234
个人	-8.2425
过去	-8.24363
四	-8.24538
教	-8.24552
意	-8.24626
年前	-8.24638
▁这种	-8.24795
曾	-8.25107
看看	-8.25321
模式	-8.25421
世纪	-8.25939
格	-8.26039
机器人	-8.26293
布	-8.2633
合作	-8.26497
▁都	-8.26844
市场	-8.26953
o	-8.26995
医生	-8.27108
作为	-8.27124
保护	-8.27658
一位	-8.27789
声	-8.27898
重要	-8.27906
是在	-8.27936
▁不过	-8.28046
眼	-8.28055
展示	-8.28096
同	-8.28172
定	-8.28233
产生	-8.283
听到	-8.28412
(	-8.28763
s	-8.28809
结果	-8.28976
书	-8.29057
取	-8.29206
转	-8.29473
大学	-8.29498
路	-8.29638
S	-8.29692
努力	-8.29823
该	-8.30414
方法	-8.30464
片	-8.305
之一	-8.30503
制造	-8.30831
非	-8.31125
快	-8.31247
但是	-8.31565
率	-8.31657
风	-8.31915
里面	-8.3207
不知道	-8.32102
十	-8.32179
▁如果我们	-8.32309
之间	-8.32333
令人	-8.3238
实现	-8.32481
项目	-8.3252
▁我认为	-8.32598
行为	-8.32789
印度	-8.32842
远	-8.32922
确实	-8.32926
朋友	-8.32954
死	-8.33021
米	-8.33062
进入	-8.3321
想象	-8.33559
在这里	-8.33616
事实	-8.33672
半	-8.33819
▁然而	-8.33858
▁所以我	-8.34129
各种	-8.34215
其实	-8.34488
就像	-8.34543
性的	-8.34585
尼	-8.34791
政治	-8.34856
中心	-8.34937
空间	-8.34975
已	-8.35008
另一个	-8.3531
治疗	-8.35408
▁通过	-8.35506
低	-8.35934
解释	-8.35942
号	-8.36253
社区	-8.36316
有些	-8.36361
y	-8.3644
▁当我	-8.36492
信	-8.36568
关注	-8.36675
部分	-8.36919
讨论	-8.36968
宇宙	-8.36991
重新	-8.37146
地区	-8.37334
卡	-8.3742
▁这是一个	-8.37432
M	-8.37483
极	-8.37532
语	-8.37622
意识到	-8.37641
接受	-8.38179
西	-8.38447
语言	-8.38538
疾病	-8.38558
飞	-8.38613
▁所以我们	-8.38616
▁而是	-8.38671
此	-8.38684
出现	-8.38736
及	-8.38999
TED	-8.39164
叫做	-8.39185
建筑	-8.39195
游戏	-8.39394
非洲	-8.39471
成功	-8.39478
基因	-8.39513
别	-8.39682
掉	-8.39707
学生	-8.39743
五	-8.39757
部	-8.39766
边	-8.39829
国	-8.3987
实际上	-8.40174
变化	-8.40191
▁我们可以	-8.40197
热	-8.40221
的事	-8.40294
深	-8.40403
领域	-8.4043
这么	-8.40849
儿	-8.40854
制	-8.4106
十分	-8.41101
员	-8.41232
的方法	-8.41236
做了	-8.41329
获得	-8.41423
总是	-8.41538
关系	-8.41588
身体	-8.41589
电影	-8.41695
我们可以	-8.41836
少	-8.41866
C	-8.42045
几	-8.4206
罗	-8.42137
完成	-8.42336
更加	-8.42584
自由	-8.42605
近	-8.42743
球	-8.42896
总	-8.4292
鱼	-8.43148
原因	-8.43359
买	-8.43443
回到	-8.43847
怎样	-8.44558
也许	-8.44672
提	-8.44863
女	-8.44896
挑战	-8.44923
资源	-8.44987
的时间	-8.45131
想法	-8.45451
理	-8.45453
位	-8.45469
制作	-8.45613
有关	-8.45649
的工作	-8.4583
难	-8.45908
处理	-8.46405
R	-8.4648
更多的	-8.46572
♫	-8.46583
比较	-8.46592
别人	-8.4666
T	-8.46933
演讲	-8.47152
战争	-8.4737
类	-8.47399
家庭	-8.47417
达	-8.47532
层	-8.47672
汽车	-8.4809
模型	-8.4814
视频	-8.48237
如	-8.48242
那样	-8.48387
▁以	-8.48595
都有	-8.48745
都会	-8.48885
身上	-8.48896
管	-8.48921
当时	-8.48986
空	-8.49079
生产	-8.49106
下来	-8.49156
我要	-8.49248
有人	-8.49298
支持	-8.49337
二	-8.49535
寻找	-8.4961
观察	-8.4967
干	-8.4968
▁去	-8.49844
▁当你	-8.49974
▁于是	-8.49975
机器	-8.50203
就能	-8.50322
读	-8.50448
年代	-8.50518
主	-8.50534
有很多	-8.50627
未来	-8.50665
解	-8.50815
▁但我	-8.50857
做出	-8.50931
病	-8.5099
曾经	-8.51028
能力	-8.511
看起来	-8.51121
联系	-8.51221
便	-8.5127
我在	-8.51299
美元	-8.51448
台	-8.5203
指	-8.52167
▁也许	-8.52171
它的	-8.5221
拿	-8.52278
自我	-8.52577
▁同时	-8.52604
D	-8.52646
她们	-8.52745
住	-8.528
为了	-8.52814
就可以	-8.53086
B	-8.53177
活	-8.53273
食物	-8.53351
▁实际上	-8.53485
药	-8.53534
服务	-8.53551
▁让我们	-8.53712
死亡	-8.53912
在一起	-8.54026
u	-8.5403
分享	-8.54056
期	-8.54107
你可以	-8.54289
维	-8.54453
阿	-8.5447
▁对于	-8.54508
▁甚至	-8.54694
式	-8.54797
一切	-8.54805
山	-8.54839
当然	-8.54893
强	-8.54916
显示	-8.54948
▁最后	-8.55096
并不是	-8.55111
机构	-8.5536
权	-8.55809
波	-8.55823
并且	-8.55858
板	-8.55886
这个问题	-8.55936
请	-8.56175
最终	-8.56177
P	-8.56204
简单	-8.56331
有个	-8.56395
超过	-8.5658
其它	-8.56661
以前	-8.56729
巴	-8.56808
好的	-8.571
越	-8.57149
照	-8.57664
变成	-8.57696
▁让	-8.57789
才能	-8.57928
孩子们	-8.57978
情况	-8.57979
▁可以	-8.57987
达到	-8.58016
同时	-8.58136
的一个	-8.58202
选	-8.58452
▁与	-8.58517
er	-8.58686
是一种	-8.59133
找	-8.59154
男人	-8.59212
特别	-8.59349
历史	-8.59546
一条	-8.59554
并没有	-8.59655
离	-8.59842
▁这里	-8.599
产品	-8.59928
区	-8.60073
计算机	-8.60238
应	-8.60358
创新	-8.60363
材料	-8.60463
参与	-8.60536
往	-8.60616
目标	-8.60798
▁用	-8.61016
假	-8.61042
些	-8.6109
记录	-8.61218
谁	-8.61305
见	-8.61378
病人	-8.61381
落	-8.61385
的想法	-8.61612
数字	-8.61751
声音	-8.6182
代表	-8.61869
的孩子	-8.61963
▁当我们	-8.62136
行动	-8.62147
女人	-8.62148
▁为什么	-8.62259
测试	-8.62276
乐	-8.62312
每个	-8.62436
海洋	-8.62528
玩	-8.62538
想到	-8.62543
神	-8.62946
有点	-8.62959
是如何	-8.63003
纳	-8.63304
区域	-8.6337
亿	-8.63513
装	-8.6353
纸	-8.63558
文	-8.63715
▁我们需要	-8.63716
其中	-8.63829
▁那就是	-8.64141
倍	-8.64199
一只	-8.64221
形	-8.64414
州	-8.64453
经历	-8.64521
六	-8.64585
传	-8.64652
金	-8.64665
步	-8.64679
分子	-8.64716
因	-8.64776
树	-8.64906
实验室	-8.64997
安	-8.65004
▁那是	-8.65113
不断	-8.65324
建立	-8.65446
女孩	-8.6545
结构	-8.65481
则	-8.65742
当你	-8.65795
能源	-8.65805
仍然	-8.65858
工具	-8.65961
移动	-8.6613
有着	-8.6614
考虑	-8.66193
一定	-8.66267
笑	-8.66437
第一次	-8.66489
哈	-8.66508
她的	-8.66583
给我	-8.66709
千	-8.66825
科	-8.67137
谈论	-8.67458
所以	-8.67505
巨大的	-8.67561
也有	-8.676
火	-8.67893
通	-8.67898
反	-8.67924
跑	-8.68235
回答	-8.6826
观众	-8.68325
试图	-8.68434
时代	-8.68594
病毒	-8.68692
一年	-8.69238
投资	-8.69417
增长	-8.69587
中国	-8.69589
让人	-8.69711
p	-8.69798
至	-8.69847
合	-8.6992
用来	-8.70027
词	-8.70051
t	-8.70073
网	-8.7008
机会	-8.70212
这就是	-8.70257
▁把	-8.70322
科学家	-8.70327
而且	-8.70338
几个	-8.70346
设备	-8.70577
数学	-8.70632
▁关于	-8.70664
手机	-8.70759
告诉	-8.7086
谈	-8.70886
现实	-8.70992
基本	-8.71084
▁将	-8.71086
实	-8.71147
面对	-8.71224
冰	-8.7124
保持	-8.71411
▁没有	-8.71429
▁他说	-8.7143
是因为	-8.71483
理论	-8.71515
”。	-8.71732
商	-8.71757
▁为了	-8.71797
八	-8.71817
植物	-8.71906
相当	-8.72
I	-8.72026
等等	-8.72169
直接	-8.7226
同样的	-8.72281
质	-8.72353
具有	-8.72359
倒	-8.72669
准备	-8.72686
进化	-8.72738
基	-8.72783
b	-8.72949
话	-8.73088
几乎	-8.73298
坐在	-8.73306
拍	-8.73333
也会	-8.73347
星	-8.73355
世界上	-8.7341
大部分	-8.73448
很难	-8.73583
反应	-8.73593
多少	-8.73595
工	-8.73704
造	-8.73789
里的	-8.73815
告诉我	-8.74032
E	-8.7412
▁其实	-8.74141
白	-8.74261
七	-8.74359
平	-8.74429
那种	-8.74493
媒体	-8.7452
早	-8.74609
我认为	-8.74675
带来	-8.74686
分钟	-8.74745
的世界	-8.74784
单	-8.74797
物种	-8.74809
计算	-8.74811
作品	-8.74814
民主	-8.74841
人口	-8.74893
音	-8.74935
探索	-8.74957
到底	-8.7498
么	-8.75129
满	-8.75145
形成	-8.75192
建造	-8.75345
周	-8.75488
儿童	-8.75539
照片	-8.75648
亚	-8.75696
奇	-8.75769
脑	-8.75882
交流	-8.75893
上面	-8.75922
调	-8.76045
医疗	-8.76115
都在	-8.76289
连	-8.76349
品	-8.76366
大约	-8.76871
药物	-8.77032
一张	-8.77086
▁今天	-8.77274
应用	-8.7733
很好	-8.77416
约	-8.77584
管理	-8.77758
跳	-8.77877
意义	-8.77908
认识	-8.78035
事物	-8.78041
愿意	-8.78143
癌症	-8.78335
答案	-8.7836
油	-8.7845
业	-8.78601
意识	-8.78652
要求	-8.78657
本身	-8.78726
团队	-8.78789
站	-8.7906
战	-8.79117
事件	-8.79457
▁我在	-8.79534
石	-8.79559
首	-8.79666
发明	-8.79747
神经	-8.79919
船	-8.79975
功能	-8.80031
一天	-8.80435
的生活	-8.80456
推	-8.8049
精	-8.80495
放在	-8.80579
尽	-8.80714
交	-8.80769
明	-8.8081
受到	-8.8085
▁首先	-8.81047
危险	-8.81057
看着	-8.81136
局	-8.81179
奥	-8.81211
▁或	-8.81236
排	-8.81238
▁再	-8.81278
字	-8.81283
持续	-8.81299
不可能	-8.81631
an	-8.8164
收	-8.81641
双	-8.8165
萨	-8.81673
同样	-8.81702
包括	-8.81816
食	-8.81877
情	-8.8197
▁而不是	-8.81985
每一个	-8.82141
分析	-8.82143
知识	-8.82273
错误	-8.82333
复杂	-8.82339
连接	-8.82341
血	-8.82423
的一部分	-8.82434
不需要	-8.82438
件	-8.82445
欧洲	-8.82449
原	-8.82453
电视	-8.82488
公	-8.82556
▁因为我们	-8.82708
是我们	-8.82928
节	-8.82967
最大的	-8.8308
真正的	-8.83094
这样做	-8.83317
切	-8.83321
电话	-8.83381
英国	-8.83456
市	-8.83503
只能	-8.83531
」	-8.83544
商业	-8.83561
给你	-8.83995
夫	-8.84013
脚	-8.84017
不要	-8.84048
结束	-8.84083
我们需要	-8.8409
样	-8.84154
游	-8.84356
过程	-8.84478
温	-8.84606
互联网	-8.84629
经常	-8.84662
块	-8.84788
立	-8.8488
...	-8.84944
军	-8.84964
当我	-8.85015
百	-8.85026
不再	-8.85141
开发	-8.85146
主要	-8.85219
古	-8.85248
离开	-8.85251
一个人	-8.8529
建	-8.85448
表	-8.85505
▁我们在	-8.85531
肯定	-8.85646
人的	-8.85701
的国家	-8.86009
▁因为我	-8.8601
老师	-8.8604
也可以	-8.86211
k	-8.86256
▁我说	-8.86373
根	-8.86407
一项	-8.86489
大概	-8.86556
价值	-8.86577
象	-8.86594
的人们	-8.86628
第一个	-8.86673
弹	-8.86748
▁要	-8.86776
最好的	-8.86905
黑	-8.87047
飞机	-8.87332
共同	-8.87341
表达	-8.87349
其他人	-8.87412
视	-8.87436
张	-8.87762
有了	-8.87815
你知道	-8.87876
预测	-8.87889
可能会	-8.87895
型	-8.87953
DNA	-8.8805
现象	-8.88418
▁像	-8.88503
实际	-8.8853
的声音	-8.88631
全世界	-8.88656
▁虽然	-8.88741
事实上	-8.88841
en	-8.88877
室	-8.88902
G	-8.88915
接	-8.89236
会有	-8.8928
世	-8.89445
例子	-8.89456
一般	-8.89487
兰	-8.89539
n	-8.89653
狗	-8.89709
传统	-8.89751
r	-8.89855
在那里	-8.8989
有什么	-8.89985
明白	-8.90033
告诉你	-8.90061
这么做	-8.901
换	-8.90338
另一	-8.90473
看到的	-8.90517
程度	-8.90539
我们在	-8.90634
色	-8.90728
上帝	-8.91057
关键	-8.91183
收入	-8.9126
一场	-8.91262
算	-8.91266
称	-8.91308
源	-8.91367
每天	-8.91369
精神	-8.91521
以后	-8.91591
常	-8.91605
快乐	-8.9166
让你	-8.91677
增加	-8.91766
超	-8.91815
草	-8.91894
论	-8.91963
一段	-8.92014
▁你会	-8.92015
▁我觉得	-8.92171
物质	-8.92185
的原因	-8.92248
代	-8.92592
经过	-8.92685
拍摄	-8.92771
体验	-8.92971
发生在	-8.92981
的数据	-8.93004
组	-8.93102
迪	-8.93287
传播	-8.93293
▁也就是	-8.93345
不想	-8.93376
界	-8.93493
小时	-8.93597
红	-8.93795
▁尽管	-8.93871
来到	-8.93903
d	-8.93991
手术	-8.94184
表现	-8.94407
三个	-8.94479
的信息	-8.9455
石油	-8.94703
河	-8.94829
网站	-8.9512
更好的	-8.95122
▁最	-8.95269
如果我们	-8.95272
英里	-8.95304
发生了	-8.95321
道德	-8.95471
南	-8.95591
医院	-8.9575
未	-8.95787
法律	-8.95841
核	-8.95846
▁但我们	-8.95977
软件	-8.96107
出了	-8.96174
on	-8.9627
您	-8.9628
费	-8.96408
院	-8.96456
派	-8.9647
刚刚	-8.96505
提高	-8.96803
生活在	-8.96814
in	-8.96839
的确	-8.96855
改变了	-8.96863
▁直到	-8.96872
信号	-8.97041
知	-8.97049
牛	-8.97164
而言	-8.97261
暴力	-8.97361
某种	-8.97383
零	-8.97522
似乎	-8.97545
不仅	-8.97626
做什么	-8.97688
某些	-8.97746
减少	-8.97756
描述	-8.97903
有一些	-8.97909
困难	-8.97933
这一点	-8.9804
伊	-8.98081
说明	-8.98108
失	-8.98189
试着	-8.98208
证明	-8.98413
夜	-8.98438
国际	-8.98454
很重要	-8.98485
的小	-8.98522
救	-8.98622
平均	-8.98641
调查	-8.98646
真是	-8.98653
卖	-8.98678
压	-8.98939
然	-8.98959
告诉我们	-8.9903
的研究	-8.99183
穿	-8.99266
言	-8.99275
▁会	-8.99448
皮	-8.99697
共	-8.99868
队	-8.99901
充满	-9.00043
O	-9.00043
作用	-9.00111
靠	-9.00212
阶段	-9.00479
收集	-9.00491
群	-9.00494
看见	-9.00567
的照片	-9.00647
过来	-9.00716
我会	-9.00765
突然	-9.00825
N	-9.0094
▁—	-9.01024
现代	-9.0105
ar	-9.01072
是由	-9.01235
▁例如	-9.01266
值	-9.01307
记	-9.01411
坏	-9.01457
亲	-9.01489
试	-9.01501
▁B	-9.01587
▁♪	-9.01631
生存	-9.01636
就在	-9.01672
真实	-9.01672
产	-9.01719
标准	-9.01796
会说	-9.01822
值得	-9.0208
▁不	-9.02124
士	-9.02169
某个	-9.02268
全部	-9.02272
新闻	-9.02412
很快	-9.02477
主义	-9.02608
▁我要	-9.02618
回来	-9.02711
第一	-9.02724
毛	-9.0274
电子	-9.02822
木	-9.02896
腿	-9.02931
担心	-9.02995
森林	-9.03131
当我们	-9.03227
结	-9.03245
送	-9.03481
级	-9.0369
训练	-9.03698
提出	-9.03794
修	-9.03837
姆	-9.03889
力量	-9.03948
永远	-9.03953
程序	-9.03974
地图	-9.04037
带着	-9.04045
课	-9.04068
退	-9.0408
发现了	-9.0413
完	-9.04166
对吧	-9.04209
▁我知道	-9.04392
差	-9.04432
▁大家	-9.04465
因素	-9.04483
圈	-9.04581
很多人	-9.04637
到达	-9.04686
▁它是	-9.04811
▁你知道	-9.04865
雷	-9.05029
塔	-9.05055
专家	-9.05091
▁不是	-9.05101
年的	-9.05112
坐	-9.0525
失败	-9.05253
每个人	-9.05406
下去	-9.05531
灯	-9.05588
太阳	-9.05594
那是	-9.0561
水平	-9.05613
通常	-9.0564
虫	-9.06034
绿色	-9.06049
一家	-9.06059
表演	-9.06207
没有人	-9.06216
笔	-9.06231
妇女	-9.06238
各	-9.06443
打开	-9.06458
自身	-9.06491
查	-9.06516
之间的	-9.06521
断	-9.06659
重要的	-9.06674
成了	-9.06802
住在	-9.06839
站在	-9.06907
意味着	-9.0709
用于	-9.07133
K	-9.072
按	-9.07205
大的	-9.0723
根本	-9.07363
▁所有	-9.07385
第	-9.07387
恐惧	-9.07424
政策	-9.07426
房子	-9.07495
岛	-9.07514
瓦	-9.07624
▁其中	-9.07771
的能力	-9.08039
发生的	-9.08076
形式	-9.08091
定义	-9.08121
微	-9.0814
公共	-9.08212
盘	-9.08224
视觉	-9.08236
一半	-9.08242
关	-9.08254
时期	-9.08258
▁比	-9.08342
学家	-9.08348
轮	-9.08426
假设	-9.08436
图像	-9.08508
导致	-9.08517
存	-9.08523
经	-9.08591
的影响	-9.08607
托	-9.0863
一件	-9.08667
小孩	-9.08768
绝对	-9.0879
杀	-9.08802
记忆	-9.08833
看到了	-9.09181
类似	-9.09246
做到	-9.09249
不用	-9.0926
▁但是我	-9.09273
▁S	-9.09321
在这个	-9.09412
我就	-9.09529
开放	-9.09574
方向	-9.09597
沙	-9.09642
▁然后我	-9.09653
▁让我	-9.09659
▁结果	-9.09729
还要	-9.09749
我觉得	-9.09776
土地	-9.09839
的例子	-9.09878
运作	-9.09879
把它们	-9.09917
数量	-9.10007
林	-9.10026
c	-9.10051
运用	-9.102
了很多	-9.10235
以为	-9.1024
或许	-9.10266
宗教	-9.1027
较	-9.10279
H	-9.10363
大量的	-9.10378
来看	-9.10422
图片	-9.10457
表面	-9.10552
越来越	-9.10554
肉	-9.10646
▁接着	-9.10675
个月	-9.107
的情况	-9.10797
去做	-9.11108
▁即使	-9.11246
哪里	-9.11312
危机	-9.1151
足够	-9.11516
报	-9.11556
骨	-9.11587
座	-9.11651
东	-9.11691
占	-9.11695
待	-9.11817
时候	-9.1183
端	-9.11873
幸福	-9.11932
当地	-9.11995
普	-9.12083
▁或是	-9.12116
▁但这	-9.12171
求	-9.12254
化学	-9.12299
击	-9.12321
这次	-9.12324
的结果	-9.12325
▁被	-9.12329
丝	-9.1233
养	-9.1236
集	-9.12422
人民	-9.12483
曼	-9.12538
是不是	-9.12781
男性	-9.12857
和我	-9.12875
会议	-9.12918
妈妈	-9.1301
举	-9.13016
加入	-9.13148
的行为	-9.13164
我们要	-9.13178
可以看到	-9.1332
目前	-9.13367
▁在我	-9.13376
患者	-9.13492
▁-	-9.13577
母亲	-9.13606
▁我会	-9.13646
空气	-9.13656
▁只有	-9.13657
至少	-9.13707
恩	-9.1379
翻	-9.13815
对此	-9.13951
异	-9.13968
企业	-9.13973
伤	-9.14109
鼓掌	-9.14191
在一个	-9.14263
参加	-9.14325
注意	-9.14337
▁每	-9.14516
变成了	-9.14555
几年	-9.14604
你在	-9.14609
▁"	-9.14669
细菌	-9.14679
现	-9.14699
飞行	-9.14705
有可能	-9.1481
仍	-9.14867
距离	-9.14892
投	-9.1498
得到了	-9.15048
每个人都	-9.15126
能量	-9.15355
射	-9.15358
压力	-9.15378
弄	-9.1548
进步	-9.15634
它是	-9.15647
▁这是我	-9.15731
绝	-9.15767
周围	-9.15948
哪	-9.15949
也没有	-9.15966
不错	-9.16099
相互	-9.16113
权利	-9.16303
出生	-9.16327
年轻	-9.16372
每年	-9.16388
顿	-9.16394
创作	-9.16547
冷	-9.16585
中间	-9.16669
标	-9.16682
动作	-9.16746
的力量	-9.1685
聪明	-9.16898
想想	-9.16916
速度	-9.16952
遇到	-9.16969
▁还是	-9.17033
牌	-9.17049
我们所	-9.17089
l	-9.17105
感兴趣	-9.17143
比如	-9.17261
给我们	-9.17411
九	-9.17493
塞	-9.17506
当中	-9.17665
花了	-9.17719
症	-9.17759
套	-9.17818
仅仅	-9.17859
不到	-9.17865
短	-9.17865
▁但是我们	-9.17947
试验	-9.17961
之中	-9.18033
某	-9.18328
▁能够	-9.18373
你会	-9.18497
百万	-9.1853
艺术家	-9.18548
大量	-9.18578
藏	-9.18598
基础	-9.18773
▁还	-9.18807
革命	-9.18833
感染	-9.18849
最近	-9.18856
角	-9.18882
规则	-9.18891
颜色	-9.19066
还没有	-9.19075
出来的	-9.1908
简单的	-9.19085
晚	-9.19312
服	-9.19331
▁当时	-9.19383
例	-9.19397
在于	-9.19407
「	-9.19447
这是一个	-9.1956
▁然后我们	-9.19653
大多数	-9.19724
称之为	-9.19741
▁好	-9.19771
美国人	-9.19851
迷	-9.19873
种族	-9.19917
境	-9.19918
让他们	-9.19945
F	-9.20057
领	-9.2011
所做的	-9.20157
婴儿	-9.20195
从未	-9.20328
最重要的	-9.2036
华	-9.20421
智慧	-9.20421
监狱	-9.20422
投入	-9.20453
团	-9.20565
或是	-9.20573
花费	-9.20599
效	-9.20722
复杂的	-9.2084
兴奋	-9.209
清	-9.20909
伦	-9.21083
▁如果我	-9.21145
这个世界	-9.21216
发出	-9.21289
搞	-9.21309
其他的	-9.21359
那时	-9.21394
并非	-9.21626
关心	-9.21642
h	-9.21729
父母	-9.21741
正常	-9.21895
这一切	-9.21911
证	-9.21938
运	-9.22092
年轻人	-9.22131
土	-9.22249
状况	-9.2226
预	-9.22382
英尺	-9.224
成长	-9.22564
我们能	-9.22713
也不	-9.22731
建议	-9.22731
注意到	-9.22813
直	-9.22857
处于	-9.229
▁因为他们	-9.22923
体系	-9.22945
装置	-9.2297
......	-9.22977
错	-9.22992
吉	-9.23189
威胁	-9.23189
内容	-9.23236
时刻	-9.23302
房	-9.23366
列	-9.23372
艾	-9.23399
贴	-9.23424
彼此	-9.23425
谢谢	-9.23439
一份	-9.23618
是关于	-9.23648
•	-9.23658
更好	-9.23701
▁请	-9.23762
鸟	-9.23873
洗	-9.23894
公民	-9.23907
了这个	-9.2411
▁我们必须	-9.24187
L	-9.24316
警	-9.24356
责任	-9.24361
密	-9.24485
包	-9.24666
▁她们	-9.24668
工程	-9.24727
师	-9.24756
晚上	-9.24795
哦	-9.24816
百分之	-9.2487
毒	-9.24882
▁更	-9.25039
北	-9.25065
剧	-9.25123
墙	-9.25127
告诉你们	-9.25206
▁第一	-9.25246
唯一	-9.25247
酒	-9.25262
使得	-9.25275
观	-9.25278
纽约	-9.25534
情绪	-9.25559
第二	-9.25561
▁却	-9.2559
这儿	-9.25612
表示	-9.25621
和平	-9.25628
状态	-9.25672
吸引	-9.25753
保	-9.25909
诺	-9.26024
给他们	-9.26069
相关	-9.26176
除	-9.26194
犯	-9.26197
可能是	-9.26218
▁M	-9.26445
人生	-9.26453
一块	-9.26505
降低	-9.26534
测量	-9.2654
我说	-9.26652
慢	-9.26738
痛苦	-9.26779
仅	-9.26972
洛	-9.27004
顶	-9.27076
改	-9.271
是为了	-9.27136
总统	-9.27253
▁我也	-9.2746
森	-9.2748
勒	-9.27491
▁只要	-9.2761
贝	-9.2765
表明	-9.27827
思想	-9.27886
盖	-9.27975
有效	-9.27976
专业	-9.28038
我们就	-9.28047
记得	-9.28055
梦想	-9.28056
再次	-9.28077
容易	-9.28084
不得不	-9.28177
怎么样	-9.28204
乱	-9.28213
▁这是个	-9.28244
内部	-9.28327
概念	-9.28337
城	-9.2835
因此	-9.28509
具	-9.28517
▁我希望	-9.28533
▁作为	-9.28539
升	-9.28606
挺	-9.2872
▁看看	-9.28732
在我	-9.28793
人员	-9.28809
刚	-9.28834
对话	-9.28839
喝	-9.28967
其中的	-9.29007
还在	-9.29051
他人	-9.291
一件事	-9.29109
背	-9.29112
行星	-9.29157
没有任何	-9.29216
塑料	-9.29216
▁于是我	-9.29246
好像	-9.29284
感谢	-9.29284
f	-9.29446
洞	-9.29447
差不多	-9.29464
相似	-9.2948
家伙	-9.29536
有趣	-9.29537
的观点	-9.29593
过的	-9.29655
下面	-9.29662
巨大	-9.29787
是我	-9.29856
才是	-9.29902
互动	-9.29962
民	-9.29995
属于	-9.30002
首先	-9.30039
男孩	-9.30052
▁为	-9.30064
▁正如	-9.30082
我自己	-9.30091
成为了	-9.3013
▁我们也	-9.30151
大小	-9.3016
▁我们要	-9.30167
不仅仅是	-9.30186
旧	-9.30199
▁而我	-9.30208
不可	-9.30208
看上去	-9.30222
各位	-9.30262
份	-9.30264
物体	-9.30329
儿子	-9.30418
冲突	-9.30468
讲述	-9.30558
风险	-9.30589
or	-9.30604
去了	-9.30667
停	-9.30678
▁最终	-9.30717
我也	-9.30786
确定	-9.30825
这些人	-9.30873
见过	-9.30919
基本上	-9.30926
友	-9.30963
互相	-9.31087
范围	-9.31175
介绍	-9.31176
整	-9.31186
害怕	-9.31225
资金	-9.313
项	-9.31395
致	-9.31421
▁接下来	-9.31444
独立	-9.31486
只要	-9.31515
生长	-9.31618
清楚	-9.3171
长大	-9.31717
积极	-9.31745
见到	-9.31752
我是	-9.31786
下降	-9.31888
这件事	-9.31963
▁美国	-9.32014
都能	-9.32022
富	-9.32036
设计师	-9.32071
快速	-9.32077
成本	-9.32164
右	-9.32211
这条	-9.32303
▁第二	-9.3244
初	-9.32443
圣	-9.32548
底	-9.32552
▁后来	-9.32752
菜	-9.32756
▁好吧	-9.32839
蓝色	-9.33114
这个项目	-9.33178
地球上	-9.33189
减	-9.33228
有一天	-9.33247
保证	-9.33282
而不是	-9.33428
▁能	-9.33431
架	-9.3349
糖	-9.33531
简	-9.33547
m	-9.33567
▁我们现在	-9.33589
破	-9.33677
是从	-9.33714
的社会	-9.33752
价格	-9.33768
父亲	-9.33775
所在	-9.33892
伟大的	-9.3394
接触	-9.34024
来自于	-9.3403
收到	-9.34089
十年	-9.34187
轻	-9.34231
且	-9.3428
▁在这个	-9.34304
奖	-9.34312
群体	-9.34363
▁就在	-9.34556
停止	-9.34593
早期	-9.34609
在这	-9.34617
说过	-9.34619
了一些	-9.34685
枪	-9.34778
运行	-9.34823
状	-9.34827
发表	-9.34863
接近	-9.34871
找到了	-9.34885
我知道	-9.34909
集中	-9.34945
班	-9.34951
你能	-9.35004
▁可能	-9.35075
质量	-9.35081
在美国	-9.35124
阅读	-9.35376
太空	-9.35453
亮	-9.35471
re	-9.35482
我们有	-9.35483
赛	-9.35504
生活中	-9.35544
营	-9.35582
气候	-9.35619
适应	-9.35637
操作	-9.35646
限制	-9.35721
索	-9.35777
的名字	-9.35892
是怎么	-9.35921
效果	-9.35978
al	-9.36009
爬	-9.36159
一部分	-9.36165
相反	-9.36172
▁我们就	-9.36268
我所	-9.36277
味	-9.36319
西方	-9.36392
星球	-9.364
杂志	-9.36429
糟糕	-9.36472
▁而这	-9.36478
这类	-9.36481
▁因为它	-9.36519
回家	-9.36569
何	-9.36572
规模	-9.36586
计	-9.36608
物理	-9.36836
这些东西	-9.36839
秒	-9.36898
职	-9.36921
警察	-9.36964
广告	-9.36967
严重	-9.37031
观点	-9.37033
允许	-9.37038
很大	-9.37062
眼睛	-9.37189
足	-9.37192
世界的	-9.37198
太多	-9.37209
证据	-9.37236
▁我们有	-9.3728
根据	-9.3738
任务	-9.37386
左	-9.37398
▁我可以	-9.37435
逐渐	-9.375
邀请	-9.37502
神经元	-9.37511
▁A	-9.37527
的过程	-9.37549
莱	-9.37587
可以在	-9.37607
明显	-9.37639
行业	-9.37724
王	-9.37747
出去	-9.37747
▁包括	-9.37791
店	-9.38015
引起	-9.38256
是怎样	-9.38274
阻止	-9.38315
复	-9.38343
火星	-9.38345
工业	-9.38373
不一样	-9.38378
房间	-9.38599
看待	-9.38814
叶	-9.38858
模拟	-9.38859
的感觉	-9.38869
说话	-9.39088
猎	-9.39132
四个	-9.392
▁另外	-9.39205
仅仅是	-9.3926
蓝	-9.39299
和其他	-9.39343
▁现在我们	-9.39364
后来	-9.39388
思维	-9.39466
害	-9.39505
命	-9.39508
是非常	-9.39531
价	-9.39625
偏	-9.3964
教授	-9.39686
背景	-9.39689
课程	-9.39692
红色	-9.39704
年龄	-9.39722
我们现在	-9.39788
福	-9.39791
都可以	-9.399
剂	-9.39959
▁如何	-9.39959
利益	-9.39977
破坏	-9.4001
一名	-9.40057
料	-9.40165
什么是	-9.40222
沉	-9.40228
云	-9.40236
办公室	-9.40244
▁有些	-9.40252
人类的	-9.40257
帮	-9.40356
接下来	-9.40427
我们必须	-9.40486
痛	-9.40491
猫	-9.40513
这位	-9.40562
诗	-9.40582
素	-9.40682
的新	-9.40687
w	-9.4073
医学	-9.40732
▁或许	-9.40755
基于	-9.4081
理由	-9.40858
让它	-9.41016
紧	-9.41024
▁即	-9.41224
正确	-9.41337
竞争	-9.41352
登	-9.41406
即使	-9.41431
有趣的	-9.4144
是谁	-9.41505
转变	-9.4153
把这些	-9.41541
引	-9.4159
防	-9.41611
蜂	-9.41629
财富	-9.41634
呼吸	-9.41639
旅行	-9.41642
老鼠	-9.41647
▁这是我们	-9.41674
留	-9.41727
护	-9.41841
导	-9.42056
▁都是	-9.42063
没人	-9.42108
博物馆	-9.42196
配	-9.42397
置	-9.4241
成员	-9.42425
拯救	-9.4248
的样子	-9.42554
街	-9.42613
心理	-9.42629
角度	-9.42642
速	-9.42645
的大脑	-9.42739
弱	-9.42763
同意	-9.42804
银行	-9.42873
相比	-9.42886
组成	-9.42888
款	-9.42978
额	-9.43006
认知	-9.43057
造成	-9.43225
ra	-9.43228
▁而我们	-9.43265
环	-9.43294
鲁	-9.43309
上了	-9.4332
负责	-9.4333
习惯	-9.43335
失去	-9.43373
温度	-9.43412
条件	-9.43562
过程中	-9.43564
疫苗	-9.43621
搜索	-9.43622
这张	-9.43726
最好	-9.43813
▁从而	-9.4383
是很	-9.439
结论	-9.43929
真实的	-9.43937
提到	-9.43964
我可以	-9.43969
任何人	-9.44106
方案	-9.44187
恢复	-9.44197
另外	-9.4427
部门	-9.44281
的目标	-9.44357
自动	-9.44359
冲	-9.44422
X	-9.44485
仔细	-9.44487
犯罪	-9.44493
工程师	-9.44497
▁如今	-9.44527
面前	-9.44609
楼	-9.44656
另外一个	-9.44682
负	-9.44718
情感	-9.4475
录	-9.4491
留下	-9.44931
能看到	-9.4494
公开	-9.44983
响	-9.4504
平衡	-9.45085
好吧	-9.45109
放到	-9.45121
任	-9.45276
下一个	-9.45306
隔	-9.4533
随着	-9.45333
蒂	-9.45358
▁一种	-9.45368
问题是	-9.45391
针对	-9.45436
碳	-9.45492
是这样	-9.45518
el	-9.45553
家人	-9.45631
差异	-9.45666
▁谢谢	-9.45909
内心	-9.45923
身边	-9.46031
常常	-9.46059
相同的	-9.4613
▁人类	-9.46181
鼓励	-9.46237
▁已经	-9.46352
消失	-9.46369
就有	-9.4643
这样一个	-9.46472
散	-9.46473
今年	-9.46548
的机会	-9.46563
人群	-9.46588
非常重要	-9.46594
感受	-9.46605
享受	-9.46645
的设计	-9.46659
经验	-9.46682
一边	-9.46703
生命的	-9.46717
啦	-9.46828
改善	-9.46834
放弃	-9.46842
报道	-9.46866
细	-9.46869
▁比如说	-9.46913
对我们	-9.46913
上升	-9.46925
会被	-9.46958
灵	-9.47027
势	-9.4705
菌	-9.47102
文字	-9.47219
龙	-9.4742
z	-9.47423
也能	-9.47435
英语	-9.4745
像这样	-9.47572
它们的	-9.47602
大型	-9.47643
粉	-9.47677
圆	-9.47703
由于	-9.47709
ri	-9.47745
付	-9.47751
▁我们会	-9.47862
所谓的	-9.47979
聚	-9.4799
固	-9.47995
其实是	-9.48035
星期	-9.48129
我们能够	-9.48139
我们自己	-9.4819
情况下	-9.48222
若	-9.48321
有多	-9.48352
结合	-9.48367
建设	-9.48376
权力	-9.48445
日本	-9.48448
▁这就	-9.48509
不太	-9.48538
演	-9.48582
未来的	-9.48583
给予	-9.48635
循环	-9.48644
在哪里	-9.48648
这项	-9.4865
▁J	-9.48725
果	-9.48758
一些人	-9.48765
你要	-9.4877
吸	-9.48823
▁P	-9.48916
星系	-9.48927
一个小	-9.48993
公园	-9.48996
牙	-9.49225
文明	-9.49262
交通	-9.49291
找出	-9.49346
觉	-9.49506
睡	-9.49522
即	-9.49528
V	-9.49531
诊断	-9.49536
而是	-9.49606
这段	-9.49645
他说	-9.49649
歌	-9.49656
我们已经	-9.4966
!”	-9.49705
正是	-9.49746
一群	-9.49757
噢	-9.49836
承认	-9.49837
编	-9.49872
打算	-9.4991
▁他们会	-9.49983
控	-9.50067
演奏	-9.50144
▁只是	-9.50171
女儿	-9.50205
▁也是	-9.50217
的学生	-9.50221
卫星	-9.50245
幸运	-9.50274
取得	-9.50331
一台	-9.50378
麦	-9.50408
谷歌	-9.50452
妻子	-9.50455
原始	-9.50455
发生了什么	-9.50537
▁一些	-9.50564
▁同样	-9.50642
一直在	-9.50671
的生命	-9.50699
告	-9.50725
同事	-9.50739
蚂蚁	-9.50756
学院	-9.50759
成果	-9.50809
终于	-9.50835
原子	-9.50922
来了	-9.50958
我们对	-9.50992
做过	-9.51063
阿富汗	-9.51065
所有人	-9.51248
领导	-9.51332
贫困	-9.51375
食品	-9.51406
设计的	-9.51489
对待	-9.51591
亿美元	-9.51662
急	-9.51667
的技术	-9.51672
作为一个	-9.51719
给你们	-9.51736
个体	-9.51741
化的	-9.51807
▁我相信	-9.51857
称为	-9.51954
▁除了	-9.5197
贫穷	-9.51998
还能	-9.52002
显然	-9.52059
很有	-9.52089
客	-9.52154
别的	-9.52253
易	-9.52278
熟悉	-9.5231
终	-9.52318
交易	-9.52324
很容易	-9.52437
在那	-9.52498
检测	-9.5251
一片	-9.526
报告	-9.52634
面包	-9.52784
▁我们发现	-9.52797
先生	-9.52798
成功的	-9.52908
▁每个	-9.52928
污染	-9.52938
母	-9.53005
▁我们知道	-9.53061
观念	-9.53084
▁我们已经	-9.5311
▁我们将	-9.53125
久	-9.53129
助	-9.53148
博士	-9.53263
巴西	-9.53312
体内	-9.53407
是这样的	-9.53416
必要	-9.53443
小的	-9.53513
▁T	-9.53526
像是	-9.53547
重复	-9.53611
难以	-9.53635
比赛	-9.53657
各个	-9.53805
折	-9.53861
▁使	-9.53866
信任	-9.53915
谈谈	-9.53924
具体	-9.53944
做的事情	-9.5395
把他们	-9.5395
的作品	-9.53962
▁G	-9.54005
影	-9.54041
长期	-9.54362
大家都	-9.54364
at	-9.54467
衣	-9.54514
义	-9.54545
气候变化	-9.54552
不只是	-9.54599
办法	-9.54627
专	-9.54642
过了	-9.54649
原则	-9.54661
▁那个	-9.54688
▁无论	-9.54771
th	-9.5481
障碍	-9.54845
创建	-9.54853
在我们	-9.54864
版	-9.54966
J	-9.54974
▁我们还	-9.55052
暴	-9.55077
巨	-9.55093
也就是	-9.55133
坚持	-9.5517
确保	-9.55171
好处	-9.55217
唱	-9.55244
直到	-9.55246
创造了	-9.55254
左右	-9.55261
▁这不是	-9.55315
的所有	-9.55383
▁我就	-9.55423
可以用	-9.55437
思	-9.55466
之外	-9.55553
不管	-9.55577
位置	-9.55591
这张照片	-9.55593
之所以	-9.55632
针	-9.55725
呼	-9.55789
这两个	-9.55799
咖啡	-9.55813
矿	-9.55813
一个问题	-9.55837
给大家	-9.55854
段	-9.5586
的概念	-9.55906
一步	-9.55916
件事	-9.56019
第三	-9.56026
▁D	-9.56051
脸	-9.56076
杰	-9.56085
动力	-9.56149
的位置	-9.56155
究竟	-9.56209
区别	-9.56318
闻	-9.56373
愿	-9.56391
宝	-9.56439
避免	-9.56455
消耗	-9.56466
一系列	-9.56504
这些问题	-9.5657
▁目前	-9.56571
▁之后	-9.56589
使我们	-9.56636
▁可是	-9.56649
重大	-9.56697
位于	-9.56704
怀	-9.56727
信仰	-9.56785
器官	-9.56811
制度	-9.56849
理想	-9.56852
曲	-9.56867
那儿	-9.56911
完美	-9.57
增	-9.57004
一代	-9.57005
后面	-9.57026
it	-9.57035
只需要	-9.57099
补	-9.57113
程	-9.57114
]	-9.57118
这个故事	-9.57222
目	-9.57351
喷	-9.57447
元素	-9.57454
的关系	-9.57455
创意	-9.57462
最初	-9.57468
工厂	-9.57493
不仅仅	-9.57499
一百	-9.57512
▁很多	-9.57526
▁我不知道	-9.57615
的发展	-9.57625
很少	-9.57713
采用	-9.57718
岁的	-9.57754
的速度	-9.57819
▁尤其是	-9.57836
▁H	-9.5793
肿瘤	-9.58108
超级	-9.58131
▁那时	-9.58155
比例	-9.5822
所说的	-9.58232
的朋友	-9.58273
生活的	-9.58306
的变化	-9.58341
印	-9.58348
个小时	-9.58403
有所	-9.58408
归	-9.58409
这个词	-9.58484
刻	-9.58537
复制	-9.58552
反对	-9.58575
▁我们都	-9.58601
把我	-9.58678
望	-9.58684
蒙	-9.58727
用户	-9.58742
▁你可以看到	-9.58759
而已	-9.58764
年里	-9.58847
需求	-9.58852
那天	-9.58891
女士	-9.59074
呆	-9.59108
农业	-9.59119
展现	-9.59121
我能	-9.59204
正确的	-9.59211
的城市	-9.59238
想知道	-9.59287
生物学	-9.59291
出现了	-9.59385
le	-9.59387
名字	-9.59388
▁由	-9.59408
意思	-9.59424
宽	-9.59443
援助	-9.59445
漫画	-9.59469
左边	-9.59472
令	-9.59602
去年	-9.59729
章	-9.59747
年后	-9.59753
满足	-9.598
▁或者是	-9.59818
创造力	-9.59884
不喜欢	-9.5991
脱	-9.59936
之处	-9.59976
产生的	-9.59992
对我	-9.60014
从事	-9.60068
记者	-9.60117
贡献	-9.60118
相对	-9.60123
附近	-9.60134
细节	-9.60135
存在于	-9.60141
也不是	-9.60151
事业	-9.60216
早上	-9.60249
的项目	-9.60368
瓶	-9.60373
借	-9.60419
很简单	-9.60433
昆虫	-9.60458
es	-9.60485
走进	-9.60535
恶	-9.60665
元	-9.60712
W	-9.60775
香	-9.60794
往往	-9.60847
你自己	-9.60848
得多	-9.60896
得以	-9.60909
来的	-9.61044
人物	-9.61052
英雄	-9.6114
变革	-9.61144
职业	-9.61157
在此	-9.61187
▁这意味着	-9.61322
居住	-9.61374
码	-9.6141
我不	-9.61446
世界各地	-9.61459
卷	-9.61481
赶	-9.61481
准确	-9.61484
大多数人	-9.61532
成就	-9.61545
ch	-9.61573
背后	-9.61613
联	-9.61643
供	-9.61684
猜	-9.61694
贵	-9.61818
惊讶	-9.61819
怪	-9.61889
的未来	-9.61946
我们都	-9.62045
让人们	-9.62048
潜	-9.62148
穿过	-9.62164
神奇	-9.62246
▁我开始	-9.6225
沟通	-9.6228
这么多	-9.6233
右边	-9.62456
如今	-9.62472
既	-9.62503
皮肤	-9.62517
约翰	-9.62517
获取	-9.62557
问我	-9.62616
德国	-9.62666
一开始	-9.62719
很好的	-9.62724
哪些	-9.62758
道路	-9.62769
生态	-9.62771
g	-9.62815
舞	-9.62819
欧	-9.62858
伦敦	-9.62865
追求	-9.62868
文章	-9.62876
联合国	-9.62881
野	-9.63026
得出	-9.63069
钟	-9.63099
高度	-9.63119
很明显	-9.63164
我们应该	-9.63243
把这个	-9.63326
我们如何	-9.63358
静	-9.63442
箱	-9.63457
平台	-9.6353
微生物	-9.63553
资料	-9.63567
依然	-9.63569
如果我	-9.6359
团体	-9.6363
还可以	-9.6363
都不	-9.63654
几个月	-9.63669
刚才	-9.63718
另一种	-9.63836
不过	-9.63843
杂	-9.63899
攻击	-9.63916
密码	-9.63921
戴	-9.63993
深入	-9.64015
目的	-9.64039
一部	-9.64116
普通	-9.64221
的身体	-9.64306
持	-9.64384
这只	-9.64516
我们会	-9.64569
慢慢	-9.64631
伤害	-9.64637
学会	-9.64668
释放	-9.64707
▁于是我们	-9.64852
性别	-9.64911
居	-9.64912
备	-9.64931
滑	-9.64946
的部分	-9.64972
秘密	-9.64977
蛋白质	-9.64978
兴趣	-9.64997
园	-9.65126
几年前	-9.65179
雨	-9.65223
主意	-9.65271
玛	-9.6532
雪	-9.65321
▁第一个	-9.65324
耳	-9.65326
激励	-9.65327
恐龙	-9.6533
购买	-9.65352
范围内	-9.654
嗯	-9.65434
的经历	-9.65462
就这样	-9.65552
▁C	-9.6556
形状	-9.65566
除了	-9.65608
▁现在我	-9.65649
够	-9.65683
x	-9.65685
普遍	-9.65693
帮助我们	-9.65734
是最	-9.65902
就是这样	-9.65932
听起来	-9.65968
博	-9.66012
你想	-9.66018
感觉到	-9.6602
闪	-9.66043
检查	-9.66047
现场	-9.66063
有没有	-9.66185
好了	-9.66259
缩	-9.66281
ro	-9.66307
床	-9.66328
途径	-9.66404
就开始	-9.66444
最大	-9.66447
会在	-9.66475
触	-9.66519
有些人	-9.66519
▁也就是说	-9.66526
这些数据	-9.66572
你就	-9.66613
有多少	-9.6662
广	-9.66685
记住	-9.66732
碎	-9.66739
省	-9.66749
▁正是	-9.66755
彻底	-9.66767
谈到	-9.6681
都没有	-9.66878
也不会	-9.67012
围	-9.67078
丽	-9.67093
很有趣	-9.67102
迅速	-9.67127
培养	-9.67129
蜜蜂	-9.67129
灭绝	-9.67131
▁可	-9.67139
这场	-9.67158
展	-9.67203
员工	-9.67255
▁那里	-9.67285
很小	-9.67299
治	-9.67347
劳	-9.67439
▁其	-9.67443
▁不管	-9.67476
法国	-9.67498
▁在我们	-9.67523
两年	-9.67582
心脏	-9.67664
容	-9.67681
将其	-9.67686
基因组	-9.67734
载	-9.67741
模	-9.67788
灾难	-9.67866
说法	-9.67871
卫生	-9.67874
男	-9.67948
▁又	-9.67988
一切都	-9.68065
的一切	-9.68121
▁你就	-9.68178
没有什么	-9.68182
旁边	-9.68237
特征	-9.68252
粒子	-9.68263
不好	-9.68275
原理	-9.68304
感受到	-9.68326
太阳能	-9.68348
万人	-9.68352
因为我	-9.68456
机制	-9.6847
一致	-9.68484
千万	-9.68498
暗	-9.68544
废	-9.68557
艾滋病	-9.68562
露	-9.68572
我今天	-9.68583
广泛	-9.68591
▁有人	-9.68638
前面	-9.68697
免费	-9.68699
是有	-9.68731
伯	-9.68885
谱	-9.68906
埃	-9.68928
罪	-9.68932
烟	-9.68945
默	-9.68948
认识到	-9.68957
爸爸	-9.68958
旅程	-9.6896
这点	-9.6899
人体	-9.69079
办	-9.69249
移	-9.69259
学到	-9.69277
嘴	-9.69328
驾驶	-9.69329
趋势	-9.69331
示	-9.69449
所有人都	-9.69455
大众	-9.69501
库	-9.69533
镜	-9.69534
的历史	-9.69534
带到	-9.69536
▁我的意思是	-9.6957
强大	-9.69616
▁但它	-9.69633
成为一个	-9.69654
侧	-9.697
金融	-9.69707
▁大约	-9.69803
▁但在	-9.69837
技能	-9.69861
的角度	-9.69898
所有这些	-9.69969
混	-9.69974
政	-9.69995
得到的	-9.70031
两种	-9.70036
效率	-9.70046
股	-9.70068
二氧化碳	-9.70073
燃料	-9.70074
许多人	-9.70257
呈现	-9.70283
懂	-9.70287
应对	-9.70291
▁如	-9.70318
黑人	-9.70385
的内容	-9.70425
成千上万	-9.70447
案例	-9.70457
提醒	-9.70462
将来	-9.70525
节目	-9.7062
产生了	-9.7065
末	-9.70696
加上	-9.70701
▁嗯	-9.7071
平等	-9.70717
▁另一个	-9.70731
博客	-9.70831
系	-9.7092
就要	-9.70922
用了	-9.70923
我开始	-9.70968
最高	-9.71114
▁看	-9.71144
失去了	-9.71151
羊	-9.71181
摩	-9.71199
胡	-9.71201
辩论	-9.71207
公众	-9.71214
▁她说	-9.71238
类似的	-9.71332
也在	-9.71397
消息	-9.71466
▁有时	-9.71616
外面	-9.71652
我们知道	-9.71736
组合	-9.71831
U	-9.7196
掌握	-9.71962
机械	-9.71967
▁我发现	-9.72025
没什么	-9.72126
潮	-9.72173
随	-9.72178
▁假如	-9.72195
分布	-9.72231
测	-9.72239
全国	-9.72251
▁来自	-9.72256
▁特别是	-9.72303
捕	-9.72312
一座	-9.72312
孔	-9.72341
酸	-9.72341
为此	-9.72344
怀疑	-9.72345
错了	-9.72372
高中	-9.72469
的书	-9.72482
第二个	-9.72494
决	-9.72622
不应该	-9.72634
▁我现在	-9.72638
页	-9.72686
忙	-9.72716
兹	-9.72724
浪费	-9.72732
刺激	-9.72815
小小的	-9.72962
我们将	-9.72988
的情况下	-9.73092
缺乏	-9.73111
拒绝	-9.73117
强烈	-9.73121
播放	-9.73167
态	-9.7318
梦	-9.73243
景	-9.73313
美丽的	-9.73353
面积	-9.73376
则是	-9.73376
关联	-9.73395
还会	-9.7341
富有	-9.73413
念	-9.73474
衣服	-9.73507
误	-9.73532
极端	-9.73538
这个人	-9.73541
▁他是	-9.73644
稳定	-9.73652
说到	-9.73725
这是个	-9.73757
的环境	-9.73807
弗	-9.73832
有能力	-9.7387
国家的	-9.73872
毁	-9.73879
‘	-9.73883
肺	-9.73883
简直	-9.73897
启发	-9.73903
酷	-9.73916
解决方案	-9.73921
存在的	-9.73952
▁非常	-9.73972
期间	-9.73982
走到	-9.74007
▁谁	-9.74012
做一个	-9.74019
美丽	-9.74055
为何	-9.7413
朝	-9.74136
等待	-9.74141
发展中国家	-9.74273
选举	-9.74306
患	-9.74308
进去	-9.74393
创造出	-9.744
我们也	-9.74556
▁由于	-9.74608
些什么	-9.74662
改革	-9.74664
我对	-9.7468
玩具	-9.74739
能让	-9.74913
是如此	-9.74965
有机会	-9.75014
每次	-9.75041
伊拉克	-9.75055
▁这也是	-9.75099
惊	-9.75107
在你	-9.75111
重点	-9.7512
聚集	-9.75132
家里	-9.75151
卫	-9.75162
期待	-9.75166
适合	-9.75178
不了	-9.75186
的事物	-9.75191
你不能	-9.75241
透	-9.7526
抓	-9.75373
胜	-9.75399
▁我还	-9.75404
帕	-9.75446
黑暗	-9.75463
部落	-9.75491
的生物	-9.75607
汇	-9.75612
有两个	-9.7572
有时	-9.75724
爆炸	-9.75728
出现在	-9.75781
对我来说	-9.75802
在我的	-9.75825
丹	-9.75832
摆	-9.75837
插	-9.75844
判断	-9.75853
从中	-9.75879
赞	-9.75938
应该是	-9.75987
可以通过	-9.76039
有一种	-9.7608
ur	-9.76132
准	-9.76166
虽然	-9.76169
/	-9.7624
输入	-9.76257
发挥	-9.76261
感知	-9.76302
毫无	-9.76363
作出	-9.76437
画面	-9.76533
合理	-9.76537
教学	-9.76598
漫	-9.76605
馆	-9.7663
望远镜	-9.76639
寄	-9.76639
伊朗	-9.76645
奇妙	-9.76647
电池	-9.76654
is	-9.76666
进行了	-9.76711
般	-9.76772
就像是	-9.76849
的空间	-9.76875
写了	-9.7689
以下	-9.76915
给了	-9.76926
棒	-9.76937
遗	-9.76938
la	-9.77018
冒	-9.77037
莫	-9.77039
按照	-9.77077
热情	-9.77097
无论	-9.77102
将要	-9.77109
的第一	-9.77114
的工具	-9.77137
拿到	-9.77145
▁基本上	-9.77248
▁有时候	-9.77363
袋	-9.77421
麻	-9.77435
武器	-9.77437
每一	-9.7744
马上	-9.77474
案	-9.77486
▁我们能	-9.77513
来源	-9.77567
的作用	-9.77603
以上	-9.77609
接着	-9.77672
一生	-9.77697
军队	-9.7772
要么	-9.77771
▁给	-9.77775
你是	-9.77812
取决于	-9.77844
同性恋	-9.77844
苹果	-9.77844
便宜	-9.77851
海岸	-9.77865
二十	-9.77885
注意力	-9.77937
在那儿	-9.78
的演讲	-9.78065
相当于	-9.78087
那么多	-9.781
驱动	-9.78137
苦	-9.78213
—	-9.78235
鸡	-9.78244
脆弱	-9.7825
传递	-9.78258
史	-9.78276
原来	-9.78284
走向	-9.78325
一个新的	-9.78356
独	-9.78407
要知道	-9.78471
校	-9.78496
看不到	-9.7859
货	-9.78625
一本	-9.78628
范	-9.78644
铁	-9.78647
拼	-9.78655
变得更	-9.78682
手段	-9.78742
扫描	-9.78784
电力	-9.78884
那时候	-9.7889
赢	-9.78964
据	-9.78966
希	-9.79056
另	-9.79064
麻烦	-9.79067
那就是	-9.7908
维持	-9.79086
报纸	-9.79098
这不是	-9.79128
没错	-9.79184
看来	-9.79191
出版	-9.79256
面临	-9.79265
历	-9.79351
am	-9.79386
争	-9.79406
哪个	-9.79457
玻璃	-9.79473
疯狂	-9.79503
智	-9.79539
实在	-9.79582
强大的	-9.79713
▁这就是我们	-9.79724
什么时候	-9.79754
▁他们说	-9.79782
▁这就是为什么	-9.79852
撞	-9.7987
▁克里斯	-9.79877
烧	-9.79881
以色列	-9.79885
采取	-9.79888
式的	-9.79899
还没	-9.79917
多么	-9.79921
版本	-9.79922
寿命	-9.79949
识别	-9.79974
消费	-9.79988
极其	-9.80011
很大的	-9.80036
余	-9.8014
跟我	-9.80159
相同	-9.80163
乘	-9.80185
自行车	-9.80298
期望	-9.80326
众	-9.80338
对象	-9.80365
怎么做	-9.80375
▁过去	-9.8044
流行	-9.80507
▁我将	-9.80539
降	-9.80572
以来	-9.8062
▁它会	-9.80632
被称为	-9.80674
胶	-9.80712
轴	-9.80713
慈善	-9.80714
我将	-9.80714
我想要	-9.80722
执行	-9.80754
说服	-9.80835
▁好的	-9.80888
获	-9.80919
▁所有的	-9.80925
抗	-9.80972
实际上是	-9.80986
即将	-9.8099
地下	-9.81015
执	-9.81088
缺	-9.81091
奇怪的	-9.81092
居民	-9.8114
总结	-9.81147
路上	-9.81199
有许多	-9.81237
士兵	-9.81318
不久	-9.81352
做得	-9.81415
看过	-9.81419
什么呢	-9.81444
年来	-9.81466
绿	-9.81518
这个想法	-9.81521
处在	-9.81559
超越	-9.81608
为我们	-9.81674
物品	-9.81789
克斯	-9.8179
万美元	-9.81823
▁不要	-9.8195
拖	-9.81968
沙漠	-9.81972
篇	-9.82064
大规模	-9.82142
资	-9.82192
▁但他们	-9.8224
%。	-9.82246
丢	-9.82377
招	-9.82388
’	-9.8239
渴望	-9.82391
回去	-9.82398
的食物	-9.82438
相关的	-9.8244
的看法	-9.82454
大自然	-9.8246
曲线	-9.82474
能否	-9.82482
混合	-9.82491
一点点	-9.82495
潜水	-9.8252
的反应	-9.82634
航	-9.82697
提供了	-9.82737
穆斯林	-9.82814
凯	-9.82814
解决问题	-9.82818
依赖	-9.82822
那样的	-9.82923
来做	-9.82943
生态系统	-9.82996
▁至少	-9.83103
推动	-9.83113
角色	-9.83207
偷	-9.83228
乔	-9.83233
丈夫	-9.8324
农民	-9.83248
▁然后你	-9.8325
岁的时候	-9.83371
当今	-9.83383
▁你看	-9.83441
从来没有	-9.8351
能在	-9.83575
▁我当时	-9.83643
党	-9.83654
自闭症	-9.83667
骑	-9.83667
不知	-9.8367
标志	-9.83674
隐藏	-9.83674
做的事	-9.83715
告诉他们	-9.83796
这本书	-9.83797
症状	-9.83804
名叫	-9.83861
字母	-9.83863
将它	-9.83883
搭	-9.84081
我已经	-9.84082
理性	-9.84084
逻辑	-9.84096
想像	-9.84256
可以让	-9.84269
层面	-9.84382
私人	-9.84383
封	-9.84383
去看	-9.84392
屏幕	-9.84398
伟大	-9.84403
严重的	-9.84437
威	-9.84448
---	-9.84453
非常好	-9.8455
设想	-9.84619
美好	-9.84863
息	-9.84905
旗	-9.84937
忘记	-9.84969
评论	-9.8497
行走	-9.85018
了解到	-9.85052
参	-9.85076
的意义	-9.85077
的数量	-9.85125
听说过	-9.85131
一个非常	-9.85136
在这儿	-9.85181
幕	-9.85391
脂	-9.85395
估计	-9.85398
共享	-9.85401
看到的是	-9.85407
后果	-9.8544
一辆	-9.85463
更高	-9.85484
▁通常	-9.85519
▁只	-9.85559
乐观	-9.85674
良	-9.85676
止	-9.85678
可怕的	-9.85722
▁这些是	-9.8577
黑猩猩	-9.85837
我一直	-9.85851
调整	-9.85858
毒品	-9.8589
才会	-9.86072
惊人的	-9.86088
务	-9.86088
一千	-9.86144
农	-9.86213
餐	-9.86231
黄	-9.86238
瑞	-9.86253
哇	-9.8627
钻	-9.8627
技巧	-9.86271
死去	-9.86452
似	-9.86539
都很	-9.86611
沃	-9.8666
种类	-9.8668
逃	-9.86681
泰	-9.86688
一幅	-9.86705
'	-9.8671
税	-9.8671
菲	-9.8671
挂	-9.8671
猪	-9.8671
霍	-9.8671
幼	-9.8671
客户	-9.86715
启动	-9.86732
角落	-9.86746
▁你能	-9.86747
指出	-9.86756
特殊	-9.86799
▁这就是我	-9.8681
▁第三	-9.86822
会发生	-9.86843
有意思	-9.86866
了我的	-9.86884
▁我是	-9.86898
个国家	-9.86929
发布	-9.86947
统计	-9.87054
必须要	-9.87084
桌	-9.8709
的存在	-9.87096
他们在	-9.87146
策略	-9.87154
覆盖	-9.87155
基金会	-9.8728
加州	-9.87367
完美的	-9.87374
开车	-9.87377
生意	-9.87511
都被	-9.87512
顺	-9.87538
堂	-9.87539
尖	-9.87551
对他们	-9.87554
薄	-9.87597
有一	-9.87613
边缘	-9.87619
固定	-9.87635
探	-9.87674
支	-9.87731
一旦	-9.8774
在过去	-9.87777
▁我们把	-9.87903
指数	-9.87924
公里	-9.87962
厂	-9.87981
实践	-9.88043
刀	-9.88044
演示	-9.88053
提升	-9.88082
交谈	-9.88091
之类的	-9.88153
没法	-9.88168
峰	-9.88276
有效的	-9.88361
认	-9.88406
守	-9.88482
珊瑚	-9.88491
阵	-9.88492
放大	-9.8858
族	-9.88694
历史上	-9.88768
同一个	-9.88796
善	-9.88825
洋	-9.88893
松	-9.88904
丁	-9.88909
▁因为你	-9.88933
磅	-9.88943
震惊	-9.88953
▁CA	-9.88991
因为我们	-9.89048
主义者	-9.89145
▁大概	-9.89224
▁几乎	-9.89247
鞋	-9.89289
▁我是说	-9.8934
哥	-9.89385
▁想象一下	-9.89406
▁好了	-9.89458
前进	-9.89471
标记	-9.89494
回应	-9.89508
都要	-9.89563
了吗	-9.89583
▁根据	-9.89611
流动	-9.89663
▁我对	-9.89691
很棒	-9.89743
述	-9.89793
走了	-9.89847
矛盾	-9.89849
绕	-9.89866
代码	-9.89868
什么样的	-9.89891
▁我喜欢	-9.89998
▁并不是	-9.90076
可是	-9.90086
徒	-9.902
斗争	-9.9031
依靠	-9.90317
你所	-9.90317
透明	-9.90324
▁W	-9.90336
ol	-9.90355
第三个	-9.90356
谈话	-9.90359
已经被	-9.90444
特定	-9.90462
序	-9.90492
我现在	-9.90501
斯特	-9.90534
完成了	-9.90595
人士	-9.90604
▁他们在	-9.90655
▁每个人都	-9.90663
扔	-9.90681
▁仅仅	-9.90692
图表	-9.90717
饭	-9.90733
附	-9.90743
席	-9.90744
禁	-9.90757
猴子	-9.90788
地位	-9.90795
整体	-9.90847
v	-9.90876
副	-9.90881
改进	-9.90899
达成	-9.90901
有趣的是	-9.90925
一段时间	-9.90925
所能	-9.90964
一套	-9.91037
癌	-9.91182
合成	-9.91196
走出	-9.91208
硬	-9.91209
扎	-9.91223
盒子	-9.9127
专利	-9.91275
教师	-9.91277
的家庭	-9.91282
不确定	-9.91395
对吗	-9.91399
是多么	-9.9146
种植	-9.91524
合法	-9.91528
穿着	-9.91533
他们会	-9.91539
施	-9.91588
厚	-9.91689
赋予	-9.91689
投票	-9.91698
象征	-9.91701
照顾	-9.91704
看了	-9.91705
▁正在	-9.91708
基础设施	-9.91717
的角色	-9.91752
的钱	-9.91768
▁我很	-9.91797
在想	-9.9197
恒星	-9.92039
刺	-9.92044
伴	-9.92112
艰难	-9.92168
规划	-9.92171
街道	-9.92198
强调	-9.92216
州的	-9.92242
做成	-9.92277
商品	-9.92348
构成	-9.92349
是一名	-9.92416
样本	-9.92422
给他	-9.92493
屋	-9.92518
毕业	-9.92581
有点像	-9.92582
不起	-9.92603
摄影	-9.92615
婚姻	-9.92621
幻灯片	-9.92621
领袖	-9.92623
衡量	-9.92634
紧张	-9.92644
埃及	-9.9265
文件	-9.92674
血管	-9.92683
真的很	-9.92687
▁在这	-9.92692
▁这一	-9.92734
不够	-9.92775
我必须	-9.92815
几天	-9.92831
的经济	-9.92855
因为它	-9.92902
优	-9.92908
充满了	-9.92928
▁是因为	-9.92936
▁E	-9.92995
的公司	-9.93004
在未来	-9.93038
残	-9.93078
教堂	-9.9309
措施	-9.93093
玩耍	-9.93095
对我说	-9.93147
到处	-9.93263
▁一旦	-9.93281
我父亲	-9.93468
世界上最	-9.93472
地面	-9.93509
当作	-9.9351
抽	-9.93542
可以把	-9.93556
▁因此我们	-9.9356
吓	-9.93562
致力于	-9.93563
决策	-9.93564
活跃	-9.9357
这正是	-9.93597
私	-9.93675
▁对我来说	-9.9369
成立	-9.93709
真相	-9.93724
本来	-9.93727
消	-9.93786
遍	-9.93832
▁F	-9.93846
▁这里有	-9.93929
堆	-9.93983
域	-9.93985
裂	-9.93993
社交	-9.93996
横	-9.94031
呀	-9.94036
功	-9.94044
▁让他们	-9.94057
费用	-9.94066
演员	-9.94071
大陆	-9.94112
对你	-9.94174
工人	-9.94275
上学	-9.94328
坦	-9.94345
术	-9.94366
进一步	-9.94412
▁他们都	-9.94416
人数	-9.94437
?“	-9.94446
Y	-9.94511
大脑的	-9.94528
▁这是一种	-9.9458
制定	-9.94588
对方	-9.94588
动机	-9.94709
给你们看	-9.94757
句	-9.94782
使我	-9.94832
意见	-9.94835
青	-9.94841
包含	-9.94869
ne	-9.94908
写的	-9.94934
▁作为一个	-9.94979
带来的	-9.94986
严肃	-9.94991
愤怒	-9.94991
诞生	-9.94998
明确	-9.95002
医	-9.95045
精确	-9.95059
▁下面	-9.9508
是我的	-9.95082
重建	-9.95099
录像	-9.951
身份	-9.95186
▁N	-9.95245
▁我们应该	-9.95264
环境中	-9.95298
五十	-9.95347
传统的	-9.95359
的第一个	-9.95376
你就会	-9.95401
地点	-9.95426
狂	-9.95445
凡	-9.95451
奖励	-9.95472
更有	-9.95475
寻求	-9.95475
邻居	-9.95476
尊重	-9.95484
▁而这些	-9.95524
在我们的	-9.95557
视角	-9.95593
▁他们是	-9.95679
唯一的	-9.95733
▁你需要	-9.95746
做一些	-9.95757
▁他在	-9.95811
认真	-9.95912
南非	-9.95923
珍	-9.95948
采	-9.95951
柱	-9.95955
肌肉	-9.95958
的能量	-9.95989
进展	-9.95992
集体	-9.96
ed	-9.96001
效应	-9.96038
▁当他们	-9.96052
▁因为他	-9.96085
跨	-9.96122
观看	-9.96234
拿着	-9.96234
改造	-9.96238
在印度	-9.96314
相机	-9.96316
付出	-9.96391
判	-9.96403
略	-9.96419
多年	-9.96431
桥	-9.96439
的基因	-9.9644
穷人	-9.9644
安德森	-9.9644
滴	-9.9644
舞蹈	-9.96441
睡眠	-9.96443
轨道	-9.96449
高兴	-9.96477
积	-9.96509
把自己	-9.96516
地理	-9.96519
▁K	-9.96573
杯	-9.96643
▁需要	-9.96654
是不	-9.96875
耐	-9.96878
的人口	-9.96881
灰	-9.96914
每天都	-9.96928
最佳	-9.97069
任何一个	-9.971
设	-9.97173
地说	-9.97221
看一下	-9.97234
特别的	-9.97244
不像	-9.97279
消费者	-9.97308
尾	-9.97387
雅	-9.97413
金属	-9.97435
预防	-9.97435
阳光	-9.97459
名为	-9.9751
▁这也	-9.97663
益	-9.9769
都知道	-9.9771
▁每天	-9.97735
虚拟	-9.97783
播	-9.97802
兄弟	-9.97909
你可以看到	-9.97912
单词	-9.97968
存活	-9.9803
我不知道	-9.98089
却是	-9.98145
好奇	-9.98221
发明了	-9.98223
带来了	-9.98307
着手	-9.98378
缓	-9.98387
爱因斯坦	-9.98406
田	-9.98406
纹	-9.98406
血液	-9.98419
环保	-9.98422
灵感	-9.9845
就算	-9.98454
▁但是他们	-9.98462
所看到的	-9.98469
▁才能	-9.9859
一个例子	-9.98633
特性	-9.98665
尽管	-9.98694
我们还	-9.9871
ing	-9.98773
刑	-9.98879
进来	-9.98901
村庄	-9.98905
肯尼亚	-9.98905
销售	-9.98906
国会	-9.98923
加速	-9.9893
片段	-9.98958
作家	-9.99002
死了	-9.99004
的基础	-9.99023
开心	-9.99033
要去	-9.99048
干细胞	-9.99051
兵	-9.99178
▁整个	-9.99179
最多	-9.99292
特殊的	-9.99308
智能	-9.99319
的价值	-9.99321
虚	-9.99399
培训	-9.99404
承诺	-9.99405
旋转	-9.99412
手指	-9.99457
▁这些都是	-9.99478
很高兴	-9.99492
领导者	-9.99626
打印	-9.99654
翻译	-9.99798
五年	-9.99801
朋友们	-9.99831
▁随着	-9.99841
还有一个	-9.99872
墨西哥	-9.99903
清晰	-9.99906
加拿大	-9.99906
符合	-9.99914
人工	-9.9994
我们想要	-9.99946
不幸的是	-9.99968
▁我们对	-9.99969
许	-9.99981
赢得	-10.0003
算法	-10.0005
▁而且我	-10.0012
▁这些人	-10.0015
小组	-10.0016
展示了	-10.0023
的女性	-10.0029
答	-10.0032
梅	-10.0041
直觉	-10.0042
混乱	-10.0042
的眼睛	-10.0049
放进	-10.0054
▁中国	-10.0058
便是	-10.0071
▁那么我们	-10.008
网上	-10.0082
能做到	-10.0082
坚	-10.0084
▁使得	-10.0085
岩	-10.009
这么说	-10.0091
的时刻	-10.0095
死于	-10.0101
获得了	-10.0102
各种各样的	-10.0106
大卫	-10.0107
规	-10.0109
意外	-10.0117
做些什么	-10.0117
还有很多	-10.0118
这个国家	-10.0123
il	-10.0134
至今	-10.0136
戏	-10.014
▁在美国	-10.0143
吹	-10.0143
胸	-10.0143
采访	-10.0143
优势	-10.0144
必	-10.0145
白色	-10.0148
随机	-10.0148
差别	-10.015
典	-10.015
抓住	-10.0153
的目的	-10.0154
填	-10.0157
在非洲	-10.0158
仪器	-10.0162
真的是	-10.0165
很可能	-10.0168
律师	-10.0169
as	-10.0173
说的是	-10.0176
其中一个	-10.0179
确实是	-10.0188
阿拉伯	-10.0192
邮件	-10.0194
湖	-10.0194
展览	-10.0194
损失	-10.0195
搬	-10.02
你需要	-10.0207
主题	-10.0207
难民	-10.0223
我希望	-10.0227
能找到	-10.0239
▁每年	-10.0239
奇怪	-10.0241
鼠	-10.0242
衰	-10.0243
忽略	-10.0246
愿望	-10.0247
供应	-10.0248
打破	-10.0254
特定的	-10.0254
难道	-10.0258
话题	-10.026
年轻的	-10.026
▁在这里	-10.0264
展开	-10.0272
属	-10.0272
不平等	-10.0285
非常非常	-10.0292
狱	-10.0297
桶	-10.0297
祖先	-10.0299
现状	-10.03
充分	-10.0302
▁你要	-10.0302
让他	-10.0303
情形	-10.0304
无限	-10.0304
额外	-10.0305
会发生什么	-10.0305
道理	-10.031
▁最近	-10.0313
远远	-10.0313
发射	-10.0313
▁「	-10.0313
▁在那里	-10.0316
的可能性	-10.0321
更大的	-10.0335
的需求	-10.0338
影片	-10.0341
保存	-10.0341
有限	-10.0348
应当	-10.0348
举个例子	-10.035
貌	-10.035
踏	-10.035
图书馆	-10.035
模仿	-10.035
结婚	-10.035
宣传	-10.035
椅子	-10.0352
之内	-10.0355
潜力	-10.0357
建筑师	-10.0357
▁你会发现	-10.0359
可爱	-10.036
金钱	-10.0362
在做	-10.0364
▁因为这	-10.0364
企业家	-10.0364
材	-10.0366
为什么要	-10.037
引发	-10.0374
图案	-10.0374
充	-10.0375
每一个人	-10.0384
宇宙中	-10.0389
耗	-10.0395
更为	-10.0396
旁	-10.0398
赫	-10.0402
摆脱	-10.0403
陷入	-10.0403
▁我们从	-10.0405
送到	-10.041
提取	-10.0414
来讲	-10.0414
▁L	-10.0425
经历了	-10.0431
票	-10.0451
销	-10.0452
理念	-10.0453
奇迹	-10.0456
争论	-10.0456
倾听	-10.0457
场景	-10.0459
开展	-10.0462
限	-10.0475
尽可能	-10.0476
不必	-10.048
我们发现	-10.048
非常简单	-10.048
来看看	-10.0483
官	-10.0492
学生们	-10.0496
的结构	-10.0498
▁我们希望	-10.0505
佛	-10.0506
休	-10.0506
摇	-10.0507
疟疾	-10.0507
专门	-10.0512
的知识	-10.0516
鼓	-10.052
第四	-10.0522
▁我从	-10.0525
保留	-10.0529
热爱	-10.0529
全球化	-10.0532
▁我记得	-10.0548
▁你可能	-10.0554
氧	-10.0558
受害者	-10.0561
恋	-10.0561
牢	-10.0561
扮演	-10.0561
神秘	-10.0562
蚊子	-10.0562
修复	-10.0563
研发	-10.0571
做的是	-10.0571
彩	-10.0574
你必须	-10.0575
的梦想	-10.0579
▁或者说	-10.0583
把这	-10.0584
可以从	-10.0592
排放	-10.0594
▁在过去的	-10.0598
的意思	-10.0599
▁因此我	-10.0599
征	-10.0607
穷	-10.0608
依	-10.061
我相信	-10.061
▁所以这	-10.0612
抱	-10.0614
企鹅	-10.0614
练习	-10.0614
海豚	-10.0614
标签	-10.0615
短信	-10.0617
的区域	-10.0622
拿出	-10.0625
告诉大家	-10.0628
的产品	-10.0634
划	-10.0639
幻	-10.0641
不可思议的	-10.0648
途	-10.0648
带给	-10.065
价值观	-10.0656
洛杉矶	-10.0668
澳大利亚	-10.0668
反馈	-10.0668
稍微	-10.0669
黑客	-10.067
sh	-10.0675
这些事情	-10.0678
li	-10.0678
小型	-10.068
季	-10.0686
的语言	-10.0686
激动	-10.0697
的运动	-10.0699
塑造	-10.0699
少数	-10.0712
我还是	-10.0712
也很	-10.0713
杀死	-10.0715
软	-10.0719
患有	-10.0721
幅	-10.0722
老人	-10.0722
尼日利亚	-10.0722
著名的	-10.0723
移民	-10.0723
促进	-10.0725
夏天	-10.0725
产业	-10.0725
根本不	-10.0737
ic	-10.0737
因为他们	-10.0741
题	-10.0755
厅	-10.0761
的方向	-10.0762
成分	-10.0766
液	-10.077
神奇的	-10.0771
乎	-10.0772
评	-10.0772
懂得	-10.0774
分离	-10.0774
豆	-10.0776
引擎	-10.0776
冒险	-10.0777
突破	-10.0777
以外	-10.0777
难题	-10.0778
氧气	-10.0779
▁然后他们	-10.0779
出发	-10.0782
靠近	-10.0783
的建筑	-10.0784
好消息	-10.0784
在乎	-10.0794
两者	-10.0794
做好	-10.0795
▁[	-10.0798
的任务	-10.08
提到的	-10.08
遗传	-10.0808
注	-10.0814
个孩子	-10.0815
就不会	-10.082
窗	-10.0828
粘	-10.0831
订	-10.0831
精彩	-10.0832
惊奇	-10.0833
中央	-10.0833
ha	-10.0835
日子	-10.0836
预算	-10.0837
能不能	-10.0845
大脑中	-10.0851
正如	-10.0862
一大	-10.0864
不断地	-10.0867
听过	-10.0872
同情	-10.0873
抵	-10.0874
一些东西	-10.0877
熟	-10.088
不止	-10.0882
免	-10.0882
赚	-10.0883
妈	-10.0885
汉	-10.0886
Google	-10.0886
争议	-10.0886
黄色	-10.0888
us	-10.0888
临	-10.0894
的过程中	-10.0896
有时候	-10.0898
▁然后他	-10.0901
遭受	-10.0905
它就	-10.0913
大楼	-10.0913
▁所以他们	-10.0922
生成	-10.0923
激发	-10.0934
考	-10.0938
活着	-10.0939
乳	-10.094
疯	-10.0941
吨	-10.0941
符号	-10.0942
实施	-10.0943
代价	-10.0944
会看到	-10.0945
北部	-10.0946
et	-10.0957
▁因为在	-10.096
最后一个	-10.0961
进了	-10.0966
十亿	-10.097
▁我们正在	-10.0972
非洲的	-10.0977
▁但他	-10.0981
要做	-10.0985
三年	-10.0992
稍	-10.0995
欲	-10.0996
不去	-10.0997
瑟	-10.0997
意大利	-10.0997
生命中	-10.1005
头脑	-10.1019
醒	-10.1026
想起	-10.1031
点子	-10.1035
迈	-10.1048
苏	-10.105
腐败	-10.1053
造成的	-10.1053
扩大	-10.1053
建立了	-10.1053
禁止	-10.1053
反映	-10.1054
天空	-10.1054
由此	-10.106
回报	-10.1061
有过	-10.1061
手臂	-10.1062
▁你必须	-10.1064
在纽约	-10.1067
需	-10.1072
几百	-10.1073
层次	-10.1074
全新的	-10.1074
起了	-10.1086
ck	-10.1091
穿越	-10.11
它会	-10.1104
资本	-10.1106
雕塑	-10.1109
奴隶	-10.1109
袭击	-10.1109
火箭	-10.111
古老的	-10.111
发光	-10.1112
三十	-10.1112
如同	-10.1112
所需的	-10.1113
这幅	-10.1115
不是吗	-10.1118
教室	-10.1131
创	-10.1133
屋顶	-10.1136
组成的	-10.1147
可能性	-10.1147
鲜	-10.1153
发电	-10.1156
谢谢你	-10.1156
批	-10.1157
礼	-10.1162
剩	-10.1163
壳	-10.1165
稀	-10.1165
规律	-10.1166
饮食	-10.1166
立刻	-10.1168
岁时	-10.1172
有多少人	-10.1179
当地的	-10.1183
之下	-10.1184
一定要	-10.1184
度过	-10.1187
中东	-10.1187
▁有些人	-10.1188
在座的	-10.1195
已经有	-10.1208
英	-10.1215
喜	-10.1216
隐	-10.1219
蛋	-10.122
叠	-10.1221
辛	-10.1222
喊	-10.1222
嘿	-10.1222
希腊	-10.1222
与此同时	-10.1222
纤维	-10.1223
支付	-10.1223
▁但如果	-10.1223
商店	-10.1226
也许会	-10.1226
影响力	-10.1226
▁而在	-10.1228
的答案	-10.1259
这是我	-10.126
的时代	-10.1261
我的工作	-10.1263
高效	-10.1268
♪	-10.1271
五个	-10.1276
为你	-10.1278
熊	-10.1279
莉	-10.1279
拆	-10.1279
逊	-10.1279
一颗	-10.1279
擅长	-10.128
信念	-10.1283
敏感	-10.1288
人性	-10.1289
空中	-10.1293
▁但是在	-10.1293
经济学家	-10.1295
ma	-10.1301
我喜欢	-10.131
携带	-10.1313
▁去年	-10.1317
所知	-10.1329
的那样	-10.1331
▁世界上	-10.1335
摸	-10.1336
哭	-10.1337
承担	-10.1337
追踪	-10.1337
同情心	-10.1342
深刻	-10.1351
世上	-10.1355
想让	-10.1366
▁我们用	-10.1376
的经验	-10.1381
恐怖	-10.1384
肯	-10.1391
闭	-10.1393
在你的	-10.1393
乌	-10.1394
激情	-10.1396
▁我们认为	-10.1396
掉了	-10.1399
的问题是	-10.1401
死亡率	-10.1407
听说	-10.1409
还记得	-10.1419
是一位	-10.1424
移植	-10.1428
识	-10.1431
你会看到	-10.1438
体现	-10.1446
无数	-10.1446
壁	-10.1451
华盛顿	-10.1453
薪	-10.1453
诱	-10.1453
俄罗斯	-10.1453
亚洲	-10.1454
构建	-10.1454
书籍	-10.1455
印象	-10.1455
回顾	-10.1456
有机	-10.1461
▁所以当	-10.147
者们	-10.1471
很久	-10.148
表情	-10.1482
想象一下	-10.1483
生物学家	-10.149
▁我把	-10.1491
而来	-10.1494
着迷	-10.1499
▁观众	-10.1501
顾	-10.1501
更大	-10.1505
▁所以你	-10.1506
的核心	-10.151
弦	-10.1511
沮丧	-10.1511
昨天	-10.1511
运输	-10.1512
▁这里是	-10.1513
重视	-10.1513
紧密	-10.1513
跟踪	-10.1513
▁哦	-10.1517
论文	-10.1517
形象	-10.1517
回收	-10.1523
影像	-10.1525
ad	-10.1525
联合	-10.1527
可怕	-10.1533
链	-10.1548
释	-10.1552
生理	-10.1568
你知道吗	-10.157
凭	-10.157
洞穴	-10.157
三维	-10.1575
飞行器	-10.1579
平方	-10.1581
核心	-10.1588
都没	-10.159
一本书	-10.1591
运动员	-10.1593
不是一个	-10.1597
只是一个	-10.16
志	-10.1602
谷	-10.1625
审	-10.1626
土壤	-10.1629
娱乐	-10.1629
显著	-10.1629
不少	-10.1636
同时也	-10.1636
正好	-10.1637
更快	-10.164
感情	-10.164
是一样的	-10.1645
把他	-10.1649
更重要的是	-10.1651
流感	-10.1652
阿尔	-10.1655
白人	-10.166
兴	-10.1663
我最喜欢的	-10.1671
扬	-10.1688
甲	-10.1689
盛	-10.1689
贸易	-10.1689
忽视	-10.1689
▁除非	-10.169
小说	-10.1695
周围的	-10.1699
沿着	-10.17
的关键	-10.1706
的图片	-10.1716
气球	-10.1719
说道	-10.1721
亿人	-10.1723
光线	-10.1724
点击	-10.1733
掌	-10.1744
▁所有这些	-10.1747
膜	-10.1749
编辑	-10.1749
齐	-10.1749
繁殖	-10.1749
毕竟	-10.1749
评估	-10.1749
我想说	-10.175
成绩	-10.175
推广	-10.1751
品牌	-10.1753
临床	-10.1754
不幸	-10.1759
另一方面	-10.1759
是通过	-10.1761
舞台	-10.177
的主要	-10.1771
做这个	-10.1777
浮	-10.1781
很棒的	-10.1789
▁它可以	-10.1791
对比	-10.1804
▁问题是	-10.1806
鲸	-10.1807
燃	-10.1807
健	-10.1807
阻	-10.1808
茶	-10.1809
肠	-10.1809
佩	-10.1809
抢	-10.1809
昂贵	-10.1809
独特的	-10.1812
农场	-10.1813
的重要性	-10.1813
取代	-10.1817
纳米	-10.182
融合	-10.1822
住了	-10.1823
激	-10.1825
▁我们开始	-10.1828
开了	-10.184
▁我们想	-10.184
带有	-10.1845
定位	-10.1862
▁我们看到	-10.1866
跟你	-10.1866
娜	-10.1868
闲	-10.1869
埋	-10.1869
民族	-10.1871
黑洞	-10.1873
先进	-10.1873
构造	-10.1873
指导	-10.1874
糟	-10.1875
安装	-10.1878
分配	-10.1878
吸收	-10.1885
法则	-10.1893
握	-10.1905
马克	-10.1915
▁在一个	-10.1918
阴	-10.1927
涂	-10.193
步骤	-10.1931
贷款	-10.1931
注射	-10.1932
引导	-10.1932
顺便	-10.1933
延伸	-10.1935
众多	-10.1935
鲨鱼	-10.1935
含	-10.1936
接收	-10.1941
工作者	-10.1943
推特	-10.1949
▁很多人	-10.1955
意味着什么	-10.1965
比尔	-10.1967
更好地	-10.1976
大象	-10.1985
卵	-10.199
志愿者	-10.1992
兆	-10.1992
烤	-10.1992
甜	-10.1992
达尔文	-10.1992
景象	-10.1994
异常	-10.1996
本地	-10.1998
民众	-10.1999
药品	-10.2
动画	-10.2005
这些信息	-10.2006
故	-10.2009
大气	-10.2012
▁我不是	-10.2018
瞬间	-10.2036
礼物	-10.2039
墙上	-10.204
▁显然	-10.2042
池	-10.205
谋	-10.2052
以此	-10.2053
堡	-10.2053
崩溃	-10.2053
这片	-10.2055
仪式	-10.2056
三分之一	-10.2057
的形式	-10.206
安排	-10.206
诊所	-10.2062
的效果	-10.2066
一组	-10.2074
分之一	-10.2074
可见	-10.2081
的理论	-10.2083
和他的	-10.2085
的脸	-10.2087
完整的	-10.2088
你看	-10.209
将这些	-10.2093
这份	-10.2099
或者是	-10.2099
多样性	-10.2102
典型的	-10.2105
的办法	-10.2106
单一	-10.211
受伤	-10.2114
多了	-10.2114
筹	-10.2114
愚蠢	-10.2116
探讨	-10.2116
▁我已经	-10.2116
连续	-10.2117
鱼类	-10.2124
对抗	-10.2125
去世	-10.2126
的病人	-10.2129
▁但是这	-10.2131
那一刻	-10.2138
种子	-10.214
▁大多数	-10.2142
美好的	-10.2148
房屋	-10.215
要做的	-10.2161
水中	-10.2168
的孩子们	-10.2174
巧	-10.2176
难以置信的	-10.2178
恨	-10.2178
巴基斯坦	-10.2178
Z	-10.2178
欣赏	-10.2178
这个系统	-10.2178
申请	-10.2179
▁它们是	-10.2182
广场	-10.2186
一根	-10.2188
这项技术	-10.2189
淡	-10.2207
认为这	-10.221
跟着	-10.2213
买了	-10.2227
笑声	-10.2227
村	-10.2231
不仅是	-10.2233
传感器	-10.2241
尘	-10.2241
描绘	-10.2241
户	-10.2241
替代	-10.2242
ie	-10.2242
要把	-10.2251
物理学家	-10.2251
把我们	-10.2264
不可思议	-10.2264
离开了	-10.2264
石头	-10.2265
镇	-10.2268
解放	-10.2271
▁但是你	-10.2278
▁如果他们	-10.2282
构	-10.2289
诉	-10.2295
访	-10.2297
责	-10.23
烈	-10.2302
盐	-10.2304
铺	-10.2304
青少年	-10.2304
魅力	-10.2304
这边	-10.2305
局限	-10.2306
感官	-10.2308
喜爱	-10.2309
认同	-10.2309
会产生	-10.231
大概是	-10.2313
原本	-10.2317
改变世界	-10.2318
你现在	-10.2323
发生的事情	-10.2331
特点	-10.2335
ay	-10.2336
多数	-10.2344
的父母	-10.2351
st	-10.2351
的唯一	-10.2354
写作	-10.2355
设施	-10.2355
延	-10.2357
▁无论是	-10.2358
正常的	-10.2359
例如	-10.236
这种情况	-10.2361
ve	-10.2361
仪	-10.2361
岸	-10.2364
杆	-10.2368
堵	-10.2368
挡	-10.2368
桑	-10.2368
游泳	-10.2368
防止	-10.2369
偏见	-10.2372
单位	-10.2377
地区的	-10.2379
合适的	-10.2381
屏幕上	-10.2387
经济增长	-10.2391
优秀的	-10.2413
很高	-10.2414
的话题	-10.2427
▁这对	-10.2427
议	-10.2428
缘	-10.2429
幸	-10.2429
荡	-10.2432
猛	-10.2432
保险	-10.2433
频率	-10.2433
抽象	-10.2434
与我们	-10.2444
爆发	-10.2445
停下来	-10.2447
发送	-10.2447
又是	-10.2449
但我	-10.2449
链接	-10.2452
不行	-10.2452
得知	-10.2452
微笑	-10.2462
敌	-10.2462
营养	-10.2467
起源	-10.2467
过滤	-10.2471
家长	-10.2488
最重要的是	-10.2491
头发	-10.2491
普通的	-10.2493
伙伴	-10.2494
骗	-10.2496
傻	-10.2497
湿	-10.2497
探险	-10.2497
统治	-10.2497
清洁	-10.2497
资助	-10.2498
致命	-10.2499
那个人	-10.2499
无聊	-10.2502
听众	-10.2502
漂亮	-10.2518
反而	-10.2522
查看	-10.2526
公平	-10.2529
气体	-10.253
敌人	-10.2531
自主	-10.2533
▁同时也	-10.2533
心脏病	-10.2535
▁但你	-10.2537
什么东西	-10.2537
想过	-10.2537
从一个	-10.2538
在那个	-10.2545
欢迎	-10.2547
的状态	-10.2547
ta	-10.2547
推进	-10.2552
已经在	-10.2557
规定	-10.2559
美金	-10.256
剪	-10.2561
劲	-10.2561
灵魂	-10.2562
芯片	-10.2562
勇气	-10.2563
战斗	-10.2563
剩下的	-10.2564
设置	-10.2564
护士	-10.2564
为什么不	-10.2567
进程	-10.2567
▁不论	-10.2571
房间里	-10.2579
忘	-10.2589
使你	-10.2596
我们认为	-10.2597
追	-10.26
台上	-10.2602
不安	-10.2604
做些	-10.2606
镜头	-10.2611
▁当时我	-10.2621
哲学	-10.2622
弃	-10.2623
一系列的	-10.2623
以一种	-10.2624
给出	-10.2625
小心	-10.2627
▁换句话说	-10.2627
芬	-10.2627
讨厌	-10.2627
un	-10.2628
我不得不	-10.2629
在学校	-10.2629
生活方式	-10.2631
学术	-10.2633
一周	-10.2633
是对的	-10.264
▁我看到	-10.2642
就知道	-10.2647
年级	-10.2648
▁不仅仅是	-10.2649
克里斯	-10.2652
▁其中一个	-10.2654
变得更加	-10.2657
她说	-10.2681
可以被	-10.2681
无线	-10.2681
脏	-10.2687
烦	-10.2692
租	-10.2693
只不过	-10.2693
治愈	-10.2693
教会	-10.2694
形态	-10.2694
顺利	-10.2698
预期	-10.2698
周期	-10.2701
资本主义	-10.2702
回事	-10.2706
越多	-10.2713
Sh	-10.2716
火车	-10.2717
公正	-10.2717
想象力	-10.2727
▁每次	-10.2727
消失了	-10.2731
这并不是	-10.2734
他们自己	-10.2735
从没	-10.2738
了不起的	-10.2742
的意思是	-10.2743
始	-10.2744
非常感谢	-10.2746
这个过程	-10.2748
秘	-10.2756
刷	-10.2758
污	-10.2759
摄像机	-10.2759
罐	-10.2759
厕所	-10.276
课堂	-10.2761
前往	-10.2761
事故	-10.2778
两倍	-10.278
忘了	-10.2784
不再是	-10.2786
▁所以说	-10.2796
家族	-10.2809
一篇	-10.2809
物理学	-10.2811
密度	-10.2813
我们今天	-10.2816
引用	-10.2817
浪	-10.282
▁第二个	-10.2821
军事	-10.2822
几十年	-10.2822
人造	-10.2823
壮	-10.2823
Chris	-10.2825
奔	-10.2825
乔治	-10.2826
坚信	-10.2829
类型的	-10.283
交换	-10.2831
运转	-10.2833
跨越	-10.2833
南部	-10.2834
的态度	-10.2835
化石	-10.2847
打电话	-10.2851
底部	-10.2851
to	-10.2852
信心	-10.2854
也没	-10.2854
多种	-10.2862
身处	-10.2863
我们都知道	-10.2866
同一	-10.288
让自己	-10.2882
丰富	-10.2885
我之前	-10.289
斗	-10.289
纯	-10.2891
赌	-10.2893
辞	-10.2893
逝	-10.2893
琳	-10.2893
承受	-10.2893
交互	-10.2894
罪犯	-10.2894
确信	-10.2898
胜利	-10.2898
满意	-10.2905
界面	-10.2908
作业	-10.2911
为止	-10.2912
再一次	-10.2922
他们自己的	-10.2924
整合	-10.2924
遇	-10.2931
不足	-10.2934
碰	-10.2937
他们可以	-10.2941
重要的是	-10.2942
雄	-10.2944
文学	-10.2945
渔	-10.2959
迁	-10.296
珊瑚礁	-10.296
扩展	-10.296
能用	-10.296
协调	-10.2961
节奏	-10.2961
人均	-10.2964
黑色	-10.2966
分裂	-10.2966
你应该	-10.2969
桌子	-10.2973
远离	-10.2973
一所	-10.2974
当他们	-10.2978
骨头	-10.2979
自然界	-10.298
长时间	-10.2981
▁我意识到	-10.2985
植入	-10.299
走过	-10.2991
乡	-10.2995
▁要是	-10.2995
存在着	-10.3003
得很	-10.3004
眼前	-10.3013
一层	-10.302
越来越多的	-10.3021
荷	-10.3026
甚	-10.3027
喂	-10.3027
莎	-10.3028
芝加哥	-10.3028
j	-10.3028
疼痛	-10.3029
岩石	-10.303
鸟类	-10.3034
动态	-10.3036
分散	-10.3038
太棒了	-10.3038
一间	-10.3039
社	-10.3041
这也是	-10.3045
做了一个	-10.3046
爱情	-10.3047
外交	-10.3047
深处	-10.3047
看不见	-10.305
本质上	-10.305
精力	-10.305
在我看来	-10.3052
不对	-10.3055
互	-10.3056
领导人	-10.3058
可以说	-10.3063
你能看到	-10.3063
编程	-10.3066
刚开始	-10.3068
童	-10.307
这两	-10.3074
▁我只	-10.3077
一个叫	-10.3078
那边	-10.3086
是指	-10.3088
什	-10.3093
迹	-10.3093
避	-10.3095
拜	-10.3096
邦	-10.3096
波士顿	-10.3097
吻	-10.3097
庆祝	-10.3097
繁荣	-10.3097
帮我	-10.3097
瑞典	-10.3097
保守	-10.3098
指挥	-10.3099
灵活	-10.3101
保罗	-10.3103
一个月	-10.3103
乐队	-10.3103
有一点	-10.3109
各自	-10.311
足以	-10.3115
漂亮的	-10.3116
想出	-10.3116
我需要	-10.3117
ter	-10.3118
三种	-10.312
以及其他	-10.312
一遍	-10.3121
显得	-10.3124
还需要	-10.3127
玩家	-10.3129
为我	-10.3131
突	-10.3131
形成了	-10.3132
▁如果你想	-10.3133
日常	-10.3136
建立一个	-10.314
▁但事实上	-10.3155
严	-10.3159
鬼	-10.3165
肩	-10.3166
宁	-10.3166
向前	-10.3166
冰川	-10.3166
会怎样	-10.3167
具备	-10.3167
单独	-10.3168
的理念	-10.3171
作者	-10.3172
恐怖主义	-10.3176
在网上	-10.3176
正义	-10.3176
他们所	-10.3185
好好	-10.3191
敢	-10.3194
已有	-10.3203
也知道	-10.3209
and	-10.3217
学到的	-10.3217
碰到	-10.3228
截	-10.3235
胎	-10.3235
蜘蛛	-10.3235
亚马逊	-10.3235
陌生人	-10.3235
我们正在	-10.3236
既然	-10.3238
的思想	-10.3238
黄金	-10.3238
法案	-10.324
能把	-10.324
实时	-10.3252
涉及	-10.3255
联系起来	-10.3258
创造一个	-10.3259
经历过	-10.3269
▁而且我们	-10.3269
好玩	-10.3273
▁我想要	-10.3274
命运	-10.3279
疗法	-10.3284
沿	-10.3285
树木	-10.3289
觉得这	-10.3291
诗歌	-10.3292
在他的	-10.3295
永	-10.3295
司	-10.3296
孙	-10.3297
▁非常感谢	-10.3301
牧	-10.3304
杜	-10.3305
旧金山	-10.3305
粮食	-10.3305
退休	-10.3307
团结	-10.3309
▁即便	-10.3312
克服	-10.3318
消除	-10.3318
▁笑声	-10.3323
站起来	-10.3323
你就可以	-10.3325
是什么样的	-10.3331
一直都	-10.3338
的风险	-10.3342
让你们	-10.3349
传达	-10.335
命名	-10.3352
你想要	-10.3352
会觉得	-10.3355
还有其他	-10.336
基金	-10.3364
正在发生	-10.3366
的母亲	-10.3367
偶	-10.3368
区分	-10.3369
我第一次	-10.3371
疯狂的	-10.3371
灭	-10.3373
康	-10.3374
转换	-10.3375
伏	-10.3375
捕捉	-10.3376
祖母	-10.3376
监控	-10.3376
宣布	-10.3377
遥远	-10.3378
自豪	-10.3379
航空	-10.3379
反复	-10.338
水下	-10.3383
了许多	-10.3389
一万	-10.339
▁当他	-10.339
确	-10.3393
面临的	-10.3395
把所有	-10.3395
一个国家	-10.34
的形状	-10.3411
我爱	-10.3413
只有一个	-10.3413
那位	-10.3415
在接下来的	-10.3416
第二天	-10.3416
分开	-10.3417
不存在	-10.3424
那个时候	-10.3431
尤其	-10.3436
你们中	-10.3437
看着我	-10.344
发起	-10.3441
灾	-10.3443
锁	-10.3444
做到了	-10.3444
显微镜	-10.3446
甘	-10.3446
皇	-10.3446
噪音	-10.3447
利润	-10.3447
戏剧	-10.3448
采集	-10.3448
储存	-10.3451
方便	-10.3461
▁但是如果	-10.3469
输	-10.3469
体制	-10.348
未知	-10.349
年间	-10.3492
不停	-10.3494
准备好	-10.3498
迫	-10.35
对这个	-10.3501
夺	-10.3518
牺牲	-10.3518
迟	-10.3518
饱	-10.3518
委员会	-10.3518
人权	-10.3519
令我	-10.3519
让大家	-10.3529
▁但如果你	-10.3552
天气	-10.3556
于是	-10.3557
ac	-10.3561
为他们	-10.3563
婚	-10.3567
在上面	-10.3568
变得越来越	-10.3571
ia	-10.3574
敏	-10.3579
▁我曾	-10.3581
钢	-10.3589
这块	-10.3589
饥饿	-10.359
焦虑	-10.359
厨房	-10.359
扩张	-10.359
框架	-10.359
餐厅	-10.359
掌控	-10.3591
过度	-10.3591
干净	-10.3592
页面	-10.3598
心理学	-10.3602
更容易	-10.3605
聊	-10.3609
去过	-10.361
风格	-10.361
父	-10.361
已经开始	-10.3613
建筑物	-10.362
后代	-10.363
词汇	-10.3632
际	-10.3638
两次	-10.364
ir	-10.3641
数千	-10.3642
一把	-10.3643
的主题	-10.3647
ot	-10.3648
臂	-10.365
▁就好像	-10.3652
粒	-10.3654
现今	-10.3655
重量	-10.3657
盗	-10.3659
探测	-10.366
纽	-10.366
有更多的	-10.3661
磨	-10.3661
抛	-10.3662
抬	-10.3662
保障	-10.3663
隐私	-10.3663
太阳系	-10.3663
要比	-10.3664
经营	-10.3665
不如	-10.3675
的感受	-10.3686
下一代	-10.3687
看起来像	-10.3687
ul	-10.369
会把	-10.3693
你们可以看到	-10.3694
▁我需要	-10.3694
现在已经	-10.3695
te	-10.3695
▁以至于	-10.37
nt	-10.3701
只会	-10.3703
学者	-10.3707
视为	-10.3719
从来不	-10.3726
跟你们	-10.3732
肥	-10.3734
试试	-10.3735
妮	-10.3735
蝙蝠	-10.3735
一会儿	-10.3735
屠杀	-10.3735
午餐	-10.3736
关闭	-10.3737
心里	-10.374
用它	-10.3743
威尔	-10.3744
所谓	-10.3749
明天	-10.3758
了他的	-10.3759
转向	-10.376
四处	-10.3764
多久	-10.3765
新生	-10.3769
在线	-10.3771
亡	-10.3806
涉	-10.3806
愈	-10.3808
邻	-10.3808
屏	-10.3808
理查德	-10.3809
在过去的	-10.3809
协议	-10.3809
难以置信	-10.3809
歧视	-10.3809
睡觉	-10.3811
强迫	-10.3811
战略	-10.3811
可持续	-10.3812
你觉得	-10.3814
液体	-10.3815
花粉	-10.3817
非常有趣	-10.3818
的确是	-10.3821
现有的	-10.3822
转移	-10.3829
出色	-10.3833
谢谢大家	-10.3837
自信	-10.3843
就被	-10.3843
成人	-10.3844
干什么	-10.3856
磁	-10.3876
态度	-10.3878
签	-10.3878
你们知道	-10.388
逆	-10.388
邮	-10.3881
下午	-10.3882
灌	-10.3882
驾	-10.3883
珠	-10.3883
雾	-10.3883
差距	-10.3884
深深	-10.3885
法官	-10.3886
脑袋	-10.3886
赚钱	-10.3887
找不到	-10.389
天堂	-10.3891
为自己	-10.3891
部件	-10.3894
一百万	-10.3899
伊斯兰	-10.39
四十	-10.3901
部队	-10.3902
下载	-10.3905
事儿	-10.3909
分类	-10.391
某人	-10.3913
促使	-10.3914
几千	-10.3914
英文	-10.3915
大会	-10.3945
这个数字	-10.3947
自杀	-10.3948
疗	-10.3949
任何东西	-10.3949
律	-10.3951
损	-10.3952
一些事情	-10.3955
净	-10.3955
海底	-10.3957
宾	-10.3957
瞧	-10.3957
裤	-10.3957
谜	-10.3957
囊	-10.3957
至关重要	-10.3957
模糊	-10.3958
回忆	-10.3958
燃烧	-10.3958
含义	-10.3958
质疑	-10.396
大约有	-10.397
河流	-10.3971
量子	-10.3972
讲话	-10.3977
边界	-10.3979
掌声	-10.398
数据库	-10.3981
最为	-10.3983
什么样	-10.3983
任何地方	-10.3983
会得到	-10.3998
部位	-10.4002
等着	-10.4015
指的是	-10.4018
诊	-10.4021
夏	-10.4028
炸弹	-10.4028
son	-10.4028
湾	-10.4029
奶	-10.4031
伽	-10.4033
泪	-10.4033
皆	-10.4033
联邦	-10.4033
印刷	-10.4033
世界中	-10.4033
悲剧	-10.4034
证明了	-10.4037
秒钟	-10.4044
势力	-10.4045
心灵	-10.4046
▁你们知道	-10.4048
新鲜	-10.4049
再生	-10.4052
演化	-10.4053
海水	-10.4054
童年	-10.4059
这个地方	-10.4061
革新	-10.407
接到	-10.4075
会不会	-10.4075
▁我曾经	-10.4094
进入了	-10.4095
其他地方	-10.4097
一定会	-10.4097
最近的	-10.4098
就没有	-10.4104
扰	-10.4106
裁	-10.4108
耶	-10.4108
俩	-10.4108
敲	-10.4108
竭	-10.4108
孤独	-10.4109
毁灭	-10.4109
一起工作	-10.4111
安静	-10.4112
放入	-10.4118
de	-10.4119
育	-10.4123
一句	-10.4124
明白了	-10.4126
福利	-10.4126
我才	-10.4132
非法	-10.4132
作为一名	-10.4144
科学家们	-10.4148
享	-10.415
在英国	-10.4155
来到这里	-10.416
驱	-10.4161
通讯	-10.4167
而非	-10.4168
一个故事	-10.4177
比我们	-10.4179
解决这个问题	-10.4179
浏览	-10.4181
这张图	-10.4183
宫	-10.4183
涌	-10.4184
圣经	-10.4185
哺乳动物	-10.4185
捷	-10.4185
尺寸	-10.4185
钢琴	-10.4185
也就	-10.4187
劳动	-10.4189
证实	-10.419
我正在	-10.4191
花园	-10.4192
年的时间	-10.4192
做个	-10.4194
惊人	-10.4195
飞船	-10.4196
大多	-10.4201
传染	-10.4204
正式	-10.4208
每周	-10.421
一种新的	-10.4213
亚当	-10.4217
活力	-10.4217
:"	-10.4222
有用的	-10.4226
这件	-10.4228
学到了	-10.4231
写着	-10.4232
▁它能	-10.4233
能得到	-10.4237
很有可能	-10.4246
有益	-10.425
使它	-10.4255
可行的	-10.4255
给了我	-10.4256
我是个	-10.4258
欢	-10.426
累	-10.4261
我和我的	-10.4261
荒	-10.4261
・	-10.4262
斑	-10.4262
这句话	-10.4263
顾客	-10.4263
编码	-10.4263
▁此外	-10.4263
网页	-10.4265
小时候	-10.4265
日常生活	-10.427
数码	-10.4271
也要	-10.4274
服用	-10.4275
显	-10.4276
▁他们可以	-10.4276
▁他们也	-10.4279
的做法	-10.4283
说什么	-10.4284
经济学	-10.4292
作物	-10.4293
字典	-10.4295
算是	-10.4298
全面	-10.4299
会出现	-10.4305
的身份	-10.4317
否	-10.4318
lo	-10.4319
参与到	-10.4324
再来	-10.4325
▁这是因为	-10.4327
▁因为如果	-10.4328
走上	-10.4329
这并不	-10.4333
染	-10.4334
困	-10.4336
场所	-10.4336
递	-10.4337
惩罚	-10.4339
所需要的	-10.434
外部	-10.434
广播	-10.434
序列	-10.4341
抗议	-10.4343
你可能	-10.4347
我的朋友	-10.4348
却不	-10.4352
你是否	-10.4357
就有了	-10.436
遭遇	-10.4361
很清楚	-10.4373
▁随后	-10.438
是一件	-10.4385
你怎么	-10.4388
我去了	-10.4388
妙	-10.439
的本质	-10.439
演出	-10.4395
激素	-10.4401
想着	-10.4402
▁而现在	-10.4404
滚	-10.4412
挑	-10.4414
中的一个	-10.4414
纵	-10.4417
炎	-10.4417
氢	-10.4417
腹	-10.4417
井	-10.4417
雇佣	-10.4417
渐渐	-10.4417
毫无疑问	-10.4418
竟然	-10.4418
负担	-10.4418
融入	-10.442
开启	-10.4421
组装	-10.4425
我应该	-10.4427
几周	-10.4429
对我们来说	-10.4432
万个	-10.4437
精神病	-10.4438
▁因为它们	-10.4442
会发现	-10.4445
ell	-10.4446
候	-10.445
心中	-10.4451
▁它是一个	-10.4454
导致了	-10.4455
体重	-10.446
体育	-10.4461
ry	-10.4462
适	-10.4462
数学家	-10.4465
你们都	-10.4466
立即	-10.447
一同	-10.4475
新型	-10.4475
含有	-10.4477
主要是	-10.4493
琴	-10.4496
煤	-10.4496
凝	-10.4496
亦	-10.4496
遵循	-10.4496
就越	-10.4496
缺陷	-10.4496
永久	-10.4497
宝宝	-10.4498
沉默	-10.4498
鲸鱼	-10.4499
有意义的	-10.4499
倾向于	-10.4502
鼻子	-10.4502
心理学家	-10.4506
街头	-10.4512
城市里	-10.4514
高级	-10.4519
可靠	-10.4519
ke	-10.4535
▁但现在	-10.4537
只需	-10.4539
假如	-10.4539
万年前	-10.4542
会让	-10.4558
十万	-10.4562
学科	-10.4565
去找	-10.4567
孤	-10.4567
我们的生活	-10.4567
地震	-10.4569
不出	-10.4569
悲	-10.4572
等于	-10.4574
栋	-10.4574
秀	-10.4575
也许是	-10.4575
GDP	-10.4575
祈祷	-10.4575
讽刺	-10.4575
欺骗	-10.4576
观测	-10.4577
概率	-10.4578
恐怖分子	-10.4578
形容	-10.4579
音乐家	-10.458
增强	-10.458
干预	-10.4582
北极	-10.4583
几分钟	-10.4588
我们所有人	-10.4589
美妙的	-10.459
打击	-10.4591
nd	-10.4593
海报	-10.4593
相连	-10.4598
字体	-10.4599
到一起	-10.46
走路	-10.4608
比如说	-10.4609
遇到了	-10.4621
却没有	-10.4621
我一直在	-10.4625
机场	-10.4638
统一	-10.464
繁	-10.4643
辆	-10.4646
介	-10.465
尺	-10.4652
续	-10.4653
兼	-10.4655
惠	-10.4655
翼	-10.4655
裔	-10.4655
卢	-10.4655
抗生素	-10.4655
攀	-10.4655
逼	-10.4655
闹	-10.4655
耳朵	-10.4656
完善	-10.4658
怎么办	-10.4658
绝望	-10.4658
反射	-10.4662
的原因是	-10.4662
成熟	-10.4663
感应	-10.4665
负面	-10.4667
▁但当	-10.4668
小孩子	-10.4675
双手	-10.4691
os	-10.4694
也可能	-10.4694
▁而这个	-10.4697
这其中	-10.4697
研究人员	-10.4702
不一定	-10.4705
类似于	-10.4711
也不能	-10.4711
当下	-10.4718
无比	-10.4719
将他们	-10.472
永远不会	-10.4721
泥	-10.4728
丑	-10.4736
牵	-10.4736
浴	-10.4736
穆	-10.4736
始终	-10.4737
即兴	-10.4738
整整	-10.4739
过于	-10.4739
起作用	-10.4743
疑	-10.4744
生日	-10.4744
图形	-10.475
对自己	-10.4751
所以我	-10.4753
讲故事	-10.4756
会问	-10.4762
到这里	-10.4764
美分	-10.4775
小女孩	-10.4781
可以做到	-10.4791
所说	-10.4794
有力	-10.4802
帮助他们	-10.4804
颗	-10.4807
减少了	-10.4808
美洲	-10.4812
这些孩子	-10.4813
Al	-10.4815
撒	-10.4817
遗憾	-10.4817
阻碍	-10.4817
康复	-10.4818
参观	-10.4819
瑞士	-10.482
设立	-10.482
代表着	-10.482
司机	-10.482
集团	-10.4821
随时	-10.4823
并不知道	-10.4825
月份	-10.4826
乐器	-10.4836
男子	-10.4836
不停地	-10.4845
▁每当	-10.4852
见证	-10.4853
对称	-10.4855
聊天	-10.4857
[	-10.4867
面部	-10.4867
各地	-10.4874
me	-10.4882
好吗	-10.4883
时光	-10.489
这些国家	-10.4892
豪	-10.4895
朗	-10.4895
妇	-10.4896
挤	-10.4899
墨	-10.4899
粗	-10.4899
耀	-10.4899
愉快	-10.4899
幽默	-10.49
挣扎	-10.49
窗户	-10.49
困境	-10.49
乐趣	-10.4901
大气层	-10.4902
想一想	-10.4903
权威	-10.4903
在中国	-10.4906
这两种	-10.4909
哪儿	-10.491
首次	-10.4914
只是想	-10.4916
在家里	-10.4916
这意味着	-10.4918
六个	-10.4921
帝国	-10.4921
无知	-10.4926
大概有	-10.4926
不懂	-10.4939
卡车	-10.494
大部分人	-10.4948
脑中	-10.4952
之上	-10.4953
替	-10.4978
稳	-10.4979
西班牙	-10.498
攻	-10.4981
确认	-10.4981
档	-10.4981
晶	-10.4982
稿	-10.4982
虾	-10.4982
赤	-10.4982
悲伤	-10.4983
吃惊	-10.4986
绘制	-10.4988
微小的	-10.4988
一支	-10.4991
我刚才	-10.4996
句子	-10.4997
系统中	-10.5
交给	-10.5001
手中	-10.5003
环境下	-10.5004
罗马	-10.5009
对于我们	-10.5011
加入了	-10.5013
那些人	-10.5019
这种方法	-10.5029
出于	-10.5031
融	-10.5033
诗人	-10.5037
接受了	-10.5045
让它们	-10.5045
保护区	-10.5049
可行	-10.5055
很酷	-10.5057
侵	-10.5058
环绕	-10.5061
遥	-10.5063
港	-10.5065
扇	-10.5065
纠	-10.5065
是什么样子	-10.5065
仿佛	-10.5066
灯泡	-10.5066
会成为	-10.5066
偶然	-10.5067
结尾	-10.5067
一个巨大的	-10.5067
当成	-10.5068
刚果	-10.5068
一堆	-10.5069
这种方式	-10.5069
hi	-10.5071
航天	-10.5074
这一切都	-10.5079
最基本的	-10.5081
Jo	-10.5081
完整	-10.5082
管道	-10.5085
可不是	-10.5092
极度	-10.5093
一面	-10.5102
的方式来	-10.5103
我们无法	-10.5105
诸	-10.5122
有一次	-10.5126
▁不管是	-10.5133
留在	-10.5136
某种程度上	-10.5139
增加了	-10.5145
径	-10.5145
我们所做的	-10.5146
这些小	-10.5148
瘾	-10.5149
抱歉	-10.5149
与众不同	-10.5149
舒适	-10.5149
科学研究	-10.515
公寓	-10.515
农村	-10.515
巴黎	-10.515
开源	-10.5151
摄影师	-10.5151
传输	-10.5151
收获	-10.5152
这个实验	-10.5153
访问	-10.5155
隔离	-10.5157
气味	-10.5158
变异	-10.5162
平面	-10.5166
观察到	-10.5169
深远	-10.5169
man	-10.5171
天才	-10.5179
可以看见	-10.5183
▁我真的	-10.5185
幻想	-10.519
抑郁	-10.5193
参与者	-10.5196
很有意思	-10.5198
绝大多数	-10.5214
是一个非常	-10.5215
▁而且他们	-10.5215
与之	-10.5217
多个	-10.5226
键	-10.5231
毫不	-10.5231
饰	-10.5232
召	-10.5233
抱怨	-10.5234
折叠	-10.5235
荷兰	-10.5236
绘画	-10.5236
收益	-10.5237
酒店	-10.5237
遍布	-10.5239
例外	-10.525
▁所以我想	-10.5251
老板	-10.5253
一刻	-10.5253
社会中	-10.5256
专注于	-10.5257
觉得自己	-10.5263
可以改变	-10.5263
食用	-10.5267
不受	-10.5272
家乡	-10.5275
ah	-10.5278
将它们	-10.5278
开来	-10.528
是唯一	-10.5284
以往	-10.5289
人们会	-10.5293
众笑	-10.5296
ce	-10.5296
伊斯兰教	-10.53
类型	-10.5302
源于	-10.5308
倾	-10.5309
变为	-10.5314
摄	-10.5314
结束了	-10.5318
辩	-10.5318
Facebook	-10.532
土耳其	-10.532
砖	-10.532
罩	-10.532
舍	-10.532
摧毁	-10.532
媒介	-10.532
盲	-10.532
按钮	-10.532
一小部分	-10.532
详细	-10.532
联盟	-10.532
喜剧	-10.5321
调节	-10.5328
使命	-10.5329
各国	-10.5329
在某种程度上	-10.533
丰富的	-10.5331
仅有	-10.5331
公布	-10.5334
陆地	-10.5344
月球	-10.5344
实体	-10.5349
纪念	-10.535
醒来	-10.5355
机遇	-10.5362
数百万	-10.5367
罗斯	-10.5367
全身	-10.5372
的一面	-10.5372
将近	-10.5376
本书	-10.5382
洲	-10.5389
um	-10.5394
察	-10.5402
跟我说	-10.5403
挣	-10.5405
躲	-10.5405
太平洋	-10.5406
捐赠	-10.5406
乡村	-10.5406
玉米	-10.5406
批评	-10.5406
蛋白	-10.5407
队伍	-10.5407
监视	-10.5407
创伤	-10.5407
定律	-10.5409
综合	-10.5409
排列	-10.5411
开关	-10.5412
一个地方	-10.5444
返	-10.5446
更少	-10.5456
你看到的	-10.5461
▁我是一个	-10.5464
四年	-10.5467
趣	-10.547
游行	-10.5472
植	-10.5474
盒	-10.5484
问他们	-10.549
前所未有的	-10.5493
巧克力	-10.5493
腔	-10.5493
疲	-10.5493
腾	-10.5493
啤酒	-10.5493
这个样子	-10.5493
怀孕	-10.5493
抵抗	-10.5494
评价	-10.5494
车祸	-10.5494
占据	-10.5495
有多大	-10.5495
适用于	-10.55
原型	-10.5501
独自	-10.5501
会导致	-10.5502
种种	-10.5503
外界	-10.5514
ss	-10.5517
我的父亲	-10.5517
维度	-10.5517
主动	-10.5519
不愿意	-10.5534
手里	-10.5538
长达	-10.5539
良好的	-10.5542
看出	-10.5557
全都	-10.5558
造成了	-10.5566
建立起	-10.5566
▁然后再	-10.5571
把你的	-10.5577
加利福尼亚	-10.558
坡	-10.558
糖尿病	-10.558
勇敢	-10.5581
囚犯	-10.5581
是否有	-10.5581
借助	-10.5582
失望	-10.5584
平常	-10.5589
解答	-10.559
好事	-10.5596
举行	-10.5597
贝尔	-10.5599
北美	-10.5599
▁以便	-10.5599
天然	-10.56
镜子	-10.56
我当时	-10.5601
非洲人	-10.5604
主流	-10.5605
线上	-10.5609
考虑到	-10.5616
笑话	-10.562
很快就	-10.5627
ill	-10.5631
对应	-10.5633
尚	-10.5639
聚会	-10.5646
大大	-10.5651
成功了	-10.5656
怕	-10.5656
隆	-10.5665
涨	-10.5669
宿	-10.5669
瓜	-10.5669
笨	-10.5669
荣幸	-10.5669
困扰	-10.5669
地表	-10.567
欲望	-10.567
某种意义上	-10.567
争取	-10.5674
向你	-10.5675
随意	-10.5675
风暴	-10.5676
你认为	-10.5678
读者	-10.5678
读到	-10.568
神话	-10.568
确切	-10.5683
请求	-10.5685
很长时间	-10.5687
雄性	-10.569
高速	-10.5701
独特	-10.5703
经典	-10.5704
我们有了	-10.5709
ey	-10.5713
常见的	-10.5734
一头	-10.5741
是正确的	-10.5741
许可	-10.5743
做法	-10.5748
均	-10.5749
滋	-10.5755
炸	-10.5756
缝	-10.5758
惨	-10.5758
显而易见	-10.5758
栏	-10.5758
栖息地	-10.5758
毯	-10.5758
休息	-10.5759
折磨	-10.5759
亲爱的	-10.5759
法庭	-10.576
轻松	-10.576
举办	-10.5761
跳舞	-10.5762
和谐	-10.5768
六个月	-10.5769
找到一个	-10.5774
创立	-10.5775
一封	-10.5779
潜在的	-10.5779
数目	-10.578
我母亲	-10.578
很喜欢	-10.5787
正面	-10.5792
亲密	-10.5793
有幸	-10.5803
制造出	-10.5805
感激	-10.5809
无论如何	-10.5809
政治家	-10.5814
是基于	-10.5819
告诉他	-10.5821
im	-10.5822
▁所以如果	-10.5822
有人说	-10.5824
se	-10.5826
纪	-10.5831
完全不同的	-10.5834
写下	-10.5837
搬到	-10.5839
有意义	-10.584
挥	-10.5841
一个关于	-10.5842
一整	-10.5844
当前	-10.5844
▁但是如果你	-10.5845
刊	-10.5846
映	-10.5847
谎	-10.5847
译	-10.5847
肥胖	-10.5847
蜜	-10.5847
这些照片	-10.5848
俗	-10.5848
氏	-10.5848
瘫	-10.5848
贫民窟	-10.5848
烹	-10.5848
浅	-10.5848
哪怕	-10.5849
盯着	-10.5849
缓慢	-10.585
提议	-10.5851
随便	-10.5853
工作室	-10.5854
街区	-10.5854
银	-10.5856
短期	-10.5856
陆	-10.5856
用一种	-10.5857
脑部	-10.5864
尽量	-10.5868
带领	-10.5868
所见	-10.5868
电路	-10.5869
非常棒	-10.587
割	-10.5876
包含了	-10.5879
▁即使是	-10.5888
给她	-10.5891
遇见	-10.5892
买到	-10.5897
向你们	-10.5897
上班	-10.5899
回到了	-10.5899
存储	-10.59
冠	-10.5903
很幸运	-10.5903
的人来说	-10.5906
完了	-10.5907
庞大的	-10.591
第一步	-10.5923
一生中	-10.5925
逐	-10.5937
迎	-10.5938
冻	-10.5938
漏	-10.5938
挖	-10.5939
嗨	-10.5939
拥抱	-10.594
残疾	-10.594
今晚	-10.594
猜测	-10.5941
帮忙	-10.5941
开玩笑	-10.5942
情景	-10.5943
向你们展示	-10.5944
夜晚	-10.5944
底下	-10.5945
这些事	-10.5945
碎片	-10.5945
麦克	-10.5947
哲学家	-10.5948
▁其次	-10.5948
该如何	-10.595
工资	-10.5952
整个世界	-10.5952
打造	-10.5961
视力	-10.5967
其他国家	-10.5983
可以帮助	-10.5992
有三个	-10.5996
da	-10.5998
集合	-10.6
谢谢你们	-10.6015
议员	-10.6016
启	-10.6016
就好像	-10.6019
辆车	-10.6022
危	-10.6026
丰	-10.603
烂	-10.6031
巾	-10.6031
掩	-10.6031
有史以来	-10.6031
歇	-10.6031
夹	-10.6031
目睹	-10.6031
操纵	-10.6031
代替	-10.6032
营销	-10.6032
依旧	-10.6033
▁为什么我们	-10.6034
搭建	-10.6034
运营	-10.6034
对我而言	-10.6036
微型	-10.6037
学会了	-10.6038
指标	-10.6039
都不会	-10.6042
南极	-10.6043
今	-10.6047
那段	-10.6047
在做什么	-10.605
受欢迎	-10.6052
给自己	-10.6053
缩小	-10.6055
工作人员	-10.6057
一分钟	-10.6061
学位	-10.6064
分解	-10.6064
何时	-10.6067
就会发现	-10.6068
▁因为这是	-10.6077
激进	-10.6083
的世界里	-10.609
提出了	-10.609
一句话	-10.6104
数百	-10.6108
上千	-10.6108
人才	-10.6111
购	-10.6114
免疫	-10.6114
也需要	-10.6115
遭到	-10.6119
会让你	-10.6119
奏	-10.612
饼	-10.6121
纪录	-10.6122
祝	-10.6123
iPhone	-10.6124
姓	-10.6124
戒	-10.6124
匹配	-10.6124
干扰	-10.6126
顶端	-10.6128
可持续发展	-10.6128
带回	-10.6128
这些地方	-10.6128
含量	-10.6129
精神疾病	-10.6136
艺	-10.6136
突然间	-10.6138
尼亚	-10.6138
出售	-10.6139
更新	-10.614
真理	-10.6148
约会	-10.615
无关	-10.615
高科技	-10.6152
拥	-10.6152
▁你可能会	-10.6162
万年	-10.6163
眼镜	-10.6166
成年	-10.6173
没办法	-10.6177
意义上	-10.6188
被认为是	-10.6189
两天	-10.6191
售	-10.6199
一个简单的	-10.6202
美妙	-10.6203
更重要	-10.6209
败	-10.621
已知	-10.6211
诚	-10.6212
悬	-10.6217
署	-10.6217
俄	-10.6217
辈	-10.6217
扫	-10.6217
怜	-10.6217
染色体	-10.6217
厉害	-10.6217
韩国	-10.6218
优雅	-10.6218
笔记本电脑	-10.6218
司法	-10.6219
诚实	-10.6219
山脉	-10.6219
某一	-10.6219
微软	-10.6219
精英	-10.6219
设定	-10.6222
注入	-10.6222
一架	-10.6223
床上	-10.6226
坏了	-10.6228
op	-10.6236
我刚	-10.6241
水里	-10.6244
研究所	-10.6246
来解决	-10.6249
储	-10.625
从这里	-10.6255
di	-10.6257
着陆	-10.6259
脸上	-10.6264
▁那时我	-10.628
人们对	-10.6281
分成	-10.6284
佳	-10.6284
你会发现	-10.6288
路线	-10.6292
拿起	-10.6295
做出了	-10.6305
在某些	-10.6306
戈	-10.6306
越来越多	-10.6307
嘛	-10.6309
魔术	-10.6311
祖父	-10.6311
巢	-10.6311
【	-10.6311
】	-10.6311
GPS	-10.6311
拨	-10.6311
淋	-10.6311
蛇	-10.6311
挖掘	-10.6311
财政	-10.6312
匿名	-10.6312
抑制	-10.6313
生活在一个	-10.6314
布朗	-10.6314
视野	-10.6315
维护	-10.6318
主导	-10.6318
国王	-10.6319
在哪	-10.632
ut	-10.632
om	-10.632
人们可以	-10.6325
通信	-10.6328
ni	-10.633
歌曲	-10.6339
生气	-10.6339
雇	-10.6344
通用	-10.6345
深海	-10.6345
透过	-10.6351
发生过	-10.6352
及其	-10.6354
就已经	-10.6358
第二次	-10.6366
只是个	-10.6373
实质	-10.6378
变成一个	-10.638
验证	-10.6382
无线电	-10.6383
室内	-10.6393
录音	-10.6398
担	-10.64
不相信	-10.6405
温室气体	-10.6407
腺	-10.6407
勤	-10.6407
挪威	-10.6407
档案	-10.6407
监管	-10.6408
审视	-10.6409
撞击	-10.6409
底层	-10.6414
失明	-10.6414
劳动力	-10.6415
引入	-10.6417
新技术	-10.6419
认可	-10.642
周边	-10.6421
这个东西	-10.6423
最棒的	-10.6429
清理	-10.6431
灯光	-10.6432
书中	-10.6435
在其中	-10.6437
实用	-10.6439
六十	-10.644
上网	-10.6441
研究生	-10.6441
好多	-10.6446
id	-10.6451
上方	-10.6453
主人	-10.6453
脱离	-10.6455
是错误的	-10.6463
来源于	-10.6466
放射	-10.6473
上述	-10.6475
一副	-10.6476
种不同的	-10.6478
伸	-10.6485
长度	-10.6488
肢	-10.6495
可以想象	-10.6496
一群人	-10.6502
弯	-10.6502
鉴	-10.6502
午	-10.6502
忧	-10.6502
仁	-10.6503
困惑	-10.6503
娃	-10.6503
伪	-10.6503
支撑	-10.6503
牙齿	-10.6503
幻觉	-10.6504
全球变暖	-10.6505
协作	-10.6506
谈判	-10.6506
巨型	-10.6507
版权	-10.6509
再也不	-10.651
准则	-10.6511
任意	-10.6511
围绕着	-10.6516
是什么呢	-10.6519
最低	-10.6526
com	-10.6531
优秀	-10.6531
很奇怪	-10.6532
小行星	-10.6532
部长	-10.654
你已经	-10.6553
步行	-10.6555
这个世界上	-10.6566
色彩	-10.6569
网站上	-10.6569
表现出	-10.657
建立在	-10.657
一首	-10.6574
犹太	-10.6574
所处的	-10.6577
▁让我来	-10.659
想一下	-10.659
时常	-10.6591
不然	-10.6592
用它来	-10.6593
狼	-10.6599
~	-10.66
叙利亚	-10.66
柜	-10.66
汁	-10.66
蕾	-10.66
遮	-10.66
笼	-10.66
扩散	-10.66
恰恰	-10.66
消灭	-10.66
教训	-10.6601
惊喜	-10.6601
依据	-10.6601
苏联	-10.6601
温暖	-10.6601
单纯	-10.6602
激活	-10.6603
肢体	-10.6604
总会	-10.6606
是否能	-10.6606
▁自从	-10.6609
五千	-10.6613
你就能	-10.6615
Ch	-10.6619
天哪	-10.6621
特质	-10.6632
意图	-10.6639
也同样	-10.6646
生病	-10.6651
要花	-10.6654
拍照	-10.6659
ow	-10.6671
我们来看看	-10.6672
涉及到	-10.6673
在同一	-10.6677
像个	-10.6679
这个小	-10.668
围绕	-10.6686
赖	-10.6695
腐	-10.6697
在哪儿	-10.6698
史蒂夫	-10.6698
吐	-10.6698
娘	-10.6698
詹姆斯	-10.6698
婆	-10.6698
柯	-10.6698
永恒	-10.6698
货币	-10.6698
拜访	-10.6698
从根本上	-10.6699
这个星球上	-10.6699
比喻	-10.67
资产	-10.6701
严格	-10.6702
缺少	-10.6703
化学物质	-10.6704
清单	-10.6705
统	-10.6707
分别	-10.6709
复杂性	-10.6711
假装	-10.6712
果蝇	-10.6714
方块	-10.6715
成年人	-10.6724
一件事情	-10.6739
被称作	-10.674
推出	-10.6763
身为	-10.6769
▁这让我	-10.6772
性质	-10.6776
年纪	-10.6779
当做	-10.6782
龄	-10.6782
问自己	-10.6787
宗	-10.6789
海地	-10.6795
完全不同	-10.6796
陈	-10.6796
唤	-10.6796
乳腺癌	-10.6797
旨	-10.6797
胃	-10.6797
▁否则	-10.6797
早晨	-10.6797
撒谎	-10.6797
哈佛	-10.6798
旅游	-10.6798
布什	-10.6799
标题	-10.6799
考试	-10.6799
现实世界	-10.6802
官员	-10.6805
足球	-10.6805
流程	-10.6806
一直以来	-10.6817
成为一名	-10.6818
就意味着	-10.682
一路	-10.6824
两周	-10.6825
下一步	-10.6831
国内	-10.6831
检	-10.6831
居住在	-10.6838
取得了	-10.6839
发行	-10.684
被迫	-10.6845
va	-10.6845
会变成	-10.6847
有害	-10.6848
十二	-10.685
并不能	-10.685
这座	-10.6865
著	-10.6874
良好	-10.6875
上百	-10.6875
▁当人们	-10.6878
▁那是一个	-10.6882
捐	-10.6895
框	-10.6896
荣	-10.6896
弥	-10.6897
晓	-10.6897
泉	-10.6897
纽约时报	-10.6897
爵士	-10.6897
积累	-10.6897
触摸	-10.6898
推测	-10.6901
我就想	-10.6901
弄清楚	-10.6901
极限	-10.6901
使他们	-10.6903
两千	-10.6903
味道	-10.6907
尼克	-10.6908
融化	-10.6908
水源	-10.6909
另一边	-10.6912
运算	-10.6912
引力	-10.6914
棒球	-10.6917
加纳	-10.6919
做了什么	-10.6919
脉	-10.6921
青年	-10.6928
我个人	-10.6933
跟他们	-10.6939
随之	-10.6939
小镇	-10.6953
地带	-10.6954
构想	-10.6956
为什么会	-10.6956
于此	-10.6959
很多人都	-10.6962
我的同事	-10.6974
希望能	-10.6977
写道	-10.6979
拔	-10.6994
Le	-10.6996
绑	-10.6997
无人机	-10.6997
层面上	-10.6997
Q	-10.6998
啥	-10.6998
耕	-10.6998
跌	-10.6998
垫	-10.6998
英寸	-10.6998
抛弃	-10.6998
轮椅	-10.6999
浪漫	-10.6999
▁但却	-10.7
发达国家	-10.7002
交配	-10.7003
有超过	-10.7003
捕鱼	-10.7004
马丁	-10.7005
大海	-10.7006
整理	-10.7006
照明	-10.701
co	-10.7011
没有办法	-10.7017
极为	-10.7026
简化	-10.7029
有谁	-10.7038
go	-10.7043
任何事情	-10.7051
两位	-10.7053
此类	-10.7054
不清楚	-10.7056
迷人	-10.706
常规	-10.7074
神圣	-10.7074
躺在	-10.7074
重力	-10.7077
是很重要的	-10.7093
仿	-10.7094
一类	-10.7094
能想象	-10.7095
春	-10.7095
恐	-10.7099
打交道	-10.71
膨胀	-10.71
爱尔兰	-10.71
舱	-10.71
曼哈顿	-10.71
矩	-10.71
臭	-10.71
外星人	-10.71
救援	-10.7101
海滩	-10.7101
创业	-10.7103
购物	-10.7103
硬件	-10.7103
案件	-10.7104
尾巴	-10.7104
探测器	-10.7105
受益	-10.7106
村子	-10.7114
一个叫做	-10.712
协会	-10.7121
留给	-10.7121
▁这就意味着	-10.7122
听见	-10.714
外国	-10.7143
总体	-10.7144
称作	-10.7146
地铁	-10.7147
ig	-10.7148
就得	-10.7148
这个例子	-10.7164
打印机	-10.7164
协	-10.7174
男士	-10.7183
我妈妈	-10.7184
最伟大的	-10.7184
每一天	-10.7193
鼻	-10.7195
超市	-10.7196
宣	-10.7196
这个话题	-10.7197
上百万	-10.7198
系列	-10.7198
通常是	-10.72
La	-10.7203
串	-10.7203
呃	-10.7203
咨询	-10.7203
契	-10.7203
奥巴马	-10.7203
狭	-10.7203
贪	-10.7203
骄傲	-10.7203
鸽	-10.7203
众人笑	-10.7203
押	-10.7203
富裕	-10.7203
轨迹	-10.7203
共鸣	-10.7204
独裁	-10.7204
顺序	-10.7204
建成	-10.7206
简短	-10.7207
每秒	-10.7208
尤其是	-10.721
激光	-10.7212
布鲁	-10.7212
一道	-10.7214
电子游戏	-10.7215
利亚	-10.7216
火山	-10.7218
几个小时	-10.722
临时	-10.7232
解决方法	-10.7235
深度	-10.7237
用途	-10.724
亿年	-10.7249
传到	-10.7271
不该	-10.7274
这件事情	-10.7278
我们的大脑	-10.7288
对付	-10.7288
中国人	-10.729
对其	-10.7291
桌上	-10.7302
敬	-10.7306
柔	-10.7307
羞	-10.7307
脊	-10.7307
罢	-10.7307
卑	-10.7307
奈	-10.7307
蔓延	-10.7307
餐馆	-10.7309
审查	-10.7309
不可避免	-10.731
高尔夫球	-10.7312
是不可能的	-10.7312
聚在一起	-10.7314
同步	-10.7328
酒吧	-10.7328
▁但实际上	-10.7328
解读	-10.7328
男女	-10.7329
句话	-10.7334
强度	-10.7337
可持续性	-10.7343
不过是	-10.7344
可以说是	-10.735
市长	-10.7354
德里	-10.7363
坐着	-10.7363
制成	-10.7367
神经系统	-10.737
就能够	-10.7374
刚好	-10.7374
一个项目	-10.7375
放下	-10.7386
有很大的	-10.7386
两件事	-10.7399
每一次	-10.7406
真正地	-10.7408
很像	-10.741
夸	-10.7411
怒	-10.7412
李	-10.7412
好莱坞	-10.7412
翅膀	-10.7412
裸	-10.7412
NASA	-10.7412
埃塞俄比亚	-10.7412
扣	-10.7412
劫	-10.7412
蚊帐	-10.7412
搜寻	-10.7413
诸如此类	-10.7413
邪恶	-10.7413
暗示	-10.7414
车辆	-10.7419
参加了	-10.7419
包装	-10.742
情报	-10.7421
二战	-10.7427
接触到	-10.7427
家园	-10.743
ick	-10.743
长久	-10.7432
有足够的	-10.7432
ag	-10.7435
所带来的	-10.7445
相处	-10.7449
现实中	-10.745
每小时	-10.7451
是因为我们	-10.7453
Be	-10.7459
天文	-10.7484
阳	-10.7496
是非常重要的	-10.7497
来临	-10.7503
ug	-10.7504
来这里	-10.7505
谢	-10.7514
依赖于	-10.7517
猩猩	-10.7517
厌	-10.7518
讲讲	-10.7518
账	-10.7518
叛	-10.7519
──	-10.7519
卢旺达	-10.7519
姿势	-10.7519
强奸	-10.7519
激烈	-10.7519
界限	-10.7522
坏消息	-10.7522
消极	-10.7524
收藏	-10.7526
指令	-10.7526
到底是什么	-10.7528
询问	-10.7528
的一员	-10.7539
我的父母	-10.7539
想办法	-10.7541
曲子	-10.7546
家具	-10.7549
今日	-10.7549
猜想	-10.7554
几何	-10.7555
拿走	-10.756
大声	-10.7601
mi	-10.7603
见面	-10.7607
尤	-10.7615
太大	-10.7615
在地球上	-10.7617
对不起	-10.7619
符	-10.7621
我刚刚	-10.7621
阅	-10.7621
尝	-10.7624
役	-10.7625
茨	-10.7625
醉	-10.7626
乏	-10.7626
埃博拉	-10.7626
朱	-10.7626
纯粹	-10.7626
大西洋	-10.7626
昏	-10.7626
倾向	-10.7627
斯坦福	-10.7627
鼓舞	-10.7628
在座的各位	-10.7628
医师	-10.7629
包围	-10.7629
副作用	-10.7629
天然气	-10.763
这些动物	-10.7631
反抗	-10.7631
疑问	-10.7632
官方	-10.7632
折纸	-10.7632
发育	-10.7633
意愿	-10.7635
树林	-10.7636
件事情	-10.7636
伦理	-10.7636
开采	-10.7637
核能	-10.7643
表格	-10.7644
联系在一起	-10.7645
从来没	-10.7645
所拥有的	-10.7646
三天	-10.7657
影响到	-10.7658
这项工作	-10.7658
斯坦	-10.766
犹太人	-10.7661
棵树	-10.7663
胆	-10.7667
没问题	-10.7682
发言	-10.7684
做不到	-10.7687
问题在于	-10.7693
马上就	-10.7693
排除	-10.77
屋子	-10.7702
双方	-10.7702
那条	-10.771
技	-10.7714
顶部	-10.7715
成功地	-10.7717
剧院	-10.7726
暖	-10.7731
阶	-10.7731
况	-10.7732
不容易	-10.7733
择	-10.7733
汤	-10.7734
常见	-10.7734
贫	-10.7734
郁	-10.7735
撕	-10.7735
巴勒斯坦	-10.7735
成百上千	-10.7735
一模一样	-10.7735
转化为	-10.7735
保健	-10.7735
操控	-10.7736
安慰	-10.7736
蚁群	-10.7736
武装	-10.7736
添加	-10.7736
紧急	-10.7738
装备	-10.7741
并不会	-10.7743
耐心	-10.7746
做的就是	-10.7747
知道如何	-10.7747
造出	-10.7751
准备好了	-10.7754
成像	-10.7755
就如同	-10.7755
去了解	-10.7756
领导力	-10.7766
在世界各地	-10.7767
一张照片	-10.7768
当代	-10.7768
简单地	-10.7777
为之	-10.778
出口	-10.7788
三个月	-10.78
十五	-10.7802
在全世界	-10.7805
我的生活	-10.7809
数字化	-10.7812
天生	-10.7812
你的大脑	-10.7817
一共	-10.7834
派对	-10.7835
泡	-10.7837
监	-10.7839
振	-10.784
彻	-10.7844
勃	-10.7845
惯	-10.7845
震撼	-10.7845
咬	-10.7845
外科医生	-10.7845
棍	-10.7845
汗	-10.7845
Twitter	-10.7845
驼	-10.7845
棒极了	-10.7845
天赋	-10.7846
个性化	-10.7848
狮子	-10.7848
原料	-10.7851
暂时	-10.7853
其中之一	-10.7855
教导	-10.7855
护理	-10.7857
目光	-10.7862
创造性	-10.7863
艺术品	-10.7865
通道	-10.7867
飞过	-10.7874
面临着	-10.7881
我的演讲	-10.7881
有毒	-10.7882
ly	-10.7882
本能	-10.7883
录制	-10.7884
做到这一点	-10.7885
一旦你	-10.7885
巴拉	-10.7892
震动	-10.79
高达	-10.7906
卖给	-10.7908
伐	-10.7913
起到	-10.7914
这三个	-10.7921
伙	-10.7922
很感兴趣	-10.7925
手工	-10.7926
爆	-10.7926
就像这样	-10.793
不见	-10.7931
往下	-10.7934
读书	-10.7936
五百	-10.7939
估	-10.7946
险	-10.7951
束	-10.7953
织	-10.7954
洁	-10.7954
蚁	-10.7955
昂	-10.7955
喔	-10.7956
磷	-10.7956
苍蝇	-10.7956
菇	-10.7956
查尔斯	-10.7956
睁	-10.7956
因特网	-10.7956
担忧	-10.7956
挽救	-10.7956
职业生涯	-10.7956
突变	-10.7957
厌恶	-10.7957
为例	-10.7957
牛奶	-10.7958
鼠标	-10.7958
电子邮件	-10.7959
▁总之	-10.7959
超出	-10.7959
警告	-10.796
导师	-10.796
医学院	-10.7963
放松	-10.7963
好奇心	-10.7967
星星	-10.7969
滥用	-10.7969
心态	-10.797
到处都是	-10.7971
雌性	-10.7972
群岛	-10.7972
恶心	-10.7972
前景	-10.7977
适用	-10.7979
直线	-10.7982
西部	-10.7982
会告诉你	-10.7989
三倍	-10.7991
奇特	-10.7991
内战	-10.7994
名声	-10.7997
这个概念	-10.7999
岛上	-10.8001
▁那里有	-10.8008
解释一下	-10.801
卡尔	-10.8013
尝试着	-10.8015
Bo	-10.802
岁的孩子	-10.8021
不敢	-10.8022
季节	-10.8032
没有足够的	-10.804
合适	-10.8048
地图上	-10.805
旅	-10.8056
都是由	-10.8058
很多很多	-10.806
盲人	-10.8061
毕	-10.8067
揭	-10.8067
须	-10.8068
肝	-10.8068
罚	-10.8068
偿	-10.8068
塌	-10.8068
尿	-10.8068
疏	-10.8068
萤火虫	-10.8068
妹妹	-10.8068
姐姐	-10.8068
公斤	-10.8069
越大	-10.8069
岗位	-10.8069
扭曲	-10.8069
非凡的	-10.807
谎言	-10.807
市中心	-10.807
晚餐	-10.8071
挑选	-10.8071
居然	-10.8072
入侵	-10.8072
校园	-10.8077
言论	-10.8077
怎么可能	-10.8078
著名	-10.808
经理	-10.808
品质	-10.8081
加贝	-10.8082
就是这么	-10.8084
脸书	-10.8086
线性	-10.8088
本质	-10.8096
那次	-10.8097
我们不得不	-10.8101
是时候	-10.8108
排放量	-10.8129
返回	-10.8129
小男孩	-10.8138
大家都知道	-10.814
做这件事	-10.8142
舞台上	-10.8148
从此	-10.8154
有兴趣	-10.8165
战士	-10.8169
不能再	-10.8169
初期	-10.8171
德里克	-10.8172
当初	-10.8173
角度看	-10.8176
犹	-10.8176
跃	-10.8178
盟	-10.8181
匹	-10.8181
趋	-10.8181
鹅	-10.8182
这样的话	-10.8182
哥伦比亚	-10.8182
窃	-10.8182
麻省理工	-10.8182
乌干达	-10.8182
猿	-10.8182
陪	-10.8182
漂浮	-10.8182
汽油	-10.8183
发掘	-10.8183
碰撞	-10.8183
赞助	-10.8184
谋杀	-10.8184
业务	-10.8186
杀害	-10.8187
逃离	-10.8187
无需	-10.8188
几个星期	-10.8188
相互作用	-10.8189
情境	-10.819
伴随着	-10.8191
零件	-10.8191
航行	-10.8193
最新的	-10.8194
短片	-10.8195
决心	-10.8197
新兴	-10.8198
公式	-10.8199
讲座	-10.8203
鞋子	-10.8203
投资者	-10.8204
之间的关系	-10.8204
有太多	-10.8208
我希望你们	-10.8209
如此之	-10.8215
ver	-10.8217
人生中	-10.8218
议会	-10.8219
大爆炸	-10.8224
只用	-10.8228
损伤	-10.8233
使其	-10.8234
完全没有	-10.8259
放在一起	-10.8265
海洋中	-10.8267
魔	-10.8288
一点儿	-10.8288
电线	-10.829
看起来很	-10.8291
距	-10.8294
两个月	-10.8294
献	-10.8295
箭	-10.8295
寒	-10.8296
齿	-10.8296
畅	-10.8297
崇	-10.8297
赏	-10.8297
匠	-10.8297
无处不在	-10.8297
筒	-10.8297
金字塔	-10.8297
钉	-10.8297
屈	-10.8297
被告知	-10.8297
这部电影	-10.8297
封闭	-10.8298
规范	-10.8298
对于我来说	-10.8299
坦白	-10.8301
终结	-10.8301
垂直	-10.8302
列表	-10.8304
格林	-10.8312
跑步	-10.8312
立法	-10.8317
客观	-10.8319
这些故事	-10.8324
我想说的是	-10.8332
Car	-10.8336
坐下来	-10.8339
要素	-10.8351
帮我们	-10.8355
射线	-10.8365
就必须	-10.837
唱歌	-10.8371
因子	-10.8372
早就	-10.8379
持有	-10.8381
随后	-10.8382
纽约市	-10.8382
ti	-10.8385
适当	-10.8385
wa	-10.8389
▁但同时	-10.8394
能看见	-10.8396
经济发展	-10.8398
祖	-10.8405
很不错	-10.8407
爸	-10.8413
摄像头	-10.8413
砸	-10.8413
‧	-10.8413
株	-10.8413
踢	-10.8413
一无所知	-10.8413
检验	-10.8413
脑海中	-10.8413
na	-10.8414
恐怕	-10.8414
尊严	-10.8414
监测	-10.8414
议题	-10.8414
财产	-10.8414
人工智能	-10.8414
丧失	-10.8414
废弃	-10.8414
阶层	-10.8415
是怎么回事	-10.8416
必然	-10.8417
预料	-10.8417
演变	-10.8417
衰老	-10.8419
戈尔	-10.842
这首歌	-10.842
的产物	-10.8422
这个方法	-10.8423
追溯到	-10.8425
结合起来	-10.8428
声明	-10.8433
种群	-10.8435
战场	-10.8436
典型	-10.8436
恶化	-10.8437
任何时候	-10.8438
水果	-10.8441
指示	-10.8443
时尚	-10.8451
是什么意思	-10.8459
患上	-10.846
遭	-10.8464
甚至可以	-10.8473
怎么能	-10.8481
太好了	-10.8491
专注	-10.8501
我不认为	-10.8506
就此	-10.8511
一个很好的	-10.8513
衡	-10.852
焦	-10.8523
踪	-10.8526
放置	-10.8528
宜	-10.8529
篮	-10.8529
泛	-10.853
措	-10.853
YouTube	-10.8531
催	-10.8531
坑	-10.8531
托马斯	-10.8531
肥皂	-10.8531
漆	-10.8531
储蓄	-10.8531
旅途	-10.8531
政客	-10.8533
装饰	-10.8533
野生动物	-10.8534
景观	-10.8534
轻易	-10.8534
阴道	-10.8536
ak	-10.8538
二十世纪	-10.8539
封面	-10.8542
这个游戏	-10.8543
三角	-10.855
演讲者	-10.8555
还不够	-10.8556
产量	-10.8559
卡片	-10.8561
性格	-10.8564
意志	-10.8582
无形	-10.8583
场合	-10.8584
所面临的	-10.8591
就在于	-10.8595
两条	-10.8602
这方面的	-10.8605
即时	-10.8612
没有意识到	-10.8616
白天	-10.8616
▁这是一张	-10.8616
是错的	-10.8624
词语	-10.8626
雌	-10.8633
梯	-10.8646
分辨	-10.8649
饿	-10.865
凑	-10.865
凶	-10.865
铜	-10.865
锐	-10.865
蛮	-10.865
青蛙	-10.865
友好	-10.8651
欧盟	-10.8651
一大堆	-10.8651
股票	-10.8651
课题	-10.8653
冲击	-10.8654
单元	-10.8656
产出	-10.8657
多次	-10.8658
会想到	-10.8662
Re	-10.8663
智力	-10.8664
开头	-10.8677
那么大	-10.8683
再看看	-10.8689
恒	-10.869
▁而是因为	-10.8693
科研	-10.8697
兽	-10.8714
这个领域	-10.8717
可以看出	-10.873
样东西	-10.8734
▁我认为这是	-10.8742
转移到	-10.8746
不清	-10.8756
绘	-10.8758
回到家	-10.8759
很远	-10.8768
仰	-10.8768
漂	-10.8769
圣诞	-10.8769
漠	-10.8769
币	-10.8769
俱乐部	-10.877
众所周知	-10.877
羞耻	-10.8771
肤色	-10.8771
弯曲	-10.8771
虐待	-10.8771
危害	-10.8772
迁移	-10.8772
阴影	-10.8772
医疗保健	-10.8772
替换	-10.8772
消防	-10.8773
玛丽	-10.8773
干嘛	-10.8773
路径	-10.8774
冬天	-10.8775
ff	-10.8775
医药	-10.8775
误解	-10.8777
土星	-10.8779
关节	-10.8781
光谱	-10.8787
万物	-10.8791
已经成为	-10.8791
吸引力	-10.8796
来完成	-10.8801
像我一样	-10.8801
大厅	-10.8803
供给	-10.8804
事务	-10.8809
线索	-10.8817
条件下	-10.8817
如果有人	-10.8827
大胆	-10.8847
根本没有	-10.8848
这么大	-10.8848
这么想	-10.8861
那是个	-10.8866
不明白	-10.8874
己	-10.8887
帮你	-10.8888
饮	-10.889
仔	-10.8892
亚历山大	-10.8892
坠	-10.8892
黏	-10.8892
理所当然	-10.8892
笛	-10.8892
百分之九十	-10.8892
大厦	-10.8892
竞赛	-10.8893
账户	-10.8893
竞选	-10.8893
牛津	-10.8893
麻醉	-10.8893
协助	-10.8893
交叉	-10.8894
乳房	-10.8895
滑雪	-10.8895
持久	-10.8895
迹象	-10.8895
电视节目	-10.8897
一番	-10.8899
密切	-10.89
头部	-10.8901
这个观点	-10.8902
原因之一	-10.8904
亿个	-10.8905
无穷	-10.8906
回复	-10.8906
不算	-10.8912
弄明白	-10.892
此刻	-10.8926
明年	-10.8926
怎样才能	-10.8934
有多么	-10.8936
▁答案是	-10.8936
热带	-10.8939
冠军	-10.8941
有哪些	-10.8946
呈	-10.8946
电流	-10.8947
恰	-10.8948
共同点	-10.8948
高峰	-10.8949
这幅图	-10.8951
受过	-10.8969
▁St	-10.8973
ho	-10.8984
回头	-10.8987
给了我们	-10.8989
十年前	-10.8993
问题的答案	-10.8994
命令	-10.9003
有名的	-10.9007
od	-10.901
虎	-10.9013
袭	-10.9015
意味	-10.9015
糊	-10.9015
庆	-10.9016
欣	-10.9016
鲍	-10.9016
颠	-10.9016
吞	-10.9016
亏	-10.9016
叔叔	-10.9016
芭	-10.9016
颇	-10.9016
棋	-10.9016
矮	-10.9016
殖民	-10.9016
避孕	-10.9016
短暂	-10.9016
沉浸	-10.9016
礼拜	-10.9017
搜集	-10.9017
参考	-10.9017
多样化	-10.9017
尚未	-10.9018
共识	-10.9018
包容	-10.9019
反应堆	-10.9022
自私	-10.9024
vi	-10.9025
顾问	-10.9025
优先	-10.9025
数十亿	-10.9027
体积	-10.9027
地址	-10.9028
要问	-10.9031
be	-10.9032
善于	-10.9038
一种方式	-10.9043
看似	-10.9044
点儿	-10.9048
不会再	-10.9054
第一天	-10.9054
有两种	-10.9054
效益	-10.9061
显示出	-10.9063
▁其中有	-10.9064
大致	-10.9069
坏事	-10.907
抑郁症	-10.9076
加强	-10.9077
几乎没有	-10.9078
问道	-10.9079
听听	-10.908
四种	-10.908
看一看	-10.9084
ge	-10.9093
庞大	-10.911
不愿	-10.9112
女子	-10.9113
举起	-10.9121
已经有了	-10.913
变得更好	-10.9131
策	-10.9138
扭	-10.914
勾	-10.9141
可再生能源	-10.9141
酶	-10.9141
鹰	-10.9141
John	-10.9141
舌	-10.9141
醇	-10.9141
锋	-10.9141
竹	-10.9141
行不通	-10.9141
追寻	-10.9141
讯息	-10.9141
楼梯	-10.9142
汉堡	-10.9142
简洁	-10.9142
测序	-10.9143
键盘	-10.9143
的几率	-10.9143
教练	-10.9143
忍受	-10.9143
彼得	-10.9145
介入	-10.9146
战胜	-10.9146
仿生	-10.9147
预言	-10.9148
也是如此	-10.9148
▁但我认为	-10.9149
偶尔	-10.915
延长	-10.9152
边境	-10.9153
飞行员	-10.9154
总共	-10.9156
尸体	-10.9157
事情发生	-10.9162
思路	-10.9163
一种方法	-10.9163
人人都	-10.9164
这颗	-10.9167
雨水	-10.9172
瓶子	-10.9172
普通人	-10.9173
水面	-10.9174
更进一步	-10.9175
ba	-10.918
热量	-10.9181
脑子	-10.919
▁来帮助	-10.9197
转动	-10.9204
最喜欢的	-10.921
ga	-10.9212
投影	-10.9223
线路	-10.9225
与他人	-10.9225
登上	-10.924
习	-10.9253
演说	-10.9256
市民	-10.926
em	-10.9265
眠	-10.9267
擦	-10.9267
玩意儿	-10.9267
三明治	-10.9267
巡	-10.9267
直升机	-10.9267
金枪鱼	-10.9267
驻	-10.9267
拾	-10.9267
筋	-10.9267
骚	-10.9267
泡沫	-10.9267
脊髓	-10.9268
颠覆	-10.9268
比方说	-10.9268
奶奶	-10.9268
渠道	-10.9268
到目前为止	-10.9268
生殖	-10.9268
夸张	-10.9269
减轻	-10.9272
图画	-10.9272
降落	-10.9273
知觉	-10.9273
贩卖	-10.9274
圆形	-10.9275
生育	-10.9275
带走	-10.9276
应用程序	-10.9278
我的人生	-10.9279
回归	-10.9279
艾米	-10.9281
公共空间	-10.9282
真空	-10.9283
蒙特	-10.9285
立场	-10.9291
箱子	-10.9298
处理器	-10.9308
起初	-10.9309
周末	-10.9311
圈子	-10.9323
有价值的	-10.9325
更像是	-10.9326
ub	-10.933
这部分	-10.934
特技	-10.9343
你的身体	-10.9362
传染病	-10.9366
▁Ro	-10.9382
史上	-10.9384
更喜欢	-10.9389
勇	-10.9393
障	-10.9394
伍	-10.9394
庄	-10.9395
催产素	-10.9396
呐	-10.9396
孟加拉	-10.9396
截然不同	-10.9396
缠	-10.9396
爽	-10.9396
碗	-10.9396
绵	-10.9396
哨	-10.9396
扯	-10.9396
酱	-10.9396
基督教	-10.9396
硅谷	-10.9396
硬币	-10.9396
揭示	-10.9396
柏林	-10.9397
授权	-10.9397
牧师	-10.9397
社群	-10.9398
还不知道	-10.9399
错觉	-10.94
压缩	-10.94
引领	-10.94
暗物质	-10.94
尺度	-10.9401
修改	-10.9402
意料	-10.9408
找寻	-10.941
输出	-10.9419
跟随	-10.943
几次	-10.943
目的地	-10.9433
服务器	-10.9434
那张	-10.9438
提问	-10.9447
生产力	-10.9453
屋子里	-10.9458
ng	-10.947
实行	-10.947
正在进行	-10.9475
分数	-10.9477
频道	-10.9483
两年前	-10.9484
公路	-10.9484
不允许	-10.9488
mo	-10.9493
戴着	-10.9495
办公	-10.9497
工程学	-10.9511
很兴奋	-10.9513
▁这就像	-10.9518
病菌	-10.9519
援	-10.9524
姐妹	-10.9525
窝	-10.9525
青春期	-10.9525
枚	-10.9525
贾	-10.9525
陶	-10.9525
姥鲨	-10.9526
慷	-10.9526
溶	-10.9526
聘	-10.9526
韦	-10.9526
逮捕	-10.9526
尊敬	-10.9526
注册	-10.9526
延续	-10.9526
听上去	-10.9527
盖茨	-10.9527
察觉	-10.9527
架构	-10.9527
多年来	-10.953
社交媒体	-10.953
海平面	-10.9531
交通工具	-10.9533
风景	-10.9534
吃饭	-10.9534
远程	-10.9535
修建	-10.9535
结局	-10.9536
节约	-10.9538
该怎么办	-10.9539
消化	-10.9544
强制	-10.955
二十年	-10.9556
之路	-10.9559
举手	-10.956
支出	-10.9564
坐下	-10.9564
电极	-10.9569
天花	-10.9577
画画	-10.958
突出	-10.9583
最简单的	-10.9601
结束后	-10.9605
单单	-10.9609
转变为	-10.9613
整个国家	-10.9627
不管怎样	-10.9627
第一位	-10.9629
可以用来	-10.9634
名单	-10.9638
亲自	-10.9638
练	-10.9654
发生的事	-10.9656
丧	-10.9656
继	-10.9657
蓄	-10.9657
奉	-10.9657
摘	-10.9657
鸭	-10.9657
涂鸦	-10.9657
辅助	-10.9657
诉讼	-10.9657
荣誉	-10.9657
北京	-10.9658
膝盖	-10.9658
卓越	-10.9658
哥哥	-10.9659
直径	-10.9659
第五	-10.966
停车场	-10.966
年以来	-10.966
演唱	-10.966
访谈	-10.9661
否认	-10.9661
杰出的	-10.9662
节省	-10.9662
流行病	-10.9664
设法	-10.9665
失业	-10.9668
普及	-10.9672
做得更好	-10.9674
感恩	-10.9675
怀特	-10.9676
不堪	-10.9685
水母	-10.9688
等级	-10.9689
潜能	-10.9708
提供给	-10.9708
这东西	-10.9711
一杯	-10.9712
郊区	-10.9712
加快	-10.9712
几乎所有	-10.9714
论点	-10.9715
给大家看	-10.9719
这种现象	-10.9725
终极	-10.9732
震	-10.9733
降到	-10.9735
首歌	-10.9742
得不到	-10.9744
拍下	-10.9749
毫	-10.975
没关系	-10.9753
同学	-10.977
非常困难	-10.9771
通往	-10.9788
悟	-10.9789
叹	-10.979
砍	-10.979
委	-10.979
墓	-10.979
CEO	-10.979
–	-10.979
拉丁美洲	-10.979
涡	-10.979
惹	-10.979
披	-10.979
撤	-10.979
秋	-10.979
苏格兰	-10.979
马拉松	-10.979
龟	-10.979
贿	-10.979
凌晨	-10.979
印第安	-10.979
很大程度上	-10.979
人际关系	-10.979
奋斗	-10.9791
▁这样一来	-10.9791
罕见	-10.9792
粪便	-10.9793
灰色	-10.9794
参与进来	-10.9795
古怪	-10.9796
帽子	-10.9797
滑板	-10.9798
复活	-10.98
肉眼	-10.9807
早已	-10.9808
卡通	-10.9814
不舒服	-10.9815
我的母亲	-10.9824
治疗方法	-10.9825
像我这样	-10.9826
属性	-10.983
我将要	-10.9839
图书	-10.9842
携	-10.9847
我从来没有	-10.9855
带入	-10.9859
经济体	-10.986
组建	-10.9869
国民	-10.987
克莱	-10.9879
这听起来	-10.9894
工艺	-10.9906
冬	-10.9921
更有效	-10.9921
忍	-10.9922
财	-10.9922
维基百科	-10.9926
拳	-10.9926
炉	-10.9926
粗糙	-10.9926
银河系	-10.9926
飘	-10.9926
抹	-10.9926
非政府组织	-10.9926
说实话	-10.9926
甲烷	-10.9926
慈悲	-10.9926
痕迹	-10.9926
高速公路	-10.9926
培育	-10.9926
监禁	-10.9926
启示	-10.9927
补充	-10.9927
盈利	-10.9928
乘客	-10.9928
暴露	-10.9928
雨林	-10.993
核武器	-10.993
很久以前	-10.993
预计	-10.9931
搞清楚	-10.9931
称呼	-10.9931
之旅	-10.9932
天啊	-10.9932
级别	-10.9932
坚定	-10.9932
食物链	-10.9933
可惜	-10.9937
草原	-10.9937
一艘	-10.9946
停车	-10.9949
廉价	-10.9951
接种	-10.9953
提及	-10.9955
生物多样性	-10.9956
开创	-10.9967
站在这里	-10.9969
名字叫	-10.9978
哪种	-10.9979
所需	-10.998
那一天	-10.9986
In	-10.9986
更美好	-10.9994
感动	-10.9998
越南	-10.9999
no	-11.0008
不稳定	-11.0011
do	-11.0018
Ka	-11.0036
低于	-11.0038
所知道的	-11.0043
万亿	-11.0051
现在正在	-11.0053
尊	-11.0058
浓	-11.0059
旋	-11.006
叉	-11.0061
培	-11.0061
泽	-11.0063
妨	-11.0063
辉	-11.0063
很长一段时间	-11.0063
兄弟姐妹	-11.0063
审判	-11.0064
创办	-11.0064
毫米	-11.0065
行驶	-11.0066
故意	-11.0068
采取行动	-11.0069
理智	-11.007
气泡	-11.007
术语	-11.007
我所说的	-11.0071
明星	-11.0077
语音	-11.0077
生物体	-11.0078
转变成	-11.0083
在街上	-11.0086
脑子里	-11.0089
女士们	-11.0092
一款	-11.0095
参与其中	-11.01
张照片	-11.012
这里有一个	-11.0121
art	-11.0132
▁这也是为什么	-11.0135
ka	-11.0144
传送	-11.0151
一个星期	-11.0162
始于	-11.0163
每一位	-11.0166
业余	-11.0181
这将是	-11.0185
一页	-11.0194
亲身	-11.0194
武	-11.0196
艰	-11.0196
申	-11.02
济	-11.02
贷	-11.0201
David	-11.0201
挫	-11.0201
踩	-11.0201
三分之二	-11.0201
独一无二	-11.0201
英格兰	-11.0201
躯	-11.0201
激动人心	-11.0201
沼泽	-11.0201
一次又一次	-11.0201
蛋糕	-11.0202
峡谷	-11.0202
觅食	-11.0202
养殖	-11.0202
旅馆	-11.0202
编织	-11.0202
损害	-11.0203
显现	-11.0203
文献	-11.0204
排序	-11.0206
死刑	-11.0208
方程	-11.0209
过渡	-11.0211
大脑皮层	-11.0211
选项	-11.0212
废物	-11.0212
解决办法	-11.0214
五分钟	-11.0217
一点也不	-11.022
给你们展示	-11.022
有点儿	-11.0225
文本	-11.0233
教徒	-11.0234
伸出	-11.0236
难度	-11.0242
世界银行	-11.0247
朝着	-11.0249
对不对	-11.0257
三十年	-11.0259
加起来	-11.0264
这两者	-11.0268
长远	-11.0269
驱使	-11.0284
很聪明	-11.0309
对自己说	-11.0318
书写	-11.0329
Co	-11.0335
豹	-11.0336
陷	-11.0339
忠	-11.0342
溜	-11.0342
乙	-11.0342
耶稣	-11.0342
薯	-11.0342
谦	-11.0342
隙	-11.0342
脊椎	-11.0342
荒谬	-11.0342
捕捞	-11.0343
剑桥	-11.0343
有助于	-11.0343
恶劣	-11.0343
墨西哥湾	-11.0343
寒冷	-11.0344
干旱	-11.0344
约束	-11.0344
音符	-11.0344
重塑	-11.0344
假肢	-11.0345
渔业	-11.0345
短短	-11.0346
微博	-11.0347
工业革命	-11.0348
皮层	-11.0349
冰箱	-11.0349
射击	-11.0349
提示	-11.035
癌细胞	-11.0353
要做的就是	-11.0359
空白	-11.0363
板球	-11.0368
排名	-11.0373
尽力	-11.0388
ard	-11.0395
大幅	-11.0402
han	-11.041
马路	-11.0413
跨国	-11.0418
分割	-11.0439
ana	-11.0458
舒服	-11.046
必需	-11.0464
ine	-11.0465
几百万	-11.0466
研究表明	-11.047
操	-11.0474
析	-11.048
女生	-11.0482
预见	-11.0483
老化	-11.0484
中产阶级	-11.0485
弓	-11.0485
柴	-11.0485
凉	-11.0485
叙述	-11.0485
扶	-11.0485
铁路	-11.0485
称它为	-11.0485
口袋里	-11.0485
丛林	-11.0486
神经科学	-11.0489
麦克风	-11.0489
宝贝	-11.0489
宗教信仰	-11.049
留言	-11.0491
注定	-11.0492
同伴	-11.0493
反正	-11.0496
偏远	-11.0498
统计数据	-11.0499
伯特	-11.0501
og	-11.0502
举动	-11.0515
抵达	-11.0515
很多时候	-11.0516
经费	-11.0517
西方国家	-11.0523
加热	-11.0525
微妙	-11.0525
Pete	-11.0526
磁场	-11.0526
心情	-11.0532
老师们	-11.0549
不公平	-11.0573
两只	-11.0573
研制	-11.0574
aw	-11.0586
整个过程	-11.0588
很复杂	-11.0595
最快的	-11.0601
即便	-11.0604
相对于	-11.0614
另外一种	-11.0618
粪	-11.0627
绪	-11.0629
丘	-11.0629
疼	-11.0629
誉	-11.063
吵	-11.063
壶	-11.063
瓷	-11.063
衫	-11.063
骂	-11.063
僵	-11.063
葛	-11.063
帆	-11.063
诱惑	-11.063
帐篷	-11.063
螺旋	-11.063
孩童	-11.063
肩膀	-11.063
桥梁	-11.063
倾斜	-11.063
泡泡	-11.063
The	-11.0631
解剖	-11.0631
残酷	-11.0632
宣称	-11.0632
罗伯特	-11.0632
棉花	-11.0633
征服	-11.0633
不好意思	-11.0633
暗能量	-11.0634
遗产	-11.0635
模块	-11.0636
升级	-11.0637
就好比	-11.0639
应付	-11.0639
搞笑	-11.0641
组成部分	-11.0642
男生	-11.0649
车库	-11.0649
声称	-11.0652
人类历史上	-11.066
案子	-11.0661
有趣的事情	-11.0662
我很喜欢	-11.0665
解决的问题	-11.0669
在网络上	-11.0671
低成本	-11.0679
同行	-11.0681
线条	-11.0688
万美金	-11.0694
帝	-11.0738
伟	-11.0761
何处	-11.0764
绳	-11.0768
贯	-11.0769
讨	-11.0775
筑	-11.0776
柏	-11.0776
虐	-11.0776
扮	-11.0776
侦	-11.0777
垮	-11.0777
汀	-11.0777
扑	-11.0777
钥匙	-11.0777
腰	-11.0777
钩	-11.0777
专辑	-11.0777
哒	-11.0777
在座各位	-11.0777
肝脏	-11.0778
紫色	-11.0778
城镇	-11.0779
夫妇	-11.078
逆转	-11.0782
合作伙伴	-11.0783
相遇	-11.0783
这张图片	-11.0788
唱片	-11.0789
病例	-11.079
聚焦	-11.0792
重新定义	-11.0794
优化	-11.0795
杰克	-11.0796
冰层	-11.0799
后悔	-11.08
光明	-11.0807
最具	-11.0807
花钱	-11.0813
一瞬间	-11.0819
促成	-11.0833
Lo	-11.0834
ley	-11.0835
把握	-11.0837
什么都没有	-11.0839
▁Ma	-11.0842
all	-11.0843
乐高	-11.0848
几种	-11.0858
寻	-11.0869
使之	-11.0871
以至于	-11.088
四周	-11.0886
探究	-11.0894
并未	-11.09
长寿	-11.0906
很开心	-11.0911
停下	-11.0912
椅	-11.0916
野生	-11.0917
频	-11.0918
焦点	-11.0922
轨	-11.0923
搜	-11.0924
愤	-11.0926
崩	-11.0926
宇航员	-11.0926
除此之外	-11.0926
颈	-11.0926
HIV	-11.0926
溪	-11.0926
丸	-11.0926
多巴胺	-11.0926
眉	-11.0926
共和党	-11.0926
弟弟	-11.0926
乌鸦	-11.0926
妥协	-11.0927
频繁	-11.0927
防御	-11.0927
宏观	-11.0927
累积	-11.0927
疫情	-11.0927
人道主义	-11.0929
愿景	-11.0929
逐步	-11.0929
浓度	-11.093
救助	-11.0932
骨架	-11.0933
春天	-11.0933
政权	-11.0934
触及	-11.0936
货物	-11.0937
社交网络	-11.0937
借口	-11.0939
美味	-11.0942
转化成	-11.0944
半小时	-11.0948
西亚	-11.095
翻译成	-11.096
成效	-11.0961
连接起来	-11.0963
CO	-11.0977
世界上最大的	-11.0985
想想看	-11.0992
天使	-11.1016
棵	-11.1026
一个全新的	-11.1033
切实	-11.1033
把它放在	-11.1038
细微	-11.1043
更糟	-11.1064
五岁	-11.107
枝	-11.1076
痴	-11.1077
制品	-11.1077
艇	-11.1077
凌	-11.1078
脊髓灰质炎	-11.1078
垒	-11.1078
宴	-11.1078
盆	-11.1078
女士们先生们	-11.1078
遵守	-11.1078
厘米	-11.1078
容忍	-11.1079
摇滚	-11.1079
走廊	-11.108
清醒	-11.1081
诸如	-11.1081
协同	-11.1082
丢失	-11.1082
指责	-11.1083
智商	-11.1084
直观	-11.1084
仍旧	-11.1084
▁KB	-11.1085
古代	-11.1091
给大家展示	-11.1094
沃尔	-11.1095
这么认为	-11.1095
听觉	-11.1095
IP	-11.1099
另一半	-11.1104
杯子	-11.1104
问问	-11.1111
生活质量	-11.1111
总部	-11.1112
状物	-11.1114
躺	-11.1116
东部	-11.1122
木头	-11.1124
行动起来	-11.1124
认出	-11.1131
英尺高	-11.1138
恰当	-11.1147
也正是	-11.1148
玩游戏	-11.1158
淡水	-11.1161
庞	-11.1165
亿人口	-11.1165
根除	-11.1178
心智	-11.1181
有意思的是	-11.1181
无疑	-11.1201
只是为了	-11.1219
鲨	-11.1219
肌	-11.1231
栖	-11.1232
蔽	-11.1232
MIT	-11.1232
桃	-11.1232
幸存者	-11.1232
庙	-11.1232
广阔	-11.1232
加仑	-11.1232
巧妙	-11.1232
卧室	-11.1233
注视	-11.1236
▁至于	-11.1236
老年人	-11.1237
球员	-11.1237
同等	-11.1238
患病	-11.1241
牛顿	-11.1241
复合	-11.1243
智利	-11.1245
分支	-11.1246
得很好	-11.1246
反过来	-11.1247
的角度来看	-11.1248
对称性	-11.1264
这项研究	-11.1272
船只	-11.1279
每一个人都	-11.1289
一张纸	-11.1302
org	-11.1315
置于	-11.1317
体型	-11.1351
一点都不	-11.1367
同样的事情	-11.137
惜	-11.1375
奋	-11.1387
涵	-11.1387
咒	-11.1388
悠	-11.1388
欠	-11.1388
爷爷	-11.1388
碑	-11.1388
芒	-11.1388
鸿沟	-11.1388
塔利班	-11.1388
拐	-11.1388
砂	-11.1388
酵	-11.1388
佛罗里达	-11.1388
泄漏	-11.1388
重组	-11.1388
财务	-11.1389
榜样	-11.1389
足迹	-11.139
职责	-11.139
棘手	-11.139
弹奏	-11.139
临床试验	-11.1391
雕像	-11.1391
纪录片	-11.1392
肖像	-11.1393
四分之一	-11.1395
响应	-11.1398
主观	-11.1401
水泥	-11.1402
毕业生	-11.1404
加密	-11.1407
起诉	-11.1409
发达	-11.1418
人性化	-11.1422
品种	-11.1423
先生们	-11.1424
头顶	-11.1425
安置	-11.1426
总量	-11.1437
充电	-11.1447
追随	-11.1449
Li	-11.1452
难民营	-11.147
碳排放	-11.1474
在这方面	-11.148
多少钱	-11.1483
停留	-11.1487
北方	-11.149
扫描仪	-11.1496
关乎	-11.1497
动脉	-11.1503
歌剧	-11.1517
疾	-11.1526
寻常	-11.1534
虽	-11.1545
囚	-11.1546
俯	-11.1547
鹿	-11.1547
束缚	-11.1547
泵	-11.1547
硕	-11.1547
胳膊	-11.1547
娅	-11.1547
底特律	-11.1547
新西兰	-11.1547
浇	-11.1547
肆	-11.1547
雀	-11.1547
等同于	-11.1547
卡路里	-11.1547
威廉	-11.1547
棕色	-11.1548
批准	-11.1548
琼斯	-11.1548
天文学家	-11.1548
善良	-11.1549
顶尖	-11.155
党派	-11.1552
恰好	-11.1558
变形	-11.1565
终点	-11.1571
冷却	-11.1573
福特	-11.1573
这一过程	-11.1574
赛车	-11.1576
银行家	-11.158
虚拟现实	-11.1588
一个很大的	-11.1589
平静	-11.159
头骨	-11.1591
歌手	-11.1593
什么都不	-11.16
杀手	-11.1602
最糟糕的	-11.1612
连结	-11.1635
ph	-11.1637
国界	-11.1651
玩笑	-11.1672
和我一起	-11.1679
绩	-11.1703
详	-11.1707
募	-11.1707
苦难	-11.1708
呵	-11.1708
拘	-11.1708
搏	-11.1708
闷	-11.1708
芽	-11.1708
裙	-11.1708
锻炼	-11.1708
阿根廷	-11.1708
乌托邦	-11.1708
衬	-11.1708
颖	-11.1708
悬崖	-11.1708
交响乐	-11.1708
谨慎	-11.1708
监督	-11.1708
卖淫	-11.1708
砍伐	-11.1708
喜悦	-11.1708
脚趾	-11.1708
剥夺	-11.1708
南极洲	-11.1708
宠物	-11.1709
人行道	-11.1709
主宰	-11.1709
脉冲	-11.1709
变暖	-11.1709
珍贵	-11.171
三角形	-11.171
切割	-11.1711
直播	-11.1711
肚子	-11.1712
饼干	-11.1712
缺失	-11.1713
平凡	-11.1713
照相机	-11.1714
报导	-11.1714
海豹	-11.1715
黑帮	-11.1716
导演	-11.172
推断	-11.172
职位	-11.1721
主角	-11.1723
第一批	-11.1728
主张	-11.1728
名词	-11.1734
促	-11.1734
合同	-11.1738
该怎么做	-11.1745
讯	-11.1745
这可能是	-11.1748
CD	-11.1756
主管	-11.1761
请记住	-11.1764
唯	-11.177
BG	-11.1772
高潮	-11.178
▁又或者	-11.1807
受损	-11.1808
亿美金	-11.1837
立体	-11.1842
林肯	-11.1845
制造商	-11.1851
脑细胞	-11.1851
尸	-11.1851
住房	-11.1853
渡	-11.1861
捉	-11.1871
阔	-11.1871
加工	-11.1872
纷	-11.1872
炭	-11.1872
前列腺	-11.1872
小提琴	-11.1872
愉悦	-11.1872
茫	-11.1872
陋	-11.1872
化合物	-11.1872
捡	-11.1872
澡	-11.1872
量子力学	-11.1872
曼德拉	-11.1872
紫外线	-11.1872
脑海里	-11.1872
削减	-11.1872
煤炭	-11.1872
悲惨	-11.1872
签署	-11.1872
爱好者	-11.1873
漏洞	-11.1874
作弊	-11.1874
横跨	-11.1874
代谢	-11.1874
静止	-11.1874
意识形态	-11.1876
紧紧	-11.1877
狂热	-11.188
占领	-11.188
绳子	-11.1881
低估	-11.1881
日益	-11.1882
伯格	-11.1884
照射	-11.1886
验	-11.1992
竟	-11.2
贩	-11.2029
猴	-11.203
舒	-11.2037
丛	-11.2037
渐	-11.2038
悉	-11.2038
斜	-11.2038
兄	-11.2039
牠	-11.2039
皱	-11.2039
窄	-11.2039
纱	-11.2039
吊	-11.2039
铃	-11.2039
颁	-11.2039
藻	-11.2203
慰	-11.2206
敦	-11.2207
膝	-11.2207
浸	-11.2207
胖	-11.2208
仙	-11.2208
趟	-11.2208
侠	-11.2208
嫁	-11.2208
慕	-11.2208
挨	-11.2208
棉	-11.2377
纤	-11.2379
罕	-11.2379
姿	-11.238
刹	-11.238
淘	-11.238
誓	-11.2381
洒	-11.2381
蟹	-11.2381
霉	-11.2381
铸	-11.2381
籍	-11.255
驶	-11.2552
虑	-11.2555
硅	-11.2556
轰	-11.2556
氮	-11.2556
舟	-11.2556
萧	-11.2556
貘	-11.2556
遣	-11.2556
铭	-11.2556
锅	-11.2556
韵	-11.2556
庭	-11.2626
革	-11.2642
帽	-11.2726
册	-11.2727
剥	-11.2734
谨	-11.2734
咱	-11.2735
晕	-11.2735
爪	-11.2735
砰	-11.2735
躁	-11.2735
哺	-11.2735
炮	-11.2735
衔	-11.2735
址	-11.2898
黎	-11.2914
抚	-11.2915
究	-11.2915
葬	-11.2916
螺	-11.2916
蠢	-11.2916
奴	-11.2916
沾	-11.2916
妓	-11.2916
棚	-11.2916
泊	-11.2916
藉	-11.2916
嗅	-11.2916
殿	-11.2916
滥	-11.308
垂	-11.3094
鸣	-11.31
宏	-11.31
渴	-11.3101
督	-11.3101
犬	-11.3102
哀	-11.3102
琐	-11.3102
顽	-11.3102
冈	-11.3102
坎	-11.3102
捏	-11.3102
搅	-11.3102
晒	-11.3102
枢	-11.3102
浩	-11.3102
膏	-11.3102
喀	-11.3102
旦	-11.3273
媒	-11.3285
孕	-11.3289
覆	-11.3289
债	-11.329
帐	-11.329
肿	-11.329
～	-11.329
―	-11.329
盔	-11.329
瓣	-11.329
咪	-11.329
淀	-11.329
狠	-11.329
卓	-11.3481
榜	-11.3481
胞	-11.3482
览	-11.3482
欺	-11.3482
畏	-11.3482
赐	-11.3482
驳	-11.3482
霸	-11.3483
浑	-11.3483
蜣	-11.3483
颂	-11.3483
届	-11.3483
竖	-11.3483
予	-11.367
炼	-11.3676
嘲	-11.3677
描	-11.3678
劣	-11.3678
乃	-11.3679
厄	-11.3679
莓	-11.3679
懒	-11.3679
眨	-11.3679
硫	-11.3679
番	-11.3867
肖	-11.3872
旱	-11.3877
楚	-11.3877
泄	-11.3878
痕	-11.3878
煮	-11.3879
函	-11.3879
嘉	-11.3879
斧	-11.3879
枯	-11.3879
姨	-11.3879
恤	-11.3879
挠	-11.3879
瘦	-11.3879
违	-11.4077
亨	-11.4079
盈	-11.4079
京	-11.4081
挪	-11.4082
慌	-11.4082
+	-11.4083
掷	-11.4083
熵	-11.4083
颅	-11.4083
骸	-11.4083
雏	-11.4083
刮	-11.4083
绒	-11.4083
饶	-11.4083
翁	-11.4083
宇	-11.4083
廉	-11.4252
哩	-11.4291
妆	-11.4291
窍	-11.4291
君	-11.4291
授	-11.4497
聪	-11.4502
贸	-11.4503
撑	-11.4503
剔	-11.4504
抄	-11.4504
珀	-11.4504
缅	-11.4504
凸	-11.4504
悖	-11.4504
蝶	-11.4504
县	-11.4504
癫	-11.4504
缸	-11.4504
抑	-11.4662
械	-11.4717
棕	-11.472
礁	-11.4721
蛙	-11.4721
怨	-11.4721
绞	-11.4721
炒	-11.4721
贺	-11.4721
钓	-11.4721
佐	-11.4721
佑	-11.4721
熔	-11.4721
诡	-11.4721
锡	-11.4721
鳍	-11.4721
嬉	-11.4721
巷	-11.4721
熬	-11.4721
堪	-11.4896
循	-11.4927
扩	-11.4939
嵌	-11.494
添	-11.4941
邀	-11.4941
斥	-11.4942
慈	-11.4942
掠	-11.4943
浆	-11.4943
憎	-11.4943
捆	-11.4943
渊	-11.4943
焰	-11.4943
椰	-11.4943
沟	-11.5098
剑	-11.517
履	-11.5171
朽	-11.5171
碌	-11.5171
碟	-11.5171
脖	-11.5171
螨	-11.5171
锯	-11.5171
摊	-11.5171
溢	-11.5171
稻	-11.5171
耸	-11.5171
萎	-11.5171
廷	-11.5171
摔	-11.5402
颜	-11.5402
拟	-11.5402
忌	-11.5403
悦	-11.5403
旺	-11.5403
槽	-11.5403
唇	-11.5403
塘	-11.5403
幢	-11.5403
辍	-11.5403
阁	-11.5403
卸	-11.5403
塑	-11.5499
冥	-11.563
承	-11.5634
朵	-11.5635
哲	-11.5635
津	-11.564
御	-11.564
脆	-11.564
晃	-11.5641
唐	-11.5641
瘤	-11.5641
蜡	-11.5641
栽	-11.5641
渺	-11.5641
靴	-11.5641
傲	-11.5641
甩	-11.5641
袜	-11.5641
勉	-11.5641
烯	-11.5641
暂	-11.5835
询	-11.5863
疫	-11.5883
渗	-11.5883
企	-11.5883
卧	-11.5884
濒	-11.5885
辱	-11.5885
妥	-11.5885
妒	-11.5885
掏	-11.5885
顷	-11.5885
咸	-11.5885
坊	-11.5885
娶	-11.5885
炫	-11.5885
藤	-11.5885
喉	-11.5885
扁	-11.5885
挚	-11.5885
赎	-11.5885
狄	-11.5885
辣	-11.5885
滩	-11.6131
碍	-11.6135
溯	-11.6135
弟	-11.6135
姐	-11.6135
券	-11.6135
抖	-11.6135
嘘	-11.6135
奎	-11.6135
盼	-11.6135
嚼	-11.6135
沸	-11.6135
渣	-11.6135
痒	-11.6135
铝	-11.6135
滨	-11.6135
焚	-11.6135
祭	-11.6135
秃	-11.6135
蒸	-11.6273
概	-11.637
汽	-11.6385
幽	-11.6391
僧	-11.6392
詹	-11.6392
驯	-11.6392
仗	-11.6392
巫	-11.6392
拦	-11.6392
氦	-11.6392
舰	-11.6392
闯	-11.6392
碧	-11.6392
窥	-11.6392
逗	-11.6392
«	-11.6392
»	-11.6392
勘	-11.6392
溺	-11.6392
舅	-11.6392
芝	-11.6392
努	-11.665
怎	-11.6652
伞	-11.6653
梭	-11.6654
屁	-11.6654
仓	-11.6654
蚀	-11.6655
俱	-11.6655
坝	-11.6655
拽	-11.6655
於	-11.6655
疤	-11.6655
艳	-11.6655
虹	-11.6655
贬	-11.6655
逛	-11.6655
栓	-11.6655
烘	-11.6655
酿	-11.6655
研	-11.6865
谓	-11.6911
训	-11.6922
魂	-11.6924
卜	-11.6925
橘	-11.6925
黛	-11.6925
劝	-11.6925
坞	-11.6925
懈	-11.6925
蛎	-11.6925
锤	-11.6925
殴	-11.6925
纬	-11.6925
陡	-11.6925
逸	-11.6925
蚊	-11.7194
瞬	-11.72
寸	-11.7202
峡	-11.7202
惧	-11.7202
愚	-11.7203
祷	-11.7203
刘	-11.7203
哎	-11.7203
狸	-11.7203
髋	-11.7203
摒	-11.7203
瞎	-11.7203
贤	-11.7203
馅	-11.7203
戮	-11.7203
掀	-11.7203
泻	-11.7203
肘	-11.7203
蓬	-11.7203
僻	-11.7203
狮	-11.748
弊	-11.7485
寓	-11.7487
屠	-11.7487
寂	-11.7488
仇	-11.7488
蕴	-11.7488
─	-11.7488
呜	-11.7489
拷	-11.7489
桩	-11.7489
辟	-11.7489
骇	-11.7489
叮	-11.7489
艘	-11.755
悔	-11.7736
洪	-11.7773
廊	-11.7776
诞	-11.7777
剖	-11.7781
饲	-11.7782
裹	-11.7782
颤	-11.7783
巅	-11.7783
潘	-11.7783
诫	-11.7783
趁	-11.7783
嫌	-11.7783
孢	-11.7783
寺	-11.7783
弧	-11.7783
旷	-11.7783
钙	-11.7783
凿	-11.7783
捣	-11.7783
泼	-11.7783
燕	-11.7783
逾	-11.7783
饵	-11.7783
孩	-11.8045
q	-11.8073
彼	-11.8073
祸	-11.8081
宰	-11.8084
川	-11.8084
髓	-11.8084
昆	-11.8085
蛛	-11.8085
澄	-11.8086
葱	-11.8086
陀	-11.8086
刃	-11.8086
喘	-11.8086
垄	-11.8086
妄	-11.8086
汰	-11.8086
绷	-11.8086
薇	-11.8086
後	-11.8086
槛	-11.8086
螈	-11.8086
疆	-11.8086
绎	-11.8086
诵	-11.8086
谣	-11.8086
鞭	-11.8086
寿	-11.8392
拓	-11.8393
忽	-11.8395
苍	-11.8398
=	-11.8398
稠	-11.8398
稚	-11.8398
咳	-11.8398
圭	-11.8398
寡	-11.8398
恳	-11.8398
畜	-11.8398
祥	-11.8398
辖	-11.8398
鄂	-11.8398
铲	-11.8398
汲	-11.8398
肤	-11.8718
宅	-11.8719
铅	-11.872
酬	-11.872
袖	-11.872
梁	-11.872
苗	-11.8721
柄	-11.8721
麽	-11.8721
梳	-11.8721
翠	-11.8721
蹲	-11.8721
丙	-11.8721
咯	-11.8721
蹦	-11.8721
倚	-11.8721
搁	-11.8721
昧	-11.8721
熄	-11.8721
臣	-11.8721
郊	-11.88
滤	-11.8849
泳	-11.9053
紫	-11.9053
杉	-11.9053
遵	-11.9053
捞	-11.9053
赠	-11.9054
氨	-11.9054
疹	-11.9054
帘	-11.9054
犀	-11.9054
簿	-11.9054
袍	-11.9054
峭	-11.9054
恭	-11.9054
橱	-11.9054
萌	-11.9054
帅	-11.9054
庸	-11.9054
拙	-11.9054
涅	-11.9054
睾	-11.9054
浦	-11.9054
赋	-11.9394
穴	-11.9398
橙	-11.9398
厉	-11.9398
膀	-11.9399
慎	-11.9399
诈	-11.9399
迦	-11.9399
#	-11.9399
汪	-11.9399
淑	-11.9399
矫	-11.9399
亭	-11.9399
冯	-11.9399
厢	-11.9399
杏	-11.9399
芳	-11.9399
陨	-11.9399
吱	-11.9399
缪	-11.9399
°	-11.9399
苛	-11.9399
缆	-11.9753
肾	-11.9756
妹	-11.9756
祈	-11.9756
_	-11.9756
晋	-11.9756
匪	-11.9756
帧	-11.9756
纲	-11.9756
鄙	-11.9756
铀	-11.9756
侯	-11.9756
匀	-11.9756
拱	-11.9756
煎	-11.9756
郎	-11.9756
颚	-11.9756
屑	-11.9756
竞	-12.0123
润	-12.0123
宪	-12.0124
韩	-12.0124
婴	-12.0124
岗	-12.0124
奸	-12.0124
挽	-12.0125
僚	-12.0126
嘟	-12.0126
暑	-12.0126
沦	-12.0126
矛	-12.0126
蛾	-12.0126
吼	-12.0126
腻	-12.0126
贮	-12.0126
辙	-12.0126
遏	-12.0126
咽	-12.0126
徽	-12.0126
枕	-12.0126
绅	-12.0126
奠	-12.0126
绸	-12.0126
锈	-12.0126
锥	-12.0126
钦	-12.0126
妻	-12.0501
雕	-12.0503
兔	-12.0503
肚	-12.0503
耍	-12.0507
厨	-12.0509
噪	-12.0509
董	-12.0511
乞	-12.0511
癖	-12.0511
茅	-12.0511
驰	-12.0511
杖	-12.0511
烫	-12.0511
碾	-12.0511
苯	-12.0511
阀	-12.0511
凤	-12.0511
孵	-12.0511
椭	-12.0511
褶	-12.0511
霜	-12.0511
堤	-12.0511
帖	-12.0511
瞒	-12.0511
郡	-12.0511
锦	-12.0511
鲑	-12.0511
恍	-12.0511
殊	-12.0906
括	-12.0909
滞	-12.091
府	-12.091
悯	-12.0911
桨	-12.0911
@	-12.0911
缔	-12.0911
赔	-12.0911
屡	-12.0911
怯	-12.0911
瘟	-12.0911
唔	-12.0911
盏	-12.0911
羚	-12.0911
荫	-12.0911
辰	-12.0911
吟	-12.0911
氯	-12.0911
缴	-12.0911
锂	-12.0911
跋	-12.0911
镖	-12.0911
俘	-12.0911
喻	-12.1319
翰	-12.1326
邪	-12.1327
耻	-12.1327
篷	-12.1328
撇	-12.1328
悼	-12.1328
捧	-12.1328
旭	-12.1328
昔	-12.1328
榨	-12.1328
胺	-12.1328
芦	-12.1328
茄	-12.1328
蔑	-12.1328
蚕	-12.1328
隘	-12.1328
呕	-12.1328
岂	-12.1328
杨	-12.1328
梵	-12.1328
瑜	-12.1328
穹	-12.1328
篱	-12.1328
嚷	-12.1328
肋	-12.1328
拒	-12.1753
蹈	-12.1762
饥	-12.1762
讽	-12.1762
歪	-12.1762
夭	-12.1762
跪	-12.1762
夕	-12.1762
江	-12.1762
腥	-12.1762
乍	-12.1763
朴	-12.1763
涩	-12.1763
腌	-12.1763
苔	-12.1763
莲	-12.1763
郑	-12.1763
鼎	-12.1763
兑	-12.1763
剃	-12.1763
屎	-12.1763
拌	-12.1763
滔	-12.1763
芙	-12.1763
哼	-12.1763
淌	-12.1763
禅	-12.1763
贱	-12.1763
辨	-12.2159
腕	-12.221
玉	-12.2215
爵	-12.2216
钮	-12.2216
迅	-12.2216
惩	-12.2217
忱	-12.2217
灶	-12.2217
脾	-12.2217
颞	-12.2217
鼬	-12.2217
®	-12.2217
兜	-12.2217
斩	-12.2217
瑕	-12.2217
纂	-12.2217
鳕	-12.2217
瞻	-12.2217
绣	-12.2217
茂	-12.2217
迭	-12.2217
乖	-12.2217
棘	-12.2686
淹	-12.2689
粮	-12.2692
坛	-12.2692
朋	-12.2692
鸦	-12.2692
禽	-12.2693
溃	-12.2693
翅	-12.2693
⁄	-12.2693
侍	-12.2693
崽	-12.2693
晤	-12.2693
胀	-12.2693
铐	-12.2693
咎	-12.2693
蜷	-12.2693
靶	-12.2693
喧	-12.2693
镁	-12.2693
冗	-12.2693
昼	-12.2693
沐	-12.2693
垢	-12.2693
糕	-12.3192
摧	-12.3193
彷	-12.3193
瞪	-12.3193
狡	-12.3193
哄	-12.3193
嗒	-12.3193
噗	-12.3193
對	-12.3193
彭	-12.3193
拢	-12.3193
疵	-12.3193
荼	-12.3193
蹄	-12.3193
锢	-12.3193
仆	-12.3193
哔	-12.3193
柳	-12.3193
灼	-12.3193
狐	-12.3193
萝	-12.3193
诅	-12.3193
嗜	-12.3193
戳	-12.3193
柿	-12.3193
湛	-12.3193
舵	-12.3193
揣	-12.3193
猖	-12.3193
盎	-12.3193
砌	-12.3193
鳗	-12.3193
蜥	-12.3193
匿	-12.3716
鳄	-12.3717
羽	-12.3718
烷	-12.3719
岔	-12.372
绊	-12.372
〉	-12.372
來	-12.372
嗡	-12.372
拭	-12.372
疮	-12.372
羡	-12.372
悍	-12.372
梗	-12.372
毙	-12.372
焊	-12.372
臀	-12.372
舆	-12.372
邓	-12.372
憋	-12.372
棱	-12.372
沒	-12.372
玄	-12.372
簇	-12.372
聋	-12.372
葵	-12.372
飙	-12.372
哑	-12.372
斋	-12.372
竿	-12.372
翩	-12.372
藩	-12.372
跷	-12.372
扛	-12.372
灿	-12.372
懦	-12.372
殖	-12.4268
忆	-12.4271
歉	-12.4272
茎	-12.4275
谬	-12.4275
硝	-12.4275
〈	-12.4275
晾	-12.4275
凳	-12.4275
凹	-12.4275
岭	-12.4275
愁	-12.4275
洽	-12.4275
褐	-12.4275
褪	-12.4275
酮	-12.4275
晴	-12.4275
槟	-12.4275
眩	-12.4275
谛	-12.4275
逢	-12.4275
钝	-12.4275
撮	-12.4275
毗	-12.4275
瘠	-12.4275
籽	-12.4275
菊	-12.4275
煽	-12.4275
腓	-12.4275
谐	-12.4798
琼	-12.4857
橡	-12.4862
骤	-12.4862
慧	-12.4863
诀	-12.4863
酪	-12.4863
衍	-12.4863
啄	-12.4863
嚣	-12.4863
攒	-12.4863
焕	-12.4863
缕	-12.4863
蛆	-12.4863
驴	-12.4863
嘎	-12.4863
嚏	-12.4863
窜	-12.4863
筏	-12.4863
缀	-12.4863
膛	-12.4863
贞	-12.4863
酌	-12.4863
钾	-12.4863
姬	-12.4863
拧	-12.4863
熏	-12.4863
茱	-12.4863
魄	-12.4863
崎	-12.4863
蔗	-12.4863
涤	-12.4863
综	-12.5455
歧	-12.5481
渠	-12.5486
壤	-12.5487
勿	-12.5488
盾	-12.5488
惶	-12.5488
掺	-12.5488
穗	-12.5488
迸	-12.5488
鬣	-12.5488
&	-12.5488
抒	-12.5488
渍	-12.5488
鞍	-12.5488
佬	-12.5488
奧	-12.5488
婉	-12.5488
涕	-12.5488
诃	-12.5488
嘱	-12.5488
厕	-12.6143
删	-12.6146
晨	-12.6152
碱	-12.6153
睹	-12.6154
钞	-12.6155
佣	-12.6155
闸	-12.6155
⋯	-12.6155
勺	-12.6155
孰	-12.6155
$	-12.6155
姜	-12.6155
啪	-12.6155
嘶	-12.6155
媚	-12.6155
炽	-12.6155
胰	-12.6155
萃	-12.6155
颊	-12.6155
嘀	-12.6155
扳	-12.6155
揪	-12.6155
晦	-12.6155
棺	-12.6155
畸	-12.6155
瞥	-12.6155
é	-12.6155
們	-12.6155
嗓	-12.6155
孝	-12.6155
络	-12.6707
掘	-12.6864
仑	-12.6866
芯	-12.6867
削	-12.6867
庇	-12.6868
肃	-12.6869
琥	-12.6869
蛤	-12.6869
踝	-12.6869
叨	-12.6869
彰	-12.6869
烙	-12.6869
蒿	-12.6869
赝	-12.6869
躬	-12.6869
麼	-12.6869
妖	-12.6869
澜	-12.6869
粥	-12.6869
蚜	-12.6869
伺	-12.6869
勋	-12.6869
缉	-12.6869
舔	-12.6869
這	-12.6869
钳	-12.6869
鳃	-12.6869
鳞	-12.6869
儒	-12.6869
揉	-12.6869
矢	-12.6869
酯	-12.6869
钛	-12.6869
嗝	-12.6869
拴	-12.6869
檐	-12.6869
睬	-12.6869
膳	-12.6869
陵	-12.6869
撰	-12.7625
擅	-12.7633
豚	-12.7635
宠	-12.7636
筛	-12.7637
贼	-12.7638
杠	-12.7638
澳	-12.7638
噬	-12.7638
叔	-12.7638
唉	-12.7638
澈	-12.7639
赘	-12.7639
谍	-12.7639
俚	-12.7639
犁	-12.7639
绽	-12.7639
苟	-12.7639
茜	-12.7639
茧	-12.7639
阈	-12.7639
á	-12.7639
懊	-12.7639
窘	-12.7639
睿	-12.7639
篡	-12.7639
谤	-12.7639
趴	-12.7639
遛	-12.7639
卤	-12.7639
溅	-12.7639
镶	-12.7639
摞	-12.7639
浊	-12.7639
秉	-12.7639
維	-12.7639
讳	-12.7639
敞	-12.8095
蝇	-12.8328
辅	-12.847
斤	-12.847
趾	-12.847
淫	-12.8471
噩	-12.8471
镑	-12.8471
纺	-12.8472
烛	-12.8472
芥	-12.8472
丶	-12.8472
榴	-12.8472
唬	-12.8472
唾	-12.8472
妳	-12.8472
徳	-12.8472
镀	-12.8472
劈	-12.8472
叼	-12.8472
咕	-12.8472
夷	-12.8472
將	-12.8472
爹	-12.8472
谭	-12.8472
呎	-12.8472
咔	-12.8472
咻	-12.8472
姚	-12.8472
幌	-12.8472
洼	-12.8472
赦	-12.8472
辽	-12.8472
钽	-12.8472
鞠	-12.8472
宵	-12.8472
怡	-12.8472
昌	-12.8472
笋	-12.8472
黯	-12.8472
侃	-12.8472
攫	-12.8472
疽	-12.8472
贻	-12.8472
昭	-12.8472
薛	-12.8472
孟	-12.9379
谅	-12.9379
觅	-12.9379
逮	-12.938
椎	-12.9381
沼	-12.9381
爷	-12.9381
俏	-12.9381
檀	-12.9381
痰	-12.9381
眷	-12.9381
潦	-12.9381
莽	-12.9381
©	-12.9381
咄	-12.9381
挟	-12.9381
捅	-12.9381
炊	-12.9381
為	-12.9381
牟	-12.9381
砾	-12.9381
窑	-12.9381
*	-12.9381
嫩	-12.9381
弛	-12.9381
搓	-12.9381
绚	-12.9381
跛	-12.9381
▪	-12.9381
傍	-12.9381
娇	-12.9381
畔	-12.9381
咋	-12.9381
尉	-12.9381
拣	-12.9381
秤	-12.9381
窖	-12.9381
葆	-12.9381
拂	-12.9381
盯	-13.0368
隧	-13.0378
娱	-13.0379
丈	-13.038
稽	-13.038
腊	-13.038
蔓	-13.0381
绍	-13.0381
鸥	-13.0381
蒲	-13.0381
辗	-13.0381
亵	-13.0381
喙	-13.0381
揍	-13.0381
暇	-13.0381
曳	-13.0381
肽	-13.0381
茉	-13.0381
栗	-13.0381
滕	-13.0381
钚	-13.0381
熨	-13.0381
踱	-13.0381
吾	-13.0381
撬	-13.0381
會	-13.0381
烬	-13.0381
煞	-13.0381
眶	-13.0381
蜕	-13.0381
裡	-13.0381
赴	-13.0381
兮	-13.0381
噜	-13.0381
暮	-13.0381
迂	-13.0381
雯	-13.0381
姊	-13.0381
殷	-13.0381
沧	-13.0381
磐	-13.0381
醋	-13.0381
鲷	-13.0381
β	-13.0381
垦	-13.0381
渥	-13.0381
琉	-13.0381
央	-13.1442
馈	-13.1487
簧	-13.1491
裕	-13.1491
泣	-13.1492
崖	-13.1492
沫	-13.1492
姥	-13.1492
揽	-13.1492
钍	-13.1492
铂	-13.1492
彬	-13.1492
渎	-13.1492
遂	-13.1492
笃	-13.1492
腱	-13.1492
赃	-13.1492
俊	-13.1492
痣	-13.1492
蕊	-13.1492
酚	-13.1492
锌	-13.1492
寝	-13.1492
桔	-13.1492
潭	-13.1492
甥	-13.1492
箔	-13.1492
虱	-13.1492
蹼	-13.1492
钥	-13.1492
鹤	-13.1492
卒	-13.1492
怠	-13.1492
旬	-13.1492
桂	-13.1492
氟	-13.1492
阉	-13.1492
嚓	-13.1492
杭	-13.1492
毡	-13.1492
秆	-13.1492
脓	-13.1492
隼	-13.1492
靓	-13.1492
梨	-13.1492
榭	-13.1492
蛭	-13.1492
咧	-13.1492
玲	-13.1492
馨	-13.1492
淤	-13.1492
ω	-13.1492
厘	-13.274
皿	-13.2741
胁	-13.2742
坟	-13.2742
咨	-13.2742
捂	-13.2742
熙	-13.2742
『	-13.2742
雹	-13.2742
鳝	-13.2742
』	-13.2742
霓	-13.2742
巍	-13.2742
玫	-13.2742
菱	-13.2742
辫	-13.2742
楔	-13.2742
沁	-13.2742
脐	-13.2742
颌	-13.2742
魏	-13.2742
亢	-13.2742
冶	-13.2742
哟	-13.2742
唆	-13.2742
寨	-13.2742
敷	-13.2742
窿	-13.2742
髖	-13.2742
凄	-13.2742
吠	-13.2742
咏	-13.2742
幂	-13.2742
戛	-13.2742
挞	-13.2742
掰	-13.2742
啃	-13.2742
啼	-13.2742
愕	-13.2742
曹	-13.2742
殉	-13.2742
翘	-13.2742
蛹	-13.2742
酥	-13.2742
锑	-13.2742
仲	-13.2742
噱	-13.2742
吝	-13.2742
蛰	-13.2742
葩	-13.2742
嗤	-13.2742
魅	-13.4166
戚	-13.4169
扼	-13.4169
哮	-13.4171
咖	-13.4171
亥	-13.4171
猩	-13.4171
俺	-13.4171
喇	-13.4171
£	-13.4171
ˎ	-13.4171
魁	-13.4171
睛	-13.5835
励	-13.5836
廓	-13.5836
珊	-13.5837
匙	-13.5837
毋	-13.5837
燥	-13.7835
憾	-13.7837
允	-13.7837
琢	-13.7837
缚	-13.7837
贡	-13.7837
叭	-13.7837
蝠	-13.7837
惑	-14.0335
辑	-14.0335
瞄	-14.0337
亩	-14.0337
胚	-14.0337
峻	-14.0337
栅	-14.0337
侮	-14.0337
鸿	-14.0337
萤	-14.0337
骄	-14.0337
柬	-14.0337
叙	-14.3664
愉	-14.3668
姻	-14.367
撼	-14.3671
膨	-14.3671
膊	-14.3671
跤	-14.3671
昨	-14.8633
涯	-14.8654
讼	-14.8663
蕉	-14.867
獾	-14.867
虔	-14.867
皂	-14.867
宙	-14.8671
牲	-14.8671
糙	-14.8671
胳	-14.8671
俭	-15.8331
鲱	-15.8332
鯨	-15.8333
馏	-15.8334
醛	-15.8335
邂	-15.8336
逍	-15.8337
逅	-15.8338
蹒	-15.8339
跚	-15.834
苷	-15.8341
胥	-15.8342
簸	-15.8343
竣	-15.8344
疡	-15.8345
狒	-15.8346
淙	-15.8347
桡	-15.8348
枷	-15.8349
斓	-15.835
惋	-15.8351
忏	-15.8352
婶	-15.8353
嘌	-15.8354
呤	-15.8355
乓	-15.8356
乒	-15.8357
霆	-15.8358
蹋	-15.8359
蹊	-15.836
踵	-15.8361
谩	-15.8362
讪	-15.8363
褂	-15.8364
肇	-15.8365
绦	-15.8366
磋	-15.8367
瞠	-15.8368
痉	-15.8369
炙	-15.837
澎	-15.8371
潢	-15.8372
湃	-15.8373
涓	-15.8374
挛	-15.8375
拗	-15.8376
拄	-15.8377
垠	-15.8378
刽	-15.8379
儡	-15.838
傀	-15.8381
伎	-15.8382
魇	-15.8383
霄	-15.8384
醺	-15.8385
蹩	-15.8386
谧	-15.8387
訇	-15.8388
蜿	-15.8389
蜒	-15.839
舶	-15.8391
缭	-15.8392
磺	-15.8393
矗	-15.8394
瞌	-15.8395
狙	-15.8396
漪	-15.8397
涟	-15.8398
氓	-15.8399
恙	-15.84
峙	-15.8401
寥	-15.8402
婭	-15.8403
垩	-15.8404
吩	-15.8405
匣	-15.8406
鲤	-15.8407
谔	-15.8408
蝎	-15.8409
蔼	-15.841
耽	-15.8411
纫	-15.8412
筷	-15.8413
甄	-15.8414
攸	-15.8415
抨	-15.8416
屉	-15.8417
唠	-15.8418
镭	-15.8419
诽	-15.842
蝓	-15.8421
蛞	-15.8422
翱	-15.8423
祀	-15.8424
楷	-15.8425
桅	-15.8426
岳	-15.8427
寞	-15.8428
媛	-15.8429
卦	-15.843
骰	-15.8431
靡	-15.8432
阂	-15.8433
铛	-15.8434
蜢	-15.8435
蚱	-15.8436
茁	-15.8437
芜	-15.8438
惭	-15.8439
墅	-15.844
呻	-15.8441
倭	-15.8442
侥	-15.8443
陛	-15.8444
诧	-15.8445
衅	-15.8446
葫	-15.8447
篝	-15.8448
睐	-15.8449
棠	-15.845
巩	-15.8451
岖	-15.8452
圳	-15.8453
遨	-15.8454
蜴	-15.8455
菠	-15.8456
箴	-15.8457
沌	-15.8458
慑	-15.8459
啮	-15.846
咐	-15.8461
俾	-15.8462
鹉	-15.8463
蟋	-15.8464
蟀	-15.8465
笆	-15.8466
宛	-15.8467
奄	-15.8468
酝	-15.8469
轶	-15.847
睦	-15.8471
獗	-15.8472
汹	-15.8473
寐	-15.8474
囱	-15.8475
嗽	-15.8476
唧	-15.8477
鱿	-15.8478
迥	-15.8479
赁	-15.848
袤	-15.8481
祉	-15.8482
痊	-15.8483
猾	-15.8484
猝	-15.8485
咚	-15.8486
佼	-15.8487
肴	-15.8488
窒	-15.8489
瞩	-15.849
昵	-15.8491
惚	-15.8492
媲	-15.8493
娩	-15.8494
侏	-15.8495
藓	-15.8496
檬	-15.8497
柠	-15.8498
曙	-15.8499
憬	-15.85
憧	-15.8501
卿	-15.8502
凰	-15.8503
鹦	-15.8504
腋	-15.8505
渲	-15.8506
亟	-15.8507
髦	-15.8508
萦	-15.8509
胱	-15.851
扪	-15.8511
忡	-15.8512
倘	-15.8513
酗	-15.8514
螳	-15.8515
瀚	-15.8516
汐	-15.8517
悚	-15.8518
蝌	-15.8519
蚪	-15.852
菩	-15.8521
罹	-15.8522
淇	-15.8523
橇	-15.8524
岌	-15.8525
咙	-15.8526
搐	-15.8527
惕	-15.8528
茸	-15.8529
睫	-15.853
烩	-15.8531
涸	-15.8532
徘	-15.8533
徊	-15.8534
轿	-15.8535
稼	-15.8536
禧	-15.8537
漩	-15.8538
殆	-15.8539
惰	-15.854
咀	-15.8541
谚	-15.8542
螃	-15.8543
紊	-15.8544
曝	-15.8545
扉	-15.8546
坍	-15.8547
嘻	-15.8548
沛	-15.8549
蝾	-15.855
毅	-15.8551
栩	-15.8552
惫	-15.8553
匮	-15.8554
捍	-15.8555
瞰	-15.8556
淆	-15.8557
沥	-15.8558
恻	-15.8559
驭	-15.856
赂	-15.8561
蝴	-15.8562
牡	-15.8563
椒	-15.8564
恕	-15.8565
肮	-15.8566
谴	-15.8567
婷	-15.8568
埔	-15.8569
嘈	-15.857
烁	-15.8571
豫	-15.8572
犸	-15.8573
蠕	-15.8574
榈	-15.8575
痫	-15.8576
婪	-15.8577
坪	-15.8578
酋	-15.8579
痢	-15.858
煌	-15.8581
瀑	-15.8582
溉	-15.8583
蜻	-15.8584
蜓	-15.8585
狩	-15.8586
侄	-15.8587
疚	-15.8588
筝	-15.8589
谊	-15.859
匆	-15.8591
侈	-15.8592
嫉	-15.8593
墟	-15.8594
堕	-15.8595
畴	-15.8596
迄	-15.8597
徙	-15.8598
譬	-15.8599
斐	-15.86
帜	-15.8601
辜	-15.8602
泌	-15.8603
骆	-15.8604
诠	-15.8605
拇	-15.8606
蟑	-15.8607
抉	-15.8608
屿	-15.8609
氛	-15.861
橄	-15.8611
榄	-15.8612
崛	-15.8613
倦	-15.8614
甸	-15.8615
荐	-15.8616
愧	-15.8617
蜗	-15.8618
崭	-15.8619
韧	-15.862
悄	-15.8621
飓	-15.8622
啸	-15.8623
蘑	-15.8624
吁	-15.8625
翔	-15.8626
痪	-15.8627
秩	-15.8628
奢	-15.8629
饪	-15.863
慨	-15.8631
恼	-15.8632
痹	-15.8633
蔬	-15.8634
彗	-15.8635
聆	-15.8636
姑	-15.8637
尴	-15.8638
尬	-15.8639
窟	-15.864
肪	-15.8641
侣	-15.8642
蝙	-15.8643
阐	-15.8644
牺	-15.8645
螂	-15.8646
衷	-15.8647
蜘	-15.8648
荧	-15.8649
骼	-15.865
辐	-15.8651
浏	-15.8652
隶	-15.8653
葡	-15.8654
萄	-15.8655
疟	-15.8656
晰	-15.8657
陌	-15.8658
厦	-15.8658
苹	-15.8659
践	-15.866
逻	-15.8661
玻	-15.8662
啡	-15.8663
蚂	-15.8664
拯	-15.8665
讶	-15.8666
啤	-15.8666
垃	-15.8667
倡	-15.8668
圾	-15.8668
粹	-15.8669
瑚	-15.8669
怖	-15.867
恢	-15.867
擎	-15.867
弈	-15.867
稣	-15.867
阱	-15.867
匈	-15.8671
瑰	-15.8671
ç	-15.8671
璃	-15.8671
矶	-15.8671
锻	-15.8671
沮	-15.8671
础	-15.8671
