<unk>	0
<s>	0
</s>	0
__SEP__	0
#	-1.43944
1	-2.04701
0	-2.19059
,	-3.57984
.	-3.78065
▁the	-4.02868
s	-4.32763
▁to	-4.48086
'	-4.50111
▁of	-4.57425
▁a	-4.62747
▁and	-4.63947
▁that	-4.82066
▁I	-4.88822
▁in	-4.98176
▁	-5.14119
▁is	-5.16887
▁you	-5.19341
▁it	-5.22315
▁we	-5.29308
▁And	-5.55458
▁this	-5.59596
t	-5.79568
▁was	-5.8914
▁for	-5.95624
▁are	-5.99921
▁have	-6.00782
▁they	-6.05053
▁on	-6.0724
▁--	-6.11408
▁with	-6.12218
▁can	-6.15729
-	-6.19753
▁So	-6.20101
?	-6.21334
▁what	-6.23677
re	-6.25412
▁be	-6.26358
▁about	-6.26737
ing	-6.39068
▁at	-6.4048
▁not	-6.4155
ed	-6.41722
▁all	-6.42582
▁do	-6.43316
▁as	-6.47073
▁there	-6.5147
d	-6.52601
▁my	-6.53816
▁one	-6.54018
▁people	-6.54075
▁so	-6.5507
▁like	-6.55093
▁"	-6.55847
▁It	-6.57809
▁from	-6.58479
▁but	-6.64274
▁an	-6.66167
:	-6.68045
▁our	-6.70207
▁or	-6.71705
▁just	-6.72133
m	-6.72633
▁We	-6.74965
▁But	-6.78115
▁me	-6.78334
▁out	-6.79117
▁if	-6.7937
▁these	-6.79824
▁very	-6.84243
▁know	-6.85229
▁The	-6.86145
▁up	-6.87006
▁by	-6.87412
▁them	-6.87634
▁going	-6.89164
ve	-6.9088
▁when	-6.91075
▁because	-6.92589
▁he	-6.9271
▁more	-6.93035
▁had	-6.93595
▁think	-6.97083
▁see	-6.98092
▁who	-6.98456
▁were	-7.0103
▁their	-7.01533
▁which	-7.02096
▁your	-7.02699
▁how	-7.03654
▁would	-7.04432
▁really	-7.05559
▁get	-7.06136
2	-7.11479
▁us	-7.12901
▁time	-7.1561
▁world	-7.16933
▁here	-7.18026
▁then	-7.18948
▁has	-7.19459
▁This	-7.21632
ly	-7.22252
▁some	-7.23099
▁into	-7.23577
▁You	-7.23899
▁don	-7.23917
▁actually	-7.25079
▁way	-7.25903
▁now	-7.2945
▁where	-7.29645
▁will	-7.29674
▁years	-7.29727
▁go	-7.30505
▁things	-7.3178
▁other	-7.32552
▁want	-7.3395
▁Now	-7.34295
▁could	-7.35246
▁make	-7.37612
▁They	-7.3854
▁been	-7.38874
y	-7.39004
▁said	-7.45567
5	-7.4892
▁something	-7.5045
▁no	-7.50811
▁right	-7.51634
▁than	-7.53319
▁those	-7.53656
ll	-7.54311
▁two	-7.54679
▁first	-7.55585
▁over	-7.5787
▁also	-7.58411
e	-7.58428
▁back	-7.5949
▁got	-7.59705
▁thing	-7.60074
▁much	-7.61807
▁little	-7.61969
▁look	-7.6261
▁say	-7.64121
▁work	-7.65135
er	-7.66127
▁That	-7.6693
▁In	-7.6748
9	-7.68441
▁only	-7.69179
▁need	-7.69612
▁she	-7.70307
▁life	-7.7047
▁his	-7.7055
▁most	-7.70965
▁even	-7.73455
▁take	-7.76024
▁many	-7.76343
▁lot	-7.77769
▁kind	-7.77875
▁new	-7.80456
▁did	-7.8162
▁good	-7.8225
3	-7.82421
▁around	-7.82883
n	-7.83805
▁♫	-7.84771
▁different	-7.84829
▁What	-7.85303
▁A	-7.8607
al	-7.86818
▁There	-7.87352
▁down	-7.87723
▁her	-7.89461
▁through	-7.92275
▁He	-7.93219
▁same	-7.9389
▁every	-7.93945
▁come	-7.94797
▁use	-7.95861
▁being	-7.98599
;	-8.00337
▁doing	-8.01812
▁put	-8.02311
es	-8.02647
▁day	-8.02721
▁three	-8.03377
▁If	-8.04009
4	-8.04421
▁well	-8.08559
▁any	-8.08932
▁percent	-8.09593
▁called	-8.0968
r	-8.12545
▁find	-8.12927
▁made	-8.13042
▁human	-8.13508
8	-8.1391
▁Well	-8.1467
▁tell	-8.15962
▁year	-8.17777
▁why	-8.17926
▁fact	-8.18258
▁change	-8.1846
▁didn	-8.21386
▁own	-8.2177
▁talk	-8.22237
▁great	-8.22278
▁should	-8.23144
▁today	-8.2359
▁started	-8.24086
▁idea	-8.2411
▁after	-8.25695
▁last	-8.26509
6	-8.26623
▁let	-8.28698
▁thought	-8.29123
▁went	-8.30373
▁better	-8.30544
▁might	-8.31233
▁big	-8.31274
▁before	-8.31934
▁give	-8.31981
"	-8.33288
▁important	-8.33343
▁part	-8.33614
▁another	-8.33664
▁course	-8.33715
▁problem	-8.33972
▁off	-8.3456
in	-8.35423
▁never	-8.35429
▁able	-8.35818
▁start	-8.36049
▁system	-8.36373
▁still	-8.3658
▁together	-8.38137
▁him	-8.39453
▁water	-8.39976
▁ago	-8.40382
▁show	-8.40583
▁place	-8.41047
c	-8.4119
▁next	-8.41776
p	-8.41788
▁bit	-8.41811
▁story	-8.41878
th	-8.42367
▁came	-8.42792
▁brain	-8.43012
a	-8.43102
▁long	-8.43949
▁few	-8.44851
▁again	-8.45626
▁found	-8.45645
▁mean	-8.46029
▁When	-8.46848
▁does	-8.47331
▁used	-8.47747
▁each	-8.48025
▁between	-8.48123
▁question	-8.49476
▁data	-8.50056
▁technology	-8.50317
▁re	-8.50675
▁end	-8.5124
▁too	-8.51263
▁women	-8.52752
▁point	-8.52954
▁love	-8.53428
,"	-8.54286
▁understand	-8.54623
l	-8.54636
▁looking	-8.54663
▁example	-8.54705
ers	-8.55034
S	-8.5518
▁wanted	-8.57749
▁done	-8.57777
▁doesn	-8.57866
▁Because	-8.5847
▁call	-8.58689
▁ever	-8.60038
b	-8.60081
▁whole	-8.60167
o	-8.60208
▁its	-8.60305
▁live	-8.60368
▁sort	-8.60515
▁real	-8.60654
▁How	-8.60693
I	-8.61539
▁believe	-8.61958
▁million	-8.62015
u	-8.63353
▁school	-8.6371
ic	-8.63873
▁four	-8.63949
▁power	-8.64633
▁trying	-8.64682
▁person	-8.64948
▁always	-8.65198
▁children	-8.65371
▁try	-8.65374
▁feel	-8.65837
▁away	-8.66228
▁working	-8.66694
▁may	-8.67409
▁help	-8.67752
▁country	-8.67863
▁S	-8.69399
en	-8.69773
le	-8.70096
g	-8.71338
▁design	-8.72836
st	-8.73271
▁using	-8.73316
ion	-8.7335
▁E	-8.73817
or	-8.73952
▁means	-8.74344
▁took	-8.74547
▁create	-8.74697
▁thinking	-8.74708
▁money	-8.74973
▁high	-8.75004
▁information	-8.75162
▁space	-8.75316
▁maybe	-8.75546
▁become	-8.76066
▁home	-8.76312
▁five	-8.76395
▁number	-8.76714
▁un	-8.77035
▁small	-8.77923
▁everything	-8.77978
ation	-8.78181
▁light	-8.78255
▁kids	-8.78786
▁man	-8.7887
▁C	-8.7907
▁old	-8.80029
▁One	-8.80035
▁For	-8.80826
▁B	-8.81088
▁left	-8.81546
▁enough	-8.82086
▁best	-8.82149
▁future	-8.82153
▁My	-8.82292
el	-8.82431
▁second	-8.82547
▁getting	-8.82946
ity	-8.83636
▁social	-8.84283
▁She	-8.84631
▁quite	-8.85041
▁food	-8.85107
▁sense	-8.85178
ro	-8.86275
able	-8.86374
▁making	-8.86419
▁energy	-8.86511
▁ask	-8.86947
▁These	-8.87178
▁U	-8.87279
▁happened	-8.8737
▁less	-8.8739
▁hard	-8.87592
▁talking	-8.87614
▁play	-8.8823
▁comes	-8.88345
▁told	-8.88369
▁probably	-8.88438
▁hand	-8.88493
▁building	-8.88954
▁body	-8.89331
▁build	-8.89503
▁countries	-8.89598
ri	-8.89759
▁interesting	-8.89931
▁without	-8.90093
▁science	-8.90118
▁stuff	-8.90771
▁car	-8.91881
▁T	-8.92218
on	-8.92947
ness	-8.92978
▁dollars	-8.93204
▁moment	-8.93429
▁times	-8.93475
▁am	-8.94216
▁coming	-8.94943
▁pretty	-8.95067
▁such	-8.95069
▁side	-8.95439
▁Here	-8.95475
▁anything	-8.95531
▁lives	-8.9555
▁happen	-8.95578
▁saw	-8.95843
se	-8.96418
A	-8.96789
▁men	-8.9684
▁across	-8.97107
ar	-8.97307
▁room	-8.97403
▁care	-8.98204
▁open	-8.98328
▁family	-8.98754
▁Let	-8.98975
▁half	-8.99026
▁learn	-8.99398
▁simple	-8.99607
▁reason	-8.99671
▁later	-9.0008
▁seen	-9.00503
▁under	-9.00859
▁experience	-9.01105
▁asked	-9.01205
▁F	-9.0135
▁Africa	-9.01522
▁else	-9.01838
▁living	-9.01838
▁de	-9.01921
▁As	-9.02056
▁case	-9.02276
▁New	-9.02338
▁All	-9.0302
▁having	-9.03082
▁move	-9.03234
▁process	-9.0337
▁far	-9.03384
▁goes	-9.03604
i	-9.03839
li	-9.03912
▁bad	-9.04187
lo	-9.04508
▁project	-9.04681
▁young	-9.0477
▁says	-9.05314
▁picture	-9.05319
▁computer	-9.0559
C	-9.06206
▁happens	-9.06226
la	-9.06333
▁No	-9.06716
it	-9.06855
▁mind	-9.07004
▁set	-9.07117
▁single	-9.07606
▁city	-9.07612
il	-9.07629
▁remember	-9.07867
▁makes	-9.0828
▁days	-9.08407
▁almost	-9.09188
▁global	-9.09378
▁read	-9.09473
▁head	-9.09551
▁while	-9.09581
ur	-9.09687
▁inside	-9.09748
▁public	-9.09826
▁planet	-9.09981
▁health	-9.09999
▁saying	-9.10175
▁already	-9.10617
▁community	-9.10618
▁book	-9.10797
▁control	-9.10807
▁Earth	-9.10978
▁hope	-9.11079
▁billion	-9.11113
▁problems	-9.1121
▁Thank	-9.11489
▁top	-9.11634
k	-9.11661
▁ways	-9.12103
▁yet	-9.12251
▁business	-9.124
▁answer	-9.12506
▁both	-9.1285
▁matter	-9.13232
▁looked	-9.13258
▁possible	-9.13539
ment	-9.13745
▁nothing	-9.13817
▁order	-9.13856
▁six	-9.1389
▁once	-9.14032
▁whether	-9.14096
h	-9.14738
▁someone	-9.14769
▁often	-9.14849
▁keep	-9.15715
▁guy	-9.15986
▁within	-9.16373
▁basically	-9.1655
▁age	-9.16796
▁wrong	-9.1693
▁history	-9.17314
▁per	-9.1743
▁myself	-9.17515
▁form	-9.18405
▁true	-9.1867
▁Why	-9.18701
▁bring	-9.18744
▁months	-9.18845
▁ideas	-9.19045
▁child	-9.19566
ies	-9.19606
▁imagine	-9.19799
▁job	-9.19809
▁couple	-9.20045
▁sure	-9.20203
ent	-9.20252
▁face	-9.20407
an	-9.20657
ter	-9.20735
▁group	-9.20931
ce	-9.21341
▁heard	-9.21408
ra	-9.21736
▁amazing	-9.21968
us	-9.22478
▁turn	-9.22743
D	-9.22814
▁model	-9.23098
et	-9.23265
▁cells	-9.23273
▁United	-9.23464
▁war	-9.23592
▁government	-9.237
▁cancer	-9.23875
▁beautiful	-9.24419
to	-9.24556
▁wasn	-9.2479
▁built	-9.24931
▁looks	-9.24951
▁run	-9.25118
▁night	-9.25145
▁words	-9.25327
▁research	-9.2536
▁stop	-9.25632
▁line	-9.2596
▁until	-9.26687
▁G	-9.26869
▁share	-9.27495
▁piece	-9.2773
▁self	-9.2821
M	-9.28822
▁music	-9.29178
▁everybody	-9.29692
ne	-9.29706
▁became	-9.29799
▁knew	-9.29908
▁word	-9.29937
▁must	-9.30031
▁decided	-9.30068
▁language	-9.30115
▁species	-9.30127
▁video	-9.30225
▁Internet	-9.30455
▁though	-9.3059
▁past	-9.30731
▁completely	-9.30916
▁America	-9.31149
▁education	-9.31275
▁heart	-9.31733
▁hear	-9.31946
▁friends	-9.32226
▁universe	-9.32226
f	-9.32249
▁study	-9.32505
▁isn	-9.32943
▁name	-9.33044
▁places	-9.33058
▁learned	-9.33126
▁States	-9.33311
▁happening	-9.33821
▁state	-9.34064
▁since	-9.34144
▁large	-9.34247
▁stories	-9.34485
▁exactly	-9.34498
▁woman	-9.34599
▁huge	-9.34717
▁somebody	-9.34832
▁taking	-9.34942
▁students	-9.35069
▁nature	-9.35287
▁itself	-9.35438
up	-9.35542
▁society	-9.35875
▁animals	-9.35938
▁front	-9.36039
▁Or	-9.36066
▁level	-9.36356
▁works	-9.36684
z	-9.37064
▁ourselves	-9.37499
▁against	-9.37903
ch	-9.38062
▁themselves	-9.38089
▁sound	-9.38095
▁To	-9.38204
▁R	-9.38288
▁sometimes	-9.38803
▁India	-9.39609
▁disease	-9.39886
▁company	-9.40244
▁created	-9.40527
ry	-9.40614
▁hours	-9.4063
▁along	-9.40879
▁art	-9.40909
▁questions	-9.41099
▁mother	-9.41115
▁OK	-9.4139
▁minutes	-9.41402
▁D	-9.41457
▁environment	-9.4167
▁couldn	-9.41771
ma	-9.41919
de	-9.42229
▁worked	-9.42418
▁view	-9.4248
ate	-9.42584
▁God	-9.42704
▁game	-9.42753
▁Do	-9.4276
▁rather	-9.42818
▁won	-9.42943
▁particular	-9.43118
▁P	-9.43162
▁figure	-9.43227
ist	-9.43285
▁TED	-9.43561
T	-9.43764
▁air	-9.43879
▁turns	-9.44318
▁least	-9.44318
▁house	-9.44465
est	-9.44558
▁land	-9.44702
▁Then	-9.44844
▁entire	-9.45004
▁third	-9.45008
▁everyone	-9.4509
▁black	-9.45205
▁close	-9.45316
▁early	-9.45342
▁outside	-9.45635
ta	-9.4569
▁thousands	-9.45825
man	-9.4597
▁kinds	-9.46654
ive	-9.46902
▁instead	-9.4726
▁free	-9.47639
▁test	-9.47659
▁cell	-9.47722
▁gave	-9.47792
▁seven	-9.47911
▁...	-9.48014
age	-9.48184
▁natural	-9.4823
ck	-9.48273
▁happy	-9.48304
▁guys	-9.49081
▁taken	-9.49183
▁difference	-9.49496
na	-9.49503
▁gets	-9.49792
ever	-9.49862
▁deal	-9.49917
te	-9.49985
▁full	-9.50095
▁common	-9.50157
po	-9.50321
▁American	-9.50347
▁market	-9.5043
▁China	-9.50559
▁short	-9.50962
un	-9.51196
▁changed	-9.51244
as	-9.51391
ting	-9.5149
P	-9.51682
▁At	-9.5203
▁leave	-9.52499
▁learning	-9.52603
▁machine	-9.52647
x	-9.52652
ge	-9.52806
▁K	-9.52929
▁co	-9.52999
▁middle	-9.53002
▁area	-9.53398
▁local	-9.53757
▁systems	-9.53806
▁team	-9.53917
▁father	-9.54387
▁program	-9.54461
▁century	-9.54465
▁Okay	-9.54467
▁news	-9.54514
▁rest	-9.54543
▁cities	-9.54949
▁eyes	-9.55001
▁walk	-9.55036
▁pay	-9.55613
▁cost	-9.55814
▁lots	-9.55844
▁given	-9.55861
▁others	-9.55932
▁turned	-9.56018
▁economic	-9.56457
▁beginning	-9.56501
▁difficult	-9.56722
▁yourself	-9.56935
▁population	-9.57324
▁behind	-9.57357
▁size	-9.57397
▁M	-9.57511
▁finally	-9.57676
op	-9.57775
▁York	-9.57792
year	-9.57794
▁perhaps	-9.57933
▁culture	-9.58082
▁oil	-9.5839
▁began	-9.58412
▁powerful	-9.5849
▁easy	-9.58658
old	-9.5874
▁certain	-9.58876
▁wonderful	-9.59136
The	-9.59677
▁media	-9.5992
▁surface	-9.59975
during	-9.60016
▁needed	-9.60039
▁moving	-9.60124
▁realized	-9.60562
▁companies	-9.60715
▁fish	-9.608
▁Some	-9.60918
▁terms	-9.60992
▁cannot	-9.61013
▁seeing	-9.61107
▁grow	-9.61251
▁poor	-9.61306
id	-9.6139
▁longer	-9.61463
▁simply	-9.6176
▁image	-9.61783
▁paper	-9.61938
ism	-9.62022
▁week	-9.62246
▁political	-9.62362
▁scale	-9.62385
▁hands	-9.62668
B	-9.6308
ized	-9.6319
sh	-9.6357
ie	-9.63672
▁phone	-9.63672
▁spend	-9.63716
ted	-9.63796
O	-9.64025
▁reality	-9.64385
▁p	-9.64475
▁support	-9.6448
no	-9.64809
▁buy	-9.64948
▁felt	-9.65272
▁tried	-9.65452
▁parents	-9.65485
▁whatever	-9.65501
▁eight	-9.65574
▁amount	-9.65715
ul	-9.6612
▁red	-9.66366
ci	-9.66372
▁death	-9.6646
▁parts	-9.66632
▁ones	-9.66843
▁pro	-9.67012
▁takes	-9.67527
ia	-9.67532
▁c	-9.67654
▁quickly	-9.67822
ling	-9.68073
▁con	-9.68194
▁ocean	-9.68227
▁fear	-9.68271
▁spent	-9.68434
▁People	-9.68608
▁O	-9.68745
▁ground	-9.68752
▁blood	-9.68931
▁growth	-9.68956
▁low	-9.69128
▁Ma	-9.69333
L	-9.69747
ty	-9.69805
▁interested	-9.6981
▁opportunity	-9.70046
▁needs	-9.70058
▁gone	-9.70148
▁value	-9.70217
▁die	-9.7025
ol	-9.70262
▁Just	-9.70724
▁sea	-9.71019
▁speak	-9.71123
▁behavior	-9.71207
▁field	-9.71238
▁friend	-9.71313
w	-9.71315
less	-9.71413
▁write	-9.71523
ally	-9.71627
ad	-9.71664
▁individual	-9.71694
▁weeks	-9.71815
▁complex	-9.72007
▁either	-9.72188
am	-9.724
▁known	-9.72453
at	-9.72493
▁blue	-9.7252
▁Our	-9.72868
▁sitting	-9.73198
▁hold	-9.73222
▁ability	-9.73288
▁green	-9.73384
rs	-9.73564
▁economy	-9.73698
▁climate	-9.73699
▁challenge	-9.73751
▁access	-9.74034
▁stage	-9.74055
Well	-9.74162
▁lost	-9.74213
▁met	-9.74305
▁CA	-9.74338
▁white	-9.74572
ut	-9.74618
▁key	-9.75059
▁DNA	-9.75059
▁On	-9.7522
▁chance	-9.75234
▁nice	-9.75404
▁eat	-9.75476
▁realize	-9.75616
▁humans	-9.75704
▁animal	-9.75984
▁structure	-9.76015
▁cool	-9.76101
▁incredible	-9.7644
▁Right	-9.76443
▁feet	-9.76482
▁step	-9.76516
N	-9.76522
ha	-9.7653
ous	-9.76631
▁average	-9.76788
▁explain	-9.76799
▁b	-9.76812
▁feeling	-9.76841
co	-9.76844
mo	-9.76958
▁expect	-9.77009
▁risk	-9.77021
E	-9.77239
▁Be	-9.77251
▁morning	-9.77664
▁personal	-9.77687
▁approach	-9.78159
ance	-9.78275
▁cut	-9.78279
▁physical	-9.78297
▁W	-9.78608
▁pre	-9.78696
▁areas	-9.78811
▁experiment	-9.78926
▁kid	-9.79011
▁Re	-9.79033
▁changes	-9.79058
▁wouldn	-9.79159
▁shows	-9.7918
▁clear	-9.79186
▁patients	-9.79463
▁network	-9.79551
▁result	-9.79552
▁bottom	-9.79618
▁watch	-9.79645
▁based	-9.79714
▁fire	-9.79725
ver	-9.79782
▁non	-9.79876
▁material	-9.79971
▁innovation	-9.79977
▁audience	-9.80157
▁growing	-9.80209
▁J	-9.8029
▁film	-9.80458
▁born	-9.8052
▁issue	-9.80651
▁scientists	-9.80906
▁color	-9.81043
pe	-9.8106
You	-9.81061
▁brought	-9.81063
▁Not	-9.81279
▁understanding	-9.81295
ine	-9.81366
▁Can	-9.81444
▁literally	-9.81981
▁wrote	-9.82161
R	-9.82208
▁development	-9.82547
ir	-9.82795
▁attention	-9.82914
▁knowledge	-9.83098
▁map	-9.83333
▁numbers	-9.8357
▁girl	-9.83836
▁technologies	-9.84018
▁pick	-9.84063
nt	-9.84323
▁hundreds	-9.84341
bo	-9.8445
▁forward	-9.84552
▁alone	-9.84772
▁dark	-9.85158
▁fun	-9.85409
K	-9.85441
What	-9.85514
▁lab	-9.85697
▁giving	-9.85719
me	-9.85721
▁miles	-9.85751
▁running	-9.85915
▁e	-9.86128
ated	-9.86173
▁developed	-9.8625
▁special	-9.86373
▁center	-9.86525
▁movement	-9.86531
um	-9.86543
▁guess	-9.86677
▁dis	-9.86704
▁tools	-9.87114
▁fly	-9.87141
vi	-9.87178
▁deep	-9.87322
▁measure	-9.87497
▁starting	-9.88027
▁force	-9.88038
▁break	-9.88084
▁seems	-9.88099
▁books	-9.8812
em	-9.88479
▁anyone	-9.88637
ize	-9.88682
▁telling	-9.8878
▁solve	-9.88868
▁World	-9.89033
▁theory	-9.89037
ac	-9.89104
ian	-9.89342
is	-9.89361
▁sit	-9.89606
▁present	-9.89626
▁impact	-9.8967
▁meet	-9.89858
▁act	-9.89883
▁focus	-9.8989
▁sun	-9.89954
and	-9.9004
▁Yeah	-9.90326
▁solution	-9.90888
be	-9.91071
▁voice	-9.9109
ary	-9.91139
▁millions	-9.91178
▁talked	-9.91285
▁absolutely	-9.91525
▁images	-9.91569
▁rate	-9.91763
▁stay	-9.91914
▁sex	-9.91959
▁period	-9.92014
▁showed	-9.92148
the	-9.92208
▁English	-9.92421
▁type	-9.92436
▁issues	-9.9248
ful	-9.92481
▁normal	-9.9258
▁similar	-9.92622
▁ex	-9.9279
ke	-9.92929
▁save	-9.92949
▁send	-9.93089
▁allow	-9.93394
▁table	-9.93451
▁sub	-9.93659
▁online	-9.93664
▁Europe	-9.93849
▁South	-9.93858
▁industry	-9.93859
▁girls	-9.93871
ow	-9.9388
."	-9.94043
▁discovered	-9.94146
▁dream	-9.94197
cu	-9.94299
▁office	-9.94311
▁stand	-9.94399
▁eye	-9.94467
▁fast	-9.9464
ant	-9.94643
▁law	-9.94808
ial	-9.94827
▁resources	-9.94943
▁robot	-9.94974
▁situation	-9.95039
▁By	-9.95093
▁journey	-9.95107
▁developing	-9.95259
▁cars	-9.9547
▁baby	-9.95527
▁creating	-9.95527
▁recently	-9.95778
▁N	-9.95961
▁perfect	-9.96087
▁relationship	-9.96108
▁produce	-9.96118
▁begin	-9.96135
▁gives	-9.96205
G	-9.96214
tic	-9.96415
▁listen	-9.96432
▁product	-9.96566
▁plant	-9.96756
▁V	-9.96903
▁designed	-9.96935
▁shape	-9.96947
▁dead	-9.96952
▁truth	-9.9701
om	-9.97018
▁seem	-9.97027
▁modern	-9.97221
▁screen	-9.97267
▁yes	-9.9745
▁Google	-9.97653
▁follow	-9.97751
▁drive	-9.97758
▁patient	-9.97881
▁thank	-9.97918
▁L	-9.97918
▁soon	-9.98017
▁major	-9.98069
▁De	-9.98237
▁available	-9.98299
ba	-9.98331
▁evidence	-9.98516
▁especially	-9.98733
▁tiny	-9.98737
▁street	-9.98946
ot	-9.99267
time	-9.99332
▁asking	-9.9937
▁basic	-9.9938
▁recognize	-9.99386
line	-9.99391
▁fall	-9.99396
▁continue	-9.99502
▁tend	-9.99556
▁medical	-9.99606
ach	-9.99677
▁playing	-9.99679
▁code	-9.9994
▁response	-10.0026
▁mass	-10.0047
▁incredibly	-10.0049
▁involved	-10.0051
▁generation	-10.0055
hi	-10.0063
▁ice	-10.0073
▁son	-10.0079
▁Oh	-10.01
▁wonder	-10.0115
▁effect	-10.0138
▁bigger	-10.0139
▁digital	-10.0144
▁reasons	-10.0146
▁changing	-10.0168
▁message	-10.0184
▁choice	-10.0207
▁carbon	-10.0208
▁groups	-10.021
▁vision	-10.021
ap	-10.0213
▁haven	-10.0229
▁role	-10.025
▁drug	-10.0253
▁lived	-10.0268
▁box	-10.0328
▁object	-10.0344
▁computers	-10.035
▁Yes	-10.0362
▁list	-10.0363
▁writing	-10.0366
▁wall	-10.037
▁month	-10.0374
▁towards	-10.0389
▁g	-10.0394
▁Chinese	-10.0408
▁beyond	-10.0408
▁solar	-10.0414
▁putting	-10.0437
▁drugs	-10.0474
▁several	-10.0477
▁hundred	-10.0484
▁pictures	-10.0488
va	-10.049
▁First	-10.0501
v	-10.0503
▁arm	-10.0537
▁develop	-10.0545
▁reach	-10.0563
▁mine	-10.0581
ster	-10.0585
mi	-10.0594
▁nine	-10.0594
ca	-10.0623
▁Co	-10.0625
ni	-10.0629
▁favorite	-10.064
▁add	-10.0641
▁potential	-10.0656
▁becomes	-10.0658
▁ma	-10.066
by	-10.0666
▁died	-10.067
▁lose	-10.0675
ating	-10.0677
▁hit	-10.0687
▁device	-10.0697
▁aren	-10.0725
▁national	-10.0736
▁teach	-10.0755
▁path	-10.0758
▁likely	-10.0769
▁communities	-10.0782
▁software	-10.0782
▁speed	-10.0788
▁stick	-10.0789
▁fight	-10.0789
per	-10.0795
▁After	-10.0806
▁With	-10.0806
▁class	-10.0811
▁wind	-10.0831
▁worth	-10.0855
▁general	-10.087
nd	-10.091
he	-10.0916
▁throw	-10.0926
▁strong	-10.0938
▁camera	-10.0943
▁Maybe	-10.0952
▁onto	-10.0955
▁anybody	-10.0974
▁success	-10.0994
▁Every	-10.1002
▁action	-10.1003
di	-10.101
▁late	-10.1028
ti	-10.1043
▁Chris	-10.1049
tra	-10.1049
▁visual	-10.1051
▁higher	-10.1065
▁trust	-10.1071
▁touch	-10.1072
▁rules	-10.1073
▁mo	-10.1077
▁quality	-10.1078
▁Of	-10.1084
▁H	-10.1126
▁particularly	-10.1135
▁violence	-10.1173
▁Who	-10.1203
▁certainly	-10.1207
▁An	-10.1218
▁spread	-10.1233
▁moved	-10.1238
▁showing	-10.1238
▁War	-10.124
▁biggest	-10.1244
cy	-10.1248
▁wait	-10.1253
▁exciting	-10.1269
ton	-10.1271
▁skin	-10.1272
▁largest	-10.1274
▁walking	-10.1274
com	-10.1275
▁wish	-10.1291
▁evolution	-10.1296
▁post	-10.1324
▁schools	-10.1331
▁scientific	-10.1344
▁further	-10.1344
▁obviously	-10.1349
▁okay	-10.137
▁medicine	-10.137
▁totally	-10.1375
▁leaders	-10.1381
▁safe	-10.1384
▁creative	-10.1395
▁kill	-10.1412
▁finding	-10.1419
▁cause	-10.1458
▁Ba	-10.146
▁plan	-10.1477
▁materials	-10.148
im	-10.1481
▁hour	-10.1483
▁Go	-10.1484
▁lead	-10.1494
▁among	-10.1495
▁waste	-10.1514
▁hot	-10.1519
▁sounds	-10.1521
mp	-10.1547
▁plants	-10.1553
▁fit	-10.1557
▁St	-10.1566
ors	-10.1568
▁village	-10.157
▁nobody	-10.1574
▁teachers	-10.1591
▁police	-10.1599
ard	-10.161
go	-10.1612
▁protect	-10.1613
▁smart	-10.162
▁student	-10.1622
F	-10.1654
▁sleep	-10.1686
▁Le	-10.1687
▁slow	-10.1691
▁ready	-10.1695
Oh	-10.1698
ns	-10.1698
▁clean	-10.1699
▁watching	-10.1701
▁choose	-10.1703
▁named	-10.1711
▁results	-10.1713
▁meaning	-10.1737
▁consider	-10.1737
▁road	-10.1742
▁revolution	-10.1751
▁North	-10.1785
▁gas	-10.1799
▁African	-10.1807
▁everywhere	-10.1808
▁secret	-10.1808
▁Most	-10.1809
▁led	-10.181
▁extremely	-10.1812
▁Ha	-10.182
▁f	-10.1824
▁examples	-10.1826
▁travel	-10.1827
▁starts	-10.1833
▁hospital	-10.1834
▁door	-10.1834
▁fundamental	-10.1853
mer	-10.1857
▁eventually	-10.1861
▁notice	-10.188
▁individuals	-10.1886
▁crazy	-10.1887
ator	-10.1893
▁version	-10.1896
▁connected	-10.1906
▁main	-10.1909
▁security	-10.1919
▁context	-10.194
▁sent	-10.1941
▁record	-10.1962
▁Even	-10.1967
▁fine	-10.1968
ists	-10.1969
pi	-10.1972
▁train	-10.1988
▁moral	-10.1993
▁tool	-10.1995
▁allowed	-10.2015
▁tree	-10.2023
we	-10.2033
▁grew	-10.2048
▁track	-10.2058
land	-10.2059
▁goal	-10.2065
▁college	-10.2075
▁perspective	-10.2102
▁thousand	-10.2106
▁bio	-10.2108
▁near	-10.2121
ect	-10.2123
▁supposed	-10.2134
▁boy	-10.2138
▁pattern	-10.2161
▁organization	-10.2163
▁shot	-10.2165
▁search	-10.2167
▁projects	-10.2172
uc	-10.2193
H	-10.2196
▁star	-10.2201
▁connect	-10.2203
▁trees	-10.2209
▁families	-10.2211
▁including	-10.2211
▁pain	-10.2213
▁essentially	-10.2214
▁positive	-10.2216
▁games	-10.2229
▁shown	-10.2235
▁movie	-10.2244
ig	-10.2257
▁robots	-10.2275
ish	-10.2287
▁treat	-10.2287
▁objects	-10.2288
▁models	-10.2293
▁traditional	-10.2293
▁extraordinary	-10.2295
▁source	-10.2295
▁rich	-10.2296
▁forest	-10.2302
▁address	-10.2321
▁international	-10.2321
▁poverty	-10.2321
▁wife	-10.2321
▁worse	-10.2321
▁serious	-10.2342
▁square	-10.2349
▁jobs	-10.236
▁memory	-10.2377
▁critical	-10.2421
▁West	-10.2428
▁democracy	-10.2433
▁bunch	-10.2433
▁attack	-10.2441
▁Dr	-10.2445
We	-10.2459
▁taught	-10.2461
▁meant	-10.2461
▁zero	-10.2473
▁somewhere	-10.2489
▁faster	-10.2496
▁decision	-10.2498
led	-10.2507
▁above	-10.2518
out	-10.252
▁collect	-10.2524
fi	-10.2535
▁killed	-10.2536
like	-10.2545
▁genetic	-10.2574
▁doctor	-10.2585
▁lower	-10.2585
bi	-10.2591
▁career	-10.2595
▁progress	-10.2599
▁larger	-10.261
▁board	-10.2633
▁please	-10.2634
▁ended	-10.264
▁content	-10.264
▁store	-10.2642
▁conversation	-10.2642
▁teacher	-10.2651
▁crisis	-10.266
▁activity	-10.266
▁super	-10.2661
▁excited	-10.2661
▁Where	-10.2672
▁Al	-10.2675
▁cases	-10.2688
▁bar	-10.2688
▁Today	-10.2689
▁standing	-10.2689
▁suggest	-10.2691
▁happiness	-10.2692
▁suddenly	-10.2693
▁allows	-10.2701
ga	-10.2723
son	-10.2725
▁Don	-10.2742
▁increase	-10.2744
▁plastic	-10.2747
dy	-10.2753
▁conditions	-10.2763
ber	-10.2763
ities	-10.2774
▁compassion	-10.2775
▁famous	-10.2805
▁Those	-10.2805
▁female	-10.2834
▁truly	-10.2834
▁cold	-10.2835
▁minute	-10.2858
ho	-10.2859
▁Ro	-10.2863
▁complicated	-10.2863
▁sell	-10.2878
▁position	-10.2883
▁cr	-10.2884
▁check	-10.2892
▁song	-10.2892
▁accept	-10.2893
▁site	-10.2893
▁exist	-10.2904
▁specific	-10.2906
nce	-10.2921
▁text	-10.2921
▁sp	-10.2924
▁successful	-10.2944
▁drop	-10.2951
▁indeed	-10.2951
▁rise	-10.2953
ex	-10.2961
▁pull	-10.297
▁impossible	-10.2981
▁kept	-10.2981
▁genes	-10.2983
▁buildings	-10.2989
▁older	-10.3002
▁rights	-10.3007
▁website	-10.301
▁Sa	-10.3022
▁Look	-10.3031
▁interest	-10.3035
▁reading	-10.3037
do	-10.3038
▁studies	-10.304
▁policy	-10.307
No	-10.3074
▁floor	-10.31
▁freedom	-10.31
▁count	-10.311
▁cross	-10.3117
side	-10.3123
▁feed	-10.3124
▁HIV	-10.313
▁military	-10.313
▁TV	-10.3131
▁products	-10.3137
▁service	-10.3148
▁deliver	-10.3154
king	-10.3162
▁region	-10.3169
▁workers	-10.3176
▁stars	-10.319
▁nuclear	-10.3193
der	-10.32
▁return	-10.3204
▁tells	-10.3215
▁account	-10.3219
▁mention	-10.3222
▁price	-10.324
▁shift	-10.324
▁massive	-10.3252
con	-10.3254
▁financial	-10.3282
▁dangerous	-10.3282
min	-10.3283
▁training	-10.3301
▁prison	-10.3305
▁private	-10.3312
▁purpose	-10.3312
▁subject	-10.3332
▁East	-10.3344
▁usually	-10.3345
▁inter	-10.3354
▁unique	-10.3374
▁Like	-10.3374
▁la	-10.3398
▁temperature	-10.3404
▁series	-10.3404
▁pressure	-10.3405
▁somehow	-10.3407
▁range	-10.3417
▁treatment	-10.3428
▁alive	-10.3436
▁brains	-10.3436
▁provide	-10.3447
▁Are	-10.3463
▁Bo	-10.3465
▁race	-10.3468
▁knows	-10.347
gen	-10.3479
▁decide	-10.3483
▁Me	-10.3484
▁strange	-10.3494
▁sign	-10.3501
fa	-10.351
▁prevent	-10.3527
▁forms	-10.3529
▁draw	-10.3539
ization	-10.3544
▁smaller	-10.3552
▁current	-10.3553
▁practice	-10.3553
▁anymore	-10.356
▁upon	-10.3572
▁decisions	-10.3582
▁respect	-10.3604
▁win	-10.3608
▁yeah	-10.3623
▁electricity	-10.3624
▁page	-10.3627
▁mom	-10.3638
▁Man	-10.3649
▁physics	-10.3655
▁becoming	-10.3659
▁press	-10.3677
▁bacteria	-10.3685
▁biology	-10.3687
▁La	-10.3689
▁function	-10.3696
▁pieces	-10.3699
▁solutions	-10.3705
if	-10.3706
▁patterns	-10.3713
▁math	-10.3725
▁healthy	-10.374
▁mental	-10.3748
ny	-10.3749
▁effective	-10.3752
▁skills	-10.3754
ring	-10.3766
▁actual	-10.3775
▁bed	-10.3779
▁enormous	-10.3782
▁trade	-10.3783
▁written	-10.3785
▁capital	-10.3796
▁raise	-10.38
▁lines	-10.3803
ng	-10.3822
▁sorts	-10.3822
▁Pa	-10.3828
▁environmental	-10.3831
▁anywhere	-10.3847
▁micro	-10.3847
▁bo	-10.3851
▁ran	-10.3859
▁weren	-10.3864
▁Mo	-10.3866
▁dog	-10.3871
▁rule	-10.3877
▁income	-10.3889
▁machines	-10.39
tor	-10.3903
▁virtual	-10.3912
▁charge	-10.3912
▁loved	-10.3914
bu	-10.3918
ak	-10.3926
que	-10.3928
▁waiting	-10.3934
▁concept	-10.3937
▁Li	-10.3938
▁San	-10.3944
▁explore	-10.395
▁direction	-10.3976
▁earlier	-10.3977
▁expensive	-10.3992
▁wants	-10.4
▁bodies	-10.401
▁ball	-10.4024
▁ho	-10.4027
izing	-10.4029
▁intelligence	-10.4043
▁instance	-10.4043
▁predict	-10.4061
▁doctors	-10.4064
ping	-10.4072
wi	-10.4091
▁heat	-10.4102
▁Americans	-10.4106
▁sky	-10.4109
▁influence	-10.4109
ah	-10.4109
pa	-10.4122
▁town	-10.4123
▁park	-10.4127
▁demand	-10.4142
▁visit	-10.4158
▁institutions	-10.4163
▁final	-10.4169
▁immediately	-10.4177
▁clearly	-10.4189
da	-10.4198
▁forth	-10.4199
ud	-10.4208
▁seconds	-10.4224
▁respond	-10.4226
▁web	-10.4236
▁Another	-10.4242
ions	-10.4246
▁throughout	-10.4247
▁o	-10.4252
▁costs	-10.4254
▁foot	-10.4266
▁listening	-10.4269
Imagine	-10.4276
▁stress	-10.4276
▁extra	-10.4277
▁Which	-10.4278
▁peace	-10.4279
▁photo	-10.428
▁hair	-10.4283
ff	-10.4286
▁teaching	-10.43
▁familiar	-10.431
▁cover	-10.4311
▁neurons	-10.4313
▁points	-10.4314
▁greatest	-10.4317
▁greater	-10.4319
▁en	-10.4344
▁citizens	-10.4354
▁flow	-10.4362
▁diseases	-10.4376
▁himself	-10.4378
▁decade	-10.4382
ran	-10.441
▁performance	-10.4416
sa	-10.4441
▁term	-10.445
ble	-10.4451
▁email	-10.448
▁University	-10.4481
▁rain	-10.4482
▁blind	-10.4513
▁religion	-10.4515
▁architecture	-10.4515
▁driving	-10.452
▁City	-10.4523
▁corner	-10.4524
▁willing	-10.4529
che	-10.4545
▁fantastic	-10.4549
▁weight	-10.4552
▁remain	-10.4556
▁conflict	-10.4561
ical	-10.4566
▁wide	-10.4592
▁Indian	-10.4595
▁improve	-10.4603
os	-10.4605
▁survive	-10.4608
▁governments	-10.4615
▁Y	-10.4618
▁production	-10.4622
▁therefore	-10.4623
▁Mars	-10.4625
▁walked	-10.4625
▁Di	-10.4634
▁spot	-10.4655
oo	-10.4655
▁mobile	-10.4657
▁fuel	-10.4661
ab	-10.4664
▁humanity	-10.4669
ure	-10.4688
▁push	-10.4691
▁meeting	-10.4691
▁except	-10.4716
▁communicate	-10.4724
▁cultural	-10.4731
▁urban	-10.4759
▁biological	-10.476
▁gain	-10.4761
men	-10.4766
▁appear	-10.4768
▁join	-10.4784
▁quick	-10.4788
▁wealth	-10.4789
▁terrible	-10.4795
▁sat	-10.4806
▁legs	-10.4817
▁aid	-10.4824
V	-10.4842
▁services	-10.4844
▁reduce	-10.4852
▁challenges	-10.486
wa	-10.486
▁decades	-10.4862
▁Sh	-10.4866
▁politics	-10.4866
▁radio	-10.487
▁block	-10.4877
fu	-10.4879
▁photograph	-10.4881
▁types	-10.4886
▁forget	-10.4902
ning	-10.4904
▁boat	-10.4905
▁character	-10.4927
▁virus	-10.4943
▁useful	-10.495
▁connection	-10.4952
▁Many	-10.4959
▁engineering	-10.4959
ag	-10.4969
▁values	-10.4978
▁minds	-10.4981
▁mission	-10.4985
ious	-10.5003
▁babies	-10.501
▁beauty	-10.501
▁failure	-10.5011
▁Western	-10.5011
▁Two	-10.5011
W	-10.5017
▁colleagues	-10.5023
▁levels	-10.5024
les	-10.5025
▁fix	-10.5031
▁distance	-10.5047
▁trouble	-10.5047
▁dance	-10.5058
▁standard	-10.5061
▁professional	-10.5062
▁male	-10.5064
▁although	-10.5083
▁popular	-10.5083
▁flu	-10.5096
lic	-10.5112
▁following	-10.5112
one	-10.5118
▁infrastructure	-10.512
▁various	-10.512
j	-10.5136
▁helped	-10.5149
▁obvious	-10.5149
▁choices	-10.5153
▁describe	-10.5153
▁genome	-10.5157
▁remarkable	-10.5157
▁landscape	-10.5157
▁summer	-10.5157
▁atmosphere	-10.5158
▁condition	-10.5172
▁app	-10.5179
?"	-10.5187
▁nation	-10.5188
▁London	-10.5194
▁speech	-10.5194
▁investment	-10.5194
▁ch	-10.5205
▁shared	-10.5208
▁complete	-10.5209
▁organizations	-10.5225
▁disappear	-10.5231
▁anyway	-10.5235
▁invented	-10.5239
ee	-10.5239
▁beings	-10.5246
▁ahead	-10.5252
ain	-10.5252
▁birth	-10.5268
▁straight	-10.5305
▁worst	-10.5305
▁television	-10.5305
▁ca	-10.5309
ug	-10.5321
▁Mar	-10.5325
▁jump	-10.5326
▁understood	-10.5347
▁transform	-10.5362
▁conference	-10.538
▁stopped	-10.5381
ward	-10.5387
▁programs	-10.5398
ction	-10.5413
▁supply	-10.5418
▁event	-10.5444
▁apart	-10.5447
▁flying	-10.5451
▁effects	-10.5453
▁total	-10.5455
▁slide	-10.5456
▁ship	-10.5468
▁agree	-10.5478
▁sh	-10.5482
▁rock	-10.5503
▁artist	-10.5515
▁magic	-10.5516
▁recent	-10.5526
▁cycle	-10.5538
▁Ca	-10.5566
▁Your	-10.5568
▁California	-10.557
▁possibly	-10.557
▁mostly	-10.5581
ka	-10.559
ner	-10.5592
▁John	-10.5608
▁From	-10.5609
▁slightly	-10.561
▁comp	-10.5611
▁anti	-10.5615
▁below	-10.5619
▁n	-10.5627
▁sick	-10.5651
▁Da	-10.566
ey	-10.566
▁laws	-10.5661
▁task	-10.567
▁legal	-10.5682
▁aware	-10.5685
▁Afghanistan	-10.5686
▁smell	-10.5686
▁sector	-10.5686
ence	-10.5697
▁sequence	-10.5725
▁switch	-10.5725
▁streets	-10.5726
▁passion	-10.5729
▁causes	-10.5733
▁original	-10.5759
▁capacity	-10.5764
nstead	-10.5764
▁match	-10.5797
▁crime	-10.5803
▁sand	-10.5805
▁gene	-10.5812
hand	-10.5823
▁paid	-10.5843
▁directly	-10.5849
▁dad	-10.5861
way	-10.5863
▁v	-10.5865
▁card	-10.5874
tch	-10.5877
▁meters	-10.5895
▁interact	-10.5903
U	-10.5903
▁w	-10.5909
▁capture	-10.592
▁engine	-10.5955
end	-10.5991
▁campaign	-10.6002
▁responsibility	-10.6002
▁bought	-10.6002
▁vast	-10.6002
port	-10.6019
▁avoid	-10.6023
▁daughter	-10.603
▁Facebook	-10.6042
▁societies	-10.6042
▁relationships	-10.6052
▁achieve	-10.6066
▁Hu	-10.607
▁Ho	-10.6078
▁afford	-10.6081
▁creativity	-10.6082
▁tremendous	-10.6082
▁twice	-10.6082
▁Think	-10.6082
▁dying	-10.6082
▁speaking	-10.6083
▁degrees	-10.6105
ther	-10.6108
▁easily	-10.6123
▁brand	-10.6123
ip	-10.6135
▁worry	-10.6146
▁detail	-10.6154
▁bridge	-10.6164
▁sustainable	-10.6164
▁published	-10.6169
▁quote	-10.6176
ition	-10.6181
vo	-10.6199
lin	-10.6201
▁ha	-10.6206
▁pass	-10.6207
▁Ka	-10.6219
▁experiments	-10.6221
here	-10.6226
▁noticed	-10.6227
▁window	-10.6236
▁roll	-10.6243
▁afraid	-10.6245
▁oxygen	-10.6245
▁funny	-10.6246
▁enjoy	-10.6253
off	-10.6259
▁li	-10.6263
▁states	-10.6271
▁boys	-10.628
▁wild	-10.6286
▁commercial	-10.6286
▁His	-10.6288
▁broken	-10.6289
▁highly	-10.6293
▁communication	-10.6319
▁significant	-10.632
▁National	-10.6328
▁closer	-10.6337
▁played	-10.6339
▁active	-10.6345
▁chemical	-10.6361
▁emotional	-10.6364
ai	-10.6365
▁evolved	-10.6377
▁offer	-10.6378
▁core	-10.6386
ill	-10.6386
term	-10.6393
▁random	-10.6404
ps	-10.6404
▁differently	-10.6405
▁balance	-10.6411
▁lack	-10.6412
▁Mi	-10.6414
▁notion	-10.6417
▁inspired	-10.6418
▁efficient	-10.6426
ped	-10.6437
▁catch	-10.6442
▁Great	-10.6459
▁vote	-10.6462
▁wood	-10.6473
▁devices	-10.6478
▁civil	-10.6489
▁scientist	-10.6489
▁sta	-10.6491
▁discover	-10.6496
ative	-10.6516
tion	-10.6519
▁mountain	-10.652
▁central	-10.6526
▁plane	-10.6529
▁helping	-10.6531
all	-10.6554
ight	-10.6574
▁glass	-10.6576
▁Over	-10.6581
▁networks	-10.6595
ability	-10.6599
▁enter	-10.6603
▁produced	-10.6609
▁carry	-10.661
▁equal	-10.6614
▁contact	-10.6614
▁camp	-10.6621
▁giant	-10.6622
▁trip	-10.6623
▁oh	-10.6623
▁hole	-10.6631
▁mis	-10.6643
▁etc	-10.6654
act	-10.6661
▁husband	-10.6665
▁identity	-10.6665
io	-10.6672
▁missing	-10.6674
▁answers	-10.6682
How	-10.6693
ob	-10.6693
ast	-10.6698
▁markets	-10.6702
▁continent	-10.6707
▁classroom	-10.6708
▁earth	-10.6709
▁r	-10.6712
▁hearing	-10.673
▁Jo	-10.6737
▁planets	-10.6742
▁diversity	-10.6751
▁molecules	-10.6761
▁passed	-10.6768
▁designers	-10.6775
▁forces	-10.6786
▁target	-10.6791
▁basis	-10.6794
▁crowd	-10.6794
▁members	-10.68
▁represent	-10.6817
▁di	-10.6837
▁surgery	-10.6837
▁tough	-10.684
▁island	-10.6842
▁nearly	-10.6849
▁report	-10.6871
▁seemed	-10.6872
▁civilization	-10.6881
▁complexity	-10.6885
▁European	-10.6886
▁detect	-10.691
ang	-10.6915
▁extreme	-10.6918
▁fair	-10.6918
▁gotten	-10.6925
▁flight	-10.6925
▁dreams	-10.6941
▁studying	-10.6947
ler	-10.6954
▁bringing	-10.6957
ite	-10.6959
▁farm	-10.6965
▁definition	-10.6974
ath	-10.6988
▁Lo	-10.699
ship	-10.6996
ctually	-10.7008
▁differences	-10.7011
▁alternative	-10.7013
▁spending	-10.7018
▁Take	-10.7022
▁engage	-10.7042
Why	-10.7043
▁apply	-10.705
▁forever	-10.7056
▁eating	-10.7058
▁chain	-10.7058
▁Po	-10.708
▁birds	-10.7089
ving	-10.7095
▁trick	-10.71
▁feels	-10.7102
▁opposite	-10.7102
▁weird	-10.7103
▁graph	-10.7114
gi	-10.7115
mon	-10.7127
▁remind	-10.7131
▁Again	-10.7147
▁background	-10.7147
▁coffee	-10.7147
▁labor	-10.7151
▁raised	-10.7168
▁express	-10.7169
▁focused	-10.7184
▁uses	-10.7188
▁easier	-10.7192
▁imagination	-10.7192
▁negative	-10.7193
▁fully	-10.7194
▁sold	-10.7195
▁gr	-10.7209
▁fund	-10.7213
air	-10.7223
▁desire	-10.7237
ray	-10.7238
let	-10.7253
ay	-10.7254
▁party	-10.726
▁none	-10.7265
▁interview	-10.7267
▁da	-10.7282
▁scene	-10.7283
▁reward	-10.7285
▁airplane	-10.7329
▁museum	-10.7329
▁opportunities	-10.7329
▁mid	-10.7329
▁grand	-10.7329
▁effort	-10.7333
▁justice	-10.7338
ger	-10.7354
ier	-10.7363
▁president	-10.7374
▁lucky	-10.7377
▁trial	-10.7382
▁experiences	-10.7383
▁unit	-10.7388
▁separate	-10.7406
▁bomb	-10.7407
oc	-10.7408
▁Car	-10.741
za	-10.7415
▁sa	-10.7421
▁proud	-10.7421
▁See	-10.7426
▁struggle	-10.7434
sis	-10.7455
▁importantly	-10.7456
▁knowing	-10.7458
▁honest	-10.7459
▁criminal	-10.7467
▁possibility	-10.7467
▁benefit	-10.7477
▁date	-10.7477
▁held	-10.7478
▁signal	-10.7479
ki	-10.7485
▁pack	-10.7504
▁David	-10.7513
▁technical	-10.7513
▁despite	-10.7513
▁moon	-10.7516
It	-10.7531
den	-10.7538
▁More	-10.7545
▁du	-10.7558
▁Twitter	-10.756
▁platform	-10.756
▁engineer	-10.7565
▁stem	-10.7566
ris	-10.7583
▁Brazil	-10.7605
▁Ne	-10.7605
▁competition	-10.7607
▁yellow	-10.7607
gu	-10.7608
▁noise	-10.761
▁ultimately	-10.7611
▁sharing	-10.7614
▁neighborhood	-10.7616
dimensional	-10.762
▁turning	-10.7638
▁surprise	-10.7639
▁advantage	-10.7654
▁bottle	-10.7654
▁desert	-10.7654
▁identify	-10.7654
▁sc	-10.7672
▁Asia	-10.7676
based	-10.7681
ile	-10.7685
▁manage	-10.7687
▁magazine	-10.7702
▁mouth	-10.7702
▁stuck	-10.7702
▁fairly	-10.7709
qui	-10.7729
▁painting	-10.773
light	-10.773
▁argue	-10.7734
▁fill	-10.7736
▁Second	-10.7742
▁suffering	-10.776
▁sad	-10.7765
▁Ki	-10.7769
ology	-10.777
au	-10.777
▁structures	-10.778
rk	-10.7797
▁ancient	-10.7797
▁consciousness	-10.7798
▁argument	-10.7808
▁fold	-10.7823
▁Iraq	-10.7832
▁multi	-10.7833
▁paint	-10.7837
▁Sometimes	-10.7845
ging	-10.7848
▁flag	-10.7852
▁tissue	-10.7857
▁brother	-10.7857
ja	-10.7858
▁due	-10.7861
ft	-10.7867
▁direct	-10.7869
▁Pro	-10.7888
▁sexual	-10.7888
▁breast	-10.7893
▁claim	-10.7893
▁religious	-10.7893
▁leadership	-10.7894
▁motor	-10.7894
▁bear	-10.7895
▁Bill	-10.79
▁invest	-10.7908
▁artists	-10.7917
▁entirely	-10.7921
▁soil	-10.7924
▁collective	-10.7936
▁crash	-10.7942
▁necessary	-10.7942
▁phenomenon	-10.7942
▁attempt	-10.7942
▁Japan	-10.7942
▁emotions	-10.7944
▁Once	-10.7946
▁hell	-10.7961
▁bone	-10.797
▁finish	-10.7974
▁base	-10.7975
▁double	-10.7976
chi	-10.7987
▁Middle	-10.7991
▁estimate	-10.7991
▁regular	-10.7991
▁motion	-10.7991
▁Con	-10.8014
▁fashion	-10.8017
▁benefits	-10.8032
▁industrial	-10.8035
▁adapt	-10.8037
▁necessarily	-10.804
▁creation	-10.804
▁sorry	-10.804
▁opened	-10.8042
▁figured	-10.8049
▁river	-10.8063
▁bank	-10.8083
responsible	-10.8089
▁faith	-10.8089
▁gender	-10.8089
▁lights	-10.8105
▁wear	-10.8116
har	-10.8126
▁cheap	-10.8134
▁click	-10.8138
▁university	-10.8138
▁location	-10.8139
▁bright	-10.8139
ified	-10.8139
▁matters	-10.8154
▁damage	-10.8175
▁rid	-10.8178
▁cat	-10.8187
▁loss	-10.8187
▁gift	-10.8188
▁studied	-10.8188
▁debate	-10.8188
▁creates	-10.819
▁CO	-10.8193
▁Ta	-10.8201
▁creatures	-10.821
iv	-10.8213
▁letter	-10.8219
▁phones	-10.8221
▁pounds	-10.8228
▁suit	-10.8234
▁failed	-10.8254
ged	-10.8262
▁operate	-10.8269
▁beat	-10.8277
▁replace	-10.8288
▁French	-10.8288
▁hurt	-10.8288
▁restaurant	-10.8288
▁brilliant	-10.8289
▁interface	-10.8289
▁cloud	-10.8307
▁elements	-10.8322
gg	-10.8328
▁document	-10.8329
work	-10.8336
rt	-10.8338
▁marriage	-10.8339
▁farmers	-10.8347
▁curve	-10.8347
▁bees	-10.8348
▁Good	-10.8349
▁Bu	-10.8351
▁master	-10.8354
▁si	-10.8354
▁foundation	-10.8356
▁leg	-10.8356
▁Su	-10.8357
my	-10.8358
▁compared	-10.8359
▁Mr	-10.8366
▁brings	-10.8367
▁ra	-10.8369
▁leading	-10.8372
lan	-10.8375
▁Ja	-10.8379
fe	-10.838
ley	-10.8385
▁pop	-10.8387
▁Washington	-10.839
▁puzzle	-10.839
▁smile	-10.839
▁childhood	-10.839
▁discovery	-10.8397
▁Did	-10.8399
▁events	-10.8424
▁hate	-10.8425
▁era	-10.8427
▁walls	-10.8429
▁Web	-10.8433
val	-10.8433
▁release	-10.8433
▁grade	-10.8434
▁strategy	-10.8441
▁foreign	-10.8441
▁holding	-10.8441
▁mouse	-10.8441
▁lay	-10.8445
▁stream	-10.8472
▁Her	-10.8486
▁dollar	-10.849
▁honor	-10.8492
▁professor	-10.8492
▁universal	-10.8492
▁British	-10.8492
▁particles	-10.8503
▁fail	-10.8511
▁adults	-10.8513
▁k	-10.8523
▁lesson	-10.8524
▁drink	-10.8527
▁fresh	-10.8544
▁poem	-10.8544
▁Kenya	-10.8544
▁typical	-10.8544
of	-10.8556
▁belong	-10.8556
▁bird	-10.8559
▁link	-10.8559
▁managed	-10.856
▁sister	-10.8567
▁lo	-10.8578
▁degree	-10.8582
cent	-10.8587
J	-10.8587
aw	-10.8593
▁patent	-10.8596
▁majority	-10.8599
▁expression	-10.8608
▁deeply	-10.8615
▁organisms	-10.8627
This	-10.8641
▁newspaper	-10.8647
form	-10.865
▁moments	-10.8671
▁edge	-10.8673
ium	-10.8675
over	-10.8679
▁fighting	-10.8684
▁sudden	-10.8693
▁caught	-10.87
▁Have	-10.8705
sum	-10.8707
▁fascinating	-10.8711
▁businesses	-10.8719
▁perform	-10.872
▁generate	-10.8738
bb	-10.8738
▁watched	-10.8748
pro	-10.8751
▁budget	-10.8752
▁leaving	-10.8752
▁theater	-10.8754
▁independent	-10.8767
ick	-10.877
▁serve	-10.8771
▁tens	-10.8787
▁engineers	-10.8799
▁horse	-10.8805
▁unfortunately	-10.8807
▁limited	-10.8819
▁wearing	-10.8824
qua	-10.8834
ack	-10.8836
▁billions	-10.8839
▁believed	-10.884
▁related	-10.884
ake	-10.8848
▁fossil	-10.8859
▁lunch	-10.8859
▁otherwise	-10.8861
▁saving	-10.8887
▁enable	-10.89
art	-10.8908
▁dinner	-10.8912
▁exercise	-10.8912
▁court	-10.8912
▁display	-10.8912
▁mess	-10.8914
▁occur	-10.8916
▁concerned	-10.8922
▁affect	-10.8928
▁frame	-10.8928
▁Big	-10.8939
▁interaction	-10.8943
▁ideal	-10.8949
▁spaces	-10.8961
▁invisible	-10.8966
▁hidden	-10.8966
▁discussion	-10.8969
▁closed	-10.8974
▁multiple	-10.8979
▁finished	-10.8984
▁El	-10.8985
▁profound	-10.9013
▁bread	-10.902
▁capable	-10.9021
▁everyday	-10.9023
▁gay	-10.9023
▁Life	-10.9025
▁leads	-10.903
▁qu	-10.903
▁oceans	-10.9034
▁clinical	-10.9055
▁shop	-10.9055
▁layer	-10.9055
▁trained	-10.9061
▁Ph	-10.9068
▁opinion	-10.9074
▁safety	-10.9076
ren	-10.9077
▁copy	-10.9077
▁Very	-10.9077
▁constantly	-10.9079
istic	-10.9087
▁prove	-10.9087
▁colors	-10.9087
▁slowly	-10.909
▁grown	-10.9096
▁launch	-10.9113
▁followed	-10.9116
▁row	-10.9122
▁George	-10.9129
▁disaster	-10.9129
▁epidemic	-10.9129
▁novel	-10.9129
▁pig	-10.913
▁Sun	-10.9135
▁received	-10.914
▁topic	-10.9152
▁tail	-10.9157
ef	-10.9158
▁helps	-10.9159
▁adult	-10.9161
▁se	-10.9164
▁promise	-10.9169
▁strength	-10.9171
▁married	-10.9184
▁insects	-10.9184
lar	-10.9193
▁bus	-10.9202
▁described	-10.9211
▁calls	-10.9222
▁mix	-10.9222
▁metal	-10.923
board	-10.9236
▁warm	-10.9238
▁artificial	-10.9239
▁invited	-10.9251
▁currently	-10.9252
▁fell	-10.9253
▁exchange	-10.9253
▁launched	-10.9256
▁ten	-10.9257
▁perfectly	-10.9258
▁sentence	-10.9273
▁parent	-10.9274
▁transformation	-10.928
▁imp	-10.9283
▁graduate	-10.9284
▁garden	-10.9295
▁kilometers	-10.9295
▁mirror	-10.9295
▁crack	-10.9295
▁Si	-10.9299
▁gun	-10.9302
▁collection	-10.9303
▁principles	-10.931
▁clinic	-10.9315
▁article	-10.9329
▁partner	-10.9333
ture	-10.9334
▁leader	-10.934
▁mathematics	-10.935
▁dry	-10.9351
▁ride	-10.9376
▁mark	-10.9377
▁folks	-10.9379
▁chair	-10.9388
▁relative	-10.9399
▁Everybody	-10.9407
▁survival	-10.9408
▁correct	-10.941
▁highest	-10.9414
▁heads	-10.9422
▁note	-10.9431
▁metaphor	-10.9438
▁sum	-10.9446
▁names	-10.9449
ice	-10.945
▁spoke	-10.9459
▁spirit	-10.9463
▁contract	-10.9463
▁wake	-10.9468
ea	-10.9473
▁whom	-10.9474
▁weapons	-10.9475
▁lie	-10.948
▁surprised	-10.9481
▁normally	-10.9484
▁exists	-10.9493
car	-10.9503
▁wave	-10.9508
ible	-10.951
▁transport	-10.9519
▁GDP	-10.952
▁chart	-10.952
▁insight	-10.9521
▁dynamic	-10.9521
▁consequences	-10.9525
▁band	-10.953
▁seriously	-10.9535
▁coal	-10.9537
▁Se	-10.9541
▁threat	-10.955
vis	-10.9553
▁steps	-10.9555
▁protein	-10.9559
▁shoes	-10.9563
▁define	-10.9563
▁Australia	-10.9565
▁joy	-10.9568
▁signals	-10.9568
▁roof	-10.9577
▁Mexico	-10.9577
▁trillion	-10.9577
▁narrative	-10.9577
▁gold	-10.9578
▁factory	-10.9585
▁paying	-10.9588
▁begins	-10.9592
▁ring	-10.9592
▁Mu	-10.9612
▁traffic	-10.9625
▁organic	-10.9625
▁command	-10.9635
▁versus	-10.9635
▁depression	-10.9635
▁comment	-10.9635
▁zone	-10.9635
▁Richard	-10.9635
▁feedback	-10.9635
▁fellow	-10.9635
▁May	-10.9638
ory	-10.9647
▁Ad	-10.9652
▁faces	-10.9654
tive	-10.9655
▁seat	-10.9656
▁circle	-10.9657
ide	-10.9682
▁compare	-10.9686
▁cognitive	-10.9692
▁existence	-10.9693
▁worried	-10.9695
so	-10.9696
▁invention	-10.9698
▁wheel	-10.9703
nder	-10.9713
▁considered	-10.9729
▁principle	-10.9735
▁coral	-10.9735
▁hasn	-10.9748
▁mathematical	-10.9751
▁nervous	-10.9751
▁stupid	-10.9751
▁healthcare	-10.9751
▁operating	-10.9751
▁tons	-10.9751
▁Sp	-10.9753
ju	-10.9754
▁blog	-10.9764
▁Does	-10.9766
▁testing	-10.9768
▁load	-10.9779
▁mu	-10.9801
▁round	-10.9801
▁remote	-10.9802
▁surprising	-10.9802
▁galaxies	-10.9809
▁quantum	-10.9809
▁researchers	-10.981
▁planning	-10.981
▁comfortable	-10.981
▁fat	-10.982
▁print	-10.982
▁Would	-10.982
▁drawing	-10.9825
log	-10.9827
▁Gra	-10.983
▁Wi	-10.9846
▁harder	-10.9848
▁belief	-10.9853
▁molecule	-10.9853
▁England	-10.9868
▁sw	-10.9868
▁curious	-10.9868
▁associated	-10.9872
▁unless	-10.9873
▁pages	-10.9879
▁designer	-10.9899
▁experts	-10.9899
▁treated	-10.9903
▁letters	-10.9906
▁advance	-10.9912
▁Vi	-10.993
▁practical	-10.9931
ically	-10.9931
▁intelligent	-10.9934
erson	-10.994
▁electric	-10.9941
▁breath	-10.9967
▁meat	-10.9968
▁Ar	-10.9968
▁arms	-10.9969
▁wire	-10.9971
▁forced	-10.9973
ple	-10.9975
▁resource	-10.9976
ome	-10.9984
▁circuit	-10.9987
▁equivalent	-10.9987
▁stood	-10.9987
▁wisdom	-10.9987
▁Three	-10.9987
▁weather	-10.9987
▁clip	-10.9987
ery	-10.9988
▁hopefully	-10.9989
▁emissions	-11.0007
▁Their	-11.002
fer	-11.0022
▁Na	-11.0026
▁killing	-11.0026
▁cure	-11.0032
▁vehicle	-11.0034
▁moves	-11.0036
▁soldiers	-11.0046
▁consumption	-11.0046
▁equipment	-11.0046
▁survey	-11.0046
▁autism	-11.0046
▁laptop	-11.0046
▁daily	-11.0047
▁reform	-11.0049
▁distribution	-11.0049
If	-11.0058
▁lifetime	-11.0059
▁ants	-11.0076
▁net	-11.0078
▁accident	-11.0096
ably	-11.0099
▁gap	-11.0099
▁exact	-11.01
▁taste	-11.0107
top	-11.0111
▁Germany	-11.0112
▁opening	-11.0114
▁hide	-11.0117
▁warming	-11.0125
uff	-11.013
▁processes	-11.0131
▁saved	-11.015
▁diet	-11.0152
▁judge	-11.0167
▁rural	-11.0167
▁Everything	-11.0167
▁joke	-11.0167
▁combination	-11.0168
ane	-11.0176
▁King	-11.0182
▁dealing	-11.0183
rr	-11.0201
▁method	-11.0218
▁picked	-11.022
▁experienced	-11.0223
▁Audience	-11.0228
▁grandmother	-11.0228
▁participate	-11.0228
▁intellectual	-11.0228
▁importance	-11.0228
▁Ex	-11.0236
▁lies	-11.0254
▁su	-11.026
▁reflect	-11.0268
▁inner	-11.0278
ue	-11.028
▁soul	-11.0284
tan	-11.0286
▁coast	-11.0287
▁generations	-11.0289
▁Einstein	-11.029
▁galaxy	-11.029
▁analysis	-11.029
▁member	-11.029
▁season	-11.0291
▁Times	-11.0291
▁according	-11.0291
mor	-11.0301
▁credit	-11.0301
▁AIDS	-11.0308
▁fourth	-11.0314
▁selling	-11.0325
ero	-11.033
gram	-11.0331
▁statistics	-11.0331
▁determine	-11.0337
▁reaction	-11.0344
▁MIT	-11.0351
▁agriculture	-11.0351
▁limb	-11.0354
▁setting	-11.0357
▁increasingly	-11.0358
▁arrived	-11.036
ib	-11.0367
▁robotic	-11.0372
head	-11.0377
▁covered	-11.0381
▁stone	-11.0385
gan	-11.0394
▁mothers	-11.0403
▁toward	-11.0404
▁keeping	-11.0406
▁President	-11.0413
▁plate	-11.0414
▁Other	-11.0414
scale	-11.0421
▁convinced	-11.0427
▁filled	-11.0435
▁tall	-11.0439
ko	-11.0441
▁leaves	-11.0455
▁blow	-11.0462
▁harm	-11.0468
▁mistake	-11.0469
▁broke	-11.0472
▁skill	-11.0474
▁battle	-11.0476
▁error	-11.0476
▁ordinary	-11.0476
▁cur	-11.0481
Hey	-11.0483
▁calling	-11.0485
Do	-11.0527
▁Gu	-11.0536
▁pocket	-11.0539
▁string	-11.0539
▁chicken	-11.0539
▁property	-11.0539
▁fields	-11.054
▁bill	-11.0543
▁organized	-11.0552
▁flat	-11.0553
▁caused	-11.0575
▁connections	-11.0582
▁Ri	-11.0592
▁photos	-11.0594
▁station	-11.0597
▁extract	-11.0602
▁privilege	-11.0602
▁medium	-11.0602
▁volume	-11.0602
▁construction	-11.0604
▁driver	-11.0605
▁host	-11.0607
▁Iran	-11.0612
▁economics	-11.0621
ham	-11.0623
▁cow	-11.0627
▁users	-11.065
▁homes	-11.065
▁wondering	-11.065
▁hadn	-11.0655
▁factors	-11.0662
▁heavy	-11.0666
▁perception	-11.0666
▁stock	-11.0666
▁peak	-11.0666
▁awful	-11.0666
▁equation	-11.0666
▁addition	-11.0701
cal	-11.0715
▁encourage	-11.0715
▁ignore	-11.0716
▁satellite	-11.0726
▁muscle	-11.0726
▁habit	-11.0729
▁accurate	-11.073
▁maintain	-11.073
▁Center	-11.073
▁empty	-11.073
▁yesterday	-11.073
▁evil	-11.073
▁losing	-11.073
▁toilet	-11.073
▁abuse	-11.073
▁Human	-11.0731
▁pet	-11.0736
▁shapes	-11.0744
▁released	-11.0752
▁lu	-11.0766
▁malaria	-11.0769
ook	-11.077
▁limit	-11.0775
▁hang	-11.0779
▁emotion	-11.0787
▁operation	-11.0791
▁fo	-11.0792
▁prototype	-11.0794
▁title	-11.0794
▁underneath	-11.0794
▁transition	-11.0796
▁tip	-11.0796
ual	-11.0804
ification	-11.0822
▁depend	-11.0839
ari	-11.0844
▁introduce	-11.0845
▁movies	-11.0847
▁quarter	-11.0854
tern	-11.0856
▁burn	-11.0857
▁Amazon	-11.0859
▁rapidly	-11.0863
▁victims	-11.0865
▁Bi	-11.0866
▁author	-11.0866
tes	-11.0868
▁protection	-11.0869
▁quiet	-11.0882
▁instrument	-11.0885
▁climb	-11.0891
▁official	-11.0896
▁voices	-11.0897
▁fan	-11.0906
▁tape	-11.0923
▁sample	-11.0923
▁requires	-11.0924
▁Harvard	-11.0925
▁cutting	-11.0928
▁dimensions	-11.0928
▁contain	-11.0929
nch	-11.093
Yes	-11.0934
▁players	-11.0938
▁rare	-11.0943
▁tube	-11.0947
▁Arab	-11.0948
ana	-11.0955
ral	-11.0963
day	-11.0965
▁electrical	-11.0973
▁sending	-11.0979
▁embrace	-11.0991
▁Japanese	-11.0991
▁Street	-11.0991
▁battery	-11.0991
▁inequality	-11.0991
▁sugar	-11.0991
▁Last	-11.0996
▁Mon	-11.0996
af	-11.1006
▁deeper	-11.1007
▁counter	-11.1013
▁button	-11.1026
▁Hi	-11.1032
▁movements	-11.1049
▁essential	-11.1049
▁nose	-11.1051
▁Paul	-11.1056
▁NASA	-11.1057
▁Pakistan	-11.1057
▁emerging	-11.1057
▁possibilities	-11.1057
▁properties	-11.1057
▁Britain	-11.1057
▁poetry	-11.1057
▁peer	-11.1058
▁represents	-11.106
▁videos	-11.1063
▁tag	-11.1074
▁bi	-11.1077
▁cameras	-11.1089
▁require	-11.1109
▁cap	-11.1119
▁School	-11.1123
▁facing	-11.1123
▁variety	-11.1123
▁balloon	-11.1124
▁filter	-11.1124
▁carefully	-11.1129
▁sla	-11.1132
▁appropriate	-11.1134
▁advanced	-11.114
nna	-11.1144
▁waves	-11.1145
▁cards	-11.1148
▁risks	-11.1162
▁nations	-11.1162
▁sites	-11.1169
▁react	-11.1181
ants	-11.1186
▁encounter	-11.1191
▁doubt	-11.1191
▁fiction	-11.1191
▁surgeon	-11.1191
▁Los	-11.1192
▁management	-11.1192
▁pure	-11.1193
▁languages	-11.1197
cut	-11.12
▁height	-11.1206
▁Cha	-11.1216
▁ski	-11.122
▁rates	-11.123
▁Un	-11.1234
▁designing	-11.124
▁messages	-11.1252
▁Congress	-11.1258
▁Could	-11.1258
▁illegal	-11.1258
▁sweet	-11.1258
▁microbes	-11.1258
▁tomorrow	-11.1258
▁rational	-11.1258
▁Francisco	-11.1258
▁chemistry	-11.1258
▁pump	-11.1259
▁gang	-11.1259
▁grid	-11.1259
▁specifically	-11.126
▁finger	-11.1261
▁holes	-11.1266
rus	-11.1278
ky	-11.1292
ograph	-11.13
rac	-11.1315
▁trials	-11.1318
▁absolute	-11.1319
▁arts	-11.132
▁h	-11.1321
▁spring	-11.1327
▁rocket	-11.1328
source	-11.1334
▁tea	-11.1334
▁inspiration	-11.1334
That	-11.1336
▁shoulder	-11.134
▁soft	-11.1348
▁cave	-11.135
▁Art	-11.1351
▁im	-11.1358
▁former	-11.1359
▁feelings	-11.1369
round	-11.1372
▁characters	-11.1372
row	-11.1374
▁player	-11.1375
▁relate	-11.1381
rate	-11.1388
▁broad	-11.139
▁technological	-11.1395
▁protest	-11.1395
▁review	-11.1396
▁habitat	-11.1396
▁north	-11.1396
▁cup	-11.1399
▁Pi	-11.1409
▁required	-11.141
▁cook	-11.1415
ily	-11.1424
uch	-11.1434
▁shoot	-11.1447
▁Nigeria	-11.1454
▁increasing	-11.1456
kin	-11.1458
▁user	-11.1463
▁celebrate	-11.1464
▁conclusion	-11.1464
▁length	-11.1464
▁vulnerable	-11.1464
▁root	-11.1469
▁tradition	-11.147
▁exception	-11.148
▁Ju	-11.1489
▁houses	-11.1498
▁laugh	-11.1499
▁talks	-11.15
▁convince	-11.1518
eep	-11.1524
▁orbit	-11.1529
▁Canada	-11.1533
▁church	-11.1533
▁hotel	-11.1537
▁statement	-11.154
▁effectively	-11.1549
▁signs	-11.155
▁details	-11.1551
hu	-11.1553
▁funding	-11.1559
▁dots	-11.1578
▁firm	-11.1603
▁fruit	-11.1603
▁studio	-11.1603
▁Since	-11.1603
▁swim	-11.1603
▁lady	-11.1604
▁sight	-11.1604
▁presentation	-11.1608
▁relatively	-11.1612
▁Mc	-11.1614
grad	-11.162
▁Am	-11.1625
▁Israel	-11.1631
▁myth	-11.1636
ries	-11.1637
use	-11.1654
▁reveal	-11.1657
▁Che	-11.1665
▁radical	-11.1666
▁explanation	-11.1673
▁pleasure	-11.1673
▁producing	-11.1673
▁status	-11.1673
▁passionate	-11.1678
▁chemicals	-11.1687
▁script	-11.1688
▁politicians	-11.1713
ign	-11.1718
▁invent	-11.1725
▁appreciate	-11.1739
▁south	-11.1744
▁phrase	-11.1744
▁France	-11.1744
▁teeth	-11.1744
▁jail	-11.1744
▁roughly	-11.1749
rd	-11.1751
▁mile	-11.1753
▁option	-11.1754
▁bag	-11.1758
▁Dan	-11.1776
▁lessons	-11.1785
ians	-11.1785
▁receive	-11.1787
▁forests	-11.1802
▁include	-11.1811
gh	-11.1814
▁danger	-11.1815
▁Chicago	-11.1816
▁academic	-11.1816
▁James	-11.1816
▁valuable	-11.1816
▁Anyway	-11.1816
▁staff	-11.1816
▁fewer	-11.1816
▁pen	-11.1817
▁Yet	-11.1818
▁depends	-11.1818
▁BG	-11.1821
▁buying	-11.1822
▁scan	-11.1822
▁Come	-11.1825
▁ecosystem	-11.1826
▁vaccine	-11.1827
▁outcome	-11.1827
▁consumer	-11.1829
▁king	-11.1836
▁director	-11.1837
▁expand	-11.1854
▁handle	-11.1863
▁formed	-11.1869
▁cru	-11.1875
▁calculate	-11.1888
▁decline	-11.1888
▁molecular	-11.1888
▁corruption	-11.1888
▁sing	-11.1889
▁evolutionary	-11.1889
▁winter	-11.189
▁hall	-11.1896
▁meaningful	-11.1905
▁tap	-11.1915
▁sheet	-11.192
▁factor	-11.1931
▁historical	-11.1941
▁monitor	-11.1943
▁succeed	-11.1944
▁sources	-11.1945
our	-11.1956
▁En	-11.1959
▁kitchen	-11.196
▁mosquito	-11.196
▁shame	-11.196
▁plot	-11.1961
▁steel	-11.1961
▁Bank	-11.1962
tz	-11.1965
▁symbol	-11.1971
water	-11.1975
ina	-11.1977
▁bee	-11.1977
▁techniques	-11.1992
si	-11.1993
▁Thanks	-11.2003
▁gentlem	-11.2022
▁remove	-11.2026
▁thin	-11.2033
▁Institute	-11.2033
▁sculpture	-11.2033
yard	-11.204
▁bike	-11.2041
▁pair	-11.2048
▁bat	-11.2049
▁engaged	-11.2057
▁infinite	-11.2072
for	-11.2073
right	-11.2076
▁assume	-11.2092
▁previous	-11.2099
▁Darwin	-11.2105
▁definitely	-11.2107
▁manufacturing	-11.2107
▁spectrum	-11.2107
▁unusual	-11.2107
▁Boston	-11.2107
▁primary	-11.2107
▁solid	-11.2107
▁internal	-11.2107
▁radiation	-11.2108
▁dinosaurs	-11.2109
▁worldwide	-11.2109
▁pitch	-11.2114
▁grain	-11.2115
ean	-11.2126
▁mountains	-11.2136
▁carrying	-11.2136
▁symptoms	-11.2139
▁demonstrate	-11.2142
▁increased	-11.2144
▁suffer	-11.2147
▁goals	-11.2176
▁clever	-11.2181
▁department	-11.2181
▁flies	-11.2181
▁silence	-11.2181
▁snow	-11.2181
▁alien	-11.2181
▁awareness	-11.2183
▁productive	-11.2183
▁tank	-11.2184
▁conscious	-11.2188
▁cultures	-11.2192
▁trend	-11.2197
▁introduced	-11.2198
low	-11.22
▁affected	-11.2203
han	-11.2205
▁actions	-11.2218
▁sharks	-11.2231
▁translate	-11.2241
▁collapse	-11.2246
▁Islam	-11.2254
▁grab	-11.2255
▁Women	-11.2255
▁YouTube	-11.2255
▁violent	-11.2255
▁democratic	-11.2255
▁input	-11.2255
▁severe	-11.2256
▁variation	-11.2256
▁atoms	-11.2256
▁fake	-11.2256
▁breathe	-11.2259
▁maps	-11.2264
▁Lu	-11.2268
ui	-11.2269
▁applied	-11.227
▁Muslim	-11.2273
▁score	-11.2273
▁generally	-11.2278
▁potentially	-11.2279
▁Park	-11.228
▁prime	-11.2294
room	-11.2314
▁attract	-11.2315
▁tax	-11.2321
▁German	-11.2324
▁harvest	-11.2331
▁illusion	-11.2331
▁intervention	-11.2331
▁attitude	-11.2331
▁conservation	-11.2331
▁reverse	-11.2332
▁collaboration	-11.2332
▁typically	-11.2341
▁bubble	-11.2349
▁feature	-11.2349
▁Han	-11.2361
▁Ben	-11.2372
▁pulled	-11.2372
▁existing	-11.2374
▁origin	-11.2374
▁added	-11.2383
▁organize	-11.2392
▁Ten	-11.2394
▁centers	-11.2398
▁Sam	-11.2404
▁poll	-11.2405
▁sophisticated	-11.2406
▁hydrogen	-11.2406
▁hospitals	-11.2407
▁compete	-11.2407
▁shut	-11.2407
▁Four	-11.2408
▁apartment	-11.2408
▁bra	-11.2412
▁viruses	-11.2413
▁thanks	-11.2418
▁prepared	-11.2421
▁bits	-11.2425
▁fundamentally	-11.2427
▁components	-11.2433
▁recorded	-11.2453
▁y	-11.2459
▁blocks	-11.2459
▁II	-11.2462
▁finance	-11.2474
▁liquid	-11.2483
▁spider	-11.2483
▁Christian	-11.2483
▁nerve	-11.2483
▁route	-11.2483
▁plus	-11.249
ulation	-11.2493
▁fiber	-11.2498
▁mechanism	-11.2503
▁employees	-11.2511
▁physically	-11.2514
▁neighbors	-11.2527
▁protected	-11.2539
▁reached	-11.2541
▁repeat	-11.2543
▁combine	-11.2551
▁Steve	-11.2552
▁earn	-11.2552
▁recover	-11.2553
▁bias	-11.2557
▁Michael	-11.256
▁analyze	-11.256
▁empathy	-11.256
▁false	-11.256
▁iPhone	-11.256
▁innovative	-11.256
▁predator	-11.256
▁providing	-11.256
▁prize	-11.256
▁escape	-11.256
▁confront	-11.256
▁framework	-11.256
▁prefer	-11.256
▁sphere	-11.256
▁observation	-11.256
▁zoom	-11.2564
▁strip	-11.2578
jo	-11.2581
ock	-11.2586
▁regions	-11.2589
▁personally	-11.26
ear	-11.26
▁traveling	-11.2609
ung	-11.2622
▁ultimate	-11.263
ura	-11.2632
▁awesome	-11.2637
▁gravity	-11.2637
▁pilot	-11.2637
▁pollution	-11.2637
▁relevant	-11.2637
▁phase	-11.2637
▁toxic	-11.2637
▁loud	-11.2638
▁equality	-11.264
▁loop	-11.2642
▁agent	-11.2644
▁dogs	-11.2647
▁Day	-11.2651
Fi	-11.2655
▁situations	-11.2663
▁Any	-11.2665
▁interests	-11.2672
▁naturally	-11.2681
▁organs	-11.2689
mar	-11.2691
▁weak	-11.2693
rat	-11.2703
gar	-11.271
▁eggs	-11.2711
▁sustain	-11.2714
▁lecture	-11.2715
▁license	-11.2715
▁permanent	-11.2715
▁knee	-11.2715
▁Charles	-11.2715
ept	-11.272
▁fishing	-11.2726
▁Tu	-11.2727
▁drives	-11.2728
ank	-11.2739
▁election	-11.274
▁ends	-11.2765
▁solved	-11.2774
▁miss	-11.2774
▁Russia	-11.2781
ade	-11.2792
▁Bar	-11.2793
▁Perhaps	-11.2794
▁While	-11.2794
▁computing	-11.2794
▁concrete	-11.2794
▁destruction	-11.2794
▁milk	-11.2794
▁psychological	-11.2794
▁silk	-11.2794
▁reference	-11.2795
▁tour	-11.2797
▁liked	-11.2797
ik	-11.2797
▁suck	-11.2802
rous	-11.2809
▁vehicles	-11.281
▁Air	-11.2811
long	-11.2816
▁tumor	-11.282
▁element	-11.282
▁border	-11.282
▁shark	-11.282
In	-11.2821
▁State	-11.2823
▁algorithms	-11.283
▁joined	-11.283
meter	-11.2836
▁conversations	-11.2843
▁attacks	-11.2851
▁divide	-11.2859
▁facts	-11.287
▁complain	-11.2873
▁activities	-11.2873
▁privacy	-11.2873
▁mechanical	-11.2873
▁mortality	-11.2874
▁ought	-11.2874
▁hoping	-11.2874
▁underwater	-11.2875
▁dense	-11.2875
▁behaviors	-11.2876
▁nest	-11.2876
▁efficiency	-11.2876
▁infection	-11.2877
▁lying	-11.2879
down	-11.2881
▁stronger	-11.2889
▁organ	-11.2892
maker	-11.2909
▁ancestors	-11.2912
rin	-11.2935
▁evolve	-11.2939
▁constant	-11.2946
▁dramatic	-11.2953
▁Science	-11.2953
▁Valley	-11.2953
▁policies	-11.2953
▁repair	-11.2953
▁housing	-11.2953
▁pill	-11.2954
▁angle	-11.2955
▁processing	-11.2959
▁section	-11.2971
ridge	-11.2974
foot	-11.2975
life	-11.2978
▁diver	-11.2981
bal	-11.2998
▁aging	-11.3012
▁features	-11.3014
▁talent	-11.3018
▁emerge	-11.3018
▁needle	-11.3024
▁sports	-11.3027
▁apparent	-11.3034
▁afternoon	-11.3034
▁murder	-11.3034
▁storm	-11.3034
▁lens	-11.3034
▁behave	-11.3034
▁microscope	-11.3034
▁Nobody	-11.3034
▁Also	-11.3034
▁flash	-11.3035
▁dropped	-11.3035
▁authority	-11.3036
▁bug	-11.3037
▁scared	-11.3052
▁printing	-11.3057
ou	-11.3067
▁split	-11.307
▁clock	-11.3071
▁institution	-11.3072
▁cast	-11.3073
▁driven	-11.3075
▁recording	-11.3085
▁Per	-11.3086
▁musical	-11.3087
▁environments	-11.3098
▁fascinat	-11.3098
▁remains	-11.31
▁notes	-11.3109
van	-11.3111
▁illness	-11.3113
▁drill	-11.3115
▁visible	-11.3115
▁swimming	-11.3115
▁unknown	-11.3116
▁Paris	-11.3116
▁clothes	-11.3116
▁improvement	-11.3118
▁PM	-11.3119
▁surrounded	-11.3124
▁Will	-11.3127
mber	-11.3135
ough	-11.3135
▁partners	-11.3145
back	-11.3149
ise	-11.3161
▁hits	-11.3166
▁comfort	-11.3167
xi	-11.3179
▁officer	-11.3186
▁Du	-11.3187
uring	-11.3188
▁explained	-11.3192
▁admit	-11.3197
▁CEO	-11.3197
▁advice	-11.3197
▁challenging	-11.3197
▁deserve	-11.3197
▁intense	-11.3197
▁literature	-11.3197
▁stretch	-11.3197
▁grass	-11.3197
▁Talk	-11.3197
▁wound	-11.3197
▁terrorism	-11.3198
worm	-11.3199
▁pl	-11.3199
▁wine	-11.3205
▁equally	-11.3212
▁percentage	-11.3216
▁singing	-11.3217
▁Tom	-11.3224
nes	-11.3228
▁agreed	-11.3229
▁weigh	-11.3236
▁functional	-11.3242
▁organism	-11.3244
▁photographs	-11.3255
▁extend	-11.3264
az	-11.3269
hor	-11.3271
lus	-11.3273
▁chose	-11.3276
▁vo	-11.3277
▁club	-11.328
▁cluster	-11.328
▁Project	-11.328
▁telephone	-11.328
▁psychology	-11.328
▁sunlight	-11.3281
▁sail	-11.3282
▁pile	-11.3282
▁exhibition	-11.3283
ern	-11.3289
▁Ni	-11.329
▁functions	-11.3293
▁tested	-11.3301
▁meal	-11.3309
▁younger	-11.3326
▁shock	-11.333
▁pal	-11.3331
▁largely	-11.3333
mate	-11.3343
▁fingers	-11.3359
▁horrible	-11.3363
▁memories	-11.3363
▁shadow	-11.3363
▁smoke	-11.3363
▁thick	-11.3363
▁occurred	-11.3363
▁promote	-11.3363
▁transportation	-11.3365
▁Red	-11.3366
teen	-11.337
▁sides	-11.3376
▁sensitive	-11.338
▁circumstances	-11.3389
▁puts	-11.339
▁neighbor	-11.3399
▁applications	-11.3404
▁worker	-11.3417
▁Har	-11.3421
▁runs	-11.3425
▁beach	-11.3427
grade	-11.3431
▁kick	-11.3431
▁contribute	-11.3432
▁acting	-11.3435
lock	-11.3443
▁keeps	-11.3446
▁reject	-11.3447
▁contrast	-11.3447
▁cortex	-11.3447
▁paradigm	-11.3447
▁exploration	-11.3447
▁marine	-11.3447
▁sensors	-11.3447
▁spiritual	-11.3447
▁greenhouse	-11.3448
▁Latin	-11.3448
▁wireless	-11.3448
▁selection	-11.3448
▁bond	-11.3448
▁download	-11.345
▁cry	-11.3453
▁busy	-11.3457
▁mistakes	-11.3457
▁infected	-11.3458
cle	-11.3468
making	-11.3476
▁aspect	-11.3484
▁nor	-11.3488
▁tonight	-11.3494
▁Pen	-11.3496
▁style	-11.3499
▁tie	-11.35
▁dress	-11.3516
▁abstract	-11.3524
fish	-11.3529
▁desk	-11.3532
▁chapter	-11.3532
▁GPS	-11.3532
▁September	-11.3532
▁Unfortunately	-11.3532
▁flew	-11.3532
▁Health	-11.3532
▁boring	-11.3533
▁steal	-11.3535
▁Five	-11.354
▁confidence	-11.3542
being	-11.3545
▁apple	-11.3552
Look	-11.3559
▁Only	-11.3568
▁amounts	-11.3573
▁tech	-11.3581
ani	-11.3585
state	-11.3585
▁borders	-11.3589
▁falling	-11.3598
▁stayed	-11.3601
net	-11.3606
▁electronic	-11.3617
▁revenue	-11.3617
▁depth	-11.3617
▁vertical	-11.3617
▁presence	-11.3617
▁Number	-11.3617
▁angry	-11.3617
emember	-11.3618
▁rush	-11.3618
▁sustainability	-11.3618
▁House	-11.3618
▁resistance	-11.3618
▁commitment	-11.3618
▁attend	-11.3624
▁secure	-11.3632
▁combined	-11.3639
▁proteins	-11.3645
▁defined	-11.3648
▁evening	-11.3651
▁upper	-11.3655
▁file	-11.3669
▁tracking	-11.3671
aging	-11.3683
ale	-11.3687
▁entrepreneurs	-11.3689
▁suppose	-11.3689
▁options	-11.3692
ew	-11.3703
▁Adam	-11.3705
▁cord	-11.3705
▁capitalism	-11.3705
▁Final	-11.3706
▁gut	-11.3706
▁overall	-11.3714
▁Bro	-11.3714
▁seek	-11.3717
▁wash	-11.3725
▁guide	-11.3732
▁par	-11.3735
pping	-11.3741
▁Th	-11.3743
▁expert	-11.3745
▁parking	-11.3748
vin	-11.3752
▁ill	-11.3756
▁figures	-11.3758
▁odd	-11.376
▁flower	-11.3774
▁lift	-11.3775
▁theme	-11.3775
▁allowing	-11.3775
▁al	-11.3787
▁unlike	-11.3788
▁Green	-11.379
▁favor	-11.379
▁motivation	-11.3791
▁parallel	-11.3791
▁Wikipedia	-11.3791
▁bicycle	-11.3791
▁hill	-11.3791
▁somewhat	-11.3792
▁cents	-11.3792
▁para	-11.3804
▁thoughts	-11.3809
▁controlled	-11.3812
▁marketing	-11.3813
▁fixed	-11.383
▁closely	-11.3841
▁inspire	-11.3864
▁trans	-11.3866
▁Egypt	-11.3873
▁flood	-11.3878
▁grandfather	-11.3878
▁Angeles	-11.3879
▁humor	-11.388
▁boom	-11.388
ong	-11.3881
▁mice	-11.3883
▁pool	-11.3883
hop	-11.3893
▁cooking	-11.39
▁Tra	-11.3904
▁hero	-11.3912
▁provided	-11.392
▁roads	-11.3922
▁signed	-11.3925
▁mad	-11.393
rop	-11.3935
▁rocks	-11.3943
▁records	-11.3962
▁Global	-11.3967
▁centuries	-11.3967
▁laboratory	-11.3967
▁Something	-11.3967
▁therapy	-11.3967
▁birthday	-11.3967
her	-11.3976
chan	-11.3976
read	-11.3977
▁solving	-11.3981
▁logic	-11.3986
▁burning	-11.399
▁establish	-11.3997
house	-11.3998
hr	-11.4012
▁architect	-11.4012
▁application	-11.4013
▁chip	-11.4015
▁Mark	-11.402
▁bones	-11.4031
▁measured	-11.4034
▁ear	-11.404
▁Fe	-11.405
▁invite	-11.4052
▁demo	-11.4053
▁senses	-11.4054
▁Pacific	-11.4056
▁discipline	-11.4056
▁struck	-11.4056
▁march	-11.4056
▁Obama	-11.4056
ult	-11.4056
▁US	-11.4063
▁database	-11.4075
American	-11.4087
aving	-11.4097
▁educational	-11.4106
▁existed	-11.4106
ria	-11.4109
▁customers	-11.4129
▁convert	-11.413
▁Gi	-11.4136
▁Abou	-11.414
▁Museum	-11.4146
▁causing	-11.4146
▁hormone	-11.4146
▁ladies	-11.4146
▁acid	-11.4147
▁Apple	-11.4147
▁lifestyle	-11.4148
▁Ya	-11.4171
▁Sea	-11.4175
▁deaths	-11.4185
▁faced	-11.419
▁algorithm	-11.4196
▁destroy	-11.4204
ose	-11.4217
▁outcomes	-11.4223
▁domestic	-11.4237
▁trigger	-11.4237
▁diagram	-11.4237
▁emergency	-11.4237
▁piano	-11.4237
▁extent	-11.4237
▁Robert	-11.4237
▁transfer	-11.4237
matic	-11.4238
▁cheat	-11.424
called	-11.4244
▁pot	-11.4248
▁Com	-11.4248
▁boxes	-11.4251
▁photographer	-11.4261
▁breathing	-11.4263
gy	-11.4269
▁songs	-11.4285
▁truck	-11.4288
▁technique	-11.4288
▁feeding	-11.4289
▁rely	-11.4289
▁wh	-11.429
▁pin	-11.4297
▁Ru	-11.4307
▁Christmas	-11.4329
▁narrow	-11.4329
▁transplant	-11.4329
▁unexpected	-11.4329
▁scenario	-11.4329
▁barrier	-11.4329
▁hook	-11.4329
▁Congo	-11.433
▁floating	-11.434
▁journalist	-11.4341
▁classes	-11.4342
▁guard	-11.4343
▁destroyed	-11.4345
▁concern	-11.4364
▁offered	-11.4366
▁transformed	-11.4369
▁creature	-11.4382
onic	-11.4389
▁economists	-11.44
▁poster	-11.4402
▁wars	-11.4416
▁seal	-11.4419
▁dive	-11.442
etic	-11.4421
▁courage	-11.4421
▁Frank	-11.4421
▁Thomas	-11.4421
▁economies	-11.4421
▁engaging	-11.4421
▁globe	-11.4421
▁identical	-11.4421
▁library	-11.4421
▁Basically	-11.4421
▁animation	-11.4421
▁Everyone	-11.4422
▁June	-11.4423
▁owner	-11.4423
▁raw	-11.4423
▁mode	-11.4423
▁fluid	-11.4423
▁villages	-11.4435
▁welcome	-11.4437
▁Bra	-11.4437
▁army	-11.4446
hour	-11.4461
▁ears	-11.4466
▁pushing	-11.4466
▁aspects	-11.4474
▁vessels	-11.4494
ges	-11.451
▁flip	-11.4512
▁correspond	-11.4515
▁conclude	-11.4515
▁corporate	-11.4515
▁judgment	-11.4515
▁reserve	-11.4515
▁carried	-11.4515
▁shall	-11.4515
▁regime	-11.4515
▁Martin	-11.4516
▁samples	-11.4517
▁Jim	-11.4517
▁Get	-11.4518
▁cable	-11.4524
▁hyper	-11.4528
zo	-11.4531
▁meme	-11.4535
▁implications	-11.4545
ax	-11.4545
▁subjects	-11.4545
▁wherever	-11.455
verse	-11.4553
ump	-11.4561
▁channel	-11.4571
▁standards	-11.4575
▁Boy	-11.4582
▁continued	-11.4584
▁careful	-11.4608
▁genius	-11.4609
▁medication	-11.4609
▁frankly	-11.4609
▁measuring	-11.4609
▁renewable	-11.4609
▁session	-11.4609
▁compound	-11.4609
▁minister	-11.4609
▁dramatically	-11.461
▁Union	-11.4612
▁White	-11.4612
▁limits	-11.4614
▁plans	-11.4628
▁films	-11.464
▁drinking	-11.464
▁whales	-11.4645
▁represented	-11.4645
Yeah	-11.4646
press	-11.4648
box	-11.4649
▁stands	-11.4664
▁flowers	-11.4664
▁disorder	-11.4667
▁monkey	-11.4667
▁Star	-11.4676
▁edit	-11.468
efore	-11.4685
▁presented	-11.4688
▁refer	-11.4691
▁profit	-11.4692
▁aim	-11.4694
▁January	-11.4704
▁defense	-11.4704
▁grateful	-11.4704
▁neither	-11.4704
▁suspect	-11.4704
▁thumb	-11.4704
▁defend	-11.4704
▁trace	-11.4705
▁sweat	-11.4705
▁footprint	-11.4705
▁cosm	-11.4709
hood	-11.4715
▁anger	-11.4732
▁whale	-11.4765
▁beside	-11.4766
▁Island	-11.4767
▁males	-11.4768
▁dozen	-11.477
type	-11.4782
▁Korea	-11.479
▁lock	-11.479
▁clue	-11.4801
▁recognition	-11.4801
▁automatically	-11.4801
▁engagement	-11.4803
▁asset	-11.4803
▁distributed	-11.4806
Y	-11.4816
▁pan	-11.4832
▁painful	-11.4837
stream	-11.4838
ending	-11.4849
▁telescope	-11.4862
▁spreading	-11.4866
▁arguments	-11.4874
ological	-11.4892
▁Greek	-11.4898
▁regret	-11.4898
▁strike	-11.4898
▁crucial	-11.4898
▁vital	-11.4898
▁pace	-11.4898
▁reduction	-11.4898
ivity	-11.4898
▁committed	-11.4898
▁overcome	-11.4898
▁lake	-11.4899
▁instruments	-11.49
▁precisely	-11.4903
▁portrait	-11.4906
▁falls	-11.4922
▁Please	-11.4923
▁linked	-11.4929
▁tune	-11.4937
▁architects	-11.4945
▁performing	-11.4946
▁cartoon	-11.495
eek	-11.495
mark	-11.4951
▁teams	-11.4952
level	-11.4953
▁traveled	-11.4958
▁component	-11.4961
▁lung	-11.4962
▁colleague	-11.4962
▁dig	-11.4968
▁papers	-11.4978
▁behavioral	-11.4985
▁proportion	-11.4996
▁heaven	-11.4996
▁dancing	-11.4996
▁drove	-11.4996
▁obsessed	-11.4996
▁preserve	-11.4996
▁senior	-11.4996
▁silent	-11.4996
▁agenda	-11.4996
▁salt	-11.4996
▁ticket	-11.4997
▁Sweden	-11.4997
▁interactive	-11.4998
ase	-11.5012
▁shooting	-11.502
▁conventional	-11.5023
▁tro	-11.5023
▁mate	-11.5027
▁spin	-11.5028
oid	-11.5031
▁achieved	-11.5032
▁classic	-11.5037
▁savings	-11.5043
▁poet	-11.5045
▁gather	-11.5057
▁clouds	-11.5058
▁mammals	-11.5072
▁empower	-11.5077
▁rescue	-11.508
▁melt	-11.508
My	-11.5093
▁Central	-11.5095
▁Ghana	-11.5095
▁illustrate	-11.5095
▁insurance	-11.5095
▁polio	-11.5095
▁pregnant	-11.5095
▁elite	-11.5095
▁Gulf	-11.5095
▁resident	-11.5095
▁geo	-11.5095
▁laser	-11.5096
▁diverse	-11.5097
▁pollen	-11.5097
▁hunger	-11.5097
▁poorest	-11.51
▁dust	-11.5101
▁scary	-11.5101
▁tired	-11.5102
▁Act	-11.5118
avi	-11.5121
▁shelter	-11.5125
▁shell	-11.5136
▁electron	-11.5155
well	-11.5155
▁Was	-11.5168
▁rooms	-11.5175
▁consume	-11.5176
hen	-11.5187
▁wa	-11.5194
▁column	-11.5195
▁philosopher	-11.5195
▁Foundation	-11.5195
▁Next	-11.5195
▁Voice	-11.5195
▁enemy	-11.5195
▁exploring	-11.5195
▁external	-11.5195
▁stereo	-11.5195
▁River	-11.5196
▁immune	-11.5197
▁colony	-11.5197
▁comic	-11.5197
▁objective	-11.5198
▁verb	-11.5199
▁mentor	-11.52
▁controlling	-11.5202
▁consistent	-11.5203
▁personality	-11.5203
▁methods	-11.5212
▁Give	-11.5214
▁windows	-11.5218
▁Wal	-11.5226
law	-11.5234
Okay	-11.5237
▁prop	-11.5239
▁absorb	-11.5241
ica	-11.5242
▁disc	-11.5245
▁fi	-11.5251
▁increases	-11.5253
rid	-11.5253
▁brothers	-11.527
phy	-11.5279
▁vaccines	-11.528
zi	-11.5288
▁liver	-11.5291
▁guarantee	-11.5296
▁Microsoft	-11.5296
▁chocolate	-11.5296
▁earthquake	-11.5296
▁knock	-11.5296
▁miracle	-11.5296
▁recommend	-11.5296
▁strategies	-11.5296
▁implant	-11.5296
▁leap	-11.5296
▁gray	-11.5297
▁Ed	-11.5297
▁spinal	-11.53
▁golf	-11.5302
▁lit	-11.532
▁mainly	-11.5324
▁exam	-11.5329
▁Par	-11.5336
▁collecting	-11.5356
▁connecting	-11.5358
▁fabric	-11.5365
▁tri	-11.5367
▁citizen	-11.5368
bar	-11.5372
▁Pri	-11.5378
dom	-11.5387
▁brief	-11.539
rick	-11.5397
▁Space	-11.5398
▁blame	-11.5398
▁philosophy	-11.5398
▁suicide	-11.5398
▁universities	-11.5398
▁embedded	-11.5398
▁mystery	-11.5398
▁Revolution	-11.5398
▁tight	-11.5398
▁stack	-11.54
isolated	-11.5401
▁barely	-11.5401
▁boss	-11.5404
▁properly	-11.5404
▁shake	-11.5409
fully	-11.5412
▁Min	-11.5418
▁removed	-11.5424
▁youth	-11.5426
▁placed	-11.5427
▁disorders	-11.5438
▁cute	-11.5438
▁spec	-11.5448
tech	-11.5448
▁printer	-11.5466
ney	-11.5468
▁struggl	-11.5471
▁Lab	-11.5485
ulate	-11.5487
▁efforts	-11.549
▁Higgs	-11.5501
▁romantic	-11.5501
▁grave	-11.5501
▁Nations	-11.5501
▁adventure	-11.5501
▁rising	-11.5501
▁hip	-11.5501
▁household	-11.5502
▁cash	-11.5503
▁Bush	-11.5504
▁Six	-11.5504
▁tries	-11.5505
▁darkness	-11.5508
▁coin	-11.552
▁Pole	-11.5521
▁crying	-11.5522
▁missed	-11.5523
▁populations	-11.5525
▁sets	-11.5527
▁brave	-11.5536
wn	-11.5539
▁optimistic	-11.554
▁interacting	-11.5545
bit	-11.5546
century	-11.5546
lit	-11.555
▁imagined	-11.5552
▁treating	-11.5564
ush	-11.5567
▁acts	-11.5573
▁elephant	-11.5577
▁grows	-11.5592
▁units	-11.5593
▁Ethiopia	-11.5605
▁procedure	-11.5605
▁Manhattan	-11.5605
▁curiosity	-11.5605
▁frog	-11.5605
▁raising	-11.5605
▁recruit	-11.5605
▁appeal	-11.5605
▁asteroid	-11.5605
▁pretend	-11.5605
▁till	-11.5606
▁Haiti	-11.5606
▁orange	-11.5606
▁Peter	-11.5609
▁directions	-11.5611
▁cheaper	-11.5615
▁depending	-11.5632
▁seed	-11.5633
▁produces	-11.5633
ught	-11.5634
▁ste	-11.5635
▁magnetic	-11.5636
▁antibiotics	-11.5648
▁tasks	-11.5649
▁pray	-11.5651
class	-11.5653
But	-11.5656
▁gate	-11.5674
▁Bur	-11.5676
▁Ge	-11.5682
▁appears	-11.5683
cap	-11.5687
▁globally	-11.5692
▁consumers	-11.5695
▁writer	-11.5702
▁involves	-11.5708
▁description	-11.571
▁facial	-11.571
▁passenger	-11.571
▁plenty	-11.571
▁regulation	-11.571
▁simulation	-11.571
▁stroke	-11.571
▁International	-11.571
▁Texas	-11.571
▁hardware	-11.571
▁cyber	-11.571
▁federal	-11.571
▁debt	-11.571
▁tuna	-11.571
▁domain	-11.571
▁hungry	-11.5711
▁productivity	-11.5711
ologists	-11.5711
▁Super	-11.5713
▁Jack	-11.5713
▁heroes	-11.5714
▁tower	-11.5715
▁muscles	-11.5717
▁recovery	-11.5719
ndeed	-11.5719
▁Africans	-11.5719
▁oldest	-11.5723
▁rhythm	-11.5724
▁resolution	-11.5728
▁divided	-11.573
gging	-11.5738
▁corals	-11.574
▁pit	-11.5747
▁monkeys	-11.5752
play	-11.5757
▁seeds	-11.5758
▁interactions	-11.5761
Let	-11.5765
▁wage	-11.5767
▁mega	-11.5767
cop	-11.577
par	-11.5774
active	-11.5781
▁sales	-11.5782
▁reaching	-11.5787
syn	-11.58
▁rough	-11.581
▁quit	-11.5814
▁Rwanda	-11.5817
▁district	-11.5817
▁request	-11.5817
▁ceiling	-11.5817
▁density	-11.5817
▁leak	-11.5817
▁wrap	-11.5817
▁scratch	-11.5817
▁High	-11.5817
mplicity	-11.5817
▁partnership	-11.5817
▁chest	-11.5819
▁Islamic	-11.5819
▁representation	-11.5821
▁dial	-11.5821
▁mail	-11.5822
▁latest	-11.5826
▁Russian	-11.5834
▁volunteers	-11.5841
▁fa	-11.5847
▁killer	-11.5848
pped	-11.5851
▁intention	-11.5855
▁reported	-11.5857
▁wise	-11.5868
▁aside	-11.5878
▁searching	-11.5883
▁penguins	-11.5884
▁Pe	-11.5892
▁volunteer	-11.5899
▁neighborhoods	-11.5904
▁alter	-11.5909
▁crops	-11.591
▁hearts	-11.5914
olds	-11.5915
▁label	-11.5916
ways	-11.5919
▁corn	-11.5922
▁brown	-11.5924
▁candidate	-11.5924
▁liberal	-11.5924
▁demographic	-11.5924
▁dioxide	-11.5924
▁elsewhere	-11.5924
▁fulfill	-11.5924
▁Stanford	-11.5924
▁borrow	-11.5924
▁Grand	-11.5925
▁stake	-11.5926
▁upset	-11.5926
▁herself	-11.5927
▁banks	-11.5933
run	-11.5936
stone	-11.5944
▁Ah	-11.5948
▁laughing	-11.5951
▁arch	-11.5954
ov	-11.5958
▁lovely	-11.5972
▁pushed	-11.5975
▁auto	-11.6
bro	-11.6002
▁polar	-11.6007
▁meetings	-11.6009
▁particle	-11.601
▁arrive	-11.6018
Don	-11.602
▁cart	-11.6027
▁Sch	-11.6027
▁capita	-11.6031
▁Black	-11.6033
▁Department	-11.6033
▁Hollywood	-11.6033
▁adjust	-11.6033
▁furniture	-11.6033
▁obesity	-11.6033
▁ridiculous	-11.6033
▁skull	-11.6033
▁expectations	-11.6033
▁textbook	-11.6033
▁subtle	-11.6033
▁entertainment	-11.6033
▁accessible	-11.6034
▁airport	-11.6035
▁usual	-11.6039
▁stations	-11.6043
▁distant	-11.6045
▁scar	-11.6045
ez	-11.6049
▁walks	-11.6055
▁practices	-11.6058
▁fr	-11.6063
pur	-11.6065
▁prices	-11.6073
dollar	-11.6084
oe	-11.609
▁rebuild	-11.6093
▁Cal	-11.6098
▁van	-11.6103
▁Lad	-11.6105
cellular	-11.6105
▁bend	-11.6117
▁paintings	-11.612
▁weapon	-11.6121
▁Dur	-11.6127
▁hire	-11.6129
▁radi	-11.613
▁extinct	-11.6137
▁William	-11.6143
▁gesture	-11.6143
▁mushroom	-11.6143
▁bulb	-11.6143
▁dignity	-11.6143
▁mimic	-11.6143
▁pursue	-11.6143
▁sandwich	-11.6143
▁spectacular	-11.6143
▁underground	-11.6143
▁mutation	-11.6143
▁Nobel	-11.6144
▁opposed	-11.6145
▁Bang	-11.6148
▁dedicated	-11.615
▁concepts	-11.615
▁uncomfortabl	-11.6154
▁Law	-11.6155
dia	-11.6156
▁Pat	-11.6166
ya	-11.6177
▁rat	-11.6178
▁visited	-11.6197
posing	-11.6205
▁iron	-11.6211
▁Bay	-11.6214
▁incentives	-11.6229
uro	-11.6234
▁rap	-11.6243
▁conduct	-11.625
▁chief	-11.6254
▁concert	-11.6254
▁charity	-11.6254
▁cousin	-11.6254
▁frozen	-11.6254
▁legacy	-11.6254
▁surveillance	-11.6254
▁Nothing	-11.6254
▁demonstration	-11.6257
▁settle	-11.6257
▁dirty	-11.6257
▁exposed	-11.626
▁locked	-11.6273
▁rent	-11.6273
dor	-11.6277
▁parties	-11.6281
▁craft	-11.6284
place	-11.6311
▁slides	-11.6312
▁Pre	-11.6319
▁collaborat	-11.6322
ino	-11.6325
▁cop	-11.6328
▁indicate	-11.6337
▁ethical	-11.634
▁ga	-11.6354
▁meter	-11.6364
▁Olympic	-11.6366
▁disgust	-11.6366
▁orchestra	-11.6366
▁skeleton	-11.6366
▁Atlantic	-11.6366
▁confident	-11.6366
▁pyramid	-11.6366
▁conservative	-11.6366
▁General	-11.6367
▁spill	-11.6367
▁wings	-11.6369
▁hardly	-11.6369
▁bless	-11.637
▁breaking	-11.6375
▁norm	-11.6378
▁fifth	-11.6379
▁replicate	-11.6389
▁tent	-11.6391
▁generated	-11.6413
tail	-11.6429
cation	-11.6438
▁protecting	-11.644
▁plug	-11.6446
ix	-11.645
identified	-11.6458
▁wanting	-11.6477
▁kilo	-11.648
▁Woman	-11.648
▁diabetes	-11.648
▁intuitive	-11.648
▁yield	-11.648
▁array	-11.648
▁twin	-11.648
▁proper	-11.648
▁governance	-11.648
▁dump	-11.6481
▁slip	-11.6482
▁DH	-11.6483
▁Really	-11.6484
▁affordable	-11.6484
▁chosen	-11.6485
▁Rio	-11.6486
iness	-11.6487
▁compar	-11.6495
▁editor	-11.6495
▁refugees	-11.6497
▁Far	-11.6501
some	-11.6502
▁Rob	-11.6504
ok	-11.6505
▁provides	-11.6511
▁investing	-11.652
▁layers	-11.6535
▁bother	-11.6541
▁nurse	-11.6553
▁fe	-11.6556
▁Ch	-11.656
▁Mary	-11.6562
▁surely	-11.6565
▁focusing	-11.6577
▁refugee	-11.6578
lut	-11.6578
▁icon	-11.6593
▁calculation	-11.6595
▁sketch	-11.6595
▁dominant	-11.6595
▁transparent	-11.6595
▁transparency	-11.6595
▁neck	-11.6595
▁Turn	-11.6595
▁ugly	-11.6595
▁synthetic	-11.6595
▁backwards	-11.6595
▁football	-11.6595
▁sheep	-11.6595
▁mold	-11.6596
▁fool	-11.6596
▁initiative	-11.6597
▁restore	-11.6598
▁delight	-11.6598
▁Back	-11.6602
▁Joe	-11.6602
▁tears	-11.6603
▁spoken	-11.6603
▁integrated	-11.6603
▁granted	-11.6604
▁drawn	-11.6609
▁pink	-11.6611
berg	-11.6613
ggle	-11.6617
▁axis	-11.6619
▁beliefs	-11.6624
▁printed	-11.6627
ker	-11.6645
▁hat	-11.6662
▁impacts	-11.6675
▁Mor	-11.669
▁dolphins	-11.67
▁initial	-11.6704
lip	-11.6709
▁transmit	-11.671
▁regard	-11.6711
▁Research	-11.6711
▁combat	-11.6711
▁freak	-11.6711
▁reconstruct	-11.6711
▁chaos	-11.6711
▁cooperation	-11.6711
▁helicopter	-11.6711
▁inspiring	-11.6711
▁poison	-11.6711
▁profile	-11.6711
▁rainforest	-11.6711
▁Tell	-11.6711
▁spark	-11.6711
▁programming	-11.6711
▁leverage	-11.6712
▁agencies	-11.6712
▁pipe	-11.6713
▁achievement	-11.6714
▁ensure	-11.6716
▁Never	-11.6717
▁surrounding	-11.6723
▁Tru	-11.6724
▁realm	-11.6736
▁magical	-11.6753
▁characteristics	-11.6767
▁ingredients	-11.6778
▁touched	-11.679
▁donor	-11.6791
▁Pu	-11.6792
▁Bob	-11.6796
▁Muslims	-11.6801
ncies	-11.6804
▁Age	-11.6814
▁terrorist	-11.6815
▁uncle	-11.6816
▁rapid	-11.6822
▁inventor	-11.6824
▁tele	-11.6824
▁addict	-11.6825
▁interpret	-11.6827
▁margin	-11.6829
▁Narrator	-11.6829
▁Ocean	-11.6829
▁Smith	-11.6829
▁essence	-11.6829
▁intuition	-11.6829
▁naked	-11.6829
▁tragedy	-11.6829
▁jet	-11.6829
▁neuroscience	-11.6829
▁boundaries	-11.6829
▁shore	-11.6829
▁northern	-11.6829
▁alarm	-11.6829
▁liberat	-11.6829
▁plain	-11.6829
▁Antarctica	-11.6829
▁gear	-11.683
▁lamp	-11.683
▁laughter	-11.6831
▁contains	-11.6831
▁anxiety	-11.6835
▁tricks	-11.6836
▁amongst	-11.6838
▁drivers	-11.6843
▁tied	-11.685
▁bound	-11.6863
▁package	-11.6871
▁Make	-11.6889
free	-11.6901
fore	-11.691
q	-11.6925
▁clients	-11.693
▁neuron	-11.6939
▁decrease	-11.6948
▁instinct	-11.6948
▁twist	-11.6948
▁October	-11.6948
▁Uganda	-11.6948
▁breakthrough	-11.6948
▁enhance	-11.6948
▁neural	-11.6948
▁symmetry	-11.6948
▁tackle	-11.6948
▁output	-11.6948
▁Things	-11.6948
▁bump	-11.6949
▁stable	-11.6949
▁discoveries	-11.6951
▁pose	-11.6951
▁Bible	-11.6952
▁farmer	-11.6954
▁extinction	-11.6955
▁diagnosed	-11.6956
▁survivor	-11.6957
▁actors	-11.6957
▁autonomous	-11.6962
▁fortune	-11.6969
▁letting	-11.6972
▁hanging	-11.6979
▁served	-11.6981
▁proof	-11.6982
▁communications	-11.6989
▁projection	-11.6996
▁passing	-11.6997
▁reduced	-11.6997
▁experimental	-11.7002
▁additional	-11.7004
fold	-11.7014
▁doors	-11.703
▁dish	-11.7036
▁scales	-11.7044
▁hid	-11.705
▁coat	-11.7055
▁lawyer	-11.7057
▁victim	-11.7057
▁consequence	-11.7057
▁neuro	-11.7064
▁commit	-11.7067
▁Alzheimer	-11.7068
▁Jewish	-11.7068
▁advertising	-11.7068
▁contribution	-11.7068
▁ethnic	-11.7068
▁mechanics	-11.7068
▁probability	-11.7068
▁reputation	-11.7068
▁shrimp	-11.7068
▁smooth	-11.7068
▁tragic	-11.7068
▁mood	-11.7068
▁kiss	-11.7068
▁sharp	-11.7068
▁advis	-11.7069
▁theories	-11.7069
▁permission	-11.7069
▁slavery	-11.7069
▁laid	-11.7071
▁acknowledge	-11.7081
▁None	-11.7083
▁nurses	-11.7088
▁richer	-11.7089
▁speaker	-11.7091
▁dependent	-11.71
cher	-11.7102
▁Hol	-11.7107
▁lungs	-11.7111
▁painted	-11.7113
rum	-11.7118
war	-11.7123
▁bow	-11.7128
ular	-11.7138
▁discuss	-11.7149
▁instant	-11.7154
▁trends	-11.7164
▁Mac	-11.7174
▁nano	-11.7174
▁picking	-11.7178
▁physicist	-11.718
▁strangers	-11.7183
▁agricultural	-11.719
▁civic	-11.719
▁concentration	-11.719
▁explosion	-11.719
▁recipe	-11.719
▁relax	-11.719
▁whistle	-11.719
▁participation	-11.719
▁convey	-11.719
▁spell	-11.719
▁comparison	-11.719
▁baseball	-11.719
▁queen	-11.7191
▁aircraft	-11.7191
▁slice	-11.7191
hether	-11.7191
▁Mother	-11.7192
▁tick	-11.7192
▁punch	-11.7192
ound	-11.7198
▁relations	-11.7199
▁gases	-11.7206
unclear	-11.7206
▁pie	-11.7208
▁dear	-11.7209
gon	-11.7215
▁educated	-11.7221
▁landed	-11.7227
▁failing	-11.7231
▁agency	-11.7234
▁x	-11.7234
▁dozens	-11.7237
▁Wall	-11.7239
▁threaten	-11.7241
load	-11.725
▁returned	-11.7257
▁ratio	-11.726
▁suggesting	-11.7263
▁mechanisms	-11.728
▁fuels	-11.7287
▁Ko	-11.7289
▁conflicts	-11.7292
▁musicians	-11.7296
▁electro	-11.7297
▁pour	-11.7298
▁roots	-11.7303
▁relation	-11.7305
▁hy	-11.7305
▁Third	-11.7314
▁alcohol	-11.7314
▁glacier	-11.7314
▁routine	-11.7314
▁smoking	-11.7314
▁substance	-11.7314
▁threw	-11.7314
▁broadcast	-11.7314
▁southern	-11.7314
▁capability	-11.7314
▁persist	-11.7315
▁attractive	-11.7315
▁east	-11.7315
▁highlight	-11.7318
lace	-11.7319
▁sensory	-11.732
▁briefly	-11.7323
een	-11.7323
aries	-11.7325
▁informed	-11.7329
▁marker	-11.7329
plan	-11.7332
▁rating	-11.7336
▁participants	-11.7336
▁luck	-11.7337
▁pointed	-11.7345
ancy	-11.7345
▁insist	-11.7351
▁separated	-11.7354
▁dynamics	-11.7355
▁coach	-11.7358
▁reminded	-11.736
▁opera	-11.7361
▁log	-11.7364
▁highway	-11.7367
face	-11.7374
▁Ver	-11.7381
▁electronics	-11.7382
▁dimension	-11.7396
gue	-11.7399
▁tear	-11.7402
▁chimpanzees	-11.741
▁Kar	-11.7411
▁assumptions	-11.7415
door	-11.7419
cker	-11.742
So	-11.7421
▁toys	-11.743
▁occasion	-11.7438
▁Blue	-11.7439
▁biodiversity	-11.7439
▁pandemic	-11.7439
▁sacred	-11.7439
▁tunnel	-11.7439
▁Soviet	-11.7439
▁injury	-11.7439
▁flexible	-11.7439
▁afterwards	-11.7439
▁fraction	-11.7439
▁bullet	-11.744
▁winner	-11.744
▁Italy	-11.744
▁merely	-11.7441
▁happier	-11.7441
▁actor	-11.7442
▁rope	-11.7444
▁wipe	-11.7444
▁Egyptian	-11.7446
▁artistic	-11.7447
▁terrorists	-11.7455
▁tension	-11.7458
▁speakers	-11.7466
ken	-11.7468
▁lane	-11.7469
vation	-11.7469
▁Gene	-11.7476
▁Up	-11.749
▁journal	-11.7492
hoo	-11.7505
wise	-11.7506
▁crossing	-11.751
▁sisters	-11.751
▁lighting	-11.7514
late	-11.7517
ologist	-11.7528
▁underly	-11.7553
▁pun	-11.7562
▁reefs	-11.7562
▁branch	-11.7562
▁Child	-11.7565
▁algae	-11.7565
▁disagree	-11.7565
▁facility	-11.7565
▁fragment	-11.7565
▁robust	-11.7565
▁sensation	-11.7565
▁begun	-11.7565
▁glad	-11.7565
▁resist	-11.7565
▁ignorance	-11.7566
▁consist	-11.7566
▁Southern	-11.7566
▁MRI	-11.7566
gin	-11.7569
▁warning	-11.7569
▁grandchildren	-11.757
▁Wa	-11.7571
▁rarely	-11.758
▁linear	-11.7581
▁Ab	-11.7581
▁pathway	-11.7586
▁photography	-11.7587
▁originally	-11.759
▁adding	-11.7595
lf	-11.7597
▁sink	-11.7599
▁elephants	-11.76
▁Part	-11.76
▁circles	-11.7604
▁trauma	-11.7606
▁seats	-11.7607
▁employ	-11.761
▁shopp	-11.7614
▁formula	-11.7626
▁predicted	-11.7629
▁funded	-11.7633
third	-11.7635
▁links	-11.7638
attached	-11.7646
▁soap	-11.7647
▁motivate	-11.7653
▁magnet	-11.7656
▁biologists	-11.7661
▁fed	-11.7661
▁custom	-11.7667
▁Time	-11.7672
▁ecosystems	-11.7674
There	-11.7677
▁predictions	-11.7681
▁dinosaur	-11.769
▁tribes	-11.7692
▁Girl	-11.7694
▁excuse	-11.7694
▁tweet	-11.7694
▁marry	-11.7694
▁transmission	-11.7694
▁portion	-11.7694
▁Eastern	-11.7694
▁installation	-11.7695
▁boil	-11.7698
eat	-11.7709
▁publish	-11.7712
▁ban	-11.7718
away	-11.7719
▁expanding	-11.7724
▁determined	-11.7724
▁Hy	-11.7727
win	-11.7728
▁treatments	-11.773
can	-11.7732
arian	-11.7734
pha	-11.7744
▁edges	-11.7763
▁helpful	-11.7764
▁pulling	-11.7768
cho	-11.7768
clock	-11.7769
▁elections	-11.7783
▁observe	-11.7795
▁fee	-11.7799
▁teenagers	-11.78
ball	-11.78
▁symbols	-11.78
▁construct	-11.7803
▁computation	-11.7804
▁adopt	-11.7805
▁inject	-11.7817
▁inevitabl	-11.7817
▁Mad	-11.782
▁exploit	-11.7822
▁Through	-11.7823
▁aesthetic	-11.7823
▁expedition	-11.7823
▁pioneer	-11.7823
▁signature	-11.7823
▁simulate	-11.7823
▁Design	-11.7823
▁Obviously	-11.7823
▁Oxford	-11.7823
▁Prize	-11.7823
▁abilities	-11.7823
▁anonymous	-11.7823
▁buried	-11.7823
▁depressed	-11.7823
▁origami	-11.7823
▁pause	-11.7823
▁structural	-11.7823
▁translation	-11.7823
▁bathroom	-11.7824
▁fought	-11.7824
▁neat	-11.7824
▁Nature	-11.7824
▁interestingly	-11.7824
▁collaborative	-11.7824
▁Long	-11.7825
▁insect	-11.7826
rctic	-11.7827
▁astonishing	-11.7829
▁frequency	-11.7831
▁wing	-11.7835
▁radically	-11.7837
▁safer	-11.7839
▁smarter	-11.7847
▁pad	-11.7849
▁extended	-11.7849
▁format	-11.7858
▁Mom	-11.7859
power	-11.7881
finite	-11.7894
related	-11.7896
▁navigate	-11.7902
▁profession	-11.7907
▁graphic	-11.7918
▁passwords	-11.792
▁partly	-11.7924
▁implement	-11.7938
▁witness	-11.7938
▁flows	-11.7943
▁govern	-11.7943
▁Inter	-11.7944
▁immediate	-11.7948
▁dose	-11.7948
▁sensor	-11.7949
▁chromosome	-11.7955
▁neutral	-11.7955
▁Florida	-11.7955
▁dialogue	-11.7955
▁garage	-11.7955
▁mysterious	-11.7955
▁primitive	-11.7955
▁wheelchair	-11.7955
▁crystal	-11.7955
▁Gates	-11.7955
▁soldier	-11.7956
▁urge	-11.7956
▁variable	-11.7956
▁mask	-11.7956
▁pole	-11.7956
▁export	-11.7957
▁agreement	-11.7959
▁globalization	-11.796
▁reports	-11.796
▁fastest	-11.796
ueen	-11.7961
▁supported	-11.7964
hold	-11.7968
lash	-11.7972
▁constructed	-11.7972
▁sacrifice	-11.7972
▁significantly	-11.7979
▁Hey	-11.798
ude	-11.7987
▁rip	-11.7995
▁invested	-11.8
cha	-11.8007
▁entering	-11.8007
▁attach	-11.8009
unk	-11.8025
▁peaceful	-11.803
Wow	-11.8031
He	-11.8038
▁Israeli	-11.8045
▁experienc	-11.8064
▁includes	-11.8069
assemble	-11.8073
Can	-11.8074
ji	-11.808
▁vacuum	-11.8088
▁December	-11.8088
▁dictionary	-11.8088
▁fabulous	-11.8088
▁figuring	-11.8088
▁nutrition	-11.8088
▁vagina	-11.8088
▁submit	-11.8088
▁flee	-11.8088
▁Children	-11.8089
▁smartphone	-11.8089
▁infant	-11.8089
▁sauce	-11.8089
▁connectivity	-11.8089
▁assignment	-11.8089
▁tribe	-11.809
▁passive	-11.8091
▁Sal	-11.8097
▁unlikely	-11.81
▁arrested	-11.8101
▁proposed	-11.8102
▁arise	-11.8109
ole	-11.8111
▁gathering	-11.8111
▁reactor	-11.8114
▁translated	-11.8115
▁quo	-11.8121
▁coordinat	-11.8129
pper	-11.8134
▁Tri	-11.8136
▁positions	-11.8159
Where	-11.8166
▁documents	-11.8169
▁bars	-11.8169
▁strand	-11.8173
▁sleeping	-11.8176
▁prisoners	-11.8183
unbelievable	-11.819
made	-11.8203
▁joint	-11.8205
▁involve	-11.8212
wo	-11.8214
announced	-11.8219
▁terror	-11.8222
scribe	-11.8222
assembly	-11.8223
▁shrink	-11.8223
▁eliminate	-11.8223
▁Spanish	-11.8223
▁category	-11.8223
▁expansion	-11.8223
▁forgotten	-11.8223
▁immense	-11.8223
▁scanner	-11.8224
▁fragile	-11.8224
▁investors	-11.8225
▁keyboard	-11.8225
▁Rome	-11.8228
▁Out	-11.8229
▁KB	-11.823
▁operations	-11.8231
▁reef	-11.8232
▁lawyers	-11.8237
▁shocked	-11.825
▁caring	-11.8261
▁mixed	-11.8264
▁daughters	-11.8265
part	-11.8267
▁sew	-11.827
organizing	-11.8283
ote	-11.8284
oli	-11.8287
book	-11.8306
▁stores	-11.831
▁cats	-11.8316
logy	-11.8319
uk	-11.8327
▁answered	-11.8332
▁panels	-11.835
▁fla	-11.8352
▁precise	-11.8353
▁shaped	-11.836
▁gods	-11.836
▁reinvent	-11.836
▁August	-11.836
▁cliff	-11.836
▁drift	-11.836
▁gradually	-11.836
▁industries	-11.836
▁poly	-11.836
▁primarily	-11.836
▁smallpox	-11.836
▁threshold	-11.836
▁intersection	-11.8361
▁imaging	-11.8361
▁kidney	-11.8361
▁Port	-11.8363
▁burst	-11.8364
▁manual	-11.8364
▁impression	-11.8366
▁campus	-11.8366
▁balls	-11.8367
ati	-11.8367
▁competitive	-11.8367
▁Cu	-11.837
▁manipulate	-11.8375
test	-11.8379
aday	-11.8384
▁approaches	-11.8387
▁included	-11.8389
▁nets	-11.839
▁rob	-11.84
▁explode	-11.8401
▁threats	-11.8405
don	-11.8421
half	-11.8422
while	-11.844
When	-11.8441
ima	-11.8447
▁heal	-11.8452
▁dancer	-11.8459
▁drag	-11.8468
▁bears	-11.8469
▁inform	-11.8474
▁hack	-11.8479
▁hum	-11.8484
▁Pol	-11.8488
▁Video	-11.8499
▁aggressive	-11.8499
▁choosing	-11.8499
▁frustrated	-11.8499
▁annual	-11.8499
▁Square	-11.8499
▁rabbi	-11.8499
▁silly	-11.8499
▁Court	-11.8499
▁screw	-11.8499
▁pharmaceutical	-11.8499
▁Italian	-11.8499
▁copyright	-11.85
▁nonprofit	-11.85
▁beetle	-11.85
▁native	-11.85
▁mindset	-11.8503
▁confused	-11.8504
▁damn	-11.8506
▁physician	-11.8506
▁targets	-11.8508
▁egg	-11.8508
▁Hill	-11.8512
Sorry	-11.8515
▁adopted	-11.8517
awa	-11.8521
▁slave	-11.8523
elected	-11.8525
▁accidents	-11.8528
▁wired	-11.8534
▁burned	-11.8535
▁strongly	-11.8542
▁Put	-11.8542
▁difficulty	-11.856
▁trucks	-11.8562
▁Men	-11.8564
▁chips	-11.8568
▁survived	-11.8568
view	-11.8572
▁rivers	-11.8575
ambi	-11.8605
ening	-11.8639
▁ruin	-11.864
▁TEDTalk	-11.864
▁compelling	-11.864
▁ecological	-11.864
▁valley	-11.864
▁whatsoever	-11.864
▁nuts	-11.864
▁pride	-11.864
▁Turkey	-11.864
▁woke	-11.864
▁Norway	-11.864
▁Sunday	-11.8641
▁colonies	-11.8641
▁condom	-11.8641
▁spray	-11.8641
▁shout	-11.8642
▁ending	-11.8642
▁weekend	-11.8643
▁Arabic	-11.8644
▁inches	-11.8644
▁elderly	-11.8645
▁imagery	-11.8648
▁initially	-11.8649
▁satellites	-11.865
▁loan	-11.8652
print	-11.8656
▁surprisingly	-11.8658
▁shine	-11.8668
▁Mill	-11.8669
▁ethic	-11.8673
▁bang	-11.8674
▁climbing	-11.8677
org	-11.8678
▁gli	-11.8689
▁Tim	-11.87
▁arrow	-11.8702
▁hackers	-11.8719
▁award	-11.8728
▁Sen	-11.8731
▁via	-11.8731
▁attribute	-11.8735
▁ate	-11.874
▁bags	-11.8764
▁float	-11.8766
▁bats	-11.8768
▁distinct	-11.8778
▁exhibit	-11.8778
▁Yorker	-11.878
▁Cambridge	-11.8783
▁February	-11.8783
▁closing	-11.8783
▁hypothesis	-11.8783
▁qualities	-11.8783
▁Seven	-11.8783
▁audio	-11.8783
▁automobile	-11.8783
▁leaf	-11.8783
▁emit	-11.8783
▁grasp	-11.8783
▁nutrients	-11.8783
▁quest	-11.8783
▁Brown	-11.8783
▁Somebody	-11.8784
▁crew	-11.8784
▁resilience	-11.8784
▁authorities	-11.8784
▁marketplace	-11.8784
▁pulse	-11.8784
▁interpretation	-11.8785
▁resolve	-11.8785
▁healthier	-11.8787
▁tar	-11.8794
▁wider	-11.8795
▁panel	-11.8796
▁fur	-11.8797
▁sport	-11.8798
▁perceived	-11.8798
bble	-11.88
▁stranger	-11.8808
▁anticipate	-11.8811
▁dar	-11.8819
▁successfully	-11.8819
▁disconnect	-11.8821
new	-11.8821
▁bur	-11.8827
▁suggestion	-11.8832
▁sentences	-11.8839
▁Pan	-11.884
▁jumped	-11.8846
▁covering	-11.8855
▁bin	-11.8857
zero	-11.8871
▁instructions	-11.8874
▁pairs	-11.89
▁Fo	-11.8903
▁perceive	-11.8913
atic	-11.8918
▁caves	-11.892
▁fortunate	-11.8921
▁horizon	-11.8927
▁diploma	-11.8928
▁Ebola	-11.8928
▁Jesus	-11.8928
▁brutal	-11.8928
▁curriculum	-11.8928
▁extension	-11.8928
▁genocide	-11.8928
▁minimum	-11.8928
▁oxytocin	-11.8928
▁parasite	-11.8928
▁serving	-11.8928
▁silver	-11.8928
▁architectural	-11.8928
▁cheese	-11.8928
▁drought	-11.8928
▁microbial	-11.8928
▁reducing	-11.8928
▁crawl	-11.8928
▁drum	-11.8928
▁supermarket	-11.8928
▁lean	-11.8928
▁burden	-11.8928
▁reproduce	-11.8928
▁LED	-11.8928
▁rice	-11.8929
▁Without	-11.893
▁bored	-11.8931
▁footage	-11.8931
▁cake	-11.8932
▁hitting	-11.8933
▁selfish	-11.8933
▁innocent	-11.8935
▁Should	-11.8936
▁dolphin	-11.8941
▁reactions	-11.895
▁logical	-11.8951
▁wealthy	-11.8954
▁emerged	-11.8955
▁metric	-11.8956
take	-11.8961
▁fate	-11.8962
▁writers	-11.8971
▁upside	-11.8979
▁channels	-11.8988
▁Shi	-11.8991
▁Wow	-11.8997
▁affects	-11.8997
▁chat	-11.9022
aba	-11.9027
▁Asian	-11.9034
▁purchase	-11.9046
▁bombs	-11.9058
▁Gen	-11.9069
▁antenna	-11.9075
▁descend	-11.9075
▁pigeon	-11.9075
▁stunt	-11.9075
▁Church	-11.9075
▁bizarre	-11.9075
▁capabilities	-11.9075
▁garbage	-11.9075
▁improving	-11.9075
▁methane	-11.9075
▁optimism	-11.9075
▁register	-11.9075
▁tendency	-11.9075
▁trajectory	-11.9075
▁Play	-11.9075
▁barrel	-11.9075
▁Mountain	-11.9075
▁fraud	-11.9075
▁excitement	-11.9075
▁honey	-11.9075
▁Republican	-11.9076
▁Northern	-11.9076
▁mining	-11.9076
▁representative	-11.9076
▁blend	-11.9076
▁paralyzed	-11.9079
▁March	-11.9079
▁socially	-11.9084
▁Au	-11.9086
▁overwhelming	-11.909
▁profoundly	-11.9095
▁palm	-11.9097
entered	-11.9098
▁prediction	-11.9098
▁institutional	-11.9102
▁Home	-11.9102
Ha	-11.9106
▁suffered	-11.9108
▁unable	-11.9108
▁guns	-11.9121
fire	-11.9122
▁interviewed	-11.9129
▁chairs	-11.9129
▁articles	-11.9131
▁improved	-11.9138
▁incident	-11.9149
oma	-11.915
path	-11.9154
heart	-11.9168
tune	-11.9173
▁tumors	-11.9176
▁Love	-11.9185
▁tissues	-11.9187
▁bubbles	-11.9188
▁embarrass	-11.9207
▁propose	-11.921
▁mayor	-11.921
▁traditions	-11.9212
▁compromise	-11.9224
▁creator	-11.9224
▁trash	-11.9224
oon	-11.9224
▁expertise	-11.9224
▁microphone	-11.9224
▁generous	-11.9225
▁binary	-11.9225
▁unconscious	-11.9225
▁Chile	-11.9226
▁factories	-11.9226
▁Lego	-11.9227
▁appearance	-11.9227
▁duck	-11.9227
▁genetically	-11.9228
▁intended	-11.9233
▁homeless	-11.9239
▁Secondly	-11.9247
ppy	-11.9248
▁washing	-11.9254
▁Chi	-11.9255
▁advocate	-11.9256
▁dumb	-11.9259
▁prepare	-11.9261
wing	-11.9261
ifying	-11.9261
▁drawings	-11.9265
▁detector	-11.9266
▁producer	-11.9269
▁rank	-11.9271
▁bucks	-11.9273
▁applying	-11.9282
▁farming	-11.9282
bed	-11.9289
▁journalists	-11.9291
▁goat	-11.9305
OK	-11.9322
point	-11.9324
mine	-11.9335
▁staying	-11.935
▁select	-11.9357
Who	-11.936
▁exponential	-11.9368
▁bull	-11.9375
▁Bangladesh	-11.9376
▁Silicon	-11.9376
▁distinguish	-11.9376
▁enterprise	-11.9376
▁facilities	-11.9376
▁hemisphere	-11.9376
▁paradox	-11.9376
▁prosperity	-11.9376
▁strategic	-11.9376
▁triangle	-11.9376
▁unprecedented	-11.9376
▁beneath	-11.9376
▁valid	-11.9376
▁clay	-11.9376
▁primate	-11.9376
▁devil	-11.9377
▁simultaneously	-11.9377
▁winning	-11.9377
▁fence	-11.9378
▁quad	-11.9378
▁gentleman	-11.9379
▁hydro	-11.9379
▁homework	-11.9381
▁Miss	-11.9384
▁realizing	-11.9384
▁detection	-11.9385
▁clothing	-11.9386
▁endless	-11.9395
▁viewer	-11.9396
▁collectively	-11.9399
▁crop	-11.9401
coming	-11.9402
▁mineral	-11.9402
▁reasonable	-11.9403
stantly	-11.9404
▁formation	-11.9407
▁Hall	-11.941
▁rape	-11.941
▁fra	-11.941
▁confirm	-11.9414
▁rotate	-11.9429
▁corporations	-11.9435
▁completed	-11.9437
▁accelerate	-11.9444
tories	-11.9456
CA	-11.9464
▁mathematicians	-11.9468
known	-11.9469
cla	-11.9473
▁bath	-11.948
▁beautifully	-11.9485
ink	-11.9487
▁scores	-11.9494
▁educate	-11.9515
▁Although	-11.953
▁Beijing	-11.953
▁FBI	-11.953
▁Titan	-11.953
▁diagnosis	-11.953
▁precious	-11.953
▁Moore	-11.953
▁Derek	-11.953
▁tongue	-11.953
▁contemporary	-11.953
▁forgive	-11.953
▁Saturn	-11.953
▁Albert	-11.953
▁jar	-11.953
▁ownership	-11.953
▁forgot	-11.953
▁rose	-11.953
changing	-11.953
▁dung	-11.9531
scope	-11.9531
ographic	-11.9533
▁compassionate	-11.9534
▁subway	-11.9534
▁golden	-11.9534
▁manner	-11.9536
Wait	-11.9543
▁hired	-11.955
▁client	-11.9552
▁Eric	-11.9554
▁openness	-11.9556
▁gaps	-11.9561
▁delivery	-11.9562
▁manager	-11.9565
▁AB	-11.9569
▁shirt	-11.9574
▁shit	-11.9583
▁classical	-11.9586
▁server	-11.9587
▁profits	-11.9591
▁prior	-11.9596
▁camel	-11.9597
▁ph	-11.9597
bel	-11.9603
▁formal	-11.9626
▁friendly	-11.9629
▁Gore	-11.9648
expectancy	-11.9649
▁sin	-11.9654
▁Free	-11.9656
▁badly	-11.9666
▁challenged	-11.9666
▁continuous	-11.9679
▁expecting	-11.9681
▁sculpt	-11.9686
▁accumulate	-11.9686
▁gallon	-11.9686
▁humanitarian	-11.9686
▁luxury	-11.9686
▁membrane	-11.9686
▁snake	-11.9686
▁striking	-11.9686
▁bribe	-11.9686
▁vaccinat	-11.9686
▁watt	-11.9686
▁Minister	-11.9686
▁wildlife	-11.9686
▁Spain	-11.9687
▁fancy	-11.9687
▁awake	-11.9688
Listen	-11.9688
▁disability	-11.9688
▁friendship	-11.9688
▁dating	-11.9689
▁located	-11.969
▁beaten	-11.9691
▁items	-11.9692
▁morality	-11.9694
▁Both	-11.9697
▁reflection	-11.9697
▁glasses	-11.9698
▁physicists	-11.9699
▁eradicat	-11.9699
▁hunting	-11.9702
▁July	-11.9703
▁hardest	-11.9704
▁Scott	-11.9704
▁relie	-11.9705
▁conducted	-11.9709
▁beating	-11.9709
▁activist	-11.9711
▁musician	-11.9718
▁rats	-11.972
▁wedding	-11.9727
▁Sir	-11.973
▁recall	-11.9732
▁safely	-11.9732
vor	-11.9739
animate	-11.9741
▁photographed	-11.9758
▁odds	-11.977
▁bind	-11.977
▁Bell	-11.9783
efficient	-11.9786
interest	-11.9786
four	-11.9795
▁Pop	-11.9796
cost	-11.981
▁install	-11.9827
▁entrepreneur	-11.9832
▁retire	-11.9844
▁blank	-11.9844
▁communi	-11.9844
▁lever	-11.9844
▁Friday	-11.9845
▁Taliban	-11.9845
▁assistance	-11.9845
▁awkward	-11.9845
▁chamber	-11.9845
▁elegant	-11.9845
▁exposure	-11.9845
▁vulnerability	-11.9845
▁workforce	-11.9845
▁Until	-11.9845
▁geographic	-11.9845
▁interior	-11.9845
▁cotton	-11.9845
▁defeat	-11.9845
▁mobility	-11.9845
▁torture	-11.9845
▁calm	-11.9845
▁impressive	-11.9845
ealand	-11.9846
▁Open	-11.9846
ville	-11.9846
▁flaw	-11.9846
▁unfold	-11.9847
▁mono	-11.9848
▁Plan	-11.9849
▁Santa	-11.9849
▁analogy	-11.985
Saharan	-11.9851
▁bold	-11.9851
▁Brazilian	-11.9852
▁Gold	-11.9854
▁Steven	-11.9861
▁someday	-11.9862
▁civilian	-11.9866
▁aspiration	-11.9873
▁encouraged	-11.9881
▁soup	-11.9885
▁telescopes	-11.9904
yl	-11.9907
▁makers	-11.9909
▁hunter	-11.9911
▁rolling	-11.9911
bling	-11.9919
▁Sure	-11.9919
▁researcher	-11.9946
minute	-11.9947
▁Dad	-11.9954
▁specialist	-11.9964
▁uncertaint	-11.9971
▁surround	-11.9973
▁span	-11.9974
▁critic	-11.9988
▁loans	-11.9996
▁chronic	-12.0006
▁uniform	-12.0006
Technology	-12.0006
centimeter	-12.0006
▁acoustic	-12.0006
▁astronomer	-12.0006
▁categories	-12.0006
▁cigarette	-12.0006
▁diamond	-12.0006
▁leather	-12.0006
▁magnitude	-12.0006
▁matrix	-12.0006
▁mild	-12.0006
▁sponsor	-12.0006
▁terribly	-12.0006
▁terrifying	-12.0006
▁theoretical	-12.0006
▁investigate	-12.0006
▁reliable	-12.0006
▁harness	-12.0006
▁limitations	-12.0006
▁kingdom	-12.0006
▁venture	-12.0006
▁proposition	-12.0006
▁enforcement	-12.0006
▁redesign	-12.0007
▁archive	-12.0007
▁Mike	-12.0008
▁activate	-12.0012
▁rubber	-12.0012
▁workplace	-12.0013
▁logo	-12.0014
▁MT	-12.0015
▁Iranian	-12.0017
▁upload	-12.002
▁deck	-12.0021
▁beam	-12.003
▁closest	-12.0032
▁gathered	-12.0033
ison	-12.0034
▁drone	-12.0036
▁assumption	-12.0036
▁teenager	-12.0039
▁Walk	-12.0043
human	-12.0044
▁Islands	-12.0068
▁NGOs	-12.008
▁bite	-12.0085
▁hunt	-12.0085
▁obstacles	-12.0086
▁traits	-12.0091
▁germ	-12.0106
▁Nor	-12.0108
weight	-12.0112
space	-12.0114
ette	-12.0122
mme	-12.0133
but	-12.0166
▁collision	-12.017
▁genuine	-12.017
▁rethink	-12.017
▁substantial	-12.017
▁Alexander	-12.017
▁Palestinian	-12.017
▁Saudi	-12.017
▁Tanzania	-12.017
▁despair	-12.017
▁glamorous	-12.017
▁mutual	-12.017
▁temporary	-12.017
▁tsunami	-12.017
▁amateur	-12.017
▁viral	-12.017
▁banana	-12.017
▁girlfriend	-12.017
▁align	-12.017
▁geek	-12.0171
▁retirement	-12.0171
▁shipping	-12.0171
▁chase	-12.0171
▁static	-12.0172
▁entry	-12.0173
▁Ray	-12.0173
▁patch	-12.0173
▁cruel	-12.0173
▁mapping	-12.0173
▁ego	-12.0173
▁loose	-12.0175
▁announc	-12.0175
▁desperately	-12.0175
▁pond	-12.0178
▁continuing	-12.0181
▁stimulate	-12.0182
▁observed	-12.0189
▁administration	-12.0192
▁steer	-12.0192
▁trap	-12.0192
▁CD	-12.0195
▁surf	-12.0197
▁dressed	-12.0202
▁customer	-12.0209
▁proved	-12.0215
▁upward	-12.0216
▁graduated	-12.0218
▁landing	-12.0226
▁historic	-12.0228
Ma	-12.0228
▁cartoons	-12.0229
▁offering	-12.0238
▁concerns	-12.0243
▁pound	-12.0244
stepped	-12.0254
▁epi	-12.0272
▁developer	-12.0274
▁psycho	-12.0288
▁panic	-12.0306
▁activists	-12.031
chu	-12.0311
▁overwhelm	-12.032
holder	-12.0323
pend	-12.0331
▁assign	-12.0336
▁confine	-12.0336
▁Afghan	-12.0337
▁Bronx	-12.0337
▁Council	-12.0337
▁Gandhi	-12.0337
▁blah	-12.0337
▁deforestation	-12.0337
▁diagnostic	-12.0337
▁dilemma	-12.0337
▁earliest	-12.0337
▁excellent	-12.0337
▁excess	-12.0337
▁indigenous	-12.0337
▁scheme	-12.0337
▁storytelling	-12.0337
▁yourselves	-12.0337
▁grandparents	-12.0337
▁stability	-12.0337
▁fault	-12.0337
▁ongoing	-12.0337
▁dawn	-12.0337
▁brick	-12.0337
▁glow	-12.0338
▁estate	-12.0338
▁graphics	-12.0338
▁voting	-12.0338
nergy	-12.034
▁App	-12.034
▁Whereas	-12.0341
▁nerd	-12.0342
▁addiction	-12.0342
▁Moon	-12.0344
▁fortunately	-12.0345
person	-12.0345
▁chop	-12.0349
▁previously	-12.0353
▁bush	-12.0353
▁Hello	-12.0357
▁honestly	-12.0363
▁update	-12.0365
illa	-12.0372
▁succeeded	-12.0375
▁mud	-12.0379
▁affecting	-12.039
▁Philip	-12.0425
▁Kh	-12.0431
▁counting	-12.0432
burg	-12.0437
▁lions	-12.044
▁analog	-12.0444
step	-12.047
▁Str	-12.0472
▁drones	-12.0475
▁arrest	-12.049
▁authentic	-12.0505
▁punish	-12.0505
▁Jeff	-12.0506
▁Nelson	-12.0506
▁absence	-12.0506
▁contrary	-12.0506
▁currency	-12.0506
▁exclusive	-12.0506
▁legislation	-12.0506
▁miserable	-12.0506
▁principal	-12.0506
▁pursuit	-12.0506
▁refine	-12.0506
▁storage	-12.0506
▁supplies	-12.0506
▁drown	-12.0506
▁pedestrian	-12.0506
▁tattoo	-12.0506
▁Henry	-12.0506
▁Brian	-12.0506
▁flourish	-12.0506
▁straightforward	-12.0506
▁spike	-12.0506
▁devote	-12.0506
▁Social	-12.0506
▁Dutch	-12.0507
▁Army	-12.0507
▁tale	-12.0507
▁Media	-12.0507
▁occasionally	-12.0507
▁Homo	-12.0508
▁insane	-12.0509
▁frontier	-12.0509
▁downtown	-12.051
▁Lake	-12.051
▁specialized	-12.0512
▁Eight	-12.0512
▁hug	-12.0514
▁mall	-12.0514
▁Newton	-12.0514
▁lowest	-12.0515
hil	-12.0517
▁exhaust	-12.0518
▁proven	-12.0519
▁Howard	-12.0519
▁sufficient	-12.0522
roll	-12.0523
▁Korean	-12.0525
▁cue	-12.0533
▁deni	-12.0533
▁fertilizer	-12.0535
iff	-12.054
cast	-12.0544
▁chimpanzee	-12.0545
▁incentive	-12.0545
▁mammal	-12.0545
▁vessel	-12.0545
▁economist	-12.0545
▁monitoring	-12.0546
▁visualize	-12.0558
▁performed	-12.056
▁SS	-12.0563
▁Ken	-12.0572
self	-12.0572
▁discovering	-12.0575
▁flowing	-12.0592
▁prepar	-12.0602
version	-12.0605
▁bowl	-12.0613
town	-12.0616
▁vari	-12.0618
▁transcend	-12.0643
▁managers	-12.0656
▁physicians	-12.067
▁impress	-12.0671
▁phenomena	-12.0676
xcept	-12.0678
▁Twenty	-12.0678
▁Almost	-12.0678
▁County	-12.0678
▁Delhi	-12.0678
▁Indonesia	-12.0678
▁altitude	-12.0678
▁ambitious	-12.0678
▁dopamine	-12.0678
▁encouraging	-12.0678
▁executive	-12.0678
▁geometry	-12.0678
▁iPod	-12.0678
▁parachute	-12.0678
▁pizza	-12.0678
▁proposal	-12.0678
▁receptor	-12.0678
▁stomach	-12.0678
▁canopy	-12.0679
▁clar	-12.0679
▁constraints	-12.0679
▁jam	-12.0679
▁loving	-12.0679
▁punishment	-12.068
▁foster	-12.068
▁Johnson	-12.068
▁destiny	-12.0681
▁phenomenal	-12.0681
▁assure	-12.0681
▁requirement	-12.0681
▁aunt	-12.0683
▁overnight	-12.0683
▁interrupt	-12.0687
▁Professor	-12.0689
aker	-12.069
▁strain	-12.0692
▁rig	-12.0693
▁manufacturer	-12.0705
▁Cor	-12.0713
▁AK	-12.0714
ibility	-12.0717
▁promised	-12.0725
cell	-12.0739
RB	-12.0757
powered	-12.0791
▁Creat	-12.0802
▁rituals	-12.0807
ference	-12.0816
▁manufacture	-12.0827
relief	-12.0843
▁teenage	-12.085
▁corrupt	-12.0852
▁terrifie	-12.0854
adequate	-12.0854
▁Sudden	-12.0854
▁Mandela	-12.0854
▁Peace	-12.0854
▁Vietnam	-12.0854
▁generating	-12.0854
▁millennia	-12.0854
▁persuade	-12.0854
▁phantom	-12.0854
▁virtue	-12.0854
▁Shanghai	-12.0854
▁cricket	-12.0854
▁endangered	-12.0854
▁territory	-12.0854
▁delay	-12.0854
▁hub	-12.0854
▁Carolina	-12.0854
▁seemingly	-12.0854
▁division	-12.0854
▁angel	-12.0854
▁chunk	-12.0854
▁irre	-12.0855
▁elementary	-12.0855
▁filmmaker	-12.0855
▁texture	-12.0856
LT	-12.0856
▁artwork	-12.0857
▁guilty	-12.0857
▁Roman	-12.086
▁personalized	-12.0861
lept	-12.0866
▁backyard	-12.0866
▁singer	-12.0869
▁sixth	-12.0896
▁biologist	-12.0899
▁enabled	-12.0903
▁concentrate	-12.0905
▁Whatever	-12.0906
cular	-12.0919
▁seeking	-12.0944
▁shifting	-12.0953
▁freely	-12.0954
driven	-12.0973
second	-12.0974
world	-12.0974
flow	-12.0976
wandering	-12.0981
▁shower	-12.0982
mination	-12.0983
▁psychologists	-12.0985
gras	-12.0999
pan	-12.1022
▁chemist	-12.1032
▁counsel	-12.1032
▁Neanderthal	-12.1032
▁System	-12.1032
▁astronaut	-12.1032
▁composition	-12.1032
▁entropy	-12.1032
▁junk	-12.1032
▁knife	-12.1032
▁lobby	-12.1032
▁occupy	-12.1032
▁pencil	-12.1032
▁receiving	-12.1032
▁syndrome	-12.1032
▁temple	-12.1032
▁wrist	-12.1032
▁proceed	-12.1032
▁retreat	-12.1032
▁troops	-12.1032
▁decorat	-12.1032
▁electrodes	-12.1032
▁riot	-12.1032
▁Anybody	-12.1033
▁Koran	-12.1033
▁Year	-12.1033
▁Andrew	-12.1033
▁steam	-12.1033
▁canvas	-12.1035
▁semi	-12.1035
▁outbreak	-12.1037
▁branches	-12.1037
▁freeze	-12.1037
▁stopping	-12.1038
▁Rock	-12.1039
Re	-12.1043
▁millimeter	-12.1045
▁momentum	-12.1045
▁disable	-12.1046
▁intensive	-12.1047
▁spa	-12.1048
▁eaten	-12.105
▁selected	-12.1053
▁empowered	-12.1062
▁acquire	-12.1063
▁contributed	-12.1064
▁predictable	-12.1069
▁collapsed	-12.1073
▁raped	-12.1078
▁psychologist	-12.108
▁ritual	-12.108
▁password	-12.1081
▁glue	-12.1092
▁worrying	-12.1108
▁hated	-12.1115
▁headlines	-12.1122
▁vegetables	-12.1126
body	-12.1137
▁Win	-12.1137
▁pat	-12.114
▁staring	-12.1146
▁abandon	-12.1148
▁slums	-12.1149
worth	-12.1155
▁Bio	-12.1174
▁mal	-12.118
▁extraordinar	-12.1209
▁sir	-12.1211
▁migrate	-12.1214
▁Bruno	-12.1214
▁Rather	-12.1214
▁Seattle	-12.1214
▁ambition	-12.1214
▁breakfast	-12.1214
▁devastating	-12.1214
▁diameter	-12.1214
▁enemies	-12.1214
▁enzyme	-12.1214
▁hybrid	-12.1214
▁recycling	-12.1214
▁trivial	-12.1214
▁ubiquitous	-12.1214
▁accus	-12.1214
▁thread	-12.1214
▁ecology	-12.1214
▁contaminat	-12.1214
▁naive	-12.1214
▁magnificent	-12.1214
▁carpet	-12.1214
▁Work	-12.1214
▁measurements	-12.1214
▁distort	-12.1214
▁cube	-12.1214
▁wheat	-12.1214
▁blink	-12.1215
▁Watch	-12.1215
▁fusion	-12.1215
▁Lord	-12.1215
▁constrain	-12.1215
▁mainstream	-12.1215
▁pipeline	-12.1215
▁bedroom	-12.1215
▁horizontal	-12.1215
▁diving	-12.1215
▁regardless	-12.1215
▁prostate	-12.1216
▁visualization	-12.1217
▁blindness	-12.1221
▁realistic	-12.1221
▁prevention	-12.1224
▁Way	-12.1226
▁fatal	-12.1227
▁feminist	-12.1228
▁Jane	-12.1233
▁smallest	-12.1237
looking	-12.1241
▁shoe	-12.1261
aeda	-12.1267
▁sexy	-12.1271
▁banking	-12.1278
▁risky	-12.128
▁Ron	-12.1283
▁negotiate	-12.1283
void	-12.1287
▁catching	-12.1289
▁Wil	-12.1292
▁poo	-12.1302
▁bust	-12.1303
▁Sur	-12.1308
▁employer	-12.1332
ford	-12.1333
▁kit	-12.1335
flu	-12.1343
▁compress	-12.1344
▁amazingly	-12.1349
▁Bir	-12.1372
tropical	-12.1372
▁rubb	-12.1378
▁container	-12.1383
two	-12.1384
shot	-12.1385
▁Syria	-12.1389
▁potato	-12.1399
▁strict	-12.1399
▁Brooklyn	-12.1399
▁College	-12.1399
▁Government	-12.1399
▁Industrial	-12.1399
▁Jordan	-12.1399
▁Lincoln	-12.1399
▁Little	-12.1399
▁November	-12.1399
▁arguing	-12.1399
▁brush	-12.1399
▁cocaine	-12.1399
▁divorce	-12.1399
▁drew	-12.1399
▁horror	-12.1399
▁investigation	-12.1399
▁purple	-12.1399
▁segment	-12.1399
▁unhappy	-12.1399
▁asleep	-12.1399
▁tiger	-12.1399
▁warrior	-12.1399
▁jellyfish	-12.1399
▁minus	-12.1399
▁onstage	-12.1399
▁emphasize	-12.14
▁flavor	-12.14
▁sperm	-12.14
▁Cuba	-12.14
▁sidewalk	-12.14
▁Ireland	-12.14
▁spacecraft	-12.1401
▁nodes	-12.1401
▁workshop	-12.1401
▁belt	-12.1402
▁champion	-12.1402
▁vary	-12.1402
▁Nick	-12.1403
▁Someone	-12.1403
▁Coke	-12.1403
▁controversial	-12.1408
▁taxes	-12.1408
▁negotiation	-12.1408
▁convenient	-12.1413
▁installed	-12.1419
▁sec	-12.1422
▁Force	-12.143
eye	-12.1444
▁swing	-12.1454
▁optical	-12.146
▁automat	-12.147
▁responded	-12.1492
under	-12.1497
▁regulate	-12.1508
▁describ	-12.1515
MW	-12.1524
▁guid	-12.1526
word	-12.1529
wood	-12.1529
material	-12.1529
▁coordinate	-12.153
▁deposit	-12.1534
▁grip	-12.1555
▁lap	-12.1563
▁breed	-12.1571
▁compose	-12.1572
▁Accord	-12.1588
▁advertise	-12.1588
▁artifact	-12.1588
▁calories	-12.1588
▁declare	-12.1588
▁empire	-12.1588
▁summit	-12.1588
▁tutor	-12.1588
▁Catholic	-12.1588
▁Gabby	-12.1588
▁Leonardo	-12.1588
▁Swiss	-12.1588
▁accuracy	-12.1588
▁approved	-12.1588
▁association	-12.1588
▁believing	-12.1588
▁cooperate	-12.1588
▁diarrhea	-12.1588
▁frustration	-12.1588
▁migration	-12.1588
▁monster	-12.1588
▁spiral	-12.1588
▁terrain	-12.1588
▁cream	-12.1588
▁infectious	-12.1588
▁legitimate	-12.1588
▁destination	-12.1589
▁Stone	-12.159
▁unlock	-12.1592
▁decent	-12.1593
AR	-12.1593
▁candle	-12.1593
▁Tony	-12.1594
▁amazed	-12.1594
▁distinction	-12.1594
planned	-12.1597
▁inevitably	-12.1597
▁screaming	-12.1604
▁breeding	-12.1605
▁embarrassing	-12.161
▁zoo	-12.161
▁correctly	-12.1613
▁publishing	-12.1613
▁processor	-12.1614
▁shelf	-12.1615
vil	-12.1628
▁useless	-12.1629
▁earning	-12.1631
▁mentally	-12.1632
▁collaborate	-12.1658
▁Gar	-12.1672
adi	-12.1672
dding	-12.1698
▁tan	-12.1699
AIDS	-12.1721
income	-12.1722
▁banker	-12.1726
▁Carl	-12.1748
▁Matt	-12.1762
▁slight	-12.1776
▁Hawaii	-12.178
▁approximate	-12.178
▁bounce	-12.178
▁communicating	-12.178
▁correlation	-12.178
▁drunk	-12.178
▁impulse	-12.178
▁injured	-12.178
▁innovate	-12.178
▁jazz	-12.178
▁jihad	-12.178
▁lonely	-12.178
▁schizophrenia	-12.178
▁separation	-12.178
▁slime	-12.178
▁smiling	-12.178
▁squeeze	-12.178
▁summarize	-12.178
▁veteran	-12.178
▁whisper	-12.178
▁Doctor	-12.178
▁multiply	-12.178
Probably	-12.178
▁tiles	-12.178
▁lifespan	-12.178
▁Redwood	-12.1781
▁evolving	-12.1781
▁Half	-12.1781
▁Anyone	-12.1781
▁echo	-12.1781
▁Trans	-12.1781
▁Nike	-12.1782
▁harmful	-12.1782
▁insert	-12.1782
▁frequently	-12.1784
▁Show	-12.1785
▁sake	-12.1785
▁halfway	-12.1787
▁utterly	-12.1787
▁MK	-12.1788
▁realization	-12.1792
▁probe	-12.1797
▁outdoor	-12.1798
▁consciously	-12.18
▁messy	-12.1803
▁Mean	-12.1806
▁behalf	-12.1807
▁gentle	-12.1808
onsider	-12.1812
▁RS	-12.1813
▁shy	-12.1813
▁atomic	-12.1818
▁revealed	-12.1826
▁worthy	-12.1831
▁statistic	-12.1839
▁Op	-12.1853
All	-12.1855
▁enjoyed	-12.1859
▁informal	-12.1869
wan	-12.1879
▁locally	-12.1884
▁Arch	-12.1885
eur	-12.1914
field	-12.1918
generation	-12.1918
style	-12.1918
uous	-12.1922
rap	-12.1926
frontal	-12.1929
kill	-12.1947
aph	-12.1956
▁restrict	-12.1958
▁accomplish	-12.1959
▁scream	-12.196
▁dirt	-12.1971
▁transit	-12.1976
▁Yemen	-12.1976
▁Abraham	-12.1976
▁Berlin	-12.1976
▁Kevin	-12.1976
▁Switzerland	-12.1976
▁Together	-12.1976
▁episode	-12.1976
▁harbor	-12.1976
▁hierarchy	-12.1976
▁juice	-12.1976
▁obtain	-12.1976
▁peculiar	-12.1976
▁prescription	-12.1976
▁remarkably	-12.1976
▁sanitation	-12.1976
▁swallow	-12.1976
▁vacation	-12.1976
▁welfare	-12.1976
▁competing	-12.1976
▁priest	-12.1976
▁guest	-12.1977
▁tolerance	-12.1977
▁ultra	-12.1977
▁illuminat	-12.1977
▁Telescope	-12.1977
▁augment	-12.1977
▁boost	-12.1977
▁therapist	-12.1977
independence	-12.1977
▁trapped	-12.1977
▁spinning	-12.1977
▁contest	-12.1977
▁creep	-12.1977
▁equity	-12.1978
▁dropping	-12.1979
▁Alex	-12.1979
▁Hong	-12.1979
▁Stage	-12.1982
▁TEDster	-12.1984
▁dominated	-12.1984
▁planetary	-12.1988
▁snap	-12.1989
▁clap	-12.1993
▁wishes	-12.2003
▁popp	-12.2004
▁digit	-12.2004
▁consumed	-12.2006
▁randomly	-12.2012
▁destroying	-12.2013
▁tide	-12.2027
▁doubled	-12.2037
ED	-12.204
Be	-12.2043
▁sale	-12.2052
▁enjoying	-12.2058
▁immun	-12.2065
▁Bor	-12.2079
priority	-12.2091
▁intimate	-12.2092
▁vent	-12.2106
▁namely	-12.2107
Go	-12.2112
wide	-12.2119
▁bann	-12.212
wash	-12.2124
▁explorer	-12.2141
▁integrate	-12.2162
▁tire	-12.2163
▁Swed	-12.2175
▁mill	-12.2176
synthesis	-12.2176
▁humiliat	-12.2176
▁Clinton	-12.2176
▁Detroit	-12.2176
▁Jupiter	-12.2176
▁Mexican	-12.2176
▁Organization	-12.2176
▁Saturday	-12.2176
▁corridor	-12.2176
▁drain	-12.2176
▁exotic	-12.2176
▁glimpse	-12.2176
▁gorgeous	-12.2176
▁intrinsic	-12.2176
▁obese	-12.2176
▁jaw	-12.2177
▁Louis	-12.2177
▁pirate	-12.2177
▁psychopath	-12.2177
▁phosphorus	-12.2177
▁hint	-12.2177
▁Indus	-12.2177
▁intervene	-12.2177
▁kidding	-12.2177
▁wrapped	-12.2177
articulate	-12.2177
▁invitation	-12.2177
▁hometown	-12.2178
▁Still	-12.2178
▁Coast	-12.2179
▁deaf	-12.218
▁retail	-12.218
▁crap	-12.218
▁PMS	-12.2181
▁deepest	-12.2185
▁PR	-12.2185
▁SW	-12.2186
empt	-12.2187
▁realities	-12.2189
▁broader	-12.219
▁accomplished	-12.2193
▁spine	-12.2193
▁Try	-12.2199
▁hacking	-12.2201
▁SP	-12.2202
▁healing	-12.2202
▁Nigerian	-12.2204
▁discussing	-12.2205
▁teaches	-12.2205
▁Amy	-12.2211
vy	-12.2212
▁blown	-12.2213
▁slower	-12.2213
▁USA	-12.2216
▁shocking	-12.2218
▁Australian	-12.222
▁expanded	-12.2223
scape	-12.2236
▁ironic	-12.2243
▁expressed	-12.2251
▁simpler	-12.2252
▁reporting	-12.2255
▁cookie	-12.2273
▁cope	-12.2281
bsolutely	-12.2282
shirt	-12.2321
degree	-12.2322
bound	-12.2325
▁convention	-12.2337
night	-12.236
rich	-12.2372
▁consult	-12.2375
▁disrupt	-12.2376
▁scholar	-12.238
lastic	-12.238
▁import	-12.238
▁Pretty	-12.2381
▁scaffold	-12.2381
▁Argentina	-12.2381
▁Atlanta	-12.2381
▁Daniel	-12.2381
▁Monterey	-12.2381
▁Shakespeare	-12.2381
▁Singapore	-12.2381
▁Watson	-12.2381
▁abundance	-12.2381
▁athletes	-12.2381
▁batteries	-12.2381
▁blob	-12.2381
▁ceremony	-12.2381
▁cylinder	-12.2381
▁default	-12.2381
▁discrimination	-12.2381
▁elevator	-12.2381
▁flesh	-12.2381
▁frightening	-12.2381
▁glamour	-12.2381
▁glucose	-12.2381
▁insulin	-12.2381
▁introduction	-12.2381
▁likelihood	-12.2381
▁macro	-12.2381
▁migrant	-12.2381
▁nitrogen	-12.2381
▁oppress	-12.2381
▁remix	-12.2381
▁timing	-12.2381
▁translator	-12.2381
▁heritage	-12.2381
▁puppet	-12.2381
▁typing	-12.2381
▁philosophical	-12.2381
▁Stephen	-12.2381
▁consent	-12.2381
▁wore	-12.2381
▁Development	-12.2381
▁Jones	-12.2381
▁boundary	-12.2381
▁Spring	-12.2382
▁stamp	-12.2383
▁digest	-12.2383
▁stolen	-12.2383
▁modest	-12.2387
▁machinery	-12.2393
▁handful	-12.2395
▁helpless	-12.2402
mile	-12.2415
▁warmer	-12.2417
▁forbid	-12.2421
▁aggregate	-12.2437
▁slum	-12.2455
volving	-12.2479
▁prim	-12.2481
▁prisoner	-12.2487
stick	-12.2498
▁prayer	-12.2501
▁commission	-12.252
▁rotat	-12.2521
profit	-12.2529
frame	-12.253
Man	-12.2558
▁playful	-12.257
count	-12.2573
ciety	-12.2575
occurring	-12.2575
▁utter	-12.2582
▁intent	-12.2582
▁grant	-12.2586
▁compute	-12.2586
Academy	-12.2589
voluntary	-12.2589
▁cubic	-12.2589
▁Aristotle	-12.2589
▁DVD	-12.2589
▁Feynman	-12.2589
▁Parkinson	-12.2589
▁Security	-12.2589
▁Supreme	-12.2589
▁album	-12.2589
▁assault	-12.2589
▁cockroach	-12.2589
▁endeavor	-12.2589
▁envelope	-12.2589
▁fluorescent	-12.2589
▁geography	-12.2589
▁harmony	-12.2589
▁maneuver	-12.2589
▁marathon	-12.2589
▁neuroscientist	-12.2589
▁offspring	-12.2589
▁precision	-12.2589
▁protocell	-12.2589
▁thrive	-12.2589
▁vibration	-12.2589
▁warehouse	-12.2589
▁Business	-12.2589
▁mankind	-12.2589
▁inhibit	-12.2589
▁scaling	-12.2589
▁Iceland	-12.2589
▁Geographic	-12.2589
▁cosmos	-12.259
▁hostile	-12.259
▁flame	-12.2591
▁belly	-12.2591
▁examine	-12.2592
▁iconic	-12.2592
▁Rand	-12.26
▁buses	-12.2602
▁Ram	-12.2603
▁refused	-12.2604
▁deployed	-12.2605
▁youngest	-12.2609
▁trailer	-12.2613
five	-12.262
▁labeled	-12.2621
▁resistant	-12.2626
▁lethal	-12.2626
▁lifted	-12.2629
▁admire	-12.2636
▁Young	-12.2638
▁climbed	-12.2642
▁reflected	-12.2646
▁Brad	-12.2646
▁mum	-12.2648
tention	-12.2652
uz	-12.2652
▁instruction	-12.2668
▁penguin	-12.2668
tress	-12.2709
▁bud	-12.2709
nnie	-12.2739
ER	-12.2741
phone	-12.2742
found	-12.2743
proof	-12.2743
▁suppress	-12.2755
▁provider	-12.2776
▁deploy	-12.2784
▁Char	-12.2785
wind	-12.2791
var	-12.2797
▁enthusias	-12.2799
▁sneak	-12.28
▁minor	-12.28
▁April	-12.2802
▁Civil	-12.2802
▁convicted	-12.2802
▁elaborate	-12.2802
▁execution	-12.2802
▁expense	-12.2802
▁irrational	-12.2802
▁philanthropy	-12.2802
▁reinforce	-12.2802
▁schedule	-12.2802
▁sovereign	-12.2802
▁trading	-12.2802
▁transistor	-12.2802
▁volcano	-12.2802
vascular	-12.2802
▁bamboo	-12.2802
▁fisheries	-12.2802
▁eternal	-12.2802
▁heavily	-12.2802
▁therapies	-12.2802
▁nightmare	-12.2802
▁IBM	-12.2802
▁steep	-12.2802
▁dough	-12.2802
▁thus	-12.2802
▁scrap	-12.2802
▁operator	-12.2802
▁bleed	-12.2802
▁scanning	-12.2803
▁conceptual	-12.2803
▁preference	-12.2803
▁pants	-12.2805
▁hopeful	-12.2806
▁denial	-12.2807
▁coverage	-12.2807
▁contradiction	-12.2807
▁preach	-12.2807
▁Rick	-12.2808
▁nearest	-12.2808
▁adaptation	-12.2808
▁thrilled	-12.2809
▁Cape	-12.281
▁bacterial	-12.2815
ssuming	-12.2817
▁overhead	-12.282
▁spare	-12.2827
▁computational	-12.2834
itude	-12.2837
▁actively	-12.284
▁repeated	-12.284
unch	-12.2851
▁laughed	-12.2853
centralized	-12.2855
▁Say	-12.2858
lapse	-12.286
▁wander	-12.2864
▁argued	-12.2869
motivated	-12.2869
▁lion	-12.2899
▁criticize	-12.2917
cause	-12.2942
▁lawn	-12.2953
front	-12.2957
craft	-12.2959
master	-12.297
Here	-12.2992
▁woo	-12.2996
▁refuse	-12.3004
▁distract	-12.3008
▁elder	-12.3012
▁happi	-12.3012
▁desperate	-12.3014
▁entertain	-12.3018
▁yell	-12.3019
accelerating	-12.3019
▁Buddhis	-12.3019
▁transaction	-12.3019
▁Copenhagen	-12.3019
▁adolescent	-12.3019
▁basketball	-12.3019
▁biomass	-12.3019
▁blade	-12.3019
▁consensus	-12.3019
▁ideology	-12.3019
▁imagining	-12.3019
▁inclusive	-12.3019
▁nasty	-12.3019
▁prosthetic	-12.3019
▁smash	-12.3019
▁staircase	-12.3019
▁vivid	-12.3019
▁Greece	-12.3019
▁blur	-12.3019
▁delicious	-12.3019
▁democracies	-12.3019
▁intensity	-12.3019
▁livestock	-12.3019
▁sequencing	-12.3019
▁suspended	-12.3019
▁Jews	-12.3019
▁forecast	-12.3019
▁gross	-12.3019
▁freezing	-12.3019
▁blast	-12.3019
▁History	-12.3019
▁generic	-12.3019
▁defining	-12.3019
▁vocal	-12.302
▁sweep	-12.302
▁odor	-12.302
▁arrangement	-12.302
▁intact	-12.302
▁selective	-12.302
▁journalism	-12.302
▁chew	-12.3021
▁minority	-12.3021
▁crab	-12.3021
▁Kong	-12.3022
▁JF	-12.3024
▁Music	-12.3024
▁subjective	-12.3025
▁progressive	-12.3025
▁recycled	-12.303
▁irony	-12.3031
▁coastal	-12.3033
▁hopeless	-12.3034
▁witnessed	-12.3047
risk	-12.3047
▁masses	-12.3053
how	-12.3059
▁kicked	-12.3062
month	-12.3063
▁riding	-12.3094
▁deadly	-12.3095
▁prey	-12.3097
▁Van	-12.31
erran	-12.3101
▁mathematician	-12.3107
hole	-12.3123
threatened	-12.3126
▁prospect	-12.3133
▁owe	-12.314
▁capitalist	-12.3144
▁Arabia	-12.3155
quality	-12.3182
Please	-12.3182
product	-12.3182
disc	-12.3183
course	-12.3183
▁stare	-12.3196
managing	-12.3198
ella	-12.32
▁Hav	-12.322
page	-12.3225
▁diagnose	-12.3227
▁brows	-12.3233
▁accidental	-12.3236
rrow	-12.3239
▁resilien	-12.324
▁contemplat	-12.3241
▁fluctuat	-12.3241
▁immortal	-12.3241
▁Arthur	-12.3241
▁Benjamin	-12.3241
▁Berkeley	-12.3241
▁Jerusalem	-12.3241
▁Journal	-12.3241
▁Office	-12.3241
▁contributing	-12.3241
▁deficit	-12.3241
▁gallery	-12.3241
▁grocery	-12.3241
▁inflation	-12.3241
▁maximum	-12.3241
▁recognizing	-12.3241
▁skeletal	-12.3241
▁taboo	-12.3241
▁Disney	-12.3241
▁converge	-12.3241
▁pleasant	-12.3241
▁swarm	-12.3241
▁Teach	-12.3241
▁harsh	-12.3241
▁helium	-12.3241
▁tomato	-12.3241
▁eastern	-12.3242
espite	-12.3242
▁kilogram	-12.3242
▁Virginia	-12.3242
▁constitution	-12.3242
sensing	-12.3242
▁systematically	-12.3242
▁bucket	-12.3242
▁vice	-12.3242
▁trafficking	-12.3243
▁transformative	-12.3243
▁cheer	-12.3243
▁Water	-12.3243
▁Keep	-12.3244
▁couch	-12.3244
▁inmates	-12.3244
▁wow	-12.3244
▁duty	-12.3244
▁penis	-12.3246
▁basement	-12.3246
▁LG	-12.3246
▁rebel	-12.3248
▁flipp	-12.325
▁poke	-12.3254
▁losses	-12.3256
▁fade	-12.3257
▁JA	-12.3257
▁remotely	-12.327
▁comedy	-12.327
▁merit	-12.3275
▁interconnected	-12.3276
▁asthma	-12.328
bone	-12.3283
▁emotionally	-12.3283
▁assumed	-12.3287
▁sooner	-12.3291
▁impose	-12.3296
▁rear	-12.3304
▁regenerate	-12.3321
▁navigat	-12.3332
▁tourist	-12.3335
▁mini	-12.3341
digit	-12.3344
▁starv	-12.3346
▁neo	-12.3357
▁triple	-12.3409
three	-12.341
story	-12.342
vision	-12.343
▁associate	-12.3454
▁plea	-12.3459
▁unfortunate	-12.3461
▁Under	-12.3466
▁rot	-12.3468
▁confess	-12.3469
▁stunn	-12.3469
▁Computer	-12.3469
▁Education	-12.3469
▁FDA	-12.3469
▁Mumbai	-12.3469
▁NSA	-12.3469
▁SETI	-12.3469
▁anniversary	-12.3469
▁circular	-12.3469
▁democratiz	-12.3469
▁festival	-12.3469
▁integration	-12.3469
▁juvenile	-12.3469
▁literacy	-12.3469
▁obsession	-12.3469
▁optimize	-12.3469
▁selves	-12.3469
▁stabilize	-12.3469
▁stagger	-12.3469
▁underestimate	-12.3469
▁virgin	-12.3469
▁Medical	-12.3469
▁bonus	-12.3469
▁injuries	-12.3469
▁jungle	-12.3469
▁cattle	-12.3469
▁exceed	-12.3469
▁historian	-12.3469
▁spouse	-12.3469
▁greet	-12.3469
▁monument	-12.3469
▁recession	-12.3469
▁surgeries	-12.3469
▁accent	-12.3469
▁lottery	-12.3469
▁acres	-12.3469
▁Hawk	-12.3469
▁depict	-12.3469
▁Edward	-12.3469
▁headquarters	-12.3469
▁index	-12.3469
▁chef	-12.347
chasing	-12.347
▁tapir	-12.347
▁passage	-12.3473
▁replacement	-12.3474
▁farther	-12.3475
▁MR	-12.3476
lian	-12.3476
▁fever	-12.3476
▁browser	-12.3477
▁pup	-12.3482
▁overlap	-12.3484
▁payment	-12.3486
▁merge	-12.3487
▁Cap	-12.3492
▁bare	-12.3504
▁melting	-12.3508
▁longest	-12.3509
▁talented	-12.3516
▁attracted	-12.3519
▁crude	-12.3533
ventilat	-12.3556
▁dim	-12.3565
▁ingredient	-12.3568
▁reporter	-12.3579
established	-12.3623
effective	-12.3642
God	-12.366
speed	-12.3677
▁Democrat	-12.3699
▁manifest	-12.37
▁arrange	-12.37
▁imagina	-12.3701
▁Mount	-12.3701
▁McDonald	-12.3701
▁resurrect	-12.3701
▁vocabular	-12.3701
▁Bhutan	-12.3701
▁indicator	-12.3701
▁parliament	-12.3701
▁storyteller	-12.3701
▁Apollo	-12.3701
▁Eventually	-12.3701
▁Natural	-12.3701
▁Public	-12.3701
▁achieving	-12.3701
▁alphabet	-12.3701
▁assistant	-12.3701
▁cardiac	-12.3701
▁commodity	-12.3701
▁deception	-12.3701
▁guitar	-12.3701
▁illustration	-12.3701
▁immigrant	-12.3701
▁opposition	-12.3701
▁pesticide	-12.3701
▁practicing	-12.3701
▁protocol	-12.3701
▁slope	-12.3701
▁stadium	-12.3701
▁stumble	-12.3701
▁sympath	-12.3701
▁trunk	-12.3701
▁undergraduate	-12.3701
▁worship	-12.3701
promising	-12.3701
▁spatial	-12.3701
▁mosque	-12.3701
▁ooh	-12.3701
invasive	-12.3701
▁nail	-12.3701
▁encode	-12.3701
▁Milk	-12.3702
▁superpower	-12.3702
▁mite	-12.3702
▁psychiatrist	-12.3703
▁towel	-12.3703
▁accountability	-12.3703
▁employment	-12.3703
▁copies	-12.3703
▁settlement	-12.3703
▁lobe	-12.3704
▁Light	-12.3704
▁adoption	-12.3704
▁systematic	-12.3704
▁hut	-12.3705
▁alert	-12.3705
blew	-12.3706
▁carries	-12.3706
▁inherently	-12.3707
▁refrigerator	-12.3708
▁airline	-12.371
▁GG	-12.3712
▁Syrian	-12.3714
▁atheist	-12.3715
▁colon	-12.3726
▁headache	-12.373
▁implemented	-12.3731
▁cage	-12.374
▁converted	-12.3744
▁synthesize	-12.3766
▁impos	-12.3801
tron	-12.3804
shaped	-12.3806
▁politician	-12.3806
▁dispos	-12.3844
▁documentar	-12.3844
▁equ	-12.3854
concentrated	-12.387
posed	-12.3879
▁arc	-12.3882
And	-12.3894
▁assess	-12.3938
▁Republic	-12.3939
▁inhabit	-12.3939
▁caregiver	-12.3939
▁elevate	-12.3939
▁enlighten	-12.3939
▁exaggerat	-12.3939
▁prince	-12.3939
▁Canadian	-12.3939
▁Craig	-12.3939
▁Fortunately	-12.3939
▁Hospital	-12.3939
▁Lebanon	-12.3939
▁Netherlands	-12.3939
▁Philadelphia	-12.3939
▁apologize	-12.3939
▁astronomy	-12.3939
▁calculus	-12.3939
▁favela	-12.3939
▁orientation	-12.3939
▁siblings	-12.3939
▁statue	-12.3939
▁retain	-12.3939
▁racial	-12.3939
▁entities	-12.3939
▁retina	-12.3939
▁preced	-12.3939
▁minimal	-12.3939
▁shatter	-12.3939
▁faint	-12.3939
▁Fund	-12.394
▁racing	-12.394
▁prostitution	-12.394
▁digging	-12.394
▁flock	-12.394
▁Kids	-12.394
litary	-12.394
▁cafe	-12.3941
▁transmitted	-12.3941
▁whip	-12.3941
▁differentiate	-12.3941
▁Wright	-12.3941
▁Harry	-12.3942
▁Marine	-12.3944
▁Laden	-12.3945
▁Camp	-12.3945
▁dishes	-12.3946
▁richest	-12.3946
▁Chap	-12.3949
▁continuously	-12.3951
▁disk	-12.3953
▁stain	-12.3954
▁Vent	-12.3956
▁secondary	-12.3957
▁Intel	-12.3958
pulsion	-12.3959
▁progression	-12.3962
▁dune	-12.3969
▁rescued	-12.3975
▁pul	-12.4
▁regional	-12.4019
dependent	-12.4055
▁hacker	-12.4059
▁humble	-12.4078
corn	-12.4083
stitution	-12.4113
built	-12.4124
percent	-12.4126
▁Map	-12.4145
▁scare	-12.415
▁infect	-12.4155
atter	-12.4161
▁cloth	-12.4163
pound	-12.4168
▁distribute	-12.4168
▁referr	-12.4174
▁drama	-12.4183
nsylvania	-12.4183
▁symmetric	-12.4183
▁Medicine	-12.4183
▁Mozart	-12.4183
▁configuration	-12.4183
▁holiday	-12.4183
▁institute	-12.4183
▁mobilize	-12.4183
▁module	-12.4183
▁Charlie	-12.4183
▁Christopher	-12.4183
▁Jersey	-12.4183
▁Joseph	-12.4183
▁Library	-12.4183
▁Sarah	-12.4183
▁abroad	-12.4183
▁analyzing	-12.4183
▁celebration	-12.4183
▁cocktail	-12.4183
▁council	-12.4183
▁criteria	-12.4183
▁disturbing	-12.4183
▁educator	-12.4183
▁fantasy	-12.4183
▁gravitational	-12.4183
▁laboratories	-12.4183
▁multinational	-12.4183
▁neocortex	-12.4183
▁pixel	-12.4183
▁premise	-12.4183
▁satisfaction	-12.4183
▁soccer	-12.4183
▁terrific	-12.4183
▁stimulation	-12.4183
▁isolation	-12.4183
▁peel	-12.4183
▁piss	-12.4183
▁luckily	-12.4183
▁entrance	-12.4183
▁chess	-12.4183
▁Goals	-12.4184
▁Luther	-12.4184
▁Old	-12.4184
▁emergence	-12.4184
▁Greenland	-12.4184
▁spite	-12.4185
▁celebrity	-12.4185
▁authenticity	-12.4185
▁preparation	-12.4185
▁Sound	-12.4187
▁revolutionary	-12.4188
▁scientifically	-12.4189
▁protective	-12.4191
▁liar	-12.4191
▁defi	-12.4193
For	-12.4193
▁taxi	-12.4204
assembled	-12.421
▁Opera	-12.4214
▁discussed	-12.4217
▁pouring	-12.4217
▁dam	-12.4281
▁Ask	-12.4322
minded	-12.4348
▁surviv	-12.4368
held	-12.4374
▁Lama	-12.4384
▁trail	-12.4404
▁skeptic	-12.4408
▁differ	-12.4432
▁autonom	-12.4433
equipped	-12.4433
▁prohibit	-12.4433
▁Alaska	-12.4433
▁Cyrus	-12.4433
▁Kennedy	-12.4433
▁Montana	-12.4433
▁Sierra	-12.4433
▁Thailand	-12.4433
▁Tokyo	-12.4433
▁authoritarian	-12.4433
▁congestion	-12.4433
▁embracing	-12.4433
▁entitle	-12.4433
▁exquisite	-12.4433
▁fractal	-12.4433
▁idiot	-12.4433
▁integrity	-12.4433
▁metabolism	-12.4433
▁penalty	-12.4433
▁sensitivity	-12.4433
▁shaking	-12.4433
▁significance	-12.4433
▁surgical	-12.4433
▁technician	-12.4433
▁ultraviolet	-12.4433
▁unfair	-12.4433
▁Suppose	-12.4433
▁conquer	-12.4433
▁Know	-12.4433
▁ancestr	-12.4433
▁feather	-12.4433
▁famine	-12.4433
▁Nepal	-12.4433
▁scholarship	-12.4433
▁acute	-12.4433
▁tribal	-12.4433
▁inspect	-12.4433
▁envision	-12.4433
▁Monday	-12.4434
▁distress	-12.4434
▁improvisation	-12.4434
▁firing	-12.4434
▁rigid	-12.4434
▁iceberg	-12.4434
▁baker	-12.4434
▁spear	-12.4434
▁connectome	-12.4435
▁Alice	-12.4435
▁manifestation	-12.4435
▁cult	-12.4435
▁swap	-12.4437
▁mandate	-12.4438
▁BJ	-12.4441
▁Milo	-12.4441
▁mating	-12.4442
▁Dick	-12.4444
▁lightning	-12.4444
▁DR	-12.4445
▁exponentially	-12.4445
▁exit	-12.4448
▁consideration	-12.4448
▁DP	-12.4449
▁magician	-12.4451
▁RM	-12.4453
▁restriction	-12.4456
▁Scr	-12.4463
▁Ross	-12.4464
To	-12.4473
▁legally	-12.4485
▁Less	-12.4519
position	-12.4523
abandoned	-12.4526
▁vegetable	-12.4556
▁trait	-12.4556
▁folk	-12.4556
you	-12.4566
▁fin	-12.4574
▁continu	-12.4602
zen	-12.4609
▁resemble	-12.4611
mission	-12.4629
Thank	-12.4631
million	-12.4631
▁Nav	-12.4646
case	-12.4655
cumen	-12.4664
▁applie	-12.4675
▁Pete	-12.4684
▁Bali	-12.4687
imb	-12.4687
▁statistical	-12.4687
responsibilities	-12.469
▁Georgia	-12.469
▁Tunisia	-12.469
▁avatar	-12.469
▁catastrophe	-12.469
▁ghost	-12.469
▁ladder	-12.469
▁thrust	-12.469
▁turtle	-12.469
triguing	-12.469
▁Machine	-12.469
▁RNA	-12.469
▁altogether	-12.469
▁chemotherapy	-12.469
▁cholera	-12.469
▁cooperative	-12.469
▁deciding	-12.469
▁dismiss	-12.469
▁evaluate	-12.469
▁genomic	-12.469
▁invasion	-12.469
▁longevity	-12.469
▁metabolic	-12.469
▁observing	-12.469
▁participating	-12.469
▁portray	-12.469
▁prosecutor	-12.469
▁regulator	-12.469
▁slogan	-12.469
▁steady	-12.469
▁violin	-12.469
▁vitamin	-12.469
▁copied	-12.469
▁escalat	-12.469
▁Bosnia	-12.469
▁funeral	-12.469
humility	-12.469
ruce	-12.469
▁wives	-12.469
▁fuck	-12.469
▁encyclopedia	-12.469
▁cinema	-12.469
▁Jefferson	-12.469
▁Defen	-12.469
▁captain	-12.469
▁Hubble	-12.469
▁locomotion	-12.469
▁priorities	-12.469
▁tagged	-12.469
▁mixture	-12.469
▁logging	-12.469
▁cellphone	-12.469
▁disruptive	-12.4691
▁internet	-12.4691
▁Simon	-12.4691
▁veil	-12.4691
▁potent	-12.4692
▁scarce	-12.4692
▁empowerment	-12.4692
▁hive	-12.4693
▁profitable	-12.4693
▁Phil	-12.4698
▁mustache	-12.47
▁disappointed	-12.4704
genic	-12.4705
▁governor	-12.4711
▁observer	-12.4716
▁tract	-12.4721
virus	-12.4721
acco	-12.4722
▁successes	-12.4726
▁Abed	-12.4731
blowing	-12.4734
▁menu	-12.4746
▁Yo	-12.4751
▁heroin	-12.4758
luck	-12.4778
gro	-12.4786
▁dispers	-12.479
viable	-12.4797
▁Post	-12.4804
▁demonstrat	-12.4821
incidentally	-12.4822
▁Stan	-12.4829
▁negotiat	-12.4841
▁eco	-12.4841
▁redefine	-12.4851
▁skip	-12.486
▁fog	-12.4877
▁Columbia	-12.4889
school	-12.4893
▁depriv	-12.4894
spread	-12.4894
▁digitize	-12.4914
▁Band	-12.4929
▁improvise	-12.4933
▁dedicat	-12.4937
Pa	-12.494
▁Sahara	-12.4942
La	-12.4947
▁circulat	-12.495
▁dictator	-12.4952
▁dysfunction	-12.4953
▁nurture	-12.4953
▁obligation	-12.4953
▁Association	-12.4953
▁Everest	-12.4953
▁Phoenix	-12.4953
▁PowerPoint	-12.4953
▁Tibet	-12.4953
▁ambulance	-12.4953
▁anthropologist	-12.4953
▁catastrophic	-12.4953
▁conviction	-12.4953
▁extensive	-12.4953
▁frequencies	-12.4953
▁gasoline	-12.4953
▁identities	-12.4953
▁imperative	-12.4953
▁memorial	-12.4953
▁nonetheless	-12.4953
▁obsolete	-12.4953
▁occupie	-12.4953
▁polite	-12.4953
▁province	-12.4953
▁reproductive	-12.4953
▁revelation	-12.4953
▁salmon	-12.4953
▁slaughter	-12.4953
▁snail	-12.4953
▁swamp	-12.4953
▁tangible	-12.4953
▁triumph	-12.4953
▁unleash	-12.4953
▁violate	-12.4953
compatible	-12.4953
▁Clear	-12.4953
▁gaze	-12.4953
▁overseas	-12.4953
▁silicon	-12.4953
▁squid	-12.4953
▁Power	-12.4953
▁noisy	-12.4953
▁shining	-12.4953
enabling	-12.4953
▁thermal	-12.4953
▁oven	-12.4953
▁Liberia	-12.4953
▁Libya	-12.4953
▁Somalia	-12.4953
▁Tower	-12.4953
▁Learn	-12.4953
▁Sudan	-12.4953
centric	-12.4953
▁grabbed	-12.4953
▁singular	-12.4953
▁Norden	-12.4953
▁diplomacy	-12.4953
▁blueprint	-12.4954
▁assessment	-12.4954
▁curator	-12.4954
▁ease	-12.4955
▁admitted	-12.4955
▁Notice	-12.4955
▁planner	-12.4956
▁sync	-12.4957
▁Peru	-12.4959
▁symbolic	-12.496
▁Treat	-12.4961
Hmm	-12.4967
▁UK	-12.4973
▁abstraction	-12.4977
▁activated	-12.4977
▁composer	-12.4979
▁Cold	-12.4981
▁cleaner	-12.4989
▁matche	-12.4998
Ah	-12.5016
▁erase	-12.5018
bran	-12.5044
▁kite	-12.5054
▁glu	-12.5059
ither	-12.5059
▁heroic	-12.5059
▁satisfy	-12.5065
section	-12.5071
▁unsee	-12.5088
▁obstacle	-12.5089
▁ancestor	-12.509
▁headline	-12.5103
stein	-12.5109
passes	-12.5113
▁publisher	-12.5115
note	-12.5125
standing	-12.5152
mapped	-12.5161
walk	-12.5164
Africa	-12.5164
control	-12.5165
write	-12.5166
engineering	-12.5178
▁dip	-12.5182
▁combin	-12.5183
NG	-12.5186
pecies	-12.5222
▁generator	-12.5223
sourcing	-12.5223
▁Buddha	-12.5223
▁Building	-12.5223
▁CRISPR	-12.5223
▁Cambodia	-12.5223
▁Fifty	-12.5223
▁Interestingly	-12.5223
▁Joshua	-12.5223
▁Linux	-12.5223
▁Nairobi	-12.5223
▁Similarly	-12.5223
▁Thirty	-12.5223
▁Tuesday	-12.5223
▁absurd	-12.5223
▁abundant	-12.5223
▁angiogenesis	-12.5223
▁bacterium	-12.5223
▁beneficial	-12.5223
▁delicate	-12.5223
▁friction	-12.5223
▁fuzzy	-12.5223
▁gigantic	-12.5223
▁guerrilla	-12.5223
▁intimacy	-12.5223
▁kindergarten	-12.5223
▁libraries	-12.5223
▁neglect	-12.5223
▁northeast	-12.5223
▁nuclei	-12.5223
▁numerous	-12.5223
▁occupation	-12.5223
▁reclaim	-12.5223
▁relativity	-12.5223
▁reproduction	-12.5223
▁utility	-12.5223
▁Canyon	-12.5223
▁honeybee	-12.5223
▁perpetrat	-12.5223
▁cease	-12.5223
▁bulk	-12.5223
▁Wood	-12.5223
▁cement	-12.5223
▁correlate	-12.5223
▁desktop	-12.5224
▁rehabilitation	-12.5224
▁vanish	-12.5224
▁crank	-12.5224
▁replacing	-12.5225
▁fled	-12.5227
▁manipulation	-12.5227
▁voters	-12.5227
▁delete	-12.5228
▁rays	-12.5228
▁intentional	-12.5229
▁Book	-12.523
▁sadness	-12.5231
▁sexuality	-12.5231
▁biases	-12.5235
▁Fish	-12.5236
▁vest	-12.5237
▁Party	-12.5238
▁Jean	-12.5239
▁zip	-12.524
▁eighth	-12.5242
▁reside	-12.5242
▁cartoonist	-12.5253
▁dent	-12.5261
▁intend	-12.5264
▁receiver	-12.5277
▁Gius	-12.5291
▁fame	-12.5296
oriented	-12.5328
other	-12.5336
▁characteristic	-12.5369
▁curl	-12.5394
gency	-12.5399
▁invade	-12.5405
▁compil	-12.5425
controlled	-12.5442
shift	-12.5442
breaking	-12.5452
▁manipulat	-12.5466
uite	-12.548
conscious	-12.5484
▁tempt	-12.5499
▁Univers	-12.5499
▁conserv	-12.55
▁orphan	-12.55
▁Venus	-12.5501
▁dispute	-12.5501
▁hamburger	-12.5501
▁pharma	-12.5501
▁pricing	-12.5501
▁Austria	-12.5501
▁Caribbean	-12.5501
▁Empire	-12.5501
▁Larry	-12.5501
▁Michigan	-12.5501
▁Movement	-12.5501
▁Namibia	-12.5501
▁Stewart	-12.5501
▁Student	-12.5501
▁Sylvia	-12.5501
▁calculator	-12.5501
▁calendar	-12.5501
▁controversy	-12.5501
▁convincing	-12.5501
▁curtain	-12.5501
▁dictionaries	-12.5501
▁displaced	-12.5501
▁essay	-12.5501
▁hammer	-12.5501
▁iPad	-12.5501
▁ingenuity	-12.5501
▁liberty	-12.5501
▁maintenance	-12.5501
▁marijuana	-12.5501
▁promoting	-12.5501
▁reflex	-12.5501
▁resort	-12.5501
▁shepherd	-12.5501
▁smuggl	-12.5501
▁sulfide	-12.5501
▁symmetries	-12.5501
▁committee	-12.5501
▁humankind	-12.5501
▁autistic	-12.5501
▁goodbye	-12.5501
▁causal	-12.5501
▁flexibility	-12.5501
▁collar	-12.5501
▁ashamed	-12.5501
▁Garden	-12.5501
▁greed	-12.5501
▁appreciation	-12.5502
▁Step	-12.5502
▁urgent	-12.5503
▁textile	-12.5503
▁mature	-12.5503
▁seawater	-12.5503
▁urbanization	-12.5503
▁baseline	-12.5503
▁Lyn	-12.5504
▁bay	-12.5505
▁pillar	-12.5505
▁fungi	-12.5505
▁problematic	-12.5506
▁spontaneously	-12.5506
▁Beach	-12.5508
▁repeatedly	-12.551
▁Rover	-12.5511
▁accountable	-12.5514
▁injection	-12.5515
▁glove	-12.5516
▁Heart	-12.5521
▁Fred	-12.5522
▁apes	-12.5523
▁skeptical	-12.5529
▁dorm	-12.5536
▁Iraqi	-12.5576
code	-12.5622
▁overlook	-12.5653
Cola	-12.5666
▁optic	-12.5693
sensitive	-12.5727
script	-12.5727
cultural	-12.5728
screen	-12.5728
MG	-12.5766
ristine	-12.5769
▁disappoint	-12.577
▁stigma	-12.5784
▁psychiatri	-12.5784
cientific	-12.5786
anatomy	-12.5786
▁Environment	-12.5786
▁affirm	-12.5786
▁irrigat	-12.5786
▁manuscript	-12.5786
▁thorough	-12.5786
imbabwe	-12.5786
▁CMU	-12.5786
▁Carnegie	-12.5786
▁Climate	-12.5786
▁Country	-12.5786
▁Dallas	-12.5786
▁Himalaya	-12.5786
▁Kepler	-12.5786
▁chaotic	-12.5786
▁destructive	-12.5786
▁disabilities	-12.5786
▁disadvantage	-12.5786
▁dissolve	-12.5786
▁eBay	-12.5786
▁fierce	-12.5786
▁fishermen	-12.5786
▁frustrating	-12.5786
▁infrared	-12.5786
▁inherited	-12.5786
▁pervasive	-12.5786
▁physiology	-12.5786
▁plankton	-12.5786
▁powder	-12.5786
▁prevalence	-12.5786
▁pursuing	-12.5786
▁quantities	-12.5786
▁rectangle	-12.5786
▁sediment	-12.5786
▁supernova	-12.5786
▁symphon	-12.5786
▁thylacine	-12.5786
▁Tele	-12.5786
▁abnormal	-12.5786
▁anxious	-12.5786
▁salary	-12.5786
generative	-12.5786
▁Small	-12.5786
▁Tesla	-12.5786
▁Lagos	-12.5786
▁hatred	-12.5787
▁tilt	-12.5787
▁geometric	-12.5787
Wonder	-12.5787
▁Large	-12.5787
▁marrow	-12.5787
▁Common	-12.5787
▁memorize	-12.5787
▁blogger	-12.5788
urgency	-12.5788
▁legend	-12.5788
▁accomplishment	-12.5788
▁lump	-12.5788
▁Simpl	-12.5788
▁sneakers	-12.5789
▁dragon	-12.5789
▁insult	-12.579
▁visitors	-12.579
▁Native	-12.5791
▁deliberately	-12.5791
▁flush	-12.5792
▁Data	-12.5794
▁affection	-12.5799
▁MO	-12.58
▁supportive	-12.5801
▁worldview	-12.5803
▁lend	-12.5809
Hi	-12.5878
▁reache	-12.59
specially	-12.5939
▁Maria	-12.5945
▁NGO	-12.5947
▁elect	-12.6017
social	-12.6022
patient	-12.6023
▁gig	-12.6045
▁inherent	-12.6073
▁censor	-12.608
▁flex	-12.608
▁temper	-12.6081
▁cabinet	-12.6081
▁cathedral	-12.6081
▁defect	-12.6081
▁fireflies	-12.6081
▁intrigue	-12.6081
▁leopard	-12.6081
▁opponent	-12.6081
▁peanut	-12.6081
▁uncover	-12.6081
▁yeast	-12.6081
▁Norwegian	-12.6081
▁OECD	-12.6081
▁Portugal	-12.6081
▁Princeton	-12.6081
▁Usually	-12.6081
▁Venezuela	-12.6081
▁applause	-12.6081
▁brainstorm	-12.6081
▁embodied	-12.6081
▁gadget	-12.6081
▁generosity	-12.6081
▁grammar	-12.6081
▁grassroots	-12.6081
▁indication	-12.6081
▁janitor	-12.6081
▁microscopic	-12.6081
▁monarch	-12.6081
▁mycelium	-12.6081
▁patience	-12.6081
▁romance	-12.6081
▁submarine	-12.6081
▁timber	-12.6081
▁utiliz	-12.6081
▁ALS	-12.6081
▁Food	-12.6081
▁Yellow	-12.6081
▁casual	-12.6081
▁prioritize	-12.6081
▁rival	-12.6081
▁carrot	-12.6081
▁valve	-12.6081
▁shove	-12.6081
▁bionic	-12.6081
▁citizenship	-12.6081
▁entrepreneurial	-12.6081
▁Golden	-12.6084
▁gait	-12.6084
▁posture	-12.6084
▁reflective	-12.6084
▁newborn	-12.6085
▁Grow	-12.6085
▁hallway	-12.6086
▁stepping	-12.6086
▁sang	-12.6088
▁Paulo	-12.6089
▁statistically	-12.609
▁Line	-12.61
▁customiz	-12.6126
▁flap	-12.6127
borne	-12.614
▁interfere	-12.6141
▁lips	-12.6143
▁strengthen	-12.615
plex	-12.6163
▁loo	-12.6171
▁shap	-12.6185
lcome	-12.6195
▁symptom	-12.625
traumatic	-12.6286
▁ignor	-12.6289
piece	-12.6325
Would	-12.6325
Good	-12.6325
structure	-12.6325
metric	-12.6326
turn	-12.6327
Star	-12.6327
axis	-12.6328
Come	-12.6331
friendly	-12.6331
▁fertiliz	-12.6331
acquired	-12.6332
▁remov	-12.6336
born	-12.6336
ripped	-12.6342
▁tin	-12.635
icious	-12.6356
stimulat	-12.6362
▁expose	-12.6369
▁recycle	-12.6371
▁societ	-12.6376
▁fec	-12.6377
▁thermo	-12.6382
▁facult	-12.6384
▁Connecticut	-12.6384
▁Jamaica	-12.6384
▁Orleans	-12.6384
▁embryo	-12.6384
▁lesbian	-12.6384
▁mammoth	-12.6384
▁penetrate	-12.6384
▁playground	-12.6384
▁spaghetti	-12.6384
▁specimen	-12.6384
▁synchroniz	-12.6384
Keith	-12.6384
▁Kansas	-12.6384
▁Kiribati	-12.6384
▁Oklahoma	-12.6384
▁Pittsburgh	-12.6384
▁Roosevelt	-12.6384
▁adolescence	-12.6384
▁aluminum	-12.6384
▁arbitrary	-12.6384
▁biosphere	-12.6384
▁calculating	-12.6384
▁celebrating	-12.6384
▁distill	-12.6384
▁easiest	-12.6384
▁elbow	-12.6384
▁equilibrium	-12.6384
▁galleries	-12.6384
▁hobby	-12.6384
▁indirect	-12.6384
▁injustice	-12.6384
▁nevertheless	-12.6384
▁pregnancy	-12.6384
▁propaganda	-12.6384
▁quantity	-12.6384
▁rhino	-12.6384
▁shelves	-12.6384
▁subsequent	-12.6384
▁victory	-12.6384
▁voyage	-12.6384
▁chord	-12.6384
▁doubling	-12.6384
▁internship	-12.6384
▁Cancer	-12.6384
▁Royal	-12.6384
▁erupt	-12.6384
▁Siberia	-12.6384
▁Often	-12.6384
▁miniatur	-12.6384
▁flick	-12.6384
▁transferred	-12.6384
▁Secretary	-12.6384
▁resonate	-12.6384
▁modify	-12.6384
▁terminal	-12.6384
▁dwell	-12.6384
▁gym	-12.6384
▁carrier	-12.6384
hhh	-12.6384
▁deplet	-12.6384
▁electromagnetic	-12.6384
▁billboard	-12.6384
▁missile	-12.6384
▁polymer	-12.6385
▁criticism	-12.6385
▁Brit	-12.6385
▁Danny	-12.6385
▁Prime	-12.6385
▁passport	-12.6385
▁breakdown	-12.6386
▁mund	-12.6386
▁Johnny	-12.6386
▁Nazi	-12.6386
▁spade	-12.6387
▁puff	-12.6387
▁weakness	-12.6389
▁Coca	-12.6389
▁colorful	-12.6392
▁deny	-12.6396
▁illnesses	-12.6396
▁sentiment	-12.6398
▁captur	-12.6399
▁rib	-12.6417
▁conception	-12.6425
▁shred	-12.6434
threatening	-12.6464
reedom	-12.6464
▁fuse	-12.6472
▁clone	-12.6516
loved	-12.6621
design	-12.6635
▁releas	-12.6635
correct	-12.6637
atomic	-12.6637
Every	-12.6637
culture	-12.6638
▁Side	-12.6644
▁packag	-12.6649
▁mount	-12.6684
induced	-12.6685
▁dragge	-12.6685
▁numb	-12.6689
▁encrypt	-12.6694
▁meditat	-12.6695
▁analys	-12.6696
▁monk	-12.6696
▁Service	-12.6696
▁Taiwan	-12.6696
▁accompanie	-12.6696
▁broccoli	-12.6696
▁buzz	-12.6696
▁cultivate	-12.6696
▁duration	-12.6696
▁harass	-12.6696
▁helmet	-12.6696
▁imprison	-12.6696
▁oyster	-12.6696
▁pessimis	-12.6696
▁visceral	-12.6696
▁Chuck	-12.6696
▁Denmark	-12.6696
▁Diego	-12.6696
▁Galapagos	-12.6696
▁Kosovo	-12.6696
▁Recently	-12.6696
▁SMS	-12.6696
▁Snowden	-12.6696
▁companion	-12.6696
▁comprehensive	-12.6696
▁confusion	-12.6696
▁executed	-12.6696
▁existential	-12.6696
▁genital	-12.6696
▁horrific	-12.6696
▁introducing	-12.6696
▁loneli	-12.6696
▁modified	-12.6696
▁niece	-12.6696
▁nonsense	-12.6696
▁nucleus	-12.6696
▁parameters	-12.6696
▁rainfall	-12.6696
▁satisfied	-12.6696
▁syringe	-12.6696
▁unemployment	-12.6696
▁velocity	-12.6696
▁wreck	-12.6696
▁choir	-12.6696
▁technologist	-12.6696
esteem	-12.6696
▁backpack	-12.6696
▁benign	-12.6696
▁chick	-12.6696
▁imitate	-12.6696
▁shuttle	-12.6696
▁audaci	-12.6696
▁motorcycle	-12.6696
▁masterpiece	-12.6696
▁Jobs	-12.6696
▁Nathan	-12.6696
▁skate	-12.6696
▁battlefield	-12.6696
▁compass	-12.6696
▁entity	-12.6696
partisan	-12.6696
▁Invest	-12.6696
▁Cultur	-12.6696
▁conscience	-12.6697
▁marvelous	-12.6697
▁coincidence	-12.6697
▁Alright	-12.6698
utheast	-12.6698
▁distinctive	-12.6698
link	-12.6698
▁shade	-12.6698
▁blanket	-12.6698
▁courageous	-12.6698
▁Roger	-12.6699
▁Tasmanian	-12.6699
▁Down	-12.6699
▁ramp	-12.6699
▁circulation	-12.6699
quatic	-12.6699
▁copper	-12.6699
▁eradication	-12.6699
▁Leone	-12.6699
▁adaptive	-12.6701
▁explicitly	-12.6702
▁brin	-12.6702
▁reasonably	-12.6703
▁Slow	-12.6703
▁meaningless	-12.6704
▁Fast	-12.6706
▁Mola	-12.6708
▁Auto	-12.6709
▁cardio	-12.671
▁crust	-12.6712
▁distraction	-12.6712
▁reuse	-12.672
▁Merc	-12.6724
nguish	-12.6737
▁incorporate	-12.6739
izard	-12.6759
lody	-12.6766
▁Lewi	-12.6771
▁polariz	-12.6771
▁bypass	-12.6812
▁mic	-12.6813
▁dye	-12.6832
▁incremental	-12.6837
▁antibiotic	-12.6885
▁buck	-12.6912
engineer	-12.6943
friend	-12.6952
▁inexpensive	-12.6955
▁Turk	-12.6958
security	-12.696
government	-12.696
credit	-12.696
child	-12.696
shine	-12.6971
▁recreate	-12.6978
▁possess	-12.7006
▁Francis	-12.7018
▁Angel	-12.7018
▁straw	-12.7019
▁Massac	-12.7019
Believe	-12.7019
olocaust	-12.7019
▁Muhammad	-12.7019
▁Parliament	-12.7019
▁approval	-12.7019
▁bureaucrat	-12.7019
▁commute	-12.7019
▁intangible	-12.7019
▁mortgage	-12.7019
▁octopus	-12.7019
▁prevail	-12.7019
▁promotion	-12.7019
▁Amsterdam	-12.7019
▁Edinburgh	-12.7019
▁Hindu	-12.7019
▁Information	-12.7019
▁LGBT	-12.7019
▁Michelangelo	-12.7019
▁abortion	-12.7019
▁activism	-12.7019
▁altruism	-12.7019
▁athletic	-12.7019
▁calcium	-12.7019
▁catalog	-12.7019
▁commodities	-12.7019
▁cybercriminal	-12.7019
▁hypotheses	-12.7019
▁maximize	-12.7019
▁migraine	-12.7019
▁paralysis	-12.7019
▁prejudice	-12.7019
▁puberty	-12.7019
▁quantitative	-12.7019
▁recipient	-12.7019
▁resonance	-12.7019
▁seafood	-12.7019
▁stratosphere	-12.7019
▁suburban	-12.7019
▁superhero	-12.7019
▁superior	-12.7019
▁throat	-12.7019
▁vegetation	-12.7019
▁Leader	-12.7019
▁Tech	-12.7019
▁pediatric	-12.7019
▁radar	-12.7019
▁geological	-12.7019
▁immerse	-12.7019
▁jury	-12.7019
▁tennis	-12.7019
▁halve	-12.7019
▁Julie	-12.7019
▁prophet	-12.7019
▁temporal	-12.7019
▁permit	-12.7019
▁Commission	-12.7019
▁grape	-12.7019
▁hallucinations	-12.7019
▁midnight	-12.7019
▁drip	-12.7019
▁scroll	-12.7019
▁equator	-12.7019
▁bombsight	-12.7019
▁keen	-12.7019
▁Find	-12.7019
▁nitr	-12.702
cratic	-12.702
▁dependence	-12.702
▁Norman	-12.702
▁deployment	-12.702
▁temptation	-12.702
▁shipped	-12.7021
▁compact	-12.7021
zona	-12.7021
▁Death	-12.7022
▁Justice	-12.7022
▁Jill	-12.7023
▁undermine	-12.7024
▁Susan	-12.7029
▁Plu	-12.703
▁hatch	-12.703
▁dentist	-12.7032
▁grim	-12.7054
huse	-12.7083
▁justify	-12.7092
▁Rica	-12.7137
▁poetic	-12.7183
▁Nu	-12.719
▁Land	-12.7223
▁Levi	-12.7244
▁Radio	-12.7247
▁admir	-12.7277
▁Polic	-12.7278
lateral	-12.7284
▁Trad	-12.7284
lethal	-12.7293
performing	-12.7293
wheel	-12.7293
specific	-12.7293
brain	-12.7293
positive	-12.7293
▁guilt	-12.7346
▁stole	-12.7348
▁enforce	-12.7351
▁Virgin	-12.7351
▁Arduino	-12.7352
▁Bangalore	-12.7352
▁Luckily	-12.7352
▁Natasha	-12.7352
▁Skype	-12.7352
▁Sydney	-12.7352
▁Teszler	-12.7352
▁Victorian	-12.7352
▁anesthesia	-12.7352
▁attorney	-12.7352
▁auditorium	-12.7352
▁choreograph	-12.7352
▁crocodile	-12.7352
▁declining	-12.7352
▁delusion	-12.7352
▁depressing	-12.7352
▁fingertips	-12.7352
▁gratitude	-12.7352
▁hectare	-12.7352
▁hollow	-12.7352
▁imperfect	-12.7352
▁intricate	-12.7352
▁irrelevant	-12.7352
▁jacket	-12.7352
▁obscure	-12.7352
▁offshore	-12.7352
▁optimal	-12.7352
▁praise	-12.7352
▁recurr	-12.7352
▁rhetoric	-12.7352
▁royal	-12.7352
▁shield	-12.7352
▁submersible	-12.7352
▁treasure	-12.7352
▁turbine	-12.7352
▁unintended	-12.7352
▁violation	-12.7352
▁wavelength	-12.7352
▁Babylon	-12.7352
▁Company	-12.7352
▁Desert	-12.7352
▁collide	-12.7352
▁obey	-12.7352
▁regain	-12.7352
▁summary	-12.7352
▁surplus	-12.7352
▁wolves	-12.7352
▁wrestle	-12.7352
▁minimize	-12.7352
▁orgasm	-12.7352
▁Emily	-12.7352
▁Guinea	-12.7352
▁chalk	-12.7352
▁Medit	-12.7352
Excuse	-12.7352
mbiguous	-12.7352
▁verge	-12.7352
basking	-12.7352
▁stir	-12.7352
▁censorship	-12.7352
▁versa	-12.7352
▁invit	-12.7352
▁coding	-12.7353
▁multiverse	-12.7353
▁jewelry	-12.7353
▁orphanage	-12.7353
▁unacceptable	-12.7353
▁grassland	-12.7354
▁Nicole	-12.7354
▁shallow	-12.7354
▁Democratic	-12.7355
▁automatic	-12.7355
▁Costa	-12.7355
▁wax	-12.7355
tolerant	-12.7356
▁comparable	-12.7356
▁Report	-12.7357
scanned	-12.7358
▁remed	-12.7358
▁dude	-12.7359
▁Evan	-12.7359
▁possession	-12.7365
odd	-12.7376
▁enrich	-12.738
▁tropic	-12.7402
▁neurological	-12.7408
▁rage	-12.7424
ltered	-12.7441
Honey	-12.7452
bama	-12.7465
▁conceive	-12.7484
▁Carol	-12.7502
▁damag	-12.7523
▁captiv	-12.7533
natu	-12.7542
aches	-12.7544
▁corporation	-12.7563
▁outrage	-12.7602
▁Rub	-12.7608
▁Brea	-12.761
public	-12.7637
resistant	-12.7637
funded	-12.7638
resolution	-12.7638
▁morph	-12.7658
▁tid	-12.7669
▁speculati	-12.7686
▁literal	-12.769
ompassion	-12.7694
▁emphasi	-12.7697
▁Window	-12.7697
▁exclude	-12.7697
▁irrita	-12.7697
▁railway	-12.7697
▁Cairo	-12.7697
▁Copernic	-12.7697
▁Economic	-12.7697
▁Exactly	-12.7697
▁Finland	-12.7697
▁Katrina	-12.7697
▁LHC	-12.7697
▁Ooh	-12.7697
▁UCLA	-12.7697
▁Ultimately	-12.7697
▁accommodate	-12.7697
▁annoying	-12.7697
▁cartilage	-12.7697
▁certificate	-12.7697
▁compliment	-12.7697
▁debris	-12.7697
▁draft	-12.7697
▁dragonflies	-12.7697
▁ethanol	-12.7697
▁frightened	-12.7697
▁glory	-12.7697
▁grief	-12.7697
▁hypothetical	-12.7697
▁impaired	-12.7697
▁limestone	-12.7697
▁monsoon	-12.7697
▁railroad	-12.7697
▁rediscover	-12.7697
▁savanna	-12.7697
▁sulfur	-12.7697
▁surrender	-12.7697
▁tuberculosis	-12.7697
▁unemployed	-12.7697
▁venue	-12.7697
▁wetsuit	-12.7697
▁Doaa	-12.7697
▁Jerry	-12.7697
▁knot	-12.7697
▁vector	-12.7697
▁pepper	-12.7697
▁stiff	-12.7697
▁unstable	-12.7697
▁lamb	-12.7697
▁ideological	-12.7697
▁divine	-12.7697
▁snapshot	-12.7697
▁crater	-12.7697
▁reply	-12.7697
▁haunt	-12.7697
▁Help	-12.7697
▁supercomputer	-12.7697
▁glorious	-12.7697
visibility	-12.7697
▁Though	-12.7697
▁secular	-12.7697
▁Point	-12.7697
▁populate	-12.7698
▁Alpha	-12.7698
▁provision	-12.7698
▁mythology	-12.7698
▁standpoint	-12.7698
▁biotech	-12.7698
▁happiest	-12.7698
▁gambl	-12.7698
▁meditation	-12.7699
▁pollute	-12.7699
▁emergent	-12.7699
▁rug	-12.7699
▁hind	-12.7701
▁exploitation	-12.7701
classified	-12.7701
wiring	-12.7701
▁chill	-12.7702
▁similarities	-12.7703
▁disruption	-12.7704
▁consultant	-12.7706
▁Rule	-12.7714
▁conductor	-12.7715
▁Comp	-12.7721
▁seize	-12.7723
ureau	-12.7725
▁weave	-12.7732
▁Rich	-12.7733
▁revolutionize	-12.7751
▁joyful	-12.7753
▁Nico	-12.7765
entrepreneurship	-12.7783
▁fisc	-12.7795
▁undertak	-12.7822
▁epic	-12.7841
▁Astro	-12.7856
▁employee	-12.7921
▁thankful	-12.7938
▁explod	-12.7947
conduct	-12.7995
organism	-12.7995
secure	-12.7995
carbon	-12.7995
writing	-12.7995
growing	-12.7995
Because	-12.7995
great	-12.7995
group	-12.7996
▁socio	-12.7997
market	-12.7999
logged	-12.802
▁worrie	-12.8039
▁hung	-12.8045
placing	-12.8052
▁jewel	-12.8053
desirable	-12.8054
fertility	-12.8054
regulating	-12.8054
▁intimidat	-12.8054
▁Babbage	-12.8054
▁Baltimore	-12.8054
▁Language	-12.8054
▁Vegas	-12.8054
▁abusive	-12.8054
▁acceleration	-12.8054
▁algebra	-12.8054
▁analytical	-12.8054
▁arriving	-12.8054
▁bandwidth	-12.8054
▁bloom	-12.8054
▁census	-12.8054
▁determination	-12.8054
▁eager	-12.8054
▁excellence	-12.8054
▁graffiti	-12.8054
▁hurdle	-12.8054
▁implicit	-12.8054
▁improbable	-12.8054
▁incarceration	-12.8054
▁incomplete	-12.8054
▁larvae	-12.8054
▁lawsuit	-12.8054
▁malnutrition	-12.8054
▁millisecond	-12.8054
▁nectar	-12.8054
▁ozone	-12.8054
▁pivot	-12.8054
▁policing	-12.8054
▁psyche	-12.8054
▁relevance	-12.8054
▁remittance	-12.8054
▁responsive	-12.8054
▁simulator	-12.8054
▁solemn	-12.8054
▁thriving	-12.8054
▁unequal	-12.8054
▁vapor	-12.8054
▁volcanic	-12.8054
offensive	-12.8054
▁Cross	-12.8054
▁initiate	-12.8054
▁queue	-12.8054
▁Change	-12.8054
▁erotic	-12.8054
▁Kelly	-12.8054
▁Whitopia	-12.8054
hoven	-12.8054
▁nanotechnology	-12.8054
▁plumb	-12.8054
▁cried	-12.8054
▁instability	-12.8054
▁Index	-12.8054
▁spawn	-12.8054
▁contagious	-12.8054
ompanies	-12.8054
▁Wilson	-12.8055
▁continuum	-12.8055
▁Scottish	-12.8055
▁continually	-12.8055
▁innate	-12.8055
▁Franklin	-12.8055
▁rooftop	-12.8055
▁recreation	-12.8055
▁worthwhile	-12.8055
▁burial	-12.8055
▁methodology	-12.8055
▁bunk	-12.8056
▁encryption	-12.8056
ehind	-12.8056
▁guideline	-12.8056
▁bombard	-12.8057
▁Pink	-12.8057
▁forcing	-12.8058
▁boson	-12.8058
▁Full	-12.8059
▁misuse	-12.8059
▁Darwinian	-12.8062
derived	-12.8072
▁reconnect	-12.8083
▁Stein	-12.8094
nanometer	-12.8103
▁trafficke	-12.8111
▁uncertain	-12.8133
colonial	-12.8155
▁originate	-12.8186
▁Julia	-12.8193
Barack	-12.8202
▁anthr	-12.8258
▁clon	-12.8264
▁Julian	-12.8282
▁styl	-12.8309
predictable	-12.8365
appropriate	-12.8365
solving	-12.8365
Great	-12.8365
conflict	-12.8365
color	-12.8366
guard	-12.8368
cycle	-12.837
value	-12.8371
▁astonish	-12.8407
▁excite	-12.8409
▁dominate	-12.841
▁refrigerat	-12.8413
▁spontaneous	-12.8417
▁mortal	-12.8423
▁advent	-12.8424
▁altruist	-12.8424
▁condemn	-12.8424
▁Already	-12.8424
▁DARPA	-12.8424
▁Kyoto	-12.8424
▁Ministry	-12.8424
▁Network	-12.8424
▁Palestine	-12.8424
▁Patient	-12.8424
▁SARS	-12.8424
▁Sputnik	-12.8424
▁Ushahidi	-12.8424
▁Venice	-12.8424
▁adjacent	-12.8424
▁ambassador	-12.8424
▁anecdote	-12.8424
▁astronomical	-12.8424
▁capsule	-12.8424
▁cerebral	-12.8424
▁charities	-12.8424
▁dictate	-12.8424
▁embark	-12.8424
▁estrogen	-12.8424
▁fracture	-12.8424
▁fundraising	-12.8424
▁hurricane	-12.8424
▁investigating	-12.8424
▁laundry	-12.8424
▁nurturing	-12.8424
▁perceptual	-12.8424
▁prototyping	-12.8424
▁provoke	-12.8424
▁repertoire	-12.8424
▁servant	-12.8424
▁supplement	-12.8424
▁testimon	-12.8424
▁varieties	-12.8424
▁volatil	-12.8424
▁Cooper	-12.8424
▁balcon	-12.8424
▁meadow	-12.8424
▁measurabl	-12.8424
▁withdraw	-12.8424
▁Perfect	-12.8424
▁unaware	-12.8424
▁racism	-12.8424
▁EDI	-12.8424
▁Physic	-12.8424
▁quiz	-12.8424
▁serial	-12.8424
League	-12.8424
charging	-12.8424
▁underpin	-12.8424
▁neurogenesis	-12.8424
▁forehead	-12.8424
▁mutant	-12.8424
▁tinker	-12.8424
▁urine	-12.8424
▁Speak	-12.8424
▁Game	-12.8425
▁Renaissance	-12.8425
▁Scotland	-12.8425
▁propagat	-12.8425
▁petals	-12.8425
▁vicious	-12.8425
▁Irish	-12.8425
▁preferred	-12.8425
▁swear	-12.8425
▁cheek	-12.8425
▁discard	-12.8426
▁iteration	-12.8426
▁misery	-12.8426
▁sword	-12.8426
▁raft	-12.8426
▁Fox	-12.8426
▁constructive	-12.8427
▁decode	-12.8427
▁dining	-12.8427
▁feat	-12.8427
▁attachment	-12.8427
▁swell	-12.8427
▁evaporate	-12.8428
▁pore	-12.843
▁slot	-12.8432
▁erect	-12.8441
quarters	-12.8454
biotechnology	-12.847
▁inflate	-12.8505
▁linguistic	-12.8514
dragging	-12.852
▁diminish	-12.8524
oxic	-12.8542
uestion	-12.8578
mehow	-12.8613
▁humbl	-12.8648
▁emission	-12.8677
▁Mov	-12.8708
acqu	-12.8711
surfing	-12.8745
educated	-12.875
typical	-12.875
learn	-12.8751
forward	-12.8751
sharing	-12.8764
▁interconnect	-12.8792
▁wak	-12.8795
▁Whit	-12.8797
▁twenty	-12.8809
counterintuitive	-12.8809
disciplinary	-12.8809
▁Amazing	-12.8809
▁Depression	-12.8809
▁Group	-12.8809
▁Guatemala	-12.8809
▁Jazeera	-12.8809
▁Lawrence	-12.8809
▁Margaret	-12.8809
▁Marshall	-12.8809
▁MoMA	-12.8809
▁Modern	-12.8809
▁Ninety	-12.8809
▁Pantheon	-12.8809
▁Pixar	-12.8809
▁Samuel	-12.8809
▁Toronto	-12.8809
▁Virtual	-12.8809
▁administrator	-12.8809
▁agnostic	-12.8809
▁announcement	-12.8809
▁antidepressant	-12.8809
▁cognition	-12.8809
▁communal	-12.8809
▁convenience	-12.8809
▁empirical	-12.8809
▁epiphan	-12.8809
▁facilitate	-12.8809
▁homosexual	-12.8809
▁integrating	-12.8809
▁latitude	-12.8809
▁livelihood	-12.8809
▁municipal	-12.8809
▁nickname	-12.8809
▁nonviolent	-12.8809
▁nuance	-12.8809
▁orangutan	-12.8809
▁pancreatic	-12.8809
▁paragraph	-12.8809
▁polish	-12.8809
▁rainbow	-12.8809
▁reconcile	-12.8809
▁reluctant	-12.8809
▁retrofit	-12.8809
▁rigorous	-12.8809
▁scuba	-12.8809
▁simplistic	-12.8809
▁substitute	-12.8809
▁suspicious	-12.8809
▁template	-12.8809
▁testosterone	-12.8809
▁turbulen	-12.8809
▁vibrating	-12.8809
▁Glass	-12.8809
▁Spider	-12.8809
▁bluefin	-12.8809
▁checklist	-12.8809
▁fiddl	-12.8809
▁landfill	-12.8809
▁uplift	-12.8809
▁booth	-12.8809
▁gossip	-12.8809
▁crises	-12.8809
▁metropolitan	-12.8809
▁Model	-12.8809
▁personnel	-12.8809
▁physiological	-12.8809
▁teddy	-12.8809
▁Emma	-12.8809
▁Better	-12.8809
▁chemo	-12.8809
▁racist	-12.8809
▁disseminat	-12.8809
▁pension	-12.8809
▁scatter	-12.8809
▁aviation	-12.8809
entagon	-12.8809
▁nomad	-12.8809
▁bass	-12.8809
▁boyfriend	-12.8809
▁pearl	-12.8809
▁moderate	-12.881
▁aerial	-12.881
▁trustworth	-12.881
▁erectus	-12.881
▁Program	-12.881
▁clash	-12.8811
▁viewpoint	-12.8811
▁mutate	-12.8811
▁ranging	-12.8812
▁medal	-12.8812
▁peek	-12.8812
▁flor	-12.8812
▁tolerate	-12.8813
▁seren	-12.8817
▁paradi	-12.8817
▁calv	-12.8854
referred	-12.8892
outrageous	-12.8918
▁entr	-12.8974
fashioned	-12.8995
Psycho	-12.9009
▁ignoran	-12.9017
biotic	-12.902
lude	-12.907
trained	-12.9109
▁grace	-12.9132
violence	-12.915
white	-12.915
model	-12.915
good	-12.9151
burn	-12.9151
green	-12.9151
▁strap	-12.9171
acceptable	-12.9197
▁destin	-12.9201
▁frequent	-12.9202
▁marvel	-12.9208
illennium	-12.9209
juggling	-12.9209
▁vibran	-12.9209
▁deteriorat	-12.9209
ntelligence	-12.9209
rapeutic	-12.9209
retroviral	-12.9209
▁Darfur	-12.9209
▁Dylan	-12.9209
▁Field	-12.9209
▁Incredible	-12.9209
▁Murray	-12.9209
▁RISD	-12.9209
▁Village	-12.9209
▁Wolfram	-12.9209
▁ambiguity	-12.9209
▁catalyst	-12.9209
▁congress	-12.9209
▁devastated	-12.9209
▁educating	-12.9209
▁erosion	-12.9209
▁evident	-12.9209
▁gecko	-12.9209
▁hygien	-12.9209
▁literary	-12.9209
▁mammogram	-12.9209
▁medieval	-12.9209
▁miraculous	-12.9209
▁pneumonia	-12.9209
▁respiratory	-12.9209
▁seizure	-12.9209
▁sensible	-12.9209
▁strive	-12.9209
▁superstar	-12.9209
▁undercover	-12.9209
▁unfinished	-12.9209
▁veterinarian	-12.9209
▁Avenue	-12.9209
▁Conservati	-12.9209
▁Oregon	-12.9209
▁Pepsi	-12.9209
▁Taylor	-12.9209
▁behaving	-12.9209
▁confusing	-12.9209
▁excerpt	-12.9209
▁hippocampus	-12.9209
▁holistic	-12.9209
▁jeans	-12.9209
▁lymph	-12.9209
▁ruling	-12.9209
▁scalable	-12.9209
▁stagna	-12.9209
▁tuck	-12.9209
▁vibrate	-12.9209
▁Democracy	-12.9209
▁Type	-12.9209
▁retrospect	-12.9209
▁unsustainable	-12.9209
▁Freud	-12.9209
▁devised	-12.9209
▁thunder	-12.9209
▁unveil	-12.9209
▁Russe	-12.9209
▁sociologist	-12.9209
▁resign	-12.9209
▁Algeria	-12.9209
▁Differen	-12.9209
cratch	-12.9209
▁Neither	-12.9209
▁plunge	-12.9209
▁speculate	-12.9209
▁persever	-12.9209
▁aspire	-12.9209
▁illiterate	-12.921
▁Among	-12.921
▁adulthood	-12.921
▁preschool	-12.921
opefully	-12.921
▁Prison	-12.921
▁blogging	-12.921
▁monopol	-12.9211
IMS	-12.9213
▁enthusiastic	-12.9213
framing	-12.9217
▁variant	-12.9227
fused	-12.9235
sexually	-12.9245
replicating	-12.9272
▁purchas	-12.929
igital	-12.9326
▁foi	-12.9373
regulated	-12.9383
▁metaphorical	-12.9391
Cities	-12.9449
▁implication	-12.9492
chlor	-12.9501
fabrication	-12.9565
driving	-12.9567
▁grind	-12.9601
▁derive	-12.9605
▁confuse	-12.9611
▁explicit	-12.9618
▁surge	-12.9623
balancing	-12.9626
determining	-12.9626
preserving	-12.9626
clamation	-12.9626
▁complication	-12.9626
▁constitute	-12.9626
▁evaluation	-12.9626
▁exoplanet	-12.9626
▁prosecute	-12.9626
▁prostitute	-12.9626
▁wrinkle	-12.9626
Jeopardy	-12.9626
Sweeney	-12.9626
pprentice	-12.9626
▁Armstrong	-12.9626
▁CNN	-12.9626
▁Colorado	-12.9626
▁Corporation	-12.9626
▁Economist	-12.9626
▁Everglades	-12.9626
▁Magazine	-12.9626
▁Miami	-12.9626
▁Mississippi	-12.9626
▁Oakland	-12.9626
▁Reagan	-12.9626
▁Rosetta	-12.9626
▁Starbucks	-12.9626
▁Vancouver	-12.9626
▁antibodies	-12.9626
▁asylum	-12.9626
▁auditory	-12.9626
▁bureaucrac	-12.9626
▁capacities	-12.9626
▁certified	-12.9626
▁coherent	-12.9626
▁diffuse	-12.9626
▁discomfort	-12.9626
▁efficacy	-12.9626
▁extremist	-12.9626
▁eyebrow	-12.9626
▁giraffe	-12.9626
▁homicide	-12.9626
▁hurry	-12.9626
▁identification	-12.9626
▁immigration	-12.9626
▁instructor	-12.9626
▁mammography	-12.9626
▁narco	-12.9626
▁pheromone	-12.9626
▁plague	-12.9626
▁plaster	-12.9626
▁psychic	-12.9626
▁reconcili	-12.9626
▁sapiens	-12.9626
▁semester	-12.9626
▁simplify	-12.9626
▁solidarity	-12.9626
▁stimulus	-12.9626
▁taxpayer	-12.9626
▁tectonic	-12.9626
▁tiniest	-12.9626
▁Vinci	-12.9626
▁cynic	-12.9626
▁discrete	-12.9626
▁nudge	-12.9626
▁Beyon	-12.9626
▁conspiracy	-12.9626
▁seamless	-12.9626
▁sponge	-12.9626
▁embed	-12.9626
▁ingenious	-12.9626
▁Idaho	-12.9626
▁huh	-12.9626
▁hiring	-12.9626
▁motto	-12.9626
▁socket	-12.9626
▁hypoth	-12.9626
▁bookstore	-12.9626
▁bioluminescence	-12.9626
translating	-12.9626
▁Text	-12.9626
▁auction	-12.9626
dispens	-12.9626
▁Personal	-12.9626
▁pinpoint	-12.9626
▁suitcase	-12.9626
▁Mahat	-12.9626
▁pedal	-12.9626
▁fingerprint	-12.9626
literate	-12.9626
▁counterpart	-12.9626
▁alpha	-12.9626
▁Compare	-12.9626
▁notebook	-12.9626
▁envy	-12.9626
▁hike	-12.9626
▁pledge	-12.9626
plausibl	-12.9626
▁enroll	-12.9626
▁lesion	-12.9626
▁cruise	-12.9627
▁porn	-12.9628
▁Palm	-12.9631
▁chok	-12.9634
inister	-12.9644
varian	-12.9663
Uncle	-12.9708
industrialized	-12.9725
psychotic	-12.9748
generated	-12.9846
accelerated	-12.9864
conceived	-12.989
▁circumstance	-12.9927
▁synthesiz	-12.9939
communications	-13.0001
author	-13.0001
industrial	-13.0001
growth	-13.0002
different	-13.0002
people	-13.0002
grown	-13.0002
lived	-13.0003
▁acknowledg	-13.0014
▁contradict	-13.005
▁deliberate	-13.0053
▁evaporat	-13.0057
nterviewer	-13.006
▁magnifi	-13.006
Channel	-13.006
rthodox	-13.006
Fantastic	-13.006
revenge	-13.006
▁Agnes	-13.006
▁Between	-13.006
▁Bonobo	-13.006
▁Bulgaria	-13.006
▁Cameron	-13.006
▁Circle	-13.006
▁Club	-13.006
▁Discover	-13.006
▁Dubai	-13.006
▁Europa	-13.006
▁Fahrenheit	-13.006
▁Federal	-13.006
▁Goliath	-13.006
▁Guardian	-13.006
▁Kibera	-13.006
▁Madagascar	-13.006
▁Nevada	-13.006
▁Progress	-13.006
▁Record	-13.006
▁Serious	-13.006
▁StoryCorps	-13.006
▁Strange	-13.006
▁Tahrir	-13.006
▁Tamiflu	-13.006
▁Tehran	-13.006
▁Tweet	-13.006
▁accelerator	-13.006
▁acronym	-13.006
▁applaud	-13.006
▁arithmetic	-13.006
▁astounding	-13.006
▁bioluminescent	-13.006
▁cumulative	-13.006
▁cyclist	-13.006
▁degradation	-13.006
▁disbelief	-13.006
▁disparate	-13.006
▁fission	-13.006
▁hijack	-13.006
▁hominid	-13.006
▁horrified	-13.006
▁instinctively	-13.006
▁integral	-13.006
▁jurisdiction	-13.006
▁league	-13.006
▁mangrove	-13.006
▁misconception	-13.006
▁modular	-13.006
▁moisture	-13.006
▁multiplie	-13.006
▁necessit	-13.006
▁periphery	-13.006
▁presumably	-13.006
▁prevalent	-13.006
▁propeller	-13.006
▁quantify	-13.006
▁reckless	-13.006
▁ridicule	-13.006
▁sniff	-13.006
▁sprawl	-13.006
▁tadpole	-13.006
▁toddler	-13.006
▁tweak	-13.006
▁unimaginable	-13.006
▁virtuous	-13.006
▁whistling	-13.006
▁Gaza	-13.006
▁Hitler	-13.006
▁discourag	-13.006
▁dried	-13.006
▁memorable	-13.006
▁ninth	-13.006
izzy	-13.006
▁BBC	-13.006
▁Falcon	-13.006
▁dominance	-13.006
▁vague	-13.006
▁classmates	-13.006
▁qualify	-13.006
▁residu	-13.006
▁scandal	-13.006
▁sterile	-13.006
▁Isaac	-13.006
▁swirl	-13.006
▁Early	-13.006
▁pub	-13.0061
Houston	-13.0061
▁Saint	-13.0061
▁uprising	-13.0061
▁flatten	-13.0061
▁Edison	-13.0061
▁inhabitants	-13.0061
▁imaginative	-13.0061
▁dictatorship	-13.0061
▁shave	-13.0061
▁banjo	-13.0061
▁bolt	-13.0061
▁Conference	-13.0061
▁championship	-13.0061
▁cosmetic	-13.0061
▁Moses	-13.0061
phobic	-13.0062
gently	-13.0062
▁Jenn	-13.0062
▁hostilit	-13.0062
▁horn	-13.0063
▁Self	-13.0065
esterday	-13.0071
aptain	-13.0072
ecca	-13.0079
▁rub	-13.0094
strapped	-13.0103
▁reviv	-13.0106
▁graceful	-13.0145
loyalty	-13.0149
▁nurs	-13.015
carved	-13.0207
politi	-13.0216
Huh	-13.0228
Contra	-13.0229
cross	-13.036
genesis	-13.0368
▁ensu	-13.0378
skies	-13.0405
break	-13.0431
rhythm	-13.0456
Just	-13.0456
activate	-13.0467
▁thrill	-13.0498
▁amaze	-13.05
resolved	-13.0508
▁desperat	-13.051
▁Antarctic	-13.0513
▁hallucinat	-13.0515
ocracy	-13.0515
▁intellect	-13.0515
galactic	-13.0515
▁Convention	-13.0515
▁arrival	-13.0515
▁bruise	-13.0515
▁butterflies	-13.0515
▁carpenter	-13.0515
▁ceramic	-13.0515
▁constellation	-13.0515
▁contributor	-13.0515
▁deceased	-13.0515
▁facade	-13.0515
▁indulge	-13.0515
▁lettuce	-13.0515
▁magnify	-13.0515
▁napkin	-13.0515
▁patron	-13.0515
▁reservation	-13.0515
▁simplifie	-13.0515
▁tactics	-13.0515
tumbling	-13.0515
▁Achilles	-13.0515
▁CERN	-13.0515
▁Collider	-13.0515
▁Essentially	-13.0515
▁Exxon	-13.0515
▁Flickr	-13.0515
▁Galileo	-13.0515
▁Gordon	-13.0515
▁Jonathan	-13.0515
▁Lakota	-13.0515
▁MBA	-13.0515
▁Nanopatch	-13.0515
▁Oliver	-13.0515
▁Sebastian	-13.0515
▁Toyota	-13.0515
▁Vietnamese	-13.0515
▁aerodynamic	-13.0515
▁amplify	-13.0515
▁apparatus	-13.0515
▁blunt	-13.0515
▁brute	-13.0515
▁cafeteria	-13.0515
▁casualties	-13.0515
▁centigrade	-13.0515
▁cereal	-13.0515
▁daunting	-13.0515
▁drank	-13.0515
▁drastic	-13.0515
▁elusive	-13.0515
▁energetic	-13.0515
▁gamma	-13.0515
▁junior	-13.0515
▁lithium	-13.0515
▁microwave	-13.0515
▁oxide	-13.0515
▁participatory	-13.0515
▁penicillin	-13.0515
▁perpetual	-13.0515
▁reception	-13.0515
▁sanctuar	-13.0515
▁skyscraper	-13.0515
▁supplier	-13.0515
▁susceptible	-13.0515
▁unfamiliar	-13.0515
▁unlimited	-13.0515
▁unnatural	-13.0515
▁unnecessary	-13.0515
▁unpleasant	-13.0515
▁unthinkable	-13.0515
▁uranium	-13.0515
▁widow	-13.0515
▁yogurt	-13.0515
▁Jesse	-13.0515
▁Survey	-13.0515
▁arteries	-13.0515
▁gorilla	-13.0515
▁transgender	-13.0515
▁CIA	-13.0515
▁ignite	-13.0515
▁shiny	-13.0515
▁Aaron	-13.0515
▁maze	-13.0515
▁Witness	-13.0515
▁excavat	-13.0515
▁stink	-13.0515
▁fungus	-13.0515
▁hydrocarbon	-13.0515
▁Lesters	-13.0515
▁IMF	-13.0515
▁Politic	-13.0515
▁eliminating	-13.0515
▁pollinate	-13.0515
▁Lanka	-13.0515
▁hull	-13.0515
▁Glenn	-13.0515
▁admission	-13.0515
▁replicator	-13.0515
▁Theater	-13.0515
▁hunch	-13.0515
▁subset	-13.0515
▁Caltech	-13.0515
▁outfit	-13.0516
▁bald	-13.0516
▁anchor	-13.0516
▁valu	-13.0516
durable	-13.0516
▁Malawi	-13.0516
omorrow	-13.0517
▁halt	-13.0517
Solomon	-13.0518
▁Face	-13.0518
▁electora	-13.052
▁hedge	-13.052
▁Plato	-13.052
▁clam	-13.0525
anagement	-13.0528
gatherer	-13.0536
▁patrol	-13.0537
▁appreciat	-13.0547
spective	-13.0551
Turkish	-13.0603
▁resembl	-13.0658
vaded	-13.0686
imposed	-13.0717
Maryland	-13.0768
Cause	-13.0787
mounted	-13.0851
science	-13.0932
Hello	-13.0932
computer	-13.0932
understood	-13.0932
blood	-13.0932
machine	-13.0932
othing	-13.097
nutrient	-13.099
▁narrat	-13.099
▁circum	-13.0991
accumulating	-13.0991
disturbed	-13.0991
dividing	-13.0991
separating	-13.0991
▁Engineer	-13.0991
▁Maldiv	-13.0991
▁territori	-13.0991
assembling	-13.0991
▁Current	-13.0991
▁Odysse	-13.0991
▁deceive	-13.0991
▁deflect	-13.0991
▁heartbeat	-13.0991
▁mutilate	-13.0991
▁segregat	-13.0991
▁treadmill	-13.0991
▁ultrasound	-13.0991
megawatt	-13.0991
▁Anonymous	-13.0991
▁Bahamas	-13.0991
▁Bonica	-13.0991
▁Cassini	-13.0991
▁Financial	-13.0991
▁Hungarian	-13.0991
▁Innovation	-13.0991
▁Jennifer	-13.0991
▁Laborator	-13.0991
▁Movember	-13.0991
▁Normally	-13.0991
▁PDF	-13.0991
▁Panbanisha	-13.0991
▁Photoshop	-13.0991
▁Picture	-13.0991
▁Rachel	-13.0991
▁Raisuddin	-13.0991
▁Soldier	-13.0991
▁WHO	-13.0991
▁accumulation	-13.0991
▁acquisition	-13.0991
▁advancing	-13.0991
▁adversity	-13.0991
▁appetite	-13.0991
▁aquaculture	-13.0991
▁atrazine	-13.0991
▁availability	-13.0991
▁barbershop	-13.0991
▁benchmark	-13.0991
▁bronze	-13.0991
▁cochlea	-13.0991
▁comprised	-13.0991
▁crochet	-13.0991
▁decipher	-13.0991
▁humidity	-13.0991
▁hummingbird	-13.0991
▁hypertension	-13.0991
▁imbalance	-13.0991
▁immoral	-13.0991
▁incarcerated	-13.0991
▁mismatch	-13.0991
▁modification	-13.0991
▁pornography	-13.0991
▁premature	-13.0991
▁primordial	-13.0991
▁proxy	-13.0991
▁reservoir	-13.0991
▁scarcity	-13.0991
▁seminal	-13.0991
▁socioeconomic	-13.0991
▁subsidies	-13.0991
▁superconductor	-13.0991
▁terrestrial	-13.0991
▁tribute	-13.0991
▁trump	-13.0991
▁tyrann	-13.0991
▁vegetarian	-13.0991
▁width	-13.0991
▁zoning	-13.0991
feminine	-13.0991
▁Control	-13.0991
▁Isabel	-13.0991
▁Raise	-13.0991
▁hyena	-13.0991
▁utopia	-13.0991
▁cherish	-13.0991
▁hippie	-13.0991
▁Ryan	-13.0991
▁salad	-13.0991
▁notorious	-13.0991
▁Potter	-13.0991
▁condense	-13.0991
▁Shoot	-13.0991
▁lemon	-13.0991
▁roost	-13.0991
▁bait	-13.0991
▁mound	-13.0991
▁rumor	-13.0991
▁olive	-13.0992
▁sunset	-13.0992
▁outdated	-13.0992
▁Clark	-13.0992
▁mantis	-13.0992
▁Protect	-13.0992
▁subtract	-13.0992
▁comedian	-13.0992
▁geologist	-13.0992
▁verify	-13.0992
▁allocate	-13.0993
▁aisle	-13.0993
▁griev	-13.0995
bullying	-13.0995
▁assert	-13.0997
▁restrain	-13.0998
▁Equ	-13.1005
▁Understand	-13.1011
▁peacekeep	-13.105
dicated	-13.1069
▁unbelievabl	-13.1112
▁slid	-13.1223
▁optimist	-13.1299
disposal	-13.1307
technology	-13.137
mentality	-13.1389
bility	-13.143
blown	-13.1432
confidence	-13.1432
intelligent	-13.1432
Maybe	-13.1432
People	-13.1432
▁Scot	-13.1433
▁thou	-13.1491
sanitary	-13.1491
▁arthriti	-13.1491
▁calibrat	-13.1491
▁glance	-13.1491
▁inferior	-13.1491
▁interdependenc	-13.1491
▁jealous	-13.1491
▁scrambl	-13.1491
▁snack	-13.1491
nstrual	-13.1491
wrestling	-13.1491
▁Commun	-13.1491
▁Ecuador	-13.1491
▁Everywhere	-13.1491
▁Excellent	-13.1491
▁Hebrew	-13.1491
▁Hudson	-13.1491
▁Hurricane	-13.1491
▁Lesterland	-13.1491
▁Melinda	-13.1491
▁Midwest	-13.1491
▁Moscow	-13.1491
▁Papua	-13.1491
▁Pearl	-13.1491
▁Thousands	-13.1491
▁advocacy	-13.1491
▁anonymity	-13.1491
▁appointment	-13.1491
▁arguably	-13.1491
▁charcoal	-13.1491
▁desalination	-13.1491
▁detriment	-13.1491
▁doctrine	-13.1491
▁doodling	-13.1491
▁dwarf	-13.1491
▁embryonic	-13.1491
▁energies	-13.1491
▁enslave	-13.1491
▁exhilarating	-13.1491
▁fatigue	-13.1491
▁infinity	-13.1491
▁influenza	-13.1491
▁kitten	-13.1491
▁knitting	-13.1491
▁philanthropist	-13.1491
▁plasma	-13.1491
▁pollinators	-13.1491
▁pragmatic	-13.1491
▁prominent	-13.1491
▁rearrange	-13.1491
▁revolt	-13.1491
▁scissors	-13.1491
▁serotonin	-13.1491
▁supermassive	-13.1491
▁toothbrush	-13.1491
▁unhealthy	-13.1491
▁unravel	-13.1491
▁vendor	-13.1491
▁venom	-13.1491
▁Collect	-13.1491
▁Harlem	-13.1491
▁Judge	-13.1491
▁Titus	-13.1491
▁credible	-13.1491
▁discharge	-13.1491
▁forensic	-13.1491
▁gyrus	-13.1491
▁rotten	-13.1491
▁stockpile	-13.1491
▁wilderness	-13.1491
▁Traditional	-13.1491
sampling	-13.1491
▁offense	-13.1491
▁premier	-13.1491
▁Oscar	-13.1491
▁lyric	-13.1491
▁millennium	-13.1491
▁Close	-13.1491
▁Rosling	-13.1491
▁inertia	-13.1492
▁Film	-13.1492
▁underlie	-13.1494
▁yog	-13.1494
▁tapestr	-13.1494
▁sentien	-13.1494
▁clarify	-13.1497
▁categorize	-13.1504
replication	-13.1519
llusion	-13.1526
Aye	-13.1557
▁inclin	-13.1628
commissioned	-13.1661
▁redefin	-13.1761
▁increment	-13.1782
▁replica	-13.1796
heav	-13.1833
▁anticipat	-13.1847
haired	-13.191
▁loyal	-13.1911
estament	-13.1927
fifth	-13.1958
performance	-13.1959
teacher	-13.1959
ustainable	-13.2017
▁legitima	-13.2017
incidence	-13.2017
rilliant	-13.2017
bject	-13.2017
▁flour	-13.2017
▁jelly	-13.2017
Thanksgiving	-13.2017
▁apprais	-13.2017
▁congratulat	-13.2017
▁dyslexi	-13.2017
▁preoccup	-13.2017
▁suspens	-13.2017
▁Balkan	-13.2017
▁Extreme	-13.2017
▁Origin	-13.2017
▁convuls	-13.2017
▁hydrant	-13.2017
▁repositor	-13.2017
▁tornado	-13.2017
▁trawl	-13.2017
▁Botswana	-13.2017
▁Campaign	-13.2017
▁Dublin	-13.2017
▁Enceladus	-13.2017
▁Fibonacci	-13.2017
▁Hopkins	-13.2017
▁Kentucky	-13.2017
▁Matthew	-13.2017
▁Senegal	-13.2017
▁Sergio	-13.2017
▁Shortly	-13.2017
▁Special	-13.2017
▁Voyager	-13.2017
▁anthropology	-13.2017
▁bankrupt	-13.2017
▁bargain	-13.2017
▁biomedical	-13.2017
▁blaming	-13.2017
▁dairy	-13.2017
▁dashboard	-13.2017
▁derivative	-13.2017
▁diffusion	-13.2017
▁discriminate	-13.2017
▁engulf	-13.2017
▁entrenche	-13.2017
▁evoke	-13.2017
▁foremost	-13.2017
▁frugal	-13.2017
▁geese	-13.2017
▁imitation	-13.2017
▁influential	-13.2017
▁irregular	-13.2017
▁laureate	-13.2017
▁leisure	-13.2017
▁maternal	-13.2017
▁menstruation	-13.2017
▁microRNA	-13.2017
▁nanotube	-13.2017
▁nephew	-13.2017
▁outweigh	-13.2017
▁pavilion	-13.2017
▁peripheral	-13.2017
▁plummet	-13.2017
▁plutocrat	-13.2017
▁pollination	-13.2017
▁portfolio	-13.2017
▁postcards	-13.2017
▁puppy	-13.2017
▁puzzling	-13.2017
▁relentless	-13.2017
▁retriev	-13.2017
▁ribbon	-13.2017
▁seatbelt	-13.2017
▁southwest	-13.2017
▁squeak	-13.2017
▁stubborn	-13.2017
▁synesthesia	-13.2017
▁temporarily	-13.2017
▁vertebrate	-13.2017
▁Amanda	-13.2017
▁Barbie	-13.2017
▁buffer	-13.2017
▁cramm	-13.2017
▁disclose	-13.2017
▁ecologist	-13.2017
▁embody	-13.2017
▁epidemiologi	-13.2017
▁handbag	-13.2017
▁joking	-13.2017
▁logistics	-13.2017
▁measles	-13.2017
▁prestig	-13.2017
▁reprogram	-13.2017
▁spores	-13.2017
▁intestine	-13.2017
▁parrot	-13.2017
▁teapot	-13.2017
▁encompass	-13.2017
▁niche	-13.2017
▁knob	-13.2017
▁plume	-13.2018
▁purse	-13.2018
▁tether	-13.2018
▁Dream	-13.2018
▁crave	-13.2018
▁Tiger	-13.2018
▁atrocit	-13.2018
▁withstand	-13.2018
Sleep	-13.2018
▁Morocc	-13.2018
▁guru	-13.2018
▁metasta	-13.2018
▁crisp	-13.2018
ologues	-13.2018
▁paranoi	-13.2018
▁endemic	-13.2018
▁fringe	-13.2019
degrading	-13.202
▁implie	-13.2021
assisted	-13.2021
▁skydiv	-13.2026
ollen	-13.2045
colonization	-13.2091
▁antiqu	-13.2125
definition	-13.2133
Daddy	-13.2149
▁dissect	-13.2228
▁revolv	-13.2305
connected	-13.232
▁procrastinat	-13.2331
satisfying	-13.2336
▁subsidiz	-13.2337
Actor	-13.234
▁tub	-13.2385
rotting	-13.2433
keeping	-13.2445
troverted	-13.2454
spiration	-13.2468
what	-13.2507
shelf	-13.2514
protected	-13.2514
grain	-13.2514
normal	-13.2514
▁atmospher	-13.2547
▁locate	-13.2558
eduction	-13.2573
decisive	-13.2573
destruct	-13.2573
motivating	-13.2573
▁asymmetric	-13.2573
tactile	-13.2573
▁Chicken	-13.2573
▁Embassy	-13.2573
▁autobiograph	-13.2573
▁disintegrat	-13.2573
▁predominant	-13.2573
▁relocate	-13.2573
▁ADHD	-13.2573
▁Alfred	-13.2573
▁Baghdad	-13.2573
▁Bassem	-13.2573
▁Capital	-13.2573
▁DIY	-13.2573
▁Disease	-13.2573
▁Enlightenment	-13.2573
▁Evolution	-13.2573
▁Festival	-13.2573
▁Galois	-13.2573
▁Generation	-13.2573
▁Helvetica	-13.2573
▁Hispanic	-13.2573
▁IDEO	-13.2573
▁Illinois	-13.2573
▁Laptop	-13.2573
▁Mahmoud	-13.2573
▁Malaysia	-13.2573
▁Mathematica	-13.2573
▁McGowan	-13.2573
▁Mongolia	-13.2573
▁Nicholas	-13.2573
▁Picasso	-13.2573
▁Stirling	-13.2573
▁Stockholm	-13.2573
▁Studio	-13.2573
▁Ukraine	-13.2573
▁Walmart	-13.2573
▁academia	-13.2573
▁albeit	-13.2573
▁artisan	-13.2573
▁avenue	-13.2573
▁biography	-13.2573
▁bipolar	-13.2573
▁bonobo	-13.2573
▁brilliance	-13.2573
▁bumblebee	-13.2573
▁bundle	-13.2573
▁conceivabl	-13.2573
▁dementia	-13.2573
▁doodle	-13.2573
▁elevation	-13.2573
▁epilepsy	-13.2573
▁evolutionarily	-13.2573
▁filament	-13.2573
▁gloom	-13.2573
▁impairment	-13.2573
▁infamous	-13.2573
▁inorganic	-13.2573
▁litigation	-13.2573
▁malware	-13.2573
▁medicinal	-13.2573
▁messenger	-13.2573
▁motivator	-13.2573
▁multiplic	-13.2573
▁persuasive	-13.2573
▁plywood	-13.2573
▁precursor	-13.2573
▁privatiz	-13.2573
▁provocative	-13.2573
▁questionnaire	-13.2573
▁refresh	-13.2573
▁repetitive	-13.2573
▁schizophrenic	-13.2573
▁sermon	-13.2573
▁skyrocket	-13.2573
▁sophistication	-13.2573
▁squirrel	-13.2573
▁synonymous	-13.2573
▁thermostat	-13.2573
▁transcript	-13.2573
▁troubling	-13.2573
▁umbrella	-13.2573
Mandarin	-13.2573
▁Magic	-13.2573
▁affluen	-13.2573
▁marble	-13.2573
▁mediocr	-13.2573
▁windmill	-13.2573
▁Gwen	-13.2573
▁Northwest	-13.2573
▁abalone	-13.2573
▁decay	-13.2573
▁naught	-13.2573
▁offenders	-13.2573
▁shrunk	-13.2573
▁absent	-13.2573
▁Bueno	-13.2573
▁bleach	-13.2573
▁Batman	-13.2573
▁strawberr	-13.2573
▁inquiry	-13.2573
▁latter	-13.2573
▁scribbl	-13.2573
requiring	-13.2573
▁perfume	-13.2573
saturated	-13.2573
▁costume	-13.2573
stellar	-13.2573
▁defecat	-13.2573
▁contingen	-13.2574
prescribed	-13.2574
▁warrant	-13.2574
endurance	-13.2574
Foreign	-13.2574
grabbing	-13.2577
▁resume	-13.2579
enchant	-13.2588
▁salv	-13.26
▁Tyle	-13.2608
▁Berg	-13.2617
ticipation	-13.2645
building	-13.2649
orbital	-13.2679
transcendence	-13.2689
▁reshape	-13.2752
▁insula	-13.279
onset	-13.2874
▁visualiz	-13.2882
quietly	-13.2949
▁aggregat	-13.2998
confirmed	-13.3012
▁advocat	-13.3036
▁unchang	-13.307
evolution	-13.3101
mobile	-13.3102
organization	-13.3102
figure	-13.3102
focus	-13.3102
World	-13.3102
nversely	-13.3154
eautiful	-13.3161
▁Architectur	-13.3161
▁penetrati	-13.3161
▁typograph	-13.3161
percussion	-13.3161
▁Anthon	-13.3161
▁monolith	-13.3161
▁sensual	-13.3161
Citizen	-13.3161
▁Archimedes	-13.3161
▁Austin	-13.3161
▁Beatles	-13.3161
▁CAPTCHA	-13.3161
▁Celsius	-13.3161
▁Challenge	-13.3161
▁Choir	-13.3161
▁Cloud	-13.3161
▁Delta	-13.3161
▁Elephant	-13.3161
▁Fifth	-13.3161
▁Hampshire	-13.3161
▁Harbor	-13.3161
▁Hiroshima	-13.3161
▁IKEA	-13.3161
▁Jacques	-13.3161
▁Kabul	-13.3161
▁Minnesota	-13.3161
▁Mitchell	-13.3161
▁Monkey	-13.3161
▁NIH	-13.3161
▁Portuguese	-13.3161
▁Reserve	-13.3161
▁Thursday	-13.3161
▁USDA	-13.3161
▁Uruguay	-13.3161
▁activation	-13.3161
▁administrative	-13.3161
▁amplifie	-13.3161
▁amygdala	-13.3161
▁antiangiogenic	-13.3161
▁antidote	-13.3161
▁arrogant	-13.3161
▁asphalt	-13.3161
▁butterfly	-13.3161
▁cascade	-13.3161
▁circus	-13.3161
▁cockpit	-13.3161
▁coconut	-13.3161
▁conjure	-13.3161
▁diabetic	-13.3161
▁exoskeleton	-13.3161
▁fountain	-13.3161
▁gradient	-13.3161
▁hardwired	-13.3161
▁heterosexual	-13.3161
▁intractable	-13.3161
▁legislators	-13.3161
▁leukemia	-13.3161
▁librarians	-13.3161
▁lightbulb	-13.3161
▁multimedia	-13.3161
▁ominous	-13.3161
▁paintbrush	-13.3161
▁pennies	-13.3161
▁petroleum	-13.3161
▁pinnacle	-13.3161
▁precaution	-13.3161
▁pseudo	-13.3161
▁reversal	-13.3161
▁rhyme	-13.3161
▁shaft	-13.3161
▁stitch	-13.3161
▁synagogue	-13.3161
▁unexplored	-13.3161
▁wield	-13.3161
▁Mellon	-13.3161
▁jerk	-13.3161
▁lexicon	-13.3161
▁occurrence	-13.3161
▁reckon	-13.3161
▁squatter	-13.3161
▁crease	-13.3161
▁palace	-13.3161
▁Hunter	-13.3161
▁hawk	-13.3161
▁trek	-13.3161
▁defy	-13.3161
▁incision	-13.3161
▁marsh	-13.3161
▁trance	-13.3161
▁Ranger	-13.3161
▁Horse	-13.3161
Awesome	-13.3161
▁extrapolat	-13.3161
▁paddle	-13.3161
Mobile	-13.3161
▁culminat	-13.3162
▁saddle	-13.3162
▁neurobiolog	-13.3162
▁Bowl	-13.3162
▁ministr	-13.3162
▁Needles	-13.3162
▁wobbl	-13.3163
▁Erik	-13.3163
▁cofounde	-13.3164
▁Crime	-13.3167
Leave	-13.3168
▁empti	-13.3169
oetry	-13.3174
elope	-13.3176
Vision	-13.3198
ucifer	-13.3201
▁improvis	-13.3204
▁introvert	-13.3289
▁peacebuild	-13.3296
graduation	-13.339
ficially	-13.3392
defined	-13.3437
▁carcinogen	-13.3545
▁dynam	-13.356
▁collaps	-13.3722
sufficient	-13.3727
historic	-13.3727
Life	-13.3727
happiness	-13.3727
billion	-13.3728
girl	-13.3735
▁innocen	-13.3756
▁accord	-13.3769
▁champ	-13.3777
▁initiati	-13.3777
▁militar	-13.378
▁Develop	-13.3785
ynthetic	-13.3785
exercising	-13.3786
pronounced	-13.3786
▁psychotherap	-13.3786
enhancing	-13.3786
extraterrestrial	-13.3786
nitiative	-13.3786
▁Happi	-13.3786
▁beehive	-13.3786
▁dismantle	-13.3786
▁sabbatical	-13.3786
aggression	-13.3786
▁Alexandria	-13.3786
▁Asperger	-13.3786
▁Aurora	-13.3786
▁Broadway	-13.3786
▁Cochrane	-13.3786
▁Dragon	-13.3786
▁EEG	-13.3786
▁HeForShe	-13.3786
▁Mauriti	-13.3786
▁Mechanical	-13.3786
▁Mubarak	-13.3786
▁NATO	-13.3786
▁Nollywood	-13.3786
▁OPEC	-13.3786
▁Orchestra	-13.3786
▁Rockefeller	-13.3786
▁Saddam	-13.3786
▁Serbia	-13.3786
▁Statistic	-13.3786
▁Sudhir	-13.3786
▁TEDGlobal	-13.3786
▁Vermeer	-13.3786
▁Vienna	-13.3786
▁Wednesday	-13.3786
▁amphibian	-13.3786
▁bedrock	-13.3786
▁brothel	-13.3786
▁burglar	-13.3786
▁credibility	-13.3786
▁daydream	-13.3786
▁definitive	-13.3786
▁denominator	-13.3786
▁detergent	-13.3786
▁disguise	-13.3786
▁embodiment	-13.3786
▁empathize	-13.3786
▁extremism	-13.3786
▁franchise	-13.3786
▁ghetto	-13.3786
▁grazing	-13.3786
▁hyperbolic	-13.3786
▁insignificant	-13.3786
▁intermediate	-13.3786
▁investigator	-13.3786
▁judging	-13.3786
▁jumble	-13.3786
▁laparoscopic	-13.3786
▁malignant	-13.3786
▁neurologist	-13.3786
▁neutrino	-13.3786
▁numerical	-13.3786
▁opaque	-13.3786
▁philanthropic	-13.3786
▁phthalates	-13.3786
▁pigmentation	-13.3786
▁practitioner	-13.3786
▁proximity	-13.3786
▁rehearsal	-13.3786
▁revisit	-13.3786
▁ruthless	-13.3786
▁snippet	-13.3786
▁spreadsheet	-13.3786
▁sprinkle	-13.3786
▁striving	-13.3786
▁substrate	-13.3786
▁surrogate	-13.3786
▁suspicion	-13.3786
▁terabyte	-13.3786
▁tragedies	-13.3786
▁volts	-13.3786
Vagina	-13.3786
▁Blair	-13.3786
▁Gando	-13.3786
▁dengue	-13.3786
▁northwest	-13.3786
▁pianist	-13.3786
▁retaliat	-13.3786
▁reunite	-13.3786
▁shaman	-13.3786
▁Eames	-13.3786
▁devour	-13.3786
▁porch	-13.3786
▁smack	-13.3786
▁Shame	-13.3786
▁crippl	-13.3786
▁Floren	-13.3786
eminent	-13.3786
▁Jacob	-13.3786
▁cohesi	-13.3786
▁triangula	-13.3786
▁lenti	-13.3787
Search	-13.3787
▁cortic	-13.3787
▁decompos	-13.3788
▁Correct	-13.3788
▁induce	-13.381
▁verifi	-13.3858
harmonic	-13.3866
contacted	-13.3907
althiest	-13.3915
▁glori	-13.3983
▁attribut	-13.4005
focal	-13.4032
▁classify	-13.4044
▁neurologic	-13.434
predictability	-13.4343
▁incorporat	-13.436
pplied	-13.4363
▁fusi	-13.4385
portrait	-13.4394
nuclear	-13.4394
written	-13.4394
factor	-13.4395
▁paralyz	-13.4436
▁fragil	-13.4448
twentieth	-13.4453
▁eloquent	-13.4453
▁kilowatt	-13.4453
mpossible	-13.4453
piracy	-13.4453
▁Nixon	-13.4453
▁duplicate	-13.4453
▁leapfrog	-13.4453
▁outskirt	-13.4453
▁overestimat	-13.4453
▁pajama	-13.4453
▁patriarch	-13.4453
▁pilgrim	-13.4453
▁poacher	-13.4453
▁reassure	-13.4453
▁suffocat	-13.4453
immersion	-13.4453
▁Airbnb	-13.4453
▁Barbara	-13.4453
▁Blood	-13.4453
▁Cameroon	-13.4453
▁Chernobyl	-13.4453
♫	-15.191
