<unk>	0
<s>	0
</s>	0
__SEP__	0
,	-2.93928
.	-3.14019
▁the	-3.3841
s	-3.55844
▁to	-3.83907
'	-3.86062
▁of	-3.93395
▁a	-3.96156
▁and	-3.99944
▁that	-4.18044
▁I	-4.24953
▁in	-4.34336
▁is	-4.52838
▁it	-4.54965
▁you	-4.5511
▁	-4.58016
▁we	-4.65104
▁And	-4.9182
▁this	-4.95587
t	-5.07114
▁was	-5.25061
0	-5.28929
▁for	-5.31374
▁are	-5.36614
▁have	-5.36719
▁they	-5.41338
▁on	-5.43031
▁--	-5.47402
▁with	-5.4813
▁can	-5.51829
re	-5.5554
-	-5.55684
▁So	-5.56308
?	-5.57299
▁what	-5.59663
▁be	-5.62342
▁about	-5.62716
ing	-5.77555
▁not	-5.77777
▁at	-5.78244
▁do	-5.78947
▁all	-5.79185
d	-5.88268
▁one	-5.88663
▁there	-5.89834
▁my	-5.89981
▁people	-5.9005
▁like	-5.90878
▁so	-5.91297
▁"	-5.91833
▁as	-5.92638
▁from	-5.94453
▁It	-5.95555
m	-5.98749
ed	-6.00092
▁but	-6.00248
▁an	-6.02546
:	-6.03969
1	-6.04065
▁our	-6.06184
▁or	-6.07742
▁just	-6.08127
▁We	-6.10998
▁But	-6.14112
▁me	-6.14413
▁out	-6.14729
▁if	-6.15378
▁these	-6.15947
▁know	-6.18026
▁very	-6.20239
▁The	-6.21844
▁up	-6.23192
▁by	-6.23774
ve	-6.25251
▁going	-6.25254
▁them	-6.2591
▁when	-6.2705
▁he	-6.27619
▁because	-6.28586
▁more	-6.29027
▁had	-6.29534
▁see	-6.32726
▁think	-6.32937
▁who	-6.34773
▁their	-6.37573
▁which	-6.38013
▁were	-6.38071
▁your	-6.38949
▁would	-6.40367
▁get	-6.40623
▁how	-6.41191
▁really	-6.41556
2	-6.47462
▁us	-6.48563
▁time	-6.5012
▁world	-6.52466
▁here	-6.54257
▁has	-6.55421
▁then	-6.56107
▁This	-6.57639
▁some	-6.59058
▁into	-6.59573
▁You	-6.59887
▁don	-6.60004
▁way	-6.60395
▁actually	-6.61018
▁will	-6.655
▁where	-6.65606
ly	-6.65685
▁go	-6.66029
▁years	-6.6637
▁other	-6.67037
▁want	-6.67066
▁now	-6.67998
▁things	-6.68878
▁Now	-6.70555
▁could	-6.71192
▁make	-6.71981
▁They	-6.74601
▁been	-6.74839
▁said	-6.81562
5	-6.84898
▁right	-6.86151
▁something	-6.86446
▁no	-6.86621
▁than	-6.89293
ll	-6.89429
▁those	-6.89633
▁two	-6.90641
y	-6.90984
▁first	-6.9158
▁over	-6.92655
▁also	-6.94407
▁thing	-6.94542
▁back	-6.95498
▁got	-6.96132
▁look	-6.96846
▁much	-6.97802
▁little	-6.97965
▁say	-6.98441
▁work	-6.99332
er	-7.00306
n	-7.01846
▁That	-7.02897
▁need	-7.04008
▁In	-7.04169
9	-7.04437
▁only	-7.05455
e	-7.05837
▁she	-7.06248
▁life	-7.0647
▁his	-7.06547
▁most	-7.06891
▁even	-7.08984
▁take	-7.10439
▁lot	-7.12253
▁kind	-7.12351
▁many	-7.12353
▁new	-7.1491
▁did	-7.17577
▁good	-7.18224
3	-7.18392
▁around	-7.18842
▁different	-7.20714
▁♫	-7.20767
▁What	-7.2136
▁down	-7.24336
▁There	-7.24903
r	-7.25434
▁her	-7.25545
▁through	-7.28267
▁He	-7.2894
▁come	-7.29254
▁same	-7.29887
▁every	-7.29955
▁use	-7.3022
▁A	-7.31983
al	-7.32541
▁being	-7.33853
▁put	-7.34739
;	-7.36333
▁day	-7.37216
▁doing	-7.38474
▁three	-7.39379
p	-7.39526
▁If	-7.40275
4	-7.40386
es	-7.44744
▁any	-7.45191
▁well	-7.45374
▁percent	-7.45586
▁called	-7.45745
▁human	-7.47944
▁find	-7.48783
▁made	-7.49052
▁fact	-7.49728
8	-7.49872
▁tell	-7.50304
▁Well	-7.50867
▁year	-7.52336
▁talk	-7.52759
▁change	-7.5281
▁why	-7.53884
a	-7.5536
l	-7.56838
▁didn	-7.57455
▁own	-7.57821
▁great	-7.58224
c	-7.58251
▁idea	-7.58495
▁should	-7.59157
▁today	-7.59518
▁started	-7.6016
▁thought	-7.60761
▁let	-7.6147
▁after	-7.61652
"	-7.61785
▁last	-7.62466
6	-7.62579
▁give	-7.66406
▁went	-7.66493
▁better	-7.665
in	-7.66562
7	-7.66985
▁might	-7.67188
▁big	-7.67272
▁before	-7.67923
▁part	-7.6801
▁problem	-7.6843
▁important	-7.69285
th	-7.69644
▁another	-7.69658
▁course	-7.69708
▁off	-7.70321
▁start	-7.70348
▁system	-7.70835
▁never	-7.71424
u	-7.71503
▁able	-7.72046
▁bit	-7.72067
▁still	-7.72534
▁together	-7.74132
g	-7.7465
▁show	-7.74735
▁place	-7.75386
▁him	-7.75448
▁brain	-7.75929
▁water	-7.75999
▁ago	-7.76189
o	-7.76593
▁next	-7.77726
▁story	-7.77883
▁end	-7.78198
▁came	-7.78746
▁long	-7.79869
▁few	-7.80804
▁mean	-7.81403
▁again	-7.81625
▁When	-7.82859
▁does	-7.83487
▁question	-7.83936
▁each	-7.84021
▁between	-7.84068
▁used	-7.84297
▁found	-7.84929
▁data	-7.86052
▁technology	-7.86317
▁point	-7.87351
▁too	-7.8856
▁women	-7.88748
▁example	-7.89018
▁love	-7.89234
▁understand	-7.90476
▁looking	-7.91043
S	-7.91882
▁call	-7.92896
,"	-7.939
▁doesn	-7.93916
▁done	-7.93958
▁wanted	-7.94055
▁Because	-7.94472
▁live	-7.94658
ic	-7.94723
▁sort	-7.95003
▁ever	-7.95941
▁whole	-7.96231
▁real	-7.96459
▁million	-7.96488
I	-7.96598
▁believe	-7.9782
▁school	-7.98186
ers	-7.98323
▁re	-7.9904
▁four	-7.99939
▁feel	-8.0017
▁power	-8.00668
▁trying	-8.00761
▁person	-8.00931
▁always	-8.01194
▁try	-8.0123
▁children	-8.01368
▁help	-8.01891
▁S	-8.0194
or	-8.02357
▁away	-8.02487
▁working	-8.03037
▁may	-8.03342
i	-8.03591
▁country	-8.0386
▁E	-8.04692
▁design	-8.08556
le	-8.08627
▁create	-8.08974
▁How	-8.09294
▁space	-8.0975
▁using	-8.10022
▁become	-8.1053
▁took	-8.10588
ation	-8.10695
▁home	-8.10792
▁high	-8.10806
▁money	-8.10968
▁information	-8.11095
▁number	-8.11111
▁thinking	-8.11543
▁maybe	-8.11547
el	-8.12386
▁means	-8.12388
▁five	-8.12413
b	-8.1329
▁sense	-8.13649
▁small	-8.13799
▁man	-8.13857
▁everything	-8.13909
▁light	-8.14413
ion	-8.145
▁un	-8.14531
▁kids	-8.15354
▁One	-8.16069
▁old	-8.16227
▁second	-8.17026
▁B	-8.17354
▁hard	-8.17366
▁left	-8.17541
▁enough	-8.18082
▁best	-8.18123
▁future	-8.18149
▁My	-8.18337
▁For	-8.18813
▁getting	-8.19007
able	-8.19406
▁C	-8.19775
▁She	-8.19898
▁social	-8.20234
ro	-8.20527
▁quite	-8.21038
▁food	-8.21102
▁making	-8.22383
▁energy	-8.22525
▁play	-8.22669
▁side	-8.22743
▁ask	-8.22799
▁hand	-8.22896
ur	-8.22964
▁These	-8.23183
▁U	-8.23343
▁happened	-8.23446
▁building	-8.23561
▁less	-8.23617
▁talking	-8.23915
▁car	-8.24003
▁told	-8.24377
▁probably	-8.24434
▁build	-8.2521
▁body	-8.25345
▁countries	-8.25449
▁room	-8.25839
▁interesting	-8.25907
▁science	-8.26121
▁without	-8.26144
▁stuff	-8.26768
▁moment	-8.27901
ter	-8.28306
▁comes	-8.28363
▁dollars	-8.29429
▁happen	-8.29802
▁men	-8.30304
▁coming	-8.30911
▁pretty	-8.31063
▁such	-8.31067
▁T	-8.31268
▁anything	-8.31526
▁de	-8.31687
▁saw	-8.31843
▁Here	-8.32039
▁bring	-8.32967
▁across	-8.33119
▁lives	-8.33704
▁care	-8.34004
▁open	-8.34093
▁reason	-8.34115
▁under	-8.34276
▁family	-8.3475
▁half	-8.35042
▁Let	-8.35128
▁learn	-8.35177
▁set	-8.35267
A	-8.35365
▁experience	-8.35433
▁later	-8.35842
▁case	-8.36753
▁seen	-8.36883
▁asked	-8.37298
▁Africa	-8.37495
▁move	-8.37587
▁else	-8.37833
▁living	-8.37834
▁New	-8.38325
▁far	-8.38873
ness	-8.38881
▁times	-8.38921
▁having	-8.39078
▁am	-8.39078
▁project	-8.39142
▁process	-8.392
an	-8.39507
▁simple	-8.39657
▁goes	-8.39671
▁picture	-8.39779
▁computer	-8.40059
▁bad	-8.40133
▁As	-8.40765
▁young	-8.40788
▁mind	-8.41205
ch	-8.41872
ity	-8.41875
▁No	-8.41879
▁All	-8.42697
▁F	-8.43147
it	-8.43395
▁single	-8.43604
▁city	-8.43676
▁happens	-8.43966
▁planet	-8.44507
h	-8.44767
▁almost	-8.45184
▁health	-8.45257
on	-8.45271
▁global	-8.45315
se	-8.4532
▁book	-8.45352
▁while	-8.45542
▁billion	-8.45586
▁public	-8.45833
▁inside	-8.45943
▁Thank	-8.45978
▁already	-8.46613
▁community	-8.46613
▁saying	-8.46802
▁control	-8.46808
▁answer	-8.46885
C	-8.46938
▁Earth	-8.46975
▁hope	-8.4703
la	-8.4724
f	-8.47392
▁matter	-8.47607
ment	-8.47641
ar	-8.47793
▁says	-8.47858
▁yet	-8.48246
ra	-8.48317
▁business	-8.48368
▁head	-8.48624
▁both	-8.48836
▁days	-8.48954
ri	-8.49509
▁possible	-8.49534
▁looked	-8.49647
▁remember	-8.49658
▁whether	-8.49813
▁nothing	-8.49814
▁six	-8.49862
▁order	-8.49903
▁keep	-8.50081
▁once	-8.50145
▁read	-8.50245
▁guy	-8.50449
▁war	-8.50478
li	-8.50551
▁problems	-8.50616
▁someone	-8.50686
▁top	-8.50884
il	-8.50941
▁often	-8.51359
▁age	-8.51722
▁per	-8.51912
D	-8.52377
▁basically	-8.52453
▁within	-8.52854
▁wrong	-8.52926
▁makes	-8.53129
▁history	-8.5331
ce	-8.53366
▁myself	-8.53518
ent	-8.54074
▁job	-8.54269
▁true	-8.54666
▁face	-8.54785
▁Why	-8.54796
▁group	-8.554
▁months	-8.55508
▁child	-8.55579
▁imagine	-8.55661
▁couple	-8.55843
▁sure	-8.56159
▁turn	-8.56978
▁model	-8.57574
▁heard	-8.57594
▁amazing	-8.57908
▁government	-8.58175
▁ways	-8.58222
▁heart	-8.58223
▁ideas	-8.59127
▁United	-8.5946
▁run	-8.59529
est	-8.59695
▁cancer	-8.59872
▁beautiful	-8.60359
▁cells	-8.6049
▁line	-8.60665
▁built	-8.60946
▁night	-8.61163
▁research	-8.61297
▁stop	-8.61629
▁name	-8.61806
▁piece	-8.62206
▁wasn	-8.62209
▁form	-8.62258
▁until	-8.62683
▁words	-8.62825
to	-8.62837
up	-8.62855
▁share	-8.63358
k	-8.63512
▁self	-8.6423
▁word	-8.64439
▁language	-8.64585
▁video	-8.64592
▁music	-8.65088
▁everybody	-8.65689
▁became	-8.65794
us	-8.65832
▁knew	-8.65903
▁must	-8.65904
▁decided	-8.66111
▁species	-8.66147
▁though	-8.66261
▁Internet	-8.66341
▁past	-8.66677
▁completely	-8.66928
▁America	-8.66998
▁education	-8.67236
▁hear	-8.67423
▁universe	-8.68221
▁study	-8.68359
▁state	-8.68616
▁looks	-8.69089
▁learned	-8.69239
▁friends	-8.6928
lo	-8.69437
▁States	-8.69528
en	-8.69771
ist	-8.699
▁happening	-8.70031
▁since	-8.70139
▁large	-8.70148
ul	-8.70371
▁stories	-8.70482
▁exactly	-8.70504
ma	-8.70581
▁woman	-8.70594
▁huge	-8.70714
▁somebody	-8.70832
▁level	-8.70851
▁taking	-8.70939
age	-8.71128
ting	-8.71184
M	-8.71206
▁nature	-8.71283
▁G	-8.7137
▁itself	-8.71469
▁society	-8.71748
▁students	-8.71758
▁isn	-8.72016
▁front	-8.72038
▁sound	-8.72536
▁Or	-8.72565
de	-8.72892
▁places	-8.72907
▁animals	-8.72981
▁ourselves	-8.73495
▁against	-8.73775
▁themselves	-8.74085
▁disease	-8.74346
ive	-8.74419
▁sometimes	-8.748
▁To	-8.75547
▁mother	-8.75616
▁India	-8.75825
▁environment	-8.76057
▁company	-8.76239
▁team	-8.76658
▁art	-8.76727
w	-8.76733
▁created	-8.76787
ne	-8.76872
▁along	-8.77017
▁hours	-8.77248
▁OK	-8.77425
▁figure	-8.77569
▁game	-8.77701
▁minutes	-8.78051
▁couldn	-8.78156
▁view	-8.78443
▁walk	-8.78676
▁God	-8.78773
▁rather	-8.78815
▁worked	-8.78928
▁house	-8.78993
▁particular	-8.79058
▁D	-8.7934
▁TED	-8.7956
▁Do	-8.80039
▁least	-8.80314
▁population	-8.80315
▁air	-8.80513
▁land	-8.80642
▁questions	-8.80914
▁entire	-8.80945
▁third	-8.81048
▁close	-8.81084
▁everyone	-8.81096
▁black	-8.812
T	-8.81222
▁won	-8.81328
▁early	-8.81346
x	-8.81423
▁Then	-8.81503
ry	-8.81511
▁works	-8.81614
▁outside	-8.81699
▁co	-8.82022
▁cell	-8.82218
▁turns	-8.82267
ta	-8.82277
old	-8.82396
▁thousands	-8.82556
ac	-8.82894
▁instead	-8.83255
P	-8.83486
▁difference	-8.83554
▁grow	-8.83598
▁free	-8.83642
▁paper	-8.83646
ate	-8.83649
▁gave	-8.83777
man	-8.83904
▁seven	-8.83906
▁natural	-8.8417
▁...	-8.84253
▁happy	-8.84299
▁market	-8.8462
▁American	-8.84916
▁taken	-8.85465
▁deal	-8.85822
▁full	-8.86053
▁common	-8.86152
ol	-8.86332
▁China	-8.86555
▁scale	-8.86643
▁short	-8.86958
▁leave	-8.86963
▁machine	-8.8711
▁guys	-8.87262
▁changed	-8.87758
▁P	-8.88458
▁learning	-8.88841
▁area	-8.88884
▁At	-8.88951
▁middle	-8.88998
id	-8.89295
▁local	-8.89698
▁c	-8.90063
▁cost	-8.90313
▁father	-8.90383
▁century	-8.9052
▁Okay	-8.90525
▁M	-8.90748
▁cities	-8.90947
▁kinds	-8.91292
▁pay	-8.91459
ie	-8.91965
▁given	-8.92016
▁turned	-8.92135
▁eyes	-8.92152
▁beginning	-8.92499
▁difficult	-8.92537
▁culture	-8.92567
ha	-8.92567
ized	-8.92783
▁yourself	-8.92937
▁behind	-8.93209
▁R	-8.93328
year	-8.93359
▁size	-8.93441
▁finally	-8.93696
as	-8.93746
▁test	-8.93769
▁York	-8.93781
▁perhaps	-8.93929
The	-8.94296
▁began	-8.94363
▁oil	-8.94395
▁systems	-8.94494
▁powerful	-8.94537
▁easy	-8.94653
▁certain	-8.94816
▁wonderful	-8.94989
▁rest	-8.95301
ies	-8.9549
ci	-8.95721
te	-8.95755
▁surface	-8.95971
▁moving	-8.96121
during	-8.96153
▁image	-8.96233
▁companies	-8.96415
un	-8.96451
ant	-8.96505
▁needed	-8.96618
▁realized	-8.96691
▁fish	-8.96736
▁week	-8.96863
▁media	-8.96899
ling	-8.96951
▁cannot	-8.97053
▁poor	-8.97302
ism	-8.97378
▁economic	-8.97462
▁longer	-8.976
▁terms	-8.97675
less	-8.97727
▁simply	-8.97755
ty	-8.97852
▁phone	-8.98162
▁seeing	-8.99132
▁news	-8.99517
▁spend	-8.9957
▁program	-8.99799
▁Some	-8.99902
▁K	-9.00024
ad	-9.00037
▁amount	-9.00128
▁reality	-9.00407
L	-9.00729
▁buy	-9.00802
▁death	-9.00922
▁felt	-9.01267
B	-9.01325
▁lots	-9.01383
▁whatever	-9.01458
▁tried	-9.01459
▁eight	-9.01561
▁p	-9.01594
▁parents	-9.01912
um	-9.01955
▁hands	-9.02286
▁produce	-9.02413
▁ocean	-9.02686
at	-9.02752
ck	-9.03149
z	-9.03364
▁quickly	-9.03843
▁fear	-9.04271
▁spent	-9.04432
▁People	-9.04618
▁value	-9.04658
▁gets	-9.04726
▁ground	-9.04747
▁growth	-9.0484
▁blood	-9.04941
▁red	-9.05017
▁low	-9.05156
▁behavior	-9.05623
▁interested	-9.05691
▁friend	-9.05727
▁field	-9.05735
▁die	-9.05785
▁Ma	-9.05992
▁opportunity	-9.06041
ge	-9.06054
▁individual	-9.06149
▁gone	-9.06215
▁sea	-9.06538
▁political	-9.06566
ally	-9.0668
▁Just	-9.06733
▁speak	-9.06918
O	-9.07057
na	-9.07167
▁others	-9.07216
▁J	-9.07351
▁write	-9.07501
co	-9.07804
▁complex	-9.07995
▁challenge	-9.08068
E	-9.08144
▁either	-9.08184
ted	-9.08369
▁blue	-9.08515
▁parts	-9.0865
rs	-9.08675
▁step	-9.08855
▁Our	-9.08878
▁sitting	-9.09203
▁hold	-9.09213
▁green	-9.09397
▁O	-9.0941
▁known	-9.09415
▁ability	-9.09433
▁economy	-9.09524
▁weeks	-9.09535
▁st	-9.09686
▁climate	-9.09696
pe	-9.09727
Well	-9.09741
▁impact	-9.09881
▁access	-9.10028
▁stage	-9.10048
▁lost	-9.10207
▁CA	-9.10408
▁animal	-9.10436
▁structure	-9.10496
am	-9.10546
▁white	-9.10618
▁DNA	-9.11055
ut	-9.11061
▁support	-9.11166
▁Re	-9.11216
▁key	-9.11218
▁chance	-9.11227
▁On	-9.11231
▁eat	-9.11258
▁risk	-9.113
▁nice	-9.11399
▁realize	-9.11493
ia	-9.11551
nt	-9.11659
▁feeling	-9.11732
▁cool	-9.12108
ous	-9.12274
▁W	-9.12277
em	-9.12435
▁incredible	-9.12436
▁Right	-9.12443
tic	-9.12482
ti	-9.12494
▁feet	-9.12519
▁average	-9.12784
▁met	-9.12947
▁Can	-9.13062
▁measure	-9.13204
▁experiment	-9.13316
▁kid	-9.13463
▁morning	-9.13659
ard	-9.13942
▁result	-9.14006
▁network	-9.14009
ine	-9.14036
ver	-9.14067
▁physical	-9.14237
▁material	-9.14465
▁takes	-9.14503
▁cut	-9.1451
vi	-9.14635
▁film	-9.14922
ig	-9.15065
▁issue	-9.15119
▁clear	-9.15127
ated	-9.15135
▁watch	-9.15415
▁allow	-9.15516
▁color	-9.15539
▁bottom	-9.15613
▁innovation	-9.15613
▁wouldn	-9.15747
▁fire	-9.15811
▁based	-9.15931
▁audience	-9.16153
tion	-9.16173
You	-9.16423
▁growing	-9.16452
▁born	-9.16546
▁patients	-9.1676
▁brought	-9.17059
▁areas	-9.17114
▁scientists	-9.17393
mo	-9.17711
▁understanding	-9.17796
▁Not	-9.17811
N	-9.17944
▁literally	-9.17979
▁map	-9.17994
▁needs	-9.18098
▁wrote	-9.18156
▁girl	-9.18302
R	-9.18537
▁development	-9.18544
▁non	-9.1864
▁attention	-9.18895
▁knowledge	-9.19103
▁special	-9.19679
▁humans	-9.19811
▁technologies	-9.19826
▁pick	-9.19835
▁personal	-9.19871
be	-9.20382
▁forward	-9.20737
▁alone	-9.20768
K	-9.20931
▁center	-9.20967
is	-9.20993
▁movement	-9.21014
What	-9.21066
▁dark	-9.21124
▁fun	-9.21217
▁con	-9.21319
▁shows	-9.21571
▁hundreds	-9.21611
▁lab	-9.217
▁giving	-9.21793
▁running	-9.21917
▁miles	-9.2214
▁developed	-9.22354
▁World	-9.22513
▁guess	-9.22673
▁pre	-9.22806
▁force	-9.22834
▁changes	-9.23045
▁fly	-9.23091
▁act	-9.23202
▁deep	-9.23207
▁b	-9.23235
▁N	-9.23556
op	-9.2361
and	-9.24
▁break	-9.24027
▁numbers	-9.24179
▁tools	-9.24258
no	-9.24578
▁anyone	-9.24647
▁starting	-9.24701
▁solve	-9.24734
▁sun	-9.24815
bo	-9.2525
▁solution	-9.25342
▁theory	-9.25394
▁sit	-9.25481
▁voice	-9.25547
▁seems	-9.25566
▁present	-9.2557
▁telling	-9.25601
▁meet	-9.2561
▁focus	-9.25675
▁explain	-9.25839
ary	-9.25873
▁type	-9.26187
v	-9.26357
▁Yeah	-9.26415
▁thank	-9.26417
the	-9.26541
▁f	-9.26593
▁rate	-9.26745
ba	-9.26779
ir	-9.27003
▁sub	-9.27181
ian	-9.27242
▁books	-9.27378
▁absolutely	-9.27441
▁talked	-9.27603
▁stay	-9.27659
hi	-9.27835
ize	-9.27883
▁sex	-9.27931
▁period	-9.2801
▁develop	-9.28042
▁Be	-9.28198
▁English	-9.28417
▁showed	-9.28541
▁normal	-9.2856
▁similar	-9.28615
▁dream	-9.28652
ber	-9.28694
▁V	-9.287
▁save	-9.28821
▁send	-9.28946
▁stand	-9.28969
line	-9.28981
▁South	-9.29015
▁law	-9.29204
▁situation	-9.29286
▁robot	-9.29385
▁table	-9.29461
▁industry	-9.29648
▁images	-9.29679
▁Europe	-9.29832
▁online	-9.29885
▁discovered	-9.30184
▁issues	-9.3024
▁office	-9.30287
com	-9.30331
uc	-9.30507
▁relationship	-9.30563
▁eye	-9.30571
▁fast	-9.3058
▁begin	-9.30633
▁product	-9.30941
▁journey	-9.31103
▁shape	-9.31136
▁modern	-9.31313
▁creating	-9.31313
▁developing	-9.31423
▁By	-9.31466
▁resources	-9.31486
▁baby	-9.31523
▁girls	-9.316
▁plant	-9.3164
▁recently	-9.31804
▁pro	-9.32015
▁perfect	-9.32027
▁drive	-9.32117
▁patient	-9.32321
▁dead	-9.32697
▁millions	-9.32956
▁truth	-9.33006
▁designed	-9.33221
▁screen	-9.33298
▁street	-9.33389
▁Google	-9.33434
▁yes	-9.33449
▁follow	-9.33521
ni	-9.33715
me	-9.33784
ance	-9.3386
ating	-9.33933
▁De	-9.33945
▁seem	-9.3402
ach	-9.34048
▁major	-9.34057
▁soon	-9.3422
▁available	-9.34295
▁evidence	-9.34511
▁especially	-9.34728
▁tiny	-9.34728
▁generation	-9.35061
▁dis	-9.35093
▁treat	-9.35115
time	-9.35277
▁continue	-9.35361
▁basic	-9.3537
▁add	-9.35407
ful	-9.35576
▁medical	-9.35605
▁tend	-9.35708
▁Yes	-9.35778
▁effect	-9.35827
G	-9.3584
▁asking	-9.35896
▁code	-9.3593
▁cars	-9.3611
▁playing	-9.36121
▁response	-9.3626
▁message	-9.36304
▁door	-9.36343
▁incredibly	-9.36481
▁mass	-9.36489
▁choice	-9.36524
▁involved	-9.36526
▁drug	-9.36751
▁ice	-9.36909
▁digital	-9.3737
▁bigger	-9.37387
▁Oh	-9.37393
▁St	-9.37513
▁changing	-9.37528
▁son	-9.37859
▁approach	-9.37868
▁object	-9.37882
▁vision	-9.3804
▁carbon	-9.38108
▁month	-9.38234
om	-9.38423
bu	-9.38484
▁role	-9.38492
mi	-9.38598
▁Le	-9.39044
▁lived	-9.39217
▁hundred	-9.39292
▁box	-9.39364
▁class	-9.39475
▁e	-9.39509
▁list	-9.39621
▁writing	-9.39688
▁Chinese	-9.40081
▁beyond	-9.40081
▁solar	-9.40084
▁L	-9.40177
▁putting	-9.40456
▁towards	-9.40481
▁gives	-9.40484
▁several	-9.4077
▁haven	-9.40952
▁First	-9.41001
▁hit	-9.41203
▁groups	-9.41414
▁device	-9.4142
▁bar	-9.41424
ot	-9.41644
▁national	-9.41785
▁reasons	-9.4183
▁reach	-9.41843
▁nine	-9.41932
F	-9.41958
▁mine	-9.42264
▁drugs	-9.42346
▁favorite	-9.42399
."	-9.42502
▁potential	-9.42504
▁lose	-9.42793
nd	-9.42843
▁died	-9.42961
he	-9.43005
▁teach	-9.43329
▁software	-9.43577
▁clean	-9.43577
▁computers	-9.43705
▁fight	-9.4375
▁communities	-9.43815
▁action	-9.43876
▁speed	-9.4392
▁stick	-9.43939
▁camera	-9.43945
▁ones	-9.43947
▁After	-9.44053
▁With	-9.44063
side	-9.44199
▁wind	-9.44497
per	-9.44508
▁worth	-9.44583
▁general	-9.44644
▁trust	-9.45011
▁Chris	-9.45012
▁position	-9.45127
▁pictures	-9.4516
▁strong	-9.45274
▁Maybe	-9.45533
▁likely	-9.45578
▁success	-9.45663
we	-9.45694
ton	-9.45727
▁anybody	-9.45744
▁provide	-9.4589
sh	-9.45969
▁Every	-9.46052
ped	-9.46093
▁visual	-9.462
▁Ba	-9.46335
▁wall	-9.46412
▁onto	-9.46522
▁Of	-9.46567
▁listen	-9.46664
▁fall	-9.46742
▁higher	-9.46818
▁quality	-9.46823
▁aren	-9.46859
▁expect	-9.46886
dy	-9.47184
▁late	-9.4722
▁particularly	-9.47455
ect	-9.47562
▁hot	-9.47618
▁violence	-9.47694
▁rules	-9.47911
▁path	-9.47991
fi	-9.48028
▁Who	-9.48102
▁spread	-9.48129
▁certainly	-9.4816
der	-9.48332
▁wait	-9.48385
▁becomes	-9.48433
▁biggest	-9.48439
▁exciting	-9.48688
▁treatment	-9.48712
▁largest	-9.48727
▁skin	-9.48741
▁moved	-9.48787
▁wish	-9.48882
▁plan	-9.48936
▁cause	-9.48948
▁evolution	-9.48971
▁walking	-9.49062
▁An	-9.49156
▁lead	-9.49186
▁showing	-9.49199
▁hour	-9.49411
▁scientific	-9.49431
▁further	-9.49441
ca	-9.49518
▁obviously	-9.49528
▁ma	-9.49534
▁medicine	-9.49692
▁okay	-9.49692
▁kill	-9.497
▁totally	-9.49798
ab	-9.4981
▁creative	-9.49944
▁village	-9.50153
▁star	-9.50479
▁leaders	-9.50524
▁student	-9.50675
▁among	-9.50697
land	-9.51131
▁ex	-9.51179
▁finding	-9.51253
▁waste	-9.51514
▁fit	-9.51668
▁nobody	-9.51745
▁road	-9.51878
▁protect	-9.51883
▁police	-9.51988
▁smart	-9.52154
va	-9.52419
Oh	-9.5255
▁African	-9.5265
▁sleep	-9.52714
▁hospital	-9.52795
▁safe	-9.52814
▁slow	-9.52815
▁Go	-9.52903
▁materials	-9.53021
▁choose	-9.53025
▁ready	-9.53045
▁mo	-9.53152
▁revolution	-9.53186
▁watching	-9.53216
▁consider	-9.53271
▁teachers	-9.53336
▁plants	-9.53399
▁named	-9.53462
▁gas	-9.53584
ho	-9.53706
ron	-9.53712
▁everywhere	-9.53811
▁secret	-9.53811
▁record	-9.53842
▁North	-9.53882
son	-9.53913
▁travel	-9.54043
▁Most	-9.54099
▁g	-9.54105
▁meaning	-9.54131
▁extremely	-9.54151
▁sent	-9.54153
▁led	-9.54188
▁fundamental	-9.54474
▁eventually	-9.54602
▁sounds	-9.54666
▁tree	-9.54688
▁notice	-9.54738
▁crazy	-9.54868
bi	-9.54909
ward	-9.54992
▁ball	-9.55008
▁version	-9.55025
▁main	-9.55055
ial	-9.55087
▁connected	-9.55157
▁security	-9.55218
▁context	-9.55396
H	-9.55409
▁results	-9.55409
▁thousand	-9.55509
go	-9.5554
▁goal	-9.55589
▁train	-9.55647
▁Even	-9.55669
▁arm	-9.55808
▁organization	-9.55832
▁Co	-9.55855
▁boy	-9.55871
▁moral	-9.55918
▁fine	-9.55983
▁Me	-9.56027
▁pattern	-9.5606
ists	-9.56102
▁allowed	-9.56304
by	-9.56384
▁schools	-9.56432
▁track	-9.56434
▁flow	-9.56461
▁grew	-9.56479
▁touch	-9.56507
ga	-9.56523
▁conflict	-9.56551
▁store	-9.56736
▁college	-9.56744
▁tool	-9.56868
▁movie	-9.56894
▁perspective	-9.57016
▁H	-9.57131
▁pain	-9.57281
▁super	-9.57305
▁War	-9.57334
mer	-9.57356
▁supposed	-9.57375
▁individuals	-9.5738
con	-9.57451
▁search	-9.57522
▁fuel	-9.5756
▁source	-9.57585
▁shot	-9.57717
▁connect	-9.57776
▁cr	-9.57904
▁families	-9.58107
▁including	-9.58107
▁essentially	-9.5816
▁positive	-9.58191
▁forest	-9.58247
▁Ha	-9.58611
ow	-9.58623
▁shown	-9.58664
▁traditional	-9.5882
out	-9.58822
W	-9.58857
▁recognize	-9.58929
▁extraordinary	-9.58948
▁rich	-9.58969
▁international	-9.5921
▁poverty	-9.5921
▁wife	-9.5921
▁worse	-9.5921
▁address	-9.59211
▁serious	-9.5936
▁decision	-9.59436
▁square	-9.59488
▁trees	-9.59678
▁memory	-9.59767
▁West	-9.59821
oc	-9.59856
▁doctor	-9.60298
▁bunch	-9.60326
▁democracy	-9.60326
di	-9.60349
▁critical	-9.60366
▁zero	-9.60526
▁taught	-9.60607
▁Dr	-9.60781
▁objects	-9.60785
▁robots	-9.60818
▁conversation	-9.60876
▁Al	-9.60878
▁somewhere	-9.60889
ke	-9.60959
▁faster	-9.61014
▁teacher	-9.6104
way	-9.61175
▁above	-9.61176
▁lower	-9.61354
▁killed	-9.61448
▁genetic	-9.61451
▁near	-9.61604
▁increase	-9.61756
▁games	-9.6176
▁affect	-9.61796
▁bio	-9.61851
▁progress	-9.61969
▁career	-9.62007
▁larger	-9.62201
No	-9.62264
▁content	-9.62309
▁please	-9.62348
▁board	-9.62444
▁examples	-9.62499
min	-9.62592
▁v	-9.62595
▁crisis	-9.62596
▁activity	-9.62599
▁excited	-9.62617
▁meant	-9.62636
▁Where	-9.628
▁projects	-9.62828
▁Today	-9.62891
▁happiness	-9.62929
▁suddenly	-9.62953
▁ended	-9.63006
▁minute	-9.63114
▁standing	-9.63139
▁models	-9.63215
▁exist	-9.63261
▁site	-9.63408
▁plastic	-9.6346
▁song	-9.63486
ence	-9.63491
▁post	-9.63501
We	-9.63514
▁compassion	-9.63738
▁jobs	-9.63774
▁famous	-9.64041
▁Those	-9.64042
ran	-9.64046
▁Don	-9.6433
▁female	-9.64332
▁truly	-9.64332
▁starts	-9.64338
▁interest	-9.6436
▁cold	-9.64365
▁complicated	-9.64646
▁sell	-9.64667
▁conditions	-9.64859
qui	-9.64889
▁check	-9.64918
tra	-9.65004
pa	-9.65015
▁successful	-9.65093
▁specific	-9.65095
do	-9.65167
▁text	-9.65205
▁pull	-9.65456
▁wonder	-9.65469
▁drop	-9.65495
▁indeed	-9.65515
▁rise	-9.65534
▁allows	-9.65722
▁impossible	-9.65803
▁kept	-9.65804
▁service	-9.65937
▁region	-9.66091
▁website	-9.661
▁older	-9.6621
▁la	-9.66219
ny	-9.66341
▁studies	-9.66397
▁Look	-9.66466
▁reading	-9.66792
▁price	-9.66856
▁count	-9.66976
▁freedom	-9.66998
▁military	-9.67
▁floor	-9.6701
▁TV	-9.67016
▁genes	-9.67125
▁feed	-9.67183
▁mental	-9.6721
▁HIV	-9.67295
ten	-9.67339
izing	-9.67463
ight	-9.67525
▁nuclear	-9.67642
▁subject	-9.67769
▁return	-9.67958
ever	-9.68021
▁account	-9.68169
▁shift	-9.68307
▁cases	-9.68396
▁massive	-9.68528
▁workers	-9.68555
▁financial	-9.68811
▁private	-9.68811
▁dangerous	-9.68815
▁prison	-9.6899
▁inter	-9.69045
ish	-9.69105
▁purpose	-9.69116
ization	-9.69156
▁training	-9.69164
ator	-9.69171
▁sign	-9.69348
▁usually	-9.69459
▁products	-9.69589
▁stars	-9.69659
▁unique	-9.69731
▁Like	-9.69737
▁somehow	-9.6975
▁practice	-9.69986
▁temperature	-9.70039
▁pressure	-9.7004
▁series	-9.70042
▁function	-9.70085
▁range	-9.70113
▁East	-9.70288
▁daughter	-9.70349
▁alive	-9.70366
▁race	-9.70671
▁decide	-9.70693
▁page	-9.70802
▁strange	-9.70888
▁draw	-9.71197
▁prevent	-9.71254
os	-9.71323
vo	-9.71382
ors	-9.71389
ex	-9.71396
▁current	-9.71468
like	-9.71552
▁anymore	-9.71597
▁smaller	-9.71722
▁Ro	-9.71813
ring	-9.71837
▁respect	-9.71967
▁upon	-9.71983
▁win	-9.72159
▁yeah	-9.72227
▁electricity	-9.72239
▁Are	-9.72367
▁buildings	-9.72417
▁mom	-9.7252
▁physics	-9.72544
▁becoming	-9.72545
ud	-9.72575
▁bacteria	-9.72808
▁micro	-9.7286
if	-9.72862
▁biology	-9.72864
led	-9.73143
▁policy	-9.73179
▁predict	-9.73188
▁press	-9.73199
▁rule	-9.73223
▁Ho	-9.73304
▁math	-9.73309
▁Mo	-9.73488
▁effective	-9.73535
oo	-9.73535
▁healthy	-9.7354
▁decisions	-9.73559
▁Bo	-9.73632
▁capital	-9.73666
▁actual	-9.73697
▁concept	-9.73818
▁enormous	-9.73819
▁trade	-9.73824
▁raise	-9.73862
▁written	-9.73868
▁direction	-9.74288
▁environmental	-9.74522
▁anywhere	-9.74523
▁ran	-9.74528
▁Li	-9.74545
gen	-9.7458
▁skills	-9.74601
ities	-9.74634
ee	-9.74701
har	-9.74721
fa	-9.74898
▁patterns	-9.74961
▁income	-9.74966
▁dog	-9.74994
▁charge	-9.75112
▁sky	-9.75128
▁w	-9.7522
▁attack	-9.75291
▁explore	-9.75476
▁waiting	-9.75517
▁solutions	-9.75541
▁report	-9.75637
▁earlier	-9.75764
▁expensive	-9.75764
▁Sa	-9.75793
ug	-9.7592
▁loved	-9.75932
▁forms	-9.76019
▁bodies	-9.76092
▁intelligence	-9.76092
que	-9.7626
▁target	-9.76421
▁instance	-9.76422
▁weren	-9.7646
▁heat	-9.76844
▁town	-9.76955
▁park	-9.77125
pi	-9.77341
▁demand	-9.77415
▁Man	-9.77445
▁visit	-9.77493
▁final	-9.77635
▁San	-9.77651
▁pieces	-9.77706
▁immediately	-9.77781
tor	-9.77796
▁clearly	-9.77988
▁extra	-9.78086
▁respond	-9.7817
ill	-9.78235
▁institutions	-9.78267
▁decade	-9.78277
▁po	-9.78344
▁Another	-9.78418
▁doctors	-9.78451
ble	-9.78483
▁throughout	-9.78503
▁peace	-9.78681
▁bo	-9.78707
che	-9.78711
▁Y	-9.78711
▁machines	-9.78743
row	-9.7875
▁Which	-9.78755
▁stress	-9.78755
▁hair	-9.78833
▁foot	-9.78835
▁listening	-9.78846
king	-9.78871
▁cover	-9.78893
▁lines	-9.789
▁term	-9.78928
▁citizens	-9.7903
▁familiar	-9.79093
▁teaching	-9.79198
▁legal	-9.79236
▁greatest	-9.79265
▁Imagine	-9.79431
▁enjoy	-9.79523
ning	-9.79537
▁neurons	-9.79569
▁greater	-9.79579
end	-9.79693
▁himself	-9.7978
ah	-9.79927
▁forth	-9.80044
▁performance	-9.80184
▁web	-9.80307
ical	-9.80315
▁Sh	-9.80332
▁apply	-9.80553
▁email	-9.80799
▁University	-9.80802
▁rain	-9.80831
▁ho	-9.80836
ions	-9.80836
▁driving	-9.80883
▁Americans	-9.80964
▁blind	-9.81121
▁religion	-9.81144
▁architecture	-9.81144
▁Pa	-9.81215
▁Mi	-9.81219
▁corner	-9.81236
▁City	-9.81256
ap	-9.81287
▁Indian	-9.81321
▁fantastic	-9.8149
▁photo	-9.81504
▁brains	-9.81553
▁meeting	-9.81611
▁wealth	-9.81741
▁improve	-9.81883
▁survive	-9.81904
ative	-9.82012
▁bomb	-9.82176
▁therefore	-9.82186
▁weight	-9.82224
▁production	-9.82237
▁costs	-9.82299
▁push	-9.82331
▁bed	-9.82359
▁tells	-9.82374
▁walked	-9.82531
▁mobile	-9.82595
▁o	-9.82672
▁spot	-9.82712
▁humanity	-9.82767
▁Ca	-9.82788
▁except	-9.82801
▁photograph	-9.83157
▁communicate	-9.83239
▁cultural	-9.83376
▁join	-9.8342
▁urban	-9.83585
▁accident	-9.83592
▁biological	-9.83593
V	-9.83606
▁Mars	-9.83617
▁radio	-9.83728
▁sorts	-9.83735
▁sh	-9.83809
▁quick	-9.83819
▁terrible	-9.83946
▁connection	-9.84
▁diseases	-9.84231
▁sat	-9.84344
▁reduce	-9.84378
▁gene	-9.84573
fu	-9.84579
▁da	-9.84587
▁willing	-9.8465
▁politics	-9.84659
▁cross	-9.84899
▁forget	-9.85025
▁boat	-9.85052
▁standard	-9.85075
men	-9.85096
▁male	-9.85179
▁engineering	-9.85201
▁legs	-9.85245
▁en	-9.85389
▁virus	-9.85459
▁Many	-9.85597
▁nation	-9.85671
▁bear	-9.85705
▁mission	-9.85764
let	-9.85861
▁decades	-9.85898
▁babies	-9.86101
▁beauty	-9.86101
▁failure	-9.86101
▁Western	-9.86105
▁Two	-9.86109
▁seconds	-9.8614
ified	-9.86147
▁condition	-9.86173
▁fix	-9.86225
▁services	-9.86299
▁useful	-9.86356
▁tissue	-9.86464
▁trouble	-9.86464
▁distance	-9.86464
▁river	-9.86465
▁dance	-9.86557
▁professional	-9.86645
▁di	-9.867
▁colleagues	-9.86805
▁although	-9.86829
▁popular	-9.86832
ea	-9.86837
▁aid	-9.86971
▁infrastructure	-9.87195
▁various	-9.87195
ip	-9.87235
▁describe	-9.87288
▁block	-9.87304
▁following	-9.87359
▁obvious	-9.87435
▁governments	-9.87551
▁genome	-9.87563
▁remarkable	-9.87563
▁landscape	-9.87566
▁summer	-9.87568
▁atmosphere	-9.8758
term	-9.87708
▁complete	-9.87892
▁London	-9.87932
▁speech	-9.87932
▁challenges	-9.87934
▁investment	-9.87948
▁helped	-9.88035
▁types	-9.88114
▁anyway	-9.88379
▁invented	-9.88432
▁rock	-9.88503
▁shared	-9.88536
▁birth	-9.88671
▁television	-9.88674
▁values	-9.88904
▁slide	-9.88988
▁straight	-9.89047
▁worst	-9.89048
▁ahead	-9.89091
light	-9.89095
▁jump	-9.89175
▁anti	-9.89274
▁r	-9.89323
mon	-9.89348
ping	-9.89394
▁understood	-9.89422
▁ca	-9.89531
▁flu	-9.89592
▁artist	-9.89611
?"	-9.89757
▁Mar	-9.8976
▁conference	-9.89798
▁stopped	-9.89827
▁points	-9.89979
▁choices	-9.90101
med	-9.9014
▁supply	-9.90175
▁organizations	-9.90389
wa	-9.90573
▁agree	-9.90633
▁flying	-9.90784
▁apart	-9.90786
one	-9.908
▁magic	-9.91037
▁ship	-9.91052
▁task	-9.91152
▁levels	-9.91188
▁recent	-9.91231
▁La	-9.91276
▁total	-9.9128
▁cycle	-9.91421
▁California	-9.91699
▁possibly	-9.91699
ey	-9.92027
▁John	-9.92069
▁From	-9.92084
▁slightly	-9.92109
▁below	-9.92258
ious	-9.92398
▁central	-9.9247
▁sector	-9.9247
▁sick	-9.92491
▁minds	-9.92498
▁mostly	-9.92766
▁Your	-9.92785
▁li	-9.92794
▁aware	-9.92844
▁Afghanistan	-9.92858
▁smell	-9.92858
▁programs	-9.93039
▁effects	-9.93205
▁rights	-9.93213
▁sequence	-9.93246
▁gr	-9.93256
▁passion	-9.93285
off	-9.93551
▁original	-9.93556
▁capacity	-9.93637
ner	-9.93805
▁match	-9.93969
▁crime	-9.94031
hand	-9.94039
▁sand	-9.94093
▁event	-9.94292
▁Instead	-9.94423
▁paid	-9.94423
▁directly	-9.94528
U	-9.94582
▁cat	-9.94738
▁dad	-9.94783
▁interact	-9.94853
ff	-9.94855
▁laws	-9.95137
▁character	-9.95147
ak	-9.95259
lin	-9.95429
▁engine	-9.95488
▁meters	-9.95554
▁roll	-9.95621
▁causes	-9.95743
▁bought	-9.96013
▁campaign	-9.96013
▁responsibility	-9.96013
▁Facebook	-9.96014
▁avoid	-9.96014
▁sentence	-9.96023
▁vast	-9.96045
▁streets	-9.96097
▁multi	-9.96319
▁sp	-9.96341
▁societies	-9.96417
▁achieve	-9.96516
▁threat	-9.9667
▁afford	-9.96791
▁creativity	-9.96818
▁tremendous	-9.96818
▁twice	-9.96818
▁Think	-9.96819
▁window	-9.96821
▁dying	-9.96824
▁pop	-9.9684
▁gun	-9.96904
▁article	-9.97223
▁easily	-9.97223
▁brand	-9.97234
▁speaking	-9.9725
▁worry	-9.97317
▁rid	-9.97524
▁depend	-9.9762
▁bridge	-9.97635
▁chair	-9.97641
▁communication	-9.97643
▁sustainable	-9.97646
▁published	-9.97708
▁quote	-9.97755
▁chemical	-9.98066
▁degrees	-9.98266
ng	-9.98291
▁commercial	-9.98448
▁afraid	-9.98448
▁oxygen	-9.98448
▁funny	-9.98462
▁throw	-9.98464
▁noticed	-9.98477
j	-9.98616
▁wild	-9.98857
▁broken	-9.98918
▁deliver	-9.98924
▁significant	-9.99143
▁National	-9.99272
▁highly	-9.9929
▁scientist	-9.9934
tri	-9.99375
▁closer	-9.99504
▁relationships	-9.99516
▁Ka	-9.99527
▁active	-9.99533
▁emotional	-9.996
▁mountain	-9.99649
▁vote	-9.99707
ving	-9.99745
io	-9.99823
▁evolved	-9.99833
ability	-9.99884
▁played	-9.99889
▁His	-9.99901
▁random	-9.99976
▁balance	-10.001
▁lack	-10.0012
ast	-10.0017
▁inspired	-10.0024
▁offer	-10.0025
▁discover	-10.0027
▁catch	-10.0032
▁efficient	-10.0038
▁civil	-10.0047
air	-10.0061
▁Great	-10.0064
▁net	-10.0069
▁core	-10.007
vis	-10.0084
▁hole	-10.0086
▁plane	-10.0086
ack	-10.0092
▁differently	-10.0095
▁notion	-10.0101
▁boys	-10.0117
ler	-10.012
▁drawing	-10.0136
▁influence	-10.0142
da	-10.0146
▁trip	-10.0147
▁etc	-10.0154
ology	-10.0163
▁Over	-10.0182
▁experiments	-10.0185
▁glass	-10.0187
▁carry	-10.0199
▁equal	-10.0206
▁camp	-10.0218
▁giant	-10.0221
log	-10.0229
▁helping	-10.0237
▁contact	-10.0244
How	-10.0248
▁oh	-10.0252
▁represent	-10.0252
▁produced	-10.0255
▁husband	-10.0264
▁identity	-10.0264
▁Lo	-10.0278
▁pass	-10.0279
▁missing	-10.0282
▁continent	-10.0307
▁classroom	-10.0308
▁earth	-10.0309
ite	-10.0336
▁diversity	-10.035
▁devices	-10.0358
▁passed	-10.0375
ka	-10.0379
▁hearing	-10.0385
ens	-10.0387
▁basis	-10.0393
▁crowd	-10.0393
▁gap	-10.0395
▁reaction	-10.0399
▁struggle	-10.0437
▁surgery	-10.0437
▁tough	-10.0438
den	-10.0447
▁states	-10.0447
▁Jo	-10.0451
for	-10.0455
▁nearly	-10.0457
▁Po	-10.0471
▁molecules	-10.0476
▁civilization	-10.0481
▁complexity	-10.0486
▁European	-10.049
▁designers	-10.05
▁gain	-10.05
▁Da	-10.0504
▁collect	-10.0506
▁members	-10.0509
▁detect	-10.051
▁seemed	-10.0511
▁extreme	-10.0512
▁fair	-10.0513
▁flight	-10.0526
▁island	-10.0534
▁gotten	-10.0538
ship	-10.056
au	-10.0562
▁comp	-10.0565
▁satellite	-10.0568
▁networks	-10.057
▁Hu	-10.0571
▁Di	-10.0573
▁definition	-10.0577
▁industrial	-10.0579
Why	-10.0599
▁studying	-10.0603
▁alternative	-10.0613
▁Take	-10.0618
▁engage	-10.0627
ain	-10.063
▁ha	-10.0639
les	-10.064
▁forever	-10.0641
▁chain	-10.0657
▁spending	-10.0659
▁farm	-10.0684
▁eating	-10.0695
▁opposite	-10.0702
▁weird	-10.0703
my	-10.0709
ray	-10.0711
▁remind	-10.0722
▁forces	-10.0739
▁raised	-10.0741
▁graph	-10.0747
▁background	-10.0747
▁coffee	-10.0747
▁Again	-10.0747
▁labor	-10.0755
▁express	-10.076
port	-10.0772
▁effort	-10.0778
▁easier	-10.0792
▁imagination	-10.0792
▁negative	-10.0792
▁reward	-10.0798
▁focused	-10.0803
▁sold	-10.0803
▁markets	-10.0813
▁birds	-10.0823
▁trial	-10.0828
▁trick	-10.083
▁fund	-10.0832
▁opportunities	-10.0837
▁desire	-10.0837
▁fully	-10.084
▁unit	-10.085
ide	-10.0855
▁interview	-10.0858
▁dreams	-10.0875
▁airplane	-10.0882
▁scene	-10.0883
▁Car	-10.0883
▁none	-10.0889
▁app	-10.0893
▁party	-10.0903
▁benefit	-10.0924
▁museum	-10.0928
▁signal	-10.0929
▁mid	-10.093
▁justice	-10.0947
▁Se	-10.0969
▁lucky	-10.0978
▁See	-10.0987
▁beings	-10.0987
▁separate	-10.0992
▁proud	-10.1021
set	-10.1025
ay	-10.1029
▁answers	-10.1031
▁honest	-10.1053
▁neighborhood	-10.1061
▁criminal	-10.1066
▁possibility	-10.1066
▁However	-10.1071
▁cave	-10.1073
▁held	-10.1086
▁date	-10.11
▁David	-10.1113
▁despite	-10.1113
▁planets	-10.1115
▁moon	-10.1117
▁importantly	-10.1117
aw	-10.112
▁card	-10.1122
ging	-10.1142
based	-10.1142
▁differences	-10.1146
▁virtual	-10.1147
▁transform	-10.1147
ren	-10.1152
cent	-10.1152
ier	-10.1154
▁Brazil	-10.1157
cy	-10.1157
▁Twitter	-10.116
▁platform	-10.116
▁sharing	-10.116
▁stem	-10.1163
▁More	-10.1173
▁painting	-10.1189
ther	-10.1205
▁competition	-10.1207
▁yellow	-10.1207
▁noise	-10.1213
▁ultimately	-10.1214
▁surprise	-10.1226
▁tradition	-10.1226
▁th	-10.1231
▁argument	-10.1254
▁advantage	-10.1254
▁bottle	-10.1254
▁identify	-10.1254
▁desert	-10.1254
▁manage	-10.1255
▁Asia	-10.1279
dimensional	-10.1288
ible	-10.1292
▁magazine	-10.1301
▁mouth	-10.1301
▁stuck	-10.1301
▁brother	-10.1302
▁consciousness	-10.1303
▁bag	-10.1303
▁Actually	-10.1306
▁turning	-10.1306
▁fairly	-10.1315
▁argue	-10.132
▁fill	-10.133
▁Second	-10.1336
It	-10.136
▁suffering	-10.1369
▁sad	-10.1375
ile	-10.1377
▁wants	-10.139
▁ancient	-10.1397
za	-10.1407
▁Her	-10.1409
▁imp	-10.1418
▁switch	-10.142
▁coast	-10.1421
ai	-10.1424
▁bone	-10.1425
▁Iraq	-10.1431
▁bat	-10.1436
▁fold	-10.1442
▁Sometimes	-10.1445
▁flag	-10.1445
▁due	-10.1451
▁Ki	-10.1458
▁direct	-10.1459
▁invest	-10.1486
▁breast	-10.1493
▁claim	-10.1493
▁religious	-10.1493
▁damage	-10.1493
▁leadership	-10.1493
▁motor	-10.1494
▁Bill	-10.1508
▁collective	-10.153
ame	-10.1541
▁bank	-10.1541
▁necessary	-10.1541
▁phenomenon	-10.1541
▁Japan	-10.1542
▁crash	-10.1542
▁entirely	-10.1542
▁pair	-10.1543
▁Once	-10.1548
▁paint	-10.1554
▁base	-10.1559
▁double	-10.1562
▁finish	-10.1566
▁soil	-10.1584
▁Middle	-10.159
▁motion	-10.1592
▁cloud	-10.16
▁Ph	-10.1623
▁Ta	-10.1625
▁fashion	-10.1625
▁necessarily	-10.1639
▁creation	-10.1639
cal	-10.1651
▁Con	-10.1652
▁sorry	-10.1653
ang	-10.1655
▁emotions	-10.1662
▁attempt	-10.1662
rt	-10.1662
▁letter	-10.1684
▁faith	-10.1689
▁gender	-10.1689
▁grand	-10.169
▁opened	-10.1694
▁figured	-10.1702
▁artists	-10.1718
ook	-10.1726
▁cheap	-10.1729
▁Ne	-10.1731
ris	-10.1733
▁location	-10.1738
▁university	-10.1738
▁click	-10.1738
▁bright	-10.1739
iv	-10.1749
▁climb	-10.1757
▁accept	-10.1759
▁studied	-10.1788
▁gift	-10.1788
▁debate	-10.1788
▁loss	-10.1788
▁Pro	-10.1795
▁CO	-10.1796
▁benefits	-10.1798
▁mis	-10.1802
▁du	-10.1806
▁hell	-10.1806
▁knowing	-10.1816
▁structures	-10.1818
▁bubble	-10.1838
▁suit	-10.1855
▁failed	-10.1862
▁Vi	-10.1867
▁operate	-10.1868
ki	-10.1872
▁pounds	-10.1875
▁sc	-10.1879
▁leg	-10.1887
▁experiences	-10.1888
▁French	-10.1888
▁restaurant	-10.1888
▁brilliant	-10.1888
▁hurt	-10.1888
▁score	-10.1888
▁interface	-10.1888
work	-10.1892
▁creatures	-10.1894
▁wear	-10.1899
▁beat	-10.1921
▁marriage	-10.1939
▁curve	-10.1939
▁master	-10.1939
▁leading	-10.195
ably	-10.1952
▁dollar	-10.1955
▁Good	-10.1956
▁farmers	-10.1963
▁foundation	-10.197
▁feels	-10.1971
▁compared	-10.1973
▁lesson	-10.1975
▁Mr	-10.198
▁Washington	-10.1989
▁puzzle	-10.1989
▁smile	-10.199
▁childhood	-10.199
▁era	-10.1994
ob	-10.1996
▁Did	-10.1997
▁foreign	-10.1998
▁discovery	-10.2002
▁link	-10.2003
▁bird	-10.2005
▁hate	-10.2007
▁sister	-10.2011
ue	-10.2017
▁release	-10.2019
▁elements	-10.2022
▁degree	-10.2038
▁strategy	-10.204
▁mouse	-10.2041
▁grade	-10.2056
pro	-10.2062
▁Bu	-10.2071
▁lay	-10.2082
▁holding	-10.2084
▁fail	-10.2087
▁honor	-10.2092
▁professor	-10.2092
▁universal	-10.2092
▁British	-10.2092
▁stream	-10.2095
▁Web	-10.2097
▁drink	-10.2112
▁wood	-10.2118
▁edge	-10.2118
ned	-10.212
all	-10.2121
▁cap	-10.2125
▁tumor	-10.2143
▁fresh	-10.2143
▁Kenya	-10.2143
▁typical	-10.2144
▁poem	-10.2145
▁Ja	-10.2153
ef	-10.2158
▁belong	-10.2167
▁managed	-10.2174
▁particles	-10.2176
ose	-10.2191
nce	-10.2194
▁responsible	-10.2195
▁patent	-10.2196
This	-10.2196
lan	-10.2197
▁majority	-10.22
▁expression	-10.2211
▁Have	-10.2214
▁deeply	-10.223
▁events	-10.2247
▁newspaper	-10.2247
▁adults	-10.226
▁prove	-10.2261
form	-10.227
▁businesses	-10.2282
▁sudden	-10.2287
ries	-10.2289
▁perform	-10.2297
▁bees	-10.2298
▁caught	-10.2299
▁fascinating	-10.2299
▁fighting	-10.2315
▁generate	-10.2324
▁organisms	-10.2325
▁walls	-10.2332
▁saving	-10.2333
ral	-10.2337
▁phones	-10.234
▁budget	-10.2352
▁leaving	-10.2352
▁serve	-10.2355
▁Cha	-10.2356
▁theater	-10.2357
gg	-10.236
▁Gr	-10.2366
▁watched	-10.2372
▁independent	-10.2381
qua	-10.2388
▁interaction	-10.239
▁horse	-10.2405
▁se	-10.2406
▁unfortunately	-10.2408
ake	-10.2413
uff	-10.2416
▁limited	-10.2425
▁wearing	-10.244
ib	-10.2445
of	-10.2452
▁fossil	-10.2458
▁lunch	-10.2458
▁otherwise	-10.2462
ft	-10.2463
▁related	-10.2469
ick	-10.2482
▁enable	-10.2488
▁engineers	-10.25
▁layer	-10.2505
▁lie	-10.2509
▁president	-10.2511
▁dinner	-10.2512
▁exercise	-10.2512
▁display	-10.2512
over	-10.2515
▁enter	-10.2515
▁tens	-10.253
▁concerned	-10.2534
▁frame	-10.2538
▁Su	-10.2544
▁Big	-10.2552
▁occur	-10.2565
▁traffic	-10.2565
▁hidden	-10.2565
▁invisible	-10.2565
▁shop	-10.2568
▁believed	-10.2569
▁discussion	-10.2569
▁Life	-10.2575
▁multiple	-10.258
sis	-10.258
▁finished	-10.2593
▁ideal	-10.2602
▁adult	-10.2606
▁profound	-10.2607
▁matters	-10.262
▁bread	-10.262
▁gay	-10.2621
▁capable	-10.2622
▁everyday	-10.2626
▁closed	-10.263
ps	-10.2646
▁clinical	-10.2664
▁opinion	-10.2674
▁safety	-10.2677
▁Very	-10.2679
▁copy	-10.2679
▁constantly	-10.2683
▁trained	-10.2684
▁appear	-10.2692
▁slowly	-10.2701
▁launch	-10.2704
▁sexual	-10.2714
▁parent	-10.2722
▁grown	-10.2724
▁bus	-10.2727
▁epidemic	-10.2728
▁George	-10.2728
▁novel	-10.2729
▁disaster	-10.2729
▁pig	-10.2732
▁followed	-10.2737
▁received	-10.275
▁flat	-10.2754
▁promise	-10.2755
▁strength	-10.2758
day	-10.2761
▁topic	-10.2772
ically	-10.2773
▁tail	-10.2778
▁partner	-10.2781
▁married	-10.2786
▁leader	-10.2795
▁Ri	-10.2799
▁detail	-10.2807
▁disappear	-10.2814
▁mix	-10.2814
▁El	-10.2816
▁described	-10.2825
▁breath	-10.2833
▁artificial	-10.2839
▁exchange	-10.284
▁row	-10.2841
▁host	-10.2845
▁collection	-10.2845
▁insects	-10.285
▁invited	-10.2856
▁mentioned	-10.2859
▁currently	-10.2861
▁launched	-10.2864
▁bi	-10.2865
▁fell	-10.2866
▁graduate	-10.2866
▁perfectly	-10.2872
sum	-10.2876
▁metal	-10.2888
▁dynamic	-10.2888
▁ten	-10.289
top	-10.289
▁kilometers	-10.2894
▁mirror	-10.2894
▁garden	-10.2894
▁crack	-10.2895
▁Ru	-10.2897
J	-10.2901
▁lights	-10.2902
▁clinic	-10.2904
▁transformation	-10.2905
dge	-10.292
▁Mu	-10.2946
▁mathematics	-10.295
▁dry	-10.2951
ice	-10.2957
▁wide	-10.296
▁wave	-10.2962
▁leads	-10.2966
▁odd	-10.2966
▁warm	-10.2978
▁ride	-10.2991
▁relative	-10.2993
▁protein	-10.3004
▁survival	-10.3006
▁Everybody	-10.3006
ound	-10.3009
▁correct	-10.3012
▁folks	-10.3013
▁mark	-10.3013
▁highest	-10.3023
▁metaphor	-10.3024
▁creates	-10.3032
▁cure	-10.3039
▁im	-10.304
▁Sp	-10.3054
▁principles	-10.306
▁spoke	-10.3061
▁spirit	-10.3062
▁contract	-10.3063
▁wake	-10.3064
▁Si	-10.3065
▁circle	-10.3093
▁surprised	-10.3096
▁normally	-10.3099
▁weapons	-10.3099
tes	-10.3111
▁transport	-10.3117
▁GDP	-10.312
▁chart	-10.312
af	-10.3123
▁insight	-10.3126
▁lu	-10.3131
▁band	-10.314
ome	-10.3142
▁journalist	-10.3143
▁seriously	-10.3146
▁define	-10.3149
▁joy	-10.3151
▁colors	-10.3156
▁sum	-10.316
▁Australia	-10.3168
▁brings	-10.3168
▁oceans	-10.3173
▁roof	-10.3176
▁organic	-10.3176
▁Mexico	-10.3177
▁channel	-10.3177
▁trillion	-10.3177
▁narrative	-10.3177
▁gold	-10.3179
▁principle	-10.318
▁May	-10.3182
▁coral	-10.3184
▁factory	-10.3189
▁consequences	-10.3199
ual	-10.3199
▁note	-10.3204
▁shoes	-10.3209
istic	-10.3212
▁tons	-10.3233
▁Richard	-10.3234
▁command	-10.3234
▁depression	-10.3234
▁versus	-10.3234
▁zone	-10.3234
▁comment	-10.3234
▁feedback	-10.3235
▁fellow	-10.3235
▁blog	-10.3235
▁seat	-10.3244
▁paying	-10.3246
ger	-10.3251
fer	-10.3254
▁compare	-10.3272
▁remote	-10.3279
▁cognitive	-10.3292
▁worried	-10.3292
▁existence	-10.3293
▁invention	-10.3298
▁belief	-10.3298
▁molecule	-10.3298
▁ring	-10.3306
▁wheel	-10.331
▁considered	-10.3347
▁rec	-10.3349
▁mathematical	-10.335
▁nervous	-10.335
▁stupid	-10.335
▁healthcare	-10.335
▁round	-10.3351
▁operating	-10.3351
▁signals	-10.3362
▁fan	-10.3369
ium	-10.3377
▁Does	-10.3378
▁Gu	-10.3379
▁fat	-10.338
▁billions	-10.338
▁designer	-10.3384
▁moments	-10.339
▁surprising	-10.3396
▁exists	-10.3399
▁load	-10.34
ja	-10.3405
▁galaxies	-10.3409
▁quantum	-10.3409
▁planning	-10.341
▁comfortable	-10.3411
▁Sun	-10.3412
▁print	-10.3416
▁testing	-10.3417
▁resource	-10.3422
▁Would	-10.3428
▁Ad	-10.3444
▁Bi	-10.3457
▁England	-10.3467
▁quiet	-10.3467
▁curious	-10.3467
▁associated	-10.3475
▁researchers	-10.3475
▁vehicle	-10.3479
▁unless	-10.3479
▁Ex	-10.3483
▁harder	-10.3488
▁profit	-10.3494
ari	-10.3496
▁advance	-10.3499
▁concern	-10.3502
▁capture	-10.3503
If	-10.3506
▁clip	-10.3527
▁electric	-10.3534
▁treated	-10.3534
▁intelligent	-10.3539
val	-10.354
▁k	-10.3541
▁hasn	-10.3566
▁wire	-10.3578
▁emissions	-10.3586
▁equivalent	-10.3586
▁official	-10.3586
▁wisdom	-10.3586
▁stood	-10.3586
▁Three	-10.3586
▁weather	-10.3586
▁hopefully	-10.3591
▁circuit	-10.3591
▁uses	-10.3594
▁experts	-10.3605
▁meat	-10.3609
▁forced	-10.3616
▁begins	-10.3621
ky	-10.3623
▁Their	-10.3644
▁consumption	-10.3646
▁equipment	-10.3646
▁survey	-10.3646
▁autism	-10.3646
▁laptop	-10.3646
▁distribution	-10.3646
▁daily	-10.3646
▁reform	-10.365
▁killing	-10.366
▁method	-10.3662
▁lifetime	-10.367
▁harm	-10.3678
▁letters	-10.3692
▁exact	-10.3693
▁steps	-10.3697
▁telescope	-10.3706
▁hide	-10.3706
▁taste	-10.3713
▁Germany	-10.3714
▁Island	-10.3716
▁soldiers	-10.3717
▁member	-10.3728
▁warming	-10.374
▁ski	-10.3748
▁processes	-10.375
▁ants	-10.3755
▁judge	-10.3767
▁joke	-10.3767
▁Everything	-10.3767
▁court	-10.3767
▁rural	-10.3767
▁combination	-10.3767
ima	-10.377
▁pages	-10.3774
▁suggest	-10.3783
▁whom	-10.3783
lon	-10.3785
▁engineer	-10.3786
▁saved	-10.3789
rus	-10.3792
▁op	-10.3804
▁technical	-10.3815
▁opening	-10.3822
rk	-10.3827
▁Audience	-10.3828
▁participate	-10.3828
▁intellectual	-10.3828
▁grandmother	-10.3828
▁importance	-10.3828
▁expected	-10.3828
head	-10.3834
▁picked	-10.3847
▁dealing	-10.3848
chi	-10.3854
▁reflect	-10.3854
▁tape	-10.3858
▁arms	-10.3862
▁skill	-10.3874
▁cartoon	-10.3879
▁diet	-10.3882
▁Einstein	-10.3889
▁analysis	-10.3889
▁galaxy	-10.3889
▁extract	-10.389
▁season	-10.3892
▁according	-10.3892
▁Times	-10.3905
ero	-10.3906
ley	-10.3908
▁credit	-10.3909
ern	-10.3913
▁mistake	-10.3914
▁experienced	-10.3918
▁AIDS	-10.3922
▁determine	-10.3923
fe	-10.3926
▁names	-10.3932
▁blow	-10.3932
▁fourth	-10.3939
▁MIT	-10.3951
▁agriculture	-10.3951
▁limb	-10.3951
▁selling	-10.3955
▁spaces	-10.3956
▁increasingly	-10.3962
▁setting	-10.3965
▁arrived	-10.3967
▁soul	-10.3974
▁instrument	-10.3977
▁inner	-10.3978
▁statistics	-10.3979
scale	-10.398
▁robotic	-10.3984
▁covered	-10.3996
ologist	-10.4012
▁stone	-10.4012
▁President	-10.4013
her	-10.4015
▁plate	-10.4015
press	-10.4015
car	-10.4034
▁convinced	-10.4038
ew	-10.4039
Hey	-10.4041
▁filled	-10.4045
ui	-10.4047
▁station	-10.4052
▁driver	-10.4062
▁tall	-10.4064
▁Com	-10.4065
▁broke	-10.4067
▁error	-10.4075
▁ordinary	-10.4075
▁battle	-10.4076
▁keeping	-10.4107
▁remain	-10.4113
hy	-10.4123
▁pocket	-10.4138
▁property	-10.4139
▁chicken	-10.414
▁string	-10.4141
▁toward	-10.4157
Yes	-10.4166
▁muscle	-10.4171
▁organized	-10.4177
▁faces	-10.4194
▁volume	-10.4202
▁medium	-10.4202
▁construction	-10.4204
▁north	-10.4205
use	-10.4205
▁caused	-10.4209
▁limit	-10.4214
▁emotion	-10.4229
▁cow	-10.4234
▁operation	-10.4241
▁calling	-10.4258
gram	-10.426
▁equation	-10.4265
▁heavy	-10.4265
▁perception	-10.4265
▁peak	-10.4265
▁mess	-10.4266
▁stock	-10.4266
▁awful	-10.4267
▁wondering	-10.4269
▁addition	-10.4295
▁qua	-10.4298
▁Hi	-10.43
▁encourage	-10.4301
▁helps	-10.431
▁malaria	-10.4312
▁fo	-10.4316
ear	-10.4317
▁habit	-10.4318
▁empty	-10.4329
▁evil	-10.4329
▁yesterday	-10.4329
▁maintain	-10.4329
▁Center	-10.4329
▁generations	-10.433
▁losing	-10.433
▁toilet	-10.4332
▁Human	-10.4332
▁abuse	-10.4332
▁ra	-10.4335
ily	-10.4346
▁tip	-10.4352
▁hang	-10.4364
right	-10.4368
▁sample	-10.4368
▁released	-10.437
cut	-10.4378
▁Iran	-10.438
▁para	-10.4381
▁contain	-10.4385
▁photos	-10.4391
▁Amazon	-10.4394
▁prototype	-10.4394
▁underneath	-10.4394
▁title	-10.4394
▁lo	-10.4398
▁transition	-10.4399
▁bill	-10.4402
▁factors	-10.4405
hu	-10.4419
▁burn	-10.4419
▁Am	-10.4421
▁quarter	-10.443
▁introduce	-10.4431
▁sa	-10.4452
▁connections	-10.4459
▁rapidly	-10.4466
▁protection	-10.4471
▁author	-10.4471
▁lies	-10.4476
rate	-10.4488
▁users	-10.4488
▁Ar	-10.4494
▁adapt	-10.4495
▁regular	-10.4511
▁Harvard	-10.4524
▁cutting	-10.4531
▁calls	-10.4536
▁require	-10.454
▁tube	-10.4543
▁victims	-10.4551
▁Arab	-10.4551
▁rare	-10.4555
▁coal	-10.4558
▁hadn	-10.4565
▁pen	-10.4566
▁Na	-10.4571
Do	-10.4578
▁electrical	-10.4579
▁Street	-10.459
▁battery	-10.459
▁embrace	-10.459
▁Japanese	-10.459
▁inequality	-10.459
▁sugar	-10.459
▁Last	-10.4595
ration	-10.4601
▁document	-10.4611
▁dimensions	-10.4613
▁counter	-10.462
▁deeper	-10.4621
rew	-10.4622
nna	-10.4626
▁sending	-10.4626
han	-10.4635
▁essential	-10.4643
▁react	-10.4649
▁Paul	-10.4656
▁NASA	-10.4656
▁Pakistan	-10.4656
▁emerging	-10.4656
▁possibilities	-10.4656
▁Britain	-10.4656
▁properties	-10.4656
▁poetry	-10.4658
▁peer	-10.4659
▁button	-10.4659
▁south	-10.4659
▁requires	-10.4678
bra	-10.4684
▁tag	-10.4686
▁advanced	-10.4688
▁nose	-10.4698
▁players	-10.4704
▁finger	-10.4706
▁Wi	-10.4723
▁School	-10.4723
▁filter	-10.4723
▁variety	-10.4723
▁facing	-10.4723
▁balloon	-10.4723
▁carefully	-10.4734
▁appropriate	-10.4741
▁fields	-10.475
van	-10.475
▁rat	-10.4764
▁mention	-10.4775
▁leaves	-10.4787
▁doubt	-10.479
▁encounter	-10.479
▁surgeon	-10.479
▁fiction	-10.479
▁management	-10.4793
▁moves	-10.4805
gi	-10.4819
▁movies	-10.482
▁mothers	-10.4822
▁shapes	-10.4824
▁Mon	-10.4827
▁estimate	-10.4829
▁height	-10.4832
▁tap	-10.4849
▁economics	-10.485
▁Congress	-10.4858
▁illegal	-10.4858
▁sweet	-10.4858
▁tomorrow	-10.4858
▁Could	-10.4858
▁microbes	-10.4858
▁Francisco	-10.4858
▁chemistry	-10.4858
▁gang	-10.4859
▁pump	-10.4859
▁rational	-10.486
▁grid	-10.486
▁specifically	-10.4861
▁player	-10.4862
kin	-10.4885
source	-10.4887
That	-10.4891
▁represents	-10.49
ification	-10.4903
bal	-10.4907
▁Pi	-10.491
▁shoulder	-10.4912
▁absolute	-10.4913
▁root	-10.4914
▁heads	-10.4926
▁inspiration	-10.4926
▁Los	-10.4926
▁spring	-10.4927
▁rocket	-10.4928
▁waves	-10.493
▁cards	-10.4939
▁tea	-10.4953
▁soft	-10.4967
▁relate	-10.4969
▁te	-10.4984
▁broad	-10.4985
▁physicist	-10.4994
▁technological	-10.4994
▁protest	-10.4994
▁gentlemen	-10.4994
▁designing	-10.4997
▁Art	-10.4997
▁review	-10.4997
▁habitat	-10.5007
ju	-10.5012
art	-10.5012
▁voices	-10.5013
▁cook	-10.5014
▁pure	-10.5018
meter	-10.5022
▁required	-10.5026
▁cup	-10.503
▁shoot	-10.5032
▁former	-10.5045
▁increasing	-10.505
▁nations	-10.5052
▁Nigeria	-10.5054
▁celebrate	-10.5063
▁length	-10.5063
▁vulnerable	-10.5063
▁conclusion	-10.5063
▁laugh	-10.5074
▁auto	-10.5087
▁weak	-10.5087
▁convince	-10.5105
▁holes	-10.5116
▁cameras	-10.5126
▁Canada	-10.5133
▁church	-10.5133
▁sites	-10.514
▁hotel	-10.5141
▁orbit	-10.5144
▁statement	-10.5146
ough	-10.5148
▁exception	-10.5149
▁trials	-10.5151
rop	-10.5158
▁effectively	-10.5161
▁replace	-10.5175
▁funding	-10.5181
ular	-10.5188
▁Dan	-10.5193
▁movements	-10.5199
▁option	-10.5201
▁swim	-10.5202
▁fruit	-10.5203
▁studio	-10.5203
▁firm	-10.5203
▁Anderson	-10.5203
▁Since	-10.5203
▁lady	-10.5204
▁sight	-10.5209
▁characters	-10.5212
▁presentation	-10.5213
▁relatively	-10.5219
▁mile	-10.5221
▁Israel	-10.5223
▁j	-10.5234
▁include	-10.5242
ory	-10.5247
▁reveal	-10.5248
▁Che	-10.5258
▁radical	-10.526
▁ecosystem	-10.5271
▁vaccine	-10.5271
▁outcome	-10.5272
▁explanation	-10.5273
▁pleasure	-10.5273
▁status	-10.5273
▁passionate	-10.5276
▁consumer	-10.5277
▁appreciate	-10.5278
▁producing	-10.5282
▁details	-10.5283
▁bare	-10.5305
gar	-10.5305
▁invent	-10.5319
▁messages	-10.5332
▁dots	-10.5336
▁phrase	-10.5344
▁France	-10.5344
▁teeth	-10.5344
▁jail	-10.5344
▁roughly	-10.5352
▁politicians	-10.5359
▁rates	-10.5362
▁na	-10.5369
▁receive	-10.537
▁risks	-10.5377
board	-10.5386
ko	-10.5398
▁symbol	-10.5407
▁user	-10.5408
▁factor	-10.5412
▁danger	-10.5414
▁Chicago	-10.5415
▁academic	-10.5415
▁staff	-10.5415
▁James	-10.5415
▁Yet	-10.5415
▁valuable	-10.5416
▁Anyway	-10.5416
▁BG	-10.5424
▁scan	-10.5427
▁expand	-10.5431
▁director	-10.5437
▁handle	-10.5455
ana	-10.5468
▁Come	-10.5472
▁cu	-10.5472
▁fewer	-10.5483
▁molecular	-10.5487
▁buying	-10.5488
▁decline	-10.5488
▁corruption	-10.5488
▁evolutionary	-10.549
▁myth	-10.5492
▁winter	-10.5493
▁signs	-10.5504
▁hall	-10.5504
▁meaningful	-10.5511
▁pal	-10.5514
our	-10.5517
▁Thanks	-10.5523
▁feelings	-10.5527
▁monitor	-10.5528
water	-10.5532
▁king	-10.5534
▁succeed	-10.5535
▁chemicals	-10.5555
▁sheet	-10.5555
▁kitchen	-10.556
▁mosquito	-10.556
▁steel	-10.556
▁plot	-10.5561
▁shame	-10.5561
▁Ju	-10.5562
▁Bank	-10.5562
ency	-10.5599
▁lessons	-10.5603
phi	-10.5608
▁remove	-10.5612
▁formed	-10.5621
▁Ben	-10.5621
▁trend	-10.563
▁Institute	-10.5633
▁sculpture	-10.5633
▁graphic	-10.5633
▁videos	-10.564
▁bike	-10.5645
▁flip	-10.5658
ery	-10.5677
▁assume	-10.5678
▁engaged	-10.5679
▁Tom	-10.569
▁previous	-10.5693
▁thin	-10.5699
▁Darwin	-10.5704
▁infinite	-10.5706
▁definitely	-10.5706
▁manufacturing	-10.5706
▁spectrum	-10.5706
▁unusual	-10.5706
▁radiation	-10.5706
▁Boston	-10.5706
▁primary	-10.5707
▁split	-10.5707
▁internal	-10.5707
▁solid	-10.5707
▁worldwide	-10.5712
▁techniques	-10.5717
▁Muslim	-10.5717
▁pitch	-10.5719
▁grain	-10.572
▁suffer	-10.5724
▁sing	-10.5732
▁pl	-10.5734
▁beach	-10.5759
▁carrying	-10.576
ung	-10.5764
▁fl	-10.5775
▁symptoms	-10.5777
▁depends	-10.5777
▁comfort	-10.5778
▁increased	-10.5779
▁department	-10.578
▁silence	-10.578
▁clever	-10.578
▁alien	-10.5781
▁Other	-10.5782
▁flies	-10.5782
▁snow	-10.5782
▁tank	-10.5784
▁awareness	-10.5785
▁refer	-10.5785
▁productive	-10.5786
▁languages	-10.5792
▁conscious	-10.5793
▁feature	-10.5794
▁dinosaurs	-10.5798
▁arts	-10.5808
▁grab	-10.5809
▁Park	-10.581
▁introduced	-10.5812
▁forests	-10.5814
▁however	-10.5821
▁breathe	-10.5821
▁collapse	-10.5827
▁translate	-10.5827
▁pack	-10.5827
▁affected	-10.5845
▁Han	-10.585
▁Islam	-10.5851
▁Women	-10.5855
▁YouTube	-10.5855
▁democratic	-10.5855
▁variation	-10.5855
▁violent	-10.5855
▁attitude	-10.5855
▁finance	-10.5855
▁severe	-10.5855
▁fe	-10.5856
▁fake	-10.5856
▁atoms	-10.5858
room	-10.5862
▁applied	-10.5876
▁generally	-10.5895
▁homes	-10.5896
▁potentially	-10.5896
▁tax	-10.5897
▁prime	-10.5902
▁German	-10.592
▁input	-10.5928
▁attract	-10.593
▁harvest	-10.593
▁illusion	-10.593
▁intervention	-10.593
▁conservation	-10.5931
▁collaboration	-10.5933
▁loan	-10.5933
▁reverse	-10.5933
ank	-10.5939
▁mechanism	-10.5948
▁typically	-10.5949
▁origin	-10.5957
▁sources	-10.5962
▁sharks	-10.5978
▁organize	-10.5979
▁houses	-10.5984
▁pulled	-10.5994
▁sophisticated	-10.6006
▁hydrogen	-10.6006
▁compete	-10.6007
▁fiber	-10.6007
▁shut	-10.6008
▁Four	-10.601
▁apartment	-10.601
▁existing	-10.6011
▁mountains	-10.6013
▁added	-10.6016
▁viruses	-10.6019
▁prepared	-10.602
▁fundamentally	-10.6043
▁recorded	-10.6077
▁innovative	-10.6082
▁liquid	-10.6082
▁Christian	-10.6082
ye	-10.6082
▁route	-10.6082
▁nerve	-10.6083
▁spider	-10.6083
oid	-10.6085
▁prop	-10.6089
▁intention	-10.6098
▁plus	-10.6108
▁repeat	-10.6134
▁combine	-10.6137
▁physically	-10.6138
▁employees	-10.6144
▁recover	-10.615
▁Steve	-10.615
▁components	-10.6154
▁bias	-10.6155
▁Michael	-10.6159
▁empathy	-10.6159
▁iPhone	-10.6159
▁observation	-10.6159
▁physician	-10.6159
▁providing	-10.6159
▁false	-10.6159
▁sphere	-10.6159
▁prize	-10.6159
▁predator	-10.6159
▁framework	-10.616
▁prefer	-10.616
▁protected	-10.617
▁reached	-10.6172
▁zoom	-10.6173
▁earn	-10.6179
▁election	-10.6185
▁neighbors	-10.6193
ulation	-10.6201
▁goals	-10.6215
▁Per	-10.6219
▁ultimate	-10.6224
▁personally	-10.6228
▁gravity	-10.6237
▁phase	-10.6237
▁pilot	-10.6237
▁pollution	-10.6237
▁relevant	-10.6237
▁awesome	-10.6237
▁loud	-10.6238
▁equality	-10.6241
▁loop	-10.6244
ani	-10.6248
▁traveling	-10.625
▁agent	-10.6254
▁Day	-10.6261
▁element	-10.6264
▁border	-10.6265
▁shark	-10.6265
bb	-10.6266
▁State	-10.6271
mar	-10.6283
▁su	-10.6296
▁poet	-10.6298
▁practical	-10.6302
▁toxic	-10.6303
long	-10.6305
▁actions	-10.6309
▁sustain	-10.6312
ock	-10.6312
▁naturally	-10.6313
▁lecture	-10.6315
▁license	-10.6315
▁permanent	-10.6315
▁knee	-10.6315
▁Charles	-10.6315
well	-10.6325
net	-10.6339
▁organ	-10.6341
zz	-10.635
cus	-10.6365
▁blocks	-10.6371
mate	-10.6375
▁Russia	-10.6385
▁trans	-10.6387
ians	-10.6388
▁escape	-10.6389
ker	-10.6391
▁Perhaps	-10.6393
▁While	-10.6393
▁concrete	-10.6393
▁destruction	-10.6393
▁psychological	-10.6393
▁computing	-10.6393
▁milk	-10.6393
▁silk	-10.6394
▁guide	-10.6394
▁reference	-10.6394
▁King	-10.6397
▁eggs	-10.6398
▁suck	-10.64
▁fishing	-10.6401
fully	-10.6403
oli	-10.6408
▁Air	-10.6421
▁stronger	-10.6423
▁solved	-10.6427
▁organs	-10.6442
▁divide	-10.6445
▁joined	-10.6449
low	-10.646
▁hospitals	-10.6464
down	-10.647
▁Science	-10.6473
▁Valley	-10.6473
▁activities	-10.6473
▁efficiency	-10.6473
▁policies	-10.6473
▁privacy	-10.6473
▁complain	-10.6473
▁mechanical	-10.6473
▁mortality	-10.6473
▁ought	-10.6474
▁nest	-10.6474
▁hoping	-10.6474
▁dense	-10.6475
▁underwater	-10.6475
sta	-10.6476
▁infection	-10.6477
▁Will	-10.6489
▁lying	-10.649
▁maps	-10.6506
ane	-10.6513
vin	-10.6515
▁collected	-10.6518
▁evolve	-10.6525
foot	-10.653
phe	-10.6532
▁needle	-10.6533
▁institution	-10.6534
ridge	-10.6537
▁constant	-10.654
▁Th	-10.6545
▁dramatic	-10.6552
▁repair	-10.6553
▁housing	-10.6553
▁pill	-10.6555
▁miss	-10.6558
▁ancestors	-10.6558
▁algorithms	-10.6567
▁scared	-10.6582
▁section	-10.6584
▁regions	-10.6596
▁talent	-10.6609
▁interests	-10.6611
▁angle	-10.6615
grad	-10.6616
ina	-10.6617
▁vehicles	-10.6618
▁cultures	-10.6619
▁dogs	-10.6628
▁centers	-10.6629
▁strip	-10.6632
▁activist	-10.6634
▁afternoon	-10.6634
▁microscope	-10.6634
▁murder	-10.6634
▁lens	-10.6634
▁Also	-10.6634
▁behave	-10.6634
▁polar	-10.6634
▁flash	-10.6634
▁Nobody	-10.6635
▁dropped	-10.6636
▁authority	-10.6636
ham	-10.6639
▁bug	-10.6642
▁thanks	-10.6648
▁dec	-10.6655
matic	-10.6656
▁Mc	-10.6664
hop	-10.6667
uring	-10.6668
ria	-10.667
▁printing	-10.6677
▁storm	-10.668
▁processing	-10.6691
▁clock	-10.6699
▁organism	-10.67
▁cast	-10.67
back	-10.6709
▁illness	-10.671
▁driven	-10.6715
▁drill	-10.6715
▁visible	-10.6715
▁swimming	-10.6715
▁sports	-10.6715
▁unknown	-10.6716
▁Paris	-10.6717
▁clothes	-10.6717
▁improvement	-10.672
▁PM	-10.6721
▁surrounded	-10.6727
▁recording	-10.6729
In	-10.6737
▁musical	-10.6747
ade	-10.6754
▁remains	-10.6756
▁manager	-10.6763
▁bee	-10.6771
▁attacks	-10.6772
ise	-10.6773
▁features	-10.6781
▁pour	-10.6782
▁admit	-10.6795
▁CEO	-10.6797
▁advice	-10.6797
▁challenging	-10.6797
▁literature	-10.6797
▁stretch	-10.6797
▁deserve	-10.6797
▁intense	-10.6797
▁Talk	-10.6797
▁officer	-10.6797
▁grass	-10.6798
▁terrorism	-10.6798
▁wound	-10.6798
▁weigh	-10.68
▁wine	-10.6802
▁aging	-10.6804
▁explained	-10.6817
▁equally	-10.6822
▁drives	-10.6827
▁singing	-10.6833
▁percentage	-10.6838
▁neighbor	-10.6843
xi	-10.685
▁Tu	-10.6854
▁extend	-10.6855
▁agreed	-10.6858
▁situations	-10.6859
▁chose	-10.6871
▁Project	-10.6879
▁club	-10.6879
▁cluster	-10.6879
▁psychology	-10.6879
▁drone	-10.6879
▁telephone	-10.6879
▁sunlight	-10.6882
▁sail	-10.6882
▁conversations	-10.6883
▁pile	-10.6883
▁exhibition	-10.6884
▁Un	-10.6889
▁shock	-10.6907
▁script	-10.6909
▁file	-10.6925
▁aspect	-10.6929
state	-10.693
▁Any	-10.693
▁tested	-10.6939
gy	-10.6957
▁horrible	-10.6963
▁memories	-10.6963
▁shadow	-10.6963
▁smoke	-10.6963
▁occurred	-10.6963
▁thick	-10.6963
▁Latin	-10.6964
▁transportation	-10.6967
▁younger	-10.6969
onic	-10.6971
making	-10.6971
▁largely	-10.6974
▁partners	-10.6976
▁sensitive	-10.6993
▁circumstances	-10.7018
▁contribute	-10.7019
▁kick	-10.7023
▁Har	-10.7036
▁worker	-10.7038
▁contrast	-10.7047
▁cortex	-10.7047
▁exploration	-10.7047
▁paradigm	-10.7047
▁marine	-10.7047
▁nowhere	-10.7047
▁spiritual	-10.7047
▁greenhouse	-10.7048
▁selection	-10.7048
▁wireless	-10.7049
▁bond	-10.7049
▁download	-10.7052
▁cry	-10.7056
▁busy	-10.7062
▁infected	-10.7065
▁Red	-10.7065
fish	-10.7065
▁II	-10.7066
▁electronic	-10.707
▁pet	-10.7073
cop	-10.7075
ov	-10.7076
▁style	-10.7091
▁acting	-10.7099
ump	-10.7099
▁dress	-10.7107
▁wa	-10.7113
Look	-10.7116
▁abstract	-10.7123
▁GPS	-10.7132
▁September	-10.7132
▁Unfortunately	-10.7132
▁steal	-10.7132
▁Health	-10.7132
▁desk	-10.7132
▁flew	-10.7132
▁chapter	-10.7132
▁boring	-10.7133
▁tonight	-10.7137
▁sensors	-10.7147
▁apple	-10.7148
▁Five	-10.7148
▁confidence	-10.7149
▁applications	-10.7151
▁fingers	-10.7153
ord	-10.7154
▁Bar	-10.7158
▁meal	-10.7165
being	-10.717
▁combined	-10.717
▁spec	-10.7177
lock	-10.7187
▁expert	-10.719
▁Only	-10.7196
▁accurate	-10.7204
▁functional	-10.721
▁Number	-10.7217
▁revenue	-10.7217
▁secure	-10.7217
▁vertical	-10.7217
▁depth	-10.7217
▁presence	-10.7217
▁angry	-10.7217
▁sustainability	-10.7217
▁rush	-10.7218
▁resistance	-10.7218
▁House	-10.7218
▁commitment	-10.7218
▁photographs	-10.722
▁tech	-10.7221
ong	-10.7223
▁conduct	-10.7225
▁attend	-10.7231
▁stayed	-10.7236
▁Du	-10.7236
▁flower	-10.7238
▁falling	-10.724
cle	-10.7245
▁behaviors	-10.7251
▁nor	-10.7262
▁mistakes	-10.7269
▁defined	-10.7274
▁suppose	-10.7275
cha	-10.729
▁upper	-10.729
assemble	-10.7303
▁notes	-10.7305
▁Adam	-10.7305
▁capitalism	-10.7307
tz	-10.731
▁tracking	-10.7316
▁functions	-10.7317
ek	-10.7317
▁overall	-10.732
▁hits	-10.7322
Fi	-10.7332
▁Wal	-10.7335
▁fabric	-10.7335
▁cord	-10.7338
▁borders	-10.7359
▁lift	-10.7366
▁entrepreneurs	-10.7376
▁gut	-10.7377
▁parking	-10.7385
▁unlike	-10.7385
▁favor	-10.739
▁Green	-10.739
▁Wikipedia	-10.739
▁motivation	-10.739
▁parallel	-10.739
▁somewhat	-10.739
▁bicycle	-10.739
▁hill	-10.7391
▁cents	-10.7396
ened	-10.7407
bar	-10.7423
▁controlled	-10.7429
teen	-10.7437
▁emerge	-10.7448
▁fixed	-10.745
▁inspire	-10.745
az	-10.7454
▁architect	-10.7457
▁application	-10.7458
▁chip	-10.7458
▁seek	-10.7471
▁Egypt	-10.7473
▁flood	-10.7478
▁mice	-10.7478
▁closely	-10.7479
▁Angeles	-10.748
▁boom	-10.748
▁humor	-10.748
▁proteins	-10.7481
▁options	-10.7482
▁grandfather	-10.7487
▁Sam	-10.7505
▁pool	-10.7508
▁marketing	-10.7509
ura	-10.7509
▁ear	-10.7515
▁cooking	-10.7518
rin	-10.7524
ou	-10.7533
app	-10.7537
▁par	-10.7544
▁signed	-10.7549
house	-10.7553
aking	-10.7555
dding	-10.7566
▁Before	-10.7566
▁Global	-10.7566
▁centuries	-10.7566
▁ritual	-10.7566
▁Something	-10.7566
▁laboratory	-10.7567
▁therapy	-10.7567
▁birthday	-10.7567
▁mad	-10.7572
▁logic	-10.7573
▁Act	-10.7574
etic	-10.7574
▁provided	-10.758
▁solving	-10.7591
▁poll	-10.7592
▁burning	-10.7609
▁invite	-10.7628
▁promote	-10.7629
▁algorithm	-10.764
American	-10.7642
hen	-10.7643
▁custom	-10.7643
rum	-10.7645
▁Pacific	-10.7656
▁discipline	-10.7656
▁psychologist	-10.7656
▁struck	-10.7656
▁Obama	-10.7656
▁march	-10.7656
▁hero	-10.7674
▁database	-10.7675
mark	-10.7676
▁US	-10.7683
ik	-10.7692
aving	-10.7703
▁measured	-10.7709
▁convert	-10.7721
▁Abou	-10.773
▁wondered	-10.7731
▁truck	-10.7732
▁existed	-10.7733
▁technique	-10.7733
▁educational	-10.7734
▁Museum	-10.7746
▁hormone	-10.7746
▁causing	-10.7746
▁ladies	-10.7746
▁Apple	-10.7747
late	-10.7749
▁lifestyle	-10.775
▁acid	-10.775
▁Sea	-10.777
▁environments	-10.7776
▁destroy	-10.7781
life	-10.7783
called	-10.7784
▁evening	-10.7798
▁customers	-10.7817
▁faced	-10.7825
▁creature	-10.7827
▁diagram	-10.7837
▁domestic	-10.7837
▁emergency	-10.7837
▁piano	-10.7837
▁trigger	-10.7837
▁extent	-10.7837
▁Robert	-10.7837
▁transfer	-10.7837
hor	-10.784
▁cheat	-10.7842
▁photographer	-10.7856
▁boxes	-10.7861
▁breathing	-10.7888
▁Gi	-10.7896
▁privilege	-10.79
▁critic	-10.7914
▁bones	-10.7921
tract	-10.7926
▁Christmas	-10.7928
▁narrow	-10.7928
▁scenario	-10.7928
▁transplant	-10.7928
▁unexpected	-10.7928
▁barrier	-10.7928
▁hook	-10.7929
▁guard	-10.7929
▁feeding	-10.7932
▁wash	-10.7936
▁disc	-10.7941
▁pot	-10.7942
▁floating	-10.7949
▁classes	-10.7953
▁destroyed	-10.7954
▁mode	-10.7967
▁aim	-10.7971
▁poster	-10.7973
▁liked	-10.7974
▁owner	-10.7975
▁transformed	-10.7977
▁rely	-10.7978
▁offered	-10.7984
▁courage	-10.802
▁Frank	-10.8021
▁Remember	-10.8021
▁Thomas	-10.8021
▁animation	-10.8021
▁economies	-10.8021
▁engaging	-10.8021
▁globe	-10.8021
▁identical	-10.8021
▁library	-10.8021
▁Basically	-10.8021
▁welcome	-10.8021
▁outcomes	-10.8023
▁Everyone	-10.8023
▁June	-10.8023
hour	-10.8023
▁fluid	-10.8024
▁raw	-10.8025
cla	-10.8039
▁dive	-10.8043
▁theme	-10.8047
cho	-10.805
▁amounts	-10.8056
ene	-10.8056
▁army	-10.8056
▁Mary	-10.8061
▁roads	-10.8061
▁pin	-10.8069
▁seal	-10.8076
rd	-10.8077
▁economists	-10.8085
gh	-10.8086
▁records	-10.8093
view	-10.8103
▁pushing	-10.8104
▁edit	-10.8107
▁disorder	-10.8112
▁monkey	-10.8112
▁corporate	-10.8114
▁judgment	-10.8114
▁Finally	-10.8114
▁correspond	-10.8114
▁reserve	-10.8114
▁conclude	-10.8114
▁carried	-10.8115
▁Jim	-10.8115
▁hyper	-10.8115
▁shall	-10.8115
▁regime	-10.8115
▁Martin	-10.8117
▁diver	-10.8119
▁Pe	-10.8124
avi	-10.8127
aster	-10.8129
▁cable	-10.8135
▁Boy	-10.8144
grade	-10.815
▁Ten	-10.8153
▁rocks	-10.8156
▁Get	-10.8165
verse	-10.8174
▁vessels	-10.8179
▁implications	-10.8179
▁wherever	-10.8184
▁ignore	-10.8186
Yeah	-10.8201
▁careful	-10.8206
box	-10.8208
lla	-10.8209
▁White	-10.8209
▁frankly	-10.8209
▁genius	-10.8209
▁measuring	-10.8209
▁medication	-10.8209
▁renewable	-10.8209
▁session	-10.8209
▁defend	-10.8209
▁minister	-10.8209
▁whale	-10.8209
▁compound	-10.821
▁dramatically	-10.821
▁Union	-10.8212
▁dozen	-10.8219
▁meme	-10.8219
▁lion	-10.822
▁ears	-10.8231
hr	-10.8236
▁continued	-10.8244
▁aspects	-10.8247
▁Ni	-10.825
▁tie	-10.8261
▁represented	-10.8264
▁drinking	-10.8266
▁suggests	-10.8272
▁Star	-10.8289
▁January	-10.8304
▁absorb	-10.8304
▁defense	-10.8304
▁suspect	-10.8304
▁thumb	-10.8304
▁neither	-10.8304
▁proportion	-10.8304
▁grateful	-10.8304
▁sweat	-10.8304
▁trace	-10.8304
▁footprint	-10.8304
ivity	-10.8306
class	-10.8306
hood	-10.8325
▁presented	-10.8328
▁Fe	-10.8333
▁samples	-10.8342
▁anger	-10.8347
▁runs	-10.8351
ological	-10.8354
▁pan	-10.8378
▁songs	-10.8382
▁Korea	-10.8391
stream	-10.8394
▁whales	-10.84
▁Black	-10.84
▁automatically	-10.84
▁recognition	-10.84
▁clue	-10.84
▁slum	-10.84
Sahara	-10.8401
▁engagement	-10.8405
▁component	-10.8406
▁colleague	-10.8407
▁lung	-10.8407
▁distributed	-10.8414
▁lock	-10.8424
▁limits	-10.8441
▁flowers	-10.8443
▁painful	-10.8452
▁dig	-10.8468
▁demo	-10.8485
▁figures	-10.8495
▁crucial	-10.8497
▁reduction	-10.8497
▁regret	-10.8497
▁strike	-10.8497
▁Greek	-10.8497
▁pace	-10.8497
▁vital	-10.8497
▁committed	-10.8498
▁overcome	-10.8499
▁tune	-10.8499
▁lake	-10.85
▁precisely	-10.8506
▁keeps	-10.8511
▁portrait	-10.8512
▁spreading	-10.8522
aries	-10.8527
▁Please	-10.8543
▁linked	-10.8545
▁tests	-10.8551
▁standards	-10.8585
▁performing	-10.8585
▁traveled	-10.8589
▁Sweden	-10.8595
▁dancing	-10.8595
▁heaven	-10.8595
▁obsessed	-10.8595
▁preserve	-10.8595
▁senior	-10.8595
▁drove	-10.8595
▁silent	-10.8595
▁agenda	-10.8595
▁ticket	-10.8597
▁salt	-10.8597
lit	-10.8597
▁laser	-10.8598
▁interactive	-10.86
▁behavioral	-10.8612
▁villages	-10.8612
▁conventional	-10.8619
▁subjects	-10.8633
▁classic	-10.8639
▁shooting	-10.864
▁gather	-10.8652
▁achieved	-10.8664
▁rescue	-10.8666
▁empower	-10.8667
▁melt	-10.8673
My	-10.8677
▁spin	-10.8686
▁Central	-10.8694
▁Ghana	-10.8694
▁insurance	-10.8694
▁polio	-10.8694
▁pregnant	-10.8694
▁Gulf	-10.8694
▁shelter	-10.8694
▁elite	-10.8694
▁mate	-10.8696
▁pollen	-10.8696
▁alter	-10.8697
▁diverse	-10.8697
▁hunger	-10.8698
▁dust	-10.8703
▁scary	-10.8705
▁poorest	-10.8707
▁tired	-10.8708
▁personality	-10.8709
▁deaths	-10.8717
▁architects	-10.8717
▁electron	-10.8737
▁appeared	-10.8739
▁entered	-10.874
law	-10.8742
▁instruments	-10.8752
▁consume	-10.8757
▁mammals	-10.8763
pping	-10.8768
phy	-10.8779
▁males	-10.8789
Okay	-10.8792
▁philosopher	-10.8794
▁Foundation	-10.8794
▁Voice	-10.8794
▁colony	-10.8794
▁column	-10.8794
▁exploring	-10.8794
▁external	-10.8794
▁immune	-10.8794
▁enemy	-10.8794
▁Next	-10.8794
▁arguments	-10.8795
▁plug	-10.8795
▁consistent	-10.8796
▁River	-10.8797
▁comic	-10.8801
▁objective	-10.8802
▁mentor	-10.8804
▁verb	-10.8805
▁activate	-10.8808
▁controlling	-10.8809
▁citizen	-10.8812
▁plans	-10.8829
▁Give	-10.883
▁Gene	-10.8832
maker	-10.8833
rry	-10.8838
ending	-10.8843
own	-10.885
Y	-10.887
▁stands	-10.8874
▁illustrate	-10.8886
ney	-10.8895
▁Microsoft	-10.8895
▁earthquake	-10.8895
▁guarantee	-10.8895
▁miracle	-10.8895
▁strategies	-10.8895
▁suicide	-10.8895
▁chocolate	-10.8895
▁knock	-10.8895
▁recommend	-10.8895
▁implant	-10.8895
▁leap	-10.8895
▁Revolution	-10.8896
▁golf	-10.8897
▁gray	-10.8898
▁br	-10.8902
▁spinal	-10.8902
▁Lab	-10.8918
tech	-10.893
rick	-10.8933
▁savings	-10.8935
▁mainly	-10.8945
▁shell	-10.8958
gin	-10.8966
▁collecting	-10.8967
▁liver	-10.8968
▁fi	-10.8979
▁brief	-10.8984
ography	-10.8988
▁philosophy	-10.8997
▁universities	-10.8997
▁Space	-10.8997
▁embedded	-10.8997
▁mystery	-10.8997
▁blame	-10.8997
▁shake	-10.8999
▁stack	-10.9
par	-10.9005
▁properly	-10.9009
▁connecting	-10.9011
▁elephant	-10.9021
ties	-10.9023
▁boss	-10.9024
jo	-10.9037
▁Was	-10.9039
▁removed	-10.9045
▁accepted	-10.9049
▁Bur	-10.905
▁falls	-10.9055
▁printer	-10.9063
▁methods	-10.9072
▁brave	-10.9075
bit	-10.908
▁films	-10.9086
▁cute	-10.9089
▁optimistic	-10.91
▁romantic	-10.91
▁Higgs	-10.91
▁grave	-10.9101
▁adventure	-10.9101
▁hip	-10.9101
▁Nations	-10.9101
▁rising	-10.9101
century	-10.9101
▁household	-10.9102
▁vaccines	-10.9103
▁till	-10.9103
▁cash	-10.9105
▁Bush	-10.9105
▁Six	-10.9106
▁tries	-10.9108
But	-10.9109
py	-10.9112
now	-10.9112
▁darkness	-10.9113
▁thrown	-10.9123
▁Pole	-10.9128
gging	-10.9128
▁missed	-10.9134
▁crying	-10.9139
▁coin	-10.9142
rap	-10.9156
▁medi	-10.9159
▁writer	-10.9172
ean	-10.9178
▁interacting	-10.9182
▁demonstrate	-10.9187
bling	-10.9192
▁brothers	-10.9202
▁Ethiopia	-10.9205
▁Manhattan	-10.9205
▁curiosity	-10.9205
▁procedure	-10.9205
▁frog	-10.9205
▁raising	-10.9205
▁recruit	-10.9205
▁asteroid	-10.9205
▁appeal	-10.9205
▁indicate	-10.9205
▁isolated	-10.9205
▁pretend	-10.9205
▁Haiti	-10.9205
▁orange	-10.9206
▁recognized	-10.9206
▁windows	-10.9207
▁disorders	-10.9208
▁Super	-10.9208
▁Peter	-10.9212
zo	-10.9214
▁cheaper	-10.9224
▁gate	-10.9237
▁magnetic	-10.9246
▁pray	-10.9257
▁seeds	-10.9285
ash	-10.9287
▁clouds	-10.9288
▁imagined	-10.9294
▁antibiotics	-10.9299
▁International	-10.931
▁Texas	-10.931
▁description	-10.931
▁facial	-10.931
▁passenger	-10.931
▁plenty	-10.931
▁regulation	-10.931
▁simulation	-10.931
▁stroke	-10.931
▁vegetable	-10.931
▁cyber	-10.931
▁federal	-10.931
▁hardware	-10.931
▁worm	-10.931
▁tuna	-10.931
▁debt	-10.931
▁domain	-10.931
▁hungry	-10.931
▁partnership	-10.9311
▁productivity	-10.9311
▁pit	-10.9314
Let	-10.9314
▁Jack	-10.9315
play	-10.9317
▁heroes	-10.9318
face	-10.932
▁tower	-10.9322
▁recovery	-10.9324
▁rhythm	-10.9334
▁oldest	-10.934
▁resolution	-10.9341
▁volunteer	-10.9344
▁placed	-10.9345
▁divided	-10.9347
▁Bra	-10.9349
▁wage	-10.9349
atur	-10.9355
▁globally	-10.9358
▁captured	-10.9366
▁ban	-10.9388
▁dial	-10.9398
▁rough	-10.9404
run	-10.9405
▁rot	-10.9408
▁quit	-10.941
▁increases	-10.9411
▁Rwanda	-10.9416
▁ceiling	-10.9416
▁density	-10.9416
▁district	-10.9416
▁request	-10.9416
▁scratch	-10.9416
▁Indeed	-10.9416
▁chest	-10.9417
▁wrap	-10.9417
▁High	-10.9417
rand	-10.9418
▁leak	-10.9418
▁fascinated	-10.9419
▁Islamic	-10.9421
▁representation	-10.9424
▁latest	-10.9424
▁mail	-10.9425
▁involves	-10.9426
▁whi	-10.9428
▁Russian	-10.9428
▁attached	-10.9431
key	-10.9434
▁appears	-10.9438
▁Lu	-10.9439
▁virtually	-10.9446
▁killer	-10.9447
▁efforts	-10.9448
▁reaching	-10.9452
▁weapon	-10.9455
▁particle	-10.9455
read	-10.9464
▁sales	-10.9465
▁wise	-10.9477
▁reported	-10.9497
▁Sch	-10.9507
▁tri	-10.9513
stone	-10.9515
▁label	-10.9517
▁candidate	-10.9524
▁Stanford	-10.9524
▁borrow	-10.9524
▁demographic	-10.9524
▁dioxide	-10.9524
▁elsewhere	-10.9524
▁liberal	-10.9524
▁brown	-10.9524
▁entertainment	-10.9525
▁monkeys	-10.9527
▁consumers	-10.9527
▁Grand	-10.9528
▁apparently	-10.9528
▁herself	-10.9528
▁stake	-10.9529
▁scar	-10.953
▁headline	-10.9535
▁searching	-10.9539
▁units	-10.954
ett	-10.9547
▁Ah	-10.9554
▁Min	-10.9562
▁penguins	-10.9563
Don	-10.9572
▁laughing	-10.9572
▁upset	-10.9574
▁muscles	-10.9577
▁pur	-10.9596
▁volunteers	-10.9597
▁pushed	-10.9601
▁arrive	-10.9604
ush	-10.9607
take	-10.962
▁crops	-10.962
urge	-10.9623
▁geo	-10.9623
▁corals	-10.9628
▁Department	-10.9633
▁Hollywood	-10.9633
▁adjust	-10.9633
▁furniture	-10.9633
▁obesity	-10.9633
▁ridiculous	-10.9633
▁skull	-10.9633
▁distant	-10.9633
▁expectations	-10.9633
▁textbook	-10.9633
▁subtle	-10.9633
▁Congo	-10.9634
▁accessible	-10.9635
▁airport	-10.9636
▁gu	-10.9636
dollar	-10.9639
▁capita	-10.9648
▁usual	-10.9649
▁corn	-10.9656
▁Ge	-10.9663
rat	-10.9668
▁interactions	-10.9674
▁tasks	-10.968
▁rebuild	-10.969
▁lovely	-10.9691
path	-10.9709
▁Bay	-10.9712
▁hire	-10.9716
▁directions	-10.9721
▁banks	-10.9724
▁log	-10.9728
▁historical	-10.9734
▁extinct	-10.9735
oe	-10.9737
▁William	-10.9742
▁bulb	-10.9742
▁dignity	-10.9742
▁gesture	-10.9742
▁mushroom	-10.9742
▁mutation	-10.9742
▁sandwich	-10.9742
▁spectacular	-10.9742
▁underground	-10.9742
▁mimic	-10.9742
▁pursue	-10.9742
▁Nobel	-10.9744
▁package	-10.9745
▁Law	-10.9749
▁dedicated	-10.9749
▁Bang	-10.9751
▁opposed	-10.9751
▁iron	-10.9758
▁bend	-10.9766
▁Inter	-10.9811
▁visited	-10.9825
ality	-10.9833
▁lit	-10.9835
place	-10.984
wo	-10.9842
▁charity	-10.9854
▁frozen	-10.9854
▁legacy	-10.9854
▁surveillance	-10.9854
▁chief	-10.9854
▁cousin	-10.9854
▁concert	-10.9854
▁Nothing	-10.9854
▁demonstration	-10.9856
▁dirty	-10.9859
▁settle	-10.9861
rie	-10.9862
▁exposed	-10.9864
▁neighborhoods	-10.9867
▁mono	-10.9877
▁locked	-10.9882
▁van	-10.9886
▁parties	-10.989
▁rent	-10.9895
▁nurse	-10.9906
▁craft	-10.9907
▁stations	-10.9915
▁delivered	-10.9921
▁incentives	-10.993
▁calculate	-10.9938
▁Mark	-10.9943
So	-10.9944
▁ethical	-10.9949
cher	-10.9954
▁Africans	-10.9958
▁Atlantic	-10.9966
▁Olympic	-10.9966
▁confident	-10.9966
▁disgust	-10.9966
▁orchestra	-10.9966
▁pyramid	-10.9966
▁skeleton	-10.9966
▁yield	-10.9966
▁acknowledge	-10.9966
▁conservative	-10.9966
▁General	-10.9966
▁spill	-10.9974
level	-10.9978
▁Pol	-10.9979
▁norm	-10.9982
▁fifth	-10.9988
▁replicate	-10.9989
tail	-10.9991
▁collaborat	-10.9993
▁spa	-11.0003
▁cop	-11.0005
▁disappeared	-11.0017
▁refugee	-11.0022
▁Joe	-11.0031
▁breaking	-11.0033
▁acts	-11.0035
▁aside	-11.0042
▁generated	-11.0054
▁establish	-11.0055
ink	-11.0063
▁Pre	-11.0072
▁ill	-11.0076
▁kilo	-11.0079
▁Woman	-11.0079
▁diabetes	-11.0079
▁initiative	-11.0079
▁intuitive	-11.0079
▁uncomfortable	-11.0079
▁array	-11.008
▁twin	-11.008
▁governance	-11.008
▁dump	-11.0081
▁proper	-11.0083
▁DH	-11.0086
▁paintings	-11.0087
▁Really	-11.0087
▁affordable	-11.0087
▁announced	-11.0087
▁chosen	-11.0092
▁Rio	-11.0092
▁editor	-11.0093
free	-11.0094
▁tricks	-11.0099
▁protecting	-11.0103
▁meetings	-11.0104
▁wings	-11.0108
▁meter	-11.0113
▁Ed	-11.0153
▁investing	-11.0153
▁bother	-11.0162
q	-11.0164
▁Far	-11.0173
▁Ke	-11.0178
ole	-11.0187
▁icon	-11.0191
▁calculation	-11.0194
▁transparency	-11.0194
▁transparent	-11.0194
▁sketch	-11.0194
▁dominant	-11.0194
▁neck	-11.0195
▁Turn	-11.0195
▁sheep	-11.0195
▁ugly	-11.0195
▁football	-11.0195
▁synthetic	-11.0195
▁backwards	-11.0196
▁mold	-11.0197
▁fool	-11.0198
▁restore	-11.0199
▁achievement	-11.02
▁delight	-11.0202
iness	-11.0206
▁Back	-11.0208
▁granted	-11.0208
▁integrated	-11.0211
▁spoken	-11.0213
▁practices	-11.0214
dor	-11.0215
▁pink	-11.0217
▁surely	-11.0229
atter	-11.0237
▁axis	-11.0241
▁drawn	-11.0243
▁printed	-11.0244
▁prices	-11.0248
▁Pu	-11.0252
▁refugees	-11.0253
some	-11.0255
erial	-11.0258
▁Par	-11.0258
▁Ch	-11.026
▁focusing	-11.026
▁terrorist	-11.026
lash	-11.026
▁donor	-11.028
▁hat	-11.0285
can	-11.0287
▁concepts	-11.0291
▁Pat	-11.0294
▁initial	-11.0298
rid	-11.0299
▁transmit	-11.0309
▁regard	-11.0309
▁Research	-11.0311
▁reconstruct	-11.0311
▁agencies	-11.0311
▁chaos	-11.0311
▁combat	-11.0311
▁cooperation	-11.0311
▁helicopter	-11.0311
▁poison	-11.0311
▁profile	-11.0311
▁rainforest	-11.0311
▁freak	-11.0311
▁programming	-11.0311
▁spark	-11.0311
▁pipe	-11.0313
ya	-11.0316
▁Never	-11.0317
▁amongst	-11.0319
▁ensure	-11.032
▁Tell	-11.0321
▁Wa	-11.0324
▁Age	-11.0326
▁surrounding	-11.0333
active	-11.0339
▁tears	-11.0348
▁inspiring	-11.0352
▁Bob	-11.0363
▁victim	-11.038
▁slides	-11.0383
▁magical	-11.0389
▁neuron	-11.0396
▁analyze	-11.04
▁confront	-11.0403
▁Dur	-11.0406
▁farmer	-11.0414
▁beliefs	-11.0416
▁rapid	-11.0417
▁uncle	-11.0418
▁touched	-11.0419
▁inventor	-11.0419
▁addict	-11.0424
▁interpret	-11.0425
▁dolphins	-11.0426
▁Narrator	-11.0428
▁accelerate	-11.0428
▁intuition	-11.0428
▁margin	-11.0428
▁resolve	-11.0428
▁tragedy	-11.0428
▁Ocean	-11.0428
▁Smith	-11.0428
▁essence	-11.0428
▁naked	-11.0428
▁alarm	-11.0428
▁neuroscience	-11.0428
▁boundaries	-11.0429
▁shore	-11.0429
▁northern	-11.0429
▁plain	-11.0429
▁Antarctica	-11.043
▁gear	-11.043
▁jet	-11.0431
▁pat	-11.0432
▁laughter	-11.0433
▁characteristics	-11.0433
▁anxiety	-11.0439
▁lamp	-11.0446
▁Make	-11.0452
▁mega	-11.0457
▁ingredients	-11.0457
▁tied	-11.0465
▁leverage	-11.0468
▁layers	-11.0473
▁cart	-11.0474
▁rap	-11.0476
▁flo	-11.0478
▁Te	-11.0486
ept	-11.0489
▁bound	-11.0489
ix	-11.0498
▁lawyer	-11.0501
▁consequence	-11.0502
fold	-11.0533
▁Wall	-11.0546
▁October	-11.0547
▁Uganda	-11.0547
▁breakthrough	-11.0547
▁decrease	-11.0547
▁enhance	-11.0547
▁instinct	-11.0547
▁simplicity	-11.0547
▁struggling	-11.0547
▁survivor	-11.0547
▁symmetry	-11.0547
▁tackle	-11.0547
▁twist	-11.0547
▁fortune	-11.0547
▁neural	-11.0547
▁Things	-11.0549
▁bump	-11.0549
▁discoveries	-11.0551
▁extinction	-11.0555
▁Bible	-11.0556
▁diagnosed	-11.0562
▁output	-11.0567
▁stable	-11.0567
▁speaker	-11.0567
gle	-11.0574
▁autonomous	-11.0574
▁projection	-11.0597
▁hanging	-11.0605
▁proof	-11.0608
▁served	-11.0611
▁additional	-11.0612
▁realm	-11.0624
▁passing	-11.0635
▁dish	-11.0637
▁reduced	-11.0642
plan	-11.0643
▁experimental	-11.0646
▁Muslims	-11.0649
▁clients	-11.0651
▁pie	-11.0652
▁dimension	-11.0659
▁commit	-11.0664
bro	-11.0668
▁Jewish	-11.0668
▁advertising	-11.0668
▁agricultural	-11.0668
▁contribution	-11.0668
▁ethnic	-11.0668
▁explode	-11.0668
▁mechanics	-11.0668
▁permission	-11.0668
▁probability	-11.0668
▁reputation	-11.0668
▁shrimp	-11.0668
▁smooth	-11.0668
▁Alzheimer	-11.0668
▁tragic	-11.0668
▁identified	-11.0668
▁mood	-11.0668
▁sharp	-11.0668
▁kiss	-11.0668
▁theories	-11.0669
▁slavery	-11.0669
org	-11.0674
▁laid	-11.0674
▁None	-11.0693
ulate	-11.0694
▁contains	-11.0705
▁richer	-11.0708
▁actors	-11.0708
▁bow	-11.0714
▁discuss	-11.0726
▁dependent	-11.0726
▁painted	-11.0735
▁drivers	-11.0741
ggle	-11.0747
▁relation	-11.0749
▁nano	-11.0771
▁Ya	-11.0778
▁Mac	-11.0779
▁Nor	-11.0782
▁hum	-11.0785
▁comparison	-11.079
▁concentration	-11.079
▁explosion	-11.079
▁participation	-11.079
▁recipe	-11.079
▁whistle	-11.079
▁civic	-11.079
▁slice	-11.079
▁relax	-11.079
▁spell	-11.079
▁agency	-11.079
▁queen	-11.079
▁baseball	-11.079
▁convey	-11.079
▁aircraft	-11.0791
hether	-11.0791
▁Mother	-11.0791
▁tick	-11.0794
▁punch	-11.0795
load	-11.0798
▁coach	-11.0799
unclear	-11.0805
▁coat	-11.0817
▁gases	-11.0818
war	-11.0819
lip	-11.082
▁dear	-11.0823
win	-11.0831
▁educated	-11.0845
▁suggesting	-11.0853
▁nurses	-11.0855
▁failing	-11.0864
▁picking	-11.0871
ets	-11.0872
▁tear	-11.0887
▁returned	-11.0891
itch	-11.0892
▁actor	-11.0898
▁Cor	-11.0898
▁luck	-11.0906
▁lungs	-11.0906
▁communications	-11.0909
▁landed	-11.0909
▁Third	-11.0913
▁alcohol	-11.0913
▁glacier	-11.0913
▁routine	-11.0913
▁smoking	-11.0913
▁substance	-11.0913
▁confirm	-11.0913
▁broadcast	-11.0914
▁capability	-11.0914
▁persist	-11.0915
▁east	-11.0916
▁attractive	-11.0916
▁marker	-11.0917
▁bull	-11.0918
▁strangers	-11.0919
▁sensory	-11.0923
▁highlight	-11.0923
▁highway	-11.0927
awa	-11.0928
▁briefly	-11.0929
▁Tra	-11.0932
▁informed	-11.0936
hoo	-11.0936
word	-11.0938
aging	-11.0938
▁southern	-11.0939
▁Ko	-11.0942
▁relations	-11.0954
door	-11.0959
▁participants	-11.0963
▁formula	-11.0973
▁rating	-11.0977
▁reminded	-11.0984
▁Part	-11.0989
▁separated	-11.0989
ino	-11.1002
▁mechanisms	-11.1008
▁insist	-11.1008
bel	-11.1011
lish	-11.1014
▁musicians	-11.102
▁opera	-11.1031
▁occasion	-11.1037
▁Blue	-11.1038
▁biodiversity	-11.1038
▁fraction	-11.1038
▁happier	-11.1038
▁pandemic	-11.1038
▁sacred	-11.1038
▁tunnel	-11.1038
▁Soviet	-11.1038
▁injury	-11.1038
▁dozens	-11.1038
▁flexible	-11.1038
▁afterwards	-11.1039
▁wipe	-11.104
▁bullet	-11.104
▁winner	-11.1041
▁trends	-11.1042
▁Italy	-11.1042
▁Egyptian	-11.1045
▁merely	-11.1045
yl	-11.1046
▁rope	-11.1048
▁lane	-11.1049
bed	-11.1051
▁artistic	-11.1054
▁Ver	-11.1056
▁tension	-11.1059
nal	-11.1059
▁terrorists	-11.1095
cker	-11.1108
▁journal	-11.1111
▁chimpanzees	-11.1125
▁fulfill	-11.1134
▁dinosaur	-11.1135
▁assumptions	-11.1136
▁Cu	-11.1142
▁Up	-11.1142
▁compar	-11.1146
iest	-11.1146
▁crossing	-11.1148
▁pointed	-11.1158
▁branch	-11.1159
▁Child	-11.1164
▁algae	-11.1165
▁facility	-11.1165
▁grandchildren	-11.1165
▁disagree	-11.1165
▁fragment	-11.1165
▁sensation	-11.1165
▁robust	-11.1165
▁glad	-11.1165
▁begun	-11.1165
▁ignorance	-11.1165
▁resist	-11.1165
▁consist	-11.1166
▁MRI	-11.1167
▁pathway	-11.1168
▁ratio	-11.1172
▁warning	-11.1173
uch	-11.1178
▁trauma	-11.1181
▁roots	-11.1186
▁rarely	-11.119
third	-11.119
▁linear	-11.119
▁sink	-11.12
▁Kar	-11.1201
▁photography	-11.1201
▁originally	-11.1209
▁electronics	-11.1211
▁employ	-11.1217
oon	-11.1232
▁Time	-11.1238
▁speakers	-11.1241
▁magnet	-11.1242
▁predicted	-11.1264
▁soap	-11.1267
▁Pan	-11.127
▁funded	-11.1273
▁wing	-11.1274
away	-11.1277
▁sacrifice	-11.1278
▁insect	-11.1286
▁exploit	-11.129
▁Girl	-11.1293
▁transmission	-11.1293
▁tweet	-11.1293
▁excuse	-11.1293
▁portion	-11.1293
▁marry	-11.1294
▁Eastern	-11.1294
▁installation	-11.1296
▁publish	-11.1296
▁x	-11.1301
▁boil	-11.1301
▁dynamics	-11.1306
▁reefs	-11.1309
▁toys	-11.1323
clock	-11.133
▁suggested	-11.1346
▁Hy	-11.1346
zi	-11.1349
▁expanding	-11.1349
▁determined	-11.1352
lies	-11.1354
▁fed	-11.1374
▁biologists	-11.1374
▁observe	-11.1378
▁sensor	-11.1389
▁construct	-11.1391
▁lighting	-11.1391
▁elephants	-11.1393
▁adopt	-11.1395
▁fee	-11.1398
▁computation	-11.1399
ball	-11.1401
▁soldier	-11.1401
There	-11.1407
▁immediate	-11.141
▁inject	-11.1416
▁predictions	-11.1419
▁psycho	-11.142
▁Design	-11.1423
▁Nature	-11.1423
▁Obviously	-11.1423
▁Oxford	-11.1423
▁Through	-11.1423
▁aesthetic	-11.1423
▁anonymous	-11.1423
▁astonishing	-11.1423
▁buried	-11.1423
▁expedition	-11.1423
▁inevitable	-11.1423
▁origami	-11.1423
▁pioneer	-11.1423
▁signature	-11.1423
▁simulate	-11.1423
▁structural	-11.1423
▁translation	-11.1423
▁Prize	-11.1423
▁depressed	-11.1423
▁fought	-11.1423
▁pause	-11.1423
▁neat	-11.1423
▁bathroom	-11.1423
▁gam	-11.1423
▁shopping	-11.1424
▁collaborative	-11.1425
▁Long	-11.1426
related	-11.1426
power	-11.1428
▁pulling	-11.1431
▁navigate	-11.1433
finite	-11.1433
▁frequency	-11.1436
▁tribes	-11.1443
▁radically	-11.1447
ez	-11.1449
▁abilities	-11.1451
▁safer	-11.1459
▁extended	-11.1462
gal	-11.1469
▁smarter	-11.1469
part	-11.147
▁format	-11.1473
▁pad	-11.148
▁sisters	-11.1498
▁profession	-11.1499
▁quo	-11.1514
roll	-11.1517
▁Mom	-11.1517
▁interestingly	-11.1523
▁teenagers	-11.1525
▁implement	-11.153
▁witness	-11.153
▁Israeli	-11.1534
hold	-11.1534
▁tribe	-11.1536
▁govern	-11.1542
▁electro	-11.1547
▁Florida	-11.1555
▁anticipate	-11.1555
▁chromosome	-11.1555
▁mysterious	-11.1555
▁neutral	-11.1555
▁primitive	-11.1555
▁purchase	-11.1555
▁variable	-11.1555
▁wheelchair	-11.1555
▁garage	-11.1555
▁render	-11.1555
▁dialogue	-11.1555
▁Gates	-11.1555
▁underlying	-11.1555
▁circles	-11.1556
▁strand	-11.1556
▁mask	-11.1557
▁export	-11.1557
▁ecosystems	-11.1558
Can	-11.156
▁seats	-11.156
▁agreement	-11.1562
ime	-11.1562
▁globalization	-11.1564
▁fastest	-11.1567
ening	-11.157
ueen	-11.1574
▁constructed	-11.158
Wow	-11.1587
▁pole	-11.1588
▁helpful	-11.1591
▁significantly	-11.1596
unk	-11.16
▁tent	-11.1609
▁supported	-11.1613
ching	-11.1618
▁invested	-11.1623
lop	-11.1625
▁entering	-11.1632
▁links	-11.1632
▁passwords	-11.1634
He	-11.1642
▁elections	-11.1644
▁involve	-11.1648
▁peaceful	-11.1659
uthern	-11.1672
▁reef	-11.1681
▁urge	-11.1681
▁symbols	-11.1684
▁December	-11.1688
▁dictionary	-11.1688
▁experiencing	-11.1688
▁fabulous	-11.1688
▁figuring	-11.1688
▁nutrition	-11.1688
▁unbelievable	-11.1688
▁vacuum	-11.1688
▁vagina	-11.1688
▁infant	-11.1688
▁Children	-11.1688
▁smartphone	-11.1688
▁sauce	-11.1689
▁connectivity	-11.1689
▁scanner	-11.1689
▁flee	-11.1689
▁assignment	-11.169
▁passive	-11.1693
▁neuro	-11.1706
▁partly	-11.1706
▁arrested	-11.1707
▁unlikely	-11.1708
▁arise	-11.1709
▁reactor	-11.1711
▁proposed	-11.1713
Where	-11.172
▁gathering	-11.173
▁translated	-11.1739
oop	-11.1751
▁edges	-11.1757
dia	-11.1759
▁arch	-11.1759
MA	-11.1766
▁kit	-11.1768
put	-11.1778
llowing	-11.1779
▁throwing	-11.179
made	-11.1792
▁reject	-11.1798
▁manipulate	-11.1801
▁Sal	-11.1807
bon	-11.1813
▁terror	-11.1819
▁eliminate	-11.1823
assembly	-11.1823
▁Spanish	-11.1823
▁category	-11.1823
▁expansion	-11.1823
▁fragile	-11.1823
▁immense	-11.1823
▁shrink	-11.1823
▁forgotten	-11.1824
cade	-11.1824
▁surf	-11.1825
▁investors	-11.1825
▁keyboard	-11.1825
▁includes	-11.1828
▁Rome	-11.183
▁Out	-11.1832
▁KB	-11.1834
▁sew	-11.1834
mine	-11.1845
▁sleeping	-11.185
▁Tri	-11.1858
▁Hey	-11.1862
▁shocked	-11.1864
book	-11.1865
▁mixed	-11.1884
▁prisoners	-11.1892
ica	-11.1909
▁Ab	-11.1923
▁joint	-11.1931
ural	-11.1945
▁precise	-11.1947
▁dose	-11.1952
▁egg	-11.1954
half	-11.1959
▁August	-11.196
▁cliff	-11.196
▁drift	-11.196
▁gradually	-11.196
▁impression	-11.196
▁industries	-11.196
▁primarily	-11.196
▁reinvent	-11.196
▁smallpox	-11.196
▁threshold	-11.196
▁burst	-11.196
▁crystal	-11.196
▁intersection	-11.196
▁imaging	-11.196
generating	-11.196
▁kidney	-11.1961
▁Port	-11.1966
▁programmer	-11.1968
▁manual	-11.1969
▁vent	-11.1972
▁competitive	-11.1972
▁campus	-11.1972
not	-11.198
bble	-11.1984
▁widely	-11.1992
When	-11.1997
▁approaches	-11.1998
▁documents	-11.2001
flu	-11.2012
▁poly	-11.2013
▁lawyers	-11.2014
▁included	-11.2015
▁gods	-11.2019
▁Cal	-11.2023
Be	-11.2038
▁hack	-11.2059
▁answered	-11.2062
▁dancer	-11.2066
▁shaped	-11.2067
▁slave	-11.2097
▁Video	-11.2099
▁aggressive	-11.2099
▁choosing	-11.2099
▁frustrated	-11.2099
▁pharmaceutical	-11.2099
▁Square	-11.2099
▁rabbi	-11.2099
▁annual	-11.2099
▁silly	-11.2099
▁Court	-11.2099
▁beetle	-11.2099
▁Italian	-11.2099
▁damn	-11.2099
▁native	-11.2099
▁nonprofit	-11.21
▁copyright	-11.21
▁screw	-11.21
▁panels	-11.21
▁confused	-11.2108
▁mindset	-11.2109
▁analog	-11.2109
▁Hill	-11.2125
▁adopted	-11.2126
print	-11.2136
ken	-11.2137
▁caring	-11.2145
een	-11.2147
▁burned	-11.2153
▁operations	-11.2153
▁Mor	-11.2157
uk	-11.2162
▁wired	-11.2165
▁strongly	-11.2174
▁Gen	-11.2179
mus	-11.2183
▁Fo	-11.2187
▁drag	-11.2187
pper	-11.2188
aph	-11.2189
▁Put	-11.2189
vor	-11.2193
▁difficulty	-11.2198
▁bra	-11.2209
▁survived	-11.2212
▁attribute	-11.2217
▁Men	-11.222
▁inform	-11.2227
iff	-11.2231
▁Shi	-11.2235
▁TEDTalk	-11.224
▁colonies	-11.224
▁compelling	-11.224
▁ecological	-11.224
▁elderly	-11.224
▁whatsoever	-11.224
▁valley	-11.224
▁nuts	-11.224
▁ruin	-11.224
nne	-11.224
▁pride	-11.224
▁Turkey	-11.224
▁woke	-11.224
▁arrow	-11.224
▁Norway	-11.2241
▁Sunday	-11.2241
▁condom	-11.2241
▁spray	-11.2241
▁shout	-11.2243
▁panel	-11.2243
▁shine	-11.2245
▁weekend	-11.2245
▁slip	-11.2246
▁Arabic	-11.2247
▁sport	-11.2249
▁elected	-11.2251
▁bake	-11.2251
▁cor	-11.2251
▁instantly	-11.2252
▁imagery	-11.2254
▁initially	-11.2255
▁inches	-11.2257
▁ethic	-11.2261
▁surprisingly	-11.2271
▁stranger	-11.2271
▁disconnect	-11.2282
ali	-11.2288
▁bang	-11.2288
▁Tim	-11.2295
rated	-11.2312
▁Mill	-11.2315
▁rotate	-11.2316
▁explaining	-11.232
▁gli	-11.2328
arian	-11.2329
▁climbing	-11.2329
changing	-11.2337
▁exhibit	-11.2375
▁distinct	-11.2375
ok	-11.2376
▁quest	-11.2379
▁Cambridge	-11.2383
▁February	-11.2383
▁closing	-11.2383
▁hypothesis	-11.2383
▁qualities	-11.2383
▁resilience	-11.2383
▁audio	-11.2383
▁Seven	-11.2383
▁automobile	-11.2383
▁leaf	-11.2383
▁capabilities	-11.2383
▁emit	-11.2383
▁Brown	-11.2383
▁grasp	-11.2383
▁nutrients	-11.2383
▁Somebody	-11.2384
▁authorities	-11.2384
▁marketplace	-11.2384
▁pulse	-11.2385
▁dolphin	-11.2386
▁Yorker	-11.2386
▁interpretation	-11.2386
▁crew	-11.2387
▁float	-11.2389
city	-11.2389
▁healthier	-11.2389
blo	-11.2397
▁wider	-11.2401
▁chat	-11.2402
▁trucks	-11.2404
▁suggestion	-11.2406
▁perceived	-11.241
▁hackers	-11.2412
▁pose	-11.2415
▁tar	-11.2416
▁chips	-11.2417
zero	-11.2427
▁fur	-11.2433
▁Rob	-11.2441
▁successfully	-11.2447
▁jumped	-11.2478
▁farming	-11.2485
▁conc	-11.2492
▁perceive	-11.2499
ark	-11.2501
▁fortunate	-11.2515
▁covering	-11.2516
▁horizon	-11.2526
▁diploma	-11.2527
▁LED	-11.2528
▁burden	-11.2528
▁cheese	-11.2528
▁curriculum	-11.2528
▁extension	-11.2528
▁genocide	-11.2528
▁minimum	-11.2528
▁oxytocin	-11.2528
▁Ebola	-11.2528
▁Jesus	-11.2528
▁Should	-11.2528
▁drought	-11.2528
▁microbial	-11.2528
▁serving	-11.2528
▁silver	-11.2528
▁parasite	-11.2528
▁reducing	-11.2528
▁innocent	-11.2528
▁crawl	-11.2528
▁brutal	-11.2528
▁architectural	-11.2528
▁supermarket	-11.2528
▁drum	-11.2528
▁reproduce	-11.2528
▁lean	-11.2528
▁representative	-11.2529
▁rice	-11.2529
▁Without	-11.2532
▁bored	-11.2532
▁cake	-11.2534
▁footage	-11.2535
▁selfish	-11.2536
▁Pen	-11.2537
▁founded	-11.2539
▁hitting	-11.2539
▁prediction	-11.2548
▁Medic	-11.2552
▁fate	-11.2561
▁wealthy	-11.257
engineer	-11.2572
don	-11.2572
▁metric	-11.2573
▁emerged	-11.2574
▁instructions	-11.2581
person	-11.2587
▁logical	-11.259
rian	-11.2613
digit	-11.2624
ote	-11.2636
▁Asian	-11.2638
▁prepare	-11.2647
▁Wow	-11.2648
▁upside	-11.2651
new	-11.2654
▁instant	-11.2662
▁Church	-11.2675
▁advocate	-11.2675
▁bizarre	-11.2675
▁fraud	-11.2675
▁garbage	-11.2675
▁optimism	-11.2675
▁paralyzed	-11.2675
▁register	-11.2675
▁trajectory	-11.2675
▁pigeon	-11.2675
▁methane	-11.2675
▁blend	-11.2675
▁stunt	-11.2675
▁improving	-11.2675
▁antenna	-11.2675
▁Mountain	-11.2675
▁barrel	-11.2675
▁honey	-11.2675
▁excitement	-11.2675
▁crush	-11.2676
▁Republican	-11.2676
▁Play	-11.2676
▁tendency	-11.2676
▁Northern	-11.2676
▁mining	-11.2677
ographic	-11.2677
▁overwhelming	-11.268
▁March	-11.2687
▁Home	-11.2696
chu	-11.2697
▁institutional	-11.2708
lay	-11.2709
▁profoundly	-11.271
▁mall	-11.2711
ifying	-11.2723
▁suffered	-11.2724
heart	-11.273
▁palm	-11.2733
tories	-11.2737
▁unable	-11.2738
▁interviewed	-11.2756
▁mineral	-11.2786
atory	-11.2795
▁improved	-11.2795
▁writers	-11.2796
▁supporting	-11.2796
▁propose	-11.2796
▁socially	-11.2804
▁Love	-11.2808
fire	-11.2811
▁incident	-11.2823
▁Silicon	-11.2824
▁compromise	-11.2824
▁generous	-11.2824
▁regulate	-11.2824
▁creator	-11.2824
▁trash	-11.2824
▁dumb	-11.2824
▁expertise	-11.2824
▁microphone	-11.2824
▁binary	-11.2825
▁unconscious	-11.2825
▁appearance	-11.2826
▁factories	-11.2827
▁duck	-11.2827
▁Chile	-11.2827
▁mayor	-11.2828
▁Lego	-11.2829
▁genetically	-11.283
▁besides	-11.283
▁intended	-11.2837
▁forming	-11.2848
▁crop	-11.2849
▁homeless	-11.2855
▁detector	-11.2862
▁rank	-11.2865
▁Secondly	-11.2865
▁bin	-11.2871
▁washing	-11.2876
OK	-11.2881
▁Hall	-11.2886
▁detailed	-11.2892
▁via	-11.2903
Who	-11.2921
▁bucks	-11.2932
▁select	-11.2946
▁exponential	-11.2962
burg	-11.2966
▁goat	-11.2975
▁hydro	-11.2975
▁Arctic	-11.2975
▁Bangladesh	-11.2975
▁beneath	-11.2975
▁coordinate	-11.2975
▁enterprise	-11.2975
▁facilities	-11.2975
▁hemisphere	-11.2975
▁paradox	-11.2975
▁prosperity	-11.2975
▁unprecedented	-11.2975
▁devil	-11.2975
▁strategic	-11.2975
▁valid	-11.2975
▁triangle	-11.2975
▁gentleman	-11.2976
▁primate	-11.2976
▁clay	-11.2977
▁simultaneously	-11.2978
▁winning	-11.2978
▁assets	-11.298
▁exam	-11.298
▁fence	-11.2981
▁homework	-11.2985
▁viewer	-11.2985
▁manner	-11.2987
▁detection	-11.2989
▁rape	-11.2993
▁realizing	-11.2993
▁clothing	-11.2995
▁client	-11.2997
▁threatened	-11.2998
▁Chi	-11.3008
▁delivery	-11.3013
▁collectively	-11.3016
ji	-11.3018
▁endless	-11.3019
known	-11.3023
CA	-11.3028
▁reasonable	-11.3029
▁formation	-11.303
▁Sir	-11.3033
▁quad	-11.3043
▁remaining	-11.3051
▁staying	-11.3058
▁completed	-11.3092
▁educate	-11.3101
▁corporations	-11.3104
▁entrepreneur	-11.3111
▁Although	-11.3129
▁Beijing	-11.3129
▁diagnosis	-11.3129
▁precious	-11.3129
▁FBI	-11.3129
▁Titan	-11.3129
▁tongue	-11.3129
▁Derek	-11.3129
▁Moore	-11.3129
▁compress	-11.3129
▁contemporary	-11.3129
▁Saturn	-11.313
▁forgive	-11.313
▁Albert	-11.313
▁ownership	-11.313
▁forgot	-11.3131
▁rose	-11.3132
▁dung	-11.3132
▁rob	-11.3133
▁golden	-11.3134
▁jar	-11.3134
▁subway	-11.3134
▁compassionate	-11.3137
▁tele	-11.314
▁crap	-11.315
▁beautifully	-11.3168
▁hired	-11.3169
▁musician	-11.3169
▁openness	-11.3174
▁mathematicians	-11.3177
inal	-11.3181
ional	-11.3183
Wait	-11.3186
▁remained	-11.319
▁server	-11.3195
▁AB	-11.3196
▁shit	-11.3198
▁Eric	-11.3198
ancy	-11.3202
cost	-11.3205
▁shirt	-11.3208
▁mal	-11.3215
▁classical	-11.3219
▁sin	-11.3228
▁remembered	-11.3233
▁influenced	-11.3239
▁bath	-11.325
▁continuous	-11.3273
▁formal	-11.3284
▁sculpt	-11.3285
▁Minister	-11.3285
▁accumulate	-11.3285
▁humanitarian	-11.3285
▁luxury	-11.3285
▁membrane	-11.3285
▁striking	-11.3285
▁gallon	-11.3285
▁snake	-11.3285
▁vaccinat	-11.3285
▁bribe	-11.3286
▁uncertainty	-11.3286
▁wildlife	-11.3286
▁watt	-11.3286
▁Spain	-11.3287
▁awake	-11.3287
▁fancy	-11.3288
▁disability	-11.3289
▁friendship	-11.329
▁beaten	-11.3291
Listen	-11.3292
▁located	-11.3293
▁dating	-11.3296
▁morality	-11.3299
▁friendly	-11.3306
▁reflection	-11.3307
▁glasses	-11.3308
▁Both	-11.3308
▁camel	-11.3309
▁items	-11.3313
▁July	-11.3313
▁hunting	-11.3315
▁Scott	-11.3316
▁established	-11.332
▁expecting	-11.3328
▁hardest	-11.333
▁conducted	-11.3331
▁bind	-11.3332
efficient	-11.3341
interest	-11.3341
▁Win	-11.3343
four	-11.3346
▁approaching	-11.3347
▁recall	-11.3361
▁distinguish	-11.3361
dom	-11.3363
▁safely	-11.3364
▁Gore	-11.3366
▁badly	-11.3369
▁challenged	-11.3394
▁headed	-11.3394
▁photographed	-11.3397
▁install	-11.3417
▁armed	-11.3433
▁prior	-11.3441
▁blank	-11.3442
▁retire	-11.3442
▁Friday	-11.3444
▁Taliban	-11.3444
▁aspiration	-11.3444
▁assistance	-11.3444
▁awkward	-11.3444
▁chamber	-11.3444
▁exposure	-11.3444
▁impressive	-11.3444
▁mobility	-11.3444
▁vulnerability	-11.3444
▁elegant	-11.3444
▁hiding	-11.3444
▁interior	-11.3444
▁workforce	-11.3444
▁Until	-11.3444
▁intimate	-11.3444
▁cotton	-11.3444
▁torture	-11.3444
▁defeat	-11.3444
▁venture	-11.3444
▁expectancy	-11.3445
ville	-11.3445
▁calm	-11.3446
▁flaw	-11.3447
▁Open	-11.3447
ealand	-11.3447
▁listened	-11.3448
▁unfold	-11.3448
▁nearby	-11.3448
▁Santa	-11.3452
▁Brazilian	-11.3452
▁germ	-11.3453
▁analogy	-11.3456
▁researcher	-11.3456
▁bold	-11.3457
▁wedding	-11.346
▁Steven	-11.3463
▁civilian	-11.3464
▁Gold	-11.3464
▁assumption	-11.3481
▁someday	-11.3485
▁teenager	-11.3487
▁beating	-11.3489
▁relie	-11.3498
Re	-11.3499
minute	-11.3502
worth	-11.3502
looking	-11.3502
▁hunter	-11.3504
▁Sorry	-11.3508
▁encouraged	-11.3515
oh	-11.3531
▁surround	-11.3549
▁Pop	-11.3558
▁specialist	-11.3561
▁Sure	-11.3568
▁rolling	-11.357
▁span	-11.3575
racy	-11.3576
▁makers	-11.3588
eur	-11.3592
▁tight	-11.3596
▁Dad	-11.3597
human	-11.3603
▁restrict	-11.3605
▁Palestinian	-11.3605
▁acoustic	-11.3605
▁astronomer	-11.3605
▁categories	-11.3605
▁cigarette	-11.3605
▁commission	-11.3605
▁cosmic	-11.3605
▁diamond	-11.3605
▁leather	-11.3605
▁magnitude	-11.3605
▁matrix	-11.3605
▁sponsor	-11.3605
▁terribly	-11.3605
▁terrifying	-11.3605
▁theoretical	-11.3605
▁uniform	-11.3605
▁chronic	-11.3605
▁mild	-11.3605
▁reliable	-11.3605
▁investigate	-11.3605
▁harness	-11.3606
▁limitations	-11.3606
▁kingdom	-11.3606
▁rubber	-11.3606
▁proposition	-11.3606
▁enforcement	-11.3606
▁redesign	-11.3607
▁archive	-11.3607
▁Pri	-11.361
▁Iranian	-11.3616
▁obstacles	-11.3617
▁logo	-11.3619
▁workplace	-11.3619
▁MT	-11.3623
▁closest	-11.3628
▁upload	-11.3632
▁deck	-11.3634
Ma	-11.3636
ility	-11.3642
▁gathered	-11.3646
▁Mike	-11.3646
uous	-11.3648
▁CD	-11.3653
▁ignored	-11.3662
▁customer	-11.3664
space	-11.367
ati	-11.3671
▁hunt	-11.3677
▁bite	-11.3691
▁soup	-11.37
▁pound	-11.3721
▁Walk	-11.3738
▁motivate	-11.3741
▁NGOs	-11.3767
clusive	-11.3769
▁Alexander	-11.3769
▁Council	-11.3769
▁Saudi	-11.3769
▁Tanzania	-11.3769
▁administration	-11.3769
▁collision	-11.3769
▁despair	-11.3769
▁genuine	-11.3769
▁glamorous	-11.3769
▁mutual	-11.3769
▁rethink	-11.3769
▁stimulate	-11.3769
▁substantial	-11.3769
▁temporary	-11.3769
▁tsunami	-11.3769
▁cruel	-11.3769
▁align	-11.3769
▁geek	-11.3769
▁viral	-11.3769
▁amateur	-11.377
▁steer	-11.377
▁entry	-11.377
ibility	-11.377
▁banana	-11.377
▁girlfriend	-11.377
▁static	-11.3771
▁chase	-11.3771
▁retirement	-11.3772
▁shipping	-11.3772
▁Ray	-11.3774
▁pond	-11.3775
▁ego	-11.3775
▁mapping	-11.3775
▁loose	-11.3779
▁desperately	-11.3779
osi	-11.378
▁patch	-11.3784
▁continuing	-11.3789
▁traits	-11.3791
▁beam	-11.3801
▁trap	-11.3801
lick	-11.3802
▁observed	-11.3805
▁dressed	-11.3818
holder	-11.3826
▁graduated	-11.3853
▁proved	-11.3859
expl	-11.3887
▁upward	-11.3893
▁offering	-11.3896
▁Bell	-11.3926
▁assign	-11.3934
▁Afghan	-11.3936
▁Bronx	-11.3936
▁Gandhi	-11.3936
▁blah	-11.3936
▁deforestation	-11.3936
▁diagnostic	-11.3936
▁dilemma	-11.3936
▁earliest	-11.3936
▁excellent	-11.3936
▁fault	-11.3936
▁indigenous	-11.3936
▁negotiate	-11.3936
▁residents	-11.3936
▁storytelling	-11.3936
▁yourselves	-11.3936
▁excess	-11.3936
▁scheme	-11.3936
▁Ladies	-11.3936
▁dawn	-11.3936
▁confine	-11.3936
▁inherit	-11.3936
▁voting	-11.3936
▁grandparents	-11.3937
▁ongoing	-11.3937
▁mud	-11.3937
▁glow	-11.3938
chasing	-11.3938
▁estate	-11.3938
▁brick	-11.3938
▁stability	-11.3941
pan	-11.3941
▁addiction	-11.3944
▁Whereas	-11.3945
▁panic	-11.3945
thermal	-11.3946
▁nerd	-11.3948
▁chop	-11.3948
▁Moon	-11.3949
▁fortunately	-11.3951
▁spi	-11.3952
berg	-11.3955
▁Mad	-11.3961
▁previously	-11.3966
▁Hello	-11.3972
▁honestly	-11.3983
▁Kh	-11.3984
▁dare	-11.3988
▁chimpanzee	-11.3989
▁incentive	-11.3989
▁mammal	-11.3989
▁vessel	-11.399
▁economist	-11.399
▁Str	-11.399
▁update	-11.3993
▁succeeded	-11.3994
▁bush	-11.4002
▁landing	-11.4016
step	-11.4018
▁arrest	-11.4081
▁pun	-11.4088
self	-11.4092
▁historic	-11.4098
▁authentic	-11.4103
▁punish	-11.4104
▁Jeff	-11.4106
▁contrary	-11.4106
▁currency	-11.4106
▁pedestrian	-11.4106
▁principal	-11.4106
▁pursuit	-11.4106
▁straightforward	-11.4106
▁supplies	-11.4106
▁Nelson	-11.4106
▁absence	-11.4106
▁miserable	-11.4106
▁storage	-11.4106
▁tattoo	-11.4106
▁exhaust	-11.4106
▁flourish	-11.4106
▁Dutch	-11.4106
▁Henry	-11.4106
▁refine	-11.4106
▁devote	-11.4106
▁legislation	-11.4106
▁tale	-11.4106
▁exclusive	-11.4106
▁spike	-11.4107
▁Social	-11.4107
▁Army	-11.4107
▁Media	-11.4107
▁occasionally	-11.4107
▁Brian	-11.4109
▁Homo	-11.4111
▁Lake	-11.4111
▁frontier	-11.4112
▁counting	-11.4112
▁downtown	-11.4113
▁fertilizer	-11.4113
▁visualize	-11.4113
▁insane	-11.4114
▁specialized	-11.4118
▁hug	-11.412
▁Korean	-11.4121
▁Newton	-11.4122
▁lowest	-11.4126
RB	-11.4126
▁sufficient	-11.4133
▁motivated	-11.4135
▁proven	-11.4135
▁Howard	-11.4139
break	-11.4158
wan	-11.4171
▁monitoring	-11.4179
▁performed	-11.4187
▁SS	-11.4217
▁conv	-11.4224
version	-11.4227
▁transcend	-11.4227
▁bowl	-11.4227
▁discovering	-11.4234
town	-11.4269
▁phenomena	-11.4271
powered	-11.4276
▁Except	-11.4278
▁Indonesia	-11.4278
▁Technology	-11.4278
▁Twenty	-11.4278
▁altitude	-11.4278
▁ambitious	-11.4278
▁destiny	-11.4278
▁dopamine	-11.4278
▁encouraging	-11.4278
▁executive	-11.4278
▁geometry	-11.4278
▁iPod	-11.4278
▁parachute	-11.4278
▁pizza	-11.4278
▁proposal	-11.4278
▁receptor	-11.4278
▁stomach	-11.4278
▁Delhi	-11.4278
▁interrupt	-11.4278
▁admire	-11.4278
▁foster	-11.4278
▁canopy	-11.4278
▁Almost	-11.4278
▁loving	-11.4279
▁constraints	-11.428
▁punishment	-11.428
▁Johnson	-11.4282
▁County	-11.4282
▁requirement	-11.4284
▁phenomenal	-11.4284
▁assure	-11.4285
▁overnight	-11.4286
under	-11.4292
▁Professor	-11.4297
▁flowing	-11.4304
▁manufacturer	-11.4307
▁strain	-11.4312
▁jam	-11.4312
▁aunt	-11.4326
gua	-11.4332
▁rig	-11.4332
▁AK	-11.434
Ha	-11.4342
▁biologist	-11.4344
lev	-11.4359
▁promised	-11.4367
▁threaten	-11.4368
▁Ken	-11.441
cast	-11.4417
▁manufacture	-11.4424
▁teenage	-11.4445
▁singer	-11.4449
▁corrupt	-11.4451
▁Mandela	-11.4453
▁Shanghai	-11.4453
▁Vietnam	-11.4453
▁cricket	-11.4453
▁division	-11.4453
▁endangered	-11.4453
▁millennia	-11.4453
▁persuade	-11.4453
▁phantom	-11.4453
▁synthesize	-11.4453
▁territory	-11.4453
▁virtue	-11.4453
▁Peace	-11.4453
▁chunk	-11.4453
▁hub	-11.4453
▁backyard	-11.4453
▁Carolina	-11.4454
▁seemingly	-11.4454
▁texture	-11.4454
▁angel	-11.4454
▁filmmaker	-11.4455
▁elementary	-11.4456
▁delay	-11.4456
▁irre	-11.4457
▁guilty	-11.4459
▁artwork	-11.4459
▁Roman	-11.4463
▁personalized	-11.4466
▁sir	-11.4481
LT	-11.4483
▁Whatever	-11.4497
ette	-11.4519
▁password	-11.4525
▁estimated	-11.4527
driven	-11.4529
second	-11.4529
world	-11.4529
flow	-11.4533
▁sixth	-11.4541
▁enabled	-11.4547
lia	-11.4561
▁glue	-11.4588
▁attach	-11.4607
▁seeking	-11.4614
▁chemist	-11.463
▁freely	-11.4631
▁cue	-11.4631
tropical	-11.4632
▁Neanderthal	-11.4632
▁Suddenly	-11.4632
▁System	-11.4632
▁astronaut	-11.4632
▁entropy	-11.4632
▁knife	-11.4632
▁lobby	-11.4632
▁pencil	-11.4632
▁receiving	-11.4632
▁suppress	-11.4632
▁syndrome	-11.4632
▁temple	-11.4632
▁composition	-11.4632
▁counsel	-11.4632
▁occupy	-11.4632
▁preparing	-11.4632
▁steam	-11.4632
▁wrist	-11.4632
▁proceed	-11.4632
▁electrodes	-11.4632
▁retreat	-11.4632
▁riot	-11.4632
▁Anybody	-11.4632
▁junk	-11.4632
▁Koran	-11.4633
▁Year	-11.4634
▁relief	-11.4634
▁shifting	-11.4636
wandering	-11.4638
▁freeze	-11.4638
▁canvas	-11.464
▁branches	-11.4641
▁stopping	-11.4641
▁Rock	-11.4642
▁predictable	-11.4648
▁eaten	-11.465
▁approached	-11.4651
▁millimeter	-11.4654
▁outbreak	-11.4655
▁intensive	-11.4657
▁selected	-11.4661
▁momentum	-11.4662
body	-11.4676
▁empowered	-11.4677
▁shower	-11.4691
▁Arch	-11.4691
ambi	-11.4691
▁contributed	-11.4692
gras	-11.4698
▁collapsed	-11.47
▁Pal	-11.4701
uate	-11.4701
▁cellular	-11.4703
▁replaced	-11.4705
▁raped	-11.4706
▁shoe	-11.4712
oma	-11.4712
▁epi	-11.4728
storm	-11.4733
wind	-11.4769
▁worrying	-11.4771
▁hated	-11.4777
▁Bio	-11.479
▁extraordinar	-11.4805
▁champion	-11.4813
▁Brother	-11.4814
▁Bruno	-11.4814
▁Rather	-11.4814
▁breakfast	-11.4814
▁chimp	-11.4814
▁devastating	-11.4814
▁ecology	-11.4814
▁enemies	-11.4814
▁enzyme	-11.4814
▁feminist	-11.4814
▁hybrid	-11.4814
▁magnificent	-11.4814
▁recycling	-11.4814
▁terrified	-11.4814
▁ubiquitous	-11.4814
▁wheat	-11.4814
▁ambition	-11.4814
▁contaminat	-11.4814
▁diameter	-11.4814
▁fusion	-11.4814
▁trivial	-11.4814
▁Watch	-11.4814
▁Seattle	-11.4814
▁carpet	-11.4814
▁Work	-11.4814
▁distort	-11.4814
▁blink	-11.4814
▁constrain	-11.4815
▁thread	-11.4815
▁mainstream	-11.4815
▁pipeline	-11.4815
▁bedroom	-11.4815
▁horizontal	-11.4816
cam	-11.4816
▁prostate	-11.4816
▁regardless	-11.4816
▁diving	-11.4816
▁Lord	-11.4817
▁naive	-11.4818
▁visualization	-11.4819
▁cube	-11.4825
▁blindness	-11.4826
▁fallen	-11.4826
▁realistic	-11.4827
▁prevention	-11.4831
▁Way	-11.4834
▁fatal	-11.4835
▁concentrated	-11.4836
▁Jane	-11.4836
▁Andrew	-11.484
▁staring	-11.4855
▁smallest	-11.4868
▁packed	-11.4875
aeda	-11.4904
▁sexy	-11.4906
▁gained	-11.4918
▁employer	-11.4919
▁risky	-11.4922
▁grip	-11.4927
oney	-11.4928
▁grabb	-11.493
▁banking	-11.4933
▁crossed	-11.4942
▁catching	-11.4952
▁rip	-11.4955
shot	-11.4965
▁container	-11.4969
▁Syria	-11.499
▁Brooklyn	-11.4999
▁College	-11.4999
▁Government	-11.4999
▁Industrial	-11.4999
▁Jordan	-11.4999
▁Lincoln	-11.4999
▁Little	-11.4999
▁November	-11.4999
▁arguing	-11.4999
▁asleep	-11.4999
▁cocaine	-11.4999
▁convenient	-11.4999
▁divorce	-11.4999
▁emphasize	-11.4999
▁flavor	-11.4999
▁horror	-11.4999
▁investigation	-11.4999
▁legitimate	-11.4999
▁negotiation	-11.4999
▁purple	-11.4999
▁segment	-11.4999
▁sibling	-11.4999
▁strict	-11.4999
▁unhappy	-11.4999
▁potato	-11.4999
▁satisfy	-11.4999
▁warrior	-11.4999
▁jellyfish	-11.4999
▁tiger	-11.4999
▁minus	-11.4999
▁onstage	-11.4999
▁swing	-11.4999
▁brush	-11.4999
▁sperm	-11.5
▁drew	-11.5
▁Cuba	-11.5001
▁sidewalk	-11.5001
▁spacecraft	-11.5002
▁Ireland	-11.5003
▁workshop	-11.5003
▁Coke	-11.5004
▁Nick	-11.5005
▁Someone	-11.5005
▁nodes	-11.5005
▁vary	-11.5005
▁invade	-11.5006
▁stored	-11.5006
two	-11.5007
▁belt	-11.5012
vy	-11.5014
▁controversial	-11.5014
▁taxes	-11.5014
▁installed	-11.5028
▁readers	-11.5029
▁amazingly	-11.5052
▁Force	-11.5058
fulness	-11.5063
▁optical	-11.5069
wise	-11.5075
wood	-11.5084
material	-11.5085
▁bust	-11.5106
▁collaborate	-11.5133
▁responded	-11.5138
▁attacked	-11.5142
angle	-11.5147
▁politically	-11.5148
▁breed	-11.5157
ndi	-11.5157
▁deposit	-11.5161
atic	-11.5175
AR	-11.5178
scribe	-11.5184
▁Swiss	-11.5188
▁advertise	-11.5188
▁diarrhea	-11.5188
▁empire	-11.5188
▁eradicate	-11.5188
▁Catholic	-11.5188
▁Gabby	-11.5188
▁Leonardo	-11.5188
▁accuracy	-11.5188
▁approved	-11.5188
▁artifact	-11.5188
▁believing	-11.5188
▁calories	-11.5188
▁cooperate	-11.5188
▁describing	-11.5188
▁destination	-11.5188
▁embarrassing	-11.5188
▁frustration	-11.5188
▁inevitably	-11.5188
▁monster	-11.5188
▁terrain	-11.5188
▁tutor	-11.5188
▁Accord	-11.5188
▁association	-11.5188
▁declare	-11.5188
▁summit	-11.5188
▁cream	-11.5188
▁infectious	-11.5188
▁spiral	-11.5188
▁advise	-11.519
▁migration	-11.5191
▁Stone	-11.5192
▁unlock	-11.5194
▁distinction	-11.5195
▁candle	-11.5197
▁Tony	-11.5199
▁amazed	-11.5199
▁decent	-11.5202
▁processor	-11.5204
▁screaming	-11.5218
▁breeding	-11.5219
change	-11.5219
▁shelf	-11.5223
▁correctly	-11.5232
▁publishing	-11.5234
▁impos	-11.5242
star	-11.5256
▁lap	-11.5261
▁earning	-11.5266
▁mentally	-11.527
point	-11.5275
▁useless	-11.5276
AIDS	-11.5277
income	-11.5277
▁statistic	-11.5285
▁banker	-11.5295
▁transforming	-11.5315
Go	-11.5351
▁posted	-11.5353
▁Ron	-11.5366
▁locally	-11.5367
ku	-11.5371
▁Hawaii	-11.538
▁correlation	-11.538
▁impulse	-11.538
▁injured	-11.538
▁jihad	-11.538
▁schizophrenia	-11.538
▁separation	-11.538
▁smiling	-11.538
▁veteran	-11.538
▁communicating	-11.538
▁drunk	-11.538
▁innovate	-11.538
▁jazz	-11.538
▁lonely	-11.538
▁summarize	-11.538
▁Doctor	-11.538
▁Half	-11.538
▁approximate	-11.538
▁slime	-11.538
▁multiply	-11.538
▁whisper	-11.538
▁disabled	-11.538
▁stereotype	-11.538
▁tiles	-11.538
▁Redwood	-11.538
▁lifespan	-11.538
▁Turk	-11.538
▁evolving	-11.5381
▁bounce	-11.5381
▁Anyone	-11.5381
▁Nike	-11.5381
▁echo	-11.5382
▁slight	-11.5382
▁frequently	-11.5386
▁Show	-11.5387
▁insert	-11.5391
▁utterly	-11.5392
▁sake	-11.5393
▁MK	-11.5394
▁halfway	-11.5396
▁rib	-11.5398
▁probe	-11.5399
▁abandoned	-11.54
▁Gar	-11.5401
▁realization	-11.5402
▁messy	-11.5413
▁consciously	-11.5414
▁outdoor	-11.5414
▁regularly	-11.5418
▁RS	-11.543
▁behalf	-11.5431
▁Ear	-11.5443
▁demonstrated	-11.5445
▁shy	-11.5445
▁atomic	-11.5446
▁revealed	-11.5449
▁adapted	-11.5454
▁arc	-11.5459
▁worthy	-11.5462
frontal	-11.5464
generation	-11.5473
style	-11.5473
field	-11.5476
▁harmful	-11.5482
potent	-11.5488
▁mini	-11.5495
▁sale	-11.5497
rich	-11.5508
▁informal	-11.5518
▁enjoyed	-11.5523
kill	-11.5524
All	-11.5526
▁Matt	-11.5539
▁scream	-11.5545
▁accomplish	-11.5549
▁transit	-11.5566
Man	-11.5568
▁dirt	-11.5568
▁Abraham	-11.5576
▁Switzerland	-11.5576
▁Telescope	-11.5576
▁Together	-11.5576
▁Yemen	-11.5576
▁centimeter	-11.5576
▁episode	-11.5576
▁equity	-11.5576
▁harbor	-11.5576
▁hierarchy	-11.5576
▁nowadays	-11.5576
▁peculiar	-11.5576
▁prescription	-11.5576
▁remarkably	-11.5576
▁sanitation	-11.5576
▁vacation	-11.5576
▁welfare	-11.5576
▁competing	-11.5576
▁obtain	-11.5576
▁Berlin	-11.5576
▁juice	-11.5576
▁swallow	-11.5576
▁priest	-11.5576
▁creep	-11.5576
▁boost	-11.5576
▁tolerance	-11.5576
▁ultra	-11.5576
▁contest	-11.5576
▁augment	-11.5576
▁Kevin	-11.5576
▁therapist	-11.5577
▁trapped	-11.5577
▁spinning	-11.5577
▁TEDster	-11.5577
▁snap	-11.5578
▁priority	-11.5579
▁tide	-11.5579
▁guest	-11.558
▁dropping	-11.558
▁Hong	-11.5581
▁Alex	-11.5581
ounce	-11.5582
syn	-11.5583
▁App	-11.5588
▁Stage	-11.559
▁dominated	-11.5591
▁planetary	-11.5598
▁technically	-11.5618
▁Carl	-11.5622
▁wishes	-11.5625
▁consumed	-11.5632
▁randomly	-11.5638
▁destroying	-11.5644
▁engineered	-11.5658
wide	-11.5665
wash	-11.5686
▁doubled	-11.5691
▁steppe	-11.5723
▁integrate	-11.5748
▁explorer	-11.5752
▁tire	-11.5753
▁spine	-11.5768
skeletal	-11.5776
▁Clinton	-11.5776
▁Detroit	-11.5776
▁Jupiter	-11.5776
▁Mexican	-11.5776
▁Organization	-11.5776
▁Probably	-11.5776
▁Saturday	-11.5776
▁corridor	-11.5776
▁exotic	-11.5776
▁glimpse	-11.5776
▁gorgeous	-11.5776
▁invitation	-11.5776
▁obese	-11.5776
▁phosphorus	-11.5776
▁drain	-11.5776
▁intrinsic	-11.5776
▁Louis	-11.5776
▁hint	-11.5776
▁psychopath	-11.5776
▁Jones	-11.5776
scape	-11.5777
▁Indus	-11.5777
▁intervene	-11.5777
▁pirate	-11.5777
▁kidding	-11.5777
▁mill	-11.5777
▁jaw	-11.5777
▁wrapped	-11.5778
▁hometown	-11.578
▁Coast	-11.578
▁healing	-11.578
▁Still	-11.5781
▁retail	-11.5783
▁deaf	-11.5785
▁PMS	-11.5785
▁PR	-11.5792
▁Op	-11.5793
▁deepest	-11.5796
▁realities	-11.5798
▁SW	-11.5801
▁accomplished	-11.5802
▁Nigerian	-11.5802
▁broader	-11.5803
▁Australian	-11.5808
▁Try	-11.5815
▁USA	-11.5818
▁simplest	-11.5819
▁hacking	-11.5821
▁calculated	-11.5827
▁organizing	-11.5828
▁discussing	-11.5828
▁teaches	-11.5828
▁SP	-11.5829
▁cookie	-11.5836
▁Amy	-11.584
▁expanded	-11.5846
▁migrate	-11.5847
▁slower	-11.5847
▁blown	-11.5847
▁shocking	-11.5852
mediate	-11.5854
night	-11.5862
shirt	-11.5876
degree	-11.5877
▁cope	-11.5887
bound	-11.5887
▁expressed	-11.5888
▁convention	-11.5931
▁ironic	-11.5933
▁simpler	-11.5949
▁aggregate	-11.596
▁prisoner	-11.5961
▁reporting	-11.5969
▁disrupt	-11.5974
▁consult	-11.5979
▁squeeze	-11.5979
▁scholar	-11.598
▁import	-11.598
▁Argentina	-11.598
▁Atlanta	-11.598
▁Monterey	-11.598
▁Shakespeare	-11.598
▁Singapore	-11.598
▁abundance	-11.598
▁batteries	-11.598
▁ceremony	-11.598
▁cylinder	-11.598
▁default	-11.598
▁elevator	-11.598
▁frightening	-11.598
▁glamour	-11.598
▁glucose	-11.598
▁independence	-11.598
▁introduction	-11.598
▁migrant	-11.598
▁nitrogen	-11.598
▁philosophical	-11.598
▁puppet	-11.598
▁translator	-11.598
▁Daniel	-11.598
▁Watson	-11.598
▁discrimination	-11.598
▁flesh	-11.598
▁likelihood	-11.598
▁scaffold	-11.598
▁timing	-11.598
▁Pretty	-11.598
▁heritage	-11.598
▁remix	-11.598
▁insulin	-11.598
▁blob	-11.598
▁mount	-11.598
▁typing	-11.598
▁stamp	-11.598
▁macro	-11.598
▁Stephen	-11.598
▁consent	-11.5981
▁Development	-11.5981
▁wore	-11.5981
▁boundary	-11.5982
▁Spring	-11.5982
▁digest	-11.5985
▁stolen	-11.5986
▁iconic	-11.5987
▁modest	-11.5989
▁machinery	-11.6003
▁Ram	-11.6003
▁handful	-11.6006
▁historically	-11.6006
▁helpless	-11.6026
▁warmer	-11.6039
▁privileged	-11.6044
lapping	-11.6046
▁prim	-11.6055
▁Luc	-11.6058
▁forbid	-11.6072
stick	-11.6074
profit	-11.6083
ago	-11.6085
frame	-11.6086
count	-11.6086
uh	-11.6086
▁switched	-11.6087
▁prayer	-11.609
volving	-11.61
▁zoo	-11.61
▁instruction	-11.6112
▁penguin	-11.6113
eval	-11.613
▁Char	-11.6132
▁intent	-11.6169
▁grant	-11.6171
▁utter	-11.6176
▁compute	-11.6181
itude	-11.6183
▁stereo	-11.6188
▁descend	-11.6188
▁Parkinson	-11.6188
Absolutely	-11.6188
voluntary	-11.6188
▁Aristotle	-11.6188
▁DVD	-11.6188
▁Feynman	-11.6188
▁Security	-11.6188
▁Supreme	-11.6188
▁album	-11.6188
▁assault	-11.6188
▁cockroach	-11.6188
▁endeavor	-11.6188
▁envelope	-11.6188
▁fluorescent	-11.6188
▁marathon	-11.6188
▁neuroscientist	-11.6188
▁offspring	-11.6188
▁precision	-11.6188
▁protocell	-11.6188
▁vibration	-11.6188
▁cosmos	-11.6188
▁harmony	-11.6188
▁maneuver	-11.6188
▁warehouse	-11.6188
▁Business	-11.6188
▁geography	-11.6188
▁mankind	-11.6188
▁thrive	-11.6188
▁inhibit	-11.6188
▁cubic	-11.6189
▁scaling	-11.6189
▁grace	-11.6189
▁Iceland	-11.6189
▁Geographic	-11.6189
▁flame	-11.619
▁hostile	-11.619
▁planned	-11.6192
▁belly	-11.6196
▁rode	-11.6198
▁mum	-11.6199
▁Rand	-11.6206
▁buses	-11.6212
▁deployed	-11.6213
▁trailer	-11.6213
▁refused	-11.6218
▁PC	-11.6222
▁youngest	-11.6236
▁labeled	-11.6237
▁sexually	-11.6238
▁lifted	-11.6249
▁resistant	-11.6254
▁lethal	-11.6255
▁Young	-11.6264
▁Brad	-11.6274
▁reflected	-11.6274
▁mesh	-11.6282
nnie	-11.6285
five	-11.6287
phone	-11.6296
proof	-11.6299
touch	-11.6301
found	-11.6304
spot	-11.6311
position	-11.6328
▁deploy	-11.6376
risk	-11.6379
ER	-11.6382
▁wander	-11.6394
▁sneak	-11.6398
▁minor	-11.6399
vascular	-11.6401
▁April	-11.6401
▁Civil	-11.6401
▁Society	-11.6401
▁bamboo	-11.6401
▁convicted	-11.6401
▁elaborate	-11.6401
▁eternal	-11.6401
▁execution	-11.6401
▁expense	-11.6401
▁irrational	-11.6401
▁philanthropy	-11.6401
▁reinforce	-11.6401
▁schedule	-11.6401
▁sovereign	-11.6401
▁trading	-11.6401
▁transistor	-11.6401
▁fisheries	-11.6401
▁heavily	-11.6401
▁denial	-11.6401
▁therapies	-11.6401
▁steep	-11.6401
▁nightmare	-11.6401
▁IBM	-11.6402
mile	-11.6402
▁dough	-11.6402
▁scrap	-11.6402
▁operator	-11.6402
▁bleed	-11.6403
▁scanning	-11.6403
▁preference	-11.6403
▁conceptual	-11.6404
▁documentary	-11.6404
▁pants	-11.6406
▁volcano	-11.6406
▁contradiction	-11.6406
▁overwhelmed	-11.6408
▁Cape	-11.6408
▁thus	-11.6411
▁adaptation	-11.6411
▁Rick	-11.6411
▁coverage	-11.6412
▁preach	-11.6412
▁thrilled	-11.6413
ssuming	-11.643
Prince	-11.6435
▁overhead	-11.6436
▁semi	-11.6436
▁bacterial	-11.6437
▁computational	-11.644
▁provider	-11.6446
▁repeated	-11.6458
▁actively	-11.6469
lapse	-11.647
▁laughed	-11.6479
▁spare	-11.648
cause	-11.6481
▁Say	-11.6488
ella	-11.6488
▁lawn	-11.6495
craft	-11.6512
▁hopeful	-11.6521
▁argued	-11.6529
rious	-11.654
▁mathematician	-11.6552
▁evaluat	-11.6571
▁prospect	-11.6575
Here	-11.6579
▁tan	-11.6589
▁refuse	-11.659
▁desperate	-11.6606
▁distract	-11.661
▁entertain	-11.6617
▁yell	-11.6618
▁Academy	-11.6619
▁Copenhagen	-11.6619
▁Greece	-11.6619
▁adolescent	-11.6619
▁arrangement	-11.6619
▁blade	-11.6619
▁consensus	-11.6619
▁coordination	-11.6619
▁defining	-11.6619
▁democracies	-11.6619
▁happily	-11.6619
▁imagining	-11.6619
▁prosthetic	-11.6619
▁sequencing	-11.6619
▁staircase	-11.6619
▁transaction	-11.6619
▁vivid	-11.6619
▁biomass	-11.6619
▁intensity	-11.6619
▁sweep	-11.6619
▁blur	-11.6619
▁ideology	-11.6619
▁synap	-11.6619
▁smash	-11.6619
▁vocal	-11.6619
▁livestock	-11.6619
▁forecast	-11.6619
▁freezing	-11.6619
▁blast	-11.6619
▁intact	-11.6619
▁basketball	-11.6619
▁nasty	-11.6619
▁gross	-11.6619
▁chew	-11.6619
▁History	-11.6619
▁generic	-11.6619
▁delicious	-11.662
▁odor	-11.662
▁journalism	-11.6621
▁minority	-11.6621
▁selective	-11.6621
▁Trade	-11.6622
▁strap	-11.6622
▁Kong	-11.6623
▁crab	-11.6625
▁suspended	-11.6626
ogue	-11.6628
▁Music	-11.6629
▁JF	-11.663
▁subjective	-11.663
▁progressive	-11.6631
▁stare	-11.6632
month	-11.6635
▁irony	-11.6639
▁recycled	-11.6639
▁hopeless	-11.665
▁witnessed	-11.666
▁masses	-11.668
hole	-11.6683
▁kicked	-11.6684
▁capitalist	-11.6726
▁prey	-11.6735
quality	-11.6737
Please	-11.6737
▁Arabia	-11.6739
three	-11.674
▁whoever	-11.6748
▁owe	-11.6749
To	-11.6753
▁deadly	-11.6753
how	-11.6758
▁Van	-11.677
▁lever	-11.6794
▁diagnose	-11.6813
liter	-11.6819
▁impose	-11.6833
▁Benjamin	-11.6841
▁Berkeley	-11.6841
▁Jerusalem	-11.6841
▁Journal	-11.6841
▁Office	-11.6841
▁accelerating	-11.6841
▁contributing	-11.6841
▁deficit	-11.6841
▁gallery	-11.6841
▁grocery	-11.6841
▁inflation	-11.6841
▁maximum	-11.6841
▁recognizing	-11.6841
▁taboo	-11.6841
▁tempo	-11.6841
▁Arthur	-11.6841
▁NSA	-11.6841
▁fluctuat	-11.6841
▁immortal	-11.6841
▁swarm	-11.6841
▁converge	-11.6841
▁Disney	-11.6841
▁pleasant	-11.6841
▁Keep	-11.6841
▁helium	-11.6841
▁harsh	-11.6841
▁eastern	-11.6841
▁kilogram	-11.6841
▁Virginia	-11.6842
▁tomato	-11.6842
▁constitution	-11.6842
▁systematically	-11.6842
espite	-11.6842
▁bucket	-11.6842
▁Teach	-11.6843
▁trafficking	-11.6843
▁transformative	-11.6843
▁occurring	-11.6843
▁cheer	-11.6844
▁couch	-11.6844
▁vice	-11.6844
▁wow	-11.6846
▁Water	-11.6846
▁managing	-11.6846
▁duty	-11.6847
▁fade	-11.6848
▁wooden	-11.6848
▁LG	-11.685
▁basement	-11.6851
▁penis	-11.6851
▁inmates	-11.6852
▁MR	-11.6854
▁rebel	-11.6854
▁tourist	-11.6862
page	-11.6865
▁losses	-11.6868
▁JA	-11.6874
▁rejected	-11.6882
▁confronted	-11.6888
▁remotely	-11.6891
▁analyzed	-11.6895
▁interconnected	-11.6901
▁comedy	-11.6906
▁asthma	-11.6913
▁regenerate	-11.6915
▁emotionally	-11.6915
▁assumed	-11.6928
iction	-11.6936
▁rear	-11.6936
▁sooner	-11.6937
itz	-11.6963
▁neo	-11.6964
▁Sur	-11.6973
story	-11.6976
▁triple	-11.6993
▁Map	-11.7005
▁ingredient	-11.7012
▁plea	-11.704
▁associate	-11.704
▁acquire	-11.7048
▁navigat	-11.7051
▁unfortunate	-11.7055
▁Under	-11.7061
▁Education	-11.7068
▁Mumbai	-11.7068
▁SETI	-11.7068
▁anniversary	-11.7068
▁circular	-11.7068
▁festival	-11.7068
▁integration	-11.7068
▁jungle	-11.7068
▁juvenile	-11.7068
▁literacy	-11.7068
▁monument	-11.7068
▁obsession	-11.7068
▁optimize	-11.7068
▁recession	-11.7068
▁surgeries	-11.7068
▁underestimate	-11.7068
▁Computer	-11.7068
▁FDA	-11.7068
▁virgin	-11.7068
▁injuries	-11.7068
▁selves	-11.7068
▁historian	-11.7068
▁spouse	-11.7068
▁exceed	-11.7068
▁bonus	-11.7068
▁greet	-11.7068
▁chef	-11.7068
▁crude	-11.7068
▁lottery	-11.7069
▁Hawk	-11.7069
▁accent	-11.7069
▁cattle	-11.7069
▁depict	-11.7069
▁headquarters	-11.7069
▁acres	-11.707
▁Edward	-11.707
▁index	-11.7071
▁tapir	-11.7071
▁browser	-11.7072
▁replacement	-11.7075
▁rail	-11.7075
▁passage	-11.7077
▁fever	-11.7079
▁farther	-11.708
▁stabilize	-11.708
▁economically	-11.7086
▁merge	-11.7088
▁sync	-11.7091
▁passes	-11.7101
▁payment	-11.7103
▁promot	-11.7114
articulate	-11.7129
▁talented	-11.7139
▁melting	-11.7141
▁attracted	-11.7144
▁Free	-11.7151
natu	-11.7158
▁longest	-11.7164
▁documented	-11.7176
effective	-11.7197
And	-11.7222
God	-11.7232
speed	-11.7234
▁reporter	-11.7247
▁politician	-11.7251
▁concentrate	-11.7272
▁expo	-11.7296
▁Democrat	-11.7297
▁manifest	-11.7298
▁gentle	-11.7299
▁submit	-11.7299
▁Mount	-11.73
▁Apollo	-11.7301
▁Bhutan	-11.7301
▁Eventually	-11.7301
▁Public	-11.7301
▁achieving	-11.7301
▁alphabet	-11.7301
▁commodity	-11.7301
▁deception	-11.7301
▁guitar	-11.7301
▁immigrant	-11.7301
▁indicator	-11.7301
▁parliament	-11.7301
▁pesticide	-11.7301
▁practicing	-11.7301
▁protocol	-11.7301
▁resurrect	-11.7301
▁stadium	-11.7301
▁storyteller	-11.7301
▁stumble	-11.7301
▁trunk	-11.7301
▁undergraduate	-11.7301
▁worship	-11.7301
▁assistant	-11.7301
▁encode	-11.7301
▁McDonald	-11.7301
▁cardiac	-11.7301
▁Natural	-11.7301
▁spatial	-11.7301
▁blew	-11.7301
▁mosque	-11.7301
▁slope	-11.7301
▁headache	-11.7301
invasive	-11.7301
▁opposition	-11.7301
▁refrigerator	-11.7301
▁ooh	-11.7302
▁superpower	-11.7302
▁psychiatrist	-11.7302
▁Milk	-11.7302
▁mite	-11.7303
▁hut	-11.7303
▁copies	-11.7304
▁accountability	-11.7304
▁illustration	-11.7304
▁employment	-11.7305
▁lobe	-11.7305
▁settlement	-11.7305
▁systematic	-11.7305
▁adoption	-11.7306
▁towel	-11.7306
▁Light	-11.7307
▁nail	-11.7308
▁Plan	-11.7309
▁inherently	-11.7311
▁Syrian	-11.7312
▁carries	-11.7313
▁curl	-11.7314
▁alert	-11.7314
▁playful	-11.7315
▁GG	-11.7319
▁airline	-11.7319
▁atheist	-11.7326
▁cage	-11.7337
▁implemented	-11.7345
▁converted	-11.7366
shaped	-11.738
▁redefine	-11.7441
▁humble	-11.7498
▁disturb	-11.7507
▁hacker	-11.7513
▁Republic	-11.7537
▁Canadian	-11.7539
▁Fortunately	-11.7539
▁Hospital	-11.7539
▁Lebanon	-11.7539
▁Netherlands	-11.7539
▁Philadelphia	-11.7539
▁apologize	-11.7539
▁calculus	-11.7539
▁caregiver	-11.7539
▁favela	-11.7539
▁improvise	-11.7539
▁inhabit	-11.7539
▁morph	-11.7539
▁orientation	-11.7539
▁prince	-11.7539
▁statue	-11.7539
▁Craig	-11.7539
▁Sarah	-11.7539
▁elevate	-11.7539
▁sensing	-11.7539
▁racial	-11.7539
▁racing	-11.7539
▁entities	-11.7539
▁retain	-11.7539
▁vend	-11.7539
▁faint	-11.7539
▁Fund	-11.7539
▁preced	-11.7539
▁minimal	-11.7539
▁assess	-11.7539
▁Camp	-11.754
▁prostitution	-11.754
▁shatter	-11.754
▁Around	-11.754
▁cafe	-11.7541
▁digging	-11.7541
▁clone	-11.7541
▁transmitted	-11.7542
▁Laden	-11.7542
▁Wright	-11.7543
▁differentiate	-11.7543
▁Kids	-11.7543
▁flock	-11.7545
▁Harry	-11.7545
▁stain	-11.7545
animate	-11.7545
dependent	-11.7546
▁dune	-11.7547
▁Marine	-11.7547
▁skip	-11.7549
▁dishes	-11.7551
you	-11.7552
▁retina	-11.7555
▁richest	-11.7555
▁continuously	-11.7559
▁disk	-11.7559
alai	-11.7568
▁Intel	-11.7569
▁progression	-11.7571
▁secondary	-11.7573
bone	-11.7577
▁posed	-11.7591
▁fin	-11.7595
▁rescued	-11.7608
▁pul	-11.7629
osa	-11.7643
stitution	-11.7649
▁regional	-11.7659
built	-11.768
percent	-11.7684
ductive	-11.7687
corn	-11.7696
type	-11.7705
▁scare	-11.7707
▁poke	-11.7712
ranging	-11.7736
▁cloth	-11.7746
▁infect	-11.7746
▁abandon	-11.7758
▁distribute	-11.7773
▁drama	-11.7782
▁educator	-11.7783
▁Charlie	-11.7783
▁Christopher	-11.7783
▁Jersey	-11.7783
▁Joseph	-11.7783
▁Library	-11.7783
▁Mozart	-11.7783
▁analyzing	-11.7783
▁celebration	-11.7783
▁celebrity	-11.7783
▁clarity	-11.7783
▁cocktail	-11.7783
▁configuration	-11.7783
▁council	-11.7783
▁criteria	-11.7783
▁entrance	-11.7783
▁fantasy	-11.7783
▁gravitational	-11.7783
▁holiday	-11.7783
▁institute	-11.7783
▁laboratories	-11.7783
▁mobilize	-11.7783
▁module	-11.7783
▁multinational	-11.7783
▁neocortex	-11.7783
▁pixel	-11.7783
▁preparation	-11.7783
▁resilient	-11.7783
▁satisfaction	-11.7783
▁soccer	-11.7783
▁stimulation	-11.7783
▁terrific	-11.7783
▁premise	-11.7783
▁abroad	-11.7783
▁loyal	-11.7783
▁isolation	-11.7783
▁luckily	-11.7783
▁peel	-11.7783
▁chess	-11.7783
▁Luther	-11.7784
▁emergence	-11.7784
▁piss	-11.7784
▁cardboard	-11.7784
▁Goals	-11.7784
▁Medicine	-11.7785
▁Greenland	-11.7785
▁authenticity	-11.7786
▁bench	-11.7786
▁Old	-11.7787
▁spite	-11.7787
▁revolutionary	-11.7792
▁scientifically	-11.7794
▁liar	-11.7797
▁protective	-11.7798
▁Sound	-11.7799
▁taxi	-11.7808
▁Opera	-11.7814
▁disturbing	-11.7815
▁practically	-11.7824
▁discussed	-11.7833
Having	-11.7837
▁axe	-11.7837
pound	-11.7884
▁Ask	-11.7906
Thank	-11.7929
held	-11.793
giving	-11.7931
disc	-11.7934
minded	-11.7936
istan	-11.7953
▁whip	-11.7955
imb	-11.7962
▁confess	-11.7979
▁examine	-11.7986
▁trait	-11.8
▁folk	-11.8001
▁skeptic	-11.8003
▁trail	-11.8003
wall	-11.8009
▁differ	-11.803
▁Alaska	-11.8033
▁Pennsylvania	-11.8033
▁Suppose	-11.8033
▁Thailand	-11.8033
▁Tokyo	-11.8033
▁authoritarian	-11.8033
▁congestion	-11.8033
▁embracing	-11.8033
▁exquisite	-11.8033
▁fractal	-11.8033
▁improvisation	-11.8033
▁integrity	-11.8033
▁metabolism	-11.8033
▁penalty	-11.8033
▁sensitivity	-11.8033
▁significance	-11.8033
▁staggering	-11.8033
▁surgical	-11.8033
▁technician	-11.8033
▁ultraviolet	-11.8033
▁unfair	-11.8033
▁Cyrus	-11.8033
▁Kennedy	-11.8033
▁Sierra	-11.8033
▁distress	-11.8033
▁envision	-11.8033
▁idiot	-11.8033
▁prohibit	-11.8033
▁Montana	-11.8033
▁famine	-11.8033
▁inspect	-11.8033
▁conquer	-11.8033
▁ancestr	-11.8033
▁western	-11.8033
▁feather	-11.8033
▁Nepal	-11.8033
▁scholarship	-11.8033
▁acute	-11.8033
▁tribal	-11.8033
▁swap	-11.8033
▁Monday	-11.8034
▁iceberg	-11.8034
▁shaking	-11.8034
▁firing	-11.8034
▁spear	-11.8035
▁rigid	-11.8035
▁internet	-11.8035
▁connectome	-11.8036
▁Alice	-11.8036
▁manifestation	-11.8036
▁mandate	-11.8043
▁EM	-11.8044
▁BJ	-11.8046
▁Milo	-11.8047
▁Dick	-11.8049
▁magician	-11.805
▁DR	-11.8054
▁exponentially	-11.8054
▁mating	-11.8055
▁exit	-11.8055
▁lightning	-11.8056
▁consideration	-11.8062
▁RM	-11.8062
▁DP	-11.8063
▁dip	-11.8064
▁acquired	-11.8073
▁Fat	-11.8124
▁Ross	-11.8135
▁resemble	-11.8144
▁Nav	-11.815
▁Lama	-11.8167
▁continu	-11.8182
million	-11.8186
olar	-11.819
▁Philip	-11.8197
high	-11.8199
horn	-11.8215
virus	-11.8279
▁Pete	-11.8282
▁statistical	-11.8285
eanwhile	-11.8289
responsibilities	-11.8289
▁Georgia	-11.8289
▁Jefferson	-11.8289
▁RNA	-11.8289
▁Tunisia	-11.8289
▁altogether	-11.8289
▁avatar	-11.8289
▁catastrophe	-11.8289
▁chemotherapy	-11.8289
▁cholera	-11.8289
▁cooperative	-11.8289
▁genomic	-11.8289
▁ghost	-11.8289
▁longevity	-11.8289
▁metabolic	-11.8289
▁mixture	-11.8289
▁observing	-11.8289
▁occupie	-11.8289
▁participating	-11.8289
▁prosecutor	-11.8289
▁regulator	-11.8289
▁slogan	-11.8289
▁steady	-11.8289
▁turtle	-11.8289
▁violin	-11.8289
▁vitamin	-11.8289
▁vocabulary	-11.8289
▁Machine	-11.8289
▁captain	-11.8289
▁deciding	-11.8289
▁dismiss	-11.8289
▁gaze	-11.8289
▁nonviolen	-11.8289
▁invasion	-11.8289
▁ladder	-11.8289
▁thrust	-11.8289
▁portray	-11.8289
▁Therefore	-11.8289
▁copied	-11.8289
▁escalat	-11.8289
▁funeral	-11.8289
▁mustache	-11.8289
▁Bosnia	-11.8289
▁encyclopedia	-11.8289
▁fuck	-11.8289
▁cinema	-11.8289
▁tagged	-11.8289
▁wives	-11.8289
▁Hubble	-11.829
▁applies	-11.829
▁locomotion	-11.829
▁priorities	-11.829
▁Trans	-11.829
▁prescribe	-11.829
▁cellphone	-11.8291
▁logging	-11.8291
▁disruptive	-11.8291
▁brake	-11.8291
▁Simon	-11.8292
▁digitize	-11.8293
▁empowerment	-11.8295
▁scarce	-11.8295
▁veil	-11.8295
▁devise	-11.8298
▁profitable	-11.8301
▁Phil	-11.8303
▁governor	-11.8309
▁disappointed	-11.8312
genic	-11.8321
▁observer	-11.8323
▁accurately	-11.8329
▁Post	-11.8329
▁Less	-11.833
▁Band	-11.8338
case	-11.8346
▁Abed	-11.8352
▁successes	-11.8355
▁Allen	-11.8366
xic	-11.8371
activat	-11.8391
kar	-11.8412
▁heroin	-11.8418
▁eco	-11.8435
school	-11.8448
cultural	-11.8449
child	-11.845
write	-11.8454
▁Columbia	-11.8523
▁Bali	-11.8526
▁obstacle	-11.8533
▁ancestor	-11.8534
Hi	-11.8536
▁circulat	-11.8549
etween	-11.8551
▁dictator	-11.8552
communica	-11.8552
▁Association	-11.8552
▁Phoenix	-11.8552
▁PowerPoint	-11.8552
▁Tibet	-11.8552
▁ambulance	-11.8552
▁anthropologist	-11.8552
▁catastrophic	-11.8552
▁competitor	-11.8552
▁dysfunction	-11.8552
▁extensive	-11.8552
▁frequencies	-11.8552
▁gasoline	-11.8552
▁identities	-11.8552
▁imperative	-11.8552
▁inexpensive	-11.8552
▁memorial	-11.8552
▁nonetheless	-11.8552
▁nurture	-11.8552
▁obligation	-11.8552
▁obsolete	-11.8552
▁province	-11.8552
▁reproductive	-11.8552
▁revelation	-11.8552
▁silicon	-11.8552
▁slaughter	-11.8552
▁surviving	-11.8552
▁tangible	-11.8552
▁triumph	-11.8552
▁violate	-11.8552
▁curator	-11.8552
▁snail	-11.8552
▁unleash	-11.8552
▁Everest	-11.8552
▁composer	-11.8552
▁salmon	-11.8552
▁Somalia	-11.8552
▁polite	-11.8552
▁Power	-11.8552
▁squid	-11.8552
▁overseas	-11.8552
▁shining	-11.8552
▁conviction	-11.8552
▁liberate	-11.8552
enabling	-11.8552
▁noisy	-11.8552
▁Libya	-11.8552
▁humility	-11.8552
▁oven	-11.8552
▁Tower	-11.8553
▁Sudan	-11.8553
▁Kingdom	-11.8553
▁Liberia	-11.8553
centric	-11.8553
▁diplomacy	-11.8553
▁Norden	-11.8553
▁singular	-11.8553
▁ease	-11.8554
▁blueprint	-11.8554
▁assessment	-11.8555
▁admitted	-11.8557
▁Notice	-11.8557
▁planner	-11.8558
▁slam	-11.8563
▁mapped	-11.8564
▁Peru	-11.8568
▁fog	-11.8569
▁Treat	-11.8569
▁Later	-11.857
▁swamp	-11.8575
▁abstraction	-11.8578
Hmm	-11.8585
urf	-11.859
▁UK	-11.859
▁symbolic	-11.8592
▁matches	-11.8594
▁Cold	-11.8611
▁touches	-11.8613
▁glu	-11.8619
var	-11.8619
ripped	-11.8621
section	-11.8636
▁kite	-11.8676
▁heroic	-11.8683
stein	-11.8687
▁publisher	-11.8698
standing	-11.8705
conscious	-11.8716
walk	-11.8718
Africa	-11.8719
control	-11.8722
post	-11.8753
ither	-11.877
▁combin	-11.8772
▁characteristic	-11.8814
NG	-11.8817
▁Joshua	-11.8822
▁Buddha	-11.8823
▁Building	-11.8823
▁CRISPR	-11.8823
▁Cambodia	-11.8823
▁Consider	-11.8823
▁Fifty	-11.8823
▁Interestingly	-11.8823
▁Linux	-11.8823
▁Nairobi	-11.8823
▁Similarly	-11.8823
▁Swedish	-11.8823
▁Thirty	-11.8823
▁Tuesday	-11.8823
▁absurd	-11.8823
▁abundant	-11.8823
▁angiogenesis	-11.8823
▁bacterium	-11.8823
▁beneficial	-11.8823
▁delicate	-11.8823
▁enthusiasm	-11.8823
▁friction	-11.8823
▁fuzzy	-11.8823
▁generator	-11.8823
▁gigantic	-11.8823
▁guerrilla	-11.8823
▁intimacy	-11.8823
▁intriguing	-11.8823
▁kindergarten	-11.8823
▁libraries	-11.8823
▁northeast	-11.8823
▁nuclei	-11.8823
▁numerous	-11.8823
▁occupation	-11.8823
▁petition	-11.8823
▁relativity	-11.8823
▁reproduction	-11.8823
▁slept	-11.8823
▁neglect	-11.8823
▁perpetrat	-11.8823
▁reclaim	-11.8823
▁diminish	-11.8823
▁honeybee	-11.8823
sourcing	-11.8823
▁Canyon	-11.8823
▁blessed	-11.8823
▁cease	-11.8823
▁bulk	-11.8823
▁unseen	-11.8823
▁accuse	-11.8823
▁referred	-11.8823
▁cement	-11.8823
▁enrich	-11.8823
▁basket	-11.8823
▁rehabilitation	-11.8824
▁desktop	-11.8824
▁viable	-11.8824
▁vanish	-11.8824
▁crank	-11.8825
▁replacing	-11.8825
▁manipulation	-11.8827
▁merit	-11.8828
▁Beau	-11.8829
▁utility	-11.8829
▁delete	-11.883
▁voters	-11.8832
▁fame	-11.8832
▁sexuality	-11.8834
▁sadness	-11.8836
▁reache	-11.8838
▁erase	-11.8839
▁zip	-11.884
▁Book	-11.8841
▁rays	-11.8842
▁Fish	-11.8843
▁biases	-11.8844
▁Jean	-11.8847
▁Party	-11.8848
▁eighth	-11.8861
▁Boo	-11.8866
▁vest	-11.8868
blowing	-11.8868
▁cartoonist	-11.8869
▁correlate	-11.8875
uite	-11.8885
▁receiver	-11.8889
▁Maria	-11.889
▁gig	-11.8897
oriented	-11.8907
▁Gius	-11.8909
▁intend	-11.8919
cellular	-11.8996
screen	-11.8997
controlled	-11.8997
shift	-11.8998
zen	-11.9
▁optic	-11.9002
▁compil	-11.9028
note	-11.9053
▁Univers	-11.9099
▁orphan	-11.9099
▁conserv	-11.91
▁Caribbean	-11.91
▁Clearly	-11.91
▁Defense	-11.91
▁Empire	-11.91
▁Michigan	-11.91
▁Namibia	-11.91
▁Stewart	-11.91
▁Sylvia	-11.91
▁Venus	-11.91
▁autonomy	-11.91
▁calculator	-11.91
▁calendar	-11.91
▁controversy	-11.91
▁convincing	-11.91
▁curtain	-11.91
▁dictionaries	-11.91
▁embarrassed	-11.91
▁hamburger	-11.91
▁iPad	-11.91
▁ingenuity	-11.91
▁liberty	-11.91
▁maintenance	-11.91
▁marijuana	-11.91
▁pharma	-11.91
▁pricing	-11.91
▁sulfide	-11.91
▁symmetries	-11.91
▁widespread	-11.91
▁displaced	-11.91
▁reflex	-11.91
▁shepherd	-11.91
▁essay	-11.91
▁committee	-11.91
▁Movement	-11.91
▁glove	-11.91
▁hammer	-11.91
▁symmetrical	-11.91
▁resort	-11.91
▁humankind	-11.91
▁goodbye	-11.91
▁mature	-11.91
▁autistic	-11.91
▁flexibility	-11.91
▁dispute	-11.91
Wonder	-11.9101
▁ashamed	-11.9101
▁causal	-11.9101
▁Garden	-11.9101
▁greed	-11.9102
▁Larry	-11.9102
▁appreciation	-11.9102
▁Step	-11.9102
▁Lyn	-11.9103
▁urgent	-11.9103
▁textile	-11.9104
▁Robot	-11.9105
▁seawater	-11.9105
▁urbanization	-11.9105
▁baseline	-11.9106
▁Fire	-11.9106
▁pillar	-11.9108
▁problematic	-11.9108
▁bay	-11.9108
▁fungi	-11.9108
▁spontaneously	-11.911
▁Beach	-11.9113
▁injection	-11.9116
▁repeatedly	-11.9117
▁Rover	-11.9117
▁tightly	-11.9123
▁accountable	-11.9126
▁Heart	-11.913
▁skeptical	-11.9134
▁Fred	-11.9149
▁dorm	-11.9169
▁Clar	-11.917
▁Iraqi	-11.9182
eign	-11.92
▁rub	-11.9237
Cola	-11.9252
sensitive	-11.9282
script	-11.9283
wire	-11.9299
threatening	-11.93
▁disappoint	-11.9361
▁stigma	-11.9381
cientific	-11.9383
▁psychiatri	-11.9384
imbabwe	-11.9386
▁Buddhist	-11.9386
▁CMU	-11.9386
▁Carnegie	-11.9386
▁Colombia	-11.9386
▁Environment	-11.9386
▁Himalaya	-11.9386
▁Kepler	-11.9386
▁affirm	-11.9386
▁chaotic	-11.9386
▁disadvantage	-11.9386
▁dissolve	-11.9386
▁eBay	-11.9386
▁enthusiast	-11.9386
▁frustrating	-11.9386
▁impressed	-11.9386
▁infrared	-11.9386
▁manuscript	-11.9386
▁pervasive	-11.9386
▁physiology	-11.9386
▁plankton	-11.9386
▁powder	-11.9386
▁prevalence	-11.9386
▁pursuing	-11.9386
▁quantities	-11.9386
▁rectangle	-11.9386
▁sediment	-11.9386
▁supernova	-11.9386
▁thylacine	-11.9386
▁Climate	-11.9386
▁destructive	-11.9386
▁fishermen	-11.9386
▁thorough	-11.9386
▁fierce	-11.9386
▁marrow	-11.9386
▁salary	-11.9386
▁abnormal	-11.9386
▁anxious	-11.9386
▁Dallas	-11.9386
▁memorize	-11.9386
▁Small	-11.9386
▁geometric	-11.9386
▁Lagos	-11.9386
▁Tesla	-11.9386
▁hatred	-11.9386
▁Large	-11.9386
▁tilt	-11.9386
▁disabilities	-11.9387
▁lump	-11.9387
▁Country	-11.9387
▁banned	-11.9387
▁blogger	-11.9388
▁insult	-11.9388
▁Unlike	-11.9388
▁Common	-11.9388
▁accomplishment	-11.9389
▁legend	-11.9389
▁dragon	-11.939
▁NGO	-11.9391
▁sneakers	-11.9391
▁visitors	-11.9392
▁flush	-11.9394
▁Native	-11.9394
▁deliberately	-11.9394
▁Data	-11.9396
▁lend	-11.9397
▁MO	-11.9411
▁supportive	-11.9413
▁loo	-11.9415
▁manipulat	-11.9429
▁evaluate	-11.9449
▁clap	-11.9464
MG	-11.9529
social	-11.9577
glass	-11.958
turn	-11.9599
One	-11.9605
▁semina	-11.9649
▁inherent	-11.9667
most	-11.9668
plex	-11.9675
clusion	-11.9679
▁censor	-11.968
▁casual	-11.968
▁Norwegian	-11.968
▁OECD	-11.968
▁Portugal	-11.968
▁Usually	-11.968
▁Venezuela	-11.968
▁Yellow	-11.968
▁anatomy	-11.968
▁applause	-11.968
▁cabinet	-11.968
▁cathedral	-11.968
▁embodied	-11.968
▁fireflies	-11.968
▁gadget	-11.968
▁generosity	-11.968
▁grassroots	-11.968
▁injustice	-11.968
▁intrigue	-11.968
▁leopard	-11.968
▁microscopic	-11.968
▁monarch	-11.968
▁mycelium	-11.968
▁opponent	-11.968
▁patience	-11.968
▁peanut	-11.968
▁romance	-11.968
▁submarine	-11.968
▁timber	-11.968
▁Princeton	-11.968
▁defect	-11.968
▁grammar	-11.968
▁hypo	-11.968
▁indication	-11.968
▁janitor	-11.968
▁uncover	-11.968
▁yeast	-11.968
▁prioritize	-11.968
▁ALS	-11.968
▁Food	-11.968
▁rival	-11.968
▁bypass	-11.968
▁posture	-11.968
▁gait	-11.968
induced	-11.9681
▁carrot	-11.9681
▁shove	-11.9681
▁valve	-11.9681
▁citizenship	-11.9681
▁bionic	-11.9681
▁entrepreneurial	-11.9682
▁missile	-11.9682
▁flex	-11.9682
▁hallway	-11.9683
▁Golden	-11.9683
▁Warren	-11.9685
▁acceptance	-11.9686
▁noticing	-11.9686
▁newborn	-11.9688
▁reflective	-11.9688
▁personalities	-11.969
▁symptom	-11.9695
▁statistically	-11.9697
▁Hold	-11.9697
▁Paulo	-11.9699
▁sang	-11.97
▁Line	-11.9711
radiat	-11.9715
▁lips	-11.9717
▁Ow	-11.972
▁Grow	-11.9729
borne	-11.9736
mming	-11.9738
▁strengthen	-11.9818
piece	-11.988
Good	-11.988
Would	-11.988
structure	-11.988
Star	-11.9885
Come	-11.9891
friendly	-11.9892
born	-11.9916
▁remov	-11.9929
traumatic	-11.9945
▁recycle	-11.9958
▁expose	-11.9959
▁societ	-11.9972
▁embryo	-11.9983
▁Connecticut	-11.9983
▁Jamaica	-11.9983
▁Kansas	-11.9983
▁Kiribati	-11.9983
▁Oklahoma	-11.9983
▁Orleans	-11.9983
▁Pittsburgh	-11.9983
▁Roosevelt	-11.9983
▁Secretary	-11.9983
▁adolescence	-11.9983
▁aluminum	-11.9983
▁appliance	-11.9983
▁arbitrary	-11.9983
▁biosphere	-11.9983
▁calculating	-11.9983
▁celebrating	-11.9983
▁easiest	-11.9983
▁elbow	-11.9983
▁equilibrium	-11.9983
▁galleries	-11.9983
▁hobby	-11.9983
▁indirect	-11.9983
▁internship	-11.9983
▁lesbian	-11.9983
▁mammoth	-11.9983
▁penetrate	-11.9983
▁playground	-11.9983
▁pregnancy	-11.9983
▁propaganda	-11.9983
▁quantity	-11.9983
▁spaghetti	-11.9983
▁specimen	-11.9983
▁subsequent	-11.9983
▁victory	-11.9983
▁voyage	-11.9983
▁nevertheless	-11.9983
▁rhino	-11.9983
▁sentiment	-11.9983
▁deplet	-11.9983
▁scope	-11.9983
▁shaping	-11.9983
▁degraded	-11.9983
▁doubling	-11.9983
▁shelves	-11.9983
▁Royal	-11.9983
▁distill	-11.9983
▁warfare	-11.9983
▁chord	-11.9983
▁Siberia	-11.9983
▁erupt	-11.9984
▁resonate	-11.9984
▁modify	-11.9984
▁transferred	-11.9984
Keith	-11.9984
▁carrier	-11.9984
▁electromagnetic	-11.9984
hhh	-11.9984
▁dwell	-11.9984
▁billboard	-11.9984
▁gym	-11.9984
▁recreate	-11.9985
▁terminal	-11.9985
▁Prime	-11.9985
▁polymer	-11.9985
▁Nazi	-11.9985
▁Brit	-11.9986
▁Danny	-11.9986
▁passport	-11.9986
▁flick	-11.9987
▁breakdown	-11.9987
▁Word	-11.9987
▁criticism	-11.9987
▁Johnny	-11.9988
▁thermo	-11.9989
▁puff	-11.9991
▁Often	-11.9991
▁Tele	-11.9992
▁Coca	-11.9992
▁weakness	-11.9994
▁colorful	-11.9998
▁dragge	-12.0004
▁fuse	-12.0005
▁illnesses	-12.0006
▁deny	-12.001
▁conception	-12.0034
▁incorporate	-12.0155
▁overlap	-12.0158
▁Sub	-12.0163
axis	-12.0174
design	-12.0189
▁geographic	-12.0192
correct	-12.0192
culture	-12.0192
Every	-12.0193
atomic	-12.0193
▁releas	-12.023
▁Side	-12.0257
▁oppos	-12.0271
▁numb	-12.0283
▁chick	-12.029
▁encrypt	-12.0293
▁compass	-12.0293
▁monk	-12.0295
▁bask	-12.0296
▁Chuck	-12.0296
▁Denmark	-12.0296
▁Galapagos	-12.0296
▁Kosovo	-12.0296
▁Service	-12.0296
▁Snowden	-12.0296
▁Taiwan	-12.0296
▁accompanie	-12.0296
▁adequate	-12.0296
▁benign	-12.0296
▁broccoli	-12.0296
▁comprehensive	-12.0296
▁confusion	-12.0296
▁eradication	-12.0296
▁evaporate	-12.0296
▁executed	-12.0296
▁existential	-12.0296
▁genital	-12.0296
▁helmet	-12.0296
▁horrific	-12.0296
▁introducing	-12.0296
▁mundane	-12.0296
▁niece	-12.0296
▁nonsense	-12.0296
▁nucleus	-12.0296
▁oyster	-12.0296
▁promising	-12.0296
▁satisfied	-12.0296
▁syringe	-12.0296
▁technologist	-12.0296
▁unemployment	-12.0296
▁velocity	-12.0296
▁visceral	-12.0296
▁Cultur	-12.0296
▁Diego	-12.0296
▁Recently	-12.0296
▁companion	-12.0296
▁rainfall	-12.0296
▁modified	-12.0296
▁harass	-12.0296
▁Death	-12.0296
▁SMS	-12.0296
▁choir	-12.0296
▁parameters	-12.0296
▁buzz	-12.0296
▁wreck	-12.0296
▁imitate	-12.0296
▁backpack	-12.0296
▁shuttle	-12.0296
esteem	-12.0296
▁coincidence	-12.0296
▁Nathan	-12.0296
▁motorcycle	-12.0296
▁masterpiece	-12.0296
▁ramp	-12.0296
▁battlefield	-12.0296
▁crust	-12.0296
▁conscience	-12.0296
▁Jobs	-12.0296
▁marvelous	-12.0297
▁entity	-12.0297
partisan	-12.0297
▁Invest	-12.0297
▁skate	-12.0297
stepping	-12.0297
▁submitted	-12.0297
▁duration	-12.0297
▁Auto	-12.0298
▁Alright	-12.0299
▁shade	-12.0299
▁Roger	-12.0299
▁distinctive	-12.0299
▁courageous	-12.0299
▁Tasmanian	-12.03
▁blanket	-12.03
▁circulation	-12.03
▁Down	-12.0301
▁copper	-12.0301
▁Leone	-12.0303
▁adaptive	-12.0304
▁explicitly	-12.0305
▁Slow	-12.0309
▁reasonably	-12.0311
▁distraction	-12.0312
▁meaningless	-12.0312
▁acceptable	-12.0314
▁Mola	-12.0317
▁antibiotic	-12.033
▁reuse	-12.0335
link	-12.0341
▁buck	-12.0385
▁incremental	-12.0451
▁flap	-12.0452
friend	-12.05
▁dye	-12.0513
government	-12.0515
security	-12.0515
credit	-12.0515
▁elect	-12.0581
▁apparent	-12.0605
▁possess	-12.0606
▁Fast	-12.0608
▁Angel	-12.0616
▁Francis	-12.0617
▁straw	-12.0618
▁equator	-12.0618
▁mortgage	-12.0618
▁Amsterdam	-12.0618
▁Arizona	-12.0618
▁Commission	-12.0618
▁Edinburgh	-12.0618
▁LGBT	-12.0618
▁Michelangelo	-12.0618
▁Muhammad	-12.0618
▁Parliament	-12.0618
▁abortion	-12.0618
▁activism	-12.0618
▁altruism	-12.0618
▁approval	-12.0618
▁athletic	-12.0618
▁calcium	-12.0618
▁commodities	-12.0618
▁commute	-12.0618
▁cybercriminal	-12.0618
▁hypotheses	-12.0618
▁intangible	-12.0618
▁maximize	-12.0618
▁migraine	-12.0618
▁octopus	-12.0618
▁paralysis	-12.0618
▁prejudice	-12.0618
▁puberty	-12.0618
▁quantitative	-12.0618
▁recipient	-12.0618
▁resonance	-12.0618
▁seafood	-12.0618
▁stratosphere	-12.0618
▁suburban	-12.0618
▁throat	-12.0618
▁vegetation	-12.0618
▁violation	-12.0618
Welcome	-12.0618
▁Hindu	-12.0618
▁pediatric	-12.0618
▁prevail	-12.0618
▁superhero	-12.0618
▁superior	-12.0618
▁Information	-12.0618
▁Julie	-12.0618
▁radar	-12.0618
▁geological	-12.0618
▁dentist	-12.0618
▁Leader	-12.0618
▁halve	-12.0618
▁jury	-12.0618
▁tennis	-12.0618
▁bombsight	-12.0618
▁Freedom	-12.0618
▁grape	-12.0618
▁compact	-12.0619
▁permit	-12.0619
▁prophet	-12.0619
▁hallucinations	-12.0619
▁Radio	-12.0619
▁midnight	-12.0619
▁nitr	-12.0619
▁drip	-12.0619
▁scroll	-12.0619
▁keen	-12.0619
▁Find	-12.0619
▁catalog	-12.062
▁temptation	-12.0621
▁deployment	-12.0621
▁Norman	-12.0622
▁presidential	-12.0623
▁dependence	-12.0624
▁Tech	-12.0625
▁Justice	-12.0625
▁Lady	-12.0625
▁shipped	-12.0625
▁undermine	-12.0628
▁Jill	-12.063
▁Susan	-12.0633
▁Land	-12.0641
Forget	-12.0645
▁promotion	-12.0651
bran	-12.0673
▁justify	-12.0698
▁geographical	-12.0726
▁hatch	-12.0754
onomic	-12.0768
▁Rica	-12.0769
▁grim	-12.08
lethal	-12.0848
performing	-12.0848
wheel	-12.0848
positive	-12.0848
specific	-12.0848
metric	-12.0861
▁cultivate	-12.0922
▁complicat	-12.0927
▁guilt	-12.0941
▁stole	-12.0946
▁enforce	-12.0949
▁Virgin	-12.095
▁Arduino	-12.0952
▁Babylon	-12.0952
▁Bangalore	-12.0952
▁Company	-12.0952
▁Lewis	-12.0952
▁Luckily	-12.0952
▁Skype	-12.0952
▁Sydney	-12.0952
▁Victorian	-12.0952
▁anesthesia	-12.0952
▁auditorium	-12.0952
▁crocodile	-12.0952
▁delusion	-12.0952
▁fingertips	-12.0952
▁gratitude	-12.0952
▁hectare	-12.0952
▁intricate	-12.0952
▁irrelevant	-12.0952
▁jacket	-12.0952
▁loneliness	-12.0952
▁obscure	-12.0952
▁pathogens	-12.0952
▁praise	-12.0952
▁rhetoric	-12.0952
▁shield	-12.0952
▁submersible	-12.0952
▁treasure	-12.0952
▁turbine	-12.0952
▁unacceptable	-12.0952
▁unintended	-12.0952
▁wavelength	-12.0952
▁wolves	-12.0952
▁wrestle	-12.0952
▁Natasha	-12.0952
▁Teszler	-12.0952
▁chalk	-12.0952
▁declining	-12.0952
▁imperfect	-12.0952
▁offshore	-12.0952
▁optimal	-12.0952
▁royal	-12.0952
▁surplus	-12.0952
▁attorney	-12.0952
▁choreograph	-12.0952
▁summary	-12.0952
▁collide	-12.0952
▁orgasm	-12.0952
▁Desert	-12.0952
▁depressing	-12.0952
▁regain	-12.0952
▁obey	-12.0952
▁Guinea	-12.0952
▁minimize	-12.0952
▁Emily	-12.0952
▁recurr	-12.0952
▁verge	-12.0952
Excuse	-12.0952
▁alliance	-12.0952
▁inviting	-12.0952
▁censorship	-12.0952
▁versa	-12.0952
▁jewelry	-12.0953
▁multiverse	-12.0953
▁orphanage	-12.0954
▁coding	-12.0954
▁shallow	-12.0954
▁Nicole	-12.0955
▁grassland	-12.0955
▁Costa	-12.0955
▁Democratic	-12.0957
▁wax	-12.0958
▁Solar	-12.0958
▁comparable	-12.0959
▁Report	-12.096
▁Yale	-12.096
▁dude	-12.0963
▁possession	-12.0964
tolerant	-12.0965
▁wallet	-12.0968
▁stir	-12.0971
▁mock	-12.0976
▁rage	-12.0977
▁conceive	-12.0991
▁corporation	-12.1007
▁hollow	-12.1012
▁neurological	-12.1014
entrepreneurship	-12.1045
▁characterize	-12.1092
▁Carol	-12.1157
public	-12.1192
resistant	-12.1192
funded	-12.1193
resolution	-12.1193
pool	-12.1195
▁Austria	-12.1207
▁literal	-12.1284
▁volcan	-12.1289
▁outrage	-12.1296
▁Alabama	-12.1296
▁Economic	-12.1296
▁Exactly	-12.1296
▁Katrina	-12.1296
▁LHC	-12.1296
▁Massachusetts	-12.1296
▁UCLA	-12.1296
▁Ultimately	-12.1296
▁accommodate	-12.1296
▁annoying	-12.1296
▁cartilage	-12.1296
▁certificate	-12.1296
▁compliment	-12.1296
▁dragonflies	-12.1296
▁entitled	-12.1296
▁ethanol	-12.1296
▁exclude	-12.1296
▁frightened	-12.1296
▁glorious	-12.1296
▁glory	-12.1296
▁grief	-12.1296
▁guidance	-12.1296
▁happiest	-12.1296
▁hypothetical	-12.1296
▁imaginary	-12.1296
▁limestone	-12.1296
▁monsoon	-12.1296
▁railroad	-12.1296
▁replied	-12.1296
▁savanna	-12.1296
▁secular	-12.1296
▁sulfur	-12.1296
▁surrender	-12.1296
▁tuberculosis	-12.1296
▁unemployed	-12.1296
▁venue	-12.1296
▁wetsuit	-12.1296
▁Alpha	-12.1296
▁Copernic	-12.1296
▁Finland	-12.1296
▁beloved	-12.1296
▁debris	-12.1296
▁draft	-12.1296
▁impaired	-12.1296
▁rediscover	-12.1296
▁vector	-12.1296
▁Cairo	-12.1296
▁ideological	-12.1296
▁Jerry	-12.1296
▁pepper	-12.1296
▁unstable	-12.1296
▁provision	-12.1296
▁Doaa	-12.1296
▁meditation	-12.1296
▁lamb	-12.1296
▁denied	-12.1296
▁divine	-12.1297
▁hind	-12.1297
▁snapshot	-12.1297
▁crater	-12.1297
▁haunt	-12.1297
▁chap	-12.1297
▁supercomputer	-12.1297
▁reply	-12.1297
▁Help	-12.1297
▁knot	-12.1297
▁railway	-12.1297
▁matern	-12.1297
▁chill	-12.1297
▁Though	-12.1298
▁restrictions	-12.1298
▁Point	-12.1298
▁standpoint	-12.1298
▁scanned	-12.1298
▁Nico	-12.1298
▁consultant	-12.1299
▁mythology	-12.1299
▁biotech	-12.1299
▁Ooh	-12.1299
▁pollute	-12.1299
▁stiff	-12.1299
▁emergent	-12.1301
▁exploitation	-12.1305
▁disruption	-12.1305
▁similarities	-12.1307
▁mash	-12.1336
▁employee	-12.1367
▁seize	-12.1392
▁Astro	-12.1395
▁revolutionize	-12.1419
▁Brea	-12.1426
▁joyful	-12.1453
▁epic	-12.148
aunch	-12.1496
keeper	-12.15
▁fisc	-12.1509
▁migrat	-12.1522
storing	-12.1537
organism	-12.155
group	-12.155
writing	-12.155
growing	-12.1551
Because	-12.1551
great	-12.1551
carbon	-12.1551
market	-12.1555
mother	-12.1556
▁Julian	-12.1592
lude	-12.1608
▁hung	-12.1639
placing	-12.1652
▁jewel	-12.1652
ompanies	-12.1652
▁refrigera	-12.1653
regulating	-12.1654
▁Babbage	-12.1654
▁Baltimore	-12.1654
▁Believe	-12.1654
▁Certainly	-12.1654
▁Especially	-12.1654
▁Language	-12.1654
▁Mediterranean	-12.1654
▁Vegas	-12.1654
▁Whitopia	-12.1654
▁acceleration	-12.1654
▁algebra	-12.1654
▁analytical	-12.1654
▁arriving	-12.1654
▁bandwidth	-12.1654
▁burial	-12.1654
▁census	-12.1654
▁contagious	-12.1654
▁excellence	-12.1654
▁graffiti	-12.1654
▁hurdle	-12.1654
▁implicit	-12.1654
▁improbable	-12.1654
▁incarceration	-12.1654
▁incomplete	-12.1654
▁larvae	-12.1654
▁malnutrition	-12.1654
▁millisecond	-12.1654
▁nectar	-12.1654
▁negotiating	-12.1654
▁ozone	-12.1654
▁pivot	-12.1654
▁policing	-12.1654
▁pristine	-12.1654
▁psyche	-12.1654
▁relevance	-12.1654
▁remittance	-12.1654
▁responsive	-12.1654
▁simulator	-12.1654
▁solemn	-12.1654
▁symphony	-12.1654
▁synthesis	-12.1654
▁thriving	-12.1654
▁tropics	-12.1654
▁unequal	-12.1654
▁vapor	-12.1654
▁worthwhile	-12.1654
phobic	-12.1654
▁Wilson	-12.1654
▁abusive	-12.1654
▁condemn	-12.1654
▁Change	-12.1654
▁lawsuit	-12.1654
▁bloom	-12.1654
colonial	-12.1654
▁eager	-12.1654
▁recreation	-12.1654
▁erotic	-12.1654
▁queue	-12.1654
▁sought	-12.1654
▁Cross	-12.1654
▁nanotechnology	-12.1654
▁spawn	-12.1654
▁Kelly	-12.1654
▁aquatic	-12.1654
▁instability	-12.1654
▁portable	-12.1654
▁cried	-12.1654
▁Index	-12.1654
▁Scottish	-12.1655
▁continually	-12.1655
▁continuum	-12.1655
▁Franklin	-12.1655
▁Somehow	-12.1656
▁rooftop	-12.1656
odd	-12.1656
▁methodology	-12.1656
▁Wild	-12.1656
▁incidentally	-12.1656
▁rotating	-12.1657
▁bunk	-12.1657
▁encryption	-12.1657
▁innate	-12.1657
unshine	-12.1658
▁Pink	-12.1661
▁misuse	-12.1661
▁digits	-12.1661
▁Master	-12.1661
▁boson	-12.1662
▁Darwinian	-12.1663
▁stall	-12.1664
▁bombard	-12.1665
▁Full	-12.1666
▁reconnect	-12.1687
nanometer	-12.1714
▁cardio	-12.1741
varian	-12.1771
derived	-12.18
▁originate	-12.184
Barack	-12.1841
spiring	-12.1893
conflict	-12.192
appropriate	-12.192
Great	-12.1921
solving	-12.1921
with	-12.1921
color	-12.1923
cycle	-12.1923
value	-12.1931
▁Cru	-12.1994
▁excite	-12.1994
▁dominate	-12.1996
▁inflate	-12.201
▁spontaneous	-12.2011
▁mortal	-12.2022
ploy	-12.2022
▁Euro	-12.2023
▁erect	-12.2024
▁advent	-12.2024
▁Already	-12.2024
▁Beethoven	-12.2024
▁Bruce	-12.2024
▁DARPA	-12.2024
▁Kyoto	-12.2024
▁Ministry	-12.2024
▁Palestine	-12.2024
▁Perfect	-12.2024
▁Renaissance	-12.2024
▁SARS	-12.2024
▁Sputnik	-12.2024
▁Ushahidi	-12.2024
▁Venice	-12.2024
▁adjacent	-12.2024
▁altruist	-12.2024
▁ambassador	-12.2024
▁anecdote	-12.2024
▁astronomical	-12.2024
▁cerebral	-12.2024
▁charities	-12.2024
▁estrogen	-12.2024
▁faculty	-12.2024
▁fracture	-12.2024
▁fundraising	-12.2024
▁hurricane	-12.2024
▁investigating	-12.2024
▁laundry	-12.2024
▁mutant	-12.2024
▁nurturing	-12.2024
▁perceptual	-12.2024
▁prototyping	-12.2024
▁provoke	-12.2024
▁puncture	-12.2024
▁repertoire	-12.2024
▁servant	-12.2024
▁supplement	-12.2024
▁synchronize	-12.2024
▁unpredictable	-12.2024
▁varieties	-12.2024
▁vicious	-12.2024
▁capsule	-12.2024
▁dictate	-12.2024
▁embark	-12.2024
▁mysteries	-12.2024
▁tinker	-12.2024
▁Network	-12.2024
▁Patient	-12.2024
▁racism	-12.2024
▁swear	-12.2024
▁Cooper	-12.2024
▁lazy	-12.2024
▁unaware	-12.2024
▁cheek	-12.2024
▁meadow	-12.2024
▁EDI	-12.2024
▁wool	-12.2024
▁neurogenesis	-12.2024
▁underpin	-12.2024
▁forehead	-12.2024
▁meanwhile	-12.2024
▁Scotland	-12.2024
▁urine	-12.2024
▁preferred	-12.2025
▁Speak	-12.2025
▁packaging	-12.2025
▁petals	-12.2025
▁Students	-12.2025
▁decode	-12.2026
▁Irish	-12.2026
▁misery	-12.2026
▁raft	-12.2026
▁arose	-12.2027
▁Fox	-12.2028
▁attachment	-12.2028
▁constructive	-12.2029
▁dining	-12.203
▁iteration	-12.203
▁slot	-12.2048
▁feat	-12.2061
▁Julia	-12.2089
▁quiz	-12.2093
enberg	-12.2117
▁linguistic	-12.2121
dragging	-12.2133
quarters	-12.2188
▁tempt	-12.2261
educated	-12.2305
energy	-12.2305
typical	-12.2306
learn	-12.2307
proving	-12.2325
▁demonstrat	-12.2338
▁interconnect	-12.2384
▁uncertain	-12.2407
symmetric	-12.2408
▁municipal	-12.2409
▁twenty	-12.2409
counterintuitive	-12.2409
disciplinary	-12.2409
▁Amazing	-12.2409
▁Depression	-12.2409
▁Engine	-12.2409
▁Guatemala	-12.2409
▁Jazeera	-12.2409
▁Learning	-12.2409
▁Margaret	-12.2409
▁Pantheon	-12.2409
▁Pixar	-12.2409
▁Toronto	-12.2409
▁administrator	-12.2409
▁agnostic	-12.2409
▁antidepressant	-12.2409
▁cognition	-12.2409
▁communal	-12.2409
▁convenience	-12.2409
▁facilitate	-12.2409
▁foreground	-12.2409
▁insecure	-12.2409
▁integrating	-12.2409
▁lightweight	-12.2409
▁livelihood	-12.2409
▁nickname	-12.2409
▁nuance	-12.2409
▁orangutan	-12.2409
▁pancreatic	-12.2409
▁paragraph	-12.2409
▁radius	-12.2409
▁rainbow	-12.2409
▁reconcile	-12.2409
▁rigorous	-12.2409
▁scuba	-12.2409
▁simplistic	-12.2409
▁substitute	-12.2409
▁suspicious	-12.2409
▁template	-12.2409
▁testosterone	-12.2409
▁vibrating	-12.2409
▁worries	-12.2409
▁Lawrence	-12.2409
▁Ninety	-12.2409
▁Samuel	-12.2409
▁Virtual	-12.2409
▁disseminat	-12.2409
▁empirical	-12.2409
▁latitude	-12.2409
▁physiological	-12.2409
▁pronounce	-12.2409
▁retrofit	-12.2409
▁solitary	-12.2409
▁Agency	-12.2409
▁Group	-12.2409
▁automated	-12.2409
▁checklist	-12.2409
▁homosexual	-12.2409
▁racist	-12.2409
▁Marshall	-12.2409
▁Modern	-12.2409
▁booth	-12.2409
▁landfill	-12.2409
▁Spider	-12.2409
▁bluefin	-12.2409
▁worn	-12.2409
▁Several	-12.2409
▁uplift	-12.2409
▁Glass	-12.2409
▁melody	-12.2409
▁mutate	-12.2409
▁metropolitan	-12.2409
▁peek	-12.2409
▁crises	-12.2409
▁gossip	-12.2409
▁Model	-12.2409
vocation	-12.2409
▁personnel	-12.2409
▁teddy	-12.2409
▁Emma	-12.2409
▁disperse	-12.2409
▁Better	-12.2409
Happy	-12.2409
▁interfere	-12.2409
▁Otherwise	-12.2409
▁biotechnology	-12.2409
▁League	-12.2409
alactic	-12.2409
▁rubble	-12.2409
▁boyfriend	-12.2409
▁pension	-12.2409
▁cult	-12.241
▁ignorant	-12.241
▁pearl	-12.241
▁Deep	-12.241
▁aviation	-12.241
▁nomad	-12.241
▁MoMA	-12.241
▁polish	-12.241
▁erectus	-12.241
▁announcement	-12.2411
▁Program	-12.2411
▁nun	-12.2411
▁bass	-12.2411
▁viewpoint	-12.2412
▁chemo	-12.2412
▁clash	-12.2413
▁moderate	-12.2426
▁tolerate	-12.2426
chlor	-12.2432
▁Merc	-12.2467
fashioned	-12.2525
Psycho	-12.2543
▁Mov	-12.2567
▁humbl	-12.2593
trained	-12.2605
biotic	-12.2672
white	-12.2705
model	-12.2706
good	-12.2707
burn	-12.2707
green	-12.271
▁announce	-12.2778
▁frequent	-12.2796
▁utilit	-12.2798
▁marvel	-12.2807
illennium	-12.2808
hypertension	-12.2809
retroviral	-12.2809
▁Avenue	-12.2809
▁Darfur	-12.2809
▁Democracy	-12.2809
▁Differen	-12.2809
▁Hopefully	-12.2809
▁Incredible	-12.2809
▁Oregon	-12.2809
▁RISD	-12.2809
▁Simple	-12.2809
▁Wolfram	-12.2809
▁ambiguity	-12.2809
▁catalyst	-12.2809
▁confusing	-12.2809
▁devastated	-12.2809
▁educating	-12.2809
▁evident	-12.2809
▁hippocampus	-12.2809
▁holistic	-12.2809
▁illiterate	-12.2809
▁inadequate	-12.2809
▁irrigation	-12.2809
▁liberation	-12.2809
▁lymph	-12.2809
▁mammogram	-12.2809
▁paradise	-12.2809
▁pessimist	-12.2809
▁pneumonia	-12.2809
▁preservation	-12.2809
▁respiratory	-12.2809
▁seizure	-12.2809
▁sensible	-12.2809
▁unfinished	-12.2809
▁Dylan	-12.2809
▁Murray	-12.2809
▁Pepsi	-12.2809
▁Taylor	-12.2809
▁erosion	-12.2809
▁excerpt	-12.2809
▁gecko	-12.2809
▁introvert	-12.2809
▁miraculous	-12.2809
▁offensive	-12.2809
▁retrospect	-12.2809
▁vibrate	-12.2809
▁Village	-12.2809
▁congress	-12.2809
▁literary	-12.2809
▁resign	-12.2809
▁scalable	-12.2809
▁sociologist	-12.2809
▁undercover	-12.2809
▁Grace	-12.2809
▁jeans	-12.2809
▁Type	-12.2809
▁tuck	-12.2809
▁unsustainable	-12.2809
▁behaving	-12.2809
▁ruling	-12.2809
▁Freud	-12.2809
▁strive	-12.2809
▁unveil	-12.2809
▁Algeria	-12.2809
▁Sadly	-12.2809
▁Neither	-12.2809
▁plunge	-12.2809
▁discourse	-12.2809
▁variant	-12.2809
▁speculate	-12.2809
▁thunder	-12.281
▁outrageous	-12.281
▁adulthood	-12.281
▁superstar	-12.281
▁Among	-12.281
▁preschool	-12.281
▁aspire	-12.281
▁Prison	-12.2811
▁curse	-12.2811
▁veterinarian	-12.2811
▁blogging	-12.2812
▁packet	-12.2826
replicating	-12.2895
▁implication	-12.2937
attle	-12.2984
▁Ferr	-12.3017
▁slap	-12.3041
▁derive	-12.3057
▁metaphorical	-12.3091
wept	-12.3093
organizing	-12.3121
industrial	-12.3122
driving	-12.3122
fused	-12.3152
▁confuse	-12.3197
▁explicit	-12.3212
Jeopardy	-12.3225
Sweeney	-12.3225
▁AIMS	-12.3225
▁Armstrong	-12.3225
▁Behind	-12.3225
▁Colorado	-12.3225
▁Compassion	-12.3225
▁Corporation	-12.3225
▁Economist	-12.3225
▁Energy	-12.3225
▁Everglades	-12.3225
▁Holocaust	-12.3225
▁Magazine	-12.3225
▁Mississippi	-12.3225
▁Oakland	-12.3225
▁Reagan	-12.3225
▁Rosetta	-12.3225
▁Scratch	-12.3225
▁Starbucks	-12.3225
▁Tennessee	-12.3225
▁Truth	-12.3225
▁Vancouver	-12.3225
▁Windows	-12.3225
▁alpha	-12.3225
▁antibodies	-12.3225
▁auditory	-12.3225
▁bioluminescence	-12.3225
▁capacities	-12.3225
▁certified	-12.3225
▁coherent	-12.3225
▁conspiracy	-12.3225
▁constitute	-12.3225
▁cruise	-12.3225
▁damaging	-12.3225
▁decentralized	-12.3225
▁democratize	-12.3225
▁diffuse	-12.3225
▁discomfort	-12.3225
▁efficacy	-12.3225
▁embarrassment	-12.3225
▁emphasis	-12.3225
▁exoplanet	-12.3225
▁extremist	-12.3225
▁eyebrow	-12.3225
▁fertility	-12.3225
▁giraffe	-12.3225
▁homicide	-12.3225
▁humiliation	-12.3225
▁identification	-12.3225
▁immigration	-12.3225
▁instructor	-12.3225
▁juggling	-12.3225
▁mammography	-12.3225
▁pheromone	-12.3225
▁prosecute	-12.3225
▁prostitute	-12.3225
▁psychic	-12.3225
▁sapiens	-12.3225
▁semester	-12.3225
▁simplify	-12.3225
▁solidarity	-12.3225
▁stimulus	-12.3225
▁stunning	-12.3225
▁sympathy	-12.3225
▁taxpayer	-12.3225
▁tectonic	-12.3225
▁tiniest	-12.3225
▁wrinkle	-12.3225
▁CNN	-12.3225
▁Miami	-12.3225
▁asylum	-12.3225
▁hurry	-12.3225
▁narco	-12.3225
▁Vinci	-12.3225
▁discrete	-12.3225
▁sponge	-12.3225
▁restoration	-12.3225
▁pledge	-12.3225
▁ingenious	-12.3225
▁seamless	-12.3225
▁Idaho	-12.3225
▁socket	-12.3225
▁hiring	-12.3225
▁huh	-12.3225
▁motto	-12.3225
▁embed	-12.3225
▁Personal	-12.3225
▁plague	-12.3225
▁bookstore	-12.3225
▁Compare	-12.3225
▁detach	-12.3226
▁auction	-12.3226
▁pinpoint	-12.3226
▁Text	-12.3226
▁suitcase	-12.3226
▁Mahat	-12.3226
▁fingerprint	-12.3226
▁counterpart	-12.3226
▁notebook	-12.3226
▁plaster	-12.3226
▁hike	-12.3226
▁envy	-12.3226
▁scoop	-12.3226
▁lesion	-12.3227
▁pedal	-12.3227
▁nudge	-12.3227
▁enroll	-12.3227
▁porn	-12.3232
Uncle	-12.3297
▁reviv	-12.3326
rried	-12.3371
▁circumstance	-12.3372
generated	-12.3412
present	-12.3553
author	-12.3557
plus	-12.3557
grown	-12.3557
growth	-12.3557
people	-12.3557
Get	-12.356
conceived	-12.3609
organized	-12.3637
▁deliberate	-12.3647
▁Count	-12.3649
▁contradict	-12.3649
nterviewer	-12.3659
echanical	-12.366
rthodox	-12.366
disproportionate	-12.366
▁Agnes	-12.366
▁Bonobo	-12.366
▁Bulgaria	-12.366
▁Cameron	-12.366
▁Circle	-12.366
▁Club	-12.366
▁Conference	-12.366
▁Discover	-12.366
▁Dubai	-12.366
▁Edison	-12.366
▁Fahrenheit	-12.366
▁Federal	-12.366
▁Fortune	-12.366
▁Goliath	-12.366
▁Guardian	-12.366
▁Kibera	-12.366
▁Madagascar	-12.366
▁Nevada	-12.366
▁Pentagon	-12.366
▁Progress	-12.366
▁Russell	-12.366
▁StoryCorps	-12.366
▁Strange	-12.366
▁Tahrir	-12.366
▁Tamiflu	-12.366
▁Tehran	-12.366
▁accelerator	-12.366
▁acronym	-12.366
▁arithmetic	-12.366
▁balancing	-12.366
▁bioluminescent	-12.366
▁byproduct	-12.366
▁cumulative	-12.366
▁cyclist	-12.366
▁degradation	-12.366
▁disbelief	-12.366
▁disparate	-12.366
▁downstairs	-12.366
▁hominid	-12.366
▁horrified	-12.366
▁imaginative	-12.366
▁incubator	-12.366
▁integral	-12.366
▁jurisdiction	-12.366
▁mangrove	-12.366
▁memorable	-12.366
▁misconception	-12.366
▁moisture	-12.366
▁oblivio	-12.366
▁periphery	-12.366
▁presumably	-12.366
▁prevalent	-12.366
▁propeller	-12.366
▁revenge	-12.366
▁ridicule	-12.366
▁sprawl	-12.366
▁tadpole	-12.366
▁translating	-12.366
▁vibrant	-12.366
▁virtuous	-12.366
▁whistling	-12.366
Fantastic	-12.366
▁Record	-12.366
▁Tweet	-12.366
▁applaud	-12.366
▁astounding	-12.366
▁audition	-12.366
▁beekeepers	-12.366
▁coalition	-12.366
▁cosmetic	-12.366
▁hijack	-12.366
▁instinctively	-12.366
▁modular	-12.366
▁ninth	-12.366
▁quantify	-12.366
▁starvation	-12.366
▁swirl	-12.366
▁BBC	-12.366
▁Falcon	-12.366
▁Hitler	-12.366
▁fission	-12.366
▁reckless	-12.366
▁sniff	-12.366
▁sterile	-12.366
▁toddler	-12.366
▁league	-12.366
▁tweak	-12.366
▁dominance	-12.366
▁dried	-12.366
▁wiring	-12.366
▁qualify	-12.366
▁inhabitants	-12.366
▁Isaac	-12.366
▁Gaza	-12.366
▁nud	-12.366
▁scandal	-12.366
▁Creative	-12.366
▁classmates	-12.366
▁guidelines	-12.366
▁residu	-12.366
▁animated	-12.3661
▁vague	-12.3661
▁Saint	-12.3661
▁uprising	-12.3661
▁dictatorship	-12.3661
▁Europa	-12.3661
▁banjo	-12.3661
▁championship	-12.3661
▁messaging	-12.3661
▁pub	-12.3661
▁shave	-12.3661
▁Police	-12.3661
▁bolt	-12.3662
▁Jenn	-12.3662
▁Moses	-12.3664
egan	-12.3664
▁Market	-12.3667
▁Self	-12.3669
simil	-12.367
▁Diet	-12.3672
▁cancel	-12.3686
izzy	-12.3709
Contra	-12.3749
fulfilling	-12.3769
cross	-12.3831
Huh	-12.3911
uestion	-12.3965
rhythm	-12.4011
function	-12.4011
Just	-12.4011
gatherer	-12.4049
genesis	-12.4064
▁dedicate	-12.4086
▁amaze	-12.4086
▁thrill	-12.409
▁browse	-12.4106
▁Antarctic	-12.4109
▁hallucinat	-12.4114
▁intellect	-12.4114
▁brute	-12.4115
▁Achilles	-12.4115
▁Beyond	-12.4115
▁CERN	-12.4115
▁Captain	-12.4115
▁Channel	-12.4115
▁Collider	-12.4115
▁Convention	-12.4115
▁Digital	-12.4115
▁Director	-12.4115
▁Essentially	-12.4115
▁Exxon	-12.4115
▁Flickr	-12.4115
▁Galileo	-12.4115
▁Gordon	-12.4115
▁Houston	-12.4115
▁Jonathan	-12.4115
▁Lakota	-12.4115
▁Nanopatch	-12.4115
▁Sebastian	-12.4115
▁Toyota	-12.4115
▁admission	-12.4115
▁aerodynamic	-12.4115
▁amplify	-12.4115
▁apparatus	-12.4115
▁arrival	-12.4115
▁blunt	-12.4115
▁browsing	-12.4115
▁butterflies	-12.4115
▁cafeteria	-12.4115
▁carpenter	-12.4115
▁centigrade	-12.4115
▁ceramic	-12.4115
▁constellation	-12.4115
▁contributor	-12.4115
▁daunting	-12.4115
▁deceased	-12.4115
▁desperation	-12.4115
▁destined	-12.4115
▁disposal	-12.4115
▁drank	-12.4115
▁drastic	-12.4115
▁eliminating	-12.4115
▁elusive	-12.4115
▁energetic	-12.4115
▁epiphany	-12.4115
▁excavat	-12.4115
▁hunch	-12.4115
▁ignite	-12.4115
▁junior	-12.4115
▁lettuce	-12.4115
▁lithium	-12.4115
▁napkin	-12.4115
▁nursing	-12.4115
▁participatory	-12.4115
▁penicillin	-12.4115
▁perpetual	-12.4115
▁precipitat	-12.4115
▁propulsion	-12.4115
▁reception	-12.4115
▁reservation	-12.4115
▁residential	-12.4115
▁sequester	-12.4115
▁skyscraper	-12.4115
▁supplier	-12.4115
▁susceptible	-12.4115
▁tactics	-12.4115
▁unfamiliar	-12.4115
▁unlimited	-12.4115
▁unnatural	-12.4115
▁unnecessary	-12.4115
▁unpleasant	-12.4115
▁unthinkable	-12.4115
▁uranium	-12.4115
▁widow	-12.4115
▁yogurt	-12.4115
▁MBA	-12.4115
▁Oliver	-12.4115
▁Southeast	-12.4115
▁cereal	-12.4115
▁courtyard	-12.4115
▁gorilla	-12.4115
▁magnify	-12.4115
▁microwave	-12.4115
▁populated	-12.4115
▁proposing	-12.4115
▁transgender	-12.4115
lecommunications	-12.4115
▁Vietnamese	-12.4115
▁bruise	-12.4115
▁facade	-12.4115
▁fungus	-12.4115
▁indulge	-12.4115
▁prompt	-12.4115
▁Jesse	-12.4115
▁Survey	-12.4115
▁maze	-12.4115
▁CIA	-12.4115
▁arteries	-12.4115
▁gently	-12.4115
▁shiny	-12.4115
▁Witness	-12.4115
▁Aaron	-12.4115
▁Trust	-12.4115
▁hydrocarbon	-12.4115
▁Potter	-12.4115
▁pollinate	-12.4115
▁casualties	-12.4115
▁Glenn	-12.4115
▁Lanka	-12.4115
▁enact	-12.4115
▁IMF	-12.4115
▁beaver	-12.4115
▁replicator	-12.4115
▁Caltech	-12.4115
▁brink	-12.4115
▁Wired	-12.4115
▁Malawi	-12.4116
▁hull	-12.4116
▁agile	-12.4116
▁clam	-12.4116
▁Theater	-12.4116
legged	-12.4116
▁halt	-12.4118
Solomon	-12.412
▁electora	-12.4121
▁Face	-12.4121
▁Plato	-12.4123
▁patrol	-12.4152
obbing	-12.418
▁valu	-12.4209
▁foi	-12.4284
cule	-12.4305
▁resembl	-12.4379
Cause	-12.4401
▁ensu	-12.4442
imposed	-12.4481
abilities	-12.4486
computer	-12.4487
technology	-12.4487
Hello	-12.4487
science	-12.4487
machine	-12.4487
species	-12.4488
blood	-12.4488
▁captur	-12.4536
▁ignor	-12.4538
▁swam	-12.4552
▁appreciat	-12.4552
stabiliz	-12.4565
▁fertilize	-12.457
▁withdraw	-12.4575
nutrient	-12.4588
▁narrat	-12.459
extrovert	-12.4591
▁Anonymous	-12.4591
▁Bahamas	-12.4591
▁Cassini	-12.4591
▁Current	-12.4591
▁Financial	-12.4591
▁Friedman	-12.4591
▁Hungarian	-12.4591
▁Innovation	-12.4591
▁Jennifer	-12.4591
▁Movember	-12.4591
▁Panbanisha	-12.4591
▁Photoshop	-12.4591
▁Raisuddin	-12.4591
▁WHO	-12.4591
▁accumulation	-12.4591
▁acquisition	-12.4591
▁advancing	-12.4591
▁adversity	-12.4591
▁appetite	-12.4591
▁apprentice	-12.4591
▁atrazine	-12.4591
▁availability	-12.4591
▁barbershop	-12.4591
▁bronze	-12.4591
▁cochlea	-12.4591
▁communist	-12.4591
▁compatible	-12.4591
▁cosmology	-12.4591
▁deflect	-12.4591
▁humidity	-12.4591
▁hummingbird	-12.4591
▁hyena	-12.4591
▁hygiene	-12.4591
▁imbalance	-12.4591
▁immoral	-12.4591
▁immunity	-12.4591
▁incarcerated	-12.4591
▁mutilate	-12.4591
▁premature	-12.4591
▁primordial	-12.4591
▁proliferation	-12.4591
▁prosperous	-12.4591
▁reservoir	-12.4591
▁socioeconomic	-12.4591
▁subsidies	-12.4591
▁terrestrial	-12.4591
▁treadmill	-12.4591
▁tribute	-12.4591
▁urgency	-12.4591
▁variability	-12.4591
▁vegetarian	-12.4591
megawatt	-12.4591
▁Bonica	-12.4591
▁Rachel	-12.4591
▁aquaculture	-12.4591
▁comprised	-12.4591
▁crochet	-12.4591
▁decipher	-12.4591
▁hazard	-12.4591
▁heartbeat	-12.4591
▁mismatch	-12.4591
▁width	-12.4591
▁PDF	-12.4591
▁Raise	-12.4591
▁Soldier	-12.4591
▁True	-12.4591
▁spoil	-12.4591
▁ultrasound	-12.4591
▁cherish	-12.4591
▁deceive	-12.4591
▁durable	-12.4591
▁modification	-12.4591
▁pluck	-12.4591
▁zoning	-12.4591
assembling	-12.4591
▁hippie	-12.4591
▁proxy	-12.4591
▁Control	-12.4591
▁utopia	-12.4591
▁Protect	-12.4591
▁enlist	-12.4591
▁ripple	-12.4591
▁Ryan	-12.4591
▁policymakers	-12.4591
▁salad	-12.4591
▁geologist	-12.4591
▁roost	-12.4591
▁notorious	-12.4591
▁condense	-12.4591
▁pornography	-12.4591
▁colonize	-12.4591
▁scripture	-12.4591
▁benchmark	-12.4591
▁lemon	-12.4591
▁interference	-12.4591
▁scarcity	-12.4591
▁Planet	-12.4591
▁rumor	-12.4591
▁bait	-12.4592
▁comedian	-12.4592
▁verify	-12.4593
▁allocate	-12.4597
spective	-12.4598
▁restrain	-12.4609
▁Understand	-12.4612
▁vase	-12.4655
▁peacekeep	-12.469
bureaucratic	-12.4763
▁slid	-12.4859
blown	-12.4987
confidence	-12.4987
course	-12.4987
intelligent	-12.4987
definition	-12.4987
Maybe	-12.4987
People	-12.4988
▁Scot	-12.4989
▁Effect	-12.5091
nstrual	-12.5091
wrestling	-12.5091
▁Ecuador	-12.5091
▁Everywhere	-12.5091
▁Excellent	-12.5091
▁Hurricane	-12.5091
▁Lesterland	-12.5091
▁Maldives	-12.5091
▁Melinda	-12.5091
▁Midwest	-12.5091
▁Moscow	-12.5091
▁Papua	-12.5091
▁Philippines	-12.5091
▁Special	-12.5091
▁Thousands	-12.5091
▁Traditional	-12.5091
▁accumulating	-12.5091
▁advocacy	-12.5091
▁analyst	-12.5091
▁announcing	-12.5091
▁anonymity	-12.5091
▁appointment	-12.5091
▁arguably	-12.5091
▁automotive	-12.5091
▁charcoal	-12.5091
▁charging	-12.5091
▁clarify	-12.5091
▁complement	-12.5091
▁desalination	-12.5091
▁detriment	-12.5091
▁discharge	-12.5091
▁doctrine	-12.5091
▁doodling	-12.5091
▁dreadful	-12.5091
▁dwarf	-12.5091
▁elastic	-12.5091
▁energies	-12.5091
▁enslave	-12.5091
▁exaggerate	-12.5091
▁exhilarating	-12.5091
▁fascination	-12.5091
▁fatigue	-12.5091
▁feminine	-12.5091
▁illuminate	-12.5091
▁inferior	-12.5091
▁infinity	-12.5091
▁influenza	-12.5091
▁interdependenc	-12.5091
▁jealous	-12.5091
▁knitting	-12.5091
▁monopoly	-12.5091
▁philanthropist	-12.5091
▁plasma	-12.5091
▁pollinators	-12.5091
▁pragmatic	-12.5091
▁prominent	-12.5091
▁rearrange	-12.5091
▁scissors	-12.5091
▁separating	-12.5091
▁serotonin	-12.5091
▁stunned	-12.5091
▁supermassive	-12.5091
▁toothbrush	-12.5091
▁unhealthy	-12.5091
sanitary	-12.5091
▁Pearl	-12.5091
▁embryonic	-12.5091
▁glance	-12.5091
▁unravel	-12.5091
▁utilize	-12.5091
▁Collect	-12.5091
▁Hebrew	-12.5091
▁credible	-12.5091
▁dispens	-12.5091
▁steak	-12.5091
▁stockpile	-12.5091
▁venom	-12.5091
▁Hudson	-12.5091
▁Titus	-12.5091
▁amphibi	-12.5091
▁blaz	-12.5091
▁gyrus	-12.5091
▁wilderness	-12.5091
▁disclose	-12.5091
▁snack	-12.5091
▁Harlem	-12.5091
▁emulate	-12.5091
▁descendants	-12.5091
▁impatient	-12.5091
▁forensic	-12.5091
▁motive	-12.5091
▁omni	-12.5091
▁premier	-12.5091
▁Oscar	-12.5091
▁offense	-12.5091
▁millennium	-12.5091
identifie	-12.5091
▁lyric	-12.5091
▁grappl	-12.5091
▁Rosling	-12.5091
▁Film	-12.5092
▁inertia	-12.5092
▁vacan	-12.5094
▁flare	-12.5094
▁categorize	-12.5109
▁illustrat	-12.5132
replication	-12.5164
▁replica	-12.532
▁increment	-12.5359
▁underlie	-12.5391
haired	-12.55
fifth	-12.5513
performance	-12.5514
teacher	-12.5514
capita	-12.5516
▁leverag	-12.5553
estament	-12.5588
discriminat	-12.5597
ustainable	-12.5614
▁jelly	-12.5617
▁nanotube	-12.5617
▁nephew	-12.5617
granddaughter	-12.5617
▁Botswana	-12.5617
▁Brilliant	-12.5617
▁Campaign	-12.5617
▁Dublin	-12.5617
▁Enceladus	-12.5617
▁Extreme	-12.5617
▁Fibonacci	-12.5617
▁Graham	-12.5617
▁Hopkins	-12.5617
▁Judaism	-12.5617
▁Kentucky	-12.5617
▁Matthew	-12.5617
▁Senegal	-12.5617
▁Sergio	-12.5617
▁Shortly	-12.5617
▁Voyager	-12.5617
▁annoyed	-12.5617
▁anthropology	-12.5617
▁astonished	-12.5617
▁bankrupt	-12.5617
▁biomedical	-12.5617
▁blaming	-12.5617
▁bureaucracy	-12.5617
▁congratulat	-12.5617
▁contemplate	-12.5617
▁dashboard	-12.5617
▁deprivation	-12.5617
▁derivative	-12.5617
▁desirable	-12.5617
▁diffusion	-12.5617
▁ecologist	-12.5617
▁encompass	-12.5617
▁entrenche	-12.5617
▁epidemiologi	-12.5617
▁evoke	-12.5617
▁framing	-12.5617
▁frugal	-12.5617
▁geese	-12.5617
▁humiliate	-12.5617
▁hydrant	-12.5617
▁illumination	-12.5617
▁infamous	-12.5617
▁influential	-12.5617
▁irregular	-12.5617
▁laureate	-12.5617
▁legitimacy	-12.5617
▁leisure	-12.5617
▁liberating	-12.5617
▁menstruation	-12.5617
▁microRNA	-12.5617
▁outweigh	-12.5617
▁pavilion	-12.5617
▁peripheral	-12.5617
▁photosynthesis	-12.5617
▁plutocrat	-12.5617
▁portfolio	-12.5617
▁postcards	-12.5617
▁puppy	-12.5617
▁puzzling	-12.5617
▁relentless	-12.5617
▁repositor	-12.5617
▁reprogram	-12.5617
▁sleeve	-12.5617
▁southwest	-12.5617
▁stubborn	-12.5617
▁synesthesia	-12.5617
▁teapot	-12.5617
▁temporarily	-12.5617
▁tornado	-12.5617
▁trustworthy	-12.5617
▁twentie	-12.5617
▁unbelievably	-12.5617
▁vertebrate	-12.5617
▁wondrous	-12.5617
▁Barbie	-12.5617
▁decoration	-12.5617
▁engulf	-12.5617
▁imitation	-12.5617
▁intestine	-12.5617
▁plummet	-12.5617
▁pollination	-12.5617
▁seatbelt	-12.5617
▁surpass	-12.5617
▁Amanda	-12.5617
▁Knowing	-12.5617
▁bargain	-12.5617
▁guiding	-12.5617
▁rejuvenat	-12.5617
▁trawl	-12.5617
▁buffer	-12.5617
▁dairy	-12.5617
▁handbag	-12.5617
▁joking	-12.5617
▁embody	-12.5617
▁knob	-12.5617
▁spores	-12.5617
colonization	-12.5617
▁degrading	-12.5617
▁examining	-12.5617
▁logistics	-12.5617
▁measles	-12.5617
▁prestig	-12.5617
▁Birds	-12.5617
▁foremost	-12.5617
▁squeak	-12.5617
▁staple	-12.5617
▁parrot	-12.5617
▁plume	-12.5617
Sleep	-12.5617
▁niche	-12.5617
▁fringe	-12.5617
▁withstand	-12.5617
▁Dream	-12.5617
▁Origin	-12.5617
▁Tiger	-12.5617
▁crave	-12.5617
▁metasta	-12.5618
▁crisp	-12.5618
▁endemic	-12.5619
assisted	-12.5627
▁guru	-12.5635
nspired	-12.5636
▁discriminate	-12.5637
ague	-12.5637
Daddy	-12.5785
▁dissect	-12.5788
agged	-12.581
▁revolv	-12.5845
connected	-12.5847
keeping	-12.5998
▁tub	-12.6014
▁articulat	-12.6029
shelf	-12.6069
protected	-12.6069
normal	-12.6069
speaking	-12.607
grain	-12.607
▁locate	-12.6144
▁atmospher	-12.6147
destruct	-12.6173
▁ADHD	-12.6173
▁Acumen	-12.6173
▁Alfred	-12.6173
▁Baghdad	-12.6173
▁Chicken	-12.6173
▁Conservation	-12.6173
▁DIY	-12.6173
▁Disease	-12.6173
▁Embassy	-12.6173
▁Evolution	-12.6173
▁Festival	-12.6173
▁Galois	-12.6173
▁Helvetica	-12.6173
▁Hispanic	-12.6173
▁IDEO	-12.6173
▁Illinois	-12.6173
▁Kanzi	-12.6173
▁Laboratory	-12.6173
▁Laptop	-12.6173
▁Mahmoud	-12.6173
▁Malaysia	-12.6173
▁Mathematica	-12.6173
▁McGowan	-12.6173
▁Missouri	-12.6173
▁Mongolia	-12.6173
▁Nicholas	-12.6173
▁Nowadays	-12.6173
▁Picasso	-12.6173
▁Stirling	-12.6173
▁Stockholm	-12.6173
▁Studio	-12.6173
▁Ukraine	-12.6173
▁Uruguay	-12.6173
▁academia	-12.6173
▁albeit	-12.6173
▁ambiguous	-12.6173
▁anticipation	-12.6173
▁artisan	-12.6173
▁audacious	-12.6173
▁avenue	-12.6173
▁bipolar	-12.6173
▁brilliance	-12.6173
▁bumblebee	-12.6173
▁bundle	-12.6173
▁conceivabl	-12.6173
▁divergence	-12.6173
▁dividing	-12.6173
▁elevation	-12.6173
▁enclosure	-12.6173
▁epilepsy	-12.6173
▁exploding	-12.6173
▁filament	-12.6173
▁gloom	-12.6173
▁imprisoned	-12.6173
▁inorganic	-12.6173
▁intercept	-12.6173
▁litigation	-12.6173
▁medicinal	-12.6173
▁messenger	-12.6173
▁motivator	-12.6173
▁naught	-12.6173
▁oppression	-12.6173
▁persuasive	-12.6173
▁precursor	-12.6173
▁privatiz	-12.6173
▁provocative	-12.6173
▁questionnaire	-12.6173
▁reconciliation	-12.6173
▁regenerative	-12.6173
▁relocate	-12.6173
▁repetitive	-12.6173
▁sampling	-12.6173
▁sanctuary	-12.6173
▁schizophrenic	-12.6173
▁secrecy	-12.6173
▁sophistication	-12.6173
▁synonymous	-12.6173
▁thermostat	-12.6173
▁transcript	-12.6173
▁troubling	-12.6173
▁umbrella	-12.6173
▁upstairs	-12.6173
▁Capital	-12.6173
▁Shoots	-12.6173
▁bonobo	-12.6173
▁evolutionarily	-12.6173
▁fiddle	-12.6173
▁impairment	-12.6173
▁malware	-12.6173
▁skyrocket	-12.6173
▁squirrel	-12.6173
▁Bassem	-12.6173
▁Rouge	-12.6173
▁defecat	-12.6173
▁dementia	-12.6173
▁doodle	-12.6173
▁lousy	-12.6173
▁plywood	-12.6173
▁Gwen	-12.6173
▁cymatic	-12.6173
▁marble	-12.6173
▁sermon	-12.6173
▁Magic	-12.6173
▁shrunk	-12.6173
▁windmill	-12.6173
▁Bueno	-12.6173
▁trafficked	-12.6173
▁abalone	-12.6173
▁inference	-12.6173
decisive	-12.6173
▁absent	-12.6173
▁anomaly	-12.6173
▁alternate	-12.6173
▁spoof	-12.6173
▁bleach	-12.6173
▁Batman	-12.6173
▁husk	-12.6173
▁perfume	-12.6173
▁strawberr	-12.6173
▁Morgan	-12.6173
▁costume	-12.6173
endurance	-12.6175
▁squeez	-12.6176
Actor	-12.6181
▁resume	-12.6181
helix	-12.6189
▁escap	-12.6207
building	-12.6213
orbital	-12.6218
▁reshape	-12.6305
transcendence	-12.6341
evolution	-12.6656
mobile	-12.6657
figure	-12.6657
organization	-12.6657
focus	-12.6658
World	-12.6658
▁requir	-12.6723
nversely	-12.6756
▁precaution	-12.6761
Citizen	-12.6761
ficiencies	-12.6761
▁Archimedes	-12.6761
▁Austin	-12.6761
▁Beatles	-12.6761
▁CAPTCHA	-12.6761
▁Celsius	-12.6761
▁Challenge	-12.6761
▁Congolese	-12.6761
▁Elephant	-12.6761
▁Hampshire	-12.6761
▁Hiroshima	-12.6761
▁IKEA	-12.6761
▁Jacques	-12.6761
▁Mandarin	-12.6761
▁Minnesota	-12.6761
▁Mitchell	-12.6761
▁Portuguese	-12.6761
▁Stanley	-12.6761
▁USDA	-12.6761
▁administrative	-12.6761
▁amygdala	-12.6761
▁antiangiogenic	-12.6761
▁arrogant	-12.6761
▁asphalt	-12.6761
▁biomimicry	-12.6761
▁butterfly	-12.6761
▁circus	-12.6761
▁cockpit	-12.6761
▁coconut	-12.6761
▁culminat	-12.6761
▁diabetic	-12.6761
▁exoskeleton	-12.6761
▁fountain	-12.6761
▁gradient	-12.6761
▁gratification	-12.6761
▁heterosexual	-12.6761
▁incidence	-12.6761
▁legislators	-12.6761
▁leukemia	-12.6761
▁lexicon	-12.6761
▁lightbulb	-12.6761
▁misunderstood	-12.6761
▁motivating	-12.6761
▁ominous	-12.6761
▁petroleum	-12.6761
▁pinnacle	-12.6761
▁plausibl	-12.6761
▁preliminary	-12.6761
▁pseudo	-12.6761
▁rhyme	-12.6761
▁sensual	-12.6761
▁slippery	-12.6761
▁squatter	-12.6761
▁stimulating	-12.6761
▁substrate	-12.6761
▁synagogue	-12.6761
▁unexplored	-12.6761
▁volatile	-12.6761
▁yoga	-12.6761
▁zodiac	-12.6761
▁Choir	-12.6761
▁NIH	-12.6761
▁Thursday	-12.6761
▁crease	-12.6761
▁paintbrush	-12.6761
▁pennies	-12.6761
▁sanction	-12.6761
▁wield	-12.6761
▁Bureau	-12.6761
▁Fifth	-12.6761
▁Kabul	-12.6761
▁Product	-12.6761
▁Reserve	-12.6761
▁antidote	-12.6761
▁cursor	-12.6761
▁discarded	-12.6761
▁disengag	-12.6761
▁hardwired	-12.6761
▁Harbor	-12.6761
▁Plus	-12.6761
▁occurrence	-12.6761
▁compensate	-12.6761
▁conjure	-12.6761
▁shaft	-12.6761
▁Delta	-12.6761
▁hawk	-12.6761
▁palace	-12.6761
▁reckon	-12.6761
▁Ranger	-12.6761
▁advisor	-12.6761
▁multimedia	-12.6761
▁Hunter	-12.6761
▁trance	-12.6761
▁activation	-12.6761
▁curb	-12.6761
▁trek	-12.6761
▁Horse	-12.6761
▁incision	-12.6761
Awesome	-12.6761
▁marsh	-12.6761
▁paddle	-12.6761
Mobile	-12.6761
▁neurobiolog	-12.6761
▁jerk	-12.6761
▁saddle	-12.6762
▁Bowl	-12.6762
▁Needles	-12.6762
▁Erik	-12.6763
enchant	-12.6764
▁nominate	-12.6764
▁cofounde	-12.6765
▁Rag	-12.6765
▁wobbl	-12.6765
licious	-12.6766
▁Crime	-12.6767
▁expir	-12.6769
Leave	-12.6782
▁aggregat	-12.6821
▁peacebuild	-12.6901
defined	-12.6908
contacted	-12.7045
ncidentally	-12.7059
▁carcinogen	-12.7112
flipping	-12.7177
ubbed	-12.7225
sufficient	-12.7282
Life	-12.7282
happiness	-12.7283
girl	-12.7299
▁accord	-12.7355
graphers	-12.7355
▁militar	-12.7376
ynthetic	-12.7383
▁Develop	-12.7384
Vagina	-12.7386
boriginal	-12.7386
enhancing	-12.7386
extraterrestrial	-12.7386
▁Alexandria	-12.7386
▁Anthony	-12.7386
▁Arkansas	-12.7386
▁Aurora	-12.7386
▁Balkans	-12.7386
▁Broadway	-12.7386
▁Cochrane	-12.7386
▁Correct	-12.7386
▁Dragon	-12.7386
▁FreeSpeech	-12.7386
▁Gallery	-12.7386
▁HeForShe	-12.7386
▁Intelligence	-12.7386
▁Langley	-12.7386
▁Madison	-12.7386
▁Morocco	-12.7386
▁Mubarak	-12.7386
▁NATO	-12.7386
▁Nikola	-12.7386
▁Nollywood	-12.7386
▁OPEC	-12.7386
▁Orchestra	-12.7386
▁Rockefeller	-12.7386
▁Saddam	-12.7386
▁Species	-12.7386
▁Sudhir	-12.7386
▁TEDGlobal	-12.7386
▁Vienna	-12.7386
▁Wednesday	-12.7386
▁advocating	-12.7386
▁arthritis	-12.7386
▁brothel	-12.7386
▁burglar	-12.7386
▁collapsing	-12.7386
▁communism	-12.7386
▁crammed	-12.7386
▁definitive	-12.7386
▁dengue	-12.7386
▁detergent	-12.7386
▁discourage	-12.7386
▁disguise	-12.7386
▁dismantle	-12.7386
▁embodiment	-12.7386
▁empathize	-12.7386
▁exaggeration	-12.7386
▁extremism	-12.7386
▁franchise	-12.7386
▁ghetto	-12.7386
▁graduation	-12.7386
▁hierarchical	-12.7386
▁hyperbolic	-12.7386
▁innocence	-12.7386
▁insignificant	-12.7386
▁investigator	-12.7386
▁judging	-12.7386
▁jumble	-12.7386
▁laparoscopic	-12.7386
▁miniature	-12.7386
▁necessity	-12.7386
▁neurologist	-12.7386
▁neutrino	-12.7386
▁numerical	-12.7386
▁opaque	-12.7386
▁philanthropic	-12.7386
▁phthalates	-12.7386
▁practitioner	-12.7386
▁proximity	-12.7386
▁rehearsal	-12.7386
▁ruthless	-12.7386
▁sabbatical	-12.7386
▁sequel	-12.7386
▁snippet	-12.7386
▁spreadsheet	-12.7386
▁sprinkle	-12.7386
▁surrogate	-12.7386
▁suspicion	-12.7386
▁swollen	-12.7386
▁terabyte	-12.7386
▁tobacco	-12.7386
▁tragedies	-12.7386
▁ventilation	-12.7386
▁wiggle	-12.7386
▁EEG	-12.7386
▁Management	-12.7386
▁Vermeer	-12.7386
▁bedrock	-12.7386
▁daydream	-12.7386
▁grazing	-12.7386
▁instantaneous	-12.7386
▁saturated	-12.7386
▁striving	-12.7386
▁tramp	-12.7386
▁welcoming	-12.7386
▁Asperger	-12.7386
▁administer	-12.7386
▁credibility	-12.7386
▁crux	-12.7386
▁dispose	-12.7386
▁examination	-12.7386
▁pigmentation	-12.7386
▁revisit	-12.7386
▁visibility	-12.7386
▁Gando	-12.7386
▁Serbia	-12.7386
▁appalling	-12.7386
▁beehive	-12.7386
▁pianist	-12.7386
▁Blair	-12.7386
▁Study	-12.7386
▁shaman	-12.7386
▁retaliat	-12.7386
▁devour	-12.7386
▁porch	-12.7386
▁choke	-12.7386
▁triangula	-12.7386
▁archetyp	-12.7386
▁Jacob	-12.7386
eminent	-12.7386
custome	-12.7386
▁cohesi	-12.7387
Search	-12.7394
▁visualiz	-12.7395
▁ambien	-12.7407
▁cultivat	-12.7442
▁Northwest	-12.7486
▁influenc	-12.7491
▁classify	-12.7666
▁coincide	-12.7723
focal	-12.7744
▁bureaucrat	-12.7814
pplied	-12.787
▁neurologic	-12.7927
portrait	-12.7949
factor	-12.7949
written	-12.7949
nuclear	-12.7949
▁marrie	-12.8026
iquette	-12.8052
submission	-12.8052
▁Airbnb	-12.8052
▁Barbara	-12.8052
▁Cameroon	-12.8052
▁Chernobyl	-12.8052
▁Dimitri	-12.8052
▁Eleanor	-12.8052
▁Emmanuel	-12.8052
▁Gabriel	-12.8052
▁Gertrude	-12.8052
▁Hannah	-12.8052
▁Hussein	-12.8052
▁Initiative	-12.8052
▁Istanbul	-12.8052
▁Julius	-12.8052
▁Mauritius	-12.8052
▁Mermaid	-12.8052
▁Mouaz	-12.8052
▁Netflix	-12.8052
▁Neumann	-12.8052
▁Nixon	-12.8052
▁Ottoman	-12.8052
▁PIPA	-12.8052
▁PISA	-12.8052
▁Poetry	-12.8052
▁SOPA	-12.8052
▁Seriously	-12.8052
▁Sioux	-12.8052
▁Symphony	-12.8052
▁Tarahumara	-12.8052
▁Terror	-12.8052
▁aggression	-12.8052
▁amputation	-12.8052
▁appendage	-12.8052
▁aquarium	-12.8052
▁arsenal	-12.8052
▁atrocities	-12.8052
▁bottleneck	-12.8052
▁brigade	-12.8052
▁brochure	-12.8052
▁bulldoze	-12.8052
▁champagne	-12.8052
▁cholesterol	-12.8052
▁combustion	-12.8052
▁compliance	-12.8052
▁comprehend	-12.8052
▁contemplating	-12.8052
▁cycling	-12.8052
▁defensive	-12.8052
▁disastrous	-12.8052
▁disparity	-12.8052
▁duplicate	-12.8052
▁emerald	-12.8052
▁eternity	-12.8052
▁exterior	-12.8052
▁fMRI	-12.8052
▁facilitator	-12.8052
▁feasible	-12.8052
▁fragility	-12.8052
▁hologram	-12.8052
▁immersive	-12.8052
▁indicating	-12.8052
▁indifferent	-12.8052
▁inflection	-12.8052
▁judicia	-12.8052
▁kettle	-12.8052
▁kilowatt	-12.8052
▁knives	-12.8052
▁latrine	-12.8052
▁liberties	-12.8052
▁maggots	-12.8052
▁merchant	-12.8052
▁metadata	-12.8052
▁monastery	-12.8052
▁multitasking	-12.8052
▁neutron	-12.8052
▁nugget	-12.8052
▁pajama	-12.8052
▁paycheck	-12.8052
▁pellets	-12.8052
▁perseverance	-12.8052
▁persuasion	-12.8052
▁pilgrim	-12.8052
▁progeria	-12.8052
▁protagonist	-12.8052
▁psychiatry	-12.8052
▁quadruple	-12.8052
▁ravage	-12.8052
▁reassure	-12.8052
▁reassuring	-12.8052
▁rebellion	-12.8052
▁redefining	-12.8052
▁rehearse	-12.8052
▁rudder	-12.8052
▁salamander	-12.8052
▁simulating	-12.8052
▁suicidal	-12.8052
▁synchrony	-12.8052
▁tactile	-12.8052
▁turbulent	-12.8052
▁turnaround	-12.8052
▁wizard	-12.8052
▁woven	-12.8052
▁Connect	-12.8052
▁Douglas	-12.8052
▁Geiger	-12.8052
▁Viagra	-12.8052
▁corpus	-12.8052
▁cowboy	-12.8052
▁leapfrog	-12.8052
▁patriarch	-12.8052
▁perimeter	-12.8052
▁plaque	-12.8052
▁porridge	-12.8052
▁qualitative	-12.8052
▁rifle	-12.8052
▁savage	-12.8052
▁suffocat	-12.8052
▁supreme	-12.8052
▁typewriter	-12.8052
▁UFO	-12.8052
▁annihilat	-12.8052
▁radiologist	-12.8052
▁razor	-12.8052
▁salaries	-12.8052
▁sentient	-12.8052
▁vigil	-12.8052
▁DDT	-12.8053
▁swine	-12.8053
♫	-14.5466
