▁	319088
__SEP__	220736
▁the	173275
▁to	110922
s	102173
▁of	101310
▁and	93221
▁that	78387
.	75451
,	73725
'	68273
a#1	67900
▁you	53890
▁it	51315
in#1	50762
▁we	48510
is#1	44109
I#1	39736
▁And	37950
▁this	35988
▁for	25156
-	24533
▁a	24099
▁they	22825
▁I	22395
re	21729
▁with	21482
was#1	21214
have#1	20868
are#1	20394
▁what	19041
on#1	18662
0	18221
▁not	16409
can#1	16278
So#1	15826
about#1	15627
be#1	15168
▁in	14732
at#1	14696
t	14412
▁my	14132
▁It	13904
▁from	13524
all#1	13037
as#1	12812
▁an	12414
▁people	12395
▁but	12323
▁our	12037
▁We	11513
do#1	11410
so#1	11291
▁But	11148
like#1	11092
▁me	10959
just#1	10952
n	10936
▁these	10901
one#1	10868
▁if	10836
d	10801
▁The	10318
▁them	10313
people#1	10273
▁when	9703
ing	9634
or#1	9482
▁because	9456
ed	9260
▁who	9022
by#1	8999
▁their	8846
▁your	8710
going#1	8710
very#1	8596
▁would	8548
▁which	8512
▁how	8402
out#1	8344
m	8306
▁is	8295
had#1	8263
ve	7864
ly	7643
more#1	7633
were#1	7591
up#1	7560
get#1	7476
there#1	7349
think#1	7332
really#1	7261
see#1	7227
▁This	7211
▁"	7189
1	7113
▁into	7096
▁You	7060
has#1	6723
▁where	6574
p	6545
y	6507
some#1	6433
▁could	6292
▁They	6089
?	6059
then#1	6007
do#1n't	6000
actually#1	5945
know#1	5797
er	5762
he#1	5758
will#1	5664
▁time	5646
▁things	5589
been#1	5570
▁years	5533
want#1	5499
make#1	5421
a	5404
▁something	5337
other#1	5327
I#1'm	5301
▁than	5266
▁was	5259
▁world	5259
▁those	5194
2	5159
go#1	5133
▁percent	5087
us#1	4985
▁also	4978
:	4897
e	4712
▁That	4605
things#1	4473
way#1	4468
first#1	4455
c	4447
got#1	4426
▁his	4416
--	4403
u	4338
little#1	4316
ll	4290
▁she	4287
only#1	4267
In#1	4235
▁thing	4224
years#1	4178
▁many	4164
two#1	4157
r	4156
9	4103
look#1	4096
most#1	4025
al	4016
now#1	4013
even#1	3993
▁make	3961
no#1	3959
time#1	3918
▁What	3886
▁back	3858
over#1	3833
much#1	3830
need#1	3786
take#1	3775
▁♫	3736
kind#1	3706
o	3666
▁her	3624
in	3623
back#1	3597
▁lot	3590
here#1	3553
5	3517
lot#1	3513
▁as	3411
Now#1,	3368
▁good	3348
world#1	3303
▁work	3297
▁life	3294
So#1,	3291
thing#1	3277
new#1	3267
▁S	3220
around#1	3193
there#1's	3188
▁If	3172
said#1,	3167
ic	3152
▁are	3145
did#1	3134
through#1	3113
every#1	3100
g	3081
es	3068
right#1	3033
come#1	3010
put#1	3004
know#1,	2963
same#1	2955
▁kind	2954
different#1	2953
being#1	2948
good#1	2911
use#1	2901
work#1	2890
Now#1	2888
▁Africa	2880
or	2832
called#1	2808
any#1	2762
b	2738
▁why	2737
doing#1	2620
▁have	2603
3	2600
▁should	2588
tell#1	2580
▁B	2577
▁A	2571
made#1	2562
ri	2558
find#1	2544
▁can	2539
▁day	2531
▁he	2523
▁do	2521
l	2521
He#1	2505
▁its	2486
three#1	2478
down#1	2459
le	2428
▁might	2415
it	2370
ur	2367
▁on	2366
▁another	2356
did#1n't	2355
human#1	2320
Well#1,	2309
ra	2306
started#1	2285
v	2272
last#1	2264
after#1	2263
th	2243
went#1	2235
say#1	2230
4	2223
▁be	2214
▁him	2213
co	2209
▁Internet	2195
give#1	2187
There#1	2186
is#1,	2172
▁year	2162
8	2155
talk#1	2153
able#1	2152
an	2136
▁brain	2125
own#1	2120
never#1	2120
st	2114
▁or	2110
great#1	2075
life#1	2067
▁put	2062
ca#1n't	2060
ro	2060
▁When	2059
▁change	2044
▁again	2028
z	2027
▁talk	2018
▁TED	2018
▁thought	2012
still#1	2012
▁great	1991
▁human	1988
came#1	1981
big#1	1981
▁E	1974
few#1	1966
▁fact	1965
el	1963
▁problem	1955
▁started	1953
▁India	1952
▁about	1948
I#1've	1947
start#1	1935
show#1	1924
en	1916
▁bit	1915
▁idea	1913
▁water	1899
between#1	1893
next#1	1889
▁made	1888
part#1	1866
i	1865
used#1	1864
▁big	1863
▁F	1853
▁story	1852
each#1	1843
lo	1836
▁today	1829
li	1827
change#1	1826
▁Because	1825
▁P	1824
k	1824
idea#1	1824
la	1822
ent	1820
▁part	1811
say#1,	1805
ers	1792
▁important	1787
▁data	1775
▁Earth	1757
f	1748
found#1	1741
A#1	1741
does#1	1737
▁women	1735
looking#1	1732
important#1	1729
▁C	1716
bit#1	1712
does#1n't	1703
▁question	1697
▁love	1695
wanted#1	1695
▁T	1689
▁system	1685
▁find	1680
better#1	1677
ar	1669
6	1669
x	1664
se	1652
sort#1	1649
on	1645
7	1640
trying#1	1633
whole#1	1632
il	1632
thought#1	1625
▁long	1622
call#1	1620
▁G	1615
ation	1614
off#1	1602
▁York	1597
before#1	1596
▁How	1589
▁one	1589
time#1,	1589
able	1583
always#1	1583
ever#1	1572
▁start	1572
▁million	1567
ch	1566
▁show	1565
fact#1,	1562
world#1.	1554
try#1	1554
said#1	1550
▁give	1533
may#1	1517
▁My	1514
▁called	1513
▁She	1512
▁maybe	1502
understand#1	1499
long#1	1495
▁there	1495
▁Yeah	1492
ol	1487
▁technology	1480
▁un	1478
using#1	1478
us	1476
K	1470
▁everything	1467
took#1	1465
million#1	1464
▁school	1464
working#1	1463
▁place	1462
▁all	1460
▁at	1452
feel#1	1447
▁wanted	1436
ity	1435
▁For	1434
I	1423
believe#1	1420
live#1	1416
become#1	1415
real#1	1414
▁basically	1414
create#1	1410
There#1's	1405
course#1,	1404
M	1401
▁more	1392
im	1392
and	1392
▁These	1383
▁so	1379
day#1	1373
▁children	1373
to	1370
getting#1	1365
▁DNA	1362
▁God	1359
means#1	1358
▁feel	1354
10#1	1353
▁point	1351
quite#1	1348
end#1	1347
▁person	1337
▁without	1336
help#1	1334
▁animals	1333
place#1	1331
done#1	1329
four#1	1329
love#1	1320
▁power	1318
as	1309
ion	1308
is	1307
▁car	1307
S	1305
here#1,	1302
time#1.	1299
comes#1	1297
One#1	1287
te	1283
▁light	1277
problem#1	1275
▁real	1270
making#1	1268
▁very	1267
▁anything	1267
probably#1	1265
▁disease	1261
▁design	1261
▁understand	1260
bo	1254
world#1,	1254
▁found	1251
ad	1249
too#1	1248
ha	1247
mo	1244
talking#1	1243
now#1,	1242
▁kids	1240
▁space	1232
social#1	1232
▁sort	1231
let#1	1229
small#1	1226
five#1	1223
▁man	1223
pretty#1	1220
▁information	1220
ive	1218
▁thinking	1215
▁ago	1211
told#1	1209
▁huge	1207
ie	1206
ul	1204
point#1	1203
▁money	1203
ian	1201
▁like	1198
▁else	1195
▁States	1193
A	1192
▁America	1184
number#1	1183
best#1	1182
▁food	1182
▁high	1181
years#1,	1180
story#1	1177
ate	1174
such#1	1171
system#1	1169
▁were	1168
man	1167
women#1	1164
year#1	1156
there#1.	1154
de	1154
makes#1	1152
▁number	1151
brain#1	1149
technology#1	1147
together#1	1146
w	1146
ne	1143
data#1	1141
▁U	1141
▁kinds	1138
ia	1137
▁working	1136
▁energy	1135
across#1	1133
ine	1131
▁hand	1131
ness	1129
ant	1127
build#1	1125
coming#1	1123
▁call	1122
pe	1118
▁hard	1118
▁men	1118
C	1116
up	1111
▁Co	1107
▁live	1107
▁China	1105
having#1	1105
As#1	1104
▁home	1100
saw#1	1099
ma	1098
▁end	1096
▁de	1095
▁dollars	1089
▁while	1088
▁almost	1087
▁O	1086
▁Ma	1081
▁already	1081
▁per	1080
ago#1,	1079
▁play	1076
question#1	1076
▁times	1074
well#1	1072
here#1.	1070
the	1068
there#1,	1067
less#1	1067
ge	1063
▁both	1062
▁told	1062
ck	1061
▁Thank	1057
▁billion	1055
ask#1	1054
thinking#1	1053
▁had	1052
et	1050
power#1	1049
▁talking	1048
people#1,	1047
ac	1039
person#1	1037
second#1	1036
▁someone	1034
am#1	1032
at	1031
▁building	1030
▁cells	1030
▁side	1030
water#1	1029
All#1	1027
▁within	1026
▁whether	1025
New#1	1023
seen#1	1021
living#1	1019
away#1	1015
▁myself	1015
▁science	1014
▁Why	1012
ru	1011
hard#1	1011
ta	1010
▁United	1008
▁thousands	1008
▁out	1006
▁countries	1006
▁moment	1004
▁cancer	1003
design#1	999
interesting#1	997
▁sense	997
▁wonderful	996
left#1	995
asked#1	995
ter	995
▁American	991
▁country	991
way#1,	989
▁small	989
let#1's	989
am	983
▁simple	981
move#1	980
looked#1	979
single#1	979
▁by	975
▁R	974
ist	973
mean#1,	972
kids#1	971
building#1	970
goes#1	970
children#1	969
today#1	969
20#1	968
half#1	967
▁left	963
▁self	963
▁stuff	962
young#1	961
▁going	961
Z	960
▁body	958
global#1	957
▁pretty	952
keep#1	947
information#1	945
fact#1	944
▁no	943
ba	942
us#1.	942
like#1,	939
example#1,	938
high#1	938
▁room	936
enough#1	936
learn#1	936
ce	935
set#1	933
▁interesting	931
▁care	931
life#1.	931
P	931
looks#1	928
▁L	927
▁picture	923
bi	923
▁half	921
United#1	918
bring#1	918
▁until	918
;	917
▁future	915
sense#1	914
ex	913
os	912
▁happened	908
happened#1	904
I#1'd	903
times#1	900
op	900
old#1	898
reason#1	898
▁To	897
I#1'll	896
vi	896
▁everybody	889
un	888
▁bad	884
▁computer	884
▁robot	884
▁coming	882
▁N	881
▁social	880
D	879
couple#1	878
▁open	876
’	875
▁though	873
ci	873
old	873
▁matter	873
inside#1	871
play#1	870
▁learn	869
▁opportunity	868
ty	867
▁People	866
ism	866
▁asked	863
once#1	862
people#1.	861
money#1	859
▁hope	857
often#1	857
L	857
bad#1	855
▁answer	855
▁problems	853
▁days	852
▁mind	851
us#1,	850
heard#1	848
ca	848
far#1	846
▁itself	846
ph	846
▁since	845
▁somebody	845
ment	845
O	844
h	843
billion#1	843
under#1	842
fi	839
less	839
energy#1	838
be	838
▁city	836
▁ourselves	834
▁against	834
▁experience	833
▁reason	832
▁up	831
▁child	831
▁D	829
light#1	827
▁Chris	826
six#1	826
age	826
▁themselves	826
simple#1	825
became#1	824
▁happen	824
ir	823
▁W	822
years#1.	820
▁Mo	820
di	820
decided#1	816
public#1	816
▁Re	816
order#1	815
happens#1	815
▁over	812
up#1,	812
▁wrong	811
▁V	811
school#1	810
▁ideas	810
▁couldn	809
exactly#1	809
▁words	809
ous	809
▁incredible	809
completely#1	808
sure#1	807
care#1	805
ho	805
▁business	805
▁sometimes	805
▁word	804
ga	801
taking#1	798
turn#1	798
▁model	794
▁book	794
▁health	794
right#1?	794
▁J	793
▁create	792
▁single	791
em	790
Oh	789
gets#1	787
▁months	787
▁remember	786
nothing#1	785
me	785
home#1	784
think#1,	784
knew#1	783
▁young	783
▁music	783
com	782
▁set	782
built#1	781
day#1,	781
open#1	779
mean#1	777
country#1	776
way#1.	776
we	775
▁making	775
read#1	775
▁guy	774
▁others	774
▁English	774
▁pre	773
things#1.	772
T	772
food#1	770
▁know	770
must#1	769
space#1	766
out#1,	766
▁true	764
turns#1	764
▁project	764
▁don	764
ster	764
▁family	760
learned#1	759
do	758
▁us	758
▁imagine	758
hi	758
▁De	757
top#1	757
▁minutes	757
▁language	756
piece#1	755
imagine#1	755
now#1.	754
▁con	753
R	752
—	752
man#1	750
do#1.	750
▁everyone	750
remember#1	750
per	748
▁looked	748
science#1	748
see#1,	748
share#1	748
entire#1	746
▁species	745
▁control	744
▁living	742
▁inside	742
▁read	741
▁game	740
▁questions	740
ot	739
hope#1	739
men#1	738
▁scientists	738
well#1,	736
amazing#1	736
ways#1	735
health#1	733
ial	733
▁piece	732
▁Google	732
ally	732
▁video	732
family#1	731
countries#1	731
▁line	730
dollars#1	729
hear#1	728
▁process	728
▁will	728
▁case	728
▁knowledge	728
▁makes	727
was#1n't	727
▁job	727
▁group	727
up#1.	725
picture#1	725
rather#1	725
ton	723
▁couple	723
▁heard	722
body#1	722
Let#1's	722
sh	721
▁build	720
▁H	719
"	719
experience#1	717
▁age	716
um	715
▁lab	714
▁amazing	713
future#1	712
▁non	712
run#1	712
▁night	711
▁community	710
figure#1	707
then#1,	707
▁hundreds	707
computer#1	704
▁lives	704
▁happy	704
year	704
answer#1	703
here#1's	702
created#1	702
fe	700
side#1	699
gave#1	698
▁lots	698
30#1	697
!	696
▁stories	695
stuff#1	695
front#1	695
▁cell	692
he#1's	692
▁universe	692
▁global	691
life#1,	689
course#1	689
tic	689
today#1,	688
▁yourself	687
▁war	686
ized	685
is#1n't	683
id	683
100#1	683
▁In	682
▁beautiful	681
study#1	681
▁sound	680
control#1	677
pa	677
early#1	677
form#1	677
▁move	677
▁won	677
der	676
taken#1	675
beautiful#1	674
happen#1	673
on#1.	673
ah	673
ke	672
lives#1	668
▁perhaps	668
50#1	667
group#1	667
mi	667
▁go	666
during	664
▁works	664
▁robots	664
♪	664
least#1	662
The	661
▁stop	661
▁education	660
,"	659
▁order	658
ab	657
particular#1	657
matter#1	656
turned#1	655
natural#1	655
▁top	655
▁public	654
business#1	654
stop#1	652
▁hours	652
thing#1.	652
Q	652
moment#1	651
▁art	651
son	650
out#1.	649
large#1	649
guy#1	648
▁think	648
process#1	647
year#1,	646
all#1,	645
uc	644
▁knew	643
rs	642
well#1.	641
given#1	640
▁solar	638
ry	638
▁World	637
takes#1	637
worked#1	636
▁nature	633
▁Ba	632
At#1	632
mer	632
▁Mi	631
name#1	630
ig	630
▁Chinese	630
▁free	629
work#1.	629
American#1	628
Then#1	628
▁woman	627
months#1	626
▁learned	626
along#1	626
▁face	625
project#1	624
▁get	624
he	624
▁hear	622
▁oil	622
N	622
▁students	622
ies	621
Here#1's	620
ting	620
▁tiny	620
instead#1	620
ling	619
room#1	619
▁Do	618
▁machine	618
▁see	617
leave#1	617
today#1.	617
▁Afghanistan	617
ary	616
Some#1	616
▁Le	616
▁form	615
▁level	615
▁heart	615
example#1	614
▁So	612
city#1	612
no	612
▁Europe	612
▁fish	611
lots#1	611
days#1	611
government#1	610
▁whatever	610
ber	610
ize	610
video#1	609
▁planet	608
▁turn	608
▁He	608
ating	607
▁South	605
▁recently	604
ator	604
▁Ra	603
▁Ka	603
▁history	603
possible#1	601
▁happening	601
ther	601
so#1,	598
▁black	598
word#1	598
research#1	598
nce	597
ip	596
problems#1	596
case#1	596
▁software	596
seeing#1	596
began#1	596
realized#1	594
Or#1	594
▁really	593
▁decided	593
close#1	592
line	592
king	590
ag	590
on#1,	590
simply#1	590
do#1,	589
third#1	589
things#1,	589
ideas#1	587
▁either	586
▁mother	585
▁built	584
students#1	584
▁Our	584
mon	583
certain#1	583
▁study	583
▁Facebook	583
▁."	582
▁research	582
says#1,	581
economic#1	581
▁friends	581
▁War	580
oc	580
▁run	579
▁genes	579
▁Ro	579
go	579
job#1	579
▁state	579
E	578
▁just	578
full#1	578
I#0	578
▁government	577
spent#1	575
saying#1	575
tried#1	575
▁head	574
▁places	574
face#1	573
behind#1	572
▁air	572
ish	572
book#1	571
▁sub	570
community#1	569
▁house	569
local#1	569
bu	568
amount#1	568
needed#1	568
▁dis	567
places#1	567
later#1,	566
▁San	566
happening#1	565
tra	564
om	564
spend#1	563
▁Not	563
▁HIV	563
age#1	562
outside#1	560
ni	560
▁cities	559
ti	559
felt#1	559
▁front	559
▁movie	559
▁two	559
car#1	559
People#1	558
model#1	558
right#1,	557
ists	557
day#1.	556
▁wouldn	554
▁close	554
▁completely	554
▁totally	553
▁California	553
▁yeah	552
one#1,	549
na	549
You	548
moving#1	548
Here#1	548
heart#1	547
Just#1	547
▁has	546
▁share	546
stories#1	544
▁Man	543
▁land	542
ver	542
work#1,	542
▁company	541
▁paper	540
F	540
seven#1	539
sitting#1	539
terms#1	539
▁pro	538
ative	537
ones#1	537
one#1.	537
▁systems	536
black#1	536
▁eyes	536
▁guys	535
▁phone	535
child#1	534
very#1,	533
▁learning	533
CA#1:	533
On#1	532
▁program	531
rest#1	530
yet#1	529
interested#1	529
▁...	529
guys#1	528
tor	528
learning#1	527
▁changed	526
political#1	526
brought#1	525
▁anymore	525
ance	523
woman#1	523
da	523
▁easy	522
state#1	522
▁century	522
needs#1	521
ard	520
dy	520
▁society	520
▁bacteria	519
known#1	519
hours#1	519
▁conversation	518
▁some	518
true#1	517
longer#1	517
changed#1	517
▁St	517
▁poverty	517
wa	516
middle#1	516
▁difficult	516
ago#1	516
15#1	513
▁market	513
▁cost	512
What	511
▁Sa	511
▁reality	510
ability#1	510
based#1	510
▁new	509
difficult#1	509
sound#1	509
▁Hu	508
species#1	508
actually#1,	508
walk#1	508
▁walk	508
Is#1	507
Do#1	507
▁micro	505
powerful#1	505
▁common	505
works#1	504
fa	504
Well#1	504
shows#1	504
wrong#1	503
▁worked	503
thought#1,	502
ted	502
realize#1	500
history#1	499
past#1	499
nd	499
▁anyone	498
est	498
▁longer	498
▁Ta	497
▁An	497
common#1	496
▁father	496
head#1	495
No#1	494
▁neurons	494
year#1.	493
▁wife	492
▁bring	492
▁powerful	492
grow#1	492
▁test	491
parts#1	490
▁Me	489
ated	489
ka	489
▁African	488
▁Y	487
planet#1	486
▁Ho	486
ps	486
▁low	486
▁image	485
deal#1	485
physical#1	485
cells#1	484
line#1	484
mind#1	484
starting#1	484
▁West	484
▁North	484
▁feet	483
buy#1	482
pay#1	482
ens	481
ut	480
▁step	480
together#1,	479
friends#1	479
▁media	479
lost#1	478
▁eventually	478
music#1	477
easy#1	476
▁nice	476
met#1	476
▁successful	476
▁want	475
▁math	475
ak	475
▁taking	474
"I#1	474
▁interested	473
▁companies	473
ever	472
▁website	472
giving#1	472
▁fear	472
write#1	472
seems#1	471
ful	471
▁difference	471
▁Iraq	471
▁moving	470
Earth#1	470
eight#1	469
▁growth	469
thing#1,	469
Let#1	469
▁felt	469
▁Li	469
time	468
He#1's	468
▁expensive	468
ob	468
if	467
▁books	467
▁daughter	467
mother#1	466
▁gave	466
company#1	465
▁large	465
was#1,	465
ow	464
says#1	464
▁feeling	464
gives#1	464
absolutely#1	463
access#1	463
telling#1	462
climate#1	462
sum	462
▁network	462
beginning#1	461
▁pay	461
developed#1	460
said#0,	460
▁Ki	460
problem#1.	460
news#1	460
▁natural	459
is#1.	459
au	459
▁well	459
▁Who	459
▁leave	458
growing#1	457
together#1.	457
▁soon	457
▁hands	457
▁ocean	457
▁short	456
showed#1	456
▁mom	456
que	456
difference#1	456
▁Mars	455
B	455
words#1	455
▁sea	454
talked#1	454
▁born	454
▁kid	453
▁week	453
X	453
▁then	452
▁thank	451
▁girl	451
▁team	451
allow#1	451
▁bio	451
▁view	450
▁sex	450
▁created	450
▁death	450
▁area	450
really#1,	450
ization	450
▁buy	449
▁different	449
▁culture	449
▁began	449
happy#1	448
▁map	448
40#1	447
▁essentially	447
app	447
in#1,	447
▁full	447
personal#1	446
team#1	446
ile	446
▁concept	446
▁financial	446
▁met	445
complex#1	445
▁East	445
size#1	444
▁color	444
che	442
population#1	442
companies#1	442
hand#1	442
▁super	442
▁fun	441
▁diseases	441
▁terms	441
understanding#1	439
system#1.	439
▁Di	439
▁theory	438
▁figure	438
literally#1	438
language#1	438
gone#1	437
wrote#1	437
▁guess	437
ical	437
▁photo	437
tion	436
▁weeks	436
▁Se	436
seem#1	435
cost#1	435
creating#1	435
▁blood	435
cell#1	434
ious	434
▁Kenya	434
▁yes	434
ago#1.	433
G	433
▁Yes	433
ina	433
chi	432
millions#1	432
feeling#1	432
ki	432
▁lost	431
level#1	430
▁towards	430
▁gene	430
▁grand	430
running#1	429
questions#1	428
key#1	428
developing#1	428
▁environment	428
▁film	428
By#1	427
poor#1	426
▁needed	426
game#1	425
incredibly#1	425
down#1,	425
art#1	425
are#1,	424
gen	424
▁river	424
▁income	424
▁Hey	424
universe#1	424
minutes#1	424
▁girls	423
story#1.	423
▁famous	423
▁turns	423
]	423
hold#1	423
▁challenge	423
nature#1	422
world#1's	422
area#1	421
ring	420
a#0	420
▁measure	420
Can#1	420
▁No	420
ja	420
image#1	419
U.S.#1	419
▁genome	418
▁GDP	418
"Well#1,	417
▁Americans	417
log	417
▁miles	417
rid	416
test#1	416
designed#1	414
▁parts	414
putting#1	413
ng	413
▁three	413
animal#1	412
watch#1	412
▁With	411
▁cars	411
▁green	411
support#1	411
▁scale	411
[	411
step#1	410
especially#1	410
major#1	410
▁complex	409
all#1.	409
systems#1	409
▁onto	409
medical#1	409
much#1.	409
free#1	409
H	409
society#1	409
education#1	409
media#1	409
▁turned	407
▁La	407
cancer#1	406
save#1	406
later#1	406
▁patients	406
begin#1	406
▁way	406
several#1	405
night#1	405
ship	404
cut#1	404
▁enormous	404
changes#1	404
▁anybody	403
speak#1	403
produce#1	403
▁baby	403
▁Maybe	402
▁deal	402
▁quickly	402
system#1,	402
▁under	402
green#1	401
▁obvious	401
▁areas	401
▁animal	400
by	400
▁parents	400
▁experiment	400
gg	399
▁voice	398
father#1	398
▁Of	397
South#1	397
▁finally	397
▁code	397
friend#1	397
basic#1	397
individual#1	397
▁red	397
becomes#1	396
▁clear	396
▁humans	396
white#1	395
discovered#1	395
States#1	395
▁realized	395
▁England	395
bra	395
know#1.	394
▁law	394
Every#1	393
After#1	393
▁Ne	393
parents#1	393
▁citizens	393
▁population	392
▁force	392
▁past	392
right#1.	392
World#1	391
Okay#1,	391
▁economy	391
focus#1	390
air#1	390
stay#1	390
▁Western	389
▁die	389
challenge#1	389
▁poor	389
▁cool	389
nice#1	388
send#1	388
har	388
average#1	388
solve#1	387
▁risk	387
▁material	387
chance#1	386
blue#1	386
▁numbers	386
▁ca	385
in#1.	385
▁differently	385
▁dead	385
▁been	384
explain#1	384
▁eye	384
▁fly	384
▁Germany	383
▁drug	383
▁certainly	382
▁blue	382
▁local	382
playing#1	381
blood#1	381
weeks#1	381
market#1	381
view#1	381
beyond#1	381
▁need	381
▁eat	381
▁watch	381
si	380
▁white	380
▁dad	380
oo	380
down#1.	380
▁choice	380
▁fire	380
▁early	380
▁obviously	380
row	380
▁London	380
war#1	379
▁key	379
▁chance	379
biggest#1	379
▁among	379
▁Be	379
▁grow	378
eat#1	377
case#1,	377
largest#1	377
▁forward	377
▁patient	377
▁Today	377
▁innovation	376
▁oxygen	376
have#1n't	376
▁nobody	375
ology	375
▁hold	375
▁sitting	375
▁drugs	374
lic	374
des	374
▁friend	374
miles#1	373
▁movement	373
like	373
▁everywhere	373
oil#1	372
ang	372
▁field	372
back#1,	372
stand#1	372
ach	371
▁Richard	371
finally#1	371
▁spent	371
teach#1	371
▁anti	370
showing#1	370
asking#1	370
ill	370
oh	370
▁images	370
▁perfect	370
▁ice	369
▁stand	369
eyes#1	369
machine#1	369
lived#1	368
▁here	367
hundred#1	367
growth#1	367
▁climate	367
meet#1	367
▁right	367
▁creativity	367
red#1	367
▁got	366
modern#1	366
one	366
▁solution	366
risk#1	366
▁beginning	366
▁issue	366
about#1,	365
ble	365
▁behavior	365
▁City	365
▁attention	365
▁Mexico	365
pick#1	365
saying#1,	364
▁MIT	364
▁Car	364
▁artist	364
▁telling	364
ff	364
likely#1	364
scientific#1	363
▁running	363
▁simply	363
technology#1,	363
▁potential	363
▁stage	363
▁object	362
house#1	362
are#1n't	362
born#1	362
special#1	362
▁write	362
land#1	361
reach#1	361
▁size	360
other#1.	360
quickly#1	360
▁deep	359
relationship#1	359
way	359
ction	359
Even#1	359
similar#1	359
side	359
▁structure	359
digital#1	358
▁carbon	358
type#1	357
cities#1	357
impact#1	357
▁scientist	357
value#1	357
▁special	357
phone#1	356
▁cut	356
particularly#1	355
▁dream	355
▁spend	355
tells#1	355
knows#1	354
named#1	354
national#1	354
▁pictures	354
▁schools	354
ium	354
moved#1	353
ger	353
▁technologies	353
unt	353
▁rules	353
▁access	352
▁University	352
led#1	352
America#1	352
ward	352
▁John	352
develop#1	352
▁average	351
▁shows	351
▁bigger	351
ris	351
extremely#1	350
▁Good	350
about#1.	350
Most#1	350
humans#1	350
ping	349
short#1	349
starts#1	349
▁flu	349
are#1.	348
den	348
changing#1	348
sit#1	348
▁sustainable	347
ding	347
surface#1	347
▁Imagine	347
use	346
▁trust	346
before#1.	346
cy	346
areas#1	345
country#1,	345
▁classroom	345
▁sleep	345
▁pick	345
▁journey	345
▁complexity	344
ug	344
▁Where	344
▁sun	344
▁museum	344
▁generation	344
▁multi	344
sent#1	343
land	343
people#1's	343
school#1,	343
China#1	342
▁NASA	342
▁vision	342
▁rest	342
Ha	342
field#1	342
les	342
wants#1	341
▁dark	341
▁economic	341
allowed#1	341
▁tools	341
▁ants	341
qui	340
▁morning	340
water#1,	340
▁worth	340
▁act	340
No#1,	339
men	339
bottom#1	339
tools#1	339
▁airplane	338
technologies#1	338
deep#1	338
▁Pro	338
▁Al	338
▁computers	338
fly#1	338
clear#1	337
death#1	337
lives#1.	337
▁Bill	337
change#1.	337
too#1.	337
so	337
fish#1	337
involved#1	336
▁Iran	336
drive#1	335
structure#1	335
place#1.	335
hands#1	335
away#1.	335
guess#1	335
off	335
▁Dan	335
OK#1,	335
▁Those	335
▁surface	335
▁fast	334
We	334
▁box	334
including#1	334
▁shape	334
▁every	333
▁inter	333
▁Mu	333
ap	333
normal#1	333
▁normal	333
Chinese#1	333
▁listen	332
▁message	332
▁games	332
program#1	332
▁bar	332
worth#1	332
12#1	332
▁support	332
top	332
ving	332
net	331
▁little	331
bunch#1	331
▁issues	331
hit#1	330
▁speak	330
▁groups	330
▁wall	330
▁Indian	330
▁son	330
▁plant	330
▁absolutely	329
shown#1	329
▁reasons	329
▁truth	329
▁visual	329
▁industry	329
▁tool	328
▁talked	328
▁individual	328
▁type	327
supposed#1	327
▁Nigeria	327
God#1	327
allows#1	327
▁evidence	327
▁Los	327
▁Twitter	327
walking#1	326
bigger#1	326
images#1	326
ite	326
▁teachers	326
▁compassion	326
watching#1	325
▁similar	325
dark#1	325
▁rate	324
culture#1	324
▁arm	324
grew#1	324
▁emotions	324
lead#1	324
▁middle	324
▁Ni	324
break#1	324
finding#1	323
hu	323
▁smart	323
▁am	323
▁meaning	323
▁list	322
force#1	321
yet#1,	321
map#1	321
measure#1	321
V	321
taught#1	321
▁random	321
▁record	320
red	320
▁Britain	320
paper#1	320
ors	319
available#1	319
evidence#1	319
add#1	319
ended#1	319
▁upon	318
med	318
▁product	318
ible	317
material#1	317
▁actually	317
favorite#1	317
patients#1	317
back#1.	317
North#1	317
attention#1	317
aw	317
future#1.	317
words#1,	316
hand#1,	316
ep	316
protect#1	316
▁usually	315
▁much	315
▁ready	315
▁personal	315
lin	315
▁wind	314
▁pattern	314
▁giving	314
▁other	314
▁impact	314
W	314
feet#1	313
ier	313
ities	313
▁Canada	313
▁star	313
▁Go	313
▁response	313
numbers#1	313
▁meet	313
▁camera	313
▁fine	312
io	312
▁growing	312
ath	312
▁goal	312
▁metaphor	312
▁political	312
▁playing	311
rie	311
higher#1	311
▁poem	311
▁Great	311
▁interact	310
▁result	310
▁memory	310
traditional#1	309
writing#1	309
▁brought	309
▁David	309
▁Cha	309
▁Ph	309
main#1	308
reality#1	308
result#1	308
rat	308
s#1	308
act#1	308
sounds#1	307
▁designed	307
quality#1	307
continue#1	307
ick	307
term	307
▁revolution	307
drug#1	307
▁wrote	307
sorts#1	307
fear#1	307
standing#1	307
girls#1	306
▁amount	306
▁materials	306
▁based	306
▁Te	306
▁same	305
▁physical	305
meant#1	305
▁Vi	305
▁text	305
▁class	305
▁look	305
rate#1	305
25#1	304
▁achieve	304
ai	304
girl#1	303
hy	303
▁post	303
▁tree	303
go#1.	303
▁kill	303
▁starting	303
tech	303
choose#1	303
issue#1	303
ack	303
▁opportunities	302
▁models	302
▁artists	302
ically	302
truly#1	301
60#1	301
▁anywhere	301
▁plastic	301
potential#1	301
▁month	300
kept#1	300
▁Ja	299
ably	299
water#1.	299
▁square	299
nine#1	299
istic	299
ari	299
fundamental#1	299
val	299
izing	299
▁changing	299
▁restaurant	298
▁happiness	298
▁European	298
international#1	298
▁Steve	298
visual#1	298
▁drive	298
that	297
▁plan	297
thousand#1	297
▁approach	297
▁village	297
▁excited	297
▁Francisco	297
story#1,	297
happen#1.	297
cause#1	296
center#1	296
▁table	296
▁creative	296
tend#1	295
movement#1	295
environment#1	295
present#1	295
lose#1	295
par	295
▁explain	295
▁leaders	295
message#1	294
▁AIDS	294
▁writing	294
pro	294
ocean#1	294
law#1	294
▁period	294
▁Another	293
▁hundred	293
▁Life	293
scale#1	293
▁literally	293
▁device	293
pictures#1	293
▁wait	293
spread#1	293
▁Am	293
▁solve	292
carbon#1	292
perfect#1	292
sea#1	292
planet#1.	292
▁down	292
role#1	292
▁Web	292
actual#1	292
country#1.	291
out	291
▁understanding	291
exciting#1	291
not	291
▁engine	291
▁boy	291
▁French	291
▁plants	291
▁police	291
▁medical	291
▁center	290
▁Boston	290
▁professor	290
ability	290
▁forest	290
mass#1	290
cons	290
low#1	290
▁sudden	289
▁audience	289
▁Which	289
▁exciting	289
▁ability	289
▁democracy	289
▁song	289
audience#1	289
▁shot	288
creative#1	288
product#1	288
behavior#1	288
theory#1	287
▁waste	287
ov	287
▁Michael	286
▁touch	286
▁himself	286
▁Japan	286
economy#1	285
▁millions	285
▁online	285
▁September	285
data#1,	284
point#1,	284
▁Sha	284
recognize#1	284
▁vast	284
groups#1	284
increase#1	284
throughout#1	283
▁realize	283
better#1.	283
extraordinary#1	283
all	283
brain#1.	283
cho	283
▁Big	282
becoming#1	282
English#1	282
my	282
▁strong	282
▁Wikipedia	282
▁teach	282
▁trees	282
brain#1,	281
▁involved	281
/	281
▁break	280
resources#1	280
▁Many	280
za	280
▁Washington	280
Are#1	280
▁autism	280
▁express	279
development#1	279
mar	279
▁Che	279
▁first	279
above#1	279
nuclear#1	279
▁Or	279
notice#1	279
▁gas	279
moral#1	279
▁supposed	278
▁save	278
80#1	278
▁hot	278
▁GPS	278
expect#1	278
provide#1	278
▁mass	278
▁sounds	277
▁evolution	277
▁Brazil	277
▁focus	277
cool#1	277
greatest#1	277
▁ultimately	277
▁office	276
▁faster	276
▁Asia	276
follow#1	276
moment#1,	276
▁genetic	276
▁medicine	276
technology#1.	276
▁page	276
led	276
you	275
problem#1,	275
▁street	275
series#1	275
▁ground	275
generation#1	275
▁development	275
▁bottom	274
days#1,	274
▁Su	274
film#1	274
other#1,	274
ey	274
▁add	274
stuff#1.	273
is#1:	273
▁secret	273
home#1,	273
▁begin	273
▁thousand	273
▁decision	273
end	273
▁crisis	272
connected#1	272
ight	272
fall#1	272
▁showed	272
good#1.	272
shape#1	272
▁moral	272
▁Ben	272
▁jobs	272
▁sit	272
▁stars	272
ay	272
die#1	271
▁starts	271
▁walking	271
place#1,	271
▁As	271
ana	271
▁screen	270
be#1.	270
▁Audience	270
▁nuclear	270
▁sell	270
space#1.	270
approach#1	270
online#1	270
Ca	270
iv	269
ue	269
but	269
consider#1	269
question#1.	269
strong#1	269
stage#1	268
ice#1	268
reasons#1	268
African#1	268
▁student	268
based	268
▁slow	267
fu	267
written#1	267
▁Pakistan	267
like#1.	267
reading#1	267
▁mathematics	267
▁Valley	267
▁success	267
listen#1	266
▁brains	266
▁skin	266
▁follow	266
▁dog	266
▁complicated	266
▁National	265
for	265
▁projects	265
▁worse	265
suddenly#1	265
▁grew	265
light	265
Imagine#1	265
▁action	265
▁Lu	264
▁speed	264
sex#1	264
▁door	264
▁aware	264
kill#1	264
issues#1	264
network#1	264
bb	264
▁hit	263
private#1	263
work	263
room#1,	263
color#1	263
▁lose	263
▁version	263
have#1,	263
▁count	263
▁stay	263
▁situation	263
▁discovered	263
▁pain	262
▁workers	262
critical#1	262
▁effect	262
▁minute	262
fight#1	262
thinking#1,	262
ture	262
▁search	262
larger#1	262
▁taught	262
▁Your	261
serious#1	261
finally#1,	261
▁resources	261
Google#1	261
home#1.	261
▁check	261
▁Sun	261
experiment#1	261
ky	261
waiting#1	261
lock	261
mental#1	261
▁rain	261
fun#1	260
▁doctor	260
air	260
▁Si	260
ions	260
excited#1	260
books#1	260
cent	260
U	260
current#1	260
▁position	259
▁quick	259
fully	259
ped	259
late#1	259
▁From	259
forward#1	259
space#1,	259
ready#1	259
▁etc	259
solution#1	258
final#1	258
died#1	258
▁hospital	258
important#1.	258
school#1.	258
ner	258
somewhere#1	257
▁relationship	257
▁dangerous	257
▁digital	257
various#1	257
greater#1	257
▁said	257
two#1,	257
▁teacher	257
é	257
cha	256
▁June	256
before#1,	256
▁protein	256
▁Mar	256
examples#1	256
▁kilometers	255
▁malaria	255
week#1	255
connect#1	255
▁laptop	255
▁objects	255
loved#1	255
▁moved	254
ee	254
be#1,	254
▁died	254
question#1,	254
arch	254
▁basic	254
▁spread	254
walked#1	253
kid#1	253
▁late	253
effect#1	253
Right#1?	253
specific#1	253
▁critical	253
▁did	253
Do#1n't	252
▁win	252
near#1	252
▁aid	252
▁movies	252
▁present	252
van	252
▁role	252
▁developed	251
lower#1	251
military#1	251
pull#1	251
▁crazy	251
First#1	251
ray	251
▁after	250
▁mis	250
grade	250
▁road	250
▁Obama	250
source#1	250
massive#1	250
go#1,	250
▁showing	250
▁general	250
▁standing	250
search#1	250
industry#1	250
journey#1	249
data#1.	249
idea#1.	249
▁machines	249
works#1.	249
▁send	249
▁alive	249
▁virus	249
▁progress	249
▁radio	249
treat#1	249
▁through	248
▁factory	248
did#1.	248
▁incredibly	248
ground#1	248
▁connected	248
truth#1	248
▁choose	248
▁notice	248
▁violence	248
▁experts	248
▁tend	248
tail	248
voice#1	247
student#1	247
off#1.	247
▁Sweden	247
▁George	247
▁fight	247
ler	247
positive#1	247
▁photos	247
▁web	247
of	247
fast#1	246
gh	246
▁watching	246
▁Anderson	246
▁lived	246
▁fall	245
more#1.	245
▁trade	245
killed#1	245
helped#1	245
▁context	245
were#1n't	245
▁path	245
▁hair	244
period#1	244
▁bed	244
recent#1	244
police#1	244
▁most	244
different#1.	244
▁drop	244
ash	244
▁inequality	244
▁stress	244
▁safe	244
cars#1	243
▁although	243
▁Po	243
genetic#1	243
away#1,	243
wish#1	243
▁magic	243
▁store	243
rich#1	243
ou	243
▁security	243
countries#1,	243
trans	243
▁smaller	243
▁higher	242
uses#1	242
future#1,	242
idea#1,	242
wrong#1.	242
environmental#1	242
▁His	242
▁ball	242
situation#1	242
▁policy	242
camera#1	242
century#1	242
▁modern	242
cultural#1	241
▁electricity	241
communities#1	241
▁mine	241
▁hour	241
money#1,	241
▁healthcare	241
▁microbes	241
▁dinosaurs	241
speed#1	240
▁January	240
somehow#1	240
stream	240
gue	240
▁meters	240
▁Einstein	240
pieces#1	240
▁bunch	240
old#1,	240
▁didn	239
except#1	239
q	239
ran#1	239
▁track	239
▁British	239
▁families	239
▁extremely	238
driving#1	238
▁patterns	238
money#1.	238
dollars#1.	238
sell#1	238
raise#1	238
▁cases	238
possibly#1	237
▁solutions	237
▁four	237
device#1	237
further#1	237
▁Wow	237
▁treat	237
▁positive	237
▁emotion	237
results#1	237
teachers#1	237
▁wealth	237
▁CEO	237
kin	236
▁Museum	236
teaching#1	236
crazy#1	236
port	236
clearly#1	236
▁impossible	236
drugs#1	235
States#1,	235
wood	235
general#1	235
mark	235
dead#1	235
▁equipment	235
rules#1	235
▁Dr	234
innovation#1	234
forms#1	234
▁price	234
models#1	234
▁card	234
morning#1	234
willing#1	234
wait#1	234
▁major	234
org	234
▁vaccine	234
▁prison	234
▁cognitive	233
▁buildings	233
ice	233
▁Gu	233
dream#1	233
in#0	233
▁afraid	233
good#1,	233
▁Per	233
computers#1	233
fer	233
ham	233
ley	233
▁college	233
▁Higgs	233
sat#1	232
around#1.	232
end#1,	232
version#1	232
▁favorite	232
street#1	232
▁perspective	232
▁Middle	232
▁weight	232
women#1,	232
▁rule	232
▁clean	232
leaders#1	232
▁lines	232
rights#1	232
ko	231
How	231
baby#1	231
▁pressure	231
children#1,	231
around#1,	231
▁Ghana	231
complete#1	231
▁surgeon	231
▁activity	231
▁entire	231
py	231
▁Africans	231
decide#1	230
ncy	230
▁prototype	230
touch#1	230
▁individuals	230
mobile#1	230
▁economics	230
travel#1	229
possible#1.	229
history#1.	229
change#1,	229
▁content	229
vis	229
▁ahead	229
meter	229
safe#1	229
ory	229
response#1	228
see#1.	228
slightly#1	228
children#1.	228
▁older	228
18#1	228
It	228
▁Wi	228
worst#1	228
▁dance	228
▁decisions	228
▁Microsoft	228
▁female	228
information#1,	228
following#1	228
▁Amazon	228
interest#1	227
reduce#1	227
▁illness	227
no#1,	227
Think#1	227
▁versus	227
biological#1	227
▁cross	227
flying#1	226
▁legs	226
projects#1	226
National#1	226
bought#1	226
Western#1	226
▁killed	226
gram	226
patient#1	226
▁Mc	226
eye#1	226
▁creating	226
let	226
sense#1,	225
shared#1	225
mostly#1	225
▁unique	225
goal#1	225
▁Korea	225
▁ran	225
century#1,	225
▁detect	225
lan	225
▁Joe	225
▁mosquito	225
brains#1	225
urban#1	224
▁sand	224
▁strange	224
Look#1	224
▁lifetime	224
▁flow	223
office#1	223
meaning#1	223
box#1	223
▁rich	223
ual	223
▁cold	223
▁loved	223
▁Angeles	223
▁points	223
▁fundamental	223
▁foot	223
rate	222
aware#1	222
problems#1.	222
▁quality	222
▁national	222
▁sorts	222
train#1	222
lit	222
90#1	221
highly#1	221
han	221
true#1.	221
uff	221
plan#1	221
list#1	221
older#1	221
▁take	221
security#1	221
types#1	220
waste#1	220
important#1,	220
rise#1	220
invented#1	220
▁expect	220
▁extra	220
▁sky	220
clock	220
▁tumor	219
well	219
price#1	219
▁Her	219
instance#1,	219
individuals#1	219
complicated#1	219
▁putting	219
▁term	219
understood#1	219
▁Mr	219
▁Australia	219
▁Ge	219
▁President	219
ments	219
▁awesome	219
evolution#1	218
▁Basically	218
form	218
familiar#1	218
happened#1.	218
objects#1	218
▁terrible	218
body#1.	218
▁train	218
improve#1	218
over	218
▁Art	218
▁choices	218
nearly#1	218
bringing#1	218
▁mental	218
causes#1	217
▁Again	217
▁allowed	217
feed#1	217
Bar	217
Fi	217
example#1.	217
trust#1	217
▁enable	217
fit#1	217
disc	217
did#1,	217
▁sat	217
environment#1,	217
▁Darwin	217
rap	217
process#1,	216
book#1,	216
night#1,	216
smaller#1	216
played#1	216
listening#1	216
▁board	216
▁any	216
▁communities	216
▁Robert	216
▁reading	216
▁forget	216
ons	216
push#1	216
gar	215
▁being	215
University#1	215
500#1	215
▁pull	215
▁floor	215
Why	215
smart#1	215
▁Street	215
strange#1	215
gotten#1	215
ik	215
▁male	214
▁temperature	214
▁training	214
terrible#1	214
do#1?	214
▁architecture	214
▁say	214
America#1,	214
feels#1	214
▁pieces	214
hr	214
helping#1	214
▁Dad	214
object#1	214
alone#1	213
▁email	213
▁legal	213
▁exist	213
record#1	213
studies#1	213
▁service	212
Americans#1	212
nna	212
▁listening	212
costs#1	212
seemed#1	212
▁recognize	212
▁researchers	212
explore#1	212
range#1	212
▁skills	212
ji	212
▁results	212
ney	211
more#1,	211
draw#1	211
slow#1	211
▁park	211
▁meant	211
▁organization	211
▁hotel	211
▁source	211
class#1	211
pan	211
history#1,	211
faster#1	210
▁forms	210
central#1	210
▁Green	210
▁stick	210
plant#1	210
▁Center	210
done#1.	210
person#1,	210
▁Israel	210
West#1	210
▁gr	210
▁Human	210
enough#1,	209
choice#1	209
vision#1	209
▁Japanese	209
doctors#1	209
▁specific	209
▁massive	209
body#1,	209
education#1,	209
extra#1	209
points#1	209
▁bees	209
▁race	209
▁Ko	209
apply#1	208
▁larger	208
plants#1	208
▁scientific	208
af	208
▁Ethiopia	208
Dr.#1	208
▁own	208
▁shown	208
▁Harvard	208
▁Congress	208
▁physics	208
▁babies	208
carry#1	208
▁bridge	208
▁predict	208
▁meeting	207
▁stopped	207
▁Paul	207
unique#1	207
▁peace	207
wind#1	207
▁decide	207
pattern#1	207
directly#1	207
▁rise	207
training#1	207
governments#1	207
▁planets	207
▁sector	207
▁Texas	207
▁now	207
▁Ju	206
paid#1	206
gas#1	206
▁costs	206
▁shift	206
▁subject	206
raised#1	206
▁mid	206
tter	206
▁reach	206
▁purpose	206
immediately#1	206
healthy#1	206
▁myth	206
▁beauty	206
▁familiar	206
▁trouble	206
▁degrees	206
▁Arab	206
▁draw	205
tool#1	205
action#1	205
▁off	205
hot#1	205
original#1	205
▁five	205
▁better	205
▁chemicals	205
▁blind	205
However#1,	205
▁River	205
tain	205
▁produce	205
▁Mom	205
first#1,	204
Earth#1.	204
workers#1	204
▁waiting	204
▁treatment	204
▁conditions	204
plastic#1	204
▁Mary	204
▁increasingly	204
kids#1,	204
▁products	204
studying#1	204
fairly#1	204
total#1	204
▁boat	204
times#1,	203
▁physicist	203
materials#1	203
emotional#1	203
▁fantastic	203
off#1,	203
▁closer	203
▁smell	203
join#1	203
aging	203
▁led	203
ging	203
▁School	203
▁Rio	203
▁sign	202
inspired#1	202
forest#1	202
▁respect	202
describe#1	202
▁pass	202
skin#1	202
▁hole	202
below#1	202
clean#1	202
▁leg	202
▁consumer	202
▁decade	202
▁states	202
civil#1	202
▁freedom	202
Two#1	201
turning#1	201
▁performance	201
buildings#1	201
ord	201
▁biology	201
organization#1	201
mind#1,	201
▁rapidly	201
▁Sometimes	201
Europe#1	201
▁Pat	201
games#1	201
▁minds	201
▁habitat	201
▁El	201
▁Sea	200
▁Du	200
▁extraordinary	200
remarkable#1	200
violence#1	200
Like#1	200
Would	200
lies	200
Today#1,	200
Over#1	199
man#1,	199
▁charge	199
tar	199
▁intelligence	199
focused#1	199
▁capital	199
brings#1	199
▁YouTube	199
side#1,	199
creates#1	199
print	199
▁Islamic	199
chemical#1	198
gy	198
boy#1	198
process#1.	198
stopped#1	198
lives#1,	198
mind#1.	198
tes	198
▁Pal	198
tremendous#1	198
old#1.	198
art	198
months#1,	198
conditions#1	198
▁apartment	198
drop#1	198
teacher#1	198
round	197
engage#1	197
▁fuel	197
▁main	197
▁walked	197
family#1,	197
▁alternative	197
▁does	197
▁empathy	197
food#1,	197
▁At	197
fully#1	197
▁fo	197
▁travel	197
legal#1	196
evolved#1	196
ways#1.	196
▁Times	196
he#0	196
▁meme	196
▁slightly	195
▁funny	195
popular#1	195
energy#1,	195
▁laws	195
experience#1.	195
Take#1	195
▁interest	195
college#1	195
code#1	195
70#1	195
▁France	195
address#1	195
▁Jim	195
▁gay	195
▁answers	195
▁Muslims	195
have#1.	194
held#1	194
square#1	194
sign#1	194
▁effective	194
▁direction	194
▁slide	194
friends#1,	194
products#1	194
despite#1	194
trees#1	194
▁Da	194
schools#1	194
▁traditional	194
▁ended	194
▁James	194
▁fit	194
memory#1	194
much#1,	193
▁continue	193
noticed#1	193
ju	193
gi	193
▁Women	193
moment#1.	193
▁lead	193
doing#1.	193
This	193
▁site	192
families#1	192
▁Lab	192
Right#1	192
▁physician	192
giant#1	192
▁surgery	192
pol	192
useful#1	192
▁Antarctica	192
effective#1	192
impossible#1	192
▁studies	192
▁career	192
▁Nobel	192
countries#1.	191
here#1?	191
▁account	191
European#1	191
▁Frank	191
village#1	191
position#1	191
▁Bur	191
therefore#1	191
knowing#1	191
fantastic#1	191
▁bread	191
female#1	191
ft	190
standard#1	190
▁series	190
colleagues#1	190
▁employees	190
▁criminal	190
▁Jewish	190
Middle#1	190
▁photograph	190
▁stem	190
▁function	190
success#1	190
▁iPhone	190
service#1	189
▁Alzheimer	189
patterns#1	189
▁du	189
▁straight	189
community#1,	189
▁Rwanda	189
▁feels	189
planet#1,	189
decisions#1	189
▁written	189
compared#1	189
▁nation	189
▁pollen	189
subject#1	188
dangerous#1	188
▁mission	188
activity#1	188
stone	188
education#1.	188
source	188
▁sick	188
▁lucky	188
▁brand	188
hospital#1	188
science#1,	188
beauty#1	188
John#1	188
discover#1	188
▁feed	188
jobs#1	188
food#1.	188
▁suddenly	188
▁range	188
significant#1	188
ets	188
▁October	188
▁Air	187
hour#1	187
afford#1	187
leading#1	187
▁use	187
▁remarkable	187
straight#1	187
published#1	187
twice#1	187
▁lower	187
active#1	187
▁healthy	187
male#1	187
quick#1	186
▁international	186
Once#1	186
▁definition	186
▁Martin	186
Great#1	186
produced#1	185
treatment#1	185
▁Muslim	185
too#1,	185
throw#1	185
laws#1	185
▁increase	185
▁agree	185
▁Ke	185
▁convince	185
▁penguins	185
room#1.	184
▁illegal	184
▁CO	184
▁conflict	184
road#1	184
▁camp	184
decision#1	184
society#1.	184
spending#1	184
challenges#1	184
▁developing	184
fire#1	184
▁ecosystem	184
▁whom	184
career#1	184
none#1	183
figured#1	183
won#1	183
mat	183
passed#1	183
secret#1	183
▁kitchen	183
▁finding	183
▁active	183
day	183
▁Boy	183
environment#1.	183
ancient#1	183
Indian#1	183
▁responsibility	183
engineering#1	182
▁corner	182
bar	182
▁microscope	182
sold#1	182
East#1	182
information#1.	182
▁Uganda	182
cal	182
▁Par	182
importantly#1,	182
▁push	182
communicate#1	182
point#1.	182
▁fl	182
▁boys	181
▁doctors	181
cover#1	181
stick#1	181
flow#1	181
core#1	181
Ah	181
▁paid	181
holding#1	181
British#1	181
lines#1	181
son#1	181
car	181
▁character	181
▁proud	181
▁physically	181
States#1.	180
worry#1	180
ography	180
▁Chicago	180
▁military	180
science#1.	180
▁hydrogen	180
▁tremendous	180
ified	180
eating#1	180
▁passionate	180
ahead#1	180
▁blog	180
▁Tom	180
cla	180
▁attack	180
▁evolutionary	180
members#1	180
▁letter	180
levels#1	180
sleep#1	180
▁algorithms	180
ologist	180
▁terrorism	180
studied#1	179
site#1	179
shot#1	179
▁unfortunately	179
▁Yorker	179
▁popular	179
▁Narrator	179
production#1	179
related	179
community#1.	179
better#1,	179
▁understood	179
▁sensors	179
▁Bank	179
easily#1	179
wall#1	179
TV#1	179
track#1	179
▁hormone	179
pass#1	178
▁efficient	178
experience#1,	178
shift#1	178
grandfather	178
job#1.	178
afraid#1	178
stuff#1,	178
▁rock	178
▁invented	178
necessarily#1	178
month#1	178
▁matters	178
electricity#1	178
▁specifically	178
▁region	178
▁failure	178
▁tough	178
▁coffee	178
water	178
ular	178
▁MRI	178
11#1	177
notion#1	177
fix#1	177
▁currently	177
▁puzzle	177
mine#1	177
▁throw	177
▁horse	177
▁conversations	177
virtual#1	177
helps#1	177
▁mobile	177
collective#1	177
▁target	177
▁Sh	177
▁press	177
▁psychology	177
▁protect	177
▁advice	177
ear	176
sun#1	176
▁noticed	176
▁layer	176
opened#1	176
▁Can	176
▁electro	176
forget#1	176
managed#1	176
▁bottle	176
wo	175
▁consciousness	175
▁meaningful	175
store#1	175
▁State	175
skills#1	175
ideas#1.	175
▁para	175
▁Apple	175
due#1	174
was#0	174
solutions#1	174
▁helped	174
pressure#1	174
tree#1	174
supply#1	174
machines#1	174
capacity#1	174
▁immediately	174
days#1.	174
▁trip	174
stars#1	174
▁lights	174
▁gun	174
car#1,	174
▁cycle	173
meeting#1	173
Gr	173
door#1	173
done#1,	173
stan	173
entirely#1	173
▁dying	173
avi	173
lon	173
▁challenges	173
▁breast	173
▁seat	173
speaking#1	173
▁parent	173
▁Mark	173
hearing#1	173
▁polio	173
▁glass	173
typical#1	173
▁capitalism	173
▁German	173
▁vaccines	173
▁develop	172
▁connect	172
power#1.	172
America#1.	172
lack#1	172
ition	172
▁condition	172
▁Everybody	172
jo	172
▁return	172
region#1	172
predict#1	172
▁Tu	172
freedom#1	172
matic	172
▁institutions	172
long#1,	171
▁relationships	171
▁sad	171
▁Sch	171
mega	171
believed#1	171
▁deserve	171
▁professional	171
Each#1	171
▁teaching	171
Earth#1,	171
▁roll	171
bro	171
ker	171
▁driving	171
▁honest	171
proud#1	171
▁December	171
Actually#1,	170
project#1,	170
▁sunlight	170
design#1,	170
▁lunch	170
transform#1	170
▁trial	170
▁religion	170
More#1	170
▁survive	170
syn	170
▁broken	170
nal	170
▁dreams	170
press#1	170
▁pop	170
▁Paris	170
calls#1	169
link	169
industrial#1	169
▁normally	169
language#1.	169
child#1,	169
ide	169
policy#1	169
▁biggest	169
ways#1,	169
▁inspired	169
▁sustainability	169
▁nor	168
▁horrible	168
catch#1	168
▁hyper	168
multiple#1	168
▁biological	168
▁molecules	168
yet#1.	168
▁cloud	168
light#1.	168
easier#1	168
▁connection	168
▁production	168
▁Talk	167
▁types	167
▁proteins	167
wonder#1	167
context#1	167
God#1,	167
missing#1	167
▁bird	167
family#1.	167
ew	167
▁Ebola	167
is#0	167
being	167
▁raise	167
▁task	167
▁photographer	167
▁networks	167
exist#1	167
▁traffic	167
agree#1	167
▁fundamentally	167
▁Italy	167
ung	167
closer#1	167
▁hearing	167
▁Rob	167
cases#1	167
▁societies	167
▁cat	167
▁smile	167
War#1	166
▁flying	166
board	166
corn	166
women#1.	166
sharing#1	166
▁desk	166
morning#1,	166
visit#1	166
▁distance	166
progress#1	166
ery	166
▁Day	166
▁respond	166
▁Grand	166
▁Florida	166
▁designers	166
▁practice	166
▁markets	166
city#1,	165
city#1.	165
▁differences	165
revolution#1	165
affect#1	165
leads#1	165
▁NGO	165
effects#1	165
week#1,	165
intelligence#1	165
minds#1	165
▁relevant	165
▁experiments	165
▁island	165
▁Institute	165
screen#1	165
▁moments	165
▁cyber	165
please#1	165
▁levels	165
▁Their	165
▁pounds	165
▁motor	164
angle	164
▁weird	164
▁William	164
▁programs	164
programs#1	164
song#1	164
room	164
stuck#1	164
heat#1	164
▁greater	164
democracy#1	164
▁missing	164
▁mess	164
extreme#1	164
▁adapt	164
identify#1	164
ook	164
invited#1	164
▁typically	164
▁Islam	164
path#1	164
bag	163
▁mouse	163
broken#1	163
▁around	163
billions#1	163
birth#1	163
▁King	163
magic#1	163
represent#1	163
▁click	163
nk	163
peace#1	163
Did#1	163
caught#1	163
minutes#1,	163
▁Charles	163
offer#1	163
zero#1	163
pain#1	163
practice#1	163
China#1,	162
▁therapy	162
left#1,	162
If	162
worse#1	162
bodies#1	162
capital#1	162
▁Christmas	162
Have#1	162
▁complete	162
watched#1	162
majority#1	162
▁wh	162
▁Jesus	162
religious#1	162
David#1	162
▁governments	162
▁television	162
▁birds	162
dge	162
▁Russia	162
▁politics	162
▁ancestors	162
▁reward	162
wheel	162
MA	162
collect#1	161
load	161
constantly#1	161
▁bone	161
▁landscape	161
project#1.	161
light#1,	161
check#1	161
earlier#1	161
three#1,	161
physics#1	161
▁neuro	161
music#1,	161
ral	161
enjoy#1	161
▁enjoy	161
▁heat	161
compassion#1	161
▁party	161
cep	161
capable#1	160
▁worry	160
▁unless	160
▁evolved	160
avoid#1	160
prevent#1	160
person#1.	160
report#1	160
doing#1,	160
slide#1	160
▁February	160
J	160
14#1	160
look#1,	160
▁visit	160
streets#1	160
considered#1	160
dimensional	160
century#1.	160
big#1,	160
▁scary	160
▁fund	160
style	160
foreign#1	159
press	159
level#1,	159
Very#1	159
▁frankly	159
▁crowd	159
ideas#1,	159
▁dollar	159
happening#1.	159
▁afford	159
▁Everything	159
▁antibiotics	159
content#1	159
▁block	159
leaving#1	159
making	159
▁sequence	159
function#1	159
▁compete	159
connection#1	159
wearing#1	159
ef	159
return#1	159
3D#1	159
▁demand	159
babies#1	159
▁noise	158
associated#1	158
happiness#1	158
driven	158
▁lifestyle	158
possibility#1	158
beings#1	158
▁trillion	158
▁stuck	158
▁six	158
times#1.	158
sexual#1	158
▁database	158
compare#1	158
company#1,	158
HIV#1	158
▁Red	158
commercial#1	158
▁Lego	158
je	158
▁address	158
▁Derek	158
respond#1	157
▁even	157
Could	157
▁epidemic	157
16#1	157
▁event	157
cities#1,	157
▁toward	157
▁robotic	157
▁lack	157
interesting#1.	157
▁May	157
▁match	157
deeply#1	157
head	157
▁poet	157
▁commercial	157
▁Pole	157
temperature#1	157
▁Sam	157
paying#1	157
language#1,	157
▁including	157
▁paint	157
clinical#1	157
▁mountain	157
▁sharks	157
▁Mac	156
fuel#1	156
fighting#1	156
wide	156
performance#1	156
conscious	156
side#1.	156
▁largest	156
▁urban	156
aid#1	156
society#1,	156
down	156
▁passion	156
separate#1	156
▁particles	156
▁cultural	156
ati	156
responsible#1	156
▁trick	156
▁economists	156
▁Adam	156
ez	156
▁justice	156
hand	156
▁entrepreneurs	156
▁Tim	156
▁House	155
ologists	155
▁shared	155
▁argument	155
▁fix	155
Hey	155
doctor#1	155
television#1	155
▁less	155
stem#1	155
▁Revolution	155
▁laser	155
▁devices	155
▁balloon	155
▁crime	155
institutions#1	155
rop	155
responsibility#1	155
section	155
▁speech	155
rum	154
scale	154
age#1,	154
medicine#1	154
true#1,	154
▁download	154
trained#1	154
invest#1	154
First#1,	154
forces#1	154
▁Norway	154
enough#1.	154
universe#1,	154
profound#1	154
followed#1	154
nny	154
everyday#1	154
hidden#1	154
rule#1	154
degrees#1	154
▁infrastructure	154
forced#1	154
nature#1,	154
Big#1	153
▁Make	153
differences#1	153
▁town	153
▁Ten	153
▁customers	153
board#1	153
▁supply	153
launched#1	153
▁doing	153
line#1,	153
questions#1.	153
▁cards	153
▁universal	153
foot#1	153
▁phones	153
manage#1	153
▁Taliban	153
ily	152
there#1?	152
▁hate	152
legs#1	152
received#1	152
ending	152
radio#1	152
stood#1	152
picture#1.	152
dying#1	152
▁farm	152
related#1	152
filled#1	152
opposite#1	152
ough	152
▁graph	152
▁forever	152
fold	152
▁importantly	152
perfectly#1	152
cus	152
deliver#1	152
caused#1	152
▁never	152
▁chicken	152
▁spider	152
▁Cla	152
photograph#1	151
▁organizations	151
berg	151
Europe#1,	151
hor	151
▁surprise	151
web#1	151
indeed#1	151
▁provide	151
organizations#1	151
aria	151
wealth#1	151
▁Park	151
▁Super	151
▁total	151
▁Gulf	151
▁flight	150
▁easier	150
dealing#1	150
reality#1.	150
tens#1	150
▁mammals	150
right	150
picked#1	150
▁bank	150
▁switch	150
fourth#1	150
remember#1,	150
table#1	150
fine#1	150
▁bought	150
▁Pe	150
quantum#1	150
box	150
keeping#1	150
▁coral	150
▁Pre	150
gal	150
▁hurt	150
▁only	150
▁lung	150
▁tape	150
▁Health	150
▁window	150
argue#1	149
▁tissue	149
▁oxytocin	149
architecture#1	149
ned	149
house	149
▁private	149
picture#1,	149
problems#1,	149
▁standard	149
▁identity	149
▁Global	149
▁Bang	149
▁highly	149
professional#1	149
dog#1	149
page#1	149
▁Bangladesh	149
▁services	149
influence#1	149
▁taste	149
▁bodies	149
▁flag	149
nature#1.	149
puts#1	149
▁Eric	149
power#1,	148
cancer#1.	148
▁spaces	148
email#1	148
they	148
▁summer	148
play#1.	148
▁chain	148
daily#1	148
▁Give	148
▁extreme	148
cut	148
▁farmers	148
▁pen	148
▁flat	148
minute#1	148
Star	148
difference#1.	148
credit	148
▁capacity	148
alone#1.	148
she	148
▁accept	148
▁current	148
cher	148
Yes	147
has#1n't	147
decade#1	147
cancer#1,	147
job#1,	147
▁cover	147
▁affect	147
▁knowing	147
described#1	147
▁architect	147
▁bee	147
▁Mike	147
▁effects	147
cold#1	147
▁psychologist	147
men#1,	147
digit	147
ult	147
are	147
▁Greek	147
▁vote	147
hop	147
▁comet	147
▁gift	146
cells#1,	146
love#1,	146
zi	146
▁lesson	146
house#1,	146
▁Thomas	146
So#0	146
▁Friday	146
▁atmosphere	146
▁describe	146
▁beat	146
▁able	146
text#1	146
▁breath	146
▁gold	146
equal#1	146
electric#1	146
▁Science	146
▁campaign	146
▁married	146
ust	145
win#1	145
boys#1	145
▁Act	145
according#1	145
dollars#1,	145
▁earlier	145
▁played	145
get	145
▁steps	145
rick	145
▁Silicon	145
designers#1	145
yellow#1	145
saving#1	145
services#1	145
▁Spain	145
▁helping	145
▁insects	145
▁double	145
highest#1	145
▁significant	145
▁desert	145
benefit#1	144
ui	144
24#1	144
grown#1	144
glass#1	144
know#1?	144
low	144
one#1's	144
▁quote	144
▁plane	144
universe#1.	144
▁bus	144
▁signal	144
▁Union	144
▁communicate	144
▁electron	144
blind#1	144
crisis#1	144
▁directly	143
event#1	143
▁balance	143
▁Shi	143
prove#1	143
▁closed	143
sense#1.	143
fell#1	143
read	143
wrong#1,	143
second#1,	143
culture#1,	143
seconds#1	143
That	143
▁desire	143
happens#1.	143
race#1	143
fish	143
▁interview	143
▁faith	143
ero	143
okay#1,	143
▁achieved	143
state	143
▁FBI	143
investment#1	143
▁Gabby	143
contact#1	142
▁finish	142
▁relatively	142
ace	142
▁string	142
opt	142
rural#1	142
▁Since	142
▁painting	142
equivalent#1	142
beat#1	142
basis#1	142
▁rocket	142
hand#1.	142
requires#1	142
French#1	142
▁birth	142
▁furniture	142
task#1	142
values#1	142
necessary#1	142
machine#1.	142
brilliant#1	142
operating#1	142
▁suit	142
fill#1	142
our	142
▁Brian	142
▁passwords	142
surprised#1	141
later#1.	141
exact#1	141
▁designer	141
lesson#1	141
ological	141
business#1.	141
▁decades	141
over#1.	141
▁fair	141
so#1.	141
virus#1	141
▁algorithm	141
spoke#1	141
▁courage	141
some	141
▁neuron	141
▁dinosaur	141
direct#1	141
▁conference	140
technical#1	140
efficient#1	140
hate#1	140
▁surprised	140
▁court	140
lot#1.	140
▁final	140
▁date	140
Does#1	140
behavior#1.	140
rock#1	140
▁architects	140
▁Albert	140
craft	140
weight#1	140
can	140
selling#1	140
▁fat	140
▁method	140
▁Bob	140
▁structures	140
talks#1	140
▁mistake	140
▁virtual	140
business#1,	140
▁Beijing	140
▁mirror	140
▁collect	139
sending#1	139
benefits#1	139
▁sentence	139
dollar#1	139
war#1.	139
▁master	139
head#1.	139
meters#1	139
experiments#1	139
▁rely	139
aries	139
▁eating	139
negative#1	139
t#1	139
▁Pacific	139
losing#1	139
opening#1	139
Professor	139
prison#1	139
▁chemical	139
▁wearing	139
indeed#1,	139
▁July	139
▁Peter	139
design#1.	138
▁bear	138
▁wear	138
▁cave	138
▁Latin	138
▁behavioral	138
tons#1	138
limited#1	138
introduce#1	138
▁All	138
▁galaxy	138
ealand	138
choices#1	138
▁refugees	138
question#1:	138
▁humanity	138
convinced#1	138
I#1,	138
▁patent	138
funny#1	138
artificial#1	138
species#1,	138
▁shark	138
▁investment	138
▁saving	138
▁limb	137
▁environmental	137
variety#1	137
covered#1	137
▁unexpected	137
"I#1'm	137
define#1	137
▁cap	137
molecules#1	137
failed#1	137
pin	137
▁earth	137
▁band	137
conference#1	137
▁cheap	137
▁civilization	137
mble	137
▁separate	137
Last#1	137
▁theater	137
▁Delhi	137
▁Hollywood	137
▁passenger	137
accept#1	137
▁worried	137
▁airport	137
▁skull	137
▁beer	137
▁faces	136
▁concerned	136
this	136
great#1.	136
George#1	136
own#1.	136
raw	136
$	136
diversity#1	136
▁wild	136
▁meat	136
mission#1	136
eva	136
energy#1.	136
▁join	136
▁motion	136
makers	136
bal	136
politics#1	136
infrastructure#1	136
ground#1.	136
ulu	136
do#0	136
ification	136
▁facts	136
require#1	136
▁dimensions	136
generate#1	136
▁competition	136
▁Manhattan	136
▁damage	135
inner#1	135
▁Black	135
OK#1?	135
house#1.	135
▁cow	135
OK#1.	135
▁Foundation	135
▁qua	135
computer#1.	135
treated#1	135
facing#1	135
▁grown	135
▁fresh	135
▁scene	135
▁spending	135
moments#1	135
wire	135
moves#1	135
interesting#1,	135
hole#1	135
▁score	135
cast	135
▁Hy	135
▁origami	135
night#1.	134
over#1,	134
calling#1	134
relationships#1	134
▁Law	134
weird#1	134
▁gang	134
elements#1	134
biology#1	134
effort#1	134
▁invest	134
▁benefit	134
begins#1	134
base#1	134
▁foundation	134
▁communication	134
▁suffering	134
organized#1	134
Bill#1	134
▁brother	134
conflict#1	134
remain#1	134
kids#1.	134
▁opposite	134
happen#1,	134
▁Bronx	134
systems#1.	134
had#1n't	134
oe	134
corner#1	134
research#1,	134
ridge	134
▁struggle	134
▁cousin	134
▁Haiti	134
mountain#1	134
▁Woman	134
▁held	134
▁BG	134
attack#1	133
▁pages	133
▁Egypt	133
ordinary#1	133
▁Remember	133
▁accident	133
▁counter	133
▁citizen	133
▁seven	133
ome	133
music#1.	133
organic#1	133
wake#1	133
ivity	133
▁harder	133
▁Space	133
▁profound	133
▁yellow	133
▁leadership	133
adult#1	133
electrical#1	133
folks#1	133
▁definitely	133
computer#1,	133
▁signals	133
mathematical#1	133
experiences#1	133
lights#1	133
worried#1	133
CA	133
life	133
▁Santa	133
President#1	132
▁moon	132
use#1,	132
bed#1	132
charge#1	132
molecular#1	132
▁dioxide	132
▁household	132
▁Jeff	132
▁refugee	132
trouble#1	132
cer	132
survive#1	132
wild#1	132
remote#1	132
▁leader	132
importance#1	132
▁easily	132
▁maps	132
summer#1	132
matters#1	132
places#1,	132
▁brilliant	132
bot	132
▁High	132
comfortable#1	132
perspective#1	132
▁Ed	132
book#1.	132
▁Leonardo	132
▁emotional	132
▁catch	132
advantage#1	132
▁glacier	132
▁last	132
▁Gene	132
ama	132
▁wheelchair	132
▁argue	131
designing#1	131
▁Cor	131
try	131
level#1.	131
trade#1	131
states#1	131
wear#1	131
hour	131
star#1	131
▁each	131
▁Bush	131
window#1	131
▁failed	131
▁published	131
eyes#1,	131
enter#1	131
▁soil	131
▁holding	131
▁joy	131
species#1.	131
▁obesity	131
▁Cur	131
end#1.	131
thinks#1	131
experienced#1	131
▁Inter	131
▁molecule	131
▁curve	131
▁equal	131
▁holes	131
▁nervous	131
▁Blue	131
▁lie	130
character#1	130
▁operation	130
▁experiences	130
line#1.	130
▁legacy	130
▁engineering	130
▁Men	130
correct	130
shirt	130
▁carry	130
▁forces	130
zo	130
▁drink	130
▁skill	130
script	130
breast#1	130
▁degree	130
▁harm	130
▁elements	130
love#1.	130
▁roof	130
▁stupid	130
Okay#1	130
lucky#1	130
▁best	130
▁Nike	130
▁Gold	130
▁speaking	130
▁surveillance	130
express#1	129
buying#1	129
town#1	129
▁influence	129
represents#1	129
concerned#1	129
▁wondering	129
childhood#1	129
▁tons	129
▁consumers	129
▁sister	129
▁Things	129
▁labor	129
building#1,	129
▁November	129
▁Wo	129
▁diet	129
leaves#1	129
producing#1	129
▁fail	129
▁events	129
communication#1	129
▁electric	129
woman#1,	129
fascinating#1	129
purpose#1	129
▁deeply	129
▁advantage	129
▁tag	129
▁Koran	129
storm	129
▁wave	129
burn	129
▁Voice	129
ua	129
▁Mother	128
saved#1	128
▁metal	128
Mars#1	128
▁emissions	128
profit	128
mother#1,	128
▁circle	128
direction#1	128
sensitive	128
emerging#1	128
killing#1	128
same#1.	128
▁focused	128
war#1,	128
▁Wall	128
suggest#1	128
capture#1	128
decades#1	128
▁principle	128
▁Time	128
▁Bible	128
▁sharing	128
▁joke	128
include#1	128
previous#1	128
want#1.	128
▁may	128
great#1,	128
▁negative	128
▁jump	128
face#1.	127
▁clip	127
▁passed	127
anyway#1,	127
▁smallpox	127
17#1	127
▁chimpanzees	127
▁hell	127
account#1	127
eyes#1.	127
▁diversity	127
carrying#1	127
▁recent	127
dance#1	127
guy#1,	127
systems#1,	127
▁lawyer	127
▁newspaper	127
▁come	127
broke#1	127
term#1	127
minutes#1.	127
▁honey	127
jump#1	127
▁reduce	127
▁civil	127
▁deeper	127
health#1,	127
▁TEDTalk	127
cker	127
▁mathematical	127
SA	127
▁loud	126
view#1,	126
finish#1	126
▁host	126
▁aircraft	126
▁diabetes	126
▁Dur	126
questions#1,	126
article#1	126
▁Number	126
▁husband	126
▁Brooklyn	126
▁chair	126
bling	126
networks#1	126
▁poetry	126
▁achievement	126
▁fake	126
▁plate	126
birds#1	126
respect#1	126
▁colors	126
▁typical	126
places#1.	126
▁shoes	125
▁White	125
▁heads	125
Good#1	125
events#1	125
▁ought	125
hands#1.	125
trial#1	125
▁fan	125
▁Perhaps	125
paint#1	125
▁Jane	125
dia	125
▁Tanzania	125
scale#1.	125
▁watched	125
"No#1,	125
▁improve	125
foot	125
re#1	125
invisible#1	125
drawing#1	125
▁principles	125
burg	125
bees#1	125
▁entertainment	125
planets#1	125
government#1,	125
▁While	125
▁prime	125
▁Tri	125
advanced#1	125
▁bet	125
▁bike	125
view	124
release#1	124
factor	124
▁far	124
simple#1.	124
▁too	124
fellow#1	124
painting#1	124
man#1.	124
war	124
small#1,	124
▁clinical	124
▁shapes	124
Instead#1,	124
definition#1	124
▁believed	124
pulled#1	124
▁laugh	124
▁ski	124
▁notion	124
left#1.	124
▁named	124
labor#1	124
back	124
▁strategy	124
▁actual	124
loss#1	124
providing#1	124
▁Nations	124
leadership#1	124
▁Central	124
▁doubt	124
▁shop	124
tough#1	124
party#1	124
▁sold	124
▁feedback	124
▁lady	124
▁silk	124
▁Project	124
▁member	124
▁toilet	124
▁religious	124
keeps#1	124
▁ignorance	124
▁Gates	124
chu	124
▁muscle	123
▁explore	123
▁scan	123
▁tea	123
▁drawing	123
alternative#1	123
balance#1	123
?"	123
can#1,	123
combination#1	123
▁caught	123
▁exercise	123
matter#1.	123
▁phenomenon	123
▁Congo	123
think#1.	123
City#1	123
▁languages	123
stories#1,	123
Instead#1	123
▁galaxies	123
▁fairly	123
ade	123
▁marriage	123
▁spec	123
economy#1.	123
▁Island	123
ville	123
traffic#1	123
gender#1	123
▁condom	123
otherwise#1	123
▁location	123
▁perfectly	123
▁calls	122
▁Nobody	122
▁helicopter	122
▁produced	122
answers#1	122
satellite#1	122
graduate#1	122
remind#1	122
▁looking	122
reason#1,	122
lay#1	122
beautiful#1,	122
▁Russian	122
Y	122
cases#1,	122
suffering#1	122
depends#1	122
sequence#1	122
match#1	122
mentioned#1	122
▁Saturday	122
▁concepts	122
cells#1.	122
answer#1.	122
▁article	122
▁streets	122
primary#1	122
▁prize	122
Second#1	122
▁habit	122
▁Steven	122
required#1	122
hours#1,	122
independent#1	122
▁recipe	122
ix	122
▁opinion	122
▁imagination	122
▁ride	122
arm#1	122
win	122
friends#1.	122
▁magical	122
▁Indonesia	122
societies#1	122
▁globally	122
▁signs	122
▁generations	122
▁rainforest	122
Three#1	121
▁continent	121
▁studied	121
▁sample	121
▁algae	121
▁cup	121
▁Han	121
▁Hans	121
bly	121
us#1?	121
▁terrorist	121
called	121
ographic	121
existing#1	121
▁worst	121
▁fascinating	121
▁figured	121
▁adults	121
▁coal	121
aid	121
▁spot	121
die	121
▁exam	121
car#1.	121
quote#1	121
▁infect	121
underneath#1	121
signal#1	121
fossil#1	121
Then#1,	121
liked#1	121
▁note	121
▁terrorists	121
stress#1	121
▁gender	121
▁Tony	121
reached#1	121
▁quantum	121
▁ecosystems	121
face#1,	120
markets#1	120
ultimate#1	120
▁New	120
help#1.	120
reality#1,	120
brand#1	120
▁Jack	120
▁core	120
▁finished	120
▁creation	120
▁weather	120
▁Bl	120
▁hydro	120
structures#1	120
▁studying	120
▁pure	120
▁creates	120
▁contact	120
▁Also	120
▁moves	120
▁unit	120
introduced#1	120
appear#1	120
roughly#1	120
▁oceans	120
floor#1	120
added#1	120
▁trained	120
▁pigeon	120
▁depression	120
▁glamorous	120
▁waves	120
▁kidney	120
▁Rand	120
▁Pen	120
▁dictionary	120
former#1	119
▁curious	119
▁Wal	119
Audience#1:	119
encourage#1	119
▁March	119
j	119
head#1,	119
wise	119
▁sweet	119
interaction#1	119
▁Kh	119
▁apply	119
▁ten	119
▁responsible	119
regular#1	119
▁demo	119
today#1's	119
▁slowly	119
13#1	119
Arab#1	119
▁battery	119
mail	119
list	119
▁Mandela	119
▁fighting	118
▁medium	118
▁turning	118
▁remind	118
chromosome	118
▁resource	118
▁possibility	118
▁Seattle	118
▁interestingly	118
▁believe	118
axis	118
engineers#1	118
model#1.	118
▁dynamic	118
▁Stanford	118
degree#1	118
ulate	118
were#1,	118
gain#1	118
▁Met	118
double#1	118
▁letters	118
happened#1,	118
campaign#1	118
letter#1	118
▁Ei	118
model#1,	118
▁Arabic	118
James#1	118
▁mothers	118
bit	118
▁budget	118
surprising#1	118
▁artificial	118
▁thumb	118
▁Yemen	118
▁camel	118
▁comment	117
▁chart	117
▁voices	117
building#1.	117
finished#1	117
market#1.	117
runs#1	117
culture#1.	117
Anyway#1,	117
quickly#1.	117
bank#1	117
▁Bay	117
cross#1	117
trillion#1	117
happens#1,	117
hell#1	117
intelligent#1	117
▁Sunday	117
▁auto	117
▁offer	117
Anderson#1:	117
ball#1	117
argument#1	117
▁original	117
oid	117
edge#1	117
forth#1.	117
▁instance	117
expected#1	117
surrounded#1	117
coral#1	117
can#1.	117
▁pal	117
▁fossil	117
▁affordable	117
▁Israeli	117
▁nerve	117
▁lungs	117
▁Play	117
her	117
universal#1	117
London#1	117
í	117
▁bias	117
▁Switzerland	117
▁interacting	117
game#1.	116
▁perception	116
▁avoid	116
▁disaster	116
die#1.	116
▁protection	116
▁report	116
▁old	116
▁interface	116
women#1's	116
▁surely	116
▁LED	116
humanity#1	116
bits#1	116
▁Unfortunately	116
▁cameras	116
planning#1	116
hoping#1	116
▁Ocean	116
▁invisible	116
passion#1	116
alive#1	116
▁Oxford	116
nation#1	116
▁Chi	116
students#1,	116
absolute#1	116
▁Au	116
▁Egyptian	116
ku	116
▁button	116
speech#1	116
▁Alex	116
▁Abraham	116
▁Put	115
landscape#1	115
safety#1	115
setting	115
talk#1,	115
▁clever	115
dry#1	115
▁statistics	115
▁finger	115
four#1,	115
debate#1	115
scale#1,	115
block#1	115
hopefully#1	115
▁giant	115
▁Finally	115
▁weapons	115
belief#1	115
humans#1,	115
▁Nature	115
▁grid	115
live#1.	115
▁nano	115
▁Department	115
▁Cro	115
▁tradition	115
card#1	115
▁soldiers	115
▁sexual	115
class	115
connectivity	115
bility	115
▁General	115
▁prevent	115
▁Carolina	115
▁colleagues	115
▁helpful	115
▁atoms	115
mouse#1	114
mine	114
▁promise	114
bound	114
organisms#1	114
weeks#1,	114
link#1	114
farmers#1	114
closed#1	114
verse	114
simple#1,	114
▁opened	114
joined#1	114
▁club	114
count#1	114
▁orbit	114
▁April	114
husband#1	114
have#0	114
▁organisms	114
▁industrial	114
was#1.	114
▁still	114
▁treated	114
empty#1	114
roll#1	114
▁dry	114
▁hey	114
creatures#1	114
fewer#1	114
thinking#1.	114
walls#1	114
▁tube	114
collection#1	114
coffee#1	114
place	114
oma	114
▁filter	114
▁comfortable	114
▁Spanish	114
mention#1	114
▁loss	114
rai	114
plan	114
▁dots	114
▁apple	114
▁copy	113
are#0	113
ya	113
bear#1	113
▁billions	113
▁season	113
▁second	113
remove#1	113
▁limited	113
▁fashion	113
▁messages	113
desire#1	113
▁players	113
consequences#1	113
technological#1	113
different#1,	113
▁creatures	113
demand#1	113
increased#1	113
▁mode	113
intellectual#1	113
devices#1	113
say#0,	113
hood	113
▁transformation	113
self#1	113
copy#1	113
▁reform	113
result#1,	113
▁gain	113
▁activist	113
▁Andrew	113
ene	113
rich	113
▁illusion	113
aeda	113
▁university	113
▁cents	113
▁tumors	112
promise#1	112
▁tens	112
▁warming	112
alone#1,	112
criminal#1	112
▁cord	112
▁base	112
▁received	112
▁raised	112
Paul#1	112
▁bat	112
▁scared	112
▁Age	112
▁Kevin	112
past#1,	112
earth#1	112
▁teeth	112
▁risks	112
▁discover	112
distance#1	112
▁detail	112
ini	112
two#1.	112
▁begins	112
▁sensor	112
til	112
Today#1	112
▁grateful	112
▁journalist	112
gay#1	112
▁Carl	112
shaped	112
▁mindset	112
stayed#1	112
▁depends	112
Twitter#1	112
largely#1	112
replace#1	112
university#1	112
▁flies	112
power	112
apart#1	112
allowing#1	112
▁neuroscience	112
gap#1	112
Wait	112
▁Ted	112
▁Lebanon	111
cities#1.	111
signals#1	111
essential#1	111
▁crack	111
▁academic	111
phenomenon#1	111
▁trials	111
▁safety	111
Life#1	111
▁debate	111
serve#1	111
▁intelligent	111
▁Hill	111
nothing#1.	111
▁fell	111
Number#1	111
wave#1	111
▁Smith	111
particles#1	111
▁shall	111
ends#1	111
▁globalization	111
harder#1	111
sees#1	111
pounds#1	111
increasing#1	111
identity#1	111
scene#1	111
▁Research	111
▁Far	111
amounts#1	111
▁prefer	111
▁goals	111
Charles#1	111
struggle#1	111
▁computation	111
▁eggs	111
▁claim	111
▁Aristotle	111
Only#1	111
▁talent	111
threat#1	111
democratic#1	111
▁bubble	111
ueen	111
▁testing	111
▁Feynman	111
possible#1,	110
member#1	110
on#0	110
men#1.	110
Japanese#1	110
▁electronics	110
▁clinic	110
applied#1	110
▁bright	110
thanks#1	110
▁quiet	110
drives#1	110
▁Detroit	110
▁hang	110
▁experienced	110
phones#1	110
alive#1.	110
▁cook	110
musical#1	110
reaction#1	110
▁addition	110
bone#1	110
creation#1	110
cycle#1	110
▁sculpture	110
▁ever	110
justice#1	110
driven#1	110
ask#1,	110
▁SETI	110
bridge#1	110
▁hidden	110
▁enough	110
kid#1,	110
principles#1	110
happy#1.	110
▁shame	110
feedback#1	110
▁humor	110
▁leaving	110
cutting#1	110
arms#1	110
▁prisoners	110
flew#1	109
▁dinner	109
▁capable	109
ground#1,	109
neighborhood#1	109
park#1	109
▁IBM	109
changed#1.	109
▁ideal	109
▁leads	109
mean#1?	109
mothers#1	109
businesses#1	109
invent	109
he#1'd	109
China#1.	109
president#1	109
odd	109
free	109
▁cutting	109
say#1.	109
gro	109
▁heavy	109
fresh#1	109
keeping	109
▁background	109
▁cri	109
parents#1,	109
▁prove	109
MT	109
▁display	109
letters#1	109
▁strength	109
bright#1	109
▁Charl	109
air#1.	109
▁members	109
stage#1,	109
▁Atlantic	109
▁silence	109
credit#1	109
hard#1.	109
ocean#1.	109
awful#1	109
released#1	109
at#0	109
perform#1	109
▁bill	109
▁Bell	109
boat#1	109
▁grandchildren	109
▁teenagers	109
▁topic	109
believe#1,	108
▁constantly	108
▁flash	108
▁stood	108
quo	108
▁Hong	108
▁vehicle	108
▁mentioned	108
week#1.	108
sister#1	108
One#1,	108
conscious#1	108
lies#1	108
long	108
bit#1,	108
▁Rome	108
quickly#1,	108
art#1,	108
▁Mach	108
▁effort	108
▁tour	108
noise#1	108
▁Something	108
shapes#1	108
use#1.	108
▁Kar	108
ese	108
lethal	108
▁Everyone	108
▁sugar	108
▁monkey	108
▁smartphone	108
▁password	108
▁neighborhood	107
play	107
▁feelings	107
▁psycho	107
▁transform	107
collected#1	107
▁frame	107
▁greatest	107
sophisticated#1	107
hide#1	107
then#0	107
stories#1.	107
testing#1	107
distribution#1	107
About#1	107
PM#1:	107
nervous#1	107
▁August	107
▁broke	107
heavy#1	107
lessons#1	107
mix#1	107
sick#1	107
art#1.	107
▁Long	107
▁belong	107
operate#1	107
▁biodiversity	107
amazing#1.	107
strategy#1	107
▁exchange	107
▁rational	107
yard	107
soldiers#1	107
months#1.	107
▁Sir	107
▁forced	107
▁equation	107
addition#1	107
combine#1	107
▁DVD	107
▁release	107
▁extinct	107
▁Pan	107
▁Home	107
▁victims	107
▁corals	107
▁Milo	107
honor#1	106
curious#1	106
somewhat#1	106
▁milk	106
▁lay	106
▁Christians	106
matter#1,	106
relative#1	106
▁rarely	106
▁cliff	106
▁bizarre	106
determine#1	106
adults#1	106
▁notes	106
maker	106
Yeah	106
Mont	106
▁investors	106
hil	106
▁disappear	106
wisdom#1	106
▁users	106
PC	106
▁Child	106
Okay#1?	106
slowly#1	106
ani	106
▁trend	106
religion#1	106
▁interaction	106
chose#1	106
▁needle	106
target#1	106
▁songs	106
▁brings	106
▁tip	106
word	106
dreams#1	106
platform#1	106
part#1,	106
▁Copenhagen	106
▁multiple	106
▁Square	106
Al#1	105
recorded#1	105
▁highway	105
▁engage	105
formed#1	105
▁senses	105
sad#1	105
▁rebuild	105
switch#1	105
imagine#1,	105
processes#1	105
▁due	105
▁user	105
▁prop	105
control#1.	105
program#1.	105
▁Monterey	105
▁wherever	105
news#1.	105
▁Girl	105
▁zone	105
fair#1	105
care#1,	105
traveling#1	105
Come#1	105
▁attempt	105
dynamic#1	105
pages#1	105
form#1.	105
▁Open	105
print#1	105
case#1.	105
rhythm	105
▁stock	105
▁spoke	105
▁manage	105
course#1.	105
▁mathematicians	105
how	105
▁biologists	105
▁possibly	105
▁lying	105
participate#1	105
▁surprising	105
▁next	105
▁tax	105
▁chemistry	105
engaged#1	105
▁Cal	105
▁threat	105
▁Ken	105
▁Court	104
lot#1,	104
▁magazine	104
▁factors	104
sky#1	104
▁Port	104
perspective#1,	104
launch#1	104
plane#1	104
▁selfish	104
circuit	104
▁engineers	104
▁soul	104
▁miss	104
▁era	104
▁fewer	104
smell#1	104
health#1.	104
portrait	104
▁Shakespeare	104
provided#1	104
spaces#1	104
▁paying	104
▁additional	104
▁contract	104
lash	104
controlled	104
▁videos	104
causing#1	104
bird#1	104
hair#1	104
internal#1	104
means#1,	104
▁crash	104
▁player	104
▁pitch	104
funding#1	104
▁Louis	104
prepared#1	104
▁NSA	104
▁gap	104
gras	104
▁Hall	104
▁admit	103
air#1,	103
tissue#1	103
era#1	103
surface#1,	103
deeper#1	103
lum	103
▁nose	103
▁represent	103
fashion#1	103
▁Eastern	103
▁instrument	103
▁bits	103
▁invention	103
rim	103
competition#1	103
▁radically	103
exists#1	103
teen	103
hack	103
messages#1	103
marine#1	103
company#1.	103
▁Neanderthal	103
unlike#1	103
▁Apollo	103
▁Back	103
▁cultures	103
▁deliver	103
▁tri	103
▁Gandhi	103
paper#1,	103
psychological#1	103
electronic#1	103
▁driver	103
▁cigarette	103
▁imagery	103
partner#1	102
lie#1	102
▁peak	102
brother#1	102
Times#1	102
pair#1	102
work#1?	102
dinner#1	102
will#1,	102
▁Disney	102
dependent	102
vor	102
names#1	102
▁arguments	102
dropped#1	102
arts#1	102
▁collection	102
▁losing	102
surprise#1	102
percentage#1	102
background#1	102
▁exists	102
▁Sahar	102
rare#1	102
▁Sen	102
exchange#1	102
active	102
▁radical	102
management#1	102
up#0	102
forward#1.	102
▁central	102
gentlemen#1,	102
oceans#1	102
beginning#1,	102
▁supermarket	102
audience#1,	102
anthrop	102
live#1,	102
▁lens	102
▁react	102
▁Eve	102
▁Tor	102
▁Amy	102
test	101
voices#1	101
▁organ	101
part	101
ones#1.	101
married#1	101
metal#1	101
▁benefits	101
market#1,	101
▁Pri	101
care#1.	101
▁Olympics	101
defined#1	101
area#1,	101
▁eight	101
▁distribution	101
▁wake	101
▁Mill	101
greenhouse#1	101
signed#1	101
had#1,	101
▁homework	101
bus#1	101
past#1.	101
▁pump	101
method#1	101
trip#1	101
▁calling	101
▁Bali	101
steps#1	101
economy#1,	101
▁mouth	101
▁methane	101
▁split	101
educated	101
appreciate#1	101
millimeter	101
▁fiction	101
▁seal	101
going#1.	101
rates#1	101
control#1,	101
▁talks	101
▁corruption	101
made	101
▁prepared	101
▁gravity	101
▁went	100
happy#1,	100
explained#1	100
▁element	100
emissions#1	100
confidence	100
▁Yu	100
first#1.	100
lets#1	100
▁covered	100
arrived#1	100
▁carefully	100
bad#1.	100
solving	100
▁Islands	100
▁pair	100
But	100
condition#1	100
▁Part	100
motor#1	100
▁saved	100
▁god	100
▁third	100
▁planning	100
▁campus	100
far#1,	100
note#1	100
▁walls	100
author	100
construction#1	100
play#1,	100
▁valley	100
area#1.	100
game#1,	100
movements#1	100
hoo	100
receive#1	100
▁Min	100
hat	100
▁inventor	100
▁rare	100
▁transport	100
▁managed	100
▁demographic	100
▁collaborative	100
top#1,	100
▁FDA	100
▁Netherlands	100
Before#1	100
issues#1,	100
▁Arabia	100
machine#1,	100
ship#1	100
▁tell	100
▁regret	100
▁shoulder	100
▁Prize	100
▁Turkey	100
more	99
▁Saturn	99
century	99
▁International	99
▁wireless	99
▁Children	99
struck#1	99
world#1?	99
vehicle#1	99
aspect#1	99
▁option	99
works#1,	99
▁whatsoever	99
produces#1	99
island#1	99
Go#1	99
▁help	99
death#1.	99
second#1.	99
soil#1	99
▁evil	99
▁cry	99
wide#1	99
bing	99
itude	99
▁empty	99
▁pizza	99
valuable#1	99
equally#1	99
▁cure	99
▁wisdom	99
▁Mumbai	99
▁swim	99
▁invited	99
transition#1	99
faced#1	99
▁folks	99
▁valuable	99
▁battle	99
dollar	99
▁framework	99
child#1.	99
signs#1	99
▁mice	99
holes#1	99
▁together	99
Man#1:	99
▁command	99
▁Boo	99
▁mayor	99
forever#1.	99
▁edge	99
▁ancient	99
▁blah	99
▁Ford	98
My	98
Other#1	98
month#1,	98
luck	98
▁picked	98
affected#1	98
layer#1	98
wash	98
imagination#1	98
▁serve	98
▁suppose	98
foundation#1	98
▁organic	98
connections#1	98
▁judge	98
spirit#1	98
guys#1,	98
forward#1,	98
sufficient	98
carried#1	98
▁plu	98
▁spirit	98
▁arts	98
feet#1,	98
face	98
▁Philadelphia	98
▁nest	98
occurred#1	98
▁gradually	98
▁height	98
crime#1	98
▁Tra	98
or#1,	98
dramatic#1	98
▁successfully	98
▁pet	98
▁discovery	98
▁bringing	98
leader#1	98
▁insight	98
attempt#1	98
▁renewable	98
▁chimpanzee	98
practical#1	98
ocean#1,	98
remains#1	98
▁partly	97
gift#1	97
▁dopamine	97
cheap#1	97
▁boom	97
pound	97
▁grab	97
▁characters	97
population#1.	97
atmosphere#1	97
sand#1	97
Harvard#1	97
upper#1	97
▁Stephen	97
offered#1	97
▁knee	97
▁pill	97
▁upside	97
▁feature	97
field#1.	97
▁paradox	97
▁election	97
discovery#1	97
▁basis	97
▁property	97
á	97
▁Gore	97
▁consequences	97
radical#1	97
drink#1	97
atory	97
▁lawyers	97
▁belief	97
▁discussion	97
▁organs	97
continued#1	97
▁advanced	97
▁station	97
Muslim#1	97
▁whistle	97
online#1,	97
▁asteroid	97
educational#1	97
suggests#1	97
▁kick	97
▁infant	97
▁platform	97
▁dilemma	97
▁clue	97
▁convinced	97
centimeter	97
▁pig	97
▁honor	96
dozen#1	96
▁neither	96
▁designing	96
▁cooking	96
going#1,	96
town	96
▁handle	96
▁explanation	96
▁mainly	96
stands#1	96
▁bur	96
▁customer	96
▁occur	96
awareness#1	96
cies	96
▁spectrum	96
▁sweat	96
▁intellectual	96
risks#1	96
▁channel	96
Or#1,	96
false#1	96
three-dimensional#1	96
Palestinian	96
▁reaction	96
▁viruses	96
▁agriculture	96
translate#1	96
property#1	96
marriage#1	96
long#1.	96
age#1.	96
swimming#1	96
▁childhood	96
▁equality	96
cure#1	96
entrepreneur	96
▁Bhutan	96
Global#1	96
law	96
behavior#1,	96
zoom#1	96
Washington#1	96
▁remote	96
proof	96
don	96
politicians#1	96
▁houses	96
reactor	96
▁plenty	96
tested#1	95
feelings#1	95
assume#1	95
survival#1	95
resource#1	95
characters#1	95
▁logic	95
put	95
▁Jews	95
relate#1	95
▁Tokyo	95
choice#1.	95
forth#1	95
net#1	95
▁warm	95
corporate#1	95
exercise#1	95
▁advance	95
▁adult	95
▁mix	95
▁sites	95
spot#1	95
fun#1.	95
▁climb	95
generally#1	95
▁regions	95
ties	95
▁satellite	95
▁Design	95
computers#1,	95
grand#1	95
linear	95
barely#1	95
▁accurate	95
colors#1	95
▁wealthy	95
thrown#1	95
▁mortality	95
entered#1	95
▁Cambridge	95
▁monkeys	95
unit#1	95
▁dealing	95
Hmm	95
▁animation	95
Listen	95
psychopath	95
▁logo	94
▁technical	94
cars#1,	94
▁shoot	94
▁survey	94
Gen	94
▁tall	94
▁cart	94
principle#1	94
setting#1	94
grab#1	94
▁statistical	94
represented#1	94
failure#1	94
AC	94
▁Kong	94
▁relate	94
free#1.	94
▁OK	94
10#1,	94
▁news	94
field#1,	94
▁DH	94
depend#1	94
▁changes	94
▁microbial	94
▁There	94
See#1,	94
fast#1.	94
▁leaves	94
▁vessels	94
▁truck	94
▁films	94
▁pot	94
▁Sarah	94
tracking#1	94
innovation#1.	94
phone#1,	94
floating#1	94
immune#1	94
heads#1	94
ride#1	94
flight#1	94
▁whole	94
▁lecture	94
▁wondered	94
▁tuna	94
born	94
▁Afghan	94
▁Jerusalem	94
battle#1	94
invite#1	94
▁Abed	94
▁males	94
▁hide	94
▁coast	94
▁Bio	94
▁wrist	94
▁solid	94
cool#1.	93
consumption#1	93
aspects#1	93
▁inspiration	93
▁Chile	93
click#1	93
like#1?	93
magazine#1	93
conventional#1	93
heart#1,	93
pushing#1	93
bedroom	93
research#1.	93
schools#1,	93
numbers#1.	93
does#1.	93
damage#1	93
▁traits	93
▁busy	93
acting#1	93
▁hearts	93
▁Alaska	93
want#1,	93
Finally#1,	93
weapons#1	93
weather#1	93
▁genocid	93
mechanical#1	93
▁wine	93
▁Monday	93
prefer#1	93
▁Ray	93
ette	93
hits#1	93
▁flower	93
key	93
ino	93
sensitive#1	93
ograph	93
▁homes	93
▁drill	93
▁operating	93
effectively#1	93
▁microphone	93
videos#1	93
▁zoom	93
▁facing	93
dots#1	93
▁underwater	93
▁tank	93
▁enforcement	93
▁released	93
▁profoundly	93
blocks#1	93
organize#1	93
controversial	93
action#1.	93
▁Christopher	93
▁weak	93
▁dogs	93
▁punishment	93
▁disability	93
▁Scott	93
▁arms	93
▁Norden	93
▁blocks	92
companies#1,	92
▁Moore	92
answer#1,	92
▁forests	92
hope#1,	92
solving#1	92
▁scar	92
then#1.	92
medicine#1.	92
▁angry	92
parking#1	92
bit#1.	92
linked#1	92
unusual#1	92
new#1,	92
honest#1	92
▁elsewhere	92
Institute#1	92
▁electrical	92
▁paradigm	92
▁technological	92
particular#1,	92
miss#1	92
books#1,	92
existence#1	92
plus#1	92
lying#1	92
hang#1	92
cloud#1	92
actic	92
transformed#1	92
▁pollution	92
graph#1	92
▁Homo	92
▁quarter	92
fishing#1	92
▁wars	92
▁Southern	92
innovative#1	92
▁studio	92
▁birthday	92
east	92
violent#1	92
▁Brown	92
▁limit	92
fund#1	92
friendly	92
ok	92
▁Linux	92
▁Giussani	92
Health#1	92
▁Ron	92
gone#1.	91
▁poly	91
flies#1	91
engaging#1	91
sets#1	91
thing#1:	91
easy#1.	91
Any#1	91
treating#1	91
assemble	91
son#1,	91
sides#1	91
▁details	91
▁unusual	91
maps#1	91
▁garden	91
placed#1	91
vote#1	91
▁fruit	91
body	91
constant#1	91
▁acting	91
▁initially	91
presented#1	91
▁grain	91
users#1	91
▁soft	91
▁expected	91
handle#1	91
root#1	91
regions#1	91
engine#1	91
▁backyard	91
younger#1	91
hard#1,	91
going#0	91
▁estimate	91
▁breathe	91
▁Ham	91
▁Church	91
▁transition	91
controlled#1	91
▁fill	91
protected#1	91
land#1,	91
▁friendship	91
space	91
▁pond	91
▁rocks	91
▁poll	91
▁fishing	91
▁chapter	91
trials#1	91
▁printer	91
morning#1.	91
maintain#1	91
shut#1	91
▁polar	91
▁worker	91
▁Van	91
▁mistakes	91
embrace#1	90
meat#1	90
solution#1.	90
AIDS#1	90
▁hall	90
girl#1,	90
factors#1	90
▁symbol	90
population#1,	90
consciousness#1	90
defined	90
movement#1.	90
suffer#1	90
▁Soviet	90
▁sources	90
▁challenging	90
techniques#1	90
reasons#1.	90
drove#1	90
naturally#1	90
▁construction	90
processing#1	90
▁intense	90
static	90
▁alien	90
feeding#1	90
▁Mountain	90
pop#1	90
▁pleasure	90
growth#1.	90
▁vehicles	90
▁tomorrow	90
printing#1	90
provides#1	90
▁strip	90
rain#1	90
▁herself	90
Central#1	90
raw#1	90
▁Luther	90
inch	90
falling#1	90
▁beautifully	90
▁options	90
hold	90
▁Everest	90
molecule#1	90
coast#1	90
overall#1	90
Yet#1	90
▁fiber	90
beautiful#1.	90
▁teenager	90
▁someday	90
▁phrase	90
▁department	90
enabled	90
government#1.	90
▁Alice	90
attention#1.	90
▁mobility	90
▁curriculum	90
▁wildlife	90
spinal#1	90
shoes#1	89
falls#1	89
depending#1	89
industry#1,	89
▁foreign	89
▁infinite	89
measuring#1	89
▁solved	89
▁Nairobi	89
said#1.	89
▁sports	89
▁poster	89
▁centers	89
▁killing	89
sources#1	89
▁yesterday	89
busy#1	89
▁Dutch	89
appropriate#1	89
▁coin	89
table#1,	89
fire	89
▁enter	89
word#1,	89
▁underneath	89
hands#1,	89
group#1,	89
▁snow	89
burning#1	89
understand#1,	89
▁concern	89
▁flip	89
exist#1.	89
▁weigh	89
hether	89
▁opening	89
▁chip	89
▁embrace	89
gold#1	89
leg#1	89
▁closely	89
mus	89
abstract#1	89
▁queen	89
figures#1	89
symmetry	89
▁Indians	89
often#1,	89
Thomas#1	89
▁functional	89
generations#1	89
▁sheet	89
▁Sand	89
▁false	89
traveled#1	89
books#1.	89
▁researcher	89
efficiency	89
will#1.	89
issue#1.	89
▁memories	89
EC	89
▁phase	89
agreed#1	89
▁disorders	89
▁symptoms	89
user#1	88
▁Christ	88
Like#1,	88
shoot#1	88
▁Greenland	88
okay#1	88
wireless#1	88
▁staff	88
obsessed#1	88
▁recording	88
robotic#1	88
▁Tuesday	88
oldest#1	88
▁necessarily	88
land#1.	88
success#1.	88
▁cocaine	88
challenging#1	88
Einstein#1	88
▁Republican	88
uch	88
feet#1.	88
Will#1	88
hope#1.	88
drinking#1	88
Five#1	88
Thanks#1	88
houses#1	88
▁manager	88
▁exception	88
▁Coke	88
▁mad	88
▁elephant	88
invent#1	88
▁glucose	88
players#1	88
ED	88
▁length	88
large#1,	88
aged	88
guy#1.	88
▁Christian	88
▁wings	88
▁Cyrus	88
paper#1.	88
▁status	88
▁direct	88
▁fertilizer	88
▁diagnosis	88
▁laughter	88
▁golf	88
children#1's	88
▁Fin	88
▁Ooh	88
cell	88
holder	88
▁CRISPR	88
sector#1	87
▁used	87
▁partner	87
connecting#1	87
steel#1	87
▁predator	87
▁factories	87
circle#1	87
▁shell	87
invention#1	87
▁fourth	87
▁Korean	87
committed#1	87
book	87
video#1.	87
hours#1.	87
▁fortunately	87
happen#1?	87
sites#1	87
▁license	87
details#1	87
▁trajectory	87
which	87
▁suggest	87
structure#1.	87
insects#1	87
▁bug	87
still#1,	87
joy#1	87
State#1	87
▁buying	87
computing#1	87
▁movements	87
▁swimming	87
involves#1	87
need#1.	87
▁contrast	87
ladies#1	87
▁Nick	87
latest#1	87
▁relative	87
▁Saudi	87
▁immense	87
stupid#1	87
measured#1	87
opposed#1	87
▁attacks	87
funded	87
▁boring	87
made#1,	87
own#1,	87
▁Craig	87
▁Rick	87
▁practical	87
▁behaviors	87
victims#1	87
▁tapir	87
muscle#1	86
rine	86
interview#1	86
industry#1.	86
▁businesses	86
▁origin	86
wondering#1	86
God#1.	86
▁sandwich	86
detail#1	86
direction#1.	86
network#1.	86
raising#1	86
ones#1,	86
talk#1.	86
▁majority	86
situation#1,	86
▁statement	86
▁whale	86
father#1,	86
▁explained	86
▁independent	86
warm#1	86
▁classes	86
▁Gar	86
state#1.	86
▁comic	86
precisely#1	86
Women#1	86
tries#1	86
▁dip	86
view#1.	86
▁printing	86
▁units	86
▁correctly	86
fields#1	86
hurt#1	86
presence#1	86
homes#1	86
zero	86
▁compared	86
stronger#1	86
▁stronger	86
performing#1	86
deaths#1	86
▁lessons	86
▁sending	86
battery#1	86
▁Newton	86
▁Iranian	86
▁Ch	86
▁Army	86
▁crying	86
▁papers	86
▁workforce	86
▁Brad	86
▁Milk	86
▁permanent	86
▁blindness	86
▁artwork	86
farm#1	85
controlling#1	85
what	85
short#1,	85
▁instinct	85
manufacturing#1	85
interface#1	85
magnetic#1	85
etic	85
overcome#1	85
▁Brother	85
theory#1,	85
▁Shanghai	85
▁expertise	85
▁mini	85
north#1	85
faith#1	85
mouth#1	85
outside#1,	85
thought#0,	85
narrative#1	85
▁danger	85
image#1,	85
be#1?	85
vulnerable#1	85
sorry#1	85
atom	85
table#1.	85
walks#1	85
climb#1	85
▁messy	85
▁launched	85
Web#1	85
▁leading	85
Latin#1	85
▁cute	85
Here#1,	85
productive#1	85
▁obese	85
patients#1.	85
▁careful	85
virtually#1	85
pure#1	85
theater#1	85
status#1	85
reaching#1	85
▁connections	85
▁effectively	85
▁Bern	85
classic#1	85
▁pocket	85
discussion#1	85
appears#1	85
captured#1	85
iness	85
▁smoke	85
little#1,	85
engineer#1	85
attached#1	85
south#1	85
expand#1	85
situation#1.	85
▁Rock	85
run	85
so#0	85
School#1	85
fore	85
▁Watch	85
▁Nigerian	85
numbers#1,	85
▁Council	85
▁geometry	85
▁attitude	85
▁privacy	85
now#1?	84
solved#1	84
▁Howard	84
sample#1	84
▁Asian	84
street#1,	84
innovation#1,	84
hardly#1	84
phone#1.	84
▁represents	84
school	84
▁tsunami	84
▁meal	84
▁depend	84
round#1	84
▁zero	84
epidemic#1	84
Earth#1's	84
however#1,	84
technologies#1,	84
▁Tibet	84
poorest#1	84
ural	84
sure#1,	84
chair#1	84
collecting#1	84
▁increasing	84
▁pile	84
▁Italian	84
▁scenario	84
▁Turk	84
novel#1	84
▁combination	84
facial#1	84
▁comfort	84
▁seed	84
▁architectural	84
reverse#1	84
▁Brazilian	84
state#1,	84
▁dress	84
▁storytelling	84
doubt#1	84
historical#1	84
Yo	84
death#1,	84
blow#1	84
prime#1	84
▁Thailand	84
conservation#1	84
▁cartoon	84
structure#1,	84
▁properties	84
resources#1.	84
federal#1	84
▁textbook	84
▁firm	84
▁officer	84
claim#1	84
▁colony	84
▁molecular	84
▁Pete	84
▁document	84
▁safely	84
▁launch	84
film#1,	84
▁tired	84
▁arrived	84
▁protocell	84
till#1	83
acts#1	83
understand#1.	83
cell#1.	83
▁RNA	83
▁reflect	83
domestic#1	83
device#1.	83
▁hook	83
▁Somalia	83
split#1	83
▁Mexican	83
components#1	83
says#0,	83
therefore#1,	83
▁introduce	83
▁outcome	83
surgery#1	83
destroy#1	83
burn#1	83
▁spring	83
expression#1	83
▁Alexander	83
video#1,	83
embedded#1	83
▁amongst	83
▁laughing	83
▁president	83
biology#1,	83
▁sphere	83
▁Fortunately	83
▁excellent	83
▁productive	83
exposed#1	83
▁motivate	83
▁regular	83
concrete#1	83
males#1	83
theme#1	83
exploring#1	83
gather#1	83
facts#1	83
▁conservation	83
▁stayed	83
▁Pop	83
surface#1.	83
▁Indus	83
▁chose	83
▁clouds	83
cellular	83
▁schizophrenia	83
▁remain	83
level	83
train	83
▁Phil	83
ancy	83
▁repair	83
▁filmmaker	83
gun#1	83
no#1.	82
screen#1.	82
searching#1	82
wit	82
▁manufacturing	82
grows#1	82
▁workplace	82
▁interests	82
string#1	82
plants#1,	82
centers#1	82
strength#1	82
▁Video	82
out#0	82
severe#1	82
▁church	82
▁environments	82
▁beach	82
being#1,	82
▁determine	82
can#0	82
wanting#1	82
▁acid	82
▁define	82
hhh	82
emergency#1	82
likes#1	82
seat#1	82
▁considered	82
does#1,	82
drugs#1,	82
▁container	82
▁semi	82
▁collectively	82
▁features	82
▁samples	82
Please#1	82
▁Hubble	82
ality	82
motion#1	82
celebrate#1	82
▁redesign	82
▁between	82
▁viral	82
▁variety	82
▁hero	82
▁naturally	82
▁Minister	82
patients#1,	82
▁complain	82
Japan#1	82
▁Swiss	82
scribe	82
inside#1,	82
▁graduate	82
▁penguin	82
humans#1.	82
statistics#1	82
▁shock	82
▁abuse	82
▁organized	82
▁always	82
▁gorgeous	82
▁disorder	82
▁Nelson	82
ike	82
▁Force	81
crisis#1,	81
continent#1	81
White#1	81
▁astronomer	81
▁iPod	81
▁insulin	81
distributed#1	81
inspiration#1	81
Europe#1.	81
ject	81
waves#1	81
automatically#1	81
▁sophisticated	81
▁insurance	81
by#1,	81
▁silent	81
▁Walk	81
cel	81
▁try	81
looking	81
top#1.	81
insight#1	81
form#1,	81
▁optimistic	81
▁Bert	81
▁collective	81
attention#1,	81
▁sperm	81
voice#1,	81
▁Canyon	81
galaxies#1	81
American	81
U.S.#1,	81
elect	81
newspaper#1	81
▁rope	81
trees#1,	81
academic#1	81
▁Johnny	81
▁Moon	81
Science#1	81
tree#1,	81
impossible#1.	81
▁Stage	81
▁genetically	81
▁dramatic	81
locked#1	81
Shar	81
▁intervention	81
Center#1	81
▁diarrhea	81
mortality#1	81
focusing#1	81
quarter#1	81
faces#1	81
▁done	81
swim#1	81
goods#1	81
▁blow	81
Saharan	81
▁useless	81
▁protest	81
▁Tasmanian	81
▁Portugal	81
one#0	81
▁cortex	81
Indeed#1,	81
stock#1	81
experiment#1.	81
▁hip	81
fine#1.	81
▁pilot	81
friend#1,	81
▁absolute	81
solid#1	81
tooth	81
▁Nepal	81
▁Montana	81
admit#1	80
factor#1	80
trick#1	80
▁steel	80
▁liquid	80
actions#1	80
oil#1.	80
ideal#1	80
started#1,	80
▁murder	80
cave#1	80
mountains#1	80
▁Larry	80
amazing#1,	80
▁Jon	80
▁tests	80
▁ends	80
▁Eventually	80
breaking#1	80
Should	80
▁tonight	80
▁column	80
pleasure#1	80
effect#1.	80
"--	80
▁existence	80
now	80
ignore#1	80
▁predictable	80
news#1,	80
contribute#1	80
▁missed	80
infected#1	80
▁philanthropy	80
▁salt	80
divided#1	80
▁simultaneously	80
▁value	80
extract#1	80
fascinated#1	80
through#1.	80
▁filled	80
jobs#1,	80
▁Jefferson	80
▁pushing	80
▁before	80
Human#1	80
ith	80
▁sail	80
▁repeated	80
decades#1,	80
box#1.	80
diverse#1	80
implications#1	80
worse#1,	80
delivered#1	80
ional	80
▁unprecedented	80
analysis#1	80
records#1	80
protecting#1	80
bubble#1	80
letting#1	80
▁shadow	80
▁Sylvia	80
▁Cuba	80
▁connectome	80
cost	79
▁attract	79
distant#1	79
properties#1	79
infinite#1	79
inspire#1	79
finds#1	79
▁trace	79
▁assume	79
▁gut	79
staff#1	79
B#1	79
▁thin	79
warming#1	79
wall#1,	79
suppose#1	79
▁title	79
▁identify	79
▁Jupiter	79
▁cop	79
▁aspect	79
issues#1.	79
village#1,	79
photographs#1	79
▁extract	79
viruses#1	79
wind	79
▁Lord	79
flip#1	79
▁authority	79
▁Lake	79
part#1.	79
real#1,	79
See#1	79
spiritual#1	79
roll	79
▁marine	79
fixed#1	79
shot	79
▁politicians	79
Hello	79
street#1.	79
poetry#1	79
▁ladies	79
▁Bro	79
mechanism#1	79
actually#1.	79
cards#1	79
▁marketing	79
▁affected	79
▁beneath	79
▁Kiribati	79
budget#1	79
▁Cat	79
appeared#1	79
length#1	79
thoughts#1	79
▁shake	79
▁succeed	79
▁variation	79
intuitive	79
liter	79
behaviors#1	79
media#1.	79
solute	79
liquid#1	79
▁warrior	79
▁PMS	79
▁OECD	79
▁Libya	79
pushed#1	79
die#1,	79
▁savings	79
possibilities#1	78
▁possibilities	78
▁Kepler	78
▁frog	78
housing#1	78
▁north	78
visited#1	78
▁merely	78
▁visualization	78
sing#1	78
threw#1	78
Mart	78
▁hungry	78
be#0	78
rocket#1	78
fish#1,	78
▁parallel	78
powered	78
minute#1.	78
▁using	78
announced#1	78
materials#1,	78
judge#1	78
▁Light	78
▁Danny	78
▁carrying	78
▁whales	78
▁telescope	78
post#1	78
study#1,	78
wonder#1,	78
▁occasionally	78
Keith	78
teams#1	78
closely#1	78
northern#1	78
bar#1	78
▁repeat	78
flat#1	78
group#1.	78
rising#1	78
▁management	78
▁Doc	78
nations#1	78
▁musical	78
trend#1	78
crisis#1.	78
▁owner	78
cameras#1	78
▁Liberia	78
said#0	78
tradition#1	78
network#1,	78
▁mentally	78
hanging#1	78
stage#1.	78
▁Win	78
flag#1	78
▁cooperate	78
Brazil#1	78
▁file	78
soft#1	78
▁reveal	78
▁guard	78
recognized#1	78
London#1,	78
hospitals#1	78
initial#1	78
Work	78
▁cockroach	78
lady#1	78
plenty#1	78
▁therapist	78
▁upload	78
▁Redwood	78
challenge#1.	77
cars#1.	77
Was#1	77
parallel#1	77
▁Brit	77
▁applications	77
interests#1	77
▁runs	77
expert#1	77
adding#1	77
inside#1.	77
died#1.	77
ball	77
color#1,	77
material#1,	77
minute	77
scared#1	77
resolution	77
▁resistance	77
▁requires	77
▁genius	77
▁Pittsburgh	77
breath#1	77
▁Nav	77
dependent#1	77
▁photographs	77
name#1,	77
▁theories	77
door#1,	77
station#1	77
plays#1	77
features#1	77
▁Lincoln	77
▁visible	77
▁mechanical	77
topic#1	77
▁fields	77
Red#1	77
value#1.	77
wood#1	77
confident	77
number#1,	77
contains#1	77
▁tested	77
opens#1	77
▁compare	77
transport#1	77
German#1	77
▁Henry	77
senior#1	77
Adam#1	77
open#1,	77
▁blame	77
▁personally	77
reported#1	77
▁finance	77
▁liar	77
▁cooperation	77
▁mention	77
chemistry#1	77
dogs#1	77
▁laughed	77
▁Lagos	77
▁sales	77
▁therapies	77
▁creature	77
▁rating	77
dedicated#1	77
▁prisoner	77
▁survival	77
▁Peru	77
▁Arctic	77
▁indigenous	77
▁Mola	77
fingers#1	76
young#1,	76
program#1,	76
ate#1	76
▁lifespan	76
forests#1	76
▁celebrate	76
▁winter	76
▁consciously	76
▁Obviously	76
tools#1,	76
▁plug	76
▁miracle	76
symbol#1	76
▁drives	76
today#1?	76
recording#1	76
carefully#1	76
▁ongoing	76
poor#1,	76
then	76
about#0	76
schools#1.	76
▁Oklahoma	76
words#1.	76
▁artifact	76
generated#1	76
serving	76
context#1,	76
sentence#1	76
violence#1.	76
earlier#1,	76
fast#1,	76
average#1,	76
director#1	76
repeat#1	76
▁layers	76
tract	76
person	76
▁nations	76
▁Northern	76
pointed#1	76
fake#1	76
summer#1,	76
heart	76
▁awful	76
▁mechanism	76
▁Pretty	76
bad#1,	76
▁added	76
least#1,	76
sound#1.	76
▁Philip	76
▁consensus	76
gin	76
symptoms#1	76
results#1.	76
▁secure	76
▁economist	76
▁orchestra	76
chain#1	76
▁bats	76
anyway#1.	76
policies#1	76
fun#1,	76
accepted#1	76
Amazon#1	76
performing	76
▁reserve	76
▁Venice	76
politics#1,	76
▁funding	76
singing#1	76
moon#1	76
▁require	76
▁reference	76
fish#1.	76
organ#1	76
una	76
▁Vietnam	75
medium#1	75
▁telephone	75
peak#1	75
International#1	75
thin#1	75
Four#1	75
▁prevention	75
▁painful	75
▁footprint	75
21#1	75
tied#1	75
date#1	75
▁Kosovo	75
collaboration#1	75
asked#1,	75
▁Hawaii	75
▁input	75
▁employer	75
map#1,	75
▁internal	75
hour#1.	75
▁flowers	75
Tell#1	75
growth#1,	75
▁let	75
▁pat	75
ensure#1	75
human#1.	75
flow	75
▁spacecraft	75
▁ordinary	75
▁organism	75
▁presentation	75
▁motivation	75
▁review	75
person#1's	75
▁reverse	75
missed#1	75
born#1.	75
▁grandparents	75
▁perform	75
hire#1	75
just#0	75
▁introduced	75
reward#1	75
▁highest	75
ola	75
correct#1	75
"Well#1	75
situations#1	75
bet#1	75
▁consistent	75
▁pulled	75
▁Fat	75
▁Tunisia	75
violence#1,	75
▁march	75
▁App	75
shark#1	75
location#1	75
areas#1,	75
▁translate	75
▁Elect	75
▁encounter	75
▁jail	75
▁stations	75
▁Snowden	75
volt	75
▁helium	75
tub	75
lace	75
▁slavery	75
master	75
▁exploration	75
permanent#1	75
▁south	75
▁transistor	75
▁mushroom	75
▁LHC	75
▁Natasha	75
cell#1,	74
intense#1	74
office#1.	74
survey#1	74
construct	74
▁tap	74
▁rates	74
woman#1.	74
▁balls	74
explanation#1	74
▁tone	74
seconds#1,	74
get#0	74
vertical#1	74
crucial#1	74
picking#1	74
occur#1	74
seek#1	74
proper#1	74
heart#1.	74
▁touched	74
▁lake	74
office#1,	74
▁leap	74
▁Cambodia	74
at#1.	74
▁dropped	74
visible#1	74
media#1,	74
▁Water	74
sits#1	74
bottom#1,	74
logy	74
Space#1	74
▁equivalent	74
breathing#1	74
▁upset	74
identical#1	74
increases#1	74
▁Map	74
▁skeleton	74
▁figures	74
▁cartoons	74
▁dust	74
lib	74
southern#1	74
Back#1	74
issue#1,	74
▁limits	74
audience#1.	74
▁bull	74
▁Galapagos	74
▁nitrogen	74
Darwin#1	74
▁magnificent	74
▁Geographic	74
Where	74
okay#1.	74
▁Bangalore	74
▁shrimp	74
dramatically#1	74
institution#1	74
▁agenda	74
passing#1	74
adapt#1	74
▁strand	74
brief#1	74
▁crucial	74
raising	74
▁Media	74
▁Camp	74
conductor	74
▁Dave	74
▁terrain	74
field	74
Gulf#1	74
eyed	74
savings#1	74
▁extraordinar	73
functional#1	73
happiness#1.	73
▁sight	73
lau	73
perception#1	73
rian	73
▁mammal	73
transfer#1	73
investing#1	73
disaster#1	73
reminded#1	73
clever#1	73
big#1.	73
▁slides	73
▁Leone	73
imbabwe	73
When	73
choice#1,	73
▁vertical	73
▁sir	73
free#1,	73
removed#1	73
▁Stone	73
laid#1	73
▁enzyme	73
point	73
where	73
▁Johnson	73
▁Telescope	73
dominant#1	73
lunch#1	73
▁watt	73
generated	73
combined#1	73
transformation#1	73
▁outbreak	73
▁floating	73
▁dense	73
suggesting#1	73
had#1.	73
contain#1	73
divide#1	73
▁gentlemen	73
▁Dallas	73
▁session	73
ten#1	73
spreading#1	73
agricultural#1	73
journey#1,	73
▁lamp	73
human	73
▁fluid	73
▁biologist	73
▁Roger	73
Nothing#1	73
▁prince	73
fear#1.	73
▁paintings	73
▁neuroscientist	73
▁spin	73
discuss#1	73
rate#1,	73
shore	73
unknown#1	73
▁hospitals	73
driver#1	73
official#1	73
Things#1	73
holds#1	73
▁CMU	73
center#1,	73
▁Argentina	73
radiation#1	73
outcome#1	73
row#1	73
▁dig	73
▁wound	73
atoms#1	73
▁Social	73
▁Namibia	73
neural#1	73
udi	73
sports#1	73
▁relation	73
▁recognition	73
▁kilogram	73
▁Live	73
mirror#1	72
landed#1	72
▁fingers	72
class#1,	72
▁gray	72
reveal#1	72
cooking#1	72
image#1.	72
▁melt	72
▁grows	72
▁Comp	72
on#1?	72
lovely#1	72
English#1,	72
▁few	72
▁theme	72
▁fixed	72
master#1	72
component#1	72
technique#1	72
sensory#1	72
▁vulnerable	72
vehicles#1	72
Get#1	72
dead#1.	72
promote#1	72
▁recruit	72
evil#1	72
whales#1	72
once#1,	72
decline#1	72
stein	72
struggling#1	72
▁athletes	72
▁diagnose	72
efficiency#1	72
samples#1	72
fail#1	72
synthetic#1	72
dimensions#1	72
▁Venezuela	72
▁facial	72
artistic#1	72
player#1	72
▁cable	72
five#1,	72
images#1,	72
drawn#1	72
▁radiation	72
at#1,	72
element#1	72
demonstrate#1	72
var	72
learning#1.	72
pulling#1	72
▁wish	72
college#1,	72
fed#1	72
development#1.	72
limits#1	72
size#1,	72
underwater#1	72
king#1	72
external#1	72
Southern#1	72
ening	72
come#1.	72
washing	72
react#1	72
ark	72
underlying#1	72
chosen#1	72
▁Jordan	72
Never#1	72
privilege#1	72
earn#1	72
fusion	72
self	72
touch	72
▁debt	72
▁plot	72
▁Peace	72
▁younger	72
dense#1	71
make#1.	71
instead#1,	71
▁Austria	71
buildings#1,	71
▁gate	71
King#1	71
revolution#1.	71
theory#1.	71
▁plans	71
protection#1	71
▁routine	71
▁convicted	71
▁encourage	71
▁refer	71
army#1	71
easy#1,	71
capita	71
wan	71
democracy#1.	71
▁meetings	71
Christmas#1	71
reflect#1	71
notes#1	71
outside#1.	71
▁along	71
Asia#1,	71
Google#1,	71
▁everyday	71
entering#1	71
▁description	71
City#1,	71
OK#1	71
▁speaker	71
▁director	71
careful#1	71
made#1.	71
▁improvement	71
▁sauce	71
▁tracking	71
▁neat	71
▁vacuum	71
games#1.	71
▁Ven	71
▁donor	71
▁ones	71
desert#1	71
▁urge	71
▁signed	71
need#1,	71
▁caused	71
winter#1	71
marketing#1	71
▁shut	71
diagnosed#1	71
throwing#1	71
▁Iceland	71
▁diagram	71
perspective#1.	71
▁Maria	71
sky#1.	71
▁fisheries	71
about#1?	71
▁invite	71
▁grass	71
▁judgment	71
▁dolphins	71
vital#1	71
▁faced	71
▁stake	71
challenge#1,	71
▁banks	71
▁breathing	71
ole	71
▁Ladies	71
▁astronaut	71
experiment#1,	71
▁Watson	71
Congress#1	71
▁elite	71
▁rescue	71
▁pie	71
four	71
▁Sydney	71
▁Justine	71
bag#1	70
repair#1	70
▁concrete	70
applications#1	70
▁route	70
▁hill	70
stop#1.	70
▁suffer	70
figuring#1	70
▁Roman	70
▁computing	70
▁Ireland	70
Prince	70
Street#1	70
shooting#1	70
▁component	70
autonomous	70
▁remix	70
▁instruments	70
▁fur	70
▁recover	70
Is#1n't	70
▁Catholic	70
▁mean	70
mine#1,	70
parts#1.	70
▁Post	70
▁pathogen	70
pursue#1	70
subjects#1	70
students#1.	70
worse#1.	70
resistant	70
second	70
success#1,	70
humanity#1.	70
▁slice	70
▁stunt	70
Sun#1	70
taste#1	70
▁Paulo	70
frame#1	70
oil#1,	70
agriculture#1	70
resources#1,	70
▁deaths	70
shake#1	70
areas#1.	70
movement#1,	70
▁components	70
▁destroy	70
interactive#1	70
▁participate	70
▁rough	70
▁sidewalk	70
▁baseball	70
▁goodbye	70
▁wipe	70
probability#1	70
General#1	70
▁geography	70
▁obsolete	70
▁generate	70
▁College	70
▁compute	70
phone	70
▁boxes	70
▁Skype	70
▁Lama	70
bones#1	70
▁By	70
▁bears	70
▁Intel	70
▁applied	69
transportation#1	69
things#1:	69
served#1	69
designer#1	69
far#1.	69
▁cruel	69
▁pregnant	69
team#1,	69
impacts#1	69
human#1,	69
▁collaboration	69
acco	69
skill#1	69
environments#1	69
▁bulb	69
accurate#1	69
less#1.	69
ella	69
product#1.	69
dirty#1	69
▁Somebody	69
doing#1?	69
▁Atlanta	69
rocks#1	69
▁must	69
anxiety	69
▁constant	69
exhibition#1	69
monitor#1	69
returned#1	69
▁nurse	69
▁interactions	69
estimate#1	69
▁cattle	69
spectacular#1	69
▁directions	69
bread#1	69
brothers#1	69
▁sync	69
▁teenage	69
▁library	69
headed	69
▁Scotland	69
▁ubiquitous	69
▁clothes	69
changes#1.	69
ronic	69
▁Denmark	69
▁refrigerator	69
democracy#1,	69
▁cub	69
▁mountains	69
input#1	69
▁Emily	69
▁implications	69
clip#1	69
▁Industrial	69
▁behave	69
▁disgust	69
wall#1.	69
team#1.	69
personally#1	69
integrated#1	69
patent#1	69
▁cats	69
development#1,	69
extent#1	69
goals#1	69
▁Jones	69
▁psychiatrist	69
best#1,	69
▁Mel	69
▁corridor	69
▁piano	69
▁Olympic	69
▁rural	69
▁abstract	69
▁official	69
▁reefs	69
monkeys#1	69
attract#1	69
▁EDI	69
▁Mall	69
Jeopardy	69
neutral	69
▁Nicole	69
title#1	68
goes#1,	68
mile#1	68
shop#1	68
ened	68
fat#1	68
region#1,	68
Second#1,	68
bottle#1	68
Eastern#1	68
dancing#1	68
cents#1	68
▁projection	68
▁expert	68
▁Real	68
▁tricks	68
windows#1	68
materials#1.	68
▁SP	68
sum#1	68
widely#1	68
activities#1	68
thirds	68
▁custom	68
one#1:	68
▁curiosity	68
▁sketch	68
▁techniques	68
individuals#1,	68
glad#1	68
▁divin	68
pack#1	68
Australia#1,	68
bomb#1	68
▁exact	68
▁weapon	68
▁Susan	68
dig#1	68
red#1,	68
analyze#1	68
happening#1,	68
▁Without	68
▁selection	68
▁drawn	68
sugar#1	68
▁innovate	68
rated	68
▁bicycle	68
▁borders	68
▁Dam	68
Martin#1	68
▁anger	68
alai	68
▁inspire	68
road#1,	68
▁trends	68
coal#1	68
▁Pur	68
▁barrier	68
▁particle	68
wondered#1	68
tip#1	68
media	68
▁mate	68
half	68
all#0	68
monkey#1	68
▁roughly	68
cat#1	68
▁guide	68
▁Music	68
▁staircase	68
▁Julie	68
sharks#1	68
solution#1,	68
through#1,	68
tax#1	68
informed#1	68
2#1	68
feature#1	68
▁Evan	68
inspiring	68
▁conclusion	68
▁Colombia	68
▁Doaa	68
▁Matt	68
▁System	68
▁incentives	68
▁dictionaries	68
▁severe	68
▁pesticide	68
toy#1	68
▁Parkinson	68
▁Teszler	68
Ma	67
▁freak	67
crack#1	67
separated#1	67
site#1,	67
horse#1	67
option#1	67
voice#1.	67
▁mutation	67
destroyed#1	67
crowd#1	67
▁fellow	67
▁neocortex	67
doctor#1,	67
reference#1	67
journey#1.	67
Soviet#1	67
▁previously	67
thought#1.	67
suggested#1	67
Bot	67
▁hire	67
includes#1	67
examples#1.	67
▁glad	67
KB#1:	67
tests#1	67
guys#1.	67
atmosphere#1.	67
▁Beck	67
even	67
imagined#1	67
"Look#1,	67
hospital#1.	67
ethnic	67
effect#1,	67
▁critic	67
▁root	67
cold#1,	67
▁ultra	67
sun#1,	67
progress#1.	67
▁combine	67
▁agent	67
▁vitamin	67
▁thick	67
super#1	67
fifth#1	67
happened#1?	67
efforts#1	67
▁circles	67
dot#1	67
authority#1	67
▁trying	67
display#1	67
▁Arch	67
▁breakthrough	67
▁suicide	67
got#0	67
▁Trans	67
scape	67
▁porn	67
same#1,	67
▁guitar	67
▁Interestingly	67
▁surfaces	67
▁quad	67
▁survivor	67
▁records	67
funded#1	67
▁uncomfortable	67
supporting#1	67
verbal	67
groups#1,	67
families#1,	67
accessible#1	67
▁Turing	67
▁liver	67
▁bribe	67
▁Sputnik	67
▁broad	67
two	67
controls#1	67
▁Finland	67
▁LGBT	67
▁toxin	67
▁till	66
▁Cl	66
romantic#1	66
▁rush	66
▁measuring	66
▁elephants	66
scan#1	66
seen#1.	66
No	66
▁likelihood	66
plans#1	66
stone#1	66
▁symbols	66
wandering	66
supported#1	66
covering#1	66
▁Suddenly	66
▁coat	66
▁Trade	66
Washington#1,	66
civilization#1	66
quiet#1	66
▁literature	66
RB	66
▁pretend	66
▁tent	66
shaped#1	66
jobs#1.	66
▁delight	66
22#1	66
▁Half	66
▁inches	66
▁utterly	66
frozen#1	66
spoken#1	66
rays	66
reasons#1,	66
▁dancing	66
▁crap	66
▁hoping	66
▁frequently	66
department#1	66
grain#1	66
memories#1	66
real#1.	66
mystery#1	66
determined#1	66
mistake#1	66
▁Daniel	66
spectrum#1	66
section#1	66
▁capture	66
▁monitor	66
▁sides	66
extend#1	66
▁Ushahidi	66
papers#1	66
▁pub	66
"Okay#1,	66
Northern#1	66
▁beetle	66
▁functions	66
invested#1	66
▁Spring	66
▁transparency	66
▁Step	66
▁commitment	66
▁minister	66
apart#1.	66
stars#1,	66
worth	66
unclear	66
solutions#1.	66
decade#1,	66
up#1?	66
▁soap	66
▁infection	66
▁knock	66
▁protected	66
▁processes	66
reduced#1	66
None#1	66
pee	66
tag#1	66
▁collected	66
▁daily	66
studio#1	66
▁convert	66
Next#1	66
▁Rica	66
laboratory#1	66
▁USA	66
take	66
▁diverse	66
▁bond	66
competitive	66
▁Edinburgh	66
▁Cap	66
▁randomly	66
▁singing	66
proposed#1	66
minute#1,	66
▁Secondly	66
institutions#1,	66
▁seeds	66
polar#1	66
▁Michelangelo	66
tools#1.	66
Department#1	66
▁Bonobo	66
▁zoo	66
theist	66
English#1.	66
particle#1	66
people#1?	66
▁Lyn	66
▁Show	66
▁bones	66
▁toys	66
▁Nico	66
▁Incredible	66
▁Sho	65
born#1,	65
23#1	65
explaining#1	65
rapid#1	65
▁mold	65
skin#1.	65
cup#1	65
▁vital	65
confidence#1	65
▁sheep	65
weak#1	65
▁army	65
instrument#1	65
Pacific#1	65
nose#1	65
▁subjects	65
code#1.	65
▁ignore	65
▁copyright	65
▁evolve	65
whale#1	65
fruit#1	65
odd#1	65
month#1.	65
m#1	65
▁collecting	65
concern#1	65
found	65
available#1.	65
sweet#1	65
election#1	65
▁mystery	65
games#1,	65
▁marker	65
▁neighbors	65
▁processing	65
Art#1	65
▁wage	65
▁formed	65
He#0	65
sound#1,	65
▁lane	65
▁pool	65
functions#1	65
mine#1.	65
▁hits	65
▁divide	65
started#1.	65
existed#1	65
▁pipe	65
Chicago#1	65
online#1.	65
communities#1.	65
▁pad	65
▁transplant	65
▁Francis	65
▁gig	65
physics#1,	65
dozens#1	65
tackle#1	65
▁treatments	65
do#1n't.	65
test#1.	65
▁removed	65
▁agreed	65
ease	65
▁plain	65
▁chat	65
"No#1	65
calculate#1	65
roof#1	65
response#1.	65
offend	65
▁Australian	65
▁boss	65
rooms#1	65
conclusion#1	65
evolve#1	65
broad#1	65
▁Syrian	65
▁Ross	65
deaf	65
▁increased	65
▁precision	65
▁Benjamin	65
▁Goals	65
▁favor	65
post	65
▁authenticity	65
ethical#1	65
Brazil#1,	65
▁nets	65
▁productivity	65
▁Security	65
▁Whitopia	65
▁Titan	65
▁phantom	64
▁romantic	64
flows#1	64
▁History	64
▁fabric	64
services#1,	64
▁Hold	64
rational#1	64
just#1,	64
▁nutrition	64
load#1	64
wars#1	64
means#1.	64
civic#1	64
▁flee	64
companies#1.	64
object#1,	64
wire#1	64
fought#1	64
flowers#1	64
printed#1	64
belong#1	64
27#1	64
paradigm#1	64
life#1?	64
surgery#1.	64
away	64
▁bow	64
parent#1	64
▁equally	64
▁decline	64
experimental#1	64
forever#1	64
affects#1	64
learning#1,	64
host#1	64
perceived#1	64
experiencing#1	64
identified#1	64
▁County	64
▁backwards	64
Ten#1	64
▁intuition	64
Who	64
▁dive	64
▁seemingly	64
living#1.	64
▁fascinated	64
▁Arm	64
▁dial	64
Be#1	64
puzzle#1	64
▁cash	64
failure#1.	64
floor#1,	64
applying#1	64
sex#1.	64
▁spiritual	64
boy#1,	64
▁luckily	64
sea	64
score#1	64
eggs#1	64
▁Government	64
computers#1.	64
▁Arduino	64
▁operate	64
leaders#1.	64
law#1,	64
destruction#1	64
▁links	64
▁Greece	64
▁spouse	64
frontal	64
application#1	64
smile#1	64
number#1.	64
▁stands	64
communities#1,	64
▁tribes	64
code#1,	64
▁Education	64
▁increases	64
isolated#1	64
pixel	64
▁Pixar	64
▁dancer	64
▁printed	64
phase#1	64
▁dedicated	64
▁remains	64
begun#1	64
DR	64
▁Academy	64
▁favela	64
▁mainstream	64
▁outcomes	64
▁Babbage	64
compassion#1,	64
▁socio	64
▁BMW	64
▁expand	64
▁angiogenesis	64
▁Similarly	64
▁flew	63
statement#1	63
▁DARPA	63
size#1.	63
convert#1	63
▁harmful	63
continues#1	63
high#1,	63
▁icon	63
organizations#1,	63
older#1,	63
tap#1	63
▁climbing	63
seriously#1	63
law#1.	63
▁pink	63
three#1.	63
flood	63
teachers#1,	63
▁struck	63
▁Clinton	63
▁Jazeera	63
▁Until	63
projects#1.	63
mother#1.	63
vision#1,	63
▁Although	63
▁proto	63
organism#1	63
▁football	63
▁instant	63
pped	63
Give#1	63
▁automatically	63
eye#1,	63
▁traveling	63
▁attractive	63
activity#1.	63
worked#1.	63
time#1?	63
▁amounts	63
virus	63
▁identical	63
guide#1	63
chances#1	63
▁actor	63
▁Society	63
aging#1	63
▁anniversary	63
immediate#1	63
limit#1	63
changing	63
▁falls	63
working#1.	63
crash#1	63
breathe#1	63
▁existed	63
▁Str	63
bodies#1.	63
▁diver	63
▁Both	63
shame#1	63
▁chaos	63
step	63
▁Cape	63
beginning#1.	63
colleague#1	63
arm#1,	63
▁penis	63
▁implant	63
secure#1	63
▁horizon	63
▁grave	63
▁unfair	63
products#1.	63
quit#1	63
▁Business	63
deal#1.	63
prices#1	63
▁engaged	63
▁providing	63
boring#1	63
fiction#1	63
images#1.	63
▁mathematician	63
world	63
fraction#1	63
▁took	63
Day#1	63
▁Jerry	63
▁psychological	63
brown#1	63
▁nerd	63
▁thrown	63
carbon	63
dangerous#1.	63
worker#1	63
▁ban	63
▁livestock	63
▁Hand	63
▁Joshua	63
Put#1	62
founded#1	62
density#1	62
▁conclude	62
border#1	62
represented	62
Green#1	62
floor#1.	62
refer#1	62
consume#1	62
▁Are	62
jack	62
accident#1.	62
▁dolphin	62
Wall#1	62
sea#1,	62
▁shooting	62
lift#1	62
dive#1	62
were#1.	62
May#1	62
▁Jill	62
▁Berkeley	62
▁walks	62
camp#1	62
▁digitize	62
hour#1,	62
▁innovative	62
▁required	62
▁Coast	62
No#1.	62
plate#1	62
▁caves	62
▁vulnerability	62
▁youth	62
▁transformative	62
behave#1	62
beings#1,	62
▁coach	62
▁tribe	62
logic#1	62
sky#1,	62
Long#1	62
difficult#1.	62
▁objective	62
Union#1	62
grateful#1	62
▁Young	62
worlds#1	62
▁democratic	62
▁lovely	62
collapse#1	62
▁Kids	62
"Do#1	62
producing	62
▁Solar	62
▁hunger	62
▁worldwide	62
hitting#1	62
▁hypothesis	62
▁transportation	62
medicine#1,	62
asked#0	62
▁Arthur	62
▁shocked	62
look#1.	62
▁mosque	62
▁reporter	62
shape#1.	62
chicken#1	62
using	62
organs#1	62
Woman#1:	62
▁border	62
▁controlling	62
stroke	62
▁asthma	62
revolution#1,	62
vascular	62
▁prostitution	62
▁Pennsylvania	62
▁institution	62
objective#1	62
▁smoking	62
partners#1	62
outer#1	62
extended#1	62
▁chief	62
▁destruction	62
Hollywood#1	62
touched#1	62
▁guerrilla	62
▁Rosetta	62
▁UCLA	62
▁spectacular	62
▁largely	62
Solomon	62
▁Allen	62
preserve#1	62
▁magnetic	62
▁systematically	62
▁sensation	62
unable#1	62
▁Wolfram	62
▁Gui	62
Veronica	62
cade	61
staying#1	61
pollution#1	61
▁partners	61
reducing#1	61
man#1's	61
powers#1	61
shopping#1	61
▁pole	61
approach#1.	61
▁emerging	61
▁philosophy	61
painted#1	61
Remember#1	61
translated#1	61
ears#1	61
▁Singapore	61
insurance#1	61
influenced#1	61
▁inclusive	61
▁iconic	61
like#0	61
screen#1,	61
▁importance	61
▁kiss	61
explains#1	61
▁greenhouse	61
▁speakers	61
narrow#1	61
▁hemisphere	61
depth#1	61
grade#1	61
died#1,	61
▁competing	61
▁become	61
▁representation	61
▁gear	61
economies#1	61
cartoon#1	61
memory#1,	61
groups#1.	61
Time#1	61
high#1.	61
eye#1.	61
▁privilege	61
Same#1	61
joke#1	61
Asia#1	61
worldwide#1	61
box#1,	61
▁Mount	61
pictures#1,	61
▁exhibition	61
▁Library	61
▁searching	61
▁SARS	61
leaders#1,	61
selection#1	61
crazy#1.	61
▁parking	61
▁locked	61
jumped#1	61
Elizabeth	61
efficient	61
▁Ultimately	61
▁transformed	61
powerful#1,	61
kilometer	61
forth#1,	61
▁chocolate	61
decisions#1.	61
▁cartoonist	61
▁ridiculous	61
impact#1.	61
cycle	61
▁Laden	61
▁commodity	61
▁hackers	61
▁remove	61
armed#1	61
killer#1	61
▁Development	61
▁replace	61
organizing	61
Project#1	61
bike#1	61
drugs#1.	61
▁laboratory	61
▁analysis	61
button#1	61
soul#1	61
ada	61
encounter#1	61
inspiring#1	61
▁Bruno	61
▁flags	61
▁leak	61
filter#1	61
approach#1,	61
▁Katrina	61
patient#1.	61
commitment#1	61
▁Nathan	61
▁ethical	61
▁Has	61
▁thylacine	61
uh	60
breaks#1	60
peace#1.	60
electricity#1,	60
▁gesture	60
phrase#1	60
youth#1	60
120#1	60
▁neo	60
▁Bosnia	60
crossing#1	60
▁ingredients	60
danger#1	60
House#1	60
▁external	60
come#1,	60
connects#1	60
navigate#1	60
welcome#1	60
renewable#1	60
significantly#1	60
diet#1	60
plants#1.	60
destruct	60
▁committed	60
▁convey	60
▁linked	60
cultures#1	60
material#1.	60
Israel#1	60
operation#1	60
graphic#1	60
new#1.	60
map#1.	60
Tom#1	60
remaining#1	60
teeth#1	60
▁advertise	60
called#1,	60
Make#1	60
designs#1	60
grid#1	60
sun#1.	60
orange#1	60
▁ambulance	60
comfort#1	60
City#1.	60
▁Starbucks	60
▁via	60
strategies#1	60
washing#1	60
publish#1	60
▁mall	60
UV	60
had#0	60
fire#1.	60
move#1.	60
library#1	60
▁activities	60
Okay#1.	60
▁fortune	60
elected#1	60
▁statue	60
atmosphere#1,	60
20#1,	60
tends#1	60
weeks#1.	60
▁cricket	60
▁Lev	60
fold#1	60
songs#1	60
▁simplicity	60
drivers#1	60
Apple#1	60
▁Margaret	60
colony#1	60
hunger#1	60
▁exploring	60
hired#1	60
framework#1	60
▁acts	60
worthy	60
▁Fund	60
▁anonymous	60
camera#1,	60
baby#1,	60
▁elections	60
▁McDonald	60
▁reached	60
▁measured	60
▁iPad	60
▁guarantee	60
seed#1	60
apparently#1	60
villages#1	60
▁ethic	60
white#1,	60
working#1,	60
Australia#1	60
get#1,	60
▁carried	60
▁performer	60
general#1,	60
▁Poli	60
▁chef	60
▁bother	60
▁Top	60
▁neurologic	60
strongly#1	60
five	60
▁Ella	60
▁existing	60
bury	60
vessels#1	60
plot#1	60
▁RSW	60
wired#1	60
winning	60
▁Titanic	60
▁primary	60
reduction#1	60
▁kindergarten	60
tail#1	60
▁Edison	60
imagine#1.	60
▁personality	60
▁mimic	60
▁Georgia	60
▁pushed	60
NA	60
▁prices	60
▁cloth	60
▁Lock	60
Mark#1	60
tall#1	60
▁drum	60
▁yourselves	59
smart#1,	59
cosmic#1	59
gray#1	59
▁Pepsi	59
▁Lady	59
exponential#1	59
remained#1	59
reasonable#1	59
▁Baltimore	59
treatment#1,	59
context#1.	59
▁tied	59
▁crystal	59
▁destroyed	59
▁Suppose	59
▁teams	59
▁Berlin	59
▁tower	59
▁willing	59
senses#1	59
road#1.	59
orbit#1	59
sea#1.	59
like#0,	59
▁bored	59
technologies#1.	59
▁entities	59
▁magnet	59
▁bath	59
▁mankind	59
nowhere#1	59
listened#1	59
new	59
blue#1,	59
▁Excellent	59
▁stack	59
town#1,	59
▁spoken	59
▁depth	59
▁hometown	59
attacks#1	59
biology#1.	59
fact#1.	59
make#1,	59
middle#1,	59
dead#1,	59
▁sustain	59
▁Harry	59
literature#1	59
inches#1	59
bone	59
▁transparent	59
shock#1	59
lines#1,	59
▁accountability	59
truth#1,	59
one#1?	59
▁keep	59
rules#1.	59
▁falling	59
▁philosopher	59
▁Buddhist	59
▁Achilles	59
▁Luckily	59
▁muscles	59
methods#1	59
▁revenue	59
▁suspect	59
woke#1	59
film#1.	59
▁shit	59
contrast#1	59
▁metro	59
▁devil	59
▁pause	59
programming#1	59
silk#1	59
▁dirty	59
pretend#1	59
▁scales	59
▁fuels	59
church#1	59
▁multinational	59
▁sacred	59
▁villages	59
▁underground	59
Six#1	59
▁earn	59
▁Nanopatch	59
▁mustache	59
▁retina	59
▁fraud	59
versions#1	59
▁farmer	59
structural#1	59
▁ALS	59
▁pandemic	59
tired#1	59
native#1	59
▁Medical	59
▁cardiac	59
▁slogan	59
document#1	59
▁mentor	59
▁Mozart	59
▁enemy	59
▁Democrat	59
Aid	59
objects#1,	59
▁spinal	59
rescue#1	59
▁Rover	59
Atlantic#1	59
▁Buddha	59
blame#1	58
restore#1	58
tendency#1	58
76	58
complex#1,	58
climbing#1	58
caring#1	58
alive#1,	58
center#1.	58
pink#1	58
pregnant#1	58
participants#1	58
drill#1	58
suffered#1	58
difference#1,	58
Russian#1	58
gathering#1	58
reminds#1	58
appropriate	58
▁reduction	58
Barack	58
▁joined	58
▁generally	58
escape#1	58
▁brave	58
prepare#1	58
▁Barry	58
security#1,	58
▁mycelium	58
forming#1	58
languages#1	58
show#1,	58
advance#1	58
abuse#1	58
galaxy#1	58
▁superpower	58
War#1,	58
▁precisely	58
▁Auto	58
▁gases	58
Japan#1,	58
▁maintain	58
mixed#1	58
less#1,	58
▁pyramid	58
opinion#1	58
▁strategies	58
Huh	58
baby#1.	58
▁exponentially	58
powerful#1.	58
▁charity	58
height#1	58
D#1	58
▁observation	58
▁Whereas	58
get#1.	58
▁parasite	58
six#1,	58
▁triangle	58
▁harvest	58
telephone#1	58
▁smooth	58
▁trucks	58
▁trigger	58
start#1,	58
privacy#1	58
▁chosen	58
rules#1,	58
▁regime	58
▁expectations	58
▁ultimate	58
were#0	58
MS	58
▁beaten	58
dark#1,	58
income	58
sleep#1.	58
▁electronic	58
action#1,	58
▁bubbles	58
girls#1.	58
chapter#1	58
▁Party	58
chart#1	58
▁inherently	58
▁agencies	58
instruments#1	58
▁paralyzed	58
▁Venus	58
survive#1.	58
conducted#1	58
continuous#1	58
▁experimental	58
needle#1	58
▁volunteer	58
▁biofuel	58
break	58
▁policies	58
▁Virginia	58
▁continued	58
▁unknown	58
▁Almost	58
▁imagined	58
write	58
families#1.	58
truth#1.	58
▁ugly	58
laugh#1	58
word#1.	58
originally#1	58
▁fool	58
▁volunteers	58
Peter#1	58
▁siblings	58
▁trait	58
▁standards	58
Being#1	58
▁ashamed	58
▁Euro	58
diagram#1	58
▁Organization	58
▁twin	58
Ladies#1	58
▁Uber	58
▁Kibera	58
▁shelter	58
corals#1	58
▁dung	58
▁CA	58
▁traveled	58
▁forgot	58
▁voters	58
▁engagement	58
▁Mario	58
▁classic	57
devices#1,	57
▁lift	57
open#1.	57
▁bacterial	57
▁Kyoto	57
finger#1	57
tape#1	57
hardest#1	57
is#1?	57
banks#1	57
stream#1	57
religion#1,	57
▁realm	57
shape#1,	57
literally#1,	57
response#1,	57
▁Himalaya	57
choosing#1	57
▁tragic	57
site#1.	57
go#0	57
golf#1	57
fabric#1	57
▁pace	57
▁stranger	57
buried#1	57
telescope#1	57
▁diamond	57
arguments#1	57
serving#1	57
primarily#1	57
direction#1,	57
interactions#1	57
▁playful	57
▁suggests	57
suicide#1	57
US#1	57
way#1?	57
origin#1	57
▁advertising	57
period#1,	57
▁extend	57
realizing#1	57
▁Poland	57
▁occurred	57
▁Tamiflu	57
exciting#1.	57
projects#1,	57
confident#1	57
▁barely	57
fortunate#1	57
▁receive	57
▁rotate	57
seconds#1.	57
learn#1.	57
rights#1,	57
▁parachute	57
naked#1	57
kid#1.	57
speak#1,	57
▁darkness	57
▁recovery	57
▁Mahat	57
▁Darfur	57
conflicts#1	57
decades#1.	57
▁wanting	57
hardware#1	57
show#1.	57
meter#1	57
▁consider	57
▁Ali	57
difficult#1,	57
cost#1.	57
▁regulation	57
approaching#1	57
surrounding#1	57
▁bend	57
▁synapse	57
▁orange	57
▁PowerPoint	57
nice#1,	57
alien#1	57
dolphins#1	57
proved#1	57
▁collapse	57
▁unbelievable	57
consistent#1	57
▁satellites	57
▁sentences	57
▁Computer	57
▁answered	57
markets#1,	57
▁audit	57
license#1	57
▁gaps	57
pain#1.	57
▁NB	57
ipcar	57
▁conduct	57
▁lighting	57
nerve#1	57
▁steal	57
safe#1.	57
▁organize	57
assembly	57
▁Oakland	57
▁drones	57
▁Guatemala	57
▁Everglades	57
speed	56
reports#1	56
▁spike	56
autonomous#1	56
▁Toronto	56
array#1	56
Be	56
experiences#1.	56
painful#1	56
▁statistic	56
▁advise	56
▁adventure	56
▁pairs	56
conditions#1.	56
▁naked	56
kar	56
▁Sound	56
▁away	56
am#1,	56
▁cluster	56
▁Run	56
change	56
▁Iraqi	56
father#1's	56
▁situations	56
football#1	56
▁technique	56
▁literacy	56
▁sensory	56
intelligence#1,	56
kick#1	56
astronomy	56
needs#1.	56
▁Yellow	56
▁Year	56
▁relax	56
predicted#1	56
culture	56
▁include	56
▁dimension	56
pile#1	56
volume#1	56
▁characteristics	56
▁deploy	56
clock#1	56
gravity#1	56
defense#1	56
found#1,	56
progress#1,	56
films#1	56
▁subtle	56
expectations#1	56
▁surrounded	56
read#1,	56
bicycle#1	56
circuit#1	56
▁insist	56
golden#1	56
Research#1	56
▁manual	56
▁autistic	56
▁focusing	56
▁chairs	56
▁heaven	56
Bob#1	56
with	56
▁BJ	56
▁translation	56
do#0n't	56
leverage#1	56
crying#1	56
▁Anna	56
▁bullet	56
ambia	56
Greek#1	56
affecting#1	56
living#1,	56
exploration#1	56
▁fractal	56
band#1	56
▁patents	56
hospital#1,	56
stick	56
girls#1,	56
mechanisms#1	56
▁Jean	56
stepped#1	56
profit#1	56
best#1.	56
muscles#1	56
evolution#1,	56
complicated#1.	56
patient#1,	56
▁Idaho	56
▁fraction	56
▁intention	56
bed#1,	56
▁discuss	56
universities#1	56
huh	56
organization#1,	56
piano#1	56
harvest#1	56
kills#1	56
earliest#1	56
act#1.	56
▁course	56
▁victim	56
▁gasoline	56
▁actors	56
▁Wright	56
▁dragonflies	56
▁FO	56
eat#1.	55
▁rent	55
▁Voyage	55
ever#1,	55
activity#1,	55
rush#1	55
conclude#1	55
▁pour	55
rights#1.	55
manipulate#1	55
milk#1	55
wrap#1	55
▁punch	55
clinic#1	55
expecting#1	55
▁Anybody	55
improving#1	55
along#1,	55
student#1,	55
▁entropy	55
▁Journal	55
storm#1	55
▁cholera	55
▁qualities	55
▁controversy	55
▁mood	55
girl#1.	55
tour#1	55
▁Tele	55
fabulous#1	55
berry	55
generation#1,	55
nothing#1,	55
▁engaging	55
▁CD	55
▁painted	55
characteristics#1	55
creature#1	55
▁genomic	55
units#1	55
▁application	55
terribly#1	55
studies#1,	55
▁cheat	55
stable#1	55
class#1.	55
▁package	55
evolution#1.	55
back#0	55
encouraged#1	55
▁reputation	55
ice#1,	55
ã	55
Bank#1	55
region#1.	55
borders#1	55
▁Plan	55
plan#1.	55
stars#1.	55
19#1	55
bottom#1.	55
▁drove	55
▁unlike	55
▁spreading	55
▁fabulous	55
▁bucks	55
conditions#1,	55
▁mixed	55
▁scientifically	55
told#0	55
▁insect	55
period#1.	55
choices#1.	55
▁defend	55
surgery#1,	55
▁evening	55
▁electromagnet	55
balloon#1	55
▁Diego	55
clouds#1	55
▁flo	55
▁beliefs	55
▁Association	55
been#1,	55
small#1.	55
1#1	55
A#1,	55
expansion#1	55
intensive	55
roads#1	55
cortex#1	55
lapse	55
ever#1.	55
gathered#1	55
▁Emma	55
▁ritual	55
lighting#1	55
corruption#1	55
▁suggestion	55
▁Angel	55
supernova	55
▁Swedish	55
capita#1	55
▁partnership	55
variation#1	55
▁actions	55
LT	55
▁rectangle	55
intended#1	55
▁mechanics	55
leap#1	55
▁Ana	55
▁Will	55
▁tourist	55
▁aggressive	55
▁Juan	55
▁ticket	55
message#1,	55
built	55
▁leaf	55
▁duck	55
▁Thu	55
subtle#1	55
▁Romo	55
▁Mahmoud	55
Talk#1	54
ai#1n't	54
▁Cancer	54
find#1,	54
cellular#1	54
▁pit	54
layers#1	54
▁profitable	54
training#1,	54
career#1,	54
cord#1	54
America#1's	54
▁reminded	54
▁civilian	54
closest#1	54
▁bacterium	54
difficulty#1	54
▁cheese	54
II#1	54
predictions#1	54
▁predictions	54
▁burning	54
contemporary#1	54
sector#1,	54
tube#1	54
populations#1	54
▁populations	54
▁select	54
▁permission	54
builds#1	54
happiness#1,	54
▁drawings	54
▁soccer	54
people#0	54
peaceful#1	54
garden#1	54
optimistic#1	54
generating#1	54
▁recommend	54
▁gravitational	54
kill	54
college#1.	54
presentation#1	54
annual#1	54
harm#1	54
▁liberal	54
▁robust	54
▁CNN	54
▁Stewart	54
▁nothing	54
interviewed#1	54
finance#1	54
▁Marine	54
gases#1	54
headed#1	54
expanding#1	54
behind#1.	54
▁disappeared	54
individuals#1.	54
▁aim	54
wine#1	54
▁briefly	54
laughing#1	54
▁Jason	54
chip#1	54
▁thermo	54
▁drinking	54
▁slip	54
▁practices	54
▁Bulgaria	54
Frank#1	54
▁reef	54
wash#1	54
pace#1	54
▁cellphone	54
seen#1,	54
▁conceptual	54
▁cybercriminal	54
▁granted	54
▁propaganda	54
value#1,	54
▁Kal	54
speech#1,	54
fastest#1	54
▁shy	54
▁consume	54
underground#1	54
mysterious#1	54
colleagues#1,	54
▁mill	54
detailed#1	54
estimated#1	54
▁seen	54
▁ears	54
evening#1	54
▁trauma	54
values#1,	54
name#1.	54
preparing#1	54
desperately#1	54
▁Siberia	54
▁Dai	54
▁soup	54
observe#1	54
R#1	54
doors#1	54
▁donated	54
▁came	54
enberg	54
▁undergraduate	54
proof#1	54
fits#1	54
▁Someone	54
▁apparently	54
▁brown	54
propose#1	54
▁conflicts	54
▁tension	54
ET	54
▁offered	54
▁corporate	54
ó	54
strategic#1	54
▁transfer	54
▁explicit	54
as#0	54
▁attend	54
▁seats	54
Social#1	54
▁quit	54
▁getting	54
Paris#1	54
▁Warren	54
▁goat	54
▁Sony	54
▁cake	54
compelling#1	54
sure#1.	54
▁internet	54
stays#1	54
clothes#1	54
stops#1	54
quality	54
▁millennia	54
recognition#1	54
▁Twenty	54
▁encyclopedia	54
court#1	54
urge#1	54
▁Jesse	54
illustrate#1	53
▁Land	53
RS	53
▁dumb	53
consequence#1	53
discovering#1	53
phys	53
mistakes#1	53
gang#1	53
Black#1	53
▁Oregon	53
▁Supreme	53
Nature#1	53
wider#1	53
force#1.	53
photographed#1	53
rolling#1	53
rate#1.	53
incentive#1	53
▁absorb	53
unlikely#1	53
innocent#1	53
asks#1	53
▁Panbanisha	53
▁across	53
▁Stein	53
▁approximately	53
speaks#1	53
▁centuries	53
▁grad	53
▁plankton	53
▁grammar	53
▁doors	53
binary#1	53
▁sport	53
believes#1	53
vision#1.	53
"Let#1's	53
channel#1	53
accident#1	53
▁windows	53
▁Hadr	53
▁involves	53
infrastructure#1,	53
▁anesthesia	53
piece#1,	53
▁tears	53
wise#1	53
included#1	53
truck#1	53
elite#1	53
▁percentage	53
graphic	53
suit#1	53
▁violin	53
▁Norman	53
public#1.	53
▁brothers	53
▁accidents	53
cum	53
▁variable	53
ugly#1	53
Cola	53
bodies#1,	53
compassion#1.	53
▁formula	53
▁label	53
outcomes#1	53
▁name	53
adopted#1	53
▁causing	53
lia	53
want#0	53
▁astonishing	53
Saudi#1	53
▁tissues	53
▁Wood	53
▁screw	53
okay#1?	53
third#1,	53
▁sticks	53
prize#1	53
▁escape	53
▁depending	53
chocolate#1	53
remembered#1	53
▁conventional	53
board#1,	53
Nations#1	53
reason#1.	53
socially#1	53
▁Turn	53
▁happier	53
▁senior	53
▁proportion	53
years#1?	53
owned#1	53
▁puberty	53
▁stadium	53
▁RISD	53
neighbors#1	53
▁Dubai	53
▁Simon	53
▁sexuality	53
governments#1,	53
humanitarian#1	53
realistic	53
mess#1	53
cash#1	53
fulness	53
▁receptor	53
▁passing	53
seeds#1	53
▁density	53
▁request	53
▁bump	53
▁Photoshop	53
▁competitor	53
richer#1	53
▁Sex	53
▁rhino	53
depression#1	53
▁empowerment	53
contract#1	53
productivity#1	53
biotic	53
▁Babylon	53
▁narrow	53
▁tasks	53
▁Bonica	53
▁compassionate	53
skills#1,	53
▁injury	53
▁verb	53
▁Isaac	53
▁strangers	53
JC	53
▁promote	53
▁Cassini	53
▁tattoo	53
▁Country	53
▁jihad	53
position#1.	52
east#1	52
term#1,	52
graduated#1	52
▁clients	52
▁Merc	52
cheaper#1	52
blowing	52
earlier#1.	52
▁silly	52
Video#1:	52
sorry#1,	52
▁funeral	52
realm#1	52
▁scratch	52
▁Sierra	52
who	52
▁Hospital	52
▁dish	52
smallest#1	52
delivery#1	52
beach#1	52
object#1.	52
silent#1	52
copyright#1	52
brave#1	52
▁biosphere	52
perceive#1	52
once#1.	52
▁heroes	52
Psycho	52
memory#1.	52
▁Flickr	52
plan#1,	52
▁heroin	52
educate#1	52
classical#1	52
owned	52
▁canopy	52
spring#1	52
minded	52
cook#1	52
yesterday#1	52
views#1	52
▁Sudan	52
▁Phoenix	52
▁oven	52
▁Wild	52
▁resemble	52
▁Samuel	52
▁provided	52
curve#1	52
▁procedure	52
▁dignity	52
assumptions#1	52
▁transmission	52
▁Bono	52
▁dose	52
staring#1	52
▁bin	52
▁concert	52
▁divided	52
▁Coca	52
▁Office	52
test#1,	52
▁drivers	52
▁Julian	52
▁Poll	52
Homo#1	52
cast#1	52
humanity#1,	52
fancy#1	52
▁such	52
▁saw	52
freedom#1.	52
▁immigrant	52
sheet#1	52
▁encode	52
▁uni	52
achieving	52
▁ancestor	52
ring#1	52
links#1	52
▁lever	52
▁crops	52
▁dump	52
▁Anyone	52
▁Tahrir	52
talent#1	52
incentives#1	52
▁means	52
▁mechanisms	52
wheel#1	52
▁Nice	52
pointing#1	52
▁begun	52
▁Edward	52
prior#1	52
▁demonstration	52
ecological#1	52
sleep#1,	52
will#0	52
▁prosecutor	52
▁eBay	52
▁approaches	52
▁Marcus	52
version	52
tropical#1	52
▁clusters	52
▁Julia	52
▁slime	52
▁Plato	52
▁suggesting	52
failing#1	52
▁soldier	52
▁arrow	52
▁formal	52
reputation#1	52
▁MK	52
▁Amanda	52
▁Europa	52
▁seafood	52
these	51
resistance#1	51
hero#1	51
loves#1	51
Mars#1.	51
Mars#1,	51
▁compound	51
precious#1	51
▁wrap	51
combat#1	51
▁nine	51
▁Add	51
▁overwhelming	51
come#0	51
SS#1:	51
burned#1	51
birthday#1	51
Foundation#1	51
describes#1	51
heroes#1	51
ingredients#1	51
▁Fish	51
▁Josh	51
machines#1,	51
machines#1.	51
▁binary	51
meetings#1	51
beings#1.	51
angle#1	51
▁gentleman	51
threatened#1	51
uncomfortable#1	51
quarters	51
▁afternoon	51
▁resist	51
▁branch	51
replicate#1	51
personality#1	51
▁Connecticut	51
cost#1,	51
tragic#1	51
▁comparison	51
▁kidding	51
▁medication	51
midst	51
East#1,	51
skin#1,	51
changes#1,	51
blog#1	51
approached#1	51
nurses#1	51
▁simulation	51
▁sulfide	51
▁poison	51
bee#1	51
▁petals	51
dreams#1,	51
▁anthropologist	51
fear#1,	51
tree#1.	51
interest	51
▁Tower	51
▁aspects	51
▁Medicine	51
▁mask	51
▁Yves	51
linear#1	51
eight#1,	51
▁expanding	51
pool#1	51
▁gather	51
fortunate	51
besides#1	51
▁reports	51
dust#1	51
▁twist	51
fragile#1	51
▁originally	51
fire#1,	51
volunteers#1	51
web#1,	51
ER	51
circumstances#1	51
distinct#1	51
▁lottery	51
▁roots	51
apple#1	51
▁dozens	51
▁embedded	51
▁altruism	51
▁Power	51
trouble#1.	51
offering#1	51
firm#1	51
▁borrow	51
read#1.	51
anonymous#1	51
communication#1.	51
▁dramatically	51
challenged#1	51
offers#1	51
frequency#1	51
▁interactive	51
degree	51
sales#1	51
▁confused	51
▁distributed	51
product#1,	51
story	51
▁accountable	51
Turns#1	51
extinct#1	51
▁panels	51
angry#1	51
precise#1	51
▁demonstrate	51
▁homeless	51
theories#1	51
▁domain	51
▁fought	51
▁ceiling	51
fallen#1	51
coming#1.	51
▁having	51
▁chemotherapy	51
▁Norwegian	51
▁Bahamas	51
▁multiverse	51
▁shower	51
▁hardware	51
fan#1	51
aside#1	51
TV#1,	51
path#1.	51
▁Columbia	51
designers#1,	51
▁Caltech	51
historic#1	51
reefs#1	51
▁targets	51
▁frozen	51
models#1,	51
▁Agnes	51
musicians#1	51
elementary#1	51
father#1.	51
pain#1,	51
forgot#1	51
▁gods	51
▁drone	51
▁bathroom	51
▁contribution	51
▁Exxon	51
▁neurogenesis	51
▁Interviewer	51
ç	51
▁Gwen	51
▁bombsight	51
Air#1	50
briefly#1	50
▁orgasm	50
▁assignment	50
constructed#1	50
mice#1	50
pharmaceutical#1	50
▁emerge	50
seeking#1	50
perfect#1.	50
conflict#1,	50
▁connecting	50
town#1.	50
▁investing	50
▁presented	50
▁prior	50
identity#1,	50
symbols#1	50
institutional#1	50
▁dating	50
discoveries#1	50
▁indoor	50
▁prediction	50
intelligence#1.	50
output#1	50
please#1.	50
"Well#0,	50
paintings#1	50
▁dune	50
gained#1	50
bend#1	50
And	50
permission#1	50
speak#1.	50
▁disagree	50
toilet#1	50
page#1.	50
instantly#1	50
trees#1.	50
wrote#1,	50
▁detector	50
▁opera	50
▁pulling	50
▁sexy	50
classes#1	50
standards#1	50
nonprofit#1	50
▁Republic	50
High#1	50
▁Jersey	50
learn#1,	50
come	50
values#1.	50
▁documents	50
theater#1,	50
▁smarter	50
crops#1	50
practice#1,	50
▁Secretary	50
▁depressed	50
▁crush	50
▁Nano	50
▁Tesla	50
humor#1	50
▁roads	50
▁Gaza	50
content#1.	50
fantastic#1.	50
communications#1	50
sustain#1	50
▁strike	50
▁aluminum	50
empower#1	50
drew#1	50
thermal	50
▁spray	50
▁rice	50
silence#1	50
trends#1	50
say#1?	50
▁unhappy	50
cow#1	50
▁loan	50
devices#1.	50
▁tear	50
result#1.	50
▁bamboo	50
cute#1	50
sleeping#1	50
"Wow#1,	50
engagement#1	50
reactions#1	50
receiving#1	50
improved#1	50
▁Pakistani	50
freedom#1,	50
promised#1	50
enjoying#1	50
▁viewer	50
escalat	50
usual#1	50
insights#1	50
boyfriend	50
▁mutual	50
equality#1	50
wondering#1,	50
varian	50
Through#1	50
▁preach	50
▁federal	50
sacred#1	50
three	50
▁Turns	50
generation#1.	50
athlete	50
command#1	50
▁MBA	50
afternoon#1,	50
▁musician	50
▁Small	50
▁Melinda	50
▁phenomenal	50
▁Mind	50
▁causal	50
options#1	50
forgotten#1	50
▁protecting	50
portion#1	50
▁Malawi	50
answers#1.	50
elderly#1	50
▁contribute	50
▁candle	50
▁assistance	50
▁sacrifice	50
▁Recently	50
▁applause	50
▁Word	50
▁janitor	50
▁Book	50
▁Garden	50
oriented	50
▁instructions	50
▁damn	50
instruct	50
▁crocodile	50
▁cotton	50
▁stereo	50
Safe	50
▁salary	50
▁pulse	50
▁dictator	50
▁composer	50
boxes#1	50
▁Freedom	50
Nelson#1	50
built#1.	50
▁Muhammad	50
rough#1	50
▁Under	50
▁hug	50
▁footage	50
liberal#1	50
▁CERN	50
▁Gando	50
▁Stay	49
▁skeletal	49
▁honestly	49
▁profession	49
Little#1	49
hunting#1	49
longer#1,	49
pharmaceutical	49
sheer#1	49
survival#1.	49
posted#1	49
winning#1	49
▁Whit	49
X#1	49
pairs#1	49
policy#1.	49
possible#1?	49
smoke#1	49
▁output	49
▁intrinsic	49
▁Pink	49
next#1.	49
ownership#1	49
emerged#1	49
▁tune	49
axis#1	49
▁laid	49
▁pray	49
contributed#1	49
speed#1,	49
▁calcium	49
script#1	49
▁Hitler	49
tears#1	49
used#1.	49
page#1,	49
▁persist	49
teacher#1,	49
sex#1,	49
▁probability	49
▁Jennifer	49
describing#1	49
seriously#1,	49
▁invested	49
far	49
believing#1	49
Grand#1	49
▁panel	49
▁Public	49
▁pathway	49
position#1,	49
performance#1.	49
Cloud	49
black#1,	49
review#1	49
▁crossing	49
neighborhoods#1	49
device#1,	49
recover#1	49
large-scale#1	49
Egypt#1	49
thick#1	49
Brazilian#1	49
transparent#1	49
▁Bee	49
fly#1.	49
used#1,	49
involved#1.	49
▁purchase	49
faster#1,	49
being#1.	49
striking#1	49
experiments#1,	49
help#1,	49
preventable	49
continuing#1	49
order#1.	49
▁idiot	49
▁tribal	49
there#0	49
▁Fran	49
lecture#1	49
According#1	49
Islam#1	49
▁breaking	49
▁bold	49
astonishing#1	49
ending#1	49
mean#1.	49
▁hanging	49
▁Orleans	49
▁pigs	49
▁continues	49
▁Report	49
force#1,	49
▁drag	49
catching#1	49
▁Tehran	49
▁encrypt	49
▁combined	49
mining#1	49
▁Common	49
▁Walter	49
▁preserve	49
"A#1	49
marry#1	49
risk#1.	49
changed#1,	49
▁visitors	49
▁trash	49
▁informed	49
fiber#1	49
security#1.	49
tasks#1	49
▁earthquake	49
temporary#1	49
▁resilience	49
snow#1	49
essence#1	49
specialized#1	49
elephant#1	49
jail#1	49
illusion#1	49
transforming#1	49
▁trailer	49
bias#1	49
condition#1,	49
▁disruptive	49
▁rituals	49
▁Bear	49
▁asset	49
▁addict	49
event#1,	49
▁Chuck	49
▁colonies	49
Arctic#1	49
tonight#1	49
▁clay	49
damn#1	49
ching	49
examples#1,	49
▁phosphorus	49
▁limestone	49
Brain	49
▁circumstances	49
▁panic	49
▁Glenn	49
▁prioritize	49
innovations#1	49
been#1.	49
further#1.	49
soldier#1	49
▁reasonable	49
minimum#1	49
▁lap	49
▁editor	49
▁Economist	49
▁Biosphere	49
▁Guardian	49
▁leather	49
▁Raisuddin	49
▁Enceladus	49
▁Fibonacci	49
grow#1,	48
▁Type	48
legs#1.	48
▁Natural	48
▁portion	48
▁visited	48
architecture#1.	48
seeking	48
million#1.	48
enjoyed#1	48
▁boundaries	48
▁Virgin	48
absence#1	48
Bush#1	48
qualities#1	48
▁seek	48
sends#1	48
"OK#1,	48
West#1,	48
poor#1.	48
realized#1,	48
suspect#1	48
▁fishermen	48
tricks#1	48
ad#1	48
▁buried	48
hearts#1	48
ice#1.	48
identified	48
▁deck	48
risk#1,	48
sick#1.	48
▁technologist	48
while	48
cultural	48
Industrial#1	48
void	48
right-hand#1	48
▁spots	48
gentleman#1	48
race#1,	48
▁artistic	48
shocked#1	48
▁seawater	48
most#1,	48
plus	48
roots#1	48
involve#1	48
screen	48
▁struggling	48
conflict#1.	48
skills#1.	48
▁primitive	48
favor#1	48
▁replied	48
arrive#1	48
crossed#1	48
▁diagnostic	48
▁tight	48
▁internship	48
forever#1,	48
route#1	48
because	48
▁spell	48
visualize#1	48
females#1	48
found#1.	48
located#1	48
journalist#1	48
improvement#1	48
▁Movement	48
decrease#1	48
simplicity#1	48
▁housing	48
steal#1	48
blank#1	48
flexible#1	48
▁Data	48
honest#1,	48
▁overcome	48
▁bang	48
animation#1	48
▁midnight	48
▁eradication	48
philosophy#1	48
▁sink	48
▁signature	48
Asia#1.	48
▁district	48
pitch#1	48
depression#1,	48
plain#1	48
▁Vinci	48
▁towel	48
networks#1.	48
▁Micro	48
▁candidate	48
parents#1.	48
▁dialogue	48
Hotel	48
▁glamour	48
endangered#1	48
▁propose	48
▁IKEA	48
commit#1	48
go#1?	48
confront#1	48
▁minimal	48
measures#1	48
distance#1,	48
handful#1	48
▁Nevada	48
▁commodities	48
safe#1,	48
▁accessible	48
apart#1,	48
next#1?	48
▁commit	48
Media#1	48
▁calculation	48
▁Kanzi	48
run#1,	48
tool#1.	48
tool#1,	48
▁tragedy	48
matters#1.	48
▁blogger	48
▁punish	48
▁installation	48
career#1.	48
stretch#1	48
fortune#1	48
▁Joseph	48
▁Jonathan	48
▁fired	48
▁Carol	48
handed	48
▁failing	48
nest#1	48
▁Radio	48
▁IMF	48
▁Archie	48
▁Stirling	48
▁testosterone	48
▁PDF	48
capability#1	47
faces#1.	47
sight#1	47
emerge#1	47
▁incremental	47
ages#1	47
▁domestic	47
▁shoe	47
▁nonetheless	47
generating	47
mapping#1	47
primitive#1	47
boundaries#1	47
style#1	47
architecture#1,	47
▁needs	47
present#1.	47
built#1,	47
slides#1	47
patterns#1,	47
points#1.	47
▁eaten	47
instant#1	47
patient#1's	47
attitude#1	47
pursuit#1	47
two#1:	47
▁adjust	47
▁Kansas	47
▁Heart	47
▁beam	47
deci	47
▁classical	47
grow#1.	47
▁predicted	47
Stanford#1	47
stations#1	47
walk	47
Third#1	47
▁flaw	47
languages#1.	47
moving#1.	47
win#1.	47
comment#1	47
plug#1	47
guarantee#1	47
▁garage	47
Pretty#1	47
child#1's	47
do#1n't,	47
▁Reagan	47
▁Cut	47
▁integrated	47
brains#1.	47
wrapped#1	47
▁estate	47
▁catastrophic	47
along#1.	47
▁Freud	47
planets#1,	47
▁Line	47
▁mite	47
established#1	47
▁near	47
flowing#1	47
available#1,	47
background#1,	47
▁fed	47
properly#1	47
▁properly	47
▁glasses	47
error#1	47
▁acoustic	47
▁Food	47
educated#1	47
▁manipulate	47
▁cartilage	47
goal#1.	47
proven#1	47
tear#1	47
meaning#1.	47
positive	47
lowest#1	47
killed#1.	47
▁slave	47
baseball#1	47
move#1,	47
hot#1,	47
▁reactions	47
▁correspond	47
▁Karl	47
spot	47
▁membrane	47
silly#1	47
flower#1	47
demonstrated#1	47
further#1,	47
hip#1	47
construct#1	47
came#1,	47
▁Sto	47
spider#1	47
▁humankind	47
study#1.	47
Americans#1,	47
prison#1,	47
▁retire	47
tragedy#1	47
hated#1	47
▁difficulty	47
▁perpetrat	47
▁relations	47
▁promised	47
▁accepted	47
goes#1.	47
officer#1	47
▁Head	47
▁uncle	47
▁Victorian	47
observed#1	47
▁kingdom	47
dream#1.	47
imaging#1	47
▁Isabel	47
risk	47
▁Case	47
Manhattan#1	47
▁letting	47
▁leverage	47
relationships#1,	47
▁Bassem	47
▁neck	47
▁Poem	47
miracle#1	47
nanometer	47
▁pedestrian	47
▁wired	47
▁richer	47
▁mesh	47
demands#1	47
prison#1.	47
▁dough	47
zone#1	47
list#1.	47
▁radar	47
▁jet	47
edges#1	47
▁CIA	47
▁forgotten	47
▁telescopes	47
actors#1	47
ask	47
▁drift	47
married#1,	47
hiding#1	47
▁Movember	47
▁marry	47
▁hatred	47
enemy#1	47
iest	47
forest#1.	47
potential#1.	47
▁pencil	47
▁snake	47
▁CAPTCHA	47
replaced#1	46
▁chemo	46
governmental	46
garbage#1	46
▁lions	46
eliminate#1	46
▁translated	46
▁keyboard	46
▁innocent	46
▁Worldchanging	46
▁Thursday	46
▁asleep	46
consciousness#1.	46
▁picking	46
beating#1	46
▁spark	46
▁Start	46
Really#1	46
▁nuts	46
▁Toyota	46
▁navigate	46
▁bags	46
▁grasp	46
▁reject	46
"Do#1n't	46
deep#1,	46
▁hallway	46
▁badly	46
speakers#1	46
position	46
▁sent	46
objects#1.	46
imagining	46
▁replicate	46
performed#1	46
▁gigantic	46
resolution#1	46
clear#1,	46
▁constructed	46
terms#1,	46
▁memorize	46
▁breed	46
see#1?	46
Swiss#1	46
Lake#1	46
description#1	46
▁category	46
items#1	46
societies#1.	46
▁pervasive	46
▁Galileo	46
advertising#1	46
▁synthetic	46
regardless#1	46
evolving	46
electricity#1.	46
▁Rule	46
▁compelling	46
press#1,	46
▁happens	46
Russia#1,	46
reaches#1	46
▁naive	46
▁appeal	46
authorities#1	46
▁Tracy	46
▁previous	46
pump#1	46
▁Lewis	46
destroying#1	46
▁occasion	46
▁dear	46
effective	46
service#1,	46
pilot#1	46
▁yield	46
▁ooh	46
Happy	46
thing#1?	46
▁gets	46
shipping#1	46
deepest#1	46
generation	46
healthy#1,	46
beaten#1	46
▁dynamics	46
stages#1	46
states#1,	46
halfway#1	46
▁sleeping	46
▁woke	46
▁Civil	46
dressed#1	46
Christian#1	46
Spider	46
▁combat	46
frequency	46
▁Moscow	46
succeed#1	46
answered#1	46
▁migrant	46
deception	46
fine#1,	46
▁threw	46
bound#1	46
▁ratio	46
▁ways	46
men#1's	46
domain#1	46
left-hand#1	46
debt#1	46
▁societ	46
mark#1	46
▁Ryan	46
▁brutal	46
label#1	46
choices#1,	46
convey#1	46
farmer#1	46
▁structural	46
doctors#1,	46
▁billboard	46
▁merit	46
▁neural	46
physics#1.	46
Asian#1	46
▁Find	46
activate#1	46
▁curator	46
suddenly#1,	46
service#1.	46
▁spill	46
Africa	46
went	46
26#1	46
▁certain	46
▁matrix	46
silver#1	46
guy#1's	46
fluid#1	46
▁immune	46
▁nodes	46
▁niece	46
▁unemployment	46
▁disabilities	46
practice#1.	46
▁nonprofit	46
▁surf	46
3#1	46
▁optimism	46
▁strongly	46
▁Algeria	46
▁migraine	46
▁grassland	46
▁Archimedes	46
▁RNG	46
limb#1	45
▁capability	45
Uh	45
planetary#1	45
understands#1	45
services#1.	45
▁versa	45
really#1.	45
▁pharma	45
▁graphics	45
logical#1	45
identity#1.	45
lines#1.	45
survived#1	45
cultures#1,	45
Honey	45
miles#1.	45
centuries#1	45
luxury#1	45
somehow#1,	45
stop#1,	45
▁virgin	45
agents#1	45
channels#1	45
▁minimum	45
palm#1	45
12#1,	45
possibilities#1.	45
▁incident	45
workers#1,	45
▁ownership	45
motivated#1	45
force	45
weight#1,	45
heading#1	45
Half#1	45
▁perceive	45
creatures#1.	45
saw#1,	45
Bible#1	45
teaches#1	45
▁numerous	45
sick#1,	45
▁Poor	45
University#1,	45
owner#1	45
weapon#1	45
▁safer	45
▁AB	45
shifting#1	45
don#1	45
ethnic#1	45
simulation#1	45
networks#1,	45
▁treating	45
▁rats	45
documents#1	45
atomic#1	45
▁Max	45
burden#1	45
▁reaching	45
writing#1,	45
escent	45
neighbor#1	45
▁fragile	45
colored#1	45
▁arrive	45
▁bind	45
▁tiles	45
teachers#1.	45
switched#1	45
beliefs#1	45
legs#1,	45
▁Maslow	45
▁virtue	45
color#1.	45
grass#1	45
agencies#1	45
pattern#1.	45
▁shipping	45
responded#1	45
▁miserable	45
dynamics#1	45
▁presence	45
next#1,	45
acknowledge#1	45
gut#1	45
▁maneuver	45
door#1.	45
recovery#1	45
walk#1,	45
controller	45
attractive#1	45
▁writer	45
panels#1	45
walk#1.	45
writer#1	45
hackers#1	45
lost#1.	45
tie#1	45
estimates#1	45
▁essence	45
decided#1,	45
▁warning	45
chance#1.	45
products#1,	45
▁openness	45
tea#1	45
stopping#1	45
▁highlight	45
competitive#1	45
▁primate	45
▁terrifying	45
Technology#1	45
▁abilities	45
▁interpret	45
homes#1,	45
anxiety#1	45
tribes#1	45
77	45
▁Caribbean	45
handed#1	45
serves#1	45
cable#1	45
Up#1	45
engineering#1,	45
board#1.	45
▁simulate	45
bears#1	45
▁mum	45
▁risky	45
personalized#1	45
engineered	45
mechanics#1	45
▁universities	45
continent#1.	45
▁vegetable	45
justice#1,	45
▁Rich	45
▁attached	45
lucky#1,	45
▁dentist	45
Bat	45
equation#1	45
▁authentic	45
voting#1	45
▁Android	45
▁allowing	45
spen	45
▁alarm	45
drone#1	45
▁shortcut	45
reform#1	45
▁Batman	45
▁prosperity	45
▁Vermeer	45
▁Lesterland	45
blown	44
blown#1	44
▁minerals	44
▁polymer	44
social#1,	44
peer#1	44
engineers#1,	44
run#1.	44
selected#1	44
hall#1	44
guess#1,	44
neat#1	44
event#1.	44
dating#1	44
▁burned	44
trapped#1	44
▁embarrassing	44
calculated#1	44
know#0	44
Dutch#1	44
▁civic	44
Am#1	44
▁superstar	44
▁macro	44
animal#1.	44
Probably#1	44
buildings#1.	44
▁Building	44
demonstration#1	44
▁terrified	44
dear#1	44
minds#1.	44
village#1.	44
rubber#1	44
▁rubber	44
AG	44
▁proposed	44
start#1.	44
▁dare	44
organization#1.	44
▁Call	44
▁Barbie	44
after#1,	44
▁BBC	44
analysis#1,	44
optical#1	44
consciousness#1,	44
Italian#1	44
▁Sergio	44
▁Jonas	44
aim#1	44
cases#1.	44
smarter#1	44
shelf	44
character#1.	44
camera#1.	44
▁Carnegie	44
practices#1	44
imagination#1.	44
resist#1	44
occurs#1	44
▁fault	44
▁cheaper	44
▁rising	44
politics#1.	44
minus#1	44
climbed#1	44
seven#1,	44
record#1.	44
brew	44
▁Forest	44
trucks#1	44
goal#1,	44
strong#1,	44
▁rights	44
▁Beethoven	44
managing#1	44
▁stones	44
engineered#1	44
pocket#1	44
▁egg	44
▁frustrated	44
went#1,	44
▁forgive	44
Right#1,	44
defend#1	44
▁arrested	44
▁feeding	44
Afghan#1	44
audio#1	44
quest#1	44
detail#1.	44
ifying	44
representation#1	44
Israeli#1	44
belongs#1	44
stored#1	44
▁psychiatri	44
▁usual	44
shrimp#1	44
song#1,	44
▁entered	44
proportion#1	44
▁observe	44
▁Four	44
parts#1,	44
engineer#1,	44
▁thrilled	44
breeding#1	44
▁facility	44
heard#1,	44
relation#1	44
deals#1	44
orders#1	44
▁flexible	44
cared#1	44
connection#1,	44
problem#1:	44
▁Baghdad	44
keeper	44
excitement#1	44
▁Cameron	44
▁isolated	44
▁attorney	44
▁loans	44
▁guilty	44
▁bombs	44
▁communications	44
sphere#1	44
front	44
▁stratosphere	44
dress#1	44
▁parties	44
centric	44
▁export	44
▁puppet	44
Prize#1	44
▁fluorescent	44
window#1.	44
competition#1.	44
set#1.	44
sculpture#1	44
E#1:	44
prostate#1	44
▁urgent	44
eastern#1	44
markets#1.	44
▁biotech	44
trivial	44
seriously#1.	44
▁copied	44
▁Golden	44
bed#1.	44
▁freeze	44
safer#1	44
▁comes	44
reflected#1	44
frustrated#1	44
▁jellyfish	44
district#1	44
▁hiding	44
▁Lear	44
▁Oscar	44
governance#1	44
material	44
Sure	44
▁odds	44
longer#1.	44
2#1:	44
▁irrelevant	44
gas#1.	44
Wonder	44
▁cookie	44
▁hub	44
▁awkward	44
▁guns	44
genius#1	44
ö	44
▁Dimitri	44
▁Lakota	44
conference#1,	43
half#1.	43
loving#1	43
clients#1	43
▁Diet	43
turn#1,	43
Moore#1's	43
concentrated#1	43
encouraging#1	43
67	43
▁Rosling	43
mimicry	43
plant#1,	43
animal#1,	43
confused#1	43
labeled#1	43
March#1	43
Bay#1	43
Man#1	43
▁recall	43
▁obstacles	43
faster#1.	43
▁ego	43
▁confirm	43
▁proper	43
adjust#1	43
▁choosing	43
afternoon#1	43
▁Jamaica	43
nutrients#1	43
coming#1,	43
anger#1	43
packed#1	43
visiting#1	43
models#1.	43
▁morality	43
▁Notice	43
▁bush	43
loud#1	43
▁entering	43
▁inexpensive	43
has#1,	43
▁once	43
▁humanitarian	43
exe	43
drag#1	43
rat#1	43
tomorrow#1.	43
▁flavor	43
out#1?	43
▁paralysis	43
▁affects	43
--"	43
policy#1,	43
purpose#1.	43
▁Michigan	43
connection#1.	43
exponential	43
▁Gordon	43
▁Renaissance	43
magic#1.	43
virus#1,	43
shine#1	43
▁inhabit	43
observation#1	43
▁consultant	43
Stage#1	43
▁US	43
▁Perfect	43
West#1.	43
▁Galois	43
zero#1.	43
minister#1	43
▁neighbor	43
▁anticipate	43
chemical	43
attack#1,	43
▁client	43
▁photography	43
Yet#1,	43
passive#1	43
streets#1,	43
wind#1,	43
desert#1.	43
▁Harlem	43
earthquake#1	43
transplant#1	43
reliable#1	43
relationships#1.	43
yesterday#1,	43
managers#1	43
targets#1	43
Sir#1	43
van#1	43
worthy#1	43
bill#1	43
▁Fair	43
sexually#1	43
▁audio	43
atar	43
▁pediatric	43
friend#1.	43
exotic#1	43
expectancy#1	43
specific	43
indicate#1	43
green#1,	43
▁fate	43
▁millisecond	43
▁bun	43
Medical#1	43
▁ingredient	43
è	43
▁Fifty	43
production#1.	43
▁shopping	43
▁chunk	43
raises#1	43
▁empower	43
relations#1	43
devastating#1	43
monitoring#1	43
chief#1	43
uncle#1	43
happier#1	43
▁nap	43
▁reproductive	43
cold#1.	43
▁Cohen	43
generative	43
11#1,	43
▁knife	43
knows#1,	43
normal#1,	43
▁courageous	43
▁Arizona	43
▁elegant	43
politically#1	43
held	43
Olympic#1	43
Voice#1:	43
▁peel	43
bars#1	43
▁syndrome	43
logging	43
source#1,	43
Student	43
▁enhance	43
▁velocity	43
Indians#1	43
▁JA	43
subway#1	43
integrate#1	43
▁Buy	43
▁jam	43
positions#1	43
closing#1	43
▁helpless	43
extension#1	43
▁governance	43
rethink#1	43
▁Jose	43
category#1	43
▁Slow	43
▁participants	43
molecules#1,	43
▁Walmart	43
▁Prime	43
▁blank	43
problem#1?	43
▁worms	43
▁Goodbye	43
▁Solly	43
▁Oliver	43
▁Nollywood	43
▁Gay	43
▁summit	43
▁tadpole	43
▁Lesters	43
▁cyclist	43
▁illustrate	42
▁impressive	42
moon#1,	42
abandoned#1	42
adapted#1	42
Supreme#1	42
▁wider	42
▁amazed	42
season#1	42
▁Learning	42
covers#1	42
▁inevitable	42
defining#1	42
graphics#1	42
journalists#1	42
communicating#1	42
insect#1	42
survive#1,	42
Children#1	42
▁Just	42
satellites#1	42
Trade#1	42
clear#1.	42
▁farming	42
Field	42
institutions#1.	42
▁beating	42
feel#1,	42
pictures#1.	42
▁generous	42
▁exclusive	42
performance#1,	42
▁chase	42
surfaces#1	42
wooden#1	42
▁please	42
created#1,	42
▁USDA	42
volunteer#1	42
▁listened	42
▁Princeton	42
▁beneficial	42
most	42
worrying#1	42
flash#1	42
decision#1.	42
demographic#1	42
interpret#1	42
▁chips	42
▁resident	42
▁Death	42
▁alcohol	42
▁terribly	42
▁saying	42
effects#1.	42
charity#1	42
▁Alright	42
▁Empire	42
sixth#1	42
▁symmetries	42
▁Lots	42
▁Parliament	42
resolve#1	42
▁lawsuit	42
▁Seven	42
things#1?	42
▁concentration	42
▁supercomputer	42
hoped#1	42
gone#1,	42
plant#1.	42
notice#1,	42
west#1	42
▁erect	42
learned#1,	42
El#1	42
trace#1	42
▁rapid	42
tuna#1	42
sticking#1	42
hungry#1	42
▁tale	42
victim#1	42
chest#1	42
perfect#1,	42
wore#1	42
smoking#1	42
▁chest	42
install#1	42
forest#1,	42
▁priest	42
▁flap	42
▁peaceful	42
▁Lanka	42
told#1,	42
Open#1	42
revealed#1	42
▁Picasso	42
▁encryption	42
▁crop	42
▁reduced	42
Watch#1	42
▁Broadmoor	42
trial#1,	42
articles#1	42
France#1	42
dominated#1	42
accounts#1	42
coastal#1	42
generous#1	42
youngest#1	42
▁vent	42
terrifying#1	42
privileged#1	42
▁gratitude	42
simplest#1	42
worked#1,	42
country#1's	42
▁exhibit	42
▁resolve	42
picks#1	42
"I#0	42
▁drought	42
disorders#1	42
▁strategic	42
infectious#1	42
establish#1	42
arrested#1	42
▁Joan	42
balls#1	42
wound#1	42
file#1	42
▁banana	42
▁shout	42
refused#1	42
blood#1,	42
counting#1	42
▁agency	42
▁Laptop	42
▁scaffold	42
▁adding	42
▁items	42
▁extent	42
record#1,	42
▁polite	42
▁interviewed	42
parties#1	42
▁iron	42
▁emergency	42
▁fastest	42
▁algebra	42
installed#1	42
approaches#1	42
patterns#1.	42
▁methods	42
transmit#1	42
Bruno#1	42
loop#1	42
decisions#1,	42
arm#1.	42
▁Donald	42
photography#1	42
▁Essentially	42
▁inspect	42
France#1,	42
meaning#1,	42
pressure#1,	42
shoulder#1	42
▁Pick	42
▁penalty	42
▁larvae	42
▁momentum	42
Park#1	42
▁kite	42
▁wetland	42
counterintuitive	42
"All#1	41
relationship#1.	41
pour#1	41
amazed#1	41
programs#1.	41
babies#1,	41
▁photographed	41
▁Irish	41
▁suffered	41
sheep#1	41
▁discoveries	41
agency#1	41
"Do#0	41
▁Lee	41
▁oldest	41
first#0	41
mood#1	41
motivated	41
individual#1,	41
writers#1	41
confronted#1	41
▁Full	41
accelerate#1	41
branch#1	41
▁juggle	41
▁elderly	41
▁separated	41
stack#1	41
colors#1,	41
▁blob	41
vision	41
▁caring	41
stores#1	41
▁writers	41
planets#1.	41
son#1.	41
lock#1	41
mother#1's	41
drops#1	41
▁IDEO	41
▁Amazing	41
Alexander#1	41
solutions#1,	41
answers#1,	41
▁standpoint	41
comic#1	41
evolving#1	41
generates#1	41
comparing#1	41
▁pun	41
▁empowered	41
▁cue	41
▁sake	41
▁Midwest	41
▁neighborhoods	41
▁Information	41
Law#1	41
Ray#1	41
▁lifted	41
interest#1.	41
dreams#1.	41
believe#1.	41
▁marathon	41
brains#1,	41
▁tennis	41
▁golden	41
odds#1	41
discovery#1,	41
▁analogy	41
▁blend	41
▁Mama	41
broader#1	41
half#1,	41
dragon	41
warning#1	41
▁carpet	41
"Is#1	41
boys#1,	41
▁DDT	41
▁Fox	41
▁Malaysia	41
▁More	41
▁contrary	41
▁captured	41
better#1?	41
▁Index	41
sticks#1	41
treatments#1	41
sharp#1	41
▁battlefield	41
passes	41
cotton#1	41
other#1's	41
▁educational	41
▁relie	41
▁Bring	41
interior#1	41
structure	41
galaxies#1,	41
▁sisters	41
▁Bird	41
meters#1.	41
▁continuum	41
kicked#1	41
scales#1	41
author#1	41
evidence#1,	41
▁Taiwan	41
club#1	41
▁Language	41
▁precise	41
spin#1	41
▁Ninety	41
▁Shake	41
ambitious#1	41
Spanish#1	41
footage#1	41
patents#1	41
chronic#1	41
▁crab	41
complicated#1,	41
unbelievable#1	41
tomorrow#1	41
responses#1	41
▁Genome	41
publishing#1	41
Remember#1,	41
▁congestion	41
common#1.	41
Look#1,	41
meeting#1,	41
▁End	41
▁Beach	41
▁deforestation	41
▁tweet	41
heavily#1	41
▁fisc	41
residents#1	41
B#1,	41
minds#1,	41
▁straightforward	41
implement#1	41
evidence#1.	41
hole	41
▁rainfall	41
crop#1	41
▁closing	41
crime#1.	41
▁delivered	41
scanning#1	41
take#1,	41
businesses#1,	41
decade#1.	41
▁fundraising	41
attle	41
agriculture#1,	41
lifted#1	41
▁destiny	41
▁exposed	41
however#1	41
revenue#1	41
▁became	41
venture#1	41
▁simulator	41
▁hunter	41
tank#1	41
"Can#1	41
▁Kentucky	41
▁blast	41
▁substantial	41
store#1,	41
▁candy	41
any	41
cool#1,	41
▁pirate	41
Old	41
pause#1	41
▁landed	41
optimism#1	41
▁determined	41
intervention#1	41
discussing#1	41
▁unintended	41
▁Darwinian	41
▁winner	41
race#1.	41
representing#1	41
▁recognized	41
▁estrogen	41
▁Alfred	41
threats#1	41
▁threats	41
▁smiling	41
Lincoln#1	41
▁Terence	41
▁wetsuit	41
▁Helvetica	41
▁Well	40
neighborhood#1.	40
▁further	40
tissues#1	40
▁antidepressant	40
▁Face	40
▁Vienna	40
▁array	40
nearby#1	40
sisters#1	40
exist#1,	40
workers#1.	40
potential#1,	40
▁requirement	40
attacked#1	40
farming#1	40
▁automobile	40
riding#1	40
▁fingertips	40
was#0,	40
Jack#1	40
dignity#1	40
▁germ	40
▁mutate	40
military#1,	40
▁terror	40
galaxy#1,	40
▁distant	40
welfare#1	40
diversity#1,	40
Part#1	40
tune#1	40
needed#1.	40
training#1.	40
▁Large	40
organisms#1.	40
▁debris	40
▁replicator	40
▁Bridge	40
cooperation#1	40
▁institutional	40
phenomenon#1.	40
listening#1.	40
flight#1,	40
▁USB	40
▁tempo	40
speaker#1	40
▁goes	40
smaller#1,	40
adopt#1	40
upset#1	40
Public#1	40
▁genital	40
spots#1	40
▁Vegas	40
mentioned#1,	40
▁luxury	40
pride#1	40
▁imaging	40
tracks#1	40
▁served	40
recognizing#1	40
▁jewelry	40
transmission#1	40
▁savanna	40
infrastructure#1.	40
▁assumptions	40
▁Eames	40
▁shine	40
Russia#1	40
informal#1	40
▁Energy	40
Island#1	40
speaking#1,	40
support#1,	40
▁ozone	40
oceans#1.	40
▁formation	40
am#1.	40
million	40
▁rode	40
attack#1.	40
talking#1,	40
soap#1	40
concentration#1	40
arguing#1	40
▁detection	40
▁hint	40
▁acknowledge	40
Twitter#1,	40
feeling#1.	40
Despite#1	40
raped#1	40
▁Thousands	40
Having#1	40
▁Kingdom	40
ridiculous#1	40
▁Service	40
levels#1.	40
X-ray#1	40
▁economies	40
subject#1.	40
virus#1.	40
birds#1,	40
carries#1	40
portrait#1	40
▁opposed	40
▁stable	40
▁Hundreds	40
ordered#1	40
▁often	40
corporations#1	40
▁intent	40
organizing#1	40
▁banjo	40
▁tongue	40
charges#1	40
step#1,	40
cleaning	40
▁halve	40
▁stretch	40
▁throwing	40
chasing#1	40
▁format	40
grocery#1	40
fail#1.	40
relationship#1,	40
periods#1	40
▁onstage	40
responding#1	40
▁reported	40
▁upward	40
homeless#1	40
ask#0	40
▁surprisingly	40
▁theoretical	40
quat	40
blew#1	40
▁principal	40
▁stepped	40
spite#1	40
wall	40
knew#1,	40
results#1,	40
imagination#1,	40
abilities#1	40
mimic#1	40
soil#1,	40
▁ecology	40
slide#1.	40
▁jar	40
consequences#1.	40
substance#1	40
close#1,	40
roads#1,	40
consuming	40
intersection#1	40
intensive#1	40
Excuse	40
▁calculate	40
example#1:	40
▁bonus	40
responsibility#1.	40
animate	40
▁prosthetic	40
▁Benki	40
▁Asperger	40
circles#1	40
▁appeared	40
▁anecdote	40
liver#1	40
aggressive#1	40
reflection#1	40
▁Sub	40
sharing	40
attracted#1	40
▁Dick	40
shots#1	40
▁novel	40
look#0	40
▁chemist	40
▁worm	40
formal#1	40
find#1.	40
▁Hope	40
explored#1	40
▁Papua	40
▁SMS	40
endless#1	40
▁biomaterial	40
▁incentive	40
▁glue	40
▁Kabul	40
▁ADHD	40
▁cream	40
skeleton#1	40
function#1.	40
▁Economic	40
▁witness	40
miles#1,	40
▁intersection	40
▁Furby	40
▁clone	40
chain#1,	39
consumed#1	39
quote#1,	39
▁Sudhir	39
park#1,	39
Bank#1,	39
▁Justice	39
▁joint	39
deployed#1	39
preventing#1	39
spaces#1.	39
▁trap	39
saying#0,	39
as#1,	39
▁gathering	39
▁intimate	39
third	39
▁lobby	39
glimpse#1	39
▁sixth	39
▁facilities	39
dolphin#1	39
▁heal	39
▁patch	39
touching#1	39
loads#1	39
pulls#1	39
decides#1	39
assumption#1	39
iron#1	39
concerns#1	39
▁palm	39
▁convenient	39
content#1,	39
ignored#1	39
imagining#1	39
easily#1.	39
66	39
tone#1	39
▁Truth	39
shot#1.	39
▁tutor	39
dialogue#1	39
▁Collider	39
▁consequence	39
meets#1	39
▁explode	39
close#1.	39
cry#1	39
Web#1.	39
▁Guinea	39
uestion	39
▁channels	39
claims#1	39
theoretical#1	39
▁explaining	39
somewhere#1,	39
disappear#1	39
▁Eduardo	39
matched#1	39
known	39
crazy#1,	39
carefully#1,	39
detection#1	39
thus#1	39
esteem	39
▁ruin	39
▁hired	39
▁Mellon	39
philosophical#1	39
▁activism	39
conservative#1	39
self#1,	39
variations#1	39
when	39
depression#1.	39
estate#1	39
▁blink	39
▁blur	39
▁visualize	39
middle#1.	39
rotate#1	39
mad#1	39
▁Kennedy	39
passion#1,	39
discovery#1.	39
▁fence	39
Blue#1	39
client#1	39
gas#1,	39
reproduce#1	39
▁Glass	39
assumed#1	39
▁Eleanor	39
▁arguing	39
▁scheme	39
▁substance	39
HIV#1.	39
nearest#1	39
rape#1	39
▁baker	39
Civil#1	39
capabilities#1	39
dressed	39
Henry#1	39
justice#1.	39
London#1.	39
▁cumulative	39
▁threshold	39
planned#1	39
▁exquisite	39
structures#1.	39
▁spinning	39
static#1	39
paralyzed#1	39
▁Ukraine	39
scores#1	39
intuition#1	39
by#1.	39
▁approaching	39
attach#1	39
▁Change	39
▁returned	39
▁employee	39
immediately#1,	39
designer#1,	39
MT#1:	39
lit#1	39
▁virtually	39
determines#1	39
analogy#1	39
▁auditorium	39
witnessed#1	39
analyzing#1	39
▁superhero	39
namely	39
knit	39
▁Native	39
by#0	39
▁Windows	39
▁ceremony	39
surprise#1,	39
▁enthusiast	39
hair#1.	39
▁Alpha	39
condition#1.	39
Mommy	39
▁fragment	39
▁exhaust	39
partnership#1	39
returning#1	39
participation#1	39
houses#1,	39
▁uncertainty	39
▁glimpse	39
▁gecko	39
▁hurricane	39
neighborhood#1,	39
▁hybrid	39
▁Thirty	39
▁Mathematica	39
fifth	39
▁doodling	39
▁Wednesday	39
▁lion	39
dropping#1	39
▁pointed	39
Thank	39
▁transmit	39
▁insane	39
normal#1.	39
dog#1,	39
▁motto	39
funds#1	39
▁improved	39
▁dominant	39
hacking#1	39
wedding#1	39
▁progressive	39
follows#1	39
▁Jacques	39
converted#1	39
support#1.	39
▁sculpt	39
▁ethanol	39
▁scuba	39
planted#1	39
storyteller	39
▁nurses	39
Oxford#1	39
▁NIH	39
conflict	39
▁Ecuador	39
▁beekeepers	39
mold#1	39
▁wedding	39
Haiti#1	39
▁exoplanet	39
pheromone	39
▁giraffe	39
▁mammography	39
▁AIMS	39
order#1,	38
Howard#1	38
▁tendency	38
▁phenomena	38
Brazil#1.	38
AIDS	38
▁succeeded	38
adventure#1	38
▁supported	38
God#1's	38
▁ask	38
spaces#1,	38
prediction#1	38
fears#1	38
▁historical	38
heal#1	38
loan#1	38
capital#1,	38
pays#1	38
Keep#1	38
select#1	38
▁Financial	38
▁Point	38
▁gross	38
▁profits	38
▁looks	38
passion#1.	38
▁chop	38
▁valid	38
AB#1:	38
badly#1	38
▁crew	38
▁Left	38
bold#1	38
civilization#1.	38
▁accelerate	38
charged#1	38
dare#1	38
▁Have	38
completed#1	38
message#1.	38
28#1	38
backwards#1	38
▁quite	38
hopes#1	38
robust#1	38
▁Hiroshima	38
got#1,	38
▁straw	38
useful#1.	38
representative#1	38
opinion#1,	38
contributing#1	38
▁odor	38
addition#1,	38
▁Desert	38
rice#1	38
presenting#1	38
▁canvas	38
important#1?	38
▁skeptic	38
spare#1	38
▁industries	38
▁pose	38
empowered#1	38
teacher#1.	38
Design#1	38
hear#1,	38
▁authorities	38
▁jumped	38
▁politician	38
trust#1,	38
obstacles#1	38
front#1,	38
▁pride	38
▁Roosevelt	38
act#1,	38
▁fungus	38
adds#1	38
▁personalized	38
bags#1	38
▁explosion	38
rose#1	38
▁praying	38
strip#1	38
expanded#1	38
crew#1	38
anticipate#1	38
▁reliable	38
▁journal	38
"In#1	38
float#1	38
findings#1	38
▁locally	38
passes#1	38
insects#1,	38
▁raped	38
ear#1	38
ceiling#1	38
▁Wide	38
regime#1	38
Cape#1	38
listen#1,	38
Around#1	38
spinning#1	38
societies#1,	38
simply#1,	38
▁Costa	38
▁subsequent	38
▁enjoying	38
▁unconscious	38
Meanwhile#1,	38
▁expectancy	38
cleaning#1	38
▁hitting	38
impression#1	38
effects#1,	38
lens#1	38
▁TBP	38
▁pregnancy	38
▁Cup	38
▁representative	38
sourcing	38
case	38
▁Jay	38
assembly#1	38
▁branches	38
contrast#1,	38
poster#1	38
capital#1.	38
personally#1,	38
production#1,	38
interpretation#1	38
▁hopeless	38
disappeared#1	38
happily#1	38
comparison#1	38
waste#1.	38
▁donation	38
intuitive#1	38
▁contradiction	38
▁undercover	38
treatment#1.	38
▁intentional	38
▁intricate	38
full-time#1	38
▁checking	38
surprisingly#1	38
▁transaction	38
banking#1	38
▁beside	38
▁Brand	38
August#1	38
▁broadcast	38
motivation#1	38
▁marginal	38
yield#1	38
▁Stockholm	38
▁drunk	38
slavery#1	38
▁vessel	38
forms#1.	38
▁counting	38
▁wore	38
▁gained	38
melt#1	38
▁silver	38
▁mining	38
social	38
mushroom#1	38
regret#1	38
▁expansion	38
▁decor	38
officials#1	38
assure#1	38
▁impulse	38
have#1?	38
▁Senegal	38
addressing#1	38
▁Broadway	38
rry	38
seats#1	38
▁archive	38
▁reflex	38
▁incubator	38
▁earning	38
▁antenna	38
▁lithium	38
reporting#1	38
Lux	38
▁server	38
▁affecting	38
suspended#1	38
▁dysfunction	38
▁impression	38
▁experiencing	38
▁overhead	38
assistance#1	38
bigger#1.	38
properties#1.	38
▁selective	38
▁exploit	38
hectare	38
plane#1,	38
▁Cochrane	38
▁Police	38
▁pneumonia	38
conduct#1	38
▁Text	38
▁rabbit	38
driving	38
▁discrete	38
▁Deep	38
▁steer	38
▁Aimee	38
▁lymph	38
▁sneak	38
Vagina	38
▁slums	38
comments#1	37
Gore#1	37
dumb#1	37
involved#1,	37
faces#1,	37
▁marijuana	37
▁Wilson	37
corner#1,	37
African-American#1	37
transparency#1	37
▁On	37
▁venture	37
temperature#1,	37
engine#1,	37
footprint#1	37
Wind	37
▁shepherd	37
hook#1	37
shell#1	37
▁survived	37
unfortunate#1	37
coat#1	37
Suppose#1	37
warming#1.	37
▁fuck	37
funny#1,	37
overwhelming#1	37
borrow#1	37
fascinating#1.	37
husband#1,	37
▁poorest	37
streets#1.	37
▁snapshot	37
▁Taylor	37
▁initiative	37
effective#1,	37
challenges#1.	37
loses#1	37
pleased#1	37
healthier#1	37
▁malnutrition	37
magazine#1,	37
checking#1	37
▁suitcase	37
corn#1	37
walls#1,	37
definition#1,	37
▁calories	37
nurse#1	37
▁insult	37
▁adopt	37
aesthetic#1	37
richest#1	37
stability#1	37
▁rediscover	37
vulnerability#1	37
Mother#1	37
fields#1.	37
▁banker	37
globe#1	37
▁Kurzweil	37
levels#1,	37
▁Cold	37
legitimate#1	37
viewed#1	37
▁typing	37
suck#1	37
dangerous#1,	37
digging#1	37
Minister#1	37
phones#1.	37
▁striking	37
▁confront	37
▁continuing	37
▁disrupt	37
little#1.	37
Kids#1	37
adults#1,	37
▁swing	37
slowly#1,	37
dream#1,	37
barrier#1	37
pig#1	37
oceans#1,	37
complex#1.	37
repeated#1	37
▁proven	37
La#1	37
green#1.	37
lasting	37
▁reconnect	37
failure#1,	37
mere#1	37
shadow#1	37
Arthur#1	37
corrupt	37
eat#1,	37
▁nightmare	37
went#0	37
posed#1	37
▁nutrients	37
documentary#1	37
▁genuine	37
threshold#1	37
▁musicians	37
present#1,	37
extinction#1	37
▁denial	37
expressed#1	37
Development#1	37
met#1,	37
▁Marshall	37
▁Boeing	37
documented#1	37
▁Dylan	37
▁Beatles	37
Army#1	37
▁Cities	37
30#1,	37
highlight#1	37
technically#1	37
writing#1.	37
▁nomad	37
▁limitations	37
Business#1	37
▁Let	37
▁expecting	37
▁breeding	37
date#1.	37
printer#1	37
witness#1	37
▁propeller	37
▁proved	37
compassionate#1	37
punch#1	37
candidate#1	37
▁ESG	37
involving#1	37
audiences#1	37
Out#1	37
▁arise	37
desperate#1	37
▁altruist	37
stabilize	37
pandemic#1	37
Gates#1	37
cycle#1,	37
agreement#1	37
boat#1.	37
▁arbitrary	37
regional#1	37
boss#1	37
points#1,	37
wealth#1,	37
acquire#1	37
asteroid#1	37
Try#1	37
▁policing	37
C#1	37
discovered#1,	37
dimension#1	37
▁recession	37
task#1,	37
▁instantly	37
▁Scottish	37
entrepreneurship	37
jazz#1	37
▁Austin	37
▁Circle	37
▁Dublin	37
acquired#1	37
steak	37
return#1.	37
Court#1	37
▁chamber	37
recycling#1	37
Sierra#1	37
Peace#1	37
low#1.	37
horror#1	37
▁StoryCorps	37
▁torture	37
saw#1.	37
▁Ground	37
▁Bond	37
realization#1	37
▁loose	37
dawn#1	37
▁pursue	37
▁appearance	37
China#1's	37
▁unable	37
▁worrying	37
▁Teacher	37
▁Forbes	37
sentences#1	37
▁Vancouver	37
Security#1	37
▁scaling	37
▁graduated	37
▁inflation	37
tuned	37
▁pancreatic	37
▁Mmm	37
▁penicillin	37
▁Sweeney	37
Ford#1	36
resistant#1	36
▁prototyping	36
future#1?	36
public#1,	36
operations#1	36
bucks#1	36
vice#1	36
▁subway	36
▁uniform	36
assets#1	36
cards#1,	36
▁poke	36
indicates#1	36
communication#1,	36
cheese#1	36
persuade#1	36
intelligent	36
fluorescent#1	36
▁fever	36
▁Fall	36
▁tuberculosis	36
leader#1,	36
remembering#1	36
secondary#1	36
hole#1.	36
▁Jenn	36
teeth#1.	36
drawings#1	36
downtown#1	36
jumping#1	36
civilization#1,	36
recommend#1	36
eaten#1	36
▁suggested	36
▁prescription	36
pattern#1,	36
attempts#1	36
risky#1	36
▁feminist	36
studies#1.	36
shifted#1	36
reflects#1	36
dance#1,	36
dying#1.	36
▁suspended	36
phobic	36
mode#1	36
▁landing	36
Actually#1	36
remarkably#1	36
clearly#1,	36
purpose#1,	36
plasma	36
strands#1	36
▁Tiger	36
contained#1	36
foster#1	36
▁produces	36
university#1,	36
readers#1	36
10#1.	36
installation#1	36
▁nanotechnology	36
circular#1	36
▁reinvent	36
Cold#1	36
▁Nikola	36
indeed#1.	36
disappear#1.	36
▁realizing	36
traditions#1	36
whole#1,	36
childhood#1,	36
▁Massachusetts	36
efficacy	36
maximum#1	36
▁expedition	36
▁boil	36
delivering#1	36
agent#1	36
energy	36
peculiar#1	36
▁assumption	36
wings#1	36
pounds#1.	36
storage#1	36
landscape#1,	36
▁collision	36
walls#1.	36
friendly#1	36
Greg	36
▁decrease	36
▁disconnect	36
bamboo#1	36
peace#1,	36
▁clothing	36
cats#1	36
Arabic#1	36
embracing#1	36
television#1.	36
projected#1	36
▁Minnesota	36
▁perceived	36
▁calm	36
realistic#1	36
created#1.	36
TV#1.	36
circuits#1	36
forces#1.	36
▁antibodies	36
transmitted#1	36
chairs#1	36
meet#1.	36
warming#1,	36
trash#1	36
▁unlock	36
locations#1	36
panel#1	36
▁Creative	36
copies#1	36
generations#1,	36
▁Weibo	36
▁frightening	36
facility#1	36
openness#1	36
guess#1.	36
▁hated	36
he#1'll	36
EM#1:	36
▁Strange	36
▁Erik	36
5#1	36
▁temporary	36
connected#1.	36
▁healthier	36
retirement#1	36
fires#1	36
function#1,	36
existence#1.	36
▁improvisation	36
Uncle	36
bombs#1	36
inevitably#1	36
longest#1	36
suffering#1,	36
idea#1:	36
piece	36
doctor#1.	36
decent#1	36
▁Bueno	36
darkness#1	36
▁improving	36
neutral#1	36
▁Side	36
▁bandwidth	36
practically#1	36
▁intended	36
phones#1,	36
▁hopeful	36
quality#1,	36
▁fancy	36
invasive	36
exhibit#1	36
did#1n't.	36
fate#1	36
▁completed	36
decision#1,	36
▁orangutan	36
▁Saddam	36
adapted	36
▁circuits	36
▁categories	36
loans#1	36
pieces#1,	36
Monkey	36
product	36
▁specialist	36
▁creep	36
instructions#1	36
slime#1	36
couples#1	36
ban#1	36
exploit#1	36
changing#1.	36
purple#1	36
▁Rachel	36
dying#1,	36
▁Botswana	36
▁PIPA	36
▁squid	36
▁Netflix	36
strategy#1.	36
▁rig	36
▁counsel	36
▁Baxter	36
racial	36
▁crows	36
fusion#1	36
▁synesthesia	36
▁Tarahumara	36
▁OPEC	36
▁Maitreya	36
▁Najmuddin	36
▁microRNA	36
phantom#1	35
cycles#1	35
tissue#1,	35
horizontal#1	35
joint#1	35
voluntary	35
western#1	35
▁roommate	35
▁echo	35
luck#1	35
pont	35
cooling#1	35
million#1,	35
collar	35
regard#1	35
aid#1,	35
boundary#1	35
religion#1.	35
unconscious#1	35
▁obey	35
▁slum	35
trading#1	35
probably#1,	35
Sunday#1	35
protest#1	35
ialect	35
steps#1.	35
troops#1	35
impossible#1,	35
call#1,	35
▁Berg	35
experiments#1.	35
really#0	35
"There#1's	35
engineering#1.	35
inevitable#1	35
▁Cooper	35
Catholic#1	35
Congo#1	35
▁handful	35
ahead#1,	35
racing#1	35
speed#1.	35
diving#1	35
enabling#1	35
challenges#1,	35
▁Disease	35
▁headlines	35
programs#1,	35
powered#1	35
▁Kind	35
last#1,	35
▁approached	35
adults#1.	35
negotiate#1	35
Pole#1	35
▁processor	35
special#1.	35
directions#1	35
here#1:	35
salt#1	35
▁reducing	35
▁Defense	35
▁Swahili	35
default#1	35
origins#1	35
curiosity#1	35
call#1.	35
▁irrational	35
billion#1.	35
pouring#1	35
War#1.	35
trophy	35
wires#1	35
character#1,	35
▁numb	35
bin#1	35
▁scrap	35
borders#1,	35
▁DIY	35
▁includes	35
rich#1,	35
change#1?	35
symmetry#1	35
▁Compassion	35
anger#1,	35
brother#1,	35
appeal#1	35
investigate#1	35
distance#1.	35
▁concentrated	35
"There#1	35
thermal#1	35
limitations#1	35
share#1.	35
sink#1	35
Leymah	35
▁proposition	35
earth#1.	35
▁fulfill	35
▁Madagascar	35
feeling#1,	35
▁producer	35
▁agricultural	35
serious#1.	35
▁efforts	35
nation#1,	35
blogs#1	35
▁later	35
Ice#1	35
climate#1.	35
waters#1	35
spreads#1	35
▁stomach	35
[unclear#1]	35
egg#1	35
mate#1	35
▁staring	35
excited#1.	35
▁hacker	35
▁capabilities	35
balance#1.	35
forgive#1	35
fulfilling	35
▁remembered	35
behalf#1	35
subject#1,	35
▁optimal	35
blowing#1	35
▁squeeze	35
granted#1	35
transported#1	35
▁flame	35
Boy#1:	35
▁Odysseus	35
▁challenged	35
▁pollutants	35
finishing#1	35
significance	35
nowhere#1.	35
weighs#1	35
habit#1	35
▁unsustainable	35
▁PISA	35
in#1?	35
He#1'd	35
bother#1	35
▁gathered	35
▁bowl	35
jail#1.	35
peoples#1	35
shift	35
▁thread	35
▁brick	35
fashioned	35
▁Over	35
consists#1	35
weigh#1	35
▁singer	35
▁Simple	35
Amazon#1,	35
▁observed	35
▁offspring	35
▁unaware	35
▁module	35
▁memorable	35
guilty#1	35
▁Bageye	35
Swedish#1	35
▁primarily	35
cope#1	35
filling#1	35
▁hardest	35
ahead#1.	35
▁Linda	35
▁frontier	35
laughter#1	35
party#1,	35
▁loads	35
investment#1,	35
▁Commission	35
world#1:	35
▁significantly	35
▁toddler	35
Japan#1.	35
▁salmon	35
▁geological	35
secrets#1	35
jet#1	35
deadly#1	35
▁Discover	35
▁Fast	35
Such#1	35
▁inject	35
▁ambitious	35
▁Fahrenheit	35
▁pioneer	35
broken#1.	35
▁edges	35
clay#1	35
▁disk	35
winds#1	35
▁heritage	35
▁turbine	35
basis#1.	35
▁scream	35
▁float	35
▁aspiration	35
systematic#1	35
ca#1n't.	35
▁desperately	35
languages#1,	35
▁cheer	35
log#1	35
▁remained	35
▁chess	35
▁constraints	35
▁prostate	35
magnitude#1	35
rating#1	35
strike#1	35
▁armed	35
▁ecological	35
▁rethink	35
▁wow	35
▁Helen	35
shot#1,	35
▁rescued	35
▁yell	35
▁mammogram	35
▁Modern	35
▁Code	35
▁homicide	35
surfing	35
Thanks#1.	35
▁deficit	35
fairy	35
▁purple	35
▁Bruce	35
▁bioluminescent	35
▁banking	35
awkward#1	35
▁Progress	35
▁eyebrow	35
harbor#1	35
▁Airbnb	35
▁cinema	35
▁foragers	35
▁volcano	35
▁Chernobyl	35
▁Calais	35
▁Uruguay	35
▁staying	34
hair#1,	34
Chicago#1,	34
promoting#1	34
▁hyena	34
lions#1	34
equals#1	34
stance	34
AIDS#1,	34
engines#1	34
shoes#1.	34
luent	34
conference#1.	34
▁figuring	34
effective#1.	34
remarkable#1.	34
landing#1	34
wandering#1	34
accomplished#1	34
▁possible	34
▁Company	34
observing#1	34
soul#1.	34
▁riding	34
▁Alabama	34
manufacture#1	34
meal#1	34
damage#1.	34
grasp#1	34
50#1,	34
day#1?	34
disagree#1	34
▁prayer	34
manual#1	34
particles#1,	34
nodes#1	34
▁replacement	34
approved#1	34
behind#1,	34
unhappy#1	34
grabbed#1	34
murder#1	34
blessed#1	34
▁northern	34
deck#1	34
strong#1.	34
generic#1	34
articulate	34
planes#1	34
screening#1	34
Palestinian#1	34
smart#1.	34
lake#1	34
weather#1,	34
▁technically	34
respect#1,	34
payment	34
ink#1	34
mission#1.	34
▁aesthetic	34
hostile#1	34
regularly#1	34
foods#1	34
Library#1	34
▁Station	34
Daniel#1	34
focus#1,	34
▁Dean	34
marker#1	34
individual#1.	34
▁Celsius	34
▁juice	34
associate#1	34
▁award	34
▁surround	34
onald	34
events#1.	34
▁distract	34
follow#1.	34
science	34
tomorrow#1,	34
most#1.	34
see#0	34
functioning#1	34
▁reconstruct	34
▁reflection	34
15#1,	34
observations#1	34
smooth#1	34
trigger#1	34
II#1,	34
session#1	34
Except#1	34
▁colon	34
simulate#1	34
JS#1:	34
▁restore	34
pen#1	34
voted#1	34
surround#1	34
▁Pope	34
▁attribute	34
cheap#1,	34
consumption#1,	34
izzy	34
▁stigma	34
▁Kelly	34
gains#1	34
deploy#1	34
bubbles#1	34
excited#1,	34
bat#1	34
▁malign	34
five#1.	34
▁rose	34
exposure#1	34
got#1.	34
violence	34
▁stolen	34
▁empire	34
colonies#1	34
task#1.	34
▁tie	34
fuel#1,	34
▁Normal	34
▁attach	34
meters#1,	34
answering#1	34
submit#1	34
donor#1	34
metabolic#1	34
Council#1	34
bats#1	34
tell#1,	34
stolen#1	34
leather#1	34
▁Game	34
meeting#1.	34
▁iceberg	34
spends#1	34
▁Kickstarter	34
▁monster	34
bow#1	34
whole#1.	34
▁interconnected	34
sacrifice#1	34
▁scalable	34
basketball#1	34
earned#1	34
mail#1	34
barriers#1	34
discussions#1	34
phenomenal#1	34
mission#1,	34
▁says	34
▁Aaron	34
hospitals#1,	34
vaccinated	34
slice#1	34
advances#1	34
▁bite	34
▁addiction	34
degrees#1,	34
▁McGowan	34
boat#1,	34
Ocean#1.	34
healthy#1.	34
ustainable	34
vessel#1	34
▁airline	34
▁garbage	34
legislation#1	34
▁Magazine	34
Lord#1	34
▁optimist	34
▁utter	34
▁honored	34
▁spiral	34
Paris#1,	34
counter#1	34
▁hunt	34
have	34
request#1	34
▁Gapminder	34
mistakes#1.	34
university#1.	34
vacuum#1	34
ticket#1	34
prosthetic#1	34
▁retirement	34
▁cube	34
rejected#1	34
tradition#1,	34
garden#1.	34
directions#1.	34
▁tomato	34
referred#1	34
▁EEG	34
▁attracted	34
▁admire	34
slight#1	34
▁dropping	34
boy#1.	34
▁scanner	34
dose#1	34
▁yogurt	34
▁adolescents	34
breakfast#1	34
▁apologize	34
reinvent#1	34
contribution#1	34
▁marked	34
▁Franklin	34
ships#1	34
smells#1	34
Nigerian#1	34
applies#1	34
devoted#1	34
boost#1	34
holy#1	34
▁eliminate	34
▁Cyril	34
▁spaghetti	34
▁refine	34
terror#1	34
separation#1	34
concert#1	34
▁pricing	34
▁sneakers	34
often#1.	34
toys#1	34
equality#1.	34
▁Bilbao	34
▁bioluminescence	34
bees#1,	34
▁availability	34
▁Grace	34
▁Alhambra	34
▁assistant	34
▁Jamie	34
▁Negroponte	34
▁sanitation	34
▁teapot	34
▁Titus	34
▁oyster	34
sanitary	34
▁Bonnie	34
▁Mouaz	34
▁Hannah	34
Oops	34
▁Triceratops	34
Force#1	33
impressive#1	33
fly#1,	33
excuse#1	33
noise#1.	33
ties#1	33
▁sociologist	33
terms#1.	33
Sea#1	33
breath#1,	33
item#1	33
constraints#1	33
nose#1,	33
locate	33
strangers#1	33
absorb#1	33
argued#1	33
simpler#1	33
filmed#1	33
▁Needles	33
projection#1	33
harness#1	33
inherent#1	33
▁Yale	33
▁despair	33
metric#1	33
recall#1	33
Mexican#1	33
East#1.	33
▁enemies	33
▁Soldier	33
convenient#1	33
speech#1.	33
judgment#1	33
star#1,	33
interest#1,	33
package#1	33
▁angel	33
▁retail	33
▁Lawrence	33
radio#1,	33
▁expo	33
▁Miami	33
circumstances#1.	33
shed#1	33
very	33
d#1	33
publicly#1	33
globe#1.	33
▁peek	33
medication#1	33
capacity#1,	33
scratch#1	33
▁Marx	33
opera#1	33
four#1.	33
▁assumed	33
altitude#1	33
▁distort	33
▁forming	33
rooted	33
agriculture#1.	33
window#1,	33
draws#1	33
▁yeast	33
glass#1,	33
▁Hard	33
police#1,	33
I#0'm	33
▁Viagra	33
occurring#1	33
two#0	33
then#1?	33
moon#1.	33
relief#1	33
professionals#1	33
▁Avenue	33
▁Istanbul	33
wrong#1?	33
accidents#1	33
schedule	33
journalist#1,	33
▁Rush	33
▁southern	33
elaborate#1	33
organizations#1.	33
stranger#1	33
nice#1.	33
agenda#1	33
formula#1	33
▁Online	33
occupy#1	33
plumb	33
▁example	33
crude#1	33
▁discovering	33
struggled#1	33
year#1's	33
▁Master	33
fashion#1.	33
▁warmer	33
hypothesis#1	33
darkness#1.	33
▁gallery	33
+	33
▁Royal	33
park#1.	33
▁Hindu	33
instinct#1	33
worldwide#1.	33
▁offering	33
▁relevance	33
Rights#1	33
feminist#1	33
Twitter#1.	33
▁congress	33
▁cardboard	33
▁distinct	33
sounded#1	33
galaxy#1.	33
pursuing#1	33
genuine#1	33
campaign#1.	33
▁belt	33
▁cage	33
▁kicked	33
pet#1	33
viewer#1	33
average#1.	33
thrilled#1	33
▁mangrove	33
dimensions#1.	33
crimes#1	33
▁Climate	33
say#0	33
quality#1.	33
▁chord	33
opposite#1.	33
▁corporations	33
collaborate#1	33
mentor#1	33
branches#1	33
Sleep	33
Hi#1	33
▁shocking	33
chips#1	33
rolled#1	33
looked#0	33
facts#1.	33
▁delete	33
▁entertain	33
tension#1	33
▁Potter	33
appreciation#1	33
▁simplify	33
▁extension	33
writer#1,	33
equipped#1	33
farther#1	33
▁Other	33
trains#1	33
calm#1	33
▁scroll	33
▁incarcerated	33
▁quest	33
clothes#1,	33
doubt	33
▁participation	33
assemble#1	33
activated	33
▁posted	33
shelter#1	33
▁Vietnamese	33
grade#1,	33
elegant#1	33
supports#1	33
▁crawl	33
budget#1,	33
temperatures#1	33
▁vivid	33
positive#1.	33
▁cafeteria	33
▁Pantheon	33
landscape#1.	33
pose#1	33
▁contributed	33
globe#1,	33
▁uranium	33
▁CPU	33
growing	33
▁encouraged	33
▁marketplace	33
▁chew	33
translation#1	33
practicing#1	33
discipline#1	33
▁hierarchy	33
▁mating	33
well-known#1	33
▁transcend	33
manager#1	33
fuels#1	33
Academy#1	33
heard#1.	33
self#1.	33
chaos#1	33
▁Bihar	33
corruption#1,	33
▁lonely	33
gods#1	33
seller	33
▁clap	33
▁barbershop	33
drones#1	33
courses#1	33
▁surrounding	33
immediately#1.	33
▁Opera	33
▁segment	33
▁Hawking	33
▁taboo	33
▁Murray	33
▁Emmanuel	33
▁JPL	33
Jarrett	33
▁Usually	33
arrogant	33
▁perceptual	33
▁modular	33
Show#1	33
▁landfill	33
▁Faiza	33
▁jaw	33
▁Scrapper	33
colors#1.	33
▁Model	33
▁imaginative	33
▁catching	33
▁compromise	33
margin	33
▁Anonymous	33
▁Harriet	33
Do	33
▁Falcon	33
▁atrazine	33
▁FreeSpeech	33
▁Naghma	33
▁Schwarzschild	33
saying#1.	32
▁serotonin	32
assignment#1	32
epidemic#1.	32
acres#1	32
partners#1,	32
senses#1.	32
intention#1	32
retroviral	32
doubled#1	32
▁simpler	32
mapped#1	32
party#1.	32
photograph#1.	32
Center#1,	32
▁observing	32
▁inform	32
forests#1.	32
beauty#1,	32
Smith#1	32
feel#1.	32
wing#1	32
profits#1	32
processed#1	32
emphasize#1	32
try#1.	32
▁calendar	32
▁calculator	32
cardboard#1	32
▁jumping	32
stroke#1	32
supplies#1	32
initiative#1	32
sometime#1	32
pieces#1.	32
coordination#1	32
deciding#1	32
worlds#1.	32
▁attacked	32
▁abandon	32
▁packed	32
examine	32
never#1,	32
harmony#1	32
explosion#1	32
exists#1.	32
diet#1,	32
role#1,	32
aid#1.	32
Mount#1	32
background#1.	32
makers#1	32
▁slower	32
caves#1	32
▁interrupt	32
responsibility#1,	32
industries#1	32
▁teammate	32
analyzed#1	32
▁Rockefeller	32
ultraviolet#1	32
▁relief	32
date#1,	32
rather#1,	32
Israel#1,	32
▁Mediterranean	32
▁Stalin	32
Church#1	32
advocate#1	32
piece#1.	32
puzzles#1	32
leadership#1.	32
▁rolling	32
▁Virtual	32
▁drew	32
motion#1.	32
embodied#1	32
accomplish#1	32
nets#1	32
wind#1.	32
communicate#1.	32
meals#1	32
circle#1.	32
Turkey#1	32
▁template	32
induced	32
inject#1	32
▁endless	32
predicting#1	32
pages#1.	32
▁employ	32
march#1	32
legally#1	32
rituals#1	32
bug#1	32
▁outrage	32
▁enjoyed	32
▁flowing	32
▁abalone	32
regulate#1	32
▁dawn	32
viewing#1	32
▁celebrity	32
Indus#1	32
▁replica	32
▁Bollywood	32
▁Democratic	32
emergence#1	32
making#1,	32
nights#1	32
television#1,	32
▁gorilla	32
▁Milwaukee	32
injury#1	32
▁criteria	32
▁Fortune	32
▁biomass	32
states#1.	32
division#1	32
sheets#1	32
▁emerged	32
16#1,	32
▁Pentagon	32
wait#1,	32
cloud#1,	32
▁remarkably	32
landscapes#1	32
farmers#1,	32
pockets#1	32
headlines#1	32
question#0	32
18#1,	32
elephants#1	32
Cambridge#1	32
Native#1	32
funny#1.	32
competition#1,	32
▁Conference	32
drive#1.	32
▁voted	32
after#1.	32
▁cognition	32
subjective#1	32
distinction#1	32
▁browser	32
growing#1,	32
releasing#1	32
8#1	32
▁losses	32
span#1	32
▁Snow	32
HIV#1,	32
dreamed#1	32
strategy#1,	32
trivial#1	32
principle#1,	32
inmates#1	32
enhance#1	32
▁cope	32
▁taxpayer	32
▁TV	32
▁Check	32
College#1	32
▁probe	32
gaps#1	32
exists#1,	32
survivors#1	32
▁agreement	32
Looking#1	32
bottles#1	32
diameter#1	32
dark#1.	32
leaf#1	32
gold#1.	32
changing#1,	32
▁downtown	32
icon#1	32
▁shrink	32
diagnostic#1	32
replacing#1	32
scaling#1	32
Rick#1	32
edge#1.	32
feeds#1	32
▁BMI	32
moments#1,	32
pleasant#1	32
routine#1	32
▁champion	32
multiply#1	32
▁span	32
path#1,	32
▁girlfriend	32
foot#1,	32
▁continuous	32
evening#1,	32
▁sooner	32
mixing#1	32
irony#1	32
▁democracies	32
succeeded#1	32
▁communi	32
growing#1.	32
▁nitr	32
▁veterinarian	32
▁acronym	32
speaking	32
signal#1,	32
▁tire	32
list#1,	32
sciences#1	32
▁rob	32
▁crashes	32
users#1,	32
▁embarrassed	32
▁strict	32
▁yards	32
▁Satan	32
pedestrian#1	32
▁Twain	32
Organization#1	32
overwhelmed#1	32
▁lava	32
▁hummingbird	32
▁injuries	32
roles#1	32
please#1,	32
cycle#1.	32
▁Teach	32
turn	32
▁SOPA	32
▁tide	32
▁incarceration	32
▁practicing	32
Consider#1	32
▁cult	32
▁holiday	32
travel#1,	32
folding#1	32
▁Sobule	32
▁tackle	32
▁spine	32
threatening	32
▁Pain	32
stimulation	32
▁trading	32
▁motivator	32
▁Sioux	32
▁Susie	32
▁Poverty	32
▁folding	32
▁Neumann	32
▁Jenipher	32
▁Corexit	32
steam#1	31
skeletal#1	31
▁socially	31
Natural#1	31
enters#1	31
▁interior	31
owe#1	31
widespread#1	31
fatal#1	31
▁Though	31
▁NYU	31
argue#1,	31
▁argued	31
▁Moses	31
make#0	31
touches#1	31
▁NATO	31
confined#1	31
pollution#1,	31
▁calculated	31
angry#1,	31
▁Brook	31
hopeful#1	31
statistics#1,	31
enemies#1	31
▁hippie	31
▁widely	31
bored#1	31
all#1?	31
woman#1's	31
three#1:	31
▁proceed	31
trade#1,	31
acoustic#1	31
stealing#1	31
Climate#1	31
closer#1,	31
▁One	31
authors#1	31
philosopher#1	31
▁Russell	31
somewhere#1.	31
travels#1	31
relates#1	31
foundations#1	31
rent#1	31
4#1	31
▁Unlike	31
▁Mississippi	31
calories#1	31
tightly#1	31
scenario#1	31
▁Embassy	31
degrees#1.	31
galaxies#1.	31
nature#1's	31
melting#1	31
basis#1,	31
tiles#1	31
▁Petri	31
slower#1	31
▁Skycar	31
rats#1	31
▁cheating	31
completely#1.	31
shaping#1	31
store#1.	31
▁grip	31
machinery#1	31
directed	31
build#1.	31
▁Motor	31
student#1.	31
graph#1.	31
▁burden	31
emotionally#1	31
▁circular	31
term#1.	31
asking#1,	31
▁emit	31
share#1,	31
▁climbed	31
▁grace	31
Using#1	31
▁closest	31
create#1,	31
▁deployed	31
formation#1	31
▁hostile	31
complain#1	31
▁analog	31
famously#1	31
▁Holland	31
Nick#1	31
effort#1.	31
▁whip	31
creatures#1,	31
▁True	31
low#1,	31
▁peculiar	31
▁switched	31
frames#1	31
Quite#1	31
▁negotiation	31
▁adopted	31
about#1:	31
late#1.	31
▁flute	31
▁storage	31
environmentalist	31
dealt#1	31
▁doubled	31
▁precious	31
neighbors#1,	31
▁Jabbar	31
▁explorer	31
disorder#1	31
▁govern	31
clothing#1	31
trust#1.	31
reef#1	31
refuse#1	31
▁excess	31
▁happily	31
▁envelope	31
facilities#1	31
▁aspire	31
neck#1	31
hot#1.	31
sister#1,	31
▁brush	31
blue#1.	31
leg#1,	31
▁embryo	31
names#1,	31
▁glide	31
videos#1,	31
▁analyze	31
lands#1	31
▁nuclei	31
chemistry#1,	31
▁ingenious	31
▁tiger	31
matrix#1	31
young#1.	31
▁unthinkable	31
recycled#1	31
Fantastic	31
sight#1.	31
mild#1	31
leadership#1,	31
▁Grey	31
crime#1,	31
cortex#1,	31
bone#1,	31
▁suppress	31
edit#1	31
existed#1.	31
▁elected	31
pressing#1	31
type#1,	31
slowed#1	31
comedy#1	31
▁basketball	31
▁Robotics	31
sweep	31
curves#1	31
chain#1.	31
washed#1	31
reasonably#1	31
bigger#1,	31
knife#1	31
Syrian#1	31
extrovert	31
wheat#1	31
▁extended	31
▁trapped	31
▁Brenda	31
▁historian	31
▁decent	31
▁Marilyn	31
Queen#1	31
▁unimaginable	31
bare#1	31
▁Prison	31
hopefully#1,	31
▁Mubarak	31
joining#1	31
Australian#1	31
appearance#1	31
arrived#1,	31
tonight#1.	31
spot#1,	31
statistics#1.	31
14#1,	31
frog#1	31
computation#1	31
prosperity#1	31
parks#1	31
mpathetic	31
laying#1	31
▁alphabet	31
blind#1,	31
zones#1	31
temperature#1.	31
creative#1,	31
Korean#1	31
flight#1.	31
oxy	31
▁respiratory	31
▁comedy	31
▁delay	31
guards#1	31
▁hallucinations	31
▁hump	31
▁ambition	31
▁ironic	31
encountered#1	31
benefits#1.	31
injured#1	31
Dear	31
▁influenced	31
▁Khan	31
sequencing#1	31
▁fatal	31
launching#1	31
▁orient	31
collapsed#1	31
sensing#1	31
▁temple	31
▁Linu	31
accepting#1	31
▁anonymity	31
▁Cairo	31
▁PRI	31
alarm#1	31
hello	31
frontal#1	31
Square#1	31
modest#1	31
traumatic	31
▁preference	31
▁sovereign	31
ready#1?	31
▁accuracy	31
structures#1,	31
▁stimulate	31
concentrate#1	31
▁terrific	31
trips#1	31
▁Captain	31
wanted#1.	31
distinguish#1	31
▁measles	31
▁workshop	31
▁Collect	31
family#1's	31
disorder#1,	31
▁gives	31
▁calculus	31
▁Descartes	31
▁probably	31
▁broccoli	31
▁Instagram	31
▁exceed	31
revolutionary#1	31
even#1,	31
▁Geiger	31
MG	31
▁swallow	31
wealth#1.	31
▁Origin	31
▁Maldives	31
▁juvenile	31
▁Arr	31
▁UNAIDS	31
▁Galvao	31
Rockett	31
▁Goliath	31
glasses#1	30
▁Martian	30
mixture#1	30
▁instinctively	30
tissue#1.	30
Going#1	30
calculations#1	30
clinics#1	30
villages#1,	30
▁prevalent	30
interface#1,	30
newspapers#1	30
▁Clark	30
▁Dawkins	30
farms#1	30
emails#1	30
Clinton#1	30
literature#1.	30
"I#1've	30
option#1.	30
beach#1,	30
chase#1	30
▁regulate	30
▁cease	30
Rome#1	30
▁vocal	30
Friend	30
squeeze#1	30
▁Senate	30
▁diameter	30
▁allocat	30
▁junk	30
smile#1,	30
mountains#1,	30
sail#1	30
doctor#1's	30
sexy#1	30
cuts#1	30
▁Mongolia	30
▁improvise	30
▁skeptical	30
gravity#1,	30
Notice#1	30
card#1,	30
▁flourish	30
Unlike#1	30
diagnose#1	30
executive#1	30
clusters#1	30
▁translator	30
beauty#1.	30
poison#1	30
▁solemn	30
spell#1	30
alcohol#1	30
blood#1.	30
▁foster	30
Scott#1	30
orchestra#1	30
poured#1	30
Carnegie#1	30
late#1,	30
earth#1,	30
racial#1	30
juvenile#1	30
Humans#1	30
insects#1.	30
mouth#1.	30
lights#1,	30
rule#1.	30
Coke#1	30
▁Witness	30
seventh#1	30
Young#1	30
Kennedy#1	30
▁introduction	30
assuming#1	30
housing#1,	30
surprise#1.	30
▁satisfied	30
strikes#1	30
spark#1	30
▁surgeries	30
▁swamp	30
▁legitimate	30
considering#1	30
▁institute	30
megawatt	30
▁Malcolm	30
Michelle	30
▁administration	30
supply#1.	30
established	30
photograph#1,	30
▁ecologist	30
approved	30
Canadian#1	30
warmer#1	30
colleague#1,	30
▁detailed	30
▁taxi	30
protection#1.	30
destruction#1,	30
Royal#1	30
species	30
deliberately#1	30
needs#1,	30
pants#1	30
▁instruction	30
▁Thanksgiving	30
activist#1	30
Bang#1	30
▁bust	30
▁harness	30
green	30
settle#1	30
role#1.	30
happens#1?	30
surprisingly#1,	30
▁exposure	30
▁pollinators	30
life#1's	30
wild#1.	30
introducing#1	30
▁Gillian	30
▁mysterious	30
settled#1	30
implant#1	30
Music#1	30
song#1.	30
celebrating#1	30
Iranian#1	30
▁forecast	30
▁accumulate	30
▁desalination	30
accident#1,	30
▁Dream	30
documented	30
Audience#1	30
▁tricky	30
processes#1.	30
blocking#1	30
sentence#1,	30
dance#1.	30
▁periphery	30
Island#1,	30
▁heroic	30
bathroom#1	30
partisan	30
▁accent	30
administration#1	30
actua	30
target#1.	30
bank#1,	30
doubling#1	30
silence#1.	30
phenomenon#1,	30
waited#1	30
killed#1,	30
contacted	30
▁Toraja	30
reveals#1	30
▁Utah	30
larger#1,	30
musician#1	30
▁jazz	30
Edward#1	30
suffering#1.	30
tolerance#1	30
shorter#1	30
identifying#1	30
▁Ministry	30
coffee#1,	30
▁minority	30
broadcast#1	30
▁bounce	30
cameras#1,	30
dies#1	30
▁injured	30
convincing#1	30
▁impressed	30
terrified#1	30
bonds#1	30
trusted#1	30
Age#1	30
Hi#1,	30
▁estimated	30
▁mustard	30
nations#1.	30
ratio#1	30
▁Film	30
▁announced	30
▁recycling	30
expect#1.	30
▁eager	30
invisible#1.	30
outdoor#1	30
▁outdoor	30
apartheid	30
▁transit	30
do#1:	30
particles#1.	30
▁interpretation	30
imagine	30
▁nanotube	30
always#1,	30
bread#1,	30
phosphorus#1	30
frame	30
Voice#1	30
surgical#1	30
put#0	30
▁wires	30
▁alter	30
fields#1,	30
▁solidarity	30
▁lend	30
grains#1	30
Golden#1	30
▁deadly	30
▁obstacle	30
dung#1	30
or#0	30
▁Styrofoam	30
pocket#1.	30
folk	30
▁adoption	30
dirt#1	30
Citizen	30
telescopes#1	30
cause#1.	30
transferred#1	30
rtical	30
nine#1,	30
depressed#1	30
▁bucket	30
▁enslav	30
stimulate#1	30
tar#1	30
▁vacation	30
corruption#1.	30
bridges#1	30
station#1,	30
▁scare	30
fall#1.	30
opinions#1	30
▁Gertrude	30
mouth#1,	30
▁biodegrad	30
▁dam	30
Too#1	30
▁spores	30
▁morph	30
▁sapiens	30
centered	30
corresponds#1	30
selection#1.	30
▁Dennett	30
local#1,	30
▁turtle	30
clue#1	30
▁astrolabe	30
▁flesh	30
▁hunting	30
worms#1	30
Actor	30
▁council	30
▁Hampshire	30
▁plutocrat	30
▁texture	30
islands#1	30
▁Corporation	30
al#1	30
runner	30
track#1,	30
▁postcards	30
faith#1,	30
▁Samantha	30
▁Sergey	30
▁Jeep	30
▁PTSD	30
▁Stroman	30
▁librarians	30
▁Scratch	30
▁Roots	30
▁relaunchers	30
▁INCRA	30
▁Tennessee	29
foot#1.	29
efficient#1,	29
migrate#1	29
swing#1	29
History#1	29
corner#1.	29
toes#1	29
▁Magn	29
▁inhibit	29
trials#1,	29
altered#1	29
chlor	29
costs#1.	29
costs#1,	29
fixing#1	29
empowering#1	29
▁dorm	29
buses#1	29
▁supplies	29
priority#1	29
gesture#1	29
continuously#1	29
▁hut	29
painting#1,	29
▁invitation	29
era#1.	29
Yesterday	29
checks#1	29
dragged#1	29
church#1,	29
▁eternal	29
matter#1?	29
▁Mozambique	29
Chile#1,	29
ton#1	29
babies#1.	29
fired#1	29
analog#1	29
forces#1,	29
operates#1	29
efficiency#1.	29
▁guest	29
breakthrough#1	29
cameras#1.	29
acid#1	29
knees#1	29
Less#1	29
coordinate#1	29
tagged#1	29
▁tagged	29
documenting#1	29
▁teaches	29
understanding#1.	29
▁Lucas	29
seat#1.	29
Web#1,	29
column#1	29
assembled#1	29
proposal#1	29
stepping#1	29
Johnson#1	29
effectively#1,	29
▁Two	29
▁journalism	29
civilian#1	29
Phoenix#1	29
solo#1	29
discovered#1.	29
usage#1	29
▁sale	29
protective#1	29
Act#1	29
era#1,	29
compounds#1	29
acute#1	29
zone#1,	29
Philippe	29
▁owe	29
▁bench	29
pyramid#1	29
Harry#1	29
something	29
sensation#1	29
▁behalf	29
▁charisma	29
tribe#1	29
Information#1	29
Moon#1	29
sector#1.	29
▁holistic	29
stare#1	29
fight#1.	29
Street#1,	29
slept#1	29
done#1?	29
symbolic#1	29
purchase#1	29
▁defining	29
Lots#1	29
manner#1	29
matches#1	29
abundance#1	29
wished#1	29
homes#1.	29
wasting#1	29
▁weekend	29
names#1.	29
skip#1	29
tight#1	29
horses#1	29
episode#1	29
▁surgical	29
parachute#1	29
surprising#1.	29
▁Network	29
creative#1.	29
hierarchy#1	29
inch#1	29
options#1.	29
curve#1.	29
smell#1,	29
▁Program	29
Mountain#1	29
firmly#1	29
shipped#1	29
inviting#1	29
▁delicious	29
generations#1.	29
us#0	29
ready#1,	29
combined#1.	29
▁stare	29
▁performed	29
projections#1	29
bloody#1	29
voices#1,	29
goals#1.	29
thumb#1	29
▁preparing	29
▁Town	29
▁Universe	29
fibers#1	29
▁sticking	29
▁glow	29
sounds#1,	29
▁fuse	29
Cancer#1	29
devil#1	29
signature#1	29
▁blu	29
entry#1	29
suggestion#1	29
criteria#1	29
▁kit	29
▁deposit	29
justify#1	29
shoes#1,	29
prevents#1	29
lined#1	29
basking#1	29
▁wishes	29
"So#1	29
steps#1,	29
▁absence	29
break#1.	29
strange#1,	29
offices#1	29
▁chronic	29
way#1:	29
ingredient#1	29
trade#1.	29
▁crank	29
arms#1,	29
reduces#1	29
▁Foreign	29
▁Eighty	29
▁intervene	29
heat#1,	29
steady#1	29
▁irony	29
ironic#1	29
participating#1	29
disturbing#1	29
between#1,	29
existence#1,	29
easiest#1	29
give#0	29
lonely#1	29
▁moisture	29
heads#1,	29
▁excitement	29
submit	29
▁elevator	29
LED#1	29
▁Alto	29
counted#1	29
▁obsession	29
▁correlation	29
▁heavily	29
▁Traditional	29
dreaming#1	29
shrink#1	29
▁implement	29
firing#1	29
▁livelihood	29
succeed#1.	29
researching#1	29
▁investigation	29
movements#1,	29
weight#1.	29
▁arrest	29
infrared#1	29
▁Image	29
tracked#1	29
▁headache	29
leaning	29
pounds#1,	29
▁adaptation	29
▁Money	29
▁width	29
extraordinary#1.	29
▁centigrade	29
▁swarm	29
▁Beveridge	29
intervene#1	29
▁fog	29
▁textile	29
differences#1,	29
Benjamin#1	29
start	29
▁Volvo	29
checked#1	29
▁Gehry	29
curve#1,	29
▁overnight	29
▁creator	29
wage#1	29
functions#1.	29
down#0	29
letters#1,	29
sentence#1.	29
note#1.	29
▁plea	29
recognizes#1	29
ecology#1	29
want#1?	29
▁Group	29
marked#1	29
▁identities	29
headquarters#1	29
▁native	29
▁strains	29
write#1,	29
rock#1.	29
ask#1.	29
▁pillar	29
burst#1	29
▁realities	29
▁assure	29
resilience#1	29
attitudes#1	29
threaten#1	29
thoughts#1,	29
spective	29
Mobile	29
entropy#1	29
▁Antarctic	29
cows#1	29
boys#1.	29
▁Colorado	29
spill#1	29
pods	29
vary#1	29
▁glands	29
▁vendor	29
▁avatar	29
sale#1	29
Wright#1	29
privileged	29
▁tiniest	29
▁hacking	29
grant#1	29
senses#1,	29
▁Holocaust	29
email#1,	29
embraced#1	29
sums#1	29
transit#1	29
argument#1.	29
▁steep	29
▁Survey	29
▁Herbie	29
▁Christianity	29
▁overwhelmed	29
▁distinguish	29
▁Karachi	29
freaking	29
environments#1.	29
▁Barbara	29
▁mammoth	29
tewardship	29
▁disabled	29
▁regulator	29
France#1.	29
timing#1	29
▁Some	29
▁humble	29
▁fireflies	29
▁EPA	29
introduction#1	29
▁Kinect	29
▁Pharaoh	29
smiling#1	29
▁Morgan	29
▁Fraser	29
▁Douglas	29
▁Vivian	29
▁collaborator	29
▁pollinate	29
▁underwear	29
▁Democracy	29
▁maggots	29
▁Haryana	29
▁Accenture	29
▁Nashville	28
Vietnam#1	28
▁retreat	28
▁generic	28
programmed#1	28
price#1.	28
▁reinforce	28
pole#1	28
▁advocate	28
debate#1.	28
pound#1	28
only#1,	28
avoiding#1	28
forget#1,	28
expect#1,	28
camps#1	28
▁defect	28
invitation#1	28
Suddenly#1,	28
season#1,	28
tower#1	28
shining#1	28
grandma	28
▁Libby	28
geographic#1	28
visions#1	28
▁smallest	28
Bomb	28
terrific#1	28
across#1.	28
ready#1.	28
laugh#1,	28
▁wooden	28
Heart#1	28
finished#1,	28
▁absurd	28
meat#1,	28
▁Chair	28
SB#1:	28
cooperative#1	28
▁augment	28
surgeries#1	28
qualified#1	28
▁observer	28
examine#1	28
▁Pardon	28
weapons#1,	28
▁Pleo	28
symmetrical#1	28
surviving#1	28
shows#1,	28
▁appetite	28
▁UFO	28
wet#1	28
loss#1,	28
defines#1	28
intriguing#1	28
watch#1.	28
mountain#1.	28
▁lump	28
▁Mission	28
▁refuse	28
horizon#1.	28
understanding#1,	28
impressed#1	28
improvements#1	28
maintaining#1	28
▁Agency	28
▁confine	28
drive#1,	28
▁Prozac	28
otherwise#1.	28
experiences#1,	28
ball#1.	28
integration#1	28
▁marshmallow	28
tell#0	28
▁ultraviolet	28
radiation#1.	28
twice#1,	28
typing#1	28
▁batteries	28
progression#1	28
slide#1,	28
resistance#1.	28
spectrum#1.	28
queen#1	28
god#1	28
currency#1	28
declared#1	28
errors#1	28
Geographic#1	28
fuel#1.	28
some#1,	28
tubes#1	28
wish#1.	28
jumps#1	28
▁compress	28
story#1?	28
disaster#1.	28
textbook#1	28
step#1.	28
▁gallons	28
videos#1.	28
authentic#1	28
▁responded	28
essence#1,	28
potent#1	28
Does#1n't	28
▁Dark	28
lamp#1	28
Picture	28
ometric	28
birds#1.	28
Park#1,	28
satisfy#1	28
Ask#1	28
journal#1	28
lunch#1.	28
▁divorce	28
platform#1.	28
transformation#1,	28
operated#1	28
pulse#1	28
operation#1,	28
▁racing	28
▁install	28
Revolution#1.	28
Egyptian#1	28
discussion#1.	28
simple#1:	28
▁enterprise	28
star#1.	28
noticing#1	28
industrial	28
use#1?	28
rope#1	28
redefine#1	28
differ#1	28
▁disappointed	28
▁copies	28
still#1.	28
assigned#1	28
segment#1	28
president#1,	28
from	28
roofs#1	28
knock#1	28
failures#1	28
canopy#1	28
▁curl	28
cap#1	28
▁Depression	28
attacks#1,	28
▁Companies	28
experimenting#1	28
▁Duke	28
▁utility	28
presidential#1	28
▁malware	28
Absolutely#1	28
composed#1	28
verge#1	28
▁installed	28
folk#1	28
evaluate#1	28
▁snail	28
▁drastic	28
testing#1,	28
▁expanded	28
edge#1,	28
▁remotely	28
birth#1.	28
▁refused	28
toll#1	28
Foundation#1,	28
▁healing	28
bond#1	28
▁concentrate	28
bulb#1	28
waking#1	28
discussed#1	28
▁revolutionary	28
▁latest	28
flags#1	28
update#1	28
knocked#1	28
design	28
▁intriguing	28
▁destination	28
color	28
▁NFL	28
SHA	28
ski#1	28
▁folded	28
Chuck#1	28
heaven#1	28
demanding#1	28
gatherer	28
▁homosexual	28
▁pleasant	28
premise#1	28
▁realization	28
microscopic#1	28
interviews#1	28
shelf#1	28
appreciated	28
unique#1.	28
▁wheat	28
▁Knowing	28
boring#1,	28
planting#1	28
demand#1.	28
accompanied#1	28
mutual#1	28
▁faint	28
▁humility	28
common#1,	28
emissions#1,	28
▁supermassive	28
▁shaking	28
felt#1,	28
▁encouraging	28
▁octopus	28
cake#1	28
▁Channel	28
neighbors#1.	28
▁compliment	28
▁voting	28
▁reflected	28
slow#1,	28
▁fallen	28
marriage#1,	28
blocked#1	28
▁UNICEF	28
▁decode	28
platforms#1	28
aggregate#1	28
exception#1	28
worldwide#1,	28
quick#1,	28
chess#1	28
known#1.	28
▁Campaign	28
substantial#1	28
▁imperfect	28
hear#1.	28
▁magnitude	28
prevented#1	28
learns#1	28
Bell#1	28
before#1?	28
accuracy#1	28
hunt#1	28
▁unfamiliar	28
guns#1	28
▁equity	28
▁grape	28
▁farther	28
loss#1.	28
did#0	28
▁modest	28
▁misconception	28
chance#1,	28
Has#1	28
Prime#1	28
expressions#1	28
▁buddy	28
▁descend	28
two-dimensional#1	28
▁desperate	28
▁default	28
rap#1	28
▁Loren	28
tunnel#1	28
▁Klein	28
▁contest	28
similar#1,	28
▁buses	28
blind#1.	28
▁longevity	28
▁consideration	28
▁diplomacy	28
alter#1	28
poetry#1,	28
destiny#1.	28
▁Shirley	28
Seven#1	28
Child#1:	28
▁harsh	28
forests#1,	28
▁discussing	28
▁Capital	28
▁resurrect	28
Defense#1	28
tangible#1	28
ceremony#1	28
▁Planet	28
▁Valdez	28
▁GPHIN	28
▁hamburger	28
economically#1	28
▁buttermilk	28
sighted	28
▁festival	28
▁Shoots	28
▁BERT	28
▁MBI	28
rented#1	27
maintenance#1	27
▁technician	27
users#1.	27
spike#1	27
rings#1	27
loaded#1	27
forms#1,	27
was#1:	27
intensity#1	27
▁Armstrong	27
aquatic#1	27
front#1.	27
contrary#1	27
squares#1	27
there#1'd	27
▁communicating	27
▁Chechnya	27
▁paintbrush	27
centuries#1.	27
automobile#1	27
eternal#1	27
▁dim	27
Egypt#1,	27
distribute#1	27
▁oxide	27
▁troops	27
become#1,	27
▁operator	27
▁gyrus	27
presentation#1.	27
custom#1	27
▁pursuit	27
▁Already	27
presentation#1,	27
▁Buckminster	27
prescription#1	27
▁emphasize	27
▁sure	27
humble#1	27
medium#1.	27
linking#1	27
▁Rufus	27
heads#1.	27
▁ensure	27
▁harmony	27
roof#1,	27
▁humidity	27
significance#1	27
▁participatory	27
Times#1,	27
early#1,	27
▁remaining	27
volcanic#1	27
Congress#1.	27
chop#1	27
dish#1	27
stole#1	27
▁believing	27
mutations#1	27
▁accomplished	27
morality#1	27
synthesize	27
diversity#1.	27
miserable#1	27
▁endeavor	27
medicines#1	27
▁lamb	27
actor#1	27
Society#1	27
29#1	27
vocabulary#1	27
▁vocabulary	27
cracked#1	27
▁wrapped	27
composition#1	27
connected#1,	27
screens#1	27
batteries#1	27
safety#1,	27
▁screaming	27
▁nasty	27
parasite#1	27
▁disturbing	27
▁slept	27
winner#1	27
cares#1	27
▁contemporary	27
council#1	27
Still#1	27
▁firefight	27
historically#1	27
▁summarize	27
agnostic	27
carpet#1	27
I#1.	27
slums#1	27
▁friction	27
walking#1,	27
▁locomotion	27
spray#1	27
back#1?	27
rewards#1	27
▁generator	27
Believe#1	27
centuries#1,	27
gross#1	27
dinner#1,	27
utter#1	27
optimize#1	27
necessary#1.	27
prevalence#1	27
adoption#1	27
partner#1,	27
tail#1.	27
operated	27
School#1,	27
displaced#1	27
needing#1	27
admire#1	27
creation#1,	27
procedure#1	27
scheme#1	27
illustrates#1	27
ambition#1	27
officers#1	27
▁crossed	27
mines#1	27
▁Pandora	27
▁settle	27
properly#1.	27
plastic#1,	27
Democratic#1	27
soup#1	27
bite#1	27
▁veteran	27
▁cochlea	27
sites#1,	27
excess#1	27
plastics#1	27
Fifty#1	27
▁breakdown	27
▁dairy	27
location#1.	27
solve#1.	27
agenda#1.	27
developed#1,	27
principles#1,	27
▁receiving	27
▁catastrophe	27
minority#1	27
explosive	27
▁bumblebee	27
Cities#1	27
submitted#1	27
flesh#1	27
options#1,	27
gallery#1	27
combining#1	27
▁Medicare	27
accounting#1	27
lean#1	27
roof#1.	27
source#1.	27
noisy#1	27
fruits#1	27
▁wreck	27
mess#1.	27
▁knows	27
birthday#1,	27
connections#1.	27
concerned#1,	27
▁extensive	27
▁subjective	27
more#0	27
invented#1.	27
ritual#1	27
intend#1	27
distances#1	27
▁Brent	27
break#1,	27
correlation#1	27
remotely#1	27
▁intend	27
Roman#1	27
MG#1:	27
laws#1,	27
came#0	27
grave#1	27
rule#1,	27
▁alert	27
prisons#1	27
▁division	27
elections#1	27
take#0	27
instead#1.	27
mouse#1,	27
gaining#1	27
PMS#1	27
clean#1,	27
uncertainty#1	27
apparent#1	27
boats#1	27
chair#1,	27
Terroris	27
▁smuggl	27
dominated	27
Hold#1	27
Suddenly#1	27
think#1?	27
▁Pleurobot	27
▁aquaculture	27
Anything	27
think#0	27
▁defecat	27
molecules#1.	27
▁League	27
▁skyscraper	27
▁Pitt	27
interface#1.	27
mesh#1	27
▁fuzzy	27
fuzzy#1	27
faith#1.	27
sand#1,	27
▁grim	27
square#1,	27
sandwich#1	27
▁Certainly	27
lasted#1	27
Sun#1.	27
▁Magic	27
good#1?	27
▁initial	27
travel#1.	27
reject#1	27
▁pivot	27
stumbled#1	27
▁epilepsy	27
temporal#1	27
Rather#1	27
healing#1	27
▁Transition	27
moving#1,	27
▁Reddit	27
between#1.	27
▁Ohio	27
hybrid#1	27
extent#1,	27
painting#1.	27
Champ	27
expedition#1	27
▁sexually	27
pigs#1	27
▁replaced	27
mouth	27
mass#1.	27
white#1.	27
investments#1	27
began#1.	27
existential#1	27
entitled#1	27
arguably	27
lived#1,	27
authoritarian#1	27
winners#1	27
profile#1	27
very#0	27
▁disciplines	27
trauma#1	27
bread#1.	27
▁geeks	27
birth#1,	27
▁grant	27
expose#1	27
loose#1	27
▁burglar	27
▁taxes	27
discrimination	27
▁peacebuild	27
▁boost	27
expressing#1	27
intimate#1	27
Russia#1.	27
bureaucratic	27
smoke#1.	27
▁triumph	27
dimensions#1,	27
▁Hispanic	27
eats#1	27
▁rehabilitation	27
▁Crime	27
▁accused	27
nerves#1	27
▁glut	27
symmetric	27
engine#1.	27
differences#1.	27
disabled#1	27
▁elementary	27
▁Hopkins	27
threat#1.	27
▁AAA	27
staggering#1	27
▁rejected	27
▁telecom	27
scenes#1	27
trouble#1,	27
▁marrow	27
implemented#1	27
tuned#1	27
Redwood#1	27
watch	27
partial#1	27
▁Jimmy	27
▁proposal	27
▁mild	27
▁spoof	27
public	27
cleaned#1	27
Kerry	27
▁manuscript	27
▁menstruation	27
accelerating#1	26
▁gadgets	26
attacking#1	26
property#1,	26
programmed	26
Justice#1	26
compound#1	26
▁nearby	26
brutal#1	26
▁interfere	26
traces#1	26
celebrated#1	26
▁fade	26
danger#1.	26
▁Shenzhen	26
eradicate#1	26
nowadays#1	26
mutation#1	26
Watson#1	26
weapons#1.	26
▁labeled	26
computer	26
indoor#1	26
▁manufacturer	26
songs#1,	26
employ#1	26
inform#1	26
large	26
machine	26
▁delivery	26
thought#0	26
zero#1,	26
friend	26
centers#1,	26
impose#1	26
▁indirect	26
literature#1,	26
fall#1,	26
territory#1	26
some#0	26
sketch#1	26
▁juggling	26
▁pavilion	26
lights#1.	26
soil#1.	26
cut#1,	26
▁imperative	26
desert#1,	26
published#1,	26
▁leopard	26
logging#1	26
tonight#1,	26
▁horribly	26
▁blindfold	26
▁migrate	26
mass#1,	26
sorry#1.	26
▁dirt	26
pill#1	26
articulate#1	26
large#1.	26
weighed#1	26
drama#1	26
Republic#1	26
▁convention	26
categories#1	26
▁Rouge	26
▁negotiate	26
neighboring#1	26
rooted#1	26
designer#1.	26
characteristic#1	26
Stop#1	26
▁noisy	26
notions#1	26
deal#1,	26
shares#1	26
sequences#1	26
glass#1.	26
watts#1	26
County#1	26
report#1,	26
▁nugget	26
transcend#1	26
attend#1	26
curiosity#1.	26
▁frightened	26
little#0	26
▁Summer	26
graph#1,	26
aging#1.	26
▁reaches	26
drug#1,	26
ball#1,	26
set#1,	26
▁scarcity	26
vulnerable#1.	26
▁composition	26
▁crude	26
minimize#1	26
technology	26
Zero#1	26
▁freezing	26
nasty#1	26
cartoons#1	26
donors#1	26
viable#1	26
promising#1	26
tongue#1	26
transparency#1,	26
symmetry#1.	26
continents#1	26
dial#1	26
lightning#1	26
red#1.	26
puzzle#1.	26
▁cement	26
▁valve	26
▁threatened	26
▁manner	26
shy#1	26
outcome#1.	26
respected#1	26
comparable#1	26
underestimate#1	26
II#1.	26
why	26
ca#0n't	26
gallons#1	26
system#1?	26
copying#1	26
coal#1,	26
reactor#1	26
entrepreneurial#1	26
attempted#1	26
black#1.	26
frightening#1	26
knee#1	26
summit#1	26
airline#1	26
questioning#1	26
govern#1	26
habits#1	26
pop-up#1	26
▁update	26
molecule#1,	26
legged	26
Governments#1	26
economies#1,	26
"He#1	26
▁remorse	26
missing#1.	26
▁ingenuity	26
cheek	26
Egyptians#1	26
▁Studio	26
▁choreograph	26
▁Ranger	26
▁chill	26
exciting#1,	26
horrific#1	26
duck#1	26
Given#1	26
grassroots#1	26
▁ideology	26
▁Tweet	26
nation#1.	26
fence#1	26
▁ATM	26
▁defeat	26
take#1.	26
efficient#1.	26
budgets#1	26
consent#1	26
▁consent	26
point#1?	26
spiral#1	26
sells#1	26
kiss#1	26
accumulate#1	26
mistake#1.	26
details#1,	26
phrases#1	26
▁zip	26
founder#1	26
Together#1,	26
▁migration	26
▁prohibit	26
Office#1	26
glamour#1	26
▁outside	26
Companies#1	26
▁cabinet	26
wrestle	26
slip#1	26
Jones#1	26
fight#1,	26
haired	26
victims#1,	26
Much#1	26
▁steady	26
bowl#1	26
sooner#1	26
▁thunder	26
wood#1,	26
deforestation#1	26
keen#1	26
bullet#1	26
100#1,	26
▁Makoko	26
responds#1	26
▁declare	26
▁influenza	26
rhythm#1	26
▁inherited	26
higher#1.	26
rooms#1,	26
reserves#1	26
▁intimacy	26
rolls#1	26
▁anxious	26
rain#1,	26
strength#1,	26
equality#1,	26
▁appliance	26
stopped#1.	26
addicted	26
regulation#1	26
▁classmates	26
protests#1	26
Jessica	26
model	26
▁confronted	26
▁Madison	26
equations#1	26
looking#1,	26
range#1,	26
Coast#1	26
reserve#1	26
instruction#1	26
camp#1.	26
hole#1,	26
mirror#1,	26
▁Club	26
▁devastating	26
above#1.	26
▁blew	26
seal#1	26
meanwhile#1,	26
▁upgrade	26
wipe#1	26
Revolution#1	26
▁gait	26
backwards#1.	26
▁capitalist	26
▁TEDGlobal	26
scaled#1	26
▁liberty	26
folded#1	26
copied#1	26
▁witnessed	26
▁gentle	26
duty#1	26
honestly#1	26
interaction#1.	26
conclusion#1,	26
Contra	26
▁Jackson	26
▁Occasionally	26
watch#1,	26
heroic#1	26
slowing#1	26
Budapest	26
marketplace#1	26
sectors#1	26
wisdom#1.	26
scope#1	26
reconstruct#1	26
historians	26
▁spite	26
owners#1	26
▁Hawk	26
▁lobe	26
Small#1	26
▁stopping	26
coach#1	26
drift#1	26
▁stereotype	26
connections#1,	26
gender#1,	26
earning#1	26
▁Animal	26
categoriz	26
tolerant	26
▁optical	26
▁Eye	26
Hall#1	26
transformation#1.	26
laboratory#1,	26
ability#1,	26
▁admitted	26
actions#1.	26
▁Wired	26
▁summary	26
activities#1,	26
server#1	26
cause#1,	26
▁describing	26
▁unpleasant	26
▁Gabriel	26
strict#1	26
▁socket	26
▁Enron	26
nations#1,	26
liver#1,	26
▁devote	26
confirmed#1	26
▁selected	26
organs#1.	26
Bull	26
▁elaborate	26
sculptures#1	26
▁contributing	26
▁Command	26
spot#1.	26
▁covering	26
▁Portland	26
vivid#1	26
translates#1	26
▁basket	26
▁publishing	26
summer#1.	26
yesterday#1.	26
▁Digital	26
spontaneously#1	26
organization	26
▁reproduce	26
harvesting#1	26
sailing#1	26
releases#1	26
harsh#1	26
Rather#1,	26
▁spontaneously	26
wondered#1,	26
▁Eileen	26
junk#1	26
seeing#1,	26
▁tried	26
shame#1.	26
time#0	26
contents#1	26
Matt#1	26
▁Belgium	26
implanted#1	26
▁Miguel	26
disciplinary	26
▁reporting	26
eater	26
▁Generation	26
▁timing	26
analysis#1.	26
▁Newcastle	26
jellyfish#1	26
▁philanthropist	26
▁Judge	26
Ken#1	26
revenues#1	26
▁abortion	26
▁Stacey	26
AM#1:	26
▁Volunteer	26
▁couch	26
▁Critic	26
▁memorial	26
▁Bandura	26
▁Hazara	26
▁Choir	26
▁frugal	26
▁broader	25
utility#1	25
Manhattan#1,	25
voluntary#1	25
adjacent#1	25
tall#1,	25
Learning#1	25
▁jungle	25
▁drain	25
inevitable#1.	25
migration#1	25
focuses#1	25
keyboard#1	25
▁likely	25
influence#1.	25
▁apes	25
▁Compare	25
pressure#1.	25
wine#1,	25
▁Serbia	25
▁swam	25
sphere#1,	25
here#0	25
heated	25
▁supplier	25
paths#1	25
motion#1,	25
▁amygdala	25
monthly#1	25
Come	25
guest#1	25
otherwise#1,	25
beam#1	25
pathways#1	25
vegetables#1	25
evil#1,	25
recruit#1	25
effort#1,	25
joy#1,	25
brother#1.	25
▁Pearl	25
magazine#1.	25
▁grabbed	25
depths#1	25
▁blessed	25
cluster#1	25
▁vibration	25
dog#1.	25
larger#1.	25
themes#1	25
Google#1.	25
aliens#1	25
Ocean#1	25
wrestling	25
▁invade	25
organisms#1,	25
▁seeing	25
sport#1	25
personality#1.	25
▁constructive	25
carbon#1,	25
finished#1.	25
universities#1,	25
doing#0	25
13#1,	25
cracks#1	25
forcing#1	25
twin#1	25
rises#1	25
mask#1	25
sculpture#1,	25
labor#1.	25
▁scarce	25
religions#1	25
infection#1	25
rescued#1	25
▁nanoparticles	25
campaign#1,	25
newspaper#1,	25
Pole#1.	25
ship#1,	25
freezing#1	25
lost#1,	25
signals#1.	25
detected#1	25
eggs#1.	25
thirds#1	25
symmetries#1	25
struggle#1.	25
unknown#1,	25
▁Rubik	25
▁disappoint	25
triggered#1	25
▁Lindbergh	25
summarize#1	25
sons#1	25
authority#1.	25
Environmental	25
▁episode	25
honored#1	25
interventions#1	25
▁pants	25
together#1?	25
importantly#1	25
fuels#1.	25
processes#1,	25
measure#1,	25
accused#1	25
▁Copernicus	25
figure	25
deep#1.	25
cheap#1.	25
warn#1	25
digest	25
insane#1	25
embarrassing#1	25
create#1.	25
addressed#1	25
listen#1.	25
chaos#1.	25
Therefore#1,	25
▁posed	25
▁planned	25
shoulders#1	25
probe#1	25
abandon#1	25
climate#1,	25
rise#1.	25
▁Islamist	25
harder#1.	25
nonviolent#1	25
though	25
colonization	25
Association#1	25
worlds#1,	25
Newton#1	25
marks#1	25
▁subsidies	25
realize#1,	25
disorder#1.	25
chains#1	25
cylinder#1	25
shortly#1	25
denial#1	25
▁Millennium	25
failed#1.	25
unlock#1	25
succeed#1,	25
rigid#1	25
tanks#1	25
▁leukemia	25
shifts#1	25
▁dementia	25
seat#1,	25
tricky#1	25
proves#1	25
volume#1,	25
automatic#1	25
access#1,	25
▁singular	25
congestion#1	25
text#1,	25
▁Aurora	25
making#1.	25
▁frustrating	25
▁UNESCO	25
stress#1.	25
text#1.	25
format#1	25
fiction#1.	25
arise#1	25
▁recycled	25
unbelievable#1.	25
standards#1.	25
practices#1.	25
protects#1	25
equipped	25
presents#1	25
spring#1,	25
peanut	25
▁nutshell	25
single#1,	25
▁ruthless	25
▁contraceptives	25
thread#1	25
detail#1,	25
▁Control	25
lists#1	25
no#0	25
hill#1	25
▁supporting	25
▁inmates	25
Third#1,	25
▁responding	25
▁systematic	25
communicator	25
principal#1	25
purposes#1.	25
straightforward#1	25
ripped#1	25
down#1?	25
enemy#1.	25
afraid#1.	25
Along#1	25
▁Leo	25
registered	25
attending#1	25
Australia#1.	25
addiction#1	25
practiced#1	25
range#1.	25
belly#1	25
interconnected#1	25
significant#1.	25
▁historically	25
▁paleontologist	25
▁Venter	25
▁successes	25
mobile	25
Way#1	25
▁Auschwitz	25
selves#1	25
▁abstraction	25
▁primo	25
Buddhist#1	25
quietly#1	25
▁entrance	25
▁assign	25
▁coincidence	25
▁skate	25
manifest#1	25
▁manifest	25
garage#1	25
driver#1's	25
few#1.	25
pipeline#1	25
feelings#1,	25
receives#1	25
friend#1's	25
▁configuration	25
mating#1	25
Star#1	25
degree#1.	25
coined#1	25
settlement	25
▁colleague	25
promises#1	25
▁cosmos	25
paste#1	25
stations#1.	25
▁conducted	25
listed#1	25
▁analyzing	25
ranging#1	25
boxes#1,	25
System#1	25
Water#1	25
Joseph#1	25
sensitivity#1	25
manages#1	25
build#1,	25
▁shuffle	25
▁pollute	25
wonder#1.	25
shaking#1	25
bills#1	25
facts#1,	25
▁Brilliant	25
▁rape	25
▁nonsense	25
▁horror	25
denied#1	25
▁servant	25
molecule#1.	25
wars#1,	25
▁album	25
▁fame	25
▁Plu	25
extraordinary#1,	25
true#1?	25
outcomes#1.	25
tables#1	25
▁petroleum	25
Thou	25
Under#1	25
▁Accra	25
interests#1.	25
herd#1	25
▁halfway	25
Blood	25
Parkinson#1's	25
▁finite	25
scans#1	25
environments#1,	25
▁Matthieu	25
▁Victoria	25
voice	25
bionic#1	25
finite#1	25
▁Jeremy	25
shift#1,	25
▁wavelength	25
▁Missouri	25
consumption#1.	25
...♫	25
leave#1,	25
▁Okapi	25
recreate#1	25
Super#1	25
▁Natalie	25
▁narcissist	25
▁metadata	25
supply#1,	25
guns#1.	25
cocktail#1	25
▁collapsed	25
easier#1.	25
▁Maasai	25
▁privatiz	25
dragging#1	25
intrinsic#1	25
bladder	25
▁antiangiogenic	25
▁Challenge	25
▁distinction	25
▁swap	25
▁Brunel	25
▁bailout	25
lapping	25
pollination	25
dancers#1	25
▁HeForShe	25
▁Gowanus	25
▁Duolingo	25
refined#1	24
Harvard#1,	24
▁biases	24
warm#1,	24
passed#1,	24
winter#1,	24
avoidance	24
general#1.	24
nutrition#1	24
shoe#1	24
▁priority	24
▁nowadays	24
Beautiful	24
writes#1	24
▁rebel	24
▁impose	24
clips#1	24
fabrication	24
passage#1	24
life#1:	24
screaming#1	24
▁shining	24
▁evolutionarily	24
repeating#1	24
streaming#1	24
depended#1	24
girlfriend#1	24
American#1,	24
antibiotic#1	24
▁contagious	24
nuts#1	24
exclusive#1	24
vehicle#1,	24
glass	24
tests#1.	24
situations#1.	24
captain#1	24
▁intact	24
sweat#1	24
instruments#1,	24
choose#1,	24
dining#1	24
ship#1.	24
delighted#1	24
candidates#1	24
Large#1	24
▁fungi	24
infinitely#1	24
planet#1's	24
▁Stanley	24
degree#1,	24
statement#1.	24
▁Correct	24
throws#1	24
Sorry#1,	24
▁slot	24
slope#1	24
▁trunk	24
emergent#1	24
interested#1,	24
▁deciding	24
awe#1	24
activities#1.	24
vacation#1	24
lies#1.	24
▁dismiss	24
Marine#1	24
▁fluctuation	24
broadly#1	24
slowly#1.	24
canvas#1	24
▁praise	24
synthesize#1	24
organism#1,	24
▁disseminat	24
envision#1	24
factors#1.	24
home#1?	24
procedures#1	24
noble#1	24
▁revelation	24
poses#1	24
gender#1.	24
corners#1	24
unique#1,	24
weekly#1	24
going#1?	24
▁denominat	24
marvelous#1	24
irrational#1	24
wages#1	24
infection#1.	24
politicians#1,	24
towns#1	24
▁informal	24
safety#1.	24
▁prepare	24
came#1.	24
▁harbor	24
▁Drake	24
honey#1	24
▁digging	24
▁symmetrical	24
reflective#1	24
collapse#1.	24
running#1.	24
injury#1.	24
▁Troy	24
vulnerable#1,	24
tomato#1	24
win#1,	24
banned#1	24
favorite#1,	24
around#0	24
maybe	24
standards#1,	24
compressed#1	24
▁mythology	24
begins#1.	24
wishes#1	24
tenth#1	24
taboo#1	24
resilient#1	24
predatory#1	24
transformational	24
17#1,	24
▁monarchy	24
Haiti#1,	24
▁photosynthesis	24
south#1,	24
freeze#1	24
laboratories#1	24
season#1.	24
returns#1	24
▁flick	24
tags#1	24
tastes#1	24
fiction#1,	24
female#1,	24
▁kidnapped	24
negotiating#1	24
fail#1,	24
dinner#1.	24
last#1.	24
drink#1.	24
block#1,	24
threatening#1	24
▁regard	24
fulfilling#1	24
arrest#1	24
shoulder#1,	24
▁sensitivity	24
gravity#1.	24
Americans#1.	24
periodic#1	24
wanted#1,	24
vegetable#1	24
▁excuses	24
▁boundary	24
ideology#1	24
Costa#1	24
corrupt#1	24
C#1,	24
touch#1,	24
▁revealed	24
biomass#1	24
station#1.	24
definition	24
sharks#1.	24
attacks#1.	24
▁frequencies	24
track#1.	24
Several#1	24
=	24
/7	24
maximize#1	24
genius#1,	24
swap#1	24
▁Now	24
tent#1	24
web#1.	24
borrowed#1	24
familiar#1,	24
discrimination#1	24
smartest#1	24
NBC	24
▁Anthony	24
fights#1	24
stupid#1.	24
amateur#1	24
▁academia	24
capacity#1.	24
lanes#1	24
businesses#1.	24
shops#1	24
▁cursor	24
ease#1	24
▁merge	24
crash#1,	24
▁participating	24
bulk#1	24
verbal#1	24
▁satisfy	24
unified#1	24
vicious#1	24
▁easiest	24
other#0	24
learned#1.	24
severely#1	24
cerebral#1	24
pit#1	24
guaranteed#1	24
Park#1.	24
performance	24
apparently#1,	24
policies#1.	24
behaviors#1,	24
▁symptom	24
realities#1	24
dogs#1,	24
mobilize#1	24
bones#1,	24
grounded#1	24
shocking#1	24
lottery#1	24
▁illustration	24
rains#1	24
transformations#1	24
bang#1	24
sugar#1,	24
regulating	24
advantage#1.	24
useful#1,	24
▁meditation	24
trip#1.	24
met#1.	24
▁symbolic	24
HG#1:	24
thrust#1	24
money#1?	24
factors#1,	24
mounted#1	24
beloved#1	24
retail#1	24
drunk#1	24
▁Past	24
waste#1,	24
modified#1	24
▁activate	24
camp#1,	24
Islands#1	24
▁vase	24
realizes#1	24
chart#1,	24
▁bare	24
▁Graham	24
instance#1	24
morally#1	24
Best#1	24
wish#1,	24
boxes#1.	24
▁Rainforest	24
penalty#1	24
limbs#1	24
apologize#1	24
▁Ghraib	24
fulfill#1	24
dignity#1,	24
▁Saint	24
Sun#1,	24
▁masses	24
photographs#1,	24
disconnected#1	24
circle#1,	24
hell#1.	24
▁Alexandria	24
doubt#1,	24
plates#1	24
equation#1,	24
▁Bowl	24
▁laboratories	24
chip#1.	24
good	24
elements#1.	24
disappeared#1.	24
closed#1.	24
▁pipeline	24
stroke#1,	24
meetings#1,	24
pray#1	24
▁lure	24
▁detriment	24
shout#1	24
drink#1,	24
watches#1	24
▁tropical	24
sound	24
▁Mitchell	24
▁Operations	24
lion#1	24
nephew	24
alert#1	24
cooler#1	24
neutrino	24
parties#1,	24
infections#1	24
minor#1	24
▁vary	24
▁included	24
streams#1	24
embarrassed#1	24
flat#1,	24
stuck#1.	24
Especially#1	24
selective#1	24
rock#1,	24
purposes#1	24
▁annoying	24
sovereign#1	24
democracies#1	24
▁mortal	24
Brown#1	24
▁forbid	24
invasion#1	24
few#1,	24
waves#1.	24
yards#1	24
▁documentary	24
▁passport	24
contained	24
▁Dickinson	24
▁distraction	24
25#1,	24
▁rival	24
sizes#1	24
election#1,	24
eighth#1	24
▁legislation	24
▁trou	24
instances#1	24
▁advocacy	24
happening#1?	24
Norman#1	24
editor#1	24
inspirational	24
flown#1	24
taken#1,	24
▁regional	24
ncyclopedia	24
▁problematic	24
people	24
▁headline	24
motivation#1,	24
▁Raise	24
player#1.	24
scales#1.	24
seals#1	24
questions#0	24
▁hexagon	24
▁steam	24
▁Morocco	24
▁feather	24
cards#1.	24
teeth#1,	24
Rebecca	24
letter#1,	24
strengths#1	24
Project#1,	24
▁applying	24
kindness#1	24
banese	24
▁consumed	24
▁potatoes	24
▁Boltzmann	24
keys#1	24
▁Species	24
vocal#1	24
▁Hudson	24
▁potent	24
▁Tasmania	24
▁progeria	24
▁coumarin	24
▁Jenesis	24
▁Marduk	24
operational#1	23
metropolitan#1	23
corresponding#1	23
differentiate#1	23
partners#1.	23
judgments#1	23
reinventing#1	23
weird#1,	23
▁mixture	23
restricted#1	23
overnight#1	23
▁dishes	23
mud#1	23
placing#1	23
▁altered	23
profit#1.	23
sustaining	23
girls#1'	23
Shanghai#1	23
exploded#1	23
▁flock	23
hut#1	23
▁liberate	23
imposed#1	23
philosophy#1,	23
partnerships#1	23
enthusiasm#1	23
Virgin#1	23
flood#1	23
Singapore#1	23
damaged#1	23
card#1.	23
shop#1,	23
panic#1	23
tips#1	23
[...]
