<unk>	0
<s>	0
</s>	0
__SEP__--byte_fallback=true	0
_	-1.26793
NOUN	-2.99124
PUNCT	-3.19475
PRON	-3.24974
VERB	-3.32071
ADP	-3.56337
DET	-3.67197
AUX	-3.8551
s	-3.9163
▁,_	-3.96555
ADJ	-4.01069
ADV	-4.06161
▁._	-4.18588
▁the	-4.24087
CCONJ	-4.43289
P	-4.74651
ART	-4.75463
PROPN	-4.80785
▁to	-4.8105
SCONJ	-4.89584
▁a	-4.94063
▁of	-4.95523
▁and	-5.01943
▁'	-5.08721
▁	-5.15968
▁that	-5.2027
y	-5.21838
▁I	-5.25102
▁in	-5.36044
ing	-5.46584
ed	-5.4998
▁we	-5.49998
NUM	-5.52557
▁is	-5.5361
▁you	-5.57481
▁it	-5.58295
ly	-5.87928
▁be	-5.89637
▁And	-5.93673
▁thi	-5.97667
▁on	-6.22804
t	-6.2332
▁was	-6.24017
re	-6.26775
0	-6.3117
▁for	-6.34496
▁are	-6.36598
▁have	-6.37174
m	-6.38805
▁with	-6.39959
▁do	-6.40753
d	-6.46764
▁--	-6.49632
'	-6.57528
▁n	-6.57757
▁what	-6.58243
▁?_	-6.58299
▁So	-6.58699
▁-_	-6.59963
▁can	-6.62917
▁"	-6.63399
▁about	-6.64955
▁The	-6.69425
▁not	-6.75466
ould	-6.76582
▁at	-6.78142
▁all	-6.81133
▁an	-6.82459
▁my	-6.85495
J	-6.87218
▁like	-6.87793
INT	-6.88429
▁there	-6.8999
▁one	-6.91159
n	-6.91233
▁as	-6.91339
▁people	-6.92234
▁so	-6.92632
▁It	-6.93934
▁fro	-6.96344
▁but	-7.0276
▁w	-7.05814
1	-7.06298
▁:_	-7.0701
▁our	-7.0838
▁just	-7.10446
▁We	-7.10649
▁or	-7.10774
cause	-7.12271
▁thing	-7.14054
▁us	-7.15644
▁But	-7.1565
▁if	-7.17425
▁see	-7.17617
▁these	-7.17843
▁me	-7.18957
▁out	-7.19194
▁think	-7.19945
▁know	-7.20086
e	-7.20414
▁up	-7.21251
very	-7.24479
▁by	-7.25142
▁year	-7.2652
▁them	-7.26938
▁going	-7.27553
▁when	-7.29266
▁he	-7.30049
es	-7.30145
▁had	-7.30216
▁more	-7.31228
ve	-7.32964
▁get	-7.35044
▁some	-7.37401
▁who	-7.39426
▁their	-7.3966
▁which	-7.40302
▁look	-7.40459
▁your	-7.40703
▁how	-7.41712
▁want	-7.4204
▁really	-7.43799
▁go	-7.493
ies	-7.49327
2	-7.49708
▁time	-7.51244
▁world	-7.52929
en	-7.53196
▁c	-7.54155
▁You	-7.55129
▁has	-7.55587
▁here	-7.5639
▁Thi	-7.57224
▁other	-7.58144
▁actual	-7.5894
▁into	-7.61952
▁way	-7.6288
h	-7.64076
▁where	-7.66371
▁will	-7.67897
▁did	-7.68422
▁now	-7.69314
▁Now	-7.72186
▁make	-7.75731
er	-7.78879
▁every	-7.79177
▁say	-7.80229
▁start	-7.82729
▁need	-7.83045
▁right	-7.83786
▁said	-7.83796
▁work	-7.85276
▁take	-7.86033
5	-7.8715
▁something	-7.88552
▁no	-7.89065
▁than	-7.91458
▁two	-7.91942
ose	-7.92218
▁got	-7.93432
▁first	-7.93566
▁call	-7.94133
lso	-7.94231
▁th	-7.94393
▁over	-7.97949
▁kind	-7.99057
▁He	-7.99083
▁back	-7.99197
▁muc	-7.99902
▁little	-8.00178
▁lot	-8.00466
▁come	-8.00681
▁That	-8.0207
▁most	-8.03571
▁talk	-8.03867
9	-8.0667
▁life	-8.07687
▁she	-8.08061
▁In	-8.08633
▁his	-8.09402
▁What	-8.09578
▁day	-8.10043
▁any	-8.10267
▁even	-8.1149
ll	-8.14063
▁many	-8.14574
▁different	-8.17844
▁new	-8.18227
▁change	-8.18523
▁good	-8.19017
▁wh	-8.19456
3	-8.2065
▁use	-8.2134
▁through	-8.22516
▁There	-8.24832
▁down	-8.25716
▁mean	-8.27738
▁her	-8.27978
▁human	-8.28581
▁idea	-8.29213
.	-8.29425
▁being	-8.2981
▁same	-8.3212
▁show	-8.33302
▁try	-8.33905
day	-8.34048
▁problem	-8.34184
▁Well	-8.34342
▁al	-8.3681
▁If	-8.37017
ce	-8.37292
;	-8.38566
▁put	-8.38956
▁A	-8.3901
▁great	-8.39772
▁three	-8.40253
▁may	-8.40257
▁doing	-8.42088
▁tell	-8.42788
▁place	-8.4383
▁part	-8.44315
ity	-8.44646
▁doe	-8.46314
▁well	-8.46384
▁percent	-8.46485
▁system	-8.48369
made	-8.49344
▁again	-8.50242
▁find	-8.50902
one	-8.51042
▁long	-8.51276
▁give	-8.52451
r	-8.52582
,	-8.52732
▁fact	-8.52803
▁question	-8.5383
around	-8.56197
▁e	-8.57385
▁own	-8.57475
▁happen	-8.58533
other	-8.59158
▁turn	-8.60053
▁should	-8.61625
▁important	-8.62751
▁let	-8.63566
▁thought	-8.6384
▁after	-8.65
▁last	-8.65322
▁him	-8.65441
▁ca	-8.66422
▁big	-8.68456
▁better	-8.68533
▁off	-8.68627
▁end	-8.68902
▁might	-8.69423
▁before	-8.69926
▁Be	-8.69947
X	-8.70435
▁high	-8.71031
▁help	-8.71593
▁course	-8.71776
▁never	-8.72308
▁old	-8.7234
self	-8.7393
▁able	-8.74045
▁love	-8.74273
▁still	-8.7464
a	-8.74788
▁example	-8.75024
▁million	-8.75024
able	-8.75974
▁together	-8.76158
▁few	-8.76715
▁point	-8.77107
▁design	-8.77497
▁ever	-8.78202
ally	-8.78291
▁ago	-8.7884
▁story	-8.79093
▁create	-8.79621
▁brain	-8.79763
next	-8.79916
al	-8.80579
▁water	-8.8085
▁school	-8.80916
▁came	-8.81236
ion	-8.81337
▁bit	-8.81412
▁When	-8.81725
st	-8.82364
▁sort	-8.82942
▁play	-8.84027
▁How	-8.84164
tween	-8.84536
each	-8.84784
▁learn	-8.84988
▁number	-8.85201
▁found	-8.858
in	-8.86432
omen	-8.86528
▁live	-8.87414
▁technology	-8.87904
▁data	-8.8924
went	-8.89983
▁too	-8.90042
▁become	-8.9023
▁small	-8.90528
▁feel	-8.9149
▁believe	-8.92311
▁understand	-8.92758
▁real	-8.94672
out	-8.95482
▁ask	-8.96686
ways	-8.97947
▁whole	-8.98449
l	-8.98623
▁four	-8.9917
▁second	-8.99704
▁person	-8.99707
▁hear	-8.99826
▁power	-8.99841
▁guy	-9.00004
ness	-9.00996
▁hard	-9.01223
▁car	-9.01722
▁light	-9.02379
▁large	-9.02471
est	-9.03326
▁children	-9.03517
▁away	-9.03791
be	-9.0393
▁cell	-9.04549
▁building	-9.04617
on	-9.05402
▁working	-9.05517
ok	-9.05801
w	-9.06164
▁country	-9.06176
▁reason	-9.06856
▁No	-9.06968
ves	-9.06995
▁health	-9.07932
._	-9.08766
ld	-9.09527
▁famil	-9.1102
▁home	-9.11179
▁computer	-9.11338
▁five	-9.11578
▁dollar	-9.11825
▁picture	-9.11825
done	-9.12955
▁information	-9.13139
▁money	-9.1339
▁experience	-9.1344
coming	-9.136
▁space	-9.13703
▁case	-9.14763
▁moment	-9.14785
▁sense	-9.15281
▁liv	-9.15796
▁communit	-9.16338
▁open	-9.1637
▁My	-9.16375
▁One	-9.16387
▁per	-9.17064
▁kids	-9.17138
▁project	-9.17163
▁mak	-9.17547
o	-9.17923
▁move	-9.18019
▁month	-9.18306
▁social	-9.18407
▁basic	-9.18447
thing	-9.1885
nough	-9.19055
▁left	-9.19708
▁man	-9.19795
▁process	-9.19865
▁form	-9.19922
▁future	-9.20112
▁its	-9.20856
▁best	-9.21883
▁group	-9.21912
▁bring	-9.22256
ic	-9.22391
▁energ	-9.22589
▁animal	-9.2278
▁interesting	-9.22907
▁develop	-9.23049
▁read	-9.23241
▁These	-9.23426
▁She	-9.23562
quite	-9.23933
ever	-9.24388
▁walk	-9.24762
▁less	-9.25229
▁food	-9.25308
▁probabl	-9.25595
ything	-9.25761
▁answer	-9.25808
▁body	-9.26322
▁hand	-9.26464
▁gett	-9.26815
▁U	-9.27005
▁job	-9.27463
▁countr	-9.27512
▁Wh	-9.27526
▁science	-9.27536
▁half	-9.27776
▁planet	-9.28481
▁stuff	-9.28927
▁room	-9.29228
▁build	-9.2963
▁keep	-9.29904
▁possibl	-9.30113
▁grow	-9.3027
▁under	-9.30439
▁Let	-9.30801
▁side	-9.31166
▁Do	-9.31269
▁For	-9.31339
▁hour	-9.3139
▁model	-9.31872
▁name	-9.3189
where	-9.32029
▁allow	-9.32185
▁else	-9.32682
▁prett	-9.32836
such	-9.33068
▁young	-9.33501
▁business	-9.3384
▁saw	-9.34005
▁billion	-9.34226
▁matter	-9.34304
▁government	-9.34385
▁area	-9.34834
▁week	-9.34939
▁lives	-9.35181
▁C	-9.35361
▁face	-9.35388
▁line	-9.35468
▁times	-9.3554
round	-9.36172
▁piece	-9.36277
▁student	-9.36425
▁global	-9.36521
▁simple	-9.36885
us	-9.36903
▁men	-9.37291
▁complete	-9.37873
▁bad	-9.38839
▁Africa	-9.38896
▁later	-9.3903
▁care	-9.39132
▁far	-9.39143
▁minute	-9.39409
▁level	-9.39492
▁asked	-9.39863
▁hav	-9.40131
most	-9.40233
▁particular	-9.40397
▁seem	-9.40948
▁set	-9.41242
S	-9.42752
▁All	-9.43541
▁image	-9.43649
ether	-9.43838
▁New	-9.44046
▁As	-9.44135
▁American	-9.44525
▁city	-9.44673
▁game	-9.45226
▁thousand	-9.45564
▁societ	-9.45833
▁single	-9.45835
eady	-9.45847
▁am	-9.45928
▁Thank	-9.46115
▁term	-9.46431
▁interest	-9.46642
▁close	-9.46713
▁mind	-9.47169
▁watch	-9.47415
▁disease	-9.47683
▁happens	-9.4775
▁study	-9.47776
▁while	-9.47831
▁inside	-9.47886
▁Earth	-9.48219
▁E	-9.48379
▁remember	-9.48687
▁book	-9.48758
▁To	-9.48796
▁alr	-9.48903
▁age	-9.49156
▁top	-9.49379
▁machine	-9.49397
▁hope	-9.49844
▁saying	-9.49966
▁sure	-9.50121
▁yet	-9.50205
▁makes	-9.50221
▁market	-9.50426
ne	-9.50478
▁imagine	-9.50527
▁public	-9.50562
▁head	-9.50669
▁certain	-9.50845
▁control	-9.5085
▁figure	-9.51135
▁six	-9.51206
▁both	-9.51261
▁test	-9.5128
▁nothing	-9.51453
▁order	-9.5159
▁share	-9.52498
th	-9.52638
▁histor	-9.52647
▁language	-9.52698
▁cost	-9.53172
▁discover	-9.53186
▁often	-9.53535
▁amazing	-9.54887
▁issue	-9.54983
▁child	-9.55167
▁exact	-9.55351
▁wrong	-9.55446
▁ways	-9.55881
▁beautiful	-9.56122
▁patient	-9.56228
▁run	-9.56386
ation	-9.56525
ther	-9.56621
▁true	-9.56989
▁girl	-9.57094
▁t	-9.57859
▁couple	-9.58198
▁Unit	-9.59379
▁un	-9.59414
▁entire	-9.59969
ment	-9.60125
▁buil	-9.6082
▁final	-9.60939
▁difference	-9.61493
▁cancer	-9.61498
um	-9.61677
▁full	-9.61716
▁realize	-9.62062
▁individual	-9.62102
▁research	-9.63175
▁unti	-9.63467
▁stop	-9.63665
▁hundred	-9.63753
▁mov	-9.64343
▁word	-9.64413
▁words	-9.64486
▁material	-9.64942
▁result	-9.65445
le	-9.65618
▁On	-9.65766
▁environment	-9.65811
across	-9.65926
▁house	-9.65968
▁state	-9.66636
▁kne	-9.66791
came	-9.66908
▁centur	-9.67055
▁music	-9.67164
▁lead	-9.67277
▁Internet	-9.67594
▁night	-9.67793
▁challenge	-9.67829
▁everybody	-9.67835
▁fast	-9.68263
▁heart	-9.68317
▁decided	-9.68322
▁quick	-9.68684
▁self	-9.68759
▁America	-9.69022
▁though	-9.69038
▁education	-9.69316
▁video	-9.69339
▁deep	-9.70177
▁force	-9.70231
▁universe	-9.70232
▁value	-9.70344
▁speci	-9.7066
taking	-9.70677
▁leave	-9.70678
▁follow	-9.70712
▁friends	-9.70918
▁natural	-9.71176
▁must	-9.71239
▁stand	-9.71507
▁States	-9.71637
▁creat	-9.71724
OK	-9.71962
▁spend	-9.7226
▁woman	-9.72267
▁sometime	-9.72563
▁speak	-9.72701
▁nature	-9.72833
▁war	-9.72871
▁huge	-9.72945
▁happening	-9.73011
▁eat	-9.73651
▁third	-9.73748
▁since	-9.73899
▁ra	-9.73988
▁free	-9.74053
▁scale	-9.74696
▁phone	-9.74954
▁program	-9.75324
▁..._	-9.75447
▁God	-9.75681
▁clear	-9.75725
▁oursel	-9.75735
▁front	-9.76071
▁robot	-9.76074
▁economic	-9.76554
▁past	-9.76613
msel	-9.76656
▁Some	-9.77063
▁Oh	-9.77528
▁S	-9.77806
▁India	-9.78011
▁sound	-9.78048
company	-9.78231
▁parent	-9.78352
▁B	-9.78361
▁culture	-9.78378
stead	-9.78549
▁mother	-9.78563
▁bigge	-9.78838
▁focus	-9.7884
▁along	-9.78872
▁pay	-9.79194
▁Or	-9.79393
▁T	-9.79408
▁Oka	-9.79522
▁solution	-9.80182
▁plant	-9.80245
▁somebod	-9.8032
▁risk	-9.80679
▁leas	-9.80748
▁ocean	-9.80892
▁product	-9.81094
▁works	-9.81149
▁art	-9.81299
▁team	-9.81317
▁network	-9.8167
▁population	-9.82177
▁TED	-9.82546
▁structure	-9.82558
▁happ	-9.82778
▁air	-9.82943
▁scientist	-9.83053
▁early	-9.83469
▁fly	-9.83817
▁size	-9.83821
▁color	-9.842
haps	-9.84226
▁poor	-9.84715
▁difficult	-9.851
▁object	-9.85341
▁field	-9.85385
▁exist	-9.85756
▁step	-9.85785
▁black	-9.85995
ry	-9.86026
▁outside	-9.86263
▁die	-9.86414
▁paper	-9.8654
▁fish	-9.86711
▁local	-9.86899
▁experiment	-9.86971
gan	-9.86971
▁buy	-9.87066
▁amount	-9.87069
▁pick	-9.87249
▁China	-9.87733
▁kill	-9.87762
▁death	-9.87853
▁teacher	-9.88331
▁land	-9.88803
▁seven	-9.89289
▁Every	-9.89738
▁tree	-9.8974
▁listen	-9.89787
▁recent	-9.90002
hose	-9.90239
▁middle	-9.90411
▁behavior	-9.90475
▁learning	-9.90944
hind	-9.91058
▁drive	-9.91162
▁engineer	-9.91263
▁support	-9.91506
▁shape	-9.91669
▁b	-9.91915
ese	-9.91934
▁relationship	-9.9206
▁deal	-9.92164
▁choice	-9.92198
ty	-9.92199
▁father	-9.92342
▁effect	-9.92754
▁feeling	-9.92804
▁safe	-9.93041
▁common	-9.93556
▁view	-9.93557
▁friend	-9.93576
▁simpl	-9.93673
▁yourself	-9.93797
▁given	-9.94067
less	-9.94122
▁eyes	-9.94274
▁econom	-9.94579
▁beginning	-9.94729
▁wait	-9.94871
▁dur	-9.95296
▁explain	-9.95302
▁powerful	-9.95448
▁produce	-9.95808
▁act	-9.95936
▁oil	-9.96186
▁physical	-9.96202
▁York	-9.96234
▁rule	-9.96275
▁D	-9.96334
▁cause	-9.96516
▁pattern	-9.96741
▁surface	-9.96743
▁easy	-9.96887
ory	-9.96933
is	-9.97035
▁wonderful	-9.97326
ten	-9.97771
▁stay	-9.98073
▁low	-9.9811
▁news	-9.98153
ither	-9.98527
▁obvious	-9.98647
▁movement	-9.98663
▁decision	-9.98796
▁compani	-9.98931
▁reach	-9.99125
▁abilit	-9.99386
▁map	-9.99704
▁At	-9.99765
▁M	-9.9987
▁major	-10.0044
▁device	-10.0044
▁media	-10.0046
▁normal	-10.006
▁political	-10.0064
▁citi	-10.0093
▁wo	-10.01
▁doctor	-10.012
▁fee	-10.0128
▁short	-10.0143
▁voice	-10.0165
▁arm	-10.0182
▁eight	-10.0191
▁organization	-10.0227
▁rate	-10.0263
▁film	-10.0273
felt	-10.0288
▁personal	-10.0309
▁total	-10.0332
▁near	-10.0335
▁known	-10.035
▁absolute	-10.035
cy	-10.0355
▁center	-10.0358
▁tried	-10.0372
▁People	-10.0381
▁send	-10.0399
▁rest	-10.0426
▁begin	-10.0428
▁save	-10.0474
▁growth	-10.0477
▁realit	-10.0492
▁generation	-10.0508
▁hands	-10.0509
▁ground	-10.0564
▁perfect	-10.0569
▁treat	-10.0634
▁spen	-10.0637
▁Just	-10.0665
▁add	-10.0675
▁blue	-10.0698
▁o	-10.0699
▁service	-10.0734
▁slow	-10.0747
▁Yea	-10.0778
▁Our	-10.0779
▁stori	-10.0796
▁strong	-10.0798
▁opportunity	-10.0798
▁protect	-10.0798
▁condition	-10.0868
▁write	-10.087
▁Yes	-10.0892
▁complex	-10.0901
▁wall	-10.0915
▁extreme	-10.0926
▁wonder	-10.0942
▁situation	-10.0942
▁present	-10.0968
▁record	-10.0986
▁white	-10.1009
▁impact	-10.1025
▁stage	-10.1036
▁hit	-10.1046
▁expect	-10.1052
▁source	-10.1054
▁access	-10.1076
ous	-10.1089
▁green	-10.114
▁climate	-10.1142
▁message	-10.1146
nt	-10.1164
▁sitt	-10.1167
▁blood	-10.1194
▁bas	-10.1197
▁travel	-10.1213
▁toward	-10.1227
▁break	-10.1236
▁DNA	-10.1261
▁fight	-10.1294
ton	-10.1297
▁red	-10.131
▁Right	-10.1312
▁approach	-10.1319
▁cool	-10.1346
▁nice	-10.135
▁CA	-10.1362
▁average	-10.1366
▁sea	-10.1378
▁increase	-10.138
▁chance	-10.1398
▁hold	-10.143
▁decade	-10.1467
▁Not	-10.1485
▁born	-10.1487
▁fall	-10.1494
aught	-10.1502
▁morning	-10.1572
▁literal	-10.1573
i	-10.1625
▁camera	-10.1643
▁An	-10.1657
▁W	-10.1674
▁bottom	-10.1678
▁potential	-10.1695
▁solve	-10.1728
▁train	-10.173
rote	-10.1774
▁pass	-10.1775
▁Can	-10.1783
▁industr	-10.1785
▁innovation	-10.1785
▁forward	-10.1805
▁cut	-10.1819
▁audience	-10.1821
▁sex	-10.184
▁met	-10.1888
▁notice	-10.1897
▁action	-10.1917
▁measure	-10.1944
▁sun	-10.1956
D	-10.1957
body	-10.1957
▁knowledge	-10.1966
▁pull	-10.1966
▁de	-10.1983
▁artist	-10.2004
▁gav	-10.2016
▁understanding	-10.2025
▁fear	-10.2042
▁attention	-10.2113
▁studie	-10.2115
▁sign	-10.2122
▁serious	-10.2131
▁sudden	-10.2131
▁raise	-10.2151
▁consider	-10.2181
▁key	-10.2194
▁giv	-10.2201
▁technologi	-10.2204
▁incredibl	-10.2255
▁R	-10.227
▁cover	-10.2286
▁factor	-10.2306
▁runn	-10.2324
▁photograph	-10.2385
ish	-10.2391
▁lab	-10.2396
rought	-10.2414
▁miles	-10.2419
▁ones	-10.243
▁shows	-10.2464
▁guess	-10.2471
▁qualit	-10.2471
▁essential	-10.251
ary	-10.2512
▁dark	-10.2542
▁kid	-10.2552
▁page	-10.2569
▁continue	-10.2572
▁law	-10.2572
▁tools	-10.2572
▁class	-10.2575
ers	-10.2584
credible	-10.2653
▁development	-10.266
▁worth	-10.2667
lost	-10.2672
▁movie	-10.2688
▁soon	-10.2704
man	-10.272
▁specific	-10.2724
▁memor	-10.2727
▁tin	-10.2741
▁meet	-10.2743
▁hospital	-10.2767
▁World	-10.2783
▁goal	-10.2808
▁easi	-10.2811
▁rich	-10.2826
▁forest	-10.2852
▁telling	-10.2875
▁late	-10.2877
▁current	-10.2883
▁sell	-10.2895
▁books	-10.2908
▁general	-10.2921
▁With	-10.2925
▁English	-10.2943
▁African	-10.295
▁site	-10.2983
land	-10.2989
▁non	-10.2992
▁type	-10.2998
changing	-10.3003
special	-10.3014
▁sit	-10.3019
▁main	-10.3065
▁dead	-10.3085
▁degree	-10.3086
▁track	-10.31
▁represent	-10.3106
▁plan	-10.311
▁touch	-10.3128
▁electric	-10.3161
▁special	-10.3169
▁fun	-10.318
▁push	-10.3188
▁manage	-10.3189
▁office	-10.3206
▁Europe	-10.3209
▁Where	-10.3231
▁equal	-10.3241
▁effective	-10.325
▁similar	-10.3295
▁thank	-10.3326
▁South	-10.3331
▁journey	-10.3334
▁among	-10.3334
▁dream	-10.3336
▁resources	-10.3338
▁activit	-10.3376
▁village	-10.3392
▁box	-10.3397
SYM	-10.3418
▁yes	-10.3424
▁leg	-10.3449
▁fundamental	-10.3481
▁By	-10.3489
▁eye	-10.3493
▁conversation	-10.3549
A	-10.356
▁spread	-10.3563
▁baby	-10.3567
▁street	-10.3582
▁provide	-10.3583
▁smart	-10.3588
lar	-10.3598
▁search	-10.361
▁modern	-10.3631
▁attack	-10.3644
▁evidence	-10.3653
▁speed	-10.3674
▁truth	-10.3675
▁region	-10.3692
▁Google	-10.3717
▁period	-10.3739
▁sleep	-10.3768
▁event	-10.3775
ond	-10.3781
▁code	-10.3795
▁response	-10.3805
▁direct	-10.3823
▁medical	-10.3849
▁Look	-10.3849
▁miss	-10.3853
▁digital	-10.3878
▁ice	-10.3884
▁connect	-10.3898
V	-10.3939
▁song	-10.3959
▁scientific	-10.3983
▁Al	-10.4001
▁drug	-10.4003
▁worker	-10.4017
▁affect	-10.4026
ard	-10.4033
an	-10.4051
ance	-10.4052
▁foot	-10.4053
▁function	-10.4058
▁Chin	-10.4058
▁writing	-10.4059
▁role	-10.4072
▁First	-10.4117
▁teach	-10.4153
▁list	-10.416
▁carbon	-10.416
▁flow	-10.4222
▁fund	-10.4229
▁nine	-10.4238
▁subject	-10.4254
▁connection	-10.4256
▁table	-10.4273
▁several	-10.43
▁Maybe	-10.4301
▁benefit	-10.437
▁includ	-10.4384
▁leaders	-10.4413
▁suggest	-10.4415
▁drugs	-10.4437
ism	-10.4457
▁favorite	-10.4464
online	-10.4493
▁recognize	-10.4496
▁institution	-10.4502
▁success	-10.4526
▁price	-10.4551
▁software	-10.4558
▁mass	-10.4574
▁nation	-10.4577
▁son	-10.4601
▁collect	-10.4602
▁After	-10.4605
▁usual	-10.4629
▁park	-10.463
▁Who	-10.4647
▁require	-10.4648
▁position	-10.4678
▁base	-10.47
▁extraordinar	-10.47
▁invent	-10.4705
▁national	-10.4706
▁vision	-10.4716
▁wish	-10.4735
▁fair	-10.4742
▁aware	-10.4749
▁violen	-10.4753
▁onto	-10.4759
alone	-10.4767
▁Of	-10.4769
▁remain	-10.4797
▁return	-10.4797
▁virus	-10.4799
▁anybody	-10.4801
▁tend	-10.482
▁zero	-10.4823
▁trust	-10.4848
▁visual	-10.486
▁conscious	-10.487
▁necessar	-10.487
▁putt	-10.4889
▁successful	-10.4895
▁join	-10.4899
▁predict	-10.4924
▁fire	-10.4927
▁waste	-10.4959
▁democrac	-10.4968
ily	-10.499
▁throw	-10.4994
▁evolution	-10.5022
▁treatment	-10.5043
▁practice	-10.5044
kay	-10.5049
▁molecule	-10.5067
▁exciting	-10.5068
▁shift	-10.5095
▁designer	-10.5097
as	-10.5097
▁creative	-10.5126
▁count	-10.5134
▁concept	-10.5141
▁genetic	-10.5142
▁direction	-10.5142
▁further	-10.5167
▁medicine	-10.5168
▁conflict	-10.5193
▁lose	-10.5193
▁craz	-10.5218
▁finding	-10.5231
▁led	-10.5257
▁stick	-10.526
▁screen	-10.5265
▁clean	-10.5284
▁positive	-10.5294
▁block	-10.5295
▁gas	-10.5311
▁adult	-10.5313
▁signal	-10.5321
▁securit	-10.5327
▁detail	-10.5345
▁moral	-10.5358
▁surprise	-10.5396
▁police	-10.54
▁finish	-10.5422
▁mental	-10.5424
▁wear	-10.5435
▁draw	-10.5445
▁agree	-10.5449
▁hole	-10.545
▁character	-10.5461
▁skin	-10.5466
▁eventual	-10.5474
▁sounds	-10.5488
▁connected	-10.5496
▁choose	-10.5504
▁Even	-10.552
ife	-10.5535
▁chemical	-10.5552
or	-10.5555
▁stor	-10.5569
more	-10.5575
▁store	-10.5576
▁element	-10.5578
▁fix	-10.5599
▁male	-10.5602
▁letter	-10.5605
▁Most	-10.5606
▁revolution	-10.5614
▁neuron	-10.5633
K	-10.5633
▁appear	-10.5657
▁colleague	-10.5657
c	-10.5657
▁link	-10.5659
▁version	-10.566
▁star	-10.5662
▁publish	-10.5672
how	-10.5675
▁fuel	-10.5684
▁carry	-10.5686
▁di	-10.5692
▁meaning	-10.5704
▁visit	-10.5707
▁transform	-10.571
▁square	-10.5711
▁North	-10.5712
▁immediate	-10.5737
▁meeting	-10.5741
▁meter	-10.579
ting	-10.5801
▁describe	-10.5803
▁gre	-10.5813
▁prevent	-10.5814
▁shot	-10.5822
▁fail	-10.5869
▁G	-10.5872
▁fine	-10.5877
▁road	-10.5887
▁perspective	-10.5898
▁college	-10.5899
▁depend	-10.5909
▁sent	-10.5927
▁supposed	-10.593
▁possibilit	-10.5952
▁emotion	-10.5978
▁card	-10.6
▁accept	-10.6007
▁earlie	-10.6007
▁trial	-10.6008
▁wind	-10.6011
▁Go	-10.603
▁traditional	-10.606
▁address	-10.6061
▁J	-10.6063
▁door	-10.6083
▁Chris	-10.6086
▁task	-10.6089
▁mine	-10.6111
pover	-10.6113
▁context	-10.6117
▁Japan	-10.6117
▁international	-10.6117
▁West	-10.6118
▁tool	-10.6123
▁boy	-10.6142
▁inspire	-10.6144
▁income	-10.6146
▁invest	-10.617
▁critical	-10.6181
k	-10.6192
▁Are	-10.6194
▁concern	-10.62
▁offer	-10.6207
▁enter	-10.6229
▁report	-10.6232
▁driv	-10.6247
▁bunch	-10.6256
▁standard	-10.6257
▁shar	-10.6266
▁meant	-10.6292
▁career	-10.6306
▁above	-10.634
▁content	-10.6341
age	-10.6341
▁happiness	-10.6342
crisis	-10.6347
▁fit	-10.6365
▁expert	-10.6369
▁launch	-10.6374
▁nobod	-10.6376
▁worse	-10.6392
▁principle	-10.6397
cross	-10.6413
▁War	-10.642
▁progress	-10.6424
▁tru	-10.643
▁compassion	-10.6454
▁militar	-10.6454
▁plastic	-10.6454
▁excited	-10.6459
▁wealth	-10.646
▁secret	-10.6485
though	-10.649
▁female	-10.6512
▁please	-10.6512
▁rise	-10.6512
▁famous	-10.6515
▁realiz	-10.6536
▁enjoy	-10.654
▁warm	-10.655
▁F	-10.6555
▁involv	-10.6565
▁account	-10.6569
▁text	-10.6573
▁genes	-10.6577
▁lower	-10.6578
abilit	-10.6596
▁impossibl	-10.6598
▁board	-10.6611
▁pain	-10.6615
▁terribl	-10.6627
▁hot	-10.666
▁interact	-10.6684
▁ultimate	-10.6686
▁complicated	-10.6686
▁indeed	-10.6774
kept	-10.6775
▁fill	-10.6793
▁HI	-10.6804
▁freedom	-10.6804
▁reading	-10.6806
▁post	-10.6824
▁website	-10.6833
▁massive	-10.6837
▁perform	-10.685
▁Th	-10.6864
▁afford	-10.6867
▁respond	-10.6873
▁writ	-10.6881
head	-10.6891
▁deliver	-10.6898
▁lesson	-10.6898
▁policy	-10.6905
▁cold	-10.6908
▁check	-10.691
▁original	-10.6914
▁galax	-10.6923
▁private	-10.6923
▁TV	-10.6924
▁nuclea	-10.6937
▁pressure	-10.6953
▁typical	-10.7014
▁blind	-10.7044
▁mention	-10.7044
▁series	-10.7074
▁dangerous	-10.7074
▁wave	-10.7076
▁training	-10.7085
▁prison	-10.709
▁financial	-10.7104
▁Like	-10.7135
▁range	-10.7152
▁win	-10.7159
▁reduce	-10.7162
▁stopp	-10.7165
▁daughter	-10.7166
▁temperature	-10.7166
▁communication	-10.7166
▁unique	-10.7196
▁alive	-10.7198
▁Man	-10.7215
▁improve	-10.7247
▁purpose	-10.726
▁relative	-10.7266
▁bone	-10.7284
▁strange	-10.7286
▁Afghan	-10.7289
▁decide	-10.7311
▁stars	-10.7337
▁race	-10.7338
▁yea	-10.7346
▁remarkabl	-10.7355
▁physic	-10.7374
▁path	-10.7381
▁organism	-10.7383
▁biolog	-10.7416
▁significant	-10.7419
▁press	-10.7451
▁citizens	-10.7481
refore	-10.7507
▁bacteria	-10.7508
▁involve	-10.7515
-	-10.7539
▁increasing	-10.7573
▁argument	-10.7573
▁skills	-10.7586
▁enormous	-10.7605
▁slight	-10.7606
▁bodie	-10.7608
ful	-10.7616
C	-10.763
▁math	-10.7637
▁demand	-10.7637
▁saving	-10.7641
▁O	-10.7642
▁L	-10.7645
▁Which	-10.767
▁creature	-10.767
▁performance	-10.767
▁co	-10.7676
▁propert	-10.7677
▁survive	-10.7696
▁constant	-10.7703
▁brains	-10.7713
▁virtual	-10.7716
▁achieve	-10.7739
▁re	-10.7744
▁roll	-10.7758
▁mom	-10.7758
▁East	-10.7763
▁expensive	-10.7767
▁heat	-10.7784
▁avail	-10.7787
▁effort	-10.7799
▁intelligence	-10.78
▁neighborhood	-10.78
▁ball	-10.7808
▁unit	-10.7808
▁jump	-10.7827
▁forth	-10.783
▁convince	-10.7833
▁target	-10.7833
N	-10.7862
▁instance	-10.7865
▁German	-10.7866
▁floor	-10.7896
▁brother	-10.7899
▁define	-10.79
▁edge	-10.7906
▁capital	-10.7912
▁cheap	-10.7932
▁stress	-10.7932
▁painting	-10.7937
▁luck	-10.7952
ood	-10.7956
▁player	-10.7958
▁universit	-10.7965
lly	-10.798
▁drink	-10.7998
▁charge	-10.8022
▁strateg	-10.803
▁transport	-10.8032
▁pound	-10.8065
▁peace	-10.8065
▁cross	-10.8091
▁teaching	-10.8094
magine	-10.8099
▁wild	-10.8107
▁Universit	-10.8116
▁drop	-10.8125
▁user	-10.8131
▁familiar	-10.8133
▁K	-10.8133
by	-10.8133
aid	-10.8142
▁active	-10.8171
▁vehicle	-10.8201
▁respect	-10.8234
▁protein	-10.8235
▁email	-10.8235
▁City	-10.8246
▁environmental	-10.8258
▁religion	-10.8269
▁architecture	-10.8269
▁cultural	-10.827
▁apply	-10.8291
▁production	-10.8308
▁sustain	-10.8325
low	-10.833
▁catch	-10.8337
▁particle	-10.8338
▁responsibilit	-10.8338
▁legal	-10.8347
▁weight	-10.8355
▁capacit	-10.8372
▁fantastic	-10.8372
▁distance	-10.8374
▁politic	-10.8399
▁release	-10.8403
▁mobile	-10.841
▁aid	-10.8413
▁dog	-10.8438
▁Mars	-10.8448
istan	-10.8478
▁biological	-10.8479
▁Your	-10.8498
▁breath	-10.8516
▁influence	-10.8526
▁except	-10.8546
▁random	-10.8547
▁gain	-10.8548
▁engage	-10.8566
▁farm	-10.8568
▁interview	-10.8575
▁feed	-10.8576
▁extra	-10.8579
▁beaut	-10.8583
▁emotional	-10.8584
▁explore	-10.8603
Two	-10.8626
▁Indian	-10.8632
▁farmer	-10.8635
▁interaction	-10.8655
▁boat	-10.8656
▁web	-10.8688
▁wide	-10.8688
▁Second	-10.8725
▁useful	-10.8728
▁communicate	-10.8731
▁sky	-10.8733
▁Dr	-10.8739
water	-10.8743
ization	-10.8751
▁sensor	-10.8767
▁r	-10.8788
▁tissue	-10.8797
▁failure	-10.8797
▁babi	-10.8798
▁layer	-10.8805
▁rain	-10.8817
▁Many	-10.8825
▁remind	-10.8827
▁honest	-10.8833
▁Ver	-10.8839
ought	-10.8846
▁separate	-10.8864
▁sister	-10.887
▁professional	-10.8879
▁trade	-10.8885
▁ran	-10.8899
▁genome	-10.8906
▁surger	-10.8915
▁print	-10.8929
▁underst	-10.894
▁destroy	-10.8943
▁various	-10.8943
▁infrastructure	-10.8943
▁summer	-10.8943
▁atmosphere	-10.8945
▁types	-10.8967
▁willing	-10.897
▁identit	-10.898
▁London	-10.898
▁collective	-10.898
▁landscape	-10.8981
▁expand	-10.9017
▁investment	-10.9018
▁serve	-10.9026
▁television	-10.9054
▁sexual	-10.9058
▁town	-10.9062
▁paint	-10.9067
▁San	-10.9075
▁anyway	-10.9077
side	-10.9084
▁surviv	-10.9096
▁cycle	-10.9109
▁speech	-10.9128
▁spoke	-10.9129
▁apart	-10.913
▁cook	-10.9134
▁sat	-10.9137
▁coral	-10.9166
▁efficient	-10.9166
▁conference	-10.9167
▁minds	-10.9175
▁seat	-10.918
▁wors	-10.9196
▁disappear	-10.9203
▁Great	-10.9203
▁From	-10.9204
▁popular	-10.9205
▁slide	-10.9221
▁rock	-10.9234
▁urban	-10.9239
▁dance	-10.924
▁supply	-10.9241
▁birth	-10.9242
▁produc	-10.9254
▁H	-10.9277
▁weapon	-10.9279
z	-10.9315
▁magic	-10.9343
▁hair	-10.9343
▁pai	-10.935
▁mission	-10.9351
▁trouble	-10.9355
▁shark	-10.9355
▁bank	-10.9359
▁belief	-10.936
▁document	-10.9371
▁finger	-10.9393
▁California	-10.9393
▁dy	-10.9402
▁beat	-10.9419
▁forget	-10.9446
▁consequence	-10.947
▁sector	-10.947
▁smell	-10.947
▁laws	-10.9481
▁sample	-10.9481
▁Western	-10.949
▁ga	-10.9493
▁spot	-10.9508
▁pre	-10.9511
wise	-10.953
▁method	-10.9541
▁straight	-10.9542
▁crime	-10.9548
▁dynamic	-10.9549
▁passion	-10.955
▁gene	-10.9567
▁twi	-10.9574
▁sick	-10.9586
▁profit	-10.9588
▁careful	-10.9588
▁dad	-10.9603
▁feature	-10.9603
ian	-10.9619
▁double	-10.9619
▁border	-10.9626
▁bear	-10.9631
▁circle	-10.9633
▁sentence	-10.965
▁sing	-10.9657
▁mix	-10.9666
▁brand	-10.9666
▁streets	-10.9677
▁mistake	-10.9695
▁poet	-10.9704
▁profound	-10.9705
▁match	-10.971
▁organ	-10.9724
▁engine	-10.9736
▁John	-10.9738
▁none	-10.9742
▁Think	-10.9745
▁avoid	-10.975
▁radio	-10.9759
▁compare	-10.9783
▁neighbor	-10.9785
▁insect	-10.9785
▁muscle	-10.9785
▁campaign	-10.9785
▁creativ	-10.9811
ach	-10.9823
▁cap	-10.9824
▁Facebook	-10.9825
▁vast	-10.9825
▁station	-10.9825
▁outcome	-10.9825
▁controll	-10.9852
▁blow	-10.9856
▁threat	-10.9859
▁ver	-10.9878
▁option	-10.9879
▁tremendous	-10.9905
▁oh	-10.9917
▁glass	-10.9919
▁states	-10.9928
▁core	-10.9935
▁worry	-10.9944
▁article	-10.9946
▁technique	-10.9946
▁chair	-10.9946
▁super	-10.9958
▁los	-10.9961
▁driver	-10.9969
▁bough	-10.9983
▁afr	-10.9986
▁soldier	-10.9986
▁sequence	-10.9996
▁evolv	-10.9997
▁bridge	-11.0002
▁broken	-11.0036
▁notion	-11.0046
▁bed	-11.0053
▁funny	-11.0068
▁National	-11.0069
▁ant	-11.0072
▁window	-11.0074
spite	-11.0074
▁bar	-11.0095
▁quote	-11.0095
▁contain	-11.0098
▁loss	-11.0109
▁definition	-11.011
▁instrument	-11.0138
▁ship	-11.0142
▁Brit	-11.0145
▁surprising	-11.0151
▁contact	-11.0151
▁Take	-11.0161
▁express	-11.0176
▁gold	-11.0189
▁boys	-11.02
▁related	-11.0208
▁promise	-11.0234
▁lack	-11.0234
ACE	-11.0234
▁vaccine	-11.0236
▁generate	-11.0253
▁switch	-11.0257
▁rapid	-11.0276
▁European	-11.0276
▁oxygen	-11.0282
▁net	-11.0317
▁consumer	-11.0323
▁corner	-11.0329
▁accident	-11.0332
▁members	-11.0341
▁climb	-11.0343
▁drawing	-11.0344
▁central	-11.0359
▁Over	-11.036
▁balance	-11.038
▁dimension	-11.0393
▁giant	-11.0402
▁husband	-11.0402
▁won	-11.0432
▁plane	-11.0438
▁rough	-11.0468
▁victim	-11.0487
▁component	-11.0487
▁unfortunate	-11.0487
ist	-11.0494
▁capture	-11.0523
▁classroom	-11.053
▁continent	-11.0533
▁sub	-11.0544
▁researcher	-11.0557
▁application	-11.0573
▁flight	-11.0574
▁earth	-11.0574
▁negative	-11.0575
▁diversit	-11.0575
▁His	-11.0577
▁etc	-11.0579
▁photo	-11.0583
eath	-11.06
▁rare	-11.0602
▁dramatic	-11.0617
▁reaction	-11.0618
▁gap	-11.0618
SP	-11.0638
▁island	-11.0658
▁civilization	-11.066
▁basi	-11.0662
▁tough	-11.0665
▁root	-11.0669
▁commercial	-11.0676
▁Arab	-11.0697
▁fashion	-11.0704
▁bus	-11.0707
▁Any	-11.0737
ia	-11.074
▁X	-11.0745
▁Muslim	-11.0748
▁satellite	-11.0748
▁limit	-11.075
▁advance	-11.0752
▁Did	-11.0757
▁alternative	-11.0792
ership	-11.0793
▁hearing	-11.0824
▁civil	-11.0835
▁aspect	-11.0836
▁recover	-11.0853
▁dreams	-11.0859
▁party	-11.0887
▁graduate	-11.0897
▁forever	-11.0903
▁complexit	-11.0904
▁enable	-11.0915
▁mountain	-11.0919
▁argue	-11.092
▁kilometer	-11.0925
▁Again	-11.0925
▁opposite	-11.0925
▁birds	-11.095
▁reward	-11.0971
▁scene	-11.0972
▁background	-11.0972
▁David	-11.0972
▁hate	-11.0978
▁plann	-11.0979
▁include	-11.0988
▁prove	-11.1002
▁burn	-11.1013
▁imagination	-11.1015
▁Actua	-11.1016
▁gon	-11.1036
▁sold	-11.1045
▁detect	-11.1056
▁graph	-11.1059
▁batter	-11.106
▁Mr	-11.1067
▁opportunit	-11.1097
▁museum	-11.1106
▁industrial	-11.1106
▁justice	-11.1109
▁introduce	-11.1116
▁See	-11.112
▁wire	-11.112
▁Y	-11.1124
▁cat	-11.1145
▁airplane	-11.1151
▁More	-11.1158
▁weird	-11.1195
▁Twitter	-11.1197
▁ecosystem	-11.1197
▁desire	-11.1211
▁sustainabl	-11.1214
▁president	-11.1226
▁grade	-11.1227
▁architect	-11.1243
▁proud	-11.1243
▁yellow	-11.1243
tuck	-11.1244
▁noise	-11.1256
▁grand	-11.1275
▁dinosaur	-11.129
▁platform	-11.129
▁remote	-11.129
▁technical	-11.129
▁correct	-11.1304
▁adapt	-11.1335
▁religious	-11.1336
▁stem	-11.1336
▁hopeful	-11.1337
▁mouth	-11.1339
▁Sometime	-11.1339
▁rid	-11.1344
▁Good	-11.1347
▁radical	-11.1356
▁Iraq	-11.1375
▁algorithm	-11.1382
▁Brazil	-11.1383
▁competition	-11.1383
▁identify	-11.1383
▁De	-11.1413
▁date	-11.1435
▁vote	-11.1445
▁trip	-11.1449
▁anti	-11.146
ch	-11.1463
ble	-11.1463
▁suffering	-11.147
▁mechanism	-11.1477
▁advantage	-11.1477
▁desert	-11.1477
▁bottle	-11.1477
▁tradition	-11.148
▁Asia	-11.151
ier	-11.1511
light	-11.1519
▁Hey	-11.1521
▁coffee	-11.1524
▁ancient	-11.1524
▁magazine	-11.1524
care	-11.1525
iddle	-11.155
▁election	-11.1573
▁motion	-11.1574
▁leader	-11.1574
▁whale	-11.1613
▁gender	-11.162
▁monkey	-11.162
▁due	-11.1628
▁emerg	-11.1629
▁hero	-11.1642
▁Have	-11.1648
▁chose	-11.1652
▁struggle	-11.1672
▁soil	-11.1673
▁claim	-11.1716
▁phenomeno	-11.1716
▁pair	-11.1721
▁dimensional	-11.1728
▁note	-11.173
▁operat	-11.1739
▁attempt	-11.1765
▁expression	-11.1766
▁reflect	-11.1788
nstead	-11.1804
▁regular	-11.1814
▁mess	-11.1819
▁labor	-11.1846
▁solv	-11.1846
▁encourage	-11.1862
▁coast	-11.1865
▁suffer	-11.187
older	-11.1874
▁flower	-11.1897
▁French	-11.1912
▁disorder	-11.1912
ford	-11.1918
▁sand	-11.1956
▁location	-11.1964
▁master	-11.1967
▁receive	-11.1969
▁cloud	-11.1972
▁bubble	-11.198
▁CO	-11.1982
▁organiz	-11.1996
▁trick	-11.2007
▁empower	-11.2011
▁universal	-11.2011
▁electronic	-11.2013
▁AIDS	-11.2014
▁dot	-11.2038
▁mouse	-11.2061
▁responsibl	-11.2061
▁marriage	-11.2061
▁interface	-11.2064
▁river	-11.2066
▁foundation	-11.2068
▁Washing	-11.2076
▁holding	-11.2084
▁corrupt	-11.2085
▁debate	-11.2106
▁fac	-11.211
▁marrie	-11.2111
▁restaurant	-11.2111
▁hurt	-11.2111
▁Life	-11.2112
▁brilliant	-11.2113
▁sorr	-11.2114
▁operation	-11.2149
▁succeed	-11.2162
▁emission	-11.2162
▁sad	-11.2166
▁extend	-11.2172
tic	-11.2177
▁puzzle	-11.2213
▁childhood	-11.2213
▁criminal	-11.222
▁statistic	-11.2228
▁damage	-11.2228
ive	-11.2232
night	-11.2238
▁honor	-11.2264
▁previous	-11.2264
▁patent	-11.2264
▁budget	-11.2264
▁fold	-11.2267
▁shock	-11.2272
▁bird	-11.2286
▁authorit	-11.2295
▁hop	-11.2298
▁professor	-11.2315
▁tumor	-11.2315
▁fresh	-11.2315
▁click	-11.2318
▁odd	-11.2362
▁bag	-11.2363
▁reveal	-11.2366
▁poem	-11.2367
O	-11.2379
▁independent	-11.2394
▁curve	-11.2395
▁colon	-11.2397
▁Bill	-11.2398
▁creation	-11.24
▁bright	-11.2416
son	-11.2431
▁spin	-11.2438
▁engag	-11.2442
▁invisibl	-11.245
▁laugh	-11.2464
▁newspaper	-11.247
▁dozen	-11.2487
▁adopt	-11.2506
▁multi	-11.2516
▁Web	-11.2518
ine	-11.2521
▁score	-11.2522
▁Big	-11.2531
la	-11.2535
▁knowing	-11.2539
▁theater	-11.2543
▁fascinating	-11.2546
▁evolve	-11.2561
▁clinical	-11.2574
▁leaving	-11.2575
▁unlike	-11.2576
▁transformation	-11.2577
▁dai	-11.2582
▁stream	-11.2582
▁gay	-11.2598
ver	-11.2599
▁sum	-11.2601
▁estimate	-11.2605
▁faith	-11.2629
▁limited	-11.2631
▁combine	-11.2633
▁moon	-11.2635
▁frame	-11.2646
▁wood	-11.2657
▁exercise	-11.2659
▁Un	-11.2659
▁provid	-11.2673
▁volunteer	-11.2681
▁motor	-11.2682
▁lung	-11.2683
▁hell	-11.2696
▁availab	-11.2706
wood	-11.2732
▁symbol	-11.2733
▁display	-11.2735
▁dinner	-11.2735
▁George	-11.2735
▁resistan	-11.2739
▁injur	-11.2744
time	-11.275
ural	-11.2754
▁p	-11.2755
ey	-11.277
▁occur	-11.2772
▁proper	-11.2777
▁chip	-11.2782
▁hidden	-11.2789
▁discussion	-11.279
▁surround	-11.28
▁remove	-11.2805
▁tail	-11.2805
▁closed	-11.2806
▁cry	-11.2819
▁invite	-11.2839
▁Her	-11.284
▁disaster	-11.2843
▁micro	-11.2857
u	-11.2864
▁suit	-11.2867
▁compar	-11.2875
▁multiple	-11.2878
▁caus	-11.2889
▁lunch	-11.2897
▁opinion	-11.2897
▁narrative	-11.2897
▁politician	-11.2899
T	-11.2903
▁era	-11.2913
▁lay	-11.2924
▁seed	-11.2932
▁strength	-11.2946
ship	-11.295
▁epidemic	-11.2952
▁humanit	-11.2952
▁grown	-11.2974
▁artificial	-11.3009
▁lock	-11.3021
▁flu	-11.3021
▁mathematic	-11.3023
line	-11.3023
▁lie	-11.3037
▁mirror	-11.3062
▁bread	-11.3064
▁row	-11.3066
▁collection	-11.3067
▁dry	-11.3069
▁stoo	-11.3071
▁copy	-11.3074
▁breast	-11.308
▁partner	-11.3085
▁vers	-11.3093
▁f	-11.3097
▁truck	-11.31
R	-11.3102
▁Paul	-11.3114
▁channel	-11.3117
▁trillion	-11.3118
▁float	-11.3119
▁Sun	-11.3123
▁broad	-11.3125
▁topic	-11.314
▁litera	-11.3143
▁exchange	-11.3149
▁analys	-11.3153
▁round	-11.317
▁GDP	-11.3173
▁intelligent	-11.3173
▁brief	-11.3173
▁precise	-11.3176
▁atom	-11.3176
▁variet	-11.3179
▁gift	-11.3188
▁translate	-11.32
▁receiv	-11.3209
▁folks	-11.3217
▁fossil	-11.3229
▁load	-11.3237
▁operate	-11.3239
▁smile	-11.3242
▁crash	-11.3249
▁quant	-11.3271
▁wheel	-11.3278
▁Mexic	-11.3284
▁spirit	-11.3286
▁wake	-11.329
▁Australia	-11.3333
orrow	-11.3341
▁metaphor	-11.3343
▁roof	-11.3343
▁depression	-11.3344
▁quarter	-11.3344
▁mid	-11.3347
▁seek	-11.3349
▁organic	-11.3351
▁collapse	-11.3351
▁zone	-11.3355
▁insight	-11.336
▁ring	-11.3369
▁crowd	-11.3373
▁fell	-11.3391
▁tens	-11.3393
▁traffic	-11.3396
▁elephant	-11.34
▁existence	-11.34
▁Richard	-11.34
▁feedback	-11.34
▁circuit	-11.34
▁pack	-11.3405
▁shoes	-11.3411
▁continu	-11.3412
▁refugee	-11.3413
▁bees	-11.3421
▁shop	-11.3444
▁foreign	-11.3445
▁equip	-11.3449
▁cognitive	-11.3458
▁Green	-11.3459
▁Everything	-11.3462
▁peer	-11.3463
▁replace	-11.3479
▁Art	-11.3495
▁cure	-11.35
ar	-11.3501
▁tech	-11.3512
▁discuss	-11.3514
▁consumption	-11.3516
▁invention	-11.3519
▁customer	-11.3522
▁scar	-11.3527
▁whom	-11.3527
▁Sea	-11.3531
▁applie	-11.3533
▁metal	-11.3541
▁spaces	-11.3544
▁nervous	-11.3573
▁stupid	-11.3573
▁lifetime	-11.3579
▁Thre	-11.3594
▁garden	-11.3618
▁official	-11.3632
▁quiet	-11.3632
▁meat	-11.3636
▁opening	-11.3662
tion	-11.3669
▁measur	-11.367
▁mathematical	-11.3672
▁practical	-11.3675
▁England	-11.3691
▁malaria	-11.3691
▁curious	-11.3691
▁talent	-11.3691
wide	-11.3692
▁PM	-11.3727
▁equivalent	-11.375
▁grandmother	-11.375
▁symptom	-11.375
▁distribution	-11.3751
▁fourth	-11.3758
▁Their	-11.3759
▁novel	-11.3763
▁King	-11.3766
▁occurr	-11.3768
▁agenc	-11.378
▁chain	-11.3787
mber	-11.3788
▁survey	-11.3809
▁weather	-11.3809
▁wisdom	-11.381
▁journalist	-11.3813
▁shoulder	-11.3838
▁app	-11.385
utism	-11.3867
▁govern	-11.3868
▁diet	-11.3868
▁Audience	-11.3869
▁laptop	-11.3869
▁joke	-11.3869
▁economist	-11.387
▁Come	-11.387
el	-11.3918
▁intellectual	-11.393
▁vessel	-11.393
▁telescope	-11.3931
▁Island	-11.3933
▁killing	-11.3941
▁terrorist	-11.3945
▁ray	-11.3971
▁infect	-11.3989
▁combination	-11.399
▁volume	-11.3992
▁setting	-11.3993
▁tear	-11.3994
▁credit	-11.3995
▁names	-11.4012
▁Harv	-11.4016
▁writer	-11.4027
▁Times	-11.4032
▁cartoon	-11.4051
▁inequalit	-11.4051
▁Einstein	-11.4051
▁limb	-11.4052
▁lift	-11.4053
▁dealing	-11.4055
▁gather	-11.4059
▁N	-11.4066
▁actor	-11.4071
▁crack	-11.4094
▁mile	-11.4098
▁agricultur	-11.4098
▁Kenya	-11.4102
▁ancestor	-11.4112
▁according	-11.4117
▁joy	-11.4117
▁Iran	-11.4124
▁taste	-11.4132
▁inner	-11.4139
▁ordinar	-11.4151
▁MIT	-11.4174
▁President	-11.4174
▁mammal	-11.4176
▁chicken	-11.4176
▁speaker	-11.4181
▁plate	-11.4191
▁determine	-11.4202
ling	-11.4208
x	-11.4219
▁resource	-11.4224
▁heavy	-11.4236
▁error	-11.4236
▁cutting	-11.4238
▁Other	-11.4238
▁g	-11.4244
▁divide	-11.4256
▁judge	-11.4258
▁assume	-11.4266
▁stone	-11.4286
▁pocket	-11.4299
▁yester	-11.4299
▁soul	-11.43
▁string	-11.4301
▁robotic	-11.4304
▁therap	-11.4314
▁attract	-11.4315
▁belong	-11.4325
▁skill	-11.4343
▁north	-11.4356
▁empty	-11.4362
▁employee	-11.4362
▁crop	-11.4362
▁medium	-11.4363
▁construction	-11.4364
▁hide	-11.4376
▁member	-11.4398
ical	-11.4399
▁importan	-11.44
▁comfortabl	-11.4402
ium	-11.4405
▁camp	-11.442
▁perception	-11.4425
▁evil	-11.4425
▁illness	-11.4426
▁gun	-11.4426
▁clinic	-11.4428
▁photos	-11.4442
▁poll	-11.4466
▁equation	-11.4489
▁title	-11.4489
▁awful	-11.4489
▁lawyer	-11.4489
▁Center	-11.4489
▁initial	-11.449
▁peak	-11.449
ma	-11.4491
▁Last	-11.4493
▁threaten	-11.4498
▁lies	-11.4504
▁Hi	-11.4526
▁addition	-11.4533
▁maintain	-11.4553
▁Amazon	-11.4553
▁enem	-11.4553
▁toilet	-11.4553
▁bomb	-11.4554
▁accurate	-11.4554
▁Jam	-11.4555
▁transition	-11.4556
▁doubt	-11.4557
▁clip	-11.4559
▁nurse	-11.4563
▁privilege	-11.4572
▁mothers	-11.4577
▁button	-11.4586
▁Thanks	-11.4603
▁evolutionar	-11.4607
▁construct	-11.4615
▁dolphin	-11.4617
▁sugar	-11.4617
▁manufactur	-11.4618
▁microbe	-11.4619
▁protection	-11.4623
ur	-11.4625
▁stock	-11.4638
▁pop	-11.4643
▁convert	-11.4682
▁laborator	-11.4682
▁reef	-11.4682
▁Los	-11.4703
▁undern	-11.4705
▁chemistr	-11.4714
▁mortal	-11.4748
▁section	-11.4748
▁Pleas	-11.4748
▁bill	-11.475
▁grid	-11.4751
▁organize	-11.4754
▁stranger	-11.4755
▁appropriate	-11.4758
▁dress	-11.4772
▁prototype	-11.4787
ra	-11.4798
▁plus	-11.4814
▁Street	-11.4814
▁electrical	-11.4831
▁king	-11.4838
▁harm	-11.4843
▁broke	-11.4866
▁la	-11.4871
▁NASA	-11.488
▁School	-11.488
▁length	-11.488
▁balloon	-11.488
▁filter	-11.488
▁abuse	-11.4884
▁Brita	-11.489
▁participate	-11.489
it	-11.4892
men	-11.4906
▁pure	-11.4932
▁surgeon	-11.4947
te	-11.4949
▁La	-11.4955
▁south	-11.4956
▁Day	-11.4963
erson	-11.4979
▁arrive	-11.4986
▁flag	-11.4997
▁grass	-11.4998
▁review	-11.5
▁heads	-11.5001
▁Israel	-11.5007
▁solid	-11.5012
▁encounter	-11.5013
▁client	-11.5013
▁incentive	-11.5013
▁sweet	-11.5013
▁capabilit	-11.5014
▁flat	-11.5014
▁comfort	-11.5038
▁fellow	-11.5077
▁Congress	-11.5081
▁illegal	-11.5081
▁pump	-11.5081
▁nose	-11.5082
▁gentlem	-11.5083
▁Francisc	-11.5089
▁Ju	-11.5089
▁obes	-11.511
▁fat	-11.5121
▁former	-11.513
▁style	-11.5135
▁Human	-11.5139
▁facilit	-11.514
ie	-11.5141
▁habitat	-11.5143
▁rocket	-11.5149
▁grain	-11.5152
▁prediction	-11.5153
▁programm	-11.5164
▁spring	-11.5171
▁rat	-11.5173
▁violent	-11.5205
▁Nigeria	-11.5207
▁relate	-11.521
▁librar	-11.5217
▁vulnerabl	-11.5218
▁technological	-11.5218
▁physicist	-11.5218
▁musician	-11.5222
▁ideal	-11.5225
▁pig	-11.5225
▁ride	-11.5227
▁season	-11.5237
g	-11.5258
▁Bos	-11.5276
▁cup	-11.5279
▁attach	-11.5283
▁tie	-11.5284
▁Since	-11.5286
▁conclusion	-11.5286
▁hotel	-11.5287
▁videos	-11.5289
▁statement	-11.5291
▁comment	-11.5295
fish	-11.5316
▁tall	-11.5331
▁lady	-11.5331
▁reform	-11.5338
▁chart	-11.5355
▁steel	-11.5356
▁firm	-11.5356
▁panel	-11.5356
▁explanation	-11.5356
▁Wow	-11.5356
▁church	-11.5357
▁sensitive	-11.536
▁calling	-11.5364
▁status	-11.5369
▁contribute	-11.5376
ley	-11.5401
▁conduct	-11.5411
▁Am	-11.5415
▁orbit	-11.5425
▁circumstance	-11.5426
▁regard	-11.5426
▁definite	-11.5426
▁label	-11.5427
▁fruit	-11.5428
▁passionate	-11.5429
▁presentation	-11.5429
▁arts	-11.543
▁director	-11.5436
▁bare	-11.5441
▁battle	-11.5476
▁worri	-11.5478
▁challeng	-11.5484
▁react	-11.5486
▁soft	-11.5493
▁efficienc	-11.5496
▁Chicago	-11.5496
▁jail	-11.5496
▁assumption	-11.5497
▁pleasure	-11.5499
▁phrase	-11.5502
▁rational	-11.5508
▁homes	-11.5517
▁coal	-11.5527
▁cave	-11.5551
▁empath	-11.5556
▁danger	-11.5567
▁penguin	-11.5567
▁teeth	-11.5567
▁molecular	-11.5567
▁BG	-11.5568
▁valuable	-11.5568
▁Anyway	-11.557
▁Yet	-11.5572
▁extract	-11.5573
▁monitor	-11.5596
▁scan	-11.5629
▁Per	-11.5631
▁comput	-11.5632
▁forgot	-11.5639
▁spectrum	-11.5639
▁courage	-11.5639
▁entertain	-11.5639
▁tax	-11.5639
▁meaningful	-11.5639
▁staff	-11.5639
▁winter	-11.564
▁infinite	-11.564
▁invit	-11.5646
▁historical	-11.5651
▁categor	-11.5678
ware	-11.5679
▁primar	-11.568
▁chimpanzee	-11.5711
▁teenager	-11.5712
▁sheet	-11.5714
▁Sam	-11.5734
f	-11.5763
▁kitchen	-11.5783
▁mosquito	-11.5783
▁Four	-11.5783
▁Institute	-11.5783
▁Bank	-11.5783
▁grant	-11.5785
▁habit	-11.5789
▁beach	-11.5791
▁trend	-11.5801
ta	-11.5844
▁inform	-11.5845
▁height	-11.5852
▁gravit	-11.5852
▁instant	-11.5856
▁harvest	-11.5856
▁sculpture	-11.5856
▁radiation	-11.5856
▁Angel	-11.5857
▁ignore	-11.5861
▁kick	-11.5864
the	-11.5868
▁Ne	-11.588
▁GP	-11.5883
▁Canad	-11.5891
▁participat	-11.5917
▁democratic	-11.593
▁unusual	-11.593
▁silence	-11.593
▁clever	-11.593
▁biologist	-11.593
▁host	-11.593
fore	-11.5935
▁embrace	-11.5936
ture	-11.5939
▁dirt	-11.5943
▁horse	-11.5962
up	-11.5966
▁describ	-11.5969
▁Real	-11.5978
▁tape	-11.598
▁pen	-11.598
▁appreciate	-11.599
▁graphic	-11.5992
▁grab	-11.6001
▁academic	-11.6003
▁arrest	-11.6004
▁fiber	-11.6004
▁input	-11.6004
▁department	-11.6004
▁automatic	-11.6007
▁prime	-11.6007
▁productive	-11.6008
▁awesome	-11.6013
▁boundar	-11.6023
▁rescue	-11.6031
▁happi	-11.6058
▁flie	-11.6068
▁finance	-11.6073
▁severe	-11.6074
▁contract	-11.6075
▁YouTube	-11.6078
▁intervention	-11.6078
▁fake	-11.6078
▁variation	-11.6078
▁Park	-11.6079
▁pilot	-11.608
▁horribl	-11.6086
▁mountains	-11.6089
▁shoot	-11.6107
▁Steve	-11.6123
b	-11.6124
▁band	-11.6133
▁iron	-11.6152
▁liquid	-11.6153
▁sophisticate	-11.6153
▁hydrogen	-11.6153
▁innovative	-11.6153
▁password	-11.6153
▁loan	-11.6154
▁collaboration	-11.6154
▁attitude	-11.6155
▁bias	-11.6156
▁dense	-11.6161
▁confiden	-11.6166
▁prepared	-11.6179
▁arriv	-11.6184
▁shame	-11.6185
▁entrepreneurs	-11.6186
▁assembl	-11.6193
▁earn	-11.6195
▁tag	-11.622
▁cent	-11.6228
▁Michael	-11.6229
▁apartment	-11.6231
▁physician	-11.6231
▁origin	-11.6234
▁loop	-11.6234
▁reverse	-11.6238
▁visibl	-11.6239
▁mad	-11.6243
▁charit	-11.6291
▁France	-11.6299
▁Dan	-11.6302
▁establish	-11.6305
▁iPhone	-11.6306
▁phase	-11.6306
▁relevant	-11.6306
▁implication	-11.6306
▁nerve	-11.6308
▁generat	-11.6308
▁bike	-11.6311
destruction	-11.6314
▁studio	-11.6331
▁repeat	-11.6342
H	-11.635
▁breathe	-11.6372
▁handle	-11.6375
▁priva	-11.6379
▁analog	-11.6382
▁fortunate	-11.6382
▁prize	-11.6383
▁framework	-11.6383
▁reference	-11.6383
▁observation	-11.6383
▁predator	-11.6383
▁bin	-11.6384
▁inevitabl	-11.6385
▁agent	-11.6387
▁zoom	-11.6389
▁sphere	-11.6391
▁symmetr	-11.6414
ber	-11.6421
▁divers	-11.6431
▁emerge	-11.6436
way	-11.6437
▁inspiration	-11.6442
▁illusion	-11.646
▁ingredient	-11.646
▁permanent	-11.646
▁repair	-11.646
▁Valle	-11.6461
▁loud	-11.6462
▁angle	-11.6464
▁Wom	-11.6467
▁Charles	-11.6469
▁decline	-11.6479
▁hat	-11.6481
▁thanks	-11.6502
▁hous	-11.6512
▁II	-11.6517
▁dogs	-11.6517
ise	-11.6518
▁swim	-11.6521
▁hunt	-11.6527
▁Science	-11.6538
▁psychological	-11.6538
▁drill	-11.6539
W	-11.6544
ng	-11.6546
E	-11.6546
ter	-11.6559
▁eggs	-11.6568
▁State	-11.6575
▁celebrate	-11.6599
▁mechanical	-11.6602
▁Darwin	-11.6606
▁Russia	-11.6607
▁terroris	-11.6613
rtex	-11.6615
▁concrete	-11.6617
▁silk	-11.6617
▁antibiotic	-11.6617
▁hang	-11.6636
▁da	-11.6668
▁sight	-11.6673
▁Pakistan	-11.669
ant	-11.6694
▁false	-11.6696
▁fiction	-11.6696
▁improvement	-11.6698
▁infection	-11.6698
▁myster	-11.6699
▁dis	-11.6703
▁license	-11.6706
▁explor	-11.6709
▁alien	-11.6716
▁fan	-11.6718
▁Ten	-11.6725
▁meal	-11.6751
▁Whil	-11.6753
▁hire	-11.6757
▁suck	-11.6764
▁frequenc	-11.6776
▁icon	-11.6776
▁unknown	-11.6777
▁afternoon	-11.6777
▁script	-11.678
▁activist	-11.6781
▁demonstrate	-11.6788
▁printing	-11.6789
▁myth	-11.6807
▁clock	-11.6816
▁nest	-11.6825
▁dropp	-11.6834
▁musical	-11.6848
▁grandfather	-11.6857
▁Talk	-11.6857
▁exploration	-11.6858
▁pour	-11.6863
▁swimm	-11.6863
▁apparent	-11.6864
▁internal	-11.6865
▁fle	-11.6871
▁committ	-11.6873
▁court	-11.6875
▁microscope	-11.6878
▁sports	-11.6889
▁tip	-11.6903
▁storm	-11.6907
▁scared	-11.6918
▁tank	-11.6921
▁conservation	-11.6938
▁CEO	-11.6938
▁intense	-11.6938
▁resolution	-11.6938
▁Project	-11.6939
▁Bang	-11.694
▁expectation	-11.6942
▁Paris	-11.6946
▁officer	-11.695
▁deserve	-11.6974
▁prisoner	-11.6978
▁pro	-11.6979
ial	-11.6988
▁weak	-11.6993
▁employ	-11.7006
▁split	-11.7013
▁hack	-11.7015
▁shut	-11.702
▁advice	-11.702
▁pile	-11.702
▁characteristic	-11.7021
▁angr	-11.7021
▁wound	-11.7022
▁Five	-11.7025
▁percentage	-11.7026
▁V	-11.7032
ttle	-11.7043
▁escape	-11.7054
llo	-11.7057
▁Give	-11.7066
▁recording	-11.7067
▁partners	-11.7069
▁weigh	-11.7082
▁figur	-11.709
▁wine	-11.7096
▁lecture	-11.7099
▁spider	-11.7103
▁cluster	-11.7103
▁psycholog	-11.7103
▁drone	-11.7103
▁shadow	-11.7104
▁exhibition	-11.7104
▁telephone	-11.7108
am	-11.7109
▁emergenc	-11.7112
▁route	-11.7126
ging	-11.7132
▁theme	-11.7136
▁Me	-11.7136
▁toxic	-11.7139
▁manager	-11.7143
▁counter	-11.7163
▁Will	-11.7164
▁consume	-11.7177
▁select	-11.7185
▁paradigm	-11.7186
▁bond	-11.719
▁clothes	-11.7192
ize	-11.7194
▁behave	-11.7214
▁nor	-11.7222
▁Turk	-11.7225
I	-11.7232
▁associat	-11.7245
▁protest	-11.7251
▁Stan	-11.7259
▁hall	-11.7262
▁September	-11.727
▁depth	-11.727
▁implement	-11.727
▁chapter	-11.727
nfortunate	-11.727
▁contrast	-11.727
▁greenhouse	-11.727
▁download	-11.7271
▁wireless	-11.7271
▁selection	-11.7272
▁Adam	-11.7272
▁upper	-11.7278
▁Ph	-11.728
axis	-11.7287
▁Boy	-11.7293
▁lad	-11.7323
▁abstract	-11.7353
▁install	-11.7355
▁Pacific	-11.7355
▁portrait	-11.7355
▁boring	-11.7355
▁Health	-11.7355
▁revenue	-11.7355
▁discipline	-11.7355
▁desk	-11.7357
▁presence	-11.736
truck	-11.7361
so	-11.7361
▁busy	-11.7376
▁bits	-11.7388
▁apple	-11.739
▁item	-11.7398
▁pitch	-11.7401
▁May	-11.7402
▁Re	-11.7423
com	-11.7432
▁obsess	-11.7439
▁club	-11.7439
▁snow	-11.744
▁Number	-11.744
▁elder	-11.7441
▁commitment	-11.7441
▁instruction	-11.7442
▁rush	-11.7444
▁vertical	-11.7446
▁House	-11.7449
▁secure	-11.7454
em	-11.746
▁heal	-11.7467
▁tri	-11.7505
▁exten	-11.751
▁suppose	-11.751
▁burning	-11.7521
▁Egypt	-11.7526
▁Wikipedia	-11.7527
▁overall	-11.7528
▁bicycle	-11.7528
▁Final	-11.7532
▁motivation	-11.7532
▁tap	-11.7533
▁personalit	-11.7549
▁El	-11.7552
▁clos	-11.7553
what	-11.7556
▁Tom	-11.7559
▁cord	-11.7591
dom	-11.7594
▁citizen	-11.7606
▁Nation	-11.7613
▁humor	-11.7614
▁parallel	-11.7617
▁pool	-11.7618
▁Mary	-11.7624
▁exception	-11.7642
▁Fe	-11.7677
F	-11.7684
▁marine	-11.7697
▁frank	-11.7701
emember	-11.7702
▁Basic	-11.7702
▁densit	-11.7702
▁White	-11.7705
▁birthday	-11.7707
▁Global	-11.771
▁tour	-11.7717
▁na	-11.7722
▁Ca	-11.7734
▁mice	-11.7744
bel	-11.7752
▁witness	-11.7753
▁Ah	-11.7768
▁danc	-11.7772
▁knee	-11.7778
▁manag	-11.7782
▁admit	-11.779
▁Apple	-11.7791
▁Obama	-11.7791
ham	-11.7819
▁capitalis	-11.7819
▁logic	-11.786
▁wash	-11.7874
▁hormone	-11.7879
▁Museum	-11.7879
▁database	-11.7879
▁psychologist	-11.7879
▁lifestyle	-11.7879
▁acid	-11.7883
▁milk	-11.7885
lf	-11.7888
▁file	-11.7894
▁calculate	-11.7897
▁feeding	-11.7897
B	-11.7898
▁imagin	-11.79
▁educational	-11.7903
▁photographer	-11.7921
ent	-11.7949
work	-11.7956
▁Jim	-11.7965
▁Islam	-11.7965
▁confront	-11.7968
▁trigger	-11.7969
▁exponential	-11.7969
▁mathematician	-11.797
▁gut	-11.7974
▁Abou	-11.7978
▁seal	-11.799
▁afterward	-11.7992
▁favor	-11.7999
▁sides	-11.801
▁prefer	-11.8011
▁reduc	-11.8016
▁backward	-11.8018
ground	-11.8033
▁perceive	-11.8045
▁defense	-11.806
▁diagram	-11.806
▁piano	-11.806
▁identical	-11.806
▁flood	-11.806
▁Robert	-11.8061
▁cheat	-11.8065
▁raw	-11.8069
▁rely	-11.809
▁blog	-11.8092
▁immun	-11.8093
▁roads	-11.8096
rew	-11.8117
▁guide	-11.8117
▁fascinat	-11.8123
L	-11.8127
▁stretch	-11.8128
▁Le	-11.8137
▁cloth	-11.815
▁Christmas	-11.8152
▁barrier	-11.8152
▁scenario	-11.8152
▁Congo	-11.8152
▁unexpected	-11.8152
▁plent	-11.8152
▁animation	-11.8152
▁hook	-11.8153
▁shirt	-11.8154
▁narrow	-11.8157
▁aim	-11.8176
▁rocks	-11.8179
▁Age	-11.821
▁ears	-11.8218
▁philosoph	-11.8233
▁ritual	-11.8244
▁Antarctic	-11.8244
▁corporate	-11.8244
▁fifth	-11.8244
▁footprint	-11.8244
▁globe	-11.8244
▁fluid	-11.8244
▁judgment	-11.8244
▁renewable	-11.8245
▁Never	-11.8246
▁quit	-11.825
▁improv	-11.8276
▁steal	-11.8337
▁session	-11.8338
▁January	-11.8338
▁exploit	-11.8338
▁genius	-11.8338
▁shall	-11.8338
▁continuous	-11.8338
▁desperate	-11.8339
surance	-11.8363
▁bee	-11.839
co	-11.8397
▁flip	-11.841
▁Del	-11.8413
▁reserve	-11.842
▁struggl	-11.8424
▁spiritual	-11.8426
▁recogni	-11.843
▁Latin	-11.8431
▁compound	-11.8432
▁grateful	-11.8432
▁medication	-11.8432
▁minister	-11.8432
▁intend	-11.8433
▁lion	-11.8434
▁Get	-11.8447
▁author	-11.8451
▁cable	-11.8452
▁tea	-11.8484
▁rap	-11.8488
▁bio	-11.849
▁evening	-11.8491
ana	-11.8501
▁introduc	-11.8505
▁cow	-11.8523
▁suspect	-11.8527
▁engagement	-11.8529
▁associate	-11.8555
▁poster	-11.8557
ol	-11.8568
▁anger	-11.857
▁plot	-11.857
▁Part	-11.8581
▁accelerat	-11.8583
▁Red	-11.8586
▁expos	-11.8587
▁promote	-11.8592
▁beside	-11.8599
▁fabric	-11.8608
▁ex	-11.8612
▁conclude	-11.8613
▁Korea	-11.8613
▁intention	-11.8617
▁painful	-11.8624
▁asset	-11.863
▁proof	-11.8632
▁Sahara	-11.8648
▁wars	-11.8663
▁wise	-11.8702
▁notic	-11.8707
Something	-11.8711
p	-11.872
▁Next	-11.8721
▁strike	-11.8721
▁raising	-11.8721
▁senior	-11.8721
▁vital	-11.8721
▁lake	-11.8721
▁ticket	-11.8721
▁Greek	-11.8721
▁overcome	-11.8721
▁interactive	-11.8722
▁heaven	-11.8723
▁crucial	-11.8725
▁Free	-11.8725
▁Holly	-11.873
hi	-11.8738
▁smoke	-11.8745
▁shell	-11.8753
▁Ma	-11.8765
▁Star	-11.8767
▁behavioral	-11.8772
▁trace	-11.8773
▁killer	-11.8775
▁classic	-11.8775
▁pill	-11.8808
▁bug	-11.8817
▁drove	-11.8819
▁silent	-11.8819
▁boss	-11.8819
▁agenda	-11.8819
▁River	-11.8821
▁salt	-11.8821
▁Centr	-11.8823
▁Tell	-11.8823
▁educate	-11.8829
▁gray	-11.8837
▁conventional	-11.8838
▁Joe	-11.8838
▁oppos	-11.8841
▁pregnan	-11.8844
io	-11.8871
▁shooting	-11.8875
▁Arm	-11.8875
▁elect	-11.8886
▁gang	-11.8889
right	-11.8893
▁analyze	-11.8902
▁Jun	-11.8903
▁stepp	-11.8903
▁accomplish	-11.8917
▁Voice	-11.8918
▁shelter	-11.8918
▁traged	-11.8918
▁trait	-11.8918
▁elite	-11.8918
▁prosper	-11.8918
▁Gulf	-11.8918
▁polio	-11.8918
▁laser	-11.8918
▁hunger	-11.8919
▁tired	-11.8921
▁Space	-11.8923
▁dust	-11.8923
▁philosopher	-11.893
rising	-11.8934
while	-11.896
▁smok	-11.897
▁welcome	-11.8971
▁US	-11.8975
city	-11.8975
▁tune	-11.8977
▁ignoran	-11.8985
▁domestic	-11.899
▁advertis	-11.8992
▁m	-11.9004
▁inter	-11.9012
▁ear	-11.9013
▁mate	-11.9013
▁rhythm	-11.9016
▁regime	-11.9017
▁knock	-11.9018
▁Microsoft	-11.9018
▁earthquake	-11.9018
▁Foundation	-11.9018
ification	-11.9018
▁objective	-11.9025
▁consistent	-11.9027
▁releas	-11.903
▁functional	-11.903
▁bend	-11.9033
oxide	-11.906
▁Pe	-11.9066
na	-11.9074
▁meme	-11.9074
hip	-11.9091
▁transfer	-11.9102
▁boom	-11.9105
▁windows	-11.9105
▁Frank	-11.911
▁illustrate	-11.9111
▁argu	-11.9113
▁march	-11.9116
▁transplant	-11.9118
▁guarantee	-11.9119
▁implant	-11.9119
▁miracle	-11.9119
▁obstacle	-11.9119
▁leap	-11.9119
▁chocolate	-11.9119
▁disabilit	-11.9119
▁identifie	-11.912
▁electron	-11.9121
▁golf	-11.9125
▁liver	-11.9147
▁ten	-11.9149
▁wage	-11.915
▁recycl	-11.9156
▁authentic	-11.9191
▁clouds	-11.92
▁breed	-11.9204
▁curiosit	-11.9221
▁terrifi	-11.9221
▁stack	-11.9221
▁Revolution	-11.9221
▁household	-11.9221
▁embedded	-11.9223
▁suicide	-11.9224
▁till	-11.9225
▁tube	-11.9229
▁mere	-11.9233
▁stroke	-11.9237
▁Nothing	-11.9239
▁printer	-11.9244
town	-11.9247
▁reported	-11.9266
▁cute	-11.9299
▁falls	-11.9301
▁achiev	-11.9308
▁murder	-11.9313
▁edit	-11.9322
▁column	-11.9324
▁Higgs	-11.9324
▁International	-11.9324
▁Texa	-11.9324
▁domain	-11.9324
▁passenger	-11.9324
▁productivit	-11.9324
▁thumb	-11.9324
▁Bush	-11.9324
▁optimistic	-11.9324
▁regulation	-11.9324
▁magnetic	-11.9325
▁Islamic	-11.9325
▁Peter	-11.9325
▁Pole	-11.9328
▁coin	-11.9329
▁darkness	-11.933
▁sail	-11.933
▁Dad	-11.9334
▁announc	-11.9341
▁Dur	-11.9341
▁orange	-11.9342
▁experienc	-11.9346
▁puts	-11.9347
▁hungr	-11.9351
▁observ	-11.9363
▁St	-11.9367
▁Air	-11.938
▁reduction	-11.9384
▁lens	-11.9404
U	-11.9416
▁shake	-11.9423
▁deploy	-11.9427
▁recruit	-11.9428
▁Manhattan	-11.9428
▁asteroid	-11.9428
▁debt	-11.9428
▁pretend	-11.9428
▁NGO	-11.9428
▁confuse	-11.9428
▁appeal	-11.9428
▁procedure	-11.943
▁tower	-11.9432
▁Was	-11.9436
▁frog	-11.9448
ha	-11.9454
life	-11.9456
▁integrat	-11.9477
▁observe	-11.9479
▁absorb	-11.9479
go	-11.9481
kind	-11.9484
▁propose	-11.9495
▁Martin	-11.9524
▁excite	-11.9527
▁pray	-11.9527
▁capita	-11.953
▁reject	-11.9532
▁clue	-11.9533
▁abandon	-11.9533
▁ceiling	-11.9533
▁participant	-11.9533
▁vegetable	-11.9533
▁federal	-11.9533
▁General	-11.9533
▁corporation	-11.9533
▁description	-11.9533
▁cyber	-11.9533
▁donor	-11.9534
▁simulation	-11.9534
ndeed	-11.9535
▁needle	-11.9537
▁urge	-11.9562
▁unbelievabl	-11.9564
▁Thing	-11.958
▁tuna	-11.9617
to	-11.9623
gen	-11.9631
▁distant	-11.964
▁district	-11.964
▁request	-11.964
▁scratch	-11.964
▁partnership	-11.964
▁tight	-11.964
▁leak	-11.964
▁representation	-11.9643
▁sales	-11.9644
▁ill	-11.9644
▁guard	-11.9645
▁Scott	-11.9651
▁Russian	-11.9653
▁youth	-11.9653
▁boxe	-11.9669
▁Ben	-11.9684
ri	-11.9696
▁laughing	-11.9727
▁complain	-11.9727
▁confident	-11.9731
▁pollut	-11.9739
▁extinct	-11.9746
▁Ghana	-11.9746
▁bulb	-11.9747
▁candidate	-11.9747
▁chief	-11.9747
▁intuitive	-11.9747
▁Narrat	-11.9747
▁demographic	-11.9747
▁blame	-11.9752
▁upset	-11.9753
▁headline	-11.9753
children	-11.976
▁command	-11.9769
▁Ba	-11.9771
gun	-11.9773
▁attend	-11.9777
▁priorit	-11.979
▁com	-11.9792
il	-11.9806
▁nei	-11.981
▁comic	-11.9811
▁melt	-11.9813
▁refer	-11.9823
:	-11.984
▁Department	-11.9856
▁furniture	-11.9856
▁mushroom	-11.9856
▁skull	-11.9856
▁ridiculous	-11.9856
▁surveill	-11.9856
pox	-11.9856
▁textbook	-11.9856
▁airport	-11.9856
▁conservative	-11.9857
▁probabilit	-11.9858
▁dignit	-11.9858
▁rebuild	-11.9859
▁anxiet	-11.9859
▁Mark	-11.9861
▁adventure	-11.9863
▁inspiring	-11.9865
upon	-11.9865
▁Bot	-11.9869
▁Christian	-11.9874
▁mechanic	-11.9876
▁shipp	-11.9883
▁subtle	-11.9903
▁regret	-11.9918
▁hip	-11.9924
▁Up	-11.9934
▁inch	-11.9936
▁indicate	-11.9938
▁educat	-11.9957
▁Act	-11.996
▁liberal	-11.996
▁Black	-11.9966
▁mutation	-11.9966
▁uncomfortabl	-11.9966
▁legac	-11.9966
▁spectacular	-11.9966
▁alter	-11.9973
▁gesture	-11.9973
▁chest	-11.9975
▁Make	-11.9976
▁ugl	-11.998
▁node	-11.9991
▁isolat	-11.9998
▁pace	-12.0001
▁profile	-12.0013
▁ethical	-12.0025
▁brown	-12.0027
▁banks	-12.0032
G	-12.0034
▁classe	-12.0037
ee	-12.0041
dependent	-12.0059
▁advanc	-12.0063
id	-12.0066
▁slum	-12.0074
▁diabet	-12.0076
▁utter	-12.0077
▁fragil	-12.0077
▁disgust	-12.0077
▁cousin	-12.0077
▁Olympic	-12.0077
▁mold	-12.0077
▁demonstration	-12.0077
▁sheep	-12.0078
▁cash	-12.0079
▁autonomous	-12.008
▁flexibl	-12.0089
▁recogniz	-12.0093
▁external	-12.0099
▁thick	-12.012
▁fisher	-12.0136
hood	-12.0145
▁dedicat	-12.0156
▁linear	-12.0156
▁Lu	-12.0166
▁flash	-12.0167
▁accessibl	-12.0183
▁Mom	-12.0186
▁Haiti	-12.0189
▁pyramid	-12.0189
▁strand	-12.0189
▁guilt	-12.0189
▁Back	-12.019
▁skeleton	-12.019
▁Rio	-12.019
▁extinction	-12.0191
▁limitation	-12.0191
▁worm	-12.0208
ka	-12.0214
ilit	-12.0215
▁mal	-12.0244
▁stands	-12.0265
▁borrow	-12.029
▁Co	-12.0301
▁yield	-12.0303
▁gradual	-12.0303
▁naked	-12.0303
▁initiative	-12.0303
▁systematic	-12.0303
▁DH	-12.0304
▁array	-12.0304
▁nutrient	-12.0305
▁compell	-12.0305
▁cast	-12.031
▁magical	-12.0338
▁slides	-12.0339
▁polar	-12.034
▁thin	-12.0341
et	-12.0341
▁pose	-12.0361
▁mark	-12.0369
▁dive	-12.0376
ir	-12.0376
▁Wall	-12.0378
▁motivate	-12.0378
ate	-12.0381
▁inventor	-12.0391
▁Ox	-12.0396
▁transparen	-12.0398
▁Ocean	-12.0418
▁dominant	-12.0418
▁freak	-12.0418
▁helicopter	-12.0418
▁spill	-12.0418
▁synthetic	-12.0418
▁pink	-12.0419
▁Blue	-12.0419
▁uncle	-12.0419
▁calculation	-12.0419
▁resolve	-12.0421
ong	-12.0421
▁measurement	-12.0422
▁Lab	-12.0437
▁transparent	-12.0438
▁activate	-12.0438
ac	-12.0444
▁Lin	-12.0455
▁carrie	-12.0468
▁resist	-12.0526
▁ultra	-12.0534
▁output	-12.0534
▁rainforest	-12.0534
▁chao	-12.0534
▁frighten	-12.0535
▁romantic	-12.0535
▁achievement	-12.0537
▁None	-12.0554
uch	-12.0555
▁br	-12.0567
▁hanging	-12.0597
▁Atlant	-12.061
▁surrounding	-12.0627
nda	-12.0631
▁bound	-12.0633
ors	-12.0636
▁combin	-12.0638
▁destin	-12.0651
▁Octo	-12.0651
▁essence	-12.0652
▁northern	-12.0652
▁neural	-12.0652
▁gear	-12.0652
▁neuroscience	-12.0652
▁punch	-12.0653
▁leverage	-12.0653
▁bump	-12.0656
▁rent	-12.0656
▁laid	-12.0656
▁intuition	-12.0658
▁investor	-12.0664
▁faci	-12.067
▁projection	-12.0677
▁realm	-12.0679
▁norm	-12.0681
laughter	-12.0686
▁hearts	-12.0688
▁ensure	-12.0691
BI	-12.0727
▁ta	-12.0734
▁polic	-12.0734
ated	-12.0734
▁dig	-12.0745
▁fed	-12.0745
▁connectiv	-12.0755
▁football	-12.0755
▁defend	-12.0758
▁entrepreneur	-12.076
▁Uganda	-12.0771
▁breakthrough	-12.0771
▁smooth	-12.0771
▁shrimp	-12.0771
▁Bible	-12.0771
heimer	-12.0772
▁basket	-12.0773
▁survivor	-12.0777
▁twist	-12.0777
▁digit	-12.0778
▁mail	-12.0783
▁Mother	-12.0792
▁additional	-12.0807
▁corn	-12.0808
ile	-12.0821
▁Swede	-12.0826
cellular	-12.0827
▁remov	-12.0855
▁brave	-12.0866
▁Law	-12.0868
▁hid	-12.0869
▁sweat	-12.0886
▁fulfill	-12.0891
▁reputation	-12.0891
▁biodivers	-12.0891
▁civic	-12.0891
▁tragic	-12.0891
▁Nature	-12.0891
▁aircraft	-12.0891
▁permission	-12.0891
▁Jewish	-12.0892
▁contribution	-12.0893
▁glacier	-12.0893
▁mood	-12.0893
▁Girl	-12.0893
▁lane	-12.0893
▁combat	-12.0896
▁simpli	-12.0896
▁algae	-12.0898
▁marker	-12.0903
M	-12.0904
ably	-12.0911
▁sharp	-12.0913
stone	-12.0916
▁agricultural	-12.092
▁ski	-12.0923
▁Time	-12.0933
▁repeated	-12.0955
▁pursue	-12.0963
▁st	-12.0968
▁slaver	-12.097
▁pipe	-12.0986
▁concert	-12.101
▁trajector	-12.1013
▁explosion	-12.1013
▁recipe	-12.1013
▁spell	-12.1013
▁east	-12.1013
▁routine	-12.1013
▁comparison	-12.1013
▁tunnel	-12.1013
▁Third	-12.1013
▁baseball	-12.1013
▁dump	-12.1014
▁concentration	-12.1014
▁Long	-12.1014
▁dear	-12.1014
▁queen	-12.1015
▁fortune	-12.1017
▁attractive	-12.1017
▁convey	-12.1017
▁highlight	-12.1017
▁scann	-12.1023
over	-12.1024
▁restore	-12.1028
▁Child	-12.1029
▁relations	-12.103
▁experimental	-12.1033
▁warning	-12.1035
▁shopp	-12.105
▁branch	-12.1053
▁doors	-12.1064
ice	-12.1065
▁rating	-12.1095
▁rape	-12.1103
▁trends	-12.1105
▁neutral	-12.1137
▁Prince	-12.1137
▁Soviet	-12.1137
▁Vietnam	-12.1137
▁robust	-12.1137
▁substance	-12.1137
▁confirm	-12.1137
▁unclear	-12.1137
▁Egyptian	-12.1138
▁tackle	-12.1138
▁sacred	-12.114
▁southern	-12.1146
▁beer	-12.1149
▁replicate	-12.1169
house	-12.1204
▁hill	-12.1206
▁failing	-12.1208
▁journal	-12.1213
▁pet	-12.1219
▁theori	-12.1226
▁vot	-12.1226
▁coat	-12.1232
▁bat	-12.1244
▁owner	-12.125
esis	-12.1254
▁High	-12.1256
▁pandemic	-12.1262
▁fraction	-12.1262
▁fragment	-12.1262
▁rope	-12.1263
▁portion	-12.1263
▁adjust	-12.1263
▁reactor	-12.1264
▁winner	-12.1264
▁tension	-12.1265
▁Ab	-12.1266
▁min	-12.128
▁pointed	-12.1284
▁package	-12.129
▁crossing	-12.1296
▁Ed	-12.13
▁depress	-12.1342
▁distribut	-12.1364
▁strip	-12.1374
▁Rwanda	-12.1378
▁Ethiopia	-12.1378
▁dish	-12.1379
▁tweet	-12.1388
▁Through	-12.1388
▁resident	-12.1388
▁stole	-12.1388
▁boil	-12.1388
▁burie	-12.1388
▁vagina	-12.1389
▁Out	-12.1389
▁sink	-12.1389
▁imag	-12.139
▁soap	-12.1394
▁Should	-12.1395
ied	-12.1395
uthern	-12.1397
▁MRI	-12.1399
ure	-12.1417
▁slice	-12.1421
▁pot	-12.1423
▁Span	-12.1423
▁decrease	-12.1432
ches	-12.1439
▁ink	-12.1441
ni	-12.1471
▁highway	-12.1471
▁dat	-12.1473
▁Ital	-12.1473
▁plain	-12.1495
▁consum	-12.15
▁preserve	-12.1502
▁interpret	-12.1506
▁relax	-12.1516
▁chromosome	-12.1516
▁structural	-12.1516
▁neat	-12.1516
▁excuse	-12.1516
▁frequent	-12.1516
▁transmission	-12.1516
▁marry	-12.1516
▁simultaneous	-12.1516
▁Obvious	-12.1516
▁Prize	-12.1516
▁signature	-12.1517
▁galler	-12.1517
▁passive	-12.1517
▁installation	-12.1517
▁tricks	-12.1518
▁pathway	-12.1519
▁competitive	-12.1519
▁Eastern	-12.152
▁Six	-12.1522
▁helpful	-12.1523
ocin	-12.1524
▁bother	-12.1526
▁van	-12.1529
▁believ	-12.1536
▁anonymous	-12.1537
▁format	-12.1538
▁sacrifice	-12.1541
col	-12.1545
▁twin	-12.155
▁Spa	-12.1571
▁makers	-12.1573
▁addict	-12.1575
▁tribes	-12.1584
▁Put	-12.1588
▁determined	-12.159
▁custom	-12.1596
▁contribut	-12.1602
▁Bay	-12.1606
▁profession	-12.1615
hildren	-12.1624
▁navigate	-12.1625
▁computation	-12.1636
▁ratio	-12.1636
▁dictionar	-12.1645
▁insist	-12.1645
▁Florid	-12.1646
▁glad	-12.1646
▁pioneer	-12.1646
▁aesthetic	-12.1646
▁bathroom	-12.1646
▁inherent	-12.1646
▁origami	-12.1646
▁expedition	-12.1646
▁wheelchair	-12.1646
▁Virgin	-12.1646
▁pause	-12.1646
▁collaborative	-12.1646
▁translation	-12.1647
▁variable	-12.1647
▁sill	-12.1648
▁magnet	-12.1648
rice	-12.165
▁serving	-12.1652
▁Dece	-12.1654
▁wings	-12.1656
▁astonishing	-12.1661
▁Sure	-12.1661
▁Gates	-12.1666
▁pole	-12.167
pit	-12.1671
▁proportion	-12.1681
▁mode	-12.1688
▁acknowledge	-12.1689
▁tribe	-12.1711
clock	-12.172
▁Love	-12.1727
ball	-12.1729
PR	-12.173
aging	-12.1735
▁compete	-12.1739
▁underly	-12.1746
▁port	-12.1748
ua	-12.1762
▁bullet	-12.1776
▁Bob	-12.1777
▁Smith	-12.1778
▁currenc	-12.1778
▁garage	-12.1778
▁frustrate	-12.1778
▁mask	-12.1778
▁dialogue	-12.1778
▁mysterious	-12.1778
▁primitive	-12.1778
▁tendenc	-12.1778
▁peaceful	-12.1779
rctic	-12.1779
▁lethal	-12.1779
▁editor	-12.178
▁athlete	-12.178
▁agreement	-12.1781
▁traffick	-12.1787
▁Israeli	-12.179
▁manual	-12.1794
▁Count	-12.1814
held	-12.1815
▁pr	-12.1836
▁sandwich	-12.1843
▁dose	-12.1843
▁cit	-12.1846
dge	-12.186
board	-12.1879
▁Po	-12.1903
▁Video	-12.1911
▁expansion	-12.1911
▁fabulous	-12.1911
▁vacuum	-12.1911
▁smartphone	-12.1911
▁copyright	-12.1912
▁assignment	-12.1912
▁Rome	-12.1912
▁commodit	-12.1912
▁arise	-12.1916
▁constraint	-12.1922
▁preserv	-12.1926
bru	-12.1926
▁distribute	-12.1933
ney	-12.1939
▁li	-12.1951
hand	-12.1958
iness	-12.1966
▁dial	-12.1975
▁Sa	-12.1975
os	-12.1982
▁Moo	-12.1987
▁mat	-12.1987
▁Wi	-12.1992
▁comet	-12.1998
▁kiss	-12.2002
▁gathering	-12.2005
▁Jer	-12.2007
▁entit	-12.2019
▁joint	-12.202
▁choos	-12.2024
▁bow	-12.2041
▁mimic	-12.2042
▁instinct	-12.2046
▁shrink	-12.2046
▁vulnerabilit	-12.2046
▁Court	-12.2046
▁immense	-12.2046
▁threshold	-12.2046
▁valley	-12.2046
▁winning	-12.2047
▁electrode	-12.2047
▁stake	-12.2047
▁Jesu	-12.2047
▁keyboard	-12.2047
▁neck	-12.2048
▁burst	-12.2051
▁scanner	-12.2054
▁native	-12.2056
rs	-12.206
▁bang	-12.2065
▁coordinat	-12.2067
▁Home	-12.2069
▁walks	-12.207
art	-12.207
▁Ho	-12.2107
▁gods	-12.211
▁div	-12.2118
▁diagnos	-12.2124
stage	-12.2126
▁tone	-12.2129
▁handed	-12.213
▁orchestra	-12.2138
▁poison	-12.214
▁mentor	-12.2146
▁KB	-12.2148
▁primari	-12.2152
▁plug	-12.2172
▁alcohol	-12.2182
▁curricul	-12.2183
▁reinvent	-12.2183
▁August	-12.2183
▁genocide	-12.2183
▁drift	-12.2183
▁Democrat	-12.2183
▁jelly	-12.2183
▁Italian	-12.2184
▁kidney	-12.2184
▁impression	-12.2184
▁aggressive	-12.2185
▁campus	-12.2185
▁cliff	-12.2189
ible	-12.221
▁lamp	-12.2213
▁views	-12.2214
▁programmer	-12.2214
▁dancer	-12.2216
▁spark	-12.223
▁Jack	-12.2245
▁opera	-12.2248
▁ending	-12.2274
▁integrate	-12.2288
▁Research	-12.2304
▁occasional	-12.2304
▁wrap	-12.2315
▁recommend	-12.2322
▁Square	-12.2322
▁annual	-12.2322
▁beetle	-12.2322
▁nonprofit	-12.2322
▁Technolog	-12.2322
▁ecological	-12.2322
▁Beij	-12.2322
▁barrel	-12.2322
▁mindset	-12.2323
▁grasp	-12.2323
▁inject	-12.2324
▁pharmaceutical	-12.2328
▁Hill	-12.2331
▁Grand	-12.2332
▁acre	-12.2338
bola	-12.2344
▁pulse	-12.2347
▁hyper	-12.2349
▁gate	-12.2363
▁Yorker	-12.2393
table	-12.2405
▁polici	-12.2431
▁pit	-12.2438
▁manipulate	-12.2453
▁trans	-12.2457
▁vi	-12.2463
▁TEDTalk	-12.2463
▁pride	-12.2463
▁condom	-12.2463
▁ruin	-12.2463
▁weekend	-12.2464
▁shout	-12.2464
▁spray	-12.2467
ious	-12.2469
▁Sunday	-12.2469
▁Sorry	-12.2472
▁analyz	-12.2485
▁woke	-12.2495
▁logical	-12.2496
▁diagnose	-12.2507
▁minim	-12.2513
▁slave	-12.2516
▁nuts	-12.2519
▁terror	-12.2544
vill	-12.2546
▁bats	-12.2548
▁hypothesi	-12.2553
▁sport	-12.2559
▁hackers	-12.2567
▁Dere	-12.2569
▁ha	-12.2584
▁broadcast	-12.2589
den	-12.2591
▁export	-12.2594
▁rivers	-12.2596
▁gase	-12.2602
▁exhibit	-12.2604
▁distinct	-12.2604
▁sensation	-12.2605
▁crawl	-12.2606
▁Brown	-12.2606
▁automobile	-12.2606
▁grandparent	-12.2606
▁intensive	-12.2606
▁microbial	-12.2606
▁gallon	-12.2606
▁marketplace	-12.2607
▁thrill	-12.2607
▁drought	-12.2607
▁interpretation	-12.2607
▁disconnect	-12.2607
▁delight	-12.2607
▁register	-12.2608
▁contemporar	-12.2609
▁quest	-12.261
▁metric	-12.2611
▁oxy	-12.2613
▁paralyz	-12.2614
▁suggestion	-12.2615
▁crew	-12.2615
▁wider	-12.2616
▁blend	-12.2621
▁enabl	-12.2625
▁upside	-12.2635
▁award	-12.2642
at	-12.2659
▁refuse	-12.2683
aday	-12.2693
force	-12.2694
▁egg	-12.2696
▁craft	-12.2706
▁ai	-12.2729
▁Design	-12.2733
▁reliabl	-12.2737
like	-12.2739
▁Lad	-12.2741
▁optimis	-12.2747
▁intersection	-12.275
▁horizon	-12.2751
rofessor	-12.2751
▁luxur	-12.2751
▁burden	-12.2751
▁supermarket	-12.2751
▁approve	-12.2751
▁Northern	-12.2751
▁extension	-12.2751
▁LED	-12.2751
▁representative	-12.2751
▁architectural	-12.2751
▁crush	-12.2751
▁generous	-12.2751
▁troop	-12.2752
▁Unti	-12.2754
▁Open	-12.2754
▁innocent	-12.2755
▁detection	-12.2755
▁selfish	-12.2756
▁fate	-12.2758
▁Eric	-12.2761
▁cake	-12.2762
▁silver	-12.2763
▁creator	-12.2767
▁Sir	-12.277
▁parasite	-12.2779
▁mayor	-12.2785
▁ma	-12.2791
▁tile	-12.2791
▁Kid	-12.2801
▁propos	-12.2809
▁Asian	-12.281
izing	-12.2823
▁pie	-12.2826
ncy	-12.2827
▁Swed	-12.2834
▁producer	-12.2839
▁Ya	-12.2847
▁chas	-12.2851
▁statistical	-12.2853
▁shine	-12.2855
ero	-12.2873
▁reproduce	-12.2876
▁froze	-12.288
▁i	-12.2881
▁attribute	-12.2887
▁Ro	-12.2888
ex	-12.289
▁wrapp	-12.2892
▁supplie	-12.2894
▁audio	-12.2897
▁garbage	-12.2898
▁Silicon	-12.2898
▁bizarre	-12.2898
▁millimeter	-12.2898
▁stunt	-12.2898
▁triangle	-12.2898
▁Church	-12.2898
▁Mountain	-12.2898
▁expectanc	-12.2898
▁antenna	-12.2898
▁compromise	-12.2898
▁duck	-12.2898
▁Republican	-12.2898
▁trash	-12.2898
▁March	-12.29
▁screw	-12.2903
▁palm	-12.2904
▁shore	-12.2915
▁formation	-12.2916
▁bombs	-12.2916
▁caves	-12.292
rway	-12.2924
▁overwhelming	-12.2936
▁metha	-12.2939
▁fanc	-12.2946
▁prepare	-12.2953
ane	-12.2955
▁bucks	-12.2956
▁goat	-12.2957
▁shin	-12.2968
▁washing	-12.2978
▁incident	-12.2992
▁Na	-12.2999
▁Men	-12.3004
▁mobil	-12.3023
▁formula	-12.3025
▁consist	-12.3041
▁fool	-12.3047
▁territor	-12.3047
▁microphone	-12.3047
▁unconscious	-12.3047
▁Lego	-12.3048
▁appearance	-12.3049
▁developer	-12.3051
▁detector	-12.3052
▁clay	-12.3054
▁dumb	-12.3054
▁enterprise	-12.3058
▁homeless	-12.3059
▁occasion	-12.3067
▁par	-12.3068
▁carri	-12.3068
▁guns	-12.3072
▁mapping	-12.3074
▁beating	-12.3077
▁legislati	-12.308
▁Tes	-12.3082
▁quantit	-12.3086
▁tent	-12.312
itarian	-12.3134
ping	-12.3139
ger	-12.3152
led	-12.3161
RB	-12.3164
▁copie	-12.3195
▁exam	-12.3197
▁blank	-12.3199
▁unprecedented	-12.3199
▁Wait	-12.3199
▁compress	-12.3199
▁Minister	-12.3199
▁loving	-12.3199
▁devil	-12.3199
▁primate	-12.3199
▁cheese	-12.32
▁manner	-12.32
▁homework	-12.3201
▁shit	-12.3201
gentleman	-12.3202
▁fence	-12.3203
▁strategic	-12.3204
▁hemisphere	-12.3204
▁compassionate	-12.3206
▁honey	-12.3208
▁mis	-12.3214
▁endless	-12.3217
▁soup	-12.3219
▁advocate	-12.3221
▁determin	-12.3222
▁tongue	-12.3225
▁arrow	-12.3241
▁coach	-12.3251
▁reasonable	-12.3252
istic	-12.3264
▁brutal	-12.3268
▁classical	-12.3278
▁ethic	-12.3281
▁bath	-12.3303
▁Fa	-12.3305
▁damn	-12.3313
▁Fortun	-12.3314
▁Gene	-12.3328
▁x	-12.3337
▁Sara	-12.334
atrix	-12.3352
▁deforest	-12.3353
▁pigeon	-12.3353
▁recall	-12.3353
▁Saturn	-12.3353
▁precious	-12.3353
▁viral	-12.3353
▁girlfriend	-12.3353
▁watt	-12.3353
▁Palestinian	-12.3353
ueen	-12.3355
▁censor	-12.3356
▁deck	-12.3357
op	-12.3362
▁reflection	-12.3363
▁subway	-12.3363
▁server	-12.3367
▁diagnosi	-12.3374
ak	-12.3382
▁worrie	-12.3393
▁rose	-12.3394
▁uncertaint	-12.3395
▁camel	-12.3396
aking	-12.3398
▁polluti	-12.3398
▁cosm	-12.3411
▁rotate	-12.3453
der	-12.3465
BM	-12.3468
▁delivery	-12.3481
▁Tu	-12.3499
▁geo	-12.35
▁heavi	-12.3504
▁cotton	-12.3509
▁defeat	-12.3509
▁intimate	-12.3509
▁snake	-12.3509
▁striking	-12.3509
▁spontaneous	-12.3509
▁venture	-12.3509
▁uniform	-12.3509
▁calm	-12.3509
▁indigen	-12.3509
▁Listen	-12.351
▁Iranian	-12.351
▁Mike	-12.3511
▁friendship	-12.3511
▁mineral	-12.3512
▁membrane	-12.3512
▁lo	-12.3521
▁canop	-12.3522
▁wedding	-12.3529
▁cod	-12.3535
▁entry	-12.3535
▁wandering	-12.3535
▁verb	-12.3548
▁tropic	-12.3587
▁whistle	-12.3588
cer	-12.3592
▁eradicat	-12.3595
▁bored	-12.3597
▁concentrate	-12.3604
▁replac	-12.3607
▁Thom	-12.3608
▁bribe	-12.3609
▁divid	-12.3618
▁bla	-12.3624
▁slim	-12.3643
▁ho	-12.3647
▁Di	-12.3649
▁neuro	-12.3654
▁Van	-12.3656
▁explode	-12.3662
▁Chile	-12.3668
▁Dutch	-12.3668
▁awkward	-12.3668
▁diamond	-12.3668
▁unemploy	-12.3668
▁chamber	-12.3668
▁Taliban	-12.3668
▁chunk	-12.3668
▁exposure	-12.3668
ealand	-12.3668
▁impressive	-12.3668
▁cigarette	-12.3668
▁kingdom	-12.3668
▁flaw	-12.3668
diac	-12.3668
▁unfold	-12.3668
▁Santa	-12.3668
▁Mandel	-12.3668
▁retirement	-12.3668
▁altitude	-12.3668
tude	-12.3669
▁sufficient	-12.3669
▁Brazilian	-12.3669
▁specialist	-12.3669
▁logo	-12.3669
▁Friday	-12.3669
▁rubber	-12.367
▁civilian	-12.367
▁upload	-12.367
▁elegant	-12.3672
▁interior	-12.3683
▁Alexand	-12.3685
▁hunter	-12.3691
▁Ray	-12.3694
ip	-12.3707
▁bi	-12.3716
▁acquire	-12.3733
red	-12.3737
▁assemble	-12.3745
▁beam	-12.3751
▁infant	-12.3768
▁sanit	-12.378
▁commit	-12.3797
▁Ta	-12.3802
▁William	-12.3804
▁bold	-12.3808
▁Edi	-12.3815
▁assign	-12.3828
▁Jew	-12.3829
▁amateur	-12.3829
▁centimeter	-12.3829
▁harness	-12.3829
▁mild	-12.3829
▁suspend	-12.3829
▁tsunami	-12.3829
▁redesign	-12.3829
▁geek	-12.3829
▁proposition	-12.3829
▁Leonard	-12.3829
▁magni	-12.3829
▁terrifying	-12.3831
▁workplace	-12.3832
▁addiction	-12.3833
▁theoretical	-12.3834
▁Gab	-12.3835
▁astronomer	-12.3841
▁Moon	-12.3842
▁Korean	-12.3846
▁temporar	-12.3851
ro	-12.3853
▁god	-12.3855
▁stabilit	-12.3855
▁Se	-12.3863
▁Swi	-12.3886
▁imager	-12.3924
▁bust	-12.3947
LT	-12.3948
▁alarm	-12.395
ck	-12.3955
▁smil	-12.3957
▁Ever	-12.3957
▁calculat	-12.3965
▁pin	-12.3966
▁Ka	-12.3972
▁historic	-12.3985
▁sauce	-12.3989
▁despair	-12.3993
▁rethink	-12.3993
▁Tanzania	-12.3993
▁collision	-12.3993
▁substantial	-12.3993
▁Saudi	-12.3993
▁mutual	-12.3993
▁Peace	-12.3993
▁genuine	-12.3993
▁bedroom	-12.3993
▁cruel	-12.3993
▁steer	-12.3993
▁banana	-12.3993
▁Brian	-12.3993
▁Gandhi	-12.3993
▁dung	-12.3993
▁excellen	-12.3993
▁leaf	-12.3996
▁pan	-12.3999
▁loose	-12.4
▁static	-12.4
▁contrar	-12.4001
▁bowl	-12.4001
▁administration	-12.4008
▁Hall	-12.4014
ite	-12.4015
▁camps	-12.4019
▁pant	-12.402
me	-12.402
▁Year	-12.4023
▁celebrat	-12.4028
▁ethnic	-12.4033
▁proven	-12.4037
▁dut	-12.4043
tlantic	-12.4052
▁Cambri	-12.4068
▁Carolin	-12.4089
▁outer	-12.4091
▁monitoring	-12.4092
▁purchase	-12.4092
▁upward	-12.4095
▁descend	-12.4106
▁grave	-12.4107
▁Bell	-12.4112
▁correspond	-12.4116
▁overwhelm	-12.4117
▁Henr	-12.4124
▁equit	-12.4132
▁cart	-12.4138
▁Litt	-12.4144
▁sens	-12.4147
un	-12.4147
sha	-12.4148
▁archive	-12.4151
▁pad	-12.4156
▁geometr	-12.4158
▁disagree	-12.4159
▁intrigu	-12.4159
▁trauma	-12.4159
▁Jeff	-12.4159
▁scheme	-12.4159
▁Bronx	-12.4159
▁Council	-12.4159
▁dilemma	-12.4159
▁encrypt	-12.4159
▁fault	-12.4159
▁inherit	-12.4159
▁dawn	-12.4159
▁Twenty	-12.4159
▁Homo	-12.416
▁diagnostic	-12.416
▁Josh	-12.416
▁brick	-12.416
▁deaf	-12.416
▁executive	-12.416
▁Eight	-12.416
▁collaborator	-12.416
▁confine	-12.4161
▁nerd	-12.4162
▁coca	-12.4162
▁ongoing	-12.4162
▁storytell	-12.4167
▁tale	-12.4167
▁MT	-12.4167
▁glow	-12.4167
ner	-12.4167
▁yoursel	-12.4168
▁dragg	-12.417
▁insane	-12.4173
▁Jo	-12.4175
tor	-12.4181
▁tagg	-12.4187
▁landing	-12.4191
▁calorie	-12.4196
▁Tim	-12.4198
▁via	-12.4203
▁lit	-12.4228
▁En	-12.4246
▁offering	-12.4249
▁fired	-12.4272
▁Mac	-12.4289
▁distinguish	-12.4293
▁resilienc	-12.4298
estate	-12.4303
een	-12.4305
▁Brun	-12.4306
▁bite	-12.4309
▁jar	-12.4319
▁jet	-12.432
▁disabl	-12.4321
▁tubes	-12.4323
▁reconstruct	-12.4327
▁punish	-12.4328
▁compet	-12.4329
▁hierarch	-12.4329
▁ceremon	-12.4329
▁absence	-12.4329
▁drown	-12.4329
▁pedestrian	-12.4329
▁principal	-12.4329
▁tattoo	-12.4329
▁Social	-12.4329
▁straightforward	-12.4329
▁strain	-12.4329
▁Compan	-12.4329
▁Watch	-12.4329
▁pursuit	-12.4329
▁exclusive	-12.4329
▁flourish	-12.4329
▁endanger	-12.4329
▁Doctor	-12.4329
▁punishment	-12.433
▁artwork	-12.433
▁proposal	-12.4331
▁frontier	-12.4331
▁miserable	-12.4331
ean	-12.4332
▁fertilizer	-12.4333
▁Lake	-12.4333
▁minorit	-12.4333
▁downtown	-12.4333
▁interconnected	-12.4336
▁Newton	-12.4337
▁sixth	-12.4343
▁Ford	-12.4359
▁Penn	-12.4361
▁manufacturer	-12.4367
▁Has	-12.4367
▁Media	-12.4371
▁prepar	-12.4377
pe	-12.4389
iest	-12.4389
▁visualize	-12.4392
▁shower	-12.4397
▁accelerate	-12.4398
▁guid	-12.4399
▁dominat	-12.4408
amma	-12.441
▁anticipate	-12.445
▁bless	-12.4464
well	-12.4465
▁transmit	-12.4467
▁Ki	-12.4479
▁simulate	-12.4482
▁phenomena	-12.4488
▁ambitio	-12.4491
▁Pan	-12.4494
▁Wal	-12.4494
▁log	-12.4497
▁Nel	-12.4499
xcept	-12.4499
▁stomach	-12.4501
▁Shanghai	-12.4501
▁Snow	-12.4501
▁Sudden	-12.4501
▁encouraging	-12.4501
▁iPod	-12.4501
▁parachute	-12.4501
▁pizza	-12.4501
▁receptor	-12.4501
▁division	-12.4501
▁foster	-12.4501
▁deliberate	-12.4502
▁texture	-12.4502
▁crystal	-12.4502
▁trivial	-12.4502
▁Johnson	-12.4502
▁Lord	-12.4502
▁dopamine	-12.4503
▁impress	-12.4504
▁phosphor	-12.4506
▁requirement	-12.4506
▁feminist	-12.4507
▁realistic	-12.4513
▁unhapp	-12.4514
▁phenomenal	-12.4515
▁shak	-12.4516
▁import	-12.4516
▁AK	-12.4516
▁swing	-12.4525
ju	-12.4528
drew	-12.4538
▁seeming	-12.4538
▁glamor	-12.4538
▁eliminate	-12.4545
▁ignor	-12.4548
▁singer	-12.456
▁ape	-12.4562
▁virtue	-12.4568
▁trad	-12.457
▁cue	-12.4571
▁personaliz	-12.4577
▁blogs	-12.4584
▁hir	-12.4587
omas	-12.4588
▁dropping	-12.4594
▁Cal	-12.4614
lin	-12.4615
▁chronic	-12.462
fall	-12.462
▁sequenc	-12.4634
some	-12.4642
▁fraud	-12.4643
▁aspiration	-12.4644
▁Monte	-12.4646
▁relation	-12.4652
▁communicat	-12.466
▁Jane	-12.4673
▁teenage	-12.4673
▁Bangladesh	-12.4674
▁purpl	-12.4677
▁Neanderthal	-12.4677
▁System	-12.4677
▁phantom	-12.4677
▁delay	-12.4677
▁syndrome	-12.4677
entropy	-12.4677
▁demo	-12.4677
▁backyard	-12.4677
▁Thai	-12.4677
▁fusion	-12.4677
▁Pro	-12.4678
▁minus	-12.4678
▁ecolog	-12.4679
▁angel	-12.4679
▁regulate	-12.4682
▁filmmaker	-12.4684
▁Ri	-12.4686
▁op	-12.4693
▁sketch	-12.47
▁sel	-12.4703
▁institutional	-12.4718
▁span	-12.4721
▁assistan	-12.4737
▁glue	-12.4745
rous	-12.4751
om	-12.4768
▁Rose	-12.4775
▁documentar	-12.4787
spring	-12.4797
▁enhance	-12.4803
▁maker	-12.4809
BC	-12.4825
▁glasse	-12.4825
onica	-12.4826
▁shoe	-12.4831
▁Syria	-12.4837
▁Ok	-12.4837
▁embrac	-12.484
ology	-12.4846
ollege	-12.485
▁diameter	-12.4855
▁pencil	-12.4855
▁steam	-12.4855
▁breakfast	-12.4855
▁riot	-12.4855
▁temple	-12.4855
▁explicit	-12.4855
▁Koran	-12.4855
▁retreat	-12.4855
▁occupy	-12.4855
▁Half	-12.4855
▁canvas	-12.4856
▁naive	-12.4856
▁Stop	-12.4856
▁horizontal	-12.4856
▁tiger	-12.4856
▁thread	-12.4856
▁astronaut	-12.4857
▁knife	-12.4858
▁outbreak	-12.4858
▁composition	-12.4859
▁ironic	-12.4859
▁grabb	-12.4861
▁controversial	-12.4861
▁ambition	-12.4866
▁vary	-12.4868
▁bind	-12.4874
▁Super	-12.4877
▁referr	-12.488
▁resilien	-12.4888
▁flags	-12.4897
▁popp	-12.49
▁Mc	-12.4908
place	-12.491
▁Net	-12.4912
▁Andrew	-12.4914
▁typ	-12.4922
▁founder	-12.4923
ti	-12.4955
▁earning	-12.4957
▁assum	-12.4959
▁Fey	-12.4969
nia	-12.5
▁prior	-12.5001
▁spike	-12.5005
bai	-12.5009
▁Far	-12.5013
▁rank	-12.5015
▁tick	-12.502
tan	-12.5024
▁drag	-12.5024
▁update	-12.5028
stock	-12.5031
▁commission	-12.5035
▁geograph	-12.5036
▁ideolog	-12.5037
▁celebrit	-12.5037
▁chimp	-12.5037
▁grocer	-12.5037
▁hybrid	-12.5037
▁wheat	-12.5037
▁flavor	-12.5037
▁Aristot	-12.5037
▁carpet	-12.5037
▁outrage	-12.5037
▁hub	-12.5037
▁ubiquitous	-12.5037
▁Government	-12.5037
▁declare	-12.5037
▁prostate	-12.5037
▁terrain	-12.5037
▁segment	-12.5037
▁enzyme	-12.5037
▁blink	-12.5037
▁infectious	-12.5037
▁mainstream	-12.5037
▁Rather	-12.5038
▁pipeline	-12.5038
▁Brother	-12.5038
▁magnificent	-12.5039
▁visualization	-12.5039
▁belt	-12.5039
▁logg	-12.504
ndustrial	-12.5041
▁worrying	-12.5047
▁devastating	-12.5059
▁deposit	-12.506
set	-12.5064
▁Way	-12.5064
▁employer	-12.5067
▁settle	-12.5074
ives	-12.5079
ge	-12.5083
▁container	-12.5085
▁Force	-12.5094
▁Ala	-12.5132
▁Mi	-12.5133
tz	-12.5135
hur	-12.5141
▁approache	-12.5143
▁SS	-12.5145
sleep	-12.5165
▁glamo	-12.5179
▁fears	-12.518
▁Hans	-12.5201
▁monster	-12.5222
▁warrior	-12.5222
▁Jordan	-12.5222
▁potato	-12.5222
▁satisfy	-12.5222
▁sibling	-12.5222
▁sperm	-12.5222
▁indoor	-12.5222
▁horror	-12.5222
▁strict	-12.5222
▁sidewalk	-12.5223
▁Coke	-12.5223
▁spacecraft	-12.5223
▁Kan	-12.5223
▁workshop	-12.5223
▁migration	-12.5223
▁exhaust	-12.5223
▁negotiation	-12.5223
▁unlock	-12.5224
▁investigation	-12.5225
▁mount	-12.5227
▁partial	-12.5228
▁Try	-12.5231
▁Cuba	-12.5233
▁convenient	-12.5236
▁atomic	-12.5244
▁Mum	-12.5247
▁fires	-12.525
▁formal	-12.525
▁processor	-12.5252
▁Nove	-12.5252
▁optical	-12.5262
▁Argentin	-12.5266
▁motivat	-12.5273
tra	-12.5275
▁suppress	-12.5281
▁align	-12.5283
▁collaborate	-12.5284
▁dare	-12.5288
▁Nick	-12.5288
▁banker	-12.529
▁Roy	-12.5291
▁cube	-12.5304
▁translat	-12.5321
▁kidd	-12.5331
let	-12.5342
▁branche	-12.535
▁cooperate	-12.5351
▁readers	-12.5359
▁Mart	-12.5369
▁Pop	-12.5372
▁Hav	-12.5374
ris	-12.5379
▁starv	-12.5383
▁crow	-12.5393
▁cricket	-12.5399
▁Indonesia	-12.54
▁jewel	-12.5402
▁Tony	-12.5403
▁Ha	-12.5406
▁Fift	-12.5409
▁Albert	-12.5411
▁accura	-12.5411
▁germ	-12.5411
▁paradox	-12.5411
▁leather	-12.5411
▁Accord	-12.5411
▁diarrhea	-12.5411
▁jazz	-12.5411
▁Keep	-12.5411
▁Portug	-12.5411
▁whisper	-12.5411
▁Catholic	-12.5411
▁embryo	-12.5411
▁empire	-12.5411
▁frustration	-12.5411
▁psychopath	-12.5411
▁cream	-12.5411
▁summit	-12.5411
▁legitimate	-12.5411
▁spiral	-12.5411
▁Stage	-12.5411
▁candle	-12.5411
▁artifact	-12.5412
▁destination	-12.5412
▁tide	-12.5412
▁distinction	-12.5413
▁Mu	-12.5415
▁Show	-12.5416
▁realization	-12.5422
▁Kev	-12.5433
▁Cyr	-12.5437
▁transmitt	-12.5439
▁Probab	-12.5439
▁embarrassing	-12.5446
▁captur	-12.5446
▁useless	-12.5448
▁screaming	-12.5452
▁gram	-12.5456
ah	-12.5461
▁shy	-12.5462
▁association	-12.5465
ina	-12.5481
▁Turns	-12.5493
▁investigate	-12.5501
▁negotiate	-12.5531
half	-12.5546
▁Steven	-12.5563
▁mall	-12.5564
▁Wo	-12.5573
▁west	-12.5585
▁Work	-12.5587
▁sin	-12.559
▁sew	-12.5591
gie	-12.5592
▁maxim	-12.5593
▁transit	-12.5595
ide	-12.5596
witzer	-12.5598
▁orient	-12.5603
▁kilo	-12.5603
▁schizophreni	-12.5603
▁vacation	-12.5603
▁veteran	-12.5603
▁impulse	-12.5603
▁multiply	-12.5603
▁swallow	-12.5603
▁Still	-12.5603
▁Abraham	-12.5603
▁Nike	-12.5603
▁incarcerat	-12.5603
▁libert	-12.5603
▁summarize	-12.5603
▁jaw	-12.5604
▁Redwood	-12.5604
▁Academ	-12.5604
▁harmful	-12.5604
▁sake	-12.5604
▁lifespan	-12.5604
▁insert	-12.5604
▁denial	-12.5604
▁correlation	-12.5605
▁boost	-12.5605
▁separation	-12.5605
que	-12.5605
▁episode	-12.5606
▁ego	-12.5606
▁Mean	-12.5607
▁MK	-12.5607
▁approximate	-12.5609
▁nano	-12.5609
▁dependenc	-12.5611
▁sale	-12.5613
▁tolerance	-12.5614
▁Nigerian	-12.5632
ative	-12.5635
▁emphasize	-12.5635
▁chase	-12.5637
lium	-12.5643
ola	-12.5647
▁practic	-12.5658
▁Du	-12.566
▁winds	-12.567
ank	-12.5678
▁RS	-12.5681
▁con	-12.569
▁lap	-12.5706
▁informal	-12.5708
▁probe	-12.5713
▁torture	-12.5715
kin	-12.5725
▁tar	-12.5725
▁graduat	-12.5726
▁locat	-12.5727
▁Berli	-12.5727
▁ti	-12.5731
▁fantas	-12.5732
▁scream	-12.5757
▁trapp	-12.5763
▁Alex	-12.5778
▁independen	-12.578
▁nutrition	-12.5781
vi	-12.5782
ogether	-12.5783
▁degrad	-12.5784
▁stereotype	-12.5791
▁accumulate	-12.5795
▁cooperat	-12.5796
▁sir	-12.5796
▁mud	-12.5798
▁trap	-12.5799
sulin	-12.5799
▁psychiatr	-12.5799
▁harbor	-12.5799
▁Saturday	-12.5799
▁peculiar	-12.5799
▁prescription	-12.5799
▁welfare	-12.5799
▁creep	-12.5799
▁Absolute	-12.5799
▁Hope	-12.5799
▁priest	-12.5799
▁guest	-12.58
▁TEDster	-12.58
▁therapist	-12.58
▁Telescope	-12.58
▁Berk	-12.5801
▁obtain	-12.5801
▁pirate	-12.5803
▁inmate	-12.5813
ER	-12.5818
▁Lo	-12.5822
▁Rand	-12.5827
▁Australian	-12.5834
▁harmon	-12.5838
▁wipe	-12.585
▁explorer	-12.5852
▁spinn	-12.5852
▁Geograph	-12.5861
tta	-12.5866
▁Sal	-12.587
▁Vi	-12.5871
▁chemist	-12.5901
va	-12.5902
▁Gold	-12.5902
ga	-12.5921
▁verbal	-12.5931
▁AB	-12.5937
point	-12.5941
▁wir	-12.596
▁Amy	-12.5962
▁shap	-12.5964
▁coordinate	-12.5968
▁diploma	-12.5979
PA	-12.5995
lihood	-12.5998
▁juice	-12.5999
▁cylinder	-12.5999
▁glimpse	-12.5999
▁Business	-12.5999
▁Clinton	-12.5999
▁Detroit	-12.5999
▁Pretty	-12.5999
▁Securit	-12.5999
▁Shakespeare	-12.5999
▁Stephen	-12.5999
▁drain	-12.5999
▁gorgeous	-12.5999
▁Spring	-12.5999
▁Coast	-12.5999
▁toxin	-12.5999
▁Organization	-12.6
▁corridor	-12.6
▁flesh	-12.6
▁intensit	-12.6
▁atheist	-12.6
▁donation	-12.6001
▁gluco	-12.6001
▁SW	-12.6001
▁invitation	-12.6001
▁Louis	-12.6003
▁Seven	-12.6004
▁Histor	-12.6006
▁Mexican	-12.6006
▁intrinsic	-12.6008
▁salar	-12.6008
▁playful	-12.6009
▁nast	-12.6009
▁payment	-12.6011
▁cosmo	-12.6011
▁Fi	-12.6021
▁overhead	-12.6023
▁Mo	-12.6026
▁brush	-12.6028
▁divorce	-12.6028
nforcement	-12.6029
▁mesh	-12.6029
▁viewer	-12.6034
▁innovate	-12.604
eda	-12.6044
▁zoo	-12.6052
▁Har	-12.6066
▁concentrat	-12.6079
▁taxe	-12.6091
▁boots	-12.6093
▁Pat	-12.6105
▁moralit	-12.6107
▁expose	-12.6113
ino	-12.6114
▁pos	-12.6121
irs	-12.6129
▁envelope	-12.6131
fa	-12.6135
ped	-12.6136
▁Mil	-12.6142
▁eliminat	-12.6152
▁shocking	-12.6169
evit	-12.6173
▁convention	-12.6176
sburg	-12.6192
▁crap	-12.6202
▁convict	-12.6202
▁abundance	-12.6203
▁consent	-12.6203
▁default	-12.6203
▁nitrogen	-12.6203
▁remix	-12.6203
▁scrap	-12.6203
▁Singapore	-12.6203
▁Societ	-12.6203
▁Watson	-12.6203
▁blob	-12.6203
▁scaffold	-12.6203
▁migrant	-12.6203
▁assault	-12.6203
▁thrive	-12.6203
▁wrist	-12.6203
▁victor	-12.6203
▁timing	-12.6204
▁Development	-12.6204
▁introduction	-12.6204
▁philosophical	-12.6204
▁elevator	-12.6204
▁decent	-12.6204
▁Daniel	-12.6204
▁translator	-12.6204
▁heritage	-12.6205
▁Lester	-12.6205
▁Pitt	-12.6206
gging	-12.6208
▁Jones	-12.6209
▁bacterial	-12.6213
▁lotter	-12.6214
▁modest	-12.6216
▁computational	-12.6222
▁settl	-12.6223
▁prayer	-12.6225
▁Yo	-12.6227
▁heel	-12.6228
▁helpless	-12.6228
▁fatal	-12.6228
▁requir	-12.6232
▁warmer	-12.6237
▁specialize	-12.6245
▁stimulate	-12.6251
▁cooperati	-12.6263
▁persuade	-12.6277
aa	-12.6278
▁provider	-12.6288
▁aunt	-12.6295
ud	-12.63
▁Ask	-12.632
▁exot	-12.6334
oo	-12.6338
▁Carl	-12.6345
▁aggregate	-12.6345
▁critic	-12.6346
▁spine	-12.6349
▁Fort	-12.6357
▁Young	-12.6364
▁lean	-12.6372
▁jihad	-12.6378
▁Scot	-12.639
aving	-12.6394
uk	-12.6397
▁precis	-12.6404
▁philanthrop	-12.6411
▁pathogen	-12.6411
openha	-12.6412
▁neuroscientist	-12.6412
▁protocell	-12.6412
▁smash	-12.6412
▁sweep	-12.6412
▁DVD	-12.6412
▁Supreme	-12.6412
▁album	-12.6412
▁cockroach	-12.6412
▁endeavor	-12.6412
▁maneuver	-12.6412
▁Benjam	-12.6412
▁Interesting	-12.6412
▁defining	-12.6412
▁Apri	-12.6412
▁Parkinson	-12.6412
▁neocort	-12.6412
▁firefl	-12.6412
▁hostile	-12.6412
▁intent	-12.6412
▁Iceland	-12.6412
▁flame	-12.6412
▁Water	-12.6413
▁warehouse	-12.6414
▁sponsor	-12.6415
▁fluorescent	-12.6417
▁trailer	-12.6418
nman	-12.6419
▁interrupt	-12.6421
▁vibration	-12.6424
▁liter	-12.6428
ram	-12.6429
▁cows	-12.6434
▁wow	-12.6435
▁scaling	-12.6444
▁separat	-12.6445
▁delicio	-12.6447
▁impose	-12.6451
▁appreciat	-12.6451
▁promot	-12.6452
▁carve	-12.6456
wa	-12.649
▁semi	-12.6494
▁capitalist	-12.6494
▁por	-12.6498
▁prey	-12.6499
▁Kenn	-12.6501
▁margin	-12.6507
mer	-12.652
ko	-12.6531
▁patch	-12.6569
ase	-12.658
▁cookie	-12.6601
▁marathon	-12.6611
▁Play	-12.6617
fin	-12.6618
▁skelet	-12.6623
▁Bo	-12.6624
▁adolescent	-12.6625
▁nightmare	-12.6625
▁utilit	-12.6625
▁bamboo	-12.6625
▁confess	-12.6625
▁consensu	-12.6625
▁elaborate	-12.6625
▁expense	-12.6625
▁intact	-12.6625
▁steep	-12.6625
▁transistor	-12.6625
▁preference	-12.6625
▁headquarter	-12.6625
▁hint	-12.6625
▁stair	-12.6625
▁execution	-12.6625
▁contradiction	-12.6625
▁volcano	-12.6625
▁selective	-12.6625
▁bleed	-12.6626
▁Education	-12.6626
▁bioluminescen	-12.6627
▁coverage	-12.6627
▁adaptation	-12.6628
▁Cape	-12.6628
▁spatial	-12.6629
▁operator	-12.663
▁racial	-12.663
▁Goal	-12.6636
▁Bali	-12.6638
▁Trad	-12.664
▁eternal	-12.6643
▁Syrian	-12.6647
▁spare	-12.6648
eley	-12.665
▁Eve	-12.6656
▁belly	-12.6658
▁retire	-12.6659
▁arena	-12.6664
▁CD	-12.6667
▁se	-12.6671
▁Da	-12.6671
▁.	-12.6672
▁Col	-12.6677
▁Harr	-12.6679
▁Move	-12.6679
▁anticipat	-12.6688
▁bounce	-12.6692
▁Bru	-12.6693
verse	-12.6701
▁Say	-12.6712
▁thus	-12.6713
ung	-12.6723
▁acoustic	-12.6733
▁screens	-12.6736
▁lawn	-12.6737
▁planetar	-12.6743
▁squeeze	-12.6744
▁rang	-12.6749
de	-12.6754
▁migrate	-12.6761
ois	-12.6784
▁render	-12.6799
▁ban	-12.681
▁Gree	-12.6812
▁freez	-12.6817
▁stamp	-12.6821
▁forc	-12.6833
▁Li	-12.6835
da	-12.6836
▁dies	-12.6839
▁Te	-12.684
▁panic	-12.6842
▁contest	-12.6842
▁yell	-12.6842
▁Secret	-12.6842
▁affair	-12.6842
▁anniversar	-12.6842
▁chew	-12.6842
▁generic	-12.6842
▁prosthetic	-12.6842
▁voluntar	-12.6842
▁crab	-12.6842
▁deficit	-12.6842
▁forecast	-12.6842
▁gross	-12.6842
▁immortal	-12.6842
▁staircase	-12.6842
▁kilogram	-12.6842
▁vivid	-12.6842
▁deception	-12.6842
▁Light	-12.6842
▁Kong	-12.6842
▁arrangement	-12.6842
▁JF	-12.6843
▁Canadian	-12.6843
▁progressive	-12.6843
▁transaction	-12.6843
▁subjective	-12.6843
▁blade	-12.6844
▁inclusive	-12.6845
ig	-12.6846
▁fever	-12.6846
▁bioma	-12.6847
▁blast	-12.6851
▁sneaker	-12.6852
▁hopeless	-12.6854
▁hut	-12.686
▁Walk	-12.6861
▁disrupt	-12.6864
▁forgive	-12.6865
har	-12.6868
▁owe	-12.6871
uke	-12.6871
erusal	-12.6874
▁Arabia	-12.6878
▁tourist	-12.6889
▁prov	-12.6893
▁USA	-12.6899
▁bush	-12.6905
cut	-12.6906
ries	-12.6914
RIS	-12.6919
▁melting	-12.6929
▁arter	-12.6956
▁assist	-12.6962
▁circula	-12.6962
▁Job	-12.6978
ap	-12.698
▁seas	-12.6985
ause	-12.6986
▁accidental	-12.699
▁Ge	-12.6997
book	-12.7003
▁globaliz	-12.7019
fare	-12.7033
▁similarit	-12.7038
▁NS	-12.7053
▁odor	-12.7061
▁tutor	-12.7064
▁tomato	-12.7064
▁criteri	-12.7064
▁Disney	-12.7064
▁Natural	-12.7064
▁SETI	-12.7064
▁harsh	-12.7064
▁shatter	-12.7064
▁virgin	-12.7064
▁Similar	-12.7064
▁pleasant	-12.7064
▁taboo	-12.7064
▁bucket	-12.7064
▁retain	-12.7064
▁index	-12.7064
▁swarm	-12.7064
▁collar	-12.7064
▁LG	-12.7065
▁inflation	-12.7065
▁Computer	-12.7065
▁lever	-12.7066
▁penis	-12.7067
▁erect	-12.7067
▁asthma	-12.7068
▁vice	-12.7068
▁dough	-12.7069
▁Sound	-12.7069
▁basement	-12.7072
▁Charli	-12.7072
▁tenth	-12.7073
▁storyteller	-12.7076
▁rabbit	-12.7076
▁eastern	-12.7082
▁visitor	-12.7086
▁im	-12.7099
▁transferr	-12.7101
▁menu	-12.7112
▁voter	-12.7118
▁spa	-12.7119
▁Miss	-12.7122
nger	-12.7128
▁journalis	-12.7131
▁junk	-12.7133
ja	-12.7139
homa	-12.7144
▁chains	-12.7149
▁freeze	-12.7154
▁reporter	-12.7157
▁Stone	-12.7162
▁mines	-12.7181
▁Ar	-12.719
berg	-12.7222
▁microscop	-12.7231
sky	-12.724
▁reli	-12.7252
▁Christians	-12.7254
▁demonstrat	-12.7256
▁Rock	-12.7257
▁Sh	-12.726
▁astronom	-12.7275
▁transcend	-12.7275
CD	-12.7276
▁compute	-12.7278
▁stare	-12.7279
▁mari	-12.7281
▁pond	-12.7291
▁lobby	-12.7291
▁chef	-12.7291
▁festival	-12.7291
▁immigrant	-12.7291
▁jungle	-12.7291
▁juvenile	-12.7291
▁mosque	-12.7291
▁spouse	-12.7291
▁macro	-12.7291
▁trunk	-12.7291
▁opposition	-12.7291
▁stagger	-12.7291
▁numer	-12.7291
▁ooh	-12.7291
▁Machine	-12.7292
▁Under	-12.7292
elphi	-12.7292
▁Edward	-12.7292
▁recession	-12.7292
▁greet	-12.7292
▁refrigerator	-12.7292
▁stain	-12.7292
▁stimulation	-12.7293
▁crude	-12.7293
▁tapir	-12.7294
▁replacement	-12.7294
▁passage	-12.7295
ately	-12.7295
▁browser	-12.7295
▁integration	-12.7295
▁accountabilit	-12.7295
iz	-12.7297
▁Phila	-12.7298
▁mite	-12.7303
▁k	-12.7307
▁historian	-12.7307
▁Late	-12.7322
▁vari	-12.7323
off	-12.733
▁irrational	-12.7344
cal	-12.736
▁intervene	-12.7362
ventual	-12.7362
opper	-12.738
▁bell	-12.7384
▁pursu	-12.7386
alo	-12.7397
ux	-12.7401
▁dispos	-12.7404
zen	-12.7406
▁alike	-12.7406
▁sole	-12.7416
▁MR	-12.7419
▁learner	-12.742
▁stabilize	-12.7441
nce	-12.7447
▁screening	-12.745
▁horses	-12.7458
▁corners	-12.7471
▁proceed	-12.748
▁embarrass	-12.7481
▁Roman	-12.7493
do	-12.7496
ternet	-12.7498
velt	-12.7513
lvani	-12.7517
▁drunk	-12.7518
ab	-12.752
▁Brad	-12.7521
▁transformati	-12.7521
▁distort	-12.7523
▁manifest	-12.7523
▁Rick	-12.7524
▁controvers	-12.7524
▁inhabit	-12.7524
▁infra	-12.7524
▁pesticide	-12.7524
violet	-12.7524
▁Bhutan	-12.7524
▁McDonald	-12.7524
▁Public	-12.7524
▁resurrect	-12.7524
▁satisfaction	-12.7524
▁sensitivit	-12.7524
▁vocabular	-12.7524
▁melod	-12.7524
▁undergraduate	-12.7524
▁guitar	-12.7524
▁protocol	-12.7524
▁towel	-12.7524
▁superpower	-12.7524
▁psychiatrist	-12.7524
▁Mount	-12.7524
▁stadium	-12.7524
▁illustration	-12.7524
▁headache	-12.7524
▁GG	-12.7525
▁Power	-12.7525
▁Milk	-12.7525
▁orientation	-12.7525
▁alert	-12.7525
▁indicator	-12.7525
▁settlement	-12.7525
▁Michel	-12.7525
▁Moz	-12.7526
lept	-12.7526
▁lobe	-12.7526
▁rear	-12.7526
▁JA	-12.7527
▁airline	-12.7528
▁encode	-12.7528
▁Gar	-12.753
blew	-12.7534
▁regenerate	-12.7536
▁nail	-12.7542
▁assistant	-12.755
oven	-12.755
▁nois	-12.7552
mar	-12.7558
▁restrict	-12.7559
▁slope	-12.756
▁drum	-12.7571
▁owners	-12.7572
▁pe	-12.7584
▁Medica	-12.7584
▁valid	-12.7586
▁usage	-12.7589
▁controller	-12.759
▁cage	-12.7593
▁masse	-12.76
▁nights	-12.7602
▁Ted	-12.7603
▁flap	-12.7611
▁digg	-12.7629
▁cope	-12.7638
▁Ken	-12.7641
mo	-12.7653
▁hu	-12.7673
▁keys	-12.7689
▁warn	-12.7692
▁Countr	-12.7696
▁sp	-12.7701
▁declin	-12.7704
▁manufacture	-12.7706
▁mapp	-12.7708
▁vent	-12.7722
▁specializ	-12.7732
▁calcul	-12.7751
▁augment	-12.7761
▁Republic	-12.7762
▁Civil	-12.7762
▁enlighten	-12.7762
▁favela	-12.7762
▁pixel	-12.7762
▁Craig	-12.7762
▁Hospital	-12.7762
▁destructive	-12.7762
▁envision	-12.7762
▁fuzz	-12.7762
▁parameter	-12.7762
▁faint	-12.7762
▁multinational	-12.7762
▁hallucination	-12.7762
▁Medicine	-12.7762
▁assess	-12.7763
ergy	-12.7763
▁flock	-12.7763
▁disk	-12.7763
▁bann	-12.7763
▁Lebanon	-12.7763
▁restriction	-12.7764
▁caregiver	-12.7764
▁Marine	-12.7765
▁physiolog	-12.7766
tenance	-12.7766
▁Citi	-12.7767
▁automat	-12.7768
therland	-12.7768
▁Laden	-12.7771
▁Librar	-12.7773
▁progression	-12.7774
▁cafe	-12.7776
▁Aid	-12.7779
▁axe	-12.7779
▁Thirt	-12.7785
rhaps	-12.7786
ison	-12.7787
▁Canc	-12.7792
▁statue	-12.7793
org	-12.78
▁perceiv	-12.7801
▁schedule	-12.7802
▁summar	-12.7803
▁flipp	-12.7804
▁Holo	-12.7812
▁regional	-12.7812
▁deni	-12.7817
▁admire	-12.782
ki	-12.7824
▁fin	-12.7826
coli	-12.7831
▁awe	-12.7831
lock	-12.7839
car	-12.7842
▁fuse	-12.7844
▁jur	-12.7848
▁ches	-12.7852
▁Lar	-12.7852
▁revolutionar	-12.7859
▁cop	-12.7862
▁grad	-12.7869
▁filling	-12.787
nburg	-12.7872
▁lucki	-12.7872
oline	-12.7876
▁curl	-12.7892
ran	-12.7897
obi	-12.7905
▁dominate	-12.7906
ler	-12.7907
van	-12.7918
▁l	-12.792
▁decid	-12.7929
oc	-12.7937
▁lover	-12.7938
▁relativ	-12.7941
space	-12.7947
broad	-12.7948
course	-12.7948
▁slip	-12.7951
▁le	-12.7962
▁apologize	-12.7966
▁SM	-12.7973
▁nucle	-12.7978
▁mega	-12.7994
▁authors	-12.7995
▁AM	-12.8001
scope	-12.8003
▁Titan	-12.8006
▁Hawaii	-12.8006
▁institute	-12.8006
▁Joseph	-12.8006
▁cocktail	-12.8006
▁council	-12.8006
▁feather	-12.8006
▁holiday	-12.8006
▁puppet	-12.8006
▁tribal	-12.8006
▁unfair	-12.8006
▁gravitational	-12.8006
▁Recent	-12.8006
▁penalt	-12.8006
▁configuration	-12.8006
▁firing	-12.8006
▁Clear	-12.8006
▁entrance	-12.8006
▁Suppose	-12.8006
kyo	-12.8006
▁premise	-12.8006
▁Christopher	-12.8007
▁liar	-12.8007
▁awake	-12.8007
▁preparation	-12.8007
▁authoritarian	-12.8007
▁piss	-12.8007
▁couch	-12.8008
▁celebration	-12.8008
▁flee	-12.8008
▁magician	-12.8008
▁isolation	-12.8009
▁educator	-12.8011
ami	-12.8014
▁consideration	-12.8015
▁arbitrar	-12.8017
▁jam	-12.802
▁western	-12.8024
▁bench	-12.8029
▁angiogen	-12.803
onsider	-12.8033
▁disturbing	-12.8035
▁Hubb	-12.8042
arrow	-12.8043
▁equipp	-12.8043
▁fur	-12.8044
▁baker	-12.8047
▁idiot	-12.8048
▁lonel	-12.8048
▁emergence	-12.8053
▁soc	-12.8064
▁Simon	-12.8069
▁Matt	-12.8069
per	-12.8073
▁fertil	-12.8079
▁gra	-12.8081
▁module	-12.8081
▁retina	-12.8084
▁prospect	-12.8093
▁Fin	-12.8111
▁Ross	-12.8121
▁Ron	-12.8138
val	-12.8152
▁acquir	-12.8153
▁Port	-12.8165
elief	-12.8168
▁quo	-12.8176
▁thinker	-12.8177
▁integr	-12.8184
▁digest	-12.8194
rry	-12.8194
▁conquer	-12.8216
▁wander	-12.8217
li	-12.8219
▁prop	-12.822
pa	-12.8221
▁regulat	-12.8222
▁tablet	-12.8222
▁Op	-12.8222
ow	-12.8223
together	-12.8224
▁submit	-12.8231
▁frontal	-12.8233
▁RM	-12.8233
▁articulate	-12.8234
▁significan	-12.8236
▁hug	-12.8236
▁skeptic	-12.824
▁chop	-12.824
▁constrain	-12.8241
▁packag	-12.8241
▁optimize	-12.8245
ho	-12.8246
▁trail	-12.825
▁bacteri	-12.8255
▁suburb	-12.8256
▁autonom	-12.8256
▁drama	-12.8256
▁Apollo	-12.8256
▁chemotherap	-12.8256
▁kindergart	-12.8256
▁famine	-12.8256
▁Scientist	-12.8256
▁Sierra	-12.8256
▁abundant	-12.8256
▁ancestr	-12.8256
▁fractal	-12.8256
▁obsolet	-12.8256
▁silicon	-12.8256
▁exquisite	-12.8256
▁technician	-12.8256
▁accent	-12.8256
▁enrich	-12.8256
▁flexibilit	-12.8256
▁metabolism	-12.8256
▁distress	-12.8256
▁Alaska	-12.8256
▁rigid	-12.8256
▁Montana	-12.8256
▁acute	-12.8256
▁scholarship	-12.8256
▁surgical	-12.8256
▁connectome	-12.8256
▁veil	-12.8256
▁Nair	-12.8256
▁iceberg	-12.8256
▁differ	-12.8257
▁exit	-12.8257
▁manifestation	-12.8257
▁Monday	-12.8257
▁innovator	-12.8257
▁DR	-12.8258
▁invasive	-12.8259
▁Learn	-12.8259
istine	-12.826
▁EM	-12.826
▁symbolic	-12.8262
▁Nepal	-12.8266
▁contaminat	-12.827
▁Find	-12.8275
ft	-12.8278
▁Lee	-12.8286
lor	-12.8289
▁yards	-12.8294
▁dishe	-12.8297
▁Car	-12.8297
oster	-12.8299
▁Post	-12.8305
▁folk	-12.8315
▁Hold	-12.8321
▁Sad	-12.8325
▁spite	-12.8326
▁dedicate	-12.8331
▁scare	-12.8336
▁examine	-12.8343
▁Start	-12.8354
▁cleaner	-12.8363
we	-12.8363
ardboard	-12.8365
▁gentle	-12.837
▁performer	-12.837
▁bore	-12.8377
SD	-12.8395
▁Old	-12.8402
▁taxi	-12.8416
▁Ky	-12.8421
nic	-12.843
▁Connecti	-12.8435
▁hydro	-12.8448
tial	-12.8464
▁Brookl	-12.8466
▁Ji	-12.8466
▁kit	-12.8472
▁BJ	-12.8478
▁Top	-12.8482
▁Tit	-12.8483
▁grip	-12.8489
sia	-12.8495
▁assure	-12.8496
▁humili	-12.8503
▁persist	-12.8507
▁Pete	-12.8511
▁embodie	-12.8512
▁blueprint	-12.8512
▁overlook	-12.8512
▁Defen	-12.8512
▁RNA	-12.8512
▁dismiss	-12.8512
▁funeral	-12.8512
▁genomic	-12.8512
▁metabolic	-12.8512
▁slogan	-12.8512
▁thrust	-12.8512
▁vitamin	-12.8512
▁Student	-12.8512
▁butterfl	-12.8512
▁pancrea	-12.8512
▁cholera	-12.8512
▁conceptual	-12.8512
▁Treat	-12.8513
▁Phoenix	-12.8513
▁revelation	-12.8513
▁cinema	-12.8513
▁Jefferson	-12.8513
▁ghost	-12.8513
▁ladder	-12.8513
▁cellphone	-12.8513
▁nonviolen	-12.8513
▁mustache	-12.8513
▁prosecutor	-12.8513
▁Stewar	-12.8513
▁mixture	-12.8513
▁encyclopedia	-12.8513
▁Georgia	-12.8513
▁portray	-12.8513
▁Carne	-12.8514
▁Hawk	-12.8514
▁mill	-12.8514
▁Book	-12.8514
▁captain	-12.8516
▁autist	-12.8516
▁catastrophe	-12.8516
▁invasion	-12.8517
▁imp	-12.8518
▁heroic	-12.8519
ci	-12.8519
▁steady	-12.8521
▁potent	-12.8522
▁cooperative	-12.8525
▁avatar	-12.8527
▁seventh	-12.8527
▁beef	-12.8529
▁disappointed	-12.853
▁Oo	-12.8537
▁observer	-12.8539
UN	-12.8542
▁thermal	-12.8544
▁humble	-12.8546
▁hive	-12.8546
▁Simpl	-12.855
▁regulator	-12.8555
▁brake	-12.856
▁opt	-12.8564
▁devise	-12.8567
▁intentional	-12.8569
▁eighth	-12.8595
ibilit	-12.8603
acco	-12.8604
▁minimal	-12.8609
▁din	-12.8611
▁spreads	-12.8614
long	-12.8614
ew	-12.8615
band	-12.8615
DI	-12.8615
▁Lot	-12.8621
▁dome	-12.8623
▁Bat	-12.8627
▁Too	-12.8635
▁obsession	-12.8641
tine	-12.8642
▁vo	-12.8654
▁liberat	-12.8656
▁minded	-12.8665
bo	-12.867
▁execute	-12.8671
▁spec	-12.8671
af	-12.8672
▁resemble	-12.8677
▁Earl	-12.8678
▁Camp	-12.869
▁radi	-12.8696
▁pregnanc	-12.8706
▁eyed	-12.8709
▁marks	-12.8711
▁lightn	-12.8713
▁Allen	-12.8713
▁Philip	-12.8716
spread	-12.8718
ett	-12.8724
▁rott	-12.8727
▁rail	-12.8734
tangible	-12.8738
▁Nor	-12.874
▁disrupti	-12.8742
▁conceive	-12.8744
▁lighter	-12.8746
▁fi	-12.8747
▁Bi	-12.8753
ang	-12.8754
▁lands	-12.8757
lves	-12.8762
▁scarce	-12.8769
▁Office	-12.8772
▁alphabet	-12.8775
▁Kosov	-12.8776
▁unleash	-12.8776
▁PowerPoint	-12.8776
▁Sudan	-12.8776
▁ambulance	-12.8776
▁competitor	-12.8776
▁contagio	-12.8776
▁friction	-12.8776
▁inexpensive	-12.8776
▁intimac	-12.8776
▁salmon	-12.8776
▁snail	-12.8776
▁squid	-12.8776
▁imperative	-12.8776
▁extensive	-12.8776
▁catastrophic	-12.8776
▁Tower	-12.8776
▁reproductive	-12.8776
▁curator	-12.8776
▁obligation	-12.8776
▁Wolf	-12.8776
▁swamp	-12.8776
▁assessment	-12.8776
▁Notice	-12.8776
▁synapse	-12.8777
▁Rover	-12.8777
▁Norden	-12.8777
▁urbanization	-12.8777
▁conviction	-12.8777
▁Hmm	-12.8777
▁dictionarie	-12.8778
▁ease	-12.8778
▁crank	-12.8778
▁anthropologist	-12.8779
▁Somalia	-12.8779
lage	-12.8779
▁abstraction	-12.878
▁explod	-12.8784
sang	-12.8784
au	-12.8785
▁admitted	-12.8785
▁composer	-12.8785
▁qualifie	-12.8786
▁mo	-12.8787
▁gaze	-12.8788
▁gigant	-12.8789
▁polite	-12.879
▁province	-12.8792
gar	-12.8797
▁Cold	-12.8799
▁unsee	-12.88
▁Mill	-12.8804
▁OE	-12.8804
▁Pre	-12.8809
▁Ru	-12.8812
▁herd	-12.8816
▁amaz	-12.8819
ai	-12.8819
▁impos	-12.883
seas	-12.8838
▁champion	-12.8839
▁oven	-12.8841
▁pric	-12.8845
▁Music	-12.8854
▁depriv	-12.8854
▁planner	-12.8856
larity	-12.8863
▁underestimate	-12.8867
▁kite	-12.8876
▁locate	-12.8877
▁derive	-12.8881
AG	-12.8894
▁Whoa	-12.8895
▁stimul	-12.8901
nel	-12.8902
▁publisher	-12.8906
▁differentiate	-12.8908
box	-12.8911
▁foi	-12.8926
▁equi	-12.8936
▁improvisation	-12.8937
▁Turn	-12.8948
▁bombing	-12.8955
▁beneficia	-12.8956
lo	-12.8959
ut	-12.896
▁amaze	-12.8961
▁damag	-12.8967
▁feeds	-12.8968
ring	-12.8974
▁Bett	-12.8974
power	-12.8984
ros	-12.8987
ox	-12.8991
sel	-12.8991
ster	-12.8993
▁investigat	-12.8993
▁Su	-12.8995
▁activat	-12.8999
▁Nativ	-12.9021
▁Sp	-12.9022
▁enthusias	-12.9025
zone	-12.9026
▁retail	-12.9031
▁fisherm	-12.9033
▁Yemen	-12.9042
▁Missi	-12.9044
▁millennia	-12.9045
▁excess	-12.9046
▁Sylvi	-12.9046
▁diminish	-12.9046
▁guerrilla	-12.9046
▁modifi	-12.9046
▁neglect	-12.9046
▁reclaim	-12.9046
▁Buddha	-12.9046
▁biofuel	-12.9046
▁bulk	-12.9046
▁sulfide	-12.9046
▁delicate	-12.9046
▁desktop	-12.9046
▁honeybee	-12.9046
▁reproduction	-12.9046
▁Garden	-12.9046
▁Know	-12.9046
▁Canyon	-12.9046
▁meta	-12.9046
▁delete	-12.9046
▁Lago	-12.9047
▁cartoonist	-12.9047
▁Austria	-12.9047
▁Gius	-12.9047
▁manipulation	-12.9047
▁Indus	-12.9047
▁Food	-12.9048
▁carrot	-12.9049
▁cement	-12.9049
▁petition	-12.9049
▁quad	-12.905
oto	-12.905
▁PC	-12.905
▁fame	-12.9051
▁generator	-12.9051
▁flush	-12.9051
▁sadness	-12.9053
▁wishe	-12.9053
▁Colombia	-12.9054
▁ripp	-12.9054
▁solo	-12.9055
▁ingenu	-12.9066
▁moist	-12.9068
▁Building	-12.9068
▁animate	-12.9073
▁Jona	-12.9075
▁ward	-12.9076
▁subsid	-12.9078
▁behold	-12.9079
▁myceli	-12.9093
▁auto	-12.9099
▁receiver	-12.91
▁Peru	-12.9102
▁discriminati	-12.9104
▁hotte	-12.9105
▁triple	-12.9106
ribbe	-12.9109
▁Ari	-12.9109
▁Pr	-12.9122
▁Fund	-12.913
mi	-12.9131
▁hacker	-12.9135
▁Linu	-12.9144
RA	-12.9152
▁climber	-12.9156
▁nam	-12.9161
ez	-12.9172
sight	-12.9191
▁symmetric	-12.9221
▁scal	-12.9226
han	-12.923
▁cri	-12.9242
ssociation	-12.9248
▁Ven	-12.9257
▁Rob	-12.9268
▁reader	-12.9271
▁announce	-12.9278
▁Map	-12.9278
▁FD	-12.9281
▁illuminat	-12.9285
tive	-12.9286
▁lin	-12.9293
sterda	-12.9299
▁enforce	-12.9304
▁Columbia	-12.9313
sual	-12.9314
▁improvise	-12.9318
▁Elizabeth	-12.9323
▁orphan	-12.9323
▁adolescence	-12.9324
▁calendar	-12.9324
▁convincing	-12.9324
▁essay	-12.9324
▁hamburger	-12.9324
▁modify	-12.9324
▁resort	-12.9324
▁ALS	-12.9324
▁Dallas	-12.9324
▁Empire	-12.9324
▁Kepler	-12.9324
▁Michigan	-12.9324
▁Namibia	-12.9324
▁iPad	-12.9324
▁supernova	-12.9324
▁turtle	-12.9324
▁dragonfl	-12.9324
▁Certain	-12.9324
▁Small	-12.9324
▁pervasive	-12.9324
▁glove	-12.9324
▁shepherd	-12.9324
▁Guard	-12.9324
▁hatred	-12.9324
▁curtain	-12.9324
▁larva	-12.9324
▁committee	-12.9324
▁textile	-12.9324
▁Venus	-12.9325
▁Movement	-12.9325
▁gras	-12.9325
▁urgent	-12.9325
▁problematic	-12.9325
▁pillar	-12.9325
▁velocit	-12.9325
▁Jess	-12.9325
▁baseline	-12.9326
▁vein	-12.9326
▁calculator	-12.9326
▁dispute	-12.9326
▁tempt	-12.9326
▁injection	-12.9326
▁Pass	-12.9327
▁fighter	-12.9327
▁Buddhist	-12.933
▁eco	-12.933
▁tilt	-12.9332
▁biase	-12.9332
▁Heart	-12.934
▁skeptical	-12.9342
▁butter	-12.9357
▁submitt	-12.936
ad	-12.9361
▁Iraqi	-12.937
▁fade	-12.9373
▁foods	-12.9373
▁Large	-12.9374
▁tooth	-12.9387
bati	-12.9395
▁arc	-12.9399
▁redefine	-12.9403
▁Cha	-12.9424
▁negotiat	-12.9425
▁rotat	-12.9426
▁loser	-12.9432
▁Ni	-12.9436
▁sticker	-12.944
tts	-12.9446
▁passe	-12.9449
▁greed	-12.9458
ius	-12.946
▁antibod	-12.9461
▁rains	-12.9484
▁shed	-12.9491
▁recycle	-12.9498
ax	-12.9499
▁modeling	-12.9506
field	-12.951
ada	-12.951
ep	-12.9519
▁Mall	-12.9524
▁propaga	-12.9529
ating	-12.9531
▁forum	-12.9535
grade	-12.9541
▁Bas	-12.955
Bay	-12.9551
▁optic	-12.9556
▁fec	-12.956
▁pollinat	-12.956
▁Color	-12.9562
root	-12.9567
▁mandate	-12.9567
▁replicat	-12.9569
▁yard	-12.957
▁anatom	-12.9576
▁causal	-12.9579
▁ventilat	-12.958
▁fr	-12.9587
▁Hol	-12.9588
▁rebel	-12.959
ul	-12.9593
▁TB	-12.9595
▁Si	-12.96
▁socio	-12.9603
▁fog	-12.9605
▁Milo	-12.9608
▁stigma	-12.9609
▁Climate	-12.9609
▁manuscript	-12.9609
▁Common	-12.9609
▁Himalaya	-12.9609
▁Yellow	-12.9609
▁alumin	-12.9609
▁bypass	-12.9609
▁disadvantage	-12.9609
▁frustrating	-12.9609
▁gadget	-12.9609
▁peanut	-12.9609
▁stratospher	-12.9609
▁submarine	-12.9609
▁lump	-12.9609
▁sediment	-12.9609
▁fierce	-12.9609
▁prevalence	-12.9609
▁thorough	-12.9609
▁CMU	-12.9609
▁grammar	-12.9609
▁rectangle	-12.961
▁thylacine	-12.961
▁Help	-12.961
▁chaotic	-12.961
▁legend	-12.961
▁symphon	-12.961
▁insult	-12.961
▁gait	-12.961
▁Lewi	-12.9611
▁accomplishment	-12.9611
▁fingertip	-12.9611
▁anxious	-12.9612
▁Death	-12.9613
▁Vinc	-12.9613
▁Luck	-12.9614
▁worldview	-12.9614
▁Golden	-12.9617
▁powder	-12.9619
▁Fried	-12.9619
▁blogger	-12.9622
end	-12.9625
▁devoted	-12.9626
ake	-12.9631
▁publication	-12.9632
▁diplomat	-12.9637
▁Cart	-12.9637
▁appl	-12.964
▁Story	-12.9651
▁Line	-12.9653
lov	-12.9656
▁methodolog	-12.9663
▁teache	-12.9683
form	-12.9697
▁Lady	-12.972
▁relie	-12.9722
▁hills	-12.9742
▁refus	-12.975
▁sh	-12.9752
▁Ali	-12.9753
oma	-12.9753
sani	-12.9763
▁outward	-12.9763
esday	-12.9764
▁ac	-12.9767
▁paste	-12.9768
▁mini	-12.9786
▁Hy	-12.9789
jo	-12.9791
ack	-12.9808
▁belonging	-12.9809
▁isolate	-12.9814
▁tun	-12.9819
net	-12.9821
▁mobilize	-12.9831
▁parliament	-12.9834
▁mytholog	-12.9835
ari	-12.9836
makers	-12.9843
food	-12.9847
▁evaluate	-12.9851
▁worship	-12.9854
▁vocal	-12.9856
all	-12.9868
▁polariz	-12.9869
▁lips	-12.988
▁patien	-12.9884
▁Isa	-12.9886
▁Hous	-12.9886
leans	-12.9886
▁absurd	-12.9889
▁skip	-12.9894
▁numb	-12.9895
▁minor	-12.9897
▁impair	-12.9903
libr	-12.9903
▁Dick	-12.9903
▁elbow	-12.9903
▁romance	-12.9903
▁mammoth	-12.9903
▁Norwegian	-12.9903
▁Venezuela	-12.9903
▁irrelevan	-12.9903
▁janitor	-12.9903
▁lesbian	-12.9903
▁monarch	-12.9903
▁opponent	-12.9903
▁defect	-12.9903
▁leopard	-12.9903
▁Prime	-12.9903
▁pubert	-12.9904
▁fuck	-12.9904
▁Data	-12.9904
▁bionic	-12.9904
▁sync	-12.9904
▁Danny	-12.9904
▁brainstorm	-12.9904
▁traumatic	-12.9904
▁claw	-12.9904
▁font	-12.9904
▁Grow	-12.9904
▁Johnny	-12.9904
▁cathedral	-12.9904
▁valve	-12.9904
▁uncover	-12.9904
▁posture	-12.9904
▁cabinet	-12.9904
▁missile	-12.9904
▁indication	-12.9904
▁stumbl	-12.9905
▁circulation	-12.9905
▁timber	-12.9905
▁Gala	-12.9905
▁newborn	-12.9906
▁Emil	-12.9907
▁hammer	-12.9909
▁accumulat	-12.991
▁Muh	-12.9911
▁genero	-12.9913
no	-12.9913
▁Got	-12.9913
▁Nata	-12.9913
▁Kiri	-12.9914
▁Inter	-12.9917
▁viewing	-12.9918
▁duration	-12.9918
▁yeast	-12.9922
▁noble	-12.9928
▁midst	-12.9929
▁Frankl	-12.993
▁strengthen	-12.9933
▁floors	-12.9934
▁compose	-12.9936
▁hallway	-12.9937
▁simulat	-12.9937
▁Chuck	-12.9938
▁hi	-12.9941
bra	-12.9954
▁ridge	-12.9961
▁painter	-12.9967
▁nonsens	-12.9967
▁unst	-12.9973
▁mature	-12.9976
▁bask	-12.9978
▁outdoor	-13
zi	-13.0003
▁penn	-13.0007
ction	-13.0008
▁Uni	-13.0013
▁developmental	-13.0014
▁Down	-13.0014
▁reflectiv	-13.003
racing	-13.0033
▁fungi	-13.0036
wards	-13.004
▁shelve	-13.0046
▁nurture	-13.0047
▁nurtur	-13.0063
▁plott	-13.0069
▁balanc	-13.0072
ica	-13.0073
▁SP	-13.0086
eddy	-13.0087
ot	-13.0109
▁donate	-13.011
▁follower	-13.0115
▁foreg	-13.0124
ira	-13.0126
▁geographical	-13.0131
▁Pen	-13.0133
▁dri	-13.0138
▁Polic	-13.014
lan	-13.0142
eith	-13.0153
▁bake	-13.0158
▁Ra	-13.0158
▁collaps	-13.0161
lcome	-13.0165
ridge	-13.0166
▁inhibit	-13.0168
▁casual	-13.0181
▁bonus	-13.0181
▁Christ	-13.0181
promising	-13.019
ghett	-13.0192
▁Libya	-13.0195
▁fundrais	-13.0198
▁chick	-13.0201
▁depict	-13.0205
▁counsel	-13.0205
▁cease	-13.0206
▁toast	-13.0206
▁triumph	-13.0206
▁recipient	-13.0206
▁scroll	-13.0206
▁Siberia	-13.0206
▁appliance	-13.0206
▁chord	-13.0206
▁helmet	-13.0206
▁injustice	-13.0206
▁oyster	-13.0206
▁satisfie	-13.0206
▁voyage	-13.0206
▁subsequent	-13.0206
▁biosphere	-13.0207
▁polymer	-13.0207
▁finite	-13.0207
▁distill	-13.0207
▁facult	-13.0207
▁internship	-13.0207
▁battlefield	-13.0207
▁billboard	-13.0207
▁fluctuation	-13.0207
▁passport	-13.0207
▁breakdown	-13.0207
▁instinctive	-13.0207
▁electromagnetic	-13.0207
pago	-13.0207
▁Norman	-13.0207
▁criticism	-13.0207
▁mund	-13.0207
▁puff	-13.0207
▁spade	-13.0207
▁wetland	-13.0208
▁ethan	-13.0208
ctopus	-13.0208
▁TEDx	-13.0209
▁specimen	-13.021
▁proton	-13.0211
▁weakness	-13.0211
▁playground	-13.0211
▁budd	-13.0212
▁Slow	-13.0212
▁Often	-13.0213
▁bitter	-13.0213
▁doubling	-13.0214
▁indirect	-13.0216
▁Dead	-13.0218
▁Dave	-13.0218
▁broc	-13.0222
▁startup	-13.0223
▁conception	-13.0224
▁terminal	-13.0225
▁deny	-13.0234
▁carrier	-13.0237
cher	-13.0237
▁Fast	-13.0237
nal	-13.0245
▁blogg	-13.0246
▁Mal	-13.025
ennis	-13.0252
▁reinforce	-13.0253
▁Kenyan	-13.0257
▁Jon	-13.026
▁Brook	-13.0262
▁complaint	-13.0263
▁synthesize	-13.0264
used	-13.0282
▁Philipp	-13.0284
iro	-13.0284
▁fled	-13.0293
▁emitt	-13.0293
▁Wire	-13.03
▁Gi	-13.03
▁Warr	-13.0307
za	-13.0307
▁Less	-13.0309
▁marked	-13.0316
not	-13.0325
▁estimat	-13.034
▁po	-13.0343
▁bull	-13.0346
az	-13.0347
▁eradicate	-13.0348
▁Cat	-13.0367
▁rig	-13.0369
CT	-13.0373
▁Con	-13.0373
uite	-13.0379
▁heroin	-13.0393
▁metropoli	-13.0394
▁sho	-13.0394
iego	-13.04
gh	-13.0422
▁poly	-13.0422
▁remembering	-13.0448
▁Side	-13.0448
view	-13.0455
back	-13.0457
▁woods	-13.0459
wear	-13.046
▁holder	-13.0461
▁Pier	-13.0465
▁cops	-13.0465
▁emit	-13.0466
▁accus	-13.0467
▁Soon	-13.0469
fold	-13.0471
huse	-13.0473
▁singular	-13.0475
gua	-13.0475
▁constitution	-13.0478
chi	-13.0486
▁invade	-13.049
▁vegetati	-13.0497
▁Marc	-13.0497
▁rag	-13.0499
▁Liberia	-13.0508
▁calci	-13.0511
▁compass	-13.0518
▁cheer	-13.0519
▁violin	-13.0519
▁monk	-13.0519
▁Taiwan	-13.0519
▁harass	-13.0519
▁imprison	-13.0519
▁Service	-13.0519
▁backpack	-13.0519
▁benign	-13.0519
▁choir	-13.0519
▁confusion	-13.0519
▁conscience	-13.0519
▁esteem	-13.0519
▁shuttle	-13.0519
▁syringe	-13.0519
▁visceral	-13.0519
▁unpredictab	-13.0519
▁boyfriend	-13.0519
▁niece	-13.0519
▁wreck	-13.0519
▁Ardu	-13.0519
▁Roger	-13.0519
▁masterpiece	-13.0519
▁coincidence	-13.0519
▁Nathan	-13.0519
▁blanket	-13.0519
▁uh	-13.0519
▁pollutant	-13.0519
▁Massac	-13.0519
▁horrific	-13.0519
▁distinctive	-13.0519
▁marvelous	-13.0519
▁Band	-13.052
▁adaptive	-13.052
▁Mola	-13.052
▁Alright	-13.052
▁distraction	-13.052
▁Sex	-13.052
▁audaci	-13.0521
▁compact	-13.0521
▁comprehensive	-13.0521
▁conductor	-13.0522
▁slaughter	-13.0522
▁thankful	-13.0522
▁Hindu	-13.0523
▁Tasmanian	-13.0523
quatic	-13.0524
▁motorcycle	-13.0524
▁memorial	-13.0525
▁meaningless	-13.0525
▁AT	-13.0526
▁torn	-13.0527
▁temporal	-13.0527
▁ham	-13.0528
HC	-13.0529
▁Live	-13.0531
▁lure	-13.0531
▁paraly	-13.0536
▁accompanie	-13.0537
▁Skyp	-13.054
▁charter	-13.0541
▁lapse	-13.0543
▁Change	-13.0549
ature	-13.055
▁technologist	-13.0551
▁caps	-13.0554
▁Gra	-13.0554
▁matche	-13.0555
▁unacceptabl	-13.0561
▁mum	-13.0563
▁tipp	-13.0563
▁adequate	-13.0565
▁Step	-13.0565
▁doom	-13.0567
▁psycho	-13.0573
▁justify	-13.0573
▁bent	-13.0575
▁stimulat	-13.0582
▁Bud	-13.0582
▁Jay	-13.0584
▁endur	-13.0589
▁rubb	-13.0594
▁News	-13.06
▁Nav	-13.0601
▁Journal	-13.0603
▁Kh	-13.0604
▁geographic	-13.0605
▁operational	-13.0611
▁incremental	-13.0612
bi	-13.0616
▁sw	-13.0619
ery	-13.0622
▁donat	-13.0629
▁warp	-13.063
Y	-13.0634
▁hypothes	-13.0639
▁visionar	-13.0644
midnight	-13.0644
▁lime	-13.0645
arity	-13.0647
lix	-13.0658
war	-13.0659
▁Alic	-13.0659
▁towns	-13.0663
▁planting	-13.068
uddin	-13.0697
▁du	-13.0699
▁continual	-13.0703
▁centered	-13.0717
▁Had	-13.0731
▁plankt	-13.0732
▁prostituti	-13.0736
▁commands	-13.0741
▁behav	-13.0741
▁needles	-13.0746
can	-13.0748
nformation	-13.075
▁vest	-13.075
▁merit	-13.0754
dding	-13.0762
▁Main	-13.0772
▁prioritize	-13.0776
▁Chi	-13.0777
▁democratiz	-13.078
▁digitize	-13.078
▁criticiz	-13.0782
▁listener	-13.0783
shine	-13.0784
alai	-13.0786
▁vibrat	-13.079
▁Mind	-13.0796
▁electro	-13.0802
▁unite	-13.0806
▁Francis	-13.0812
▁remark	-13.0815
ulu	-13.0821
▁activis	-13.0822
pping	-13.0823
▁overlap	-13.0831
sance	-13.0832
▁snap	-13.0832
▁offshor	-13.0833
▁propell	-13.0834
and	-13.0835
state	-13.0838
▁preach	-13.0839
caust	-13.0839
▁Lama	-13.084
▁straw	-13.084
▁sculpt	-13.084
▁consult	-13.0841
angelo	-13.0841
imbabwe	-13.0841
arliament	-13.0841
▁altruism	-13.0842
▁approval	-13.0842
▁monsoon	-13.0842
▁resonance	-13.0842
▁stereo	-13.0842
▁surplus	-13.0842
▁LGBT	-13.0842
▁delusion	-13.0842
▁submersible	-13.0842
▁Believe	-13.0842
▁Katrina	-13.0842
▁athletic	-13.0842
▁equator	-13.0842
▁migraine	-13.0842
▁prevail	-13.0842
▁responsive	-13.0842
▁hectare	-13.0842
▁prophet	-13.0842
▁Exact	-13.0842
▁hollow	-13.0842
▁mortgage	-13.0842
▁prejudice	-13.0842
▁radar	-13.0842
▁secular	-13.0842
▁vector	-13.0842
▁Report	-13.0842
▁surrender	-13.0842
▁quantitative	-13.0842
▁rib	-13.0842
▁debri	-13.0842
▁superior	-13.0842
▁wavelength	-13.0842
▁bombsight	-13.0842
▁dude	-13.0842
▁dug	-13.0842
▁ideological	-13.0842
▁superhero	-13.0842
▁dentist	-13.0842
▁cybercriminal	-13.0842
▁abortion	-13.0842
rief	-13.0842
▁suburban	-13.0842
▁temptation	-13.0842
viation	-13.0842
▁Rule	-13.0843
▁industrialize	-13.0843
▁violation	-13.0843
▁keen	-13.0843
▁sue	-13.0843
▁Susan	-13.0843
▁deployment	-13.0844
▁pigment	-13.0844
▁chill	-13.0844
▁grind	-13.0845
▁petal	-13.0846
▁throat	-13.0846
ians	-13.0847
▁Forget	-13.0847
ndex	-13.0848
▁jacket	-13.0848
▁volt	-13.0849
▁poetic	-13.085
▁halve	-13.0852
▁Julie	-13.0853
▁wax	-13.0853
▁reply	-13.0854
▁outlet	-13.0855
▁spott	-13.0857
▁geological	-13.0858
▁optimal	-13.0861
▁promotion	-13.0862
▁daylight	-13.0863
▁bay	-13.0867
▁wrestl	-13.0878
zona	-13.0879
▁Jen	-13.089
▁Send	-13.0897
▁tender	-13.0899
▁intangible	-13.0901
▁lone	-13.0903
▁rendering	-13.0906
▁bomber	-13.0906
▁MS	-13.0906
▁upgrade	-13.0907
iv	-13.091
▁entitle	-13.0912
▁blessing	-13.0923
cover	-13.0924
▁Gen	-13.0928
ao	-13.093
▁Marsha	-13.0935
ament	-13.0937
▁plac	-13.0938
▁ST	-13.0939
tention	-13.094
▁Bio	-13.0944
▁wor	-13.0945
▁fatt	-13.0946
▁swo	-13.0965
▁IM	-13.0967
▁prototyp	-13.0972
▁secondar	-13.0976
otto	-13.0982
▁dissolve	-13.0989
▁Tur	-13.099
rse	-13.0994
rt	-13.1001
eval	-13.1001
▁CN	-13.1006
gram	-13.1013
ator	-13.102
ik	-13.1028
ui	-13.1046
▁admir	-13.1053
▁protecti	-13.1055
▁Rea	-13.1061
▁believer	-13.1063
ade	-13.1063
▁presum	-13.1066
▁sav	-13.1072
▁nuclei	-13.1073
agement	-13.1077
▁exceptional	-13.1078
▁Maria	-13.108
▁bl	-13.1088
▁reasonabl	-13.1089
▁Ger	-13.11
▁loneli	-13.11
▁Radio	-13.1103
traction	-13.1104
▁recreate	-13.1107
uck	-13.1116
▁surf	-13.1117
▁refine	-13.112
▁Happ	-13.1122
aw	-13.1134
gi	-13.1135
ue	-13.1139
dad	-13.1139
q	-13.114
▁SB	-13.1148
▁buyer	-13.1157
▁anesthesi	-13.1165
zler	-13.1167
▁lasting	-13.1173
▁reflex	-13.1175
▁glory	-13.1175
▁chalk	-13.1175
▁pepper	-13.1175
▁Excuse	-13.1175
▁Hundred	-13.1175
▁Sydney	-13.1175
▁crocodile	-13.1175
▁regain	-13.1175
▁uninten	-13.1175
▁Desert	-13.1175
▁Window	-13.1175
▁arrogan	-13.1175
▁intricate	-13.1175
▁turbine	-13.1175
▁Ultimate	-13.1175
▁Short	-13.1175
▁orgasm	-13.1175
fiti	-13.1175
▁humid	-13.1175
▁glorious	-13.1175
▁consultant	-13.1175
▁shield	-13.1175
abbage	-13.1175
venge	-13.1175
▁obey	-13.1175
▁tuberc	-13.1175
▁orphanage	-13.1175
▁verge	-13.1175
▁shallow	-13.1175
▁Nicole	-13.1175
▁Guinea	-13.1175
▁Normal	-13.1176
▁beast	-13.1176
▁Darwinian	-13.1176
▁laz	-13.1176
stein	-13.1176
▁possession	-13.1176
▁wallet	-13.1176
▁grassland	-13.1177
▁Intel	-13.1177
▁Medit	-13.1177
▁Point	-13.1177
▁dragon	-13.1177
▁Evan	-13.1178
▁mock	-13.1178
▁auditorium	-13.1179
ulosi	-13.1179
ogue	-13.1179
▁Victorian	-13.118
zo	-13.118
▁bandw	-13.118
▁miser	-13.118
▁agnostic	-13.1181
▁attorney	-13.1181
ight	-13.1187
▁backup	-13.1191
▁char	-13.1192
▁epic	-13.1196
▁gangs	-13.1196
▁poke	-13.1199
tar	-13.1202
▁alliance	-13.1203
▁prescribe	-13.1207
▁commander	-13.1208
▁neurological	-13.1212
▁annoying	-13.1214
▁Cars	-13.1215
▁Sch	-13.1218
▁UCL	-13.1226
▁Bar	-13.1238
▁incorporate	-13.124
▁resonate	-13.1242
▁preferr	-13.1246
▁divergen	-13.1246
▁Ja	-13.1246
▁ruler	-13.1249
stream	-13.1249
▁vet	-13.1254
▁Bad	-13.1257
▁arous	-13.1258
▁originate	-13.126
▁Julian	-13.1261
▁Mama	-13.1266
▁shade	-13.1268
▁MA	-13.127
▁minimize	-13.1281
▁heated	-13.1284
▁revolutionize	-13.1285
▁depressing	-13.1291
▁charg	-13.1291
▁Us	-13.1298
▁Swa	-13.1302
▁congesti	-13.1304
▁displac	-13.1314
▁Tor	-13.1316
ba	-13.1317
▁pity	-13.1323
▁gam	-13.1339
▁manipulat	-13.1341
▁divine	-13.1343
▁cur	-13.1344
▁rage	-13.1354
ora	-13.1366
rum	-13.1372
▁maximize	-13.1379
rose	-13.1379
mino	-13.1394
▁Solar	-13.1399
▁entrepreneuri	-13.1402
ink	-13.1402
▁collaborat	-13.1402
CC	-13.1403
▁acknowledg	-13.1405
riving	-13.141
▁chat	-13.1413
▁sovereign	-13.1416
▁examin	-13.1417
urine	-13.1434
aker	-13.1434
▁courts	-13.144
ole	-13.1443
ifi	-13.1444
▁tr	-13.1447
▁occupation	-13.1456
MG	-13.1459
nutrition	-13.1461
frontal	-13.1462
foot	-13.1462
lash	-13.1469
▁treasure	-13.1469
cumen	-13.1472
▁humbl	-13.1476
tech	-13.1481
born	-13.1484
▁monument	-13.1486
▁graf	-13.1487
▁Gal	-13.1488
▁Mid	-13.1494
▁Plan	-13.1496
▁induc	-13.1498
▁dece	-13.1503
▁Davi	-13.1509
▁Costa	-13.1513
▁NI	-13.1514
ou	-13.1518
▁volcan	-13.1519
▁Palestin	-13.152
▁existential	-13.152
▁ambiguit	-13.152
▁draft	-13.152
▁exclude	-13.152
▁Copernic	-13.152
▁Depressio	-13.152
▁Language	-13.152
▁Modern	-13.152
▁Sputnik	-13.152
▁accommodate	-13.152
▁algebra	-13.152
▁decentraliz	-13.152
▁evident	-13.152
▁hypothetical	-13.152
▁lamb	-13.152
▁provision	-13.152
▁rediscover	-13.152
▁relevanc	-13.152
▁sulfur	-13.152
▁haunt	-13.152
▁railroad	-13.152
▁snapshot	-13.152
▁Spider	-13.152
▁laundr	-13.152
▁wetsuit	-13.152
▁grape	-13.152
▁erotic	-13.152
▁compliment	-13.152
▁knot	-13.152
▁Speak	-13.152
▁Stay	-13.152
▁Wilson	-13.152
▁stiff	-13.152
▁Deep	-13.152
▁Economic	-13.152
▁irre	-13.152
▁supercomputer	-13.152
▁Oak	-13.152
▁linguistic	-13.152
▁perpetrator	-13.152
bama	-13.152
▁joyful	-13.1521
▁nanotechnolog	-13.1521
▁crater	-13.1522
▁Station	-13.1522
▁Cross	-13.1522
tler	-13.1523
▁placebo	-13.1523
▁Patient	-13.1523
▁carti	-13.1524
▁disruption	-13.1524
▁shortage	-13.1525
▁Fall	-13.1527
▁Rich	-13.1527
▁mindful	-13.1528
▁clone	-13.153
▁haul	-13.1531
▁Che	-13.1538
▁misuse	-13.1541
▁sock	-13.1542
▁Cel	-13.1543
▁Game	-13.1547
▁cerebr	-13.1548
▁offend	-13.1548
▁Han	-13.1549
▁stripp	-13.1551
▁railway	-13.1552
▁Hard	-13.1555
▁Genom	-13.1558
▁Veg	-13.1562
▁SAR	-13.1567
bot	-13.1568
▁venue	-13.1571
erran	-13.1571
▁Rena	-13.1572
AR	-13.1573
nmark	-13.1573
hren	-13.1574
▁Williams	-13.1574
▁jumps	-13.1574
▁matern	-13.1576
▁Forest	-13.1577
▁praise	-13.1578
▁agil	-13.1589
▁criticize	-13.1592
▁lense	-13.16
▁northeast	-13.1605
▁Ninet	-13.1606
▁Bu	-13.161
▁mentors	-13.1618
▁enhanc	-13.1622
▁Gri	-13.1624
vy	-13.1628
inth	-13.1634
eur	-13.1639
▁sensibl	-13.1641
▁certificate	-13.1654
▁builder	-13.1659
▁Use	-13.1672
ru	-13.168
▁Jean	-13.1682
▁Colli	-13.1687
▁whistl	-13.1697
erial	-13.1698
▁Sub	-13.1715
bb	-13.172
▁NB	-13.172
▁drip	-13.1729
▁immers	-13.1738
▁Mel	-13.174
▁Kar	-13.1755
▁tactic	-13.1755
▁seize	-13.1756
▁crashe	-13.1757
titude	-13.176
ke	-13.1761
▁desir	-13.1771
NG	-13.1774
▁Tru	-13.178
▁pun	-13.1786
▁Anna	-13.1797
po	-13.1799
▁penetrate	-13.1805
illa	-13.1809
▁ag	-13.1813
▁undermine	-13.1817
vascular	-13.1818
complete	-13.1819
bu	-13.1825
▁devastat	-13.1833
▁disturb	-13.1839
stabilit	-13.1842
▁cultivate	-13.185
▁correlate	-13.1857
▁rabbi	-13.1857
vian	-13.1858
▁End	-13.1861
ca	-13.1862
▁moth	-13.1862
▁Ti	-13.1866
▁Cambodia	-13.1866
▁Tunisia	-13.1866
▁Bosnia	-13.1867
▁swap	-13.1867
athan	-13.187
▁dim	-13.1872
king	-13.1874
▁synthesi	-13.1875
▁toleran	-13.1875
▁possess	-13.1875
▁Tibet	-13.1877
fensive	-13.1877
▁improbab	-13.1877
▁buzz	-13.1877
▁nanometer	-13.1877
▁Perfect	-13.1877
▁burial	-13.1877
▁millisecond	-13.1877
▁petrol	-13.1877
▁pivot	-13.1877
▁remittance	-13.1877
▁spawn	-13.1877
▁unequal	-13.1877
▁Ministr	-13.1877
▁unnecessar	-13.1877
▁solemn	-13.1877
▁boson	-13.1877
▁bloom	-13.1877
▁rooftop	-13.1877
▁reimagin	-13.1877
▁lawsuit	-13.1877
▁Night	-13.1877
▁Kelly	-13.1877
▁astronomical	-13.1877
▁hurdle	-13.1877
ectar	-13.1877
▁vicious	-13.1877
▁Irish	-13.1877
ltimo	-13.1877
▁reconnect	-13.1877
▁Bridge	-13.1878
▁constructive	-13.1878
▁eager	-13.1878
▁Poor	-13.1878
▁inefficient	-13.1878
▁pupp	-13.1878
▁simulator	-13.1878
ington	-13.1878
▁census	-13.1879
▁stall	-13.1879
▁gland	-13.1879
▁Max	-13.1879
▁guideline	-13.188
▁waterfall	-13.188
▁anomal	-13.1881
▁innate	-13.1881
▁Along	-13.1881
Barack	-13.1881
▁biotechnolog	-13.1881
▁excellence	-13.1882
▁mic	-13.1883
▁armor	-13.1883
▁solita	-13.1883
▁contractor	-13.1885
j	-13.1886
▁implicit	-13.1886
▁Pink	-13.1886
▁invad	-13.1889
▁CI	-13.1892
▁analytical	-13.1896
▁experimentation	-13.1897
met	-13.1903
▁auditor	-13.1904
▁Pakistani	-13.1906
▁recreation	-13.1907
mark	-13.1909
▁void	-13.1909
▁undergo	-13.1909
▁Call	-13.1909
▁murderer	-13.1914
▁inflate	-13.1917
▁bearing	-13.192
▁Bear	-13.1931
▁Buy	-13.1935
▁reminder	-13.1938
▁grader	-13.1939
MW	-13.1941
▁slipp	-13.1947
▁merge	-13.1948
▁fung	-13.1948
▁bully	-13.1953
▁fitte	-13.1961
▁tapp	-13.1962
ggle	-13.1965
▁abusi	-13.1978
▁commons	-13.1978
▁Aust	-13.1986
▁reuse	-13.1987
▁gel	-13.1989
cuba	-13.1997
ov	-13.2004
▁purchas	-13.201
▁incidental	-13.2011
▁Vent	-13.2013
▁beds	-13.2013
▁arrange	-13.2037
ado	-13.2038
▁cris	-13.2039
▁queue	-13.2044
ED	-13.2049
cha	-13.2065
▁Wa	-13.2066
saw	-13.2075
bro	-13.2085
▁frie	-13.2099
▁imitate	-13.2099
▁Bolt	-13.2101
ima	-13.211
▁beard	-13.2112
▁governor	-13.2117
▁Beck	-13.2132
▁compos	-13.2134
ura	-13.2138
mbo	-13.2143
▁hung	-13.2144
▁initiat	-13.2155
▁Nine	-13.216
▁Cam	-13.2161
▁Abu	-13.2163
ek	-13.2164
▁forbid	-13.2166
▁medi	-13.2167
▁customiz	-13.2167
heid	-13.2171
▁Mov	-13.2171
▁adjacen	-13.2171
▁reus	-13.2173
▁MoM	-13.2174
▁pale	-13.2179
ila	-13.2182
▁fad	-13.2183
flow	-13.2187
secure	-13.2189
strong	-13.219
ional	-13.2196
▁exceed	-13.2204
▁annoy	-13.2204
▁astonish	-13.2205
▁Hel	-13.2205
▁mutilat	-13.2211
▁certifi	-13.2212
▁Cup	-13.2215
ept	-13.2216
lit	-13.222
app	-13.2227
cou	-13.2234
pp	-13.2237
▁clap	-13.224
lla	-13.224
▁cogniti	-13.2242
airo	-13.2242
▁cardio	-13.2246
▁refrigerat	-13.2246
▁spear	-13.2247
▁biotech	-13.2247
▁cheek	-13.2247
▁condemn	-13.2247
▁Field	-13.2247
▁Lawrence	-13.2247
▁Ushahidi	-13.2247
▁ambassador	-13.2247
▁anecdote	-13.2247
▁balcon	-13.2247
▁conspirac	-13.2247
▁explosive	-13.2247
▁hippocamp	-13.2247
▁hurricane	-13.2247
▁meadow	-13.2247
▁mutant	-13.2247
▁repertoire	-13.2247
▁respirator	-13.2247
▁capsule	-13.2247
▁efficac	-13.2247
▁estrogen	-13.2247
▁gossip	-13.2247
▁perceptual	-13.2247
▁Alpha	-13.2247
▁Serious	-13.2247
▁DARPA	-13.2247
▁Achill	-13.2247
▁supplement	-13.2247
▁Network	-13.2247
▁forehead	-13.2247
▁unaware	-13.2247
▁servant	-13.2247
▁discard	-13.2248
▁Among	-13.2248
▁slot	-13.2248
▁Fox	-13.2248
▁heartbreak	-13.2248
▁Pix	-13.2248
▁shortcut	-13.2248
▁iteration	-13.2248
▁metaphorical	-13.2248
rus	-13.2248
▁lightweight	-13.2248
▁serial	-13.2248
▁simplistic	-13.2249
▁swear	-13.2249
▁PhD	-13.2249
▁unifie	-13.2249
▁recommendation	-13.2249
▁reluctant	-13.225
▁Margar	-13.225
▁reconstruction	-13.225
▁attachment	-13.2251
▁raft	-13.2251
▁Uber	-13.2252
▁beekeeper	-13.2253
▁embark	-13.2253
▁fictional	-13.2254
▁unto	-13.2255
▁env	-13.2255
▁spaceship	-13.2255
▁rip	-13.2256
▁badge	-13.2257
▁puncture	-13.2257
▁mustard	-13.2257
▁bark	-13.2259
▁sci	-13.2262
ronto	-13.2262
ella	-13.2262
▁pest	-13.2263
hire	-13.2268
ani	-13.227
▁memorize	-13.227
▁Gol	-13.227
▁Bring	-13.2277
▁plugg	-13.2277
▁Case	-13.2278
▁Hyper	-13.2279
ibera	-13.2293
▁pops	-13.2293
▁Alr	-13.2297
▁facilitate	-13.2299
Neil	-13.2304
ark	-13.2309
ook	-13.2318
▁elevate	-13.2323
▁Lang	-13.2323
▁leaning	-13.2325
▁racis	-13.2328
everal	-13.2328
▁protester	-13.2333
▁economical	-13.2335
▁meditat	-13.2339
▁mistaken	-13.2345
▁corresponding	-13.2345
▁Self	-13.2347
Gowan	-13.2351
▁fairy	-13.2356
▁deer	-13.2359
▁Hu	-13.236
▁Trac	-13.2361
NO	-13.2367
fe	-13.2377
ippi	-13.2379
stan	-13.2385
ylan	-13.2388
▁Test	-13.2397
▁lik	-13.2398
▁eras	-13.2401
▁rehabilitati	-13.2409
▁Gh	-13.2412
▁influenc	-13.2415
▁regenerati	-13.2415
▁Carol	-13.2417
▁Bab	-13.2417
▁yo	-13.242
rit	-13.2422
▁erase	-13.2423
▁Ad	-13.2426
▁scholar	-13.2426
ged	-13.2431
▁fails	-13.2433
▁Wood	-13.2439
▁wool	-13.2446
▁freeway	-13.2449
ropical	-13.2455
▁abnormal	-13.2455
DE	-13.2456
▁grim	-13.2465
▁Add	-13.2467
▁obscure	-13.2467
cca	-13.2467
▁pore	-13.2482
unch	-13.249
▁Tro	-13.2504
▁Code	-13.2504
▁fram	-13.2508
▁brut	-13.2509
▁bounc	-13.2511
ater	-13.2512
▁geometric	-13.2518
▁seasonal	-13.2527
▁Com	-13.2532
▁rival	-13.2533
▁dr	-13.2538
rah	-13.2541
▁wip	-13.2556
▁mediate	-13.2564
flu	-13.2572
▁echo	-13.2573
▁disc	-13.2574
finish	-13.2575
▁hom	-13.2578
▁sketche	-13.258
▁skie	-13.2583
▁peel	-13.259
▁dual	-13.2591
▁Va	-13.2596
▁Jaz	-13.2598
lic	-13.2602
▁canal	-13.2608
▁reache	-13.2608
▁pal	-13.2609
ini	-13.2609
▁zip	-13.2611
▁analytic	-13.2611
▁v	-13.2613
▁Medic	-13.2614
▁sneak	-13.2614
old	-13.2615
▁Whit	-13.2621
▁Kim	-13.2622
▁lend	-13.2623
▁Low	-13.2624
fu	-13.2625
tica	-13.2626
▁steril	-13.2628
ug	-13.2629
▁renew	-13.263
▁amuse	-13.263
▁cubic	-13.2632
▁Everglade	-13.2632
▁unthink	-13.2632
▁sniff	-13.2632
▁template	-13.2632
counterintuitive	-13.2632
▁Amazing	-13.2632
▁Guatemala	-13.2632
▁Pantheon	-13.2632
▁Virtual	-13.2632
▁antidepressant	-13.2632
▁gecko	-13.2632
▁mammograph	-13.2632
▁mutate	-13.2632
▁nickname	-13.2632
▁nuance	-13.2632
▁sapien	-13.2632
▁suspicious	-13.2632
▁unsustainabl	-13.2632
▁Group	-13.2632
▁Model	-13.2632
▁communal	-13.2632
▁empirical	-13.2632
▁homosexual	-13.2632
▁orangutan	-13.2632
▁paragraph	-13.2632
▁seizure	-13.2632
▁administrator	-13.2632
▁biograph	-13.2632
▁Emma	-13.2632
▁preschool	-13.2632
▁epiphan	-13.2632
▁checklist	-13.2632
▁nomad	-13.2632
▁pension	-13.2632
▁rigorous	-13.2632
▁Type	-13.2632
▁inhabitant	-13.2632
▁landfill	-13.2632
▁polish	-13.2632
▁jean	-13.2632
▁trustworth	-13.2632
▁physiological	-13.2632
▁convenience	-13.2632
▁Master	-13.2632
▁Gord	-13.2632
▁BMW	-13.2632
▁peek	-13.2633
▁Truth	-13.2633
▁payoff	-13.2633
▁viewpoint	-13.2633
▁announcement	-13.2633
▁pneumo	-13.2633
▁rainbow	-13.2633
▁uplift	-13.2633
▁pronounce	-13.2633
▁cabin	-13.2634
▁standardize	-13.2634
▁enthusiastic	-13.2634
▁Millenni	-13.2635
▁latitude	-13.2635
▁livelihood	-13.2635
▁establishment	-13.2635
▁scatter	-13.2635
▁flute	-13.2635
eera	-13.2636
▁portal	-13.2636
▁compatib	-13.2638
▁eros	-13.2638
▁herb	-13.2638
▁visualiz	-13.2638
▁clash	-13.2639
▁feasib	-13.264
▁booth	-13.264
▁centraliz	-13.264
▁forager	-13.2643
dor	-13.2646
▁sting	-13.2647
▁racist	-13.2653
▁thoughtful	-13.2654
▁whip	-13.2655
▁collector	-13.2657
▁Fair	-13.2658
▁blam	-13.2659
▁bury	-13.2659
▁underwa	-13.2659
▁dodo	-13.266
▁Close	-13.2663
▁Save	-13.2663
▁Justine	-13.2666
▁stripe	-13.2671
▁Easter	-13.2672
▁Lead	-13.2673
▁Bol	-13.2676
▁changer	-13.268
▁blurr	-13.2682
▁token	-13.2684
▁dispers	-13.2684
▁timeline	-13.2687
▁patholog	-13.269
away	-13.2693
▁Incredible	-13.2695
▁Glass	-13.2701
▁lava	-13.2706
▁virtu	-13.2708
teen	-13.2708
▁pearl	-13.2716
▁merc	-13.2729
▁evaporate	-13.2733
▁fracture	-13.2733
▁closet	-13.2741
ctor	-13.2746
▁Shar	-13.2756
▁organizer	-13.2758
▁signing	-13.2759
▁unimaginabl	-13.2762
▁Tay	-13.2765
FL	-13.2768
▁Hell	-13.2789
▁oppress	-13.2793
enberg	-13.2794
▁Stor	-13.2804
▁substitute	-13.2809
▁verse	-13.2816
▁stat	-13.2816
▁summ	-13.2819
▁Westerner	-13.2826
▁teens	-13.2833
▁lander	-13.2833
KA	-13.2834
emia	-13.2842
ph	-13.2845
▁Mad	-13.285
▁Luc	-13.285
sas	-13.2862
ill	-13.2867
▁genital	-13.2877
▁curv	-13.2879
▁photon	-13.2882
rick	-13.2884
▁teen	-13.2884
▁Pick	-13.2893
▁Ice	-13.2893
▁sham	-13.2894
venue	-13.2899
▁Tri	-13.29
mba	-13.2904
av	-13.2906
▁correction	-13.2907
▁bands	-13.2913
▁Sing	-13.2914
▁cone	-13.2915
▁uncertain	-13.2922
▁evaporat	-13.2929
▁ethnicit	-13.2936
▁clon	-13.2938
▁cosmolog	-13.2938
▁NA	-13.294
▁reconcile	-13.2941
▁surge	-13.2942
icious	-13.2942
▁moderate	-13.2943
▁Julia	-13.2953
▁Aspe	-13.2955
▁refin	-13.2958
▁emergen	-13.2961
hei	-13.2972
weight	-13.2973
economic	-13.2974
adequate	-13.2979
▁permit	-13.2979
▁tolerate	-13.298
▁cock	-13.2985
ette	-13.2985
▁distract	-13.299
▁heck	-13.3
▁periodic	-13.3001
▁violate	-13.3002
▁Fo	-13.3006
▁Acc	-13.3013
▁Ag	-13.3016
▁juggl	-13.3017
▁folds	-13.3018
▁thermo	-13.3024
▁sympath	-13.3024
▁IT	-13.3028
▁marvel	-13.3031
▁testimon	-13.3032
▁commerc	-13.3032
▁disparit	-13.3032
▁excerpt	-13.3032
▁mammogram	-13.3032
▁qualify	-13.3032
▁Darfur	-13.3032
▁Democracy	-13.3032
▁Murray	-13.3032
▁Oregon	-13.3032
▁Pepsi	-13.3032
▁miraculous	-13.3032
▁resign	-13.3032
▁superstar	-13.3032
▁unveil	-13.3032
▁Freud	-13.3032
▁aspire	-13.3032
▁detach	-13.3032
▁introvert	-13.3032
▁Village	-13.3032
▁confusing	-13.3032
▁holistic	-13.3032
▁hygien	-13.3032
▁vibran	-13.3032
▁plunge	-13.3032
▁ruling	-13.3032
▁illiterate	-13.3032
▁socket	-13.3032
▁variant	-13.3032
▁Russe	-13.3032
▁classmate	-13.3032
▁veterinarian	-13.3032
▁catalyst	-13.3032
▁packet	-13.3032
▁NL	-13.3032
▁Fish	-13.3033
▁sociologist	-13.3033
▁cynic	-13.3033
▁restoration	-13.3033
▁catalog	-13.3033
▁persever	-13.3033
▁expressive	-13.3033
▁crust	-13.3033
▁hypertensi	-13.3033
▁evaluation	-13.3033
▁ovari	-13.3034
▁Titanic	-13.3034
▁arithmetic	-13.3034
▁Trust	-13.3034
▁pok	-13.3034
▁Grace	-13.3035
▁flatten	-13.3035
▁grace	-13.3035
▁Creative	-13.3035
▁paradi	-13.3036
▁TR	-13.3036
▁strive	-13.3036
▁generalize	-13.3036
▁Huh	-13.3037
▁pheromone	-13.3037
▁Cloud	-13.3038
▁Brain	-13.3039
▁nitr	-13.304
▁Inside	-13.3042
▁collide	-13.3044
▁extremist	-13.3045
▁clapp	-13.3045
than	-13.3045
▁persistent	-13.3045
▁UV	-13.3049
OL	-13.3051
▁Fred	-13.3057
▁coma	-13.3058
daho	-13.3059
▁Cooper	-13.3061
eum	-13.3062
▁beep	-13.3068
▁sands	-13.3068
▁Head	-13.3071
▁Hadr	-13.3075
HO	-13.3076
▁Sony	-13.3078
MF	-13.3078
ending	-13.3083
▁sober	-13.3085
▁Rica	-13.3088
he	-13.31
cratch	-13.3107
▁knitt	-13.3111
▁gatherer	-13.3112
▁sponge	-13.3116
▁Mada	-13.312
▁cruise	-13.3125
▁dye	-13.3129
▁Beyon	-13.313
▁Rais	-13.314
▁tuck	-13.3144
▁roller	-13.3146
▁conform	-13.3148
▁Jas	-13.3153
▁Pal	-13.3154
▁BC	-13.3154
▁curse	-13.3158
▁hairs	-13.3158
▁Pi	-13.3159
▁Ash	-13.3162
▁Beet	-13.3171
▁Shi	-13.3174
rich	-13.3197
▁gentl	-13.321
▁Gall	-13.3213
hold	-13.3227
▁rena	-13.326
corn	-13.3268
▁pickle	-13.3269
▁cycl	-13.327
▁displace	-13.3276
IMS	-13.3283
▁Coc	-13.329
ff	-13.3294
hran	-13.33
eague	-13.33
▁sunn	-13.3326
▁circulat	-13.3327
▁sampl	-13.3327
▁pessimist	-13.3341
▁wrinkle	-13.335
▁morph	-13.3355
▁Wit	-13.3361
ji	-13.3366
aba	-13.3373
▁interfere	-13.3383
bucks	-13.339
▁AO	-13.3391
▁Don	-13.3393
pt	-13.3395
load	-13.3395
▁Mont	-13.3396
▁AI	-13.3402
balone	-13.341
▁Leader	-13.3411
liberation	-13.3416
her	-13.3417
roid	-13.3419
▁induce	-13.342
▁Kal	-13.3421
jan	-13.3422
gu	-13.3423
scape	-13.3429
▁Fly	-13.3431
▁devote	-13.3436
▁Commission	-13.3441
▁emphasi	-13.3445
▁shove	-13.3446
▁horrifi	-13.3448
eopard	-13.3448
▁Wonder	-13.3448
▁vibrate	-13.3448
▁hobby	-13.3448
▁synesthe	-13.3448
▁Sebastia	-13.3449
▁giraffe	-13.3449
▁taxpayer	-13.3449
▁Magazine	-13.3449
▁Picture	-13.3449
▁alpha	-13.3449
▁bureaucrac	-13.3449
▁discomfort	-13.3449
▁disparate	-13.3449
▁exoplanet	-13.3449
▁eyebrow	-13.3449
▁fingerprint	-13.3449
▁homicide	-13.3449
▁identification	-13.3449
▁ingenious	-13.3449
▁plague	-13.3449
▁reptile	-13.3449
▁scoop	-13.3449
▁semester	-13.3449
▁tectonic	-13.3449
▁Circle	-13.3449
▁bookstore	-13.3449
▁discrete	-13.3449
▁plaster	-13.3449
▁Discover	-13.3449
▁Mahat	-13.3449
▁desalinat	-13.3449
▁seamless	-13.3449
▁Bonobo	-13.3449
▁Economist	-13.3449
▁composite	-13.3449
▁counterpart	-13.3449
▁suitcase	-13.3449
▁Uncle	-13.3449
▁lesion	-13.3449
▁league	-13.3449
▁psychic	-13.3449
▁hurry	-13.3449
▁pedal	-13.3449
▁pinpoint	-13.3449
▁Flick	-13.3449
▁complication	-13.3449
▁immigration	-13.3449
▁Kind	-13.3449
▁Corporation	-13.3449
▁Honey	-13.3449
▁dislike	-13.3449
▁notebook	-13.3449
▁exile	-13.3449
▁droplet	-13.3449
▁mama	-13.3449
▁twenty	-13.3449
▁roommate	-13.3449
▁payload	-13.3449
▁billionaire	-13.3449
▁instructor	-13.3449
▁Wide	-13.345
▁embarrassment	-13.345
▁carcinogen	-13.345
▁mantra	-13.3451
▁humiliation	-13.3451
▁centi	-13.3451
▁Million	-13.3451
▁respectful	-13.3451
▁PH	-13.3451
▁hike	-13.3452
▁relational	-13.3452
▁Thousand	-13.3452
▁poop	-13.3452
▁asylum	-13.3453
▁setup	-13.3453
▁Sri	-13.3454
▁Director	-13.3454
▁fitting	-13.3454
▁rejection	-13.3454
▁tailor	-13.3455
Agnes	-13.3455
▁Wild	-13.3455
▁strapp	-13.3457
▁participator	-13.3458
▁Kath	-13.3459
▁simplify	-13.346
▁bladder	-13.346
▁Ark	-13.346
▁competent	-13.3462
genes	-13.3465
▁rotation	-13.3466
▁awaken	-13.3466
rk	-13.3467
▁RI	-13.3468
▁coherent	-13.347
▁complet	-13.3478
▁Ell	-13.3479
▁Near	-13.348
ucky	-13.348
▁horn	-13.3483
▁optimiz	-13.3485
▁stunning	-13.3485
▁casualt	-13.3487
▁auction	-13.3487
▁Palm	-13.3488
▁Jacque	-13.3489
▁Shir	-13.3492
▁rides	-13.3493
▁zo	-13.3497
▁Cassi	-13.3498
▁spit	-13.3504
▁rubbl	-13.3506
▁Baby	-13.3511
▁surfing	-13.3512
▁Stein	-13.3516
▁Mose	-13.3518
ef	-13.3527
▁Pa	-13.3529
▁synchronize	-13.3531
▁penetrat	-13.3533
▁loyalt	-13.3535
▁villager	-13.3537
ological	-13.3541
▁locomot	-13.3544
ompassion	-13.3553
▁Drugs	-13.356
▁alarming	-13.3561
▁Mai	-13.3567
▁beans	-13.3568
ester	-13.3575
▁competenc	-13.3575
▁widen	-13.3576
▁Dam	-13.3582
▁soar	-13.3584
▁Leg	-13.3586
port	-13.3589
▁radioactiv	-13.3592
▁handl	-13.3598
if	-13.3599
▁systemic	-13.3601
▁constitute	-13.361
▁Um	-13.3611
▁execut	-13.3616
▁multipli	-13.3629
▁hood	-13.3633
▁repli	-13.3633
zing	-13.3637
-'	-13.3639
berry	-13.364
bert	-13.3641
▁MO	-13.3644
▁Europ	-13.3648
illin	-13.365
▁marginaliz	-13.366
don	-13.3662
iff	-13.3669
▁theft	-13.3672
ith	-13.3674
▁liberate	-13.3675
▁dictator	-13.3675
▁functionalit	-13.3676
cela	-13.3688
▁boot	-13.3688
▁Cap	-13.3692
▁Kara	-13.3696
▁escap	-13.3709
▁hoo	-13.371
▁forage	-13.3716
ward	-13.372
▁rhetoric	-13.3733
RL	-13.3735
▁union	-13.3737
▁ramp	-13.3743
▁welcom	-13.3767
▁tails	-13.3767
ines	-13.3767
hell	-13.3771
▁touche	-13.3771
▁traveler	-13.3795
▁Rem	-13.3795
▁Cor	-13.3796
▁Hand	-13.3808
▁Plu	-13.3808
▁pat	-13.3811
▁col	-13.3813
▁Mau	-13.3815
cker	-13.3818
Corp	-13.3823
limited	-13.3825
belief	-13.3826
polar	-13.3827
▁touris	-13.3831
osphere	-13.3852
▁Nic	-13.3854
ps	-13.3861
▁Though	-13.3863
▁classifi	-13.3865
tric	-13.3866
▁downsta	-13.3869
og	-13.387
step	-13.387
ars	-13.3871
▁Whitopia	-13.3872
▁strap	-13.3875
▁monopol	-13.3875
▁fleet	-13.3875
razine	-13.3876
▁savanna	-13.3878
rid	-13.3879
▁mist	-13.388
▁contradict	-13.3882
▁peripher	-13.3882
▁dictate	-13.3883
▁weave	-13.3883
hrir	-13.3883
entagon	-13.3883
onze	-13.3883
▁tele	-13.3883
▁susceptib	-13.3883
nterviewer	-13.3883
▁Tami	-13.3883
▁Text	-13.3883
▁oblivio	-13.3883
▁applaud	-13.3883
▁cemeter	-13.3883
▁hominid	-13.3883
▁misconception	-13.3883
▁swirl	-13.3883
▁tadpole	-13.3883
Speech	-13.3883
elecommunication	-13.3883
▁Cameron	-13.3883
▁Club	-13.3883
▁Conference	-13.3883
▁Falcon	-13.3883
▁Fantastic	-13.3883
▁Gaza	-13.3883
▁Innovation	-13.3883
▁Nevada	-13.3883
▁Progress	-13.3883
▁Record	-13.3883
▁Tweet	-13.3883
▁adversit	-13.3883
▁fission	-13.3883
▁hijack	-13.3883
▁jurisdiction	-13.3883
▁mangrove	-13.3883
▁postcard	-13.3883
▁prevalent	-13.3883
▁ridicule	-13.3883
▁sprawl	-13.3883
▁terrestrial	-13.3883
▁toddler	-13.3883
▁cumulative	-13.3883
▁reckless	-13.3883
▁vague	-13.3883
▁Saint	-13.3883
▁napkin	-13.3883
▁scandal	-13.3883
▁Check	-13.3883
▁Essential	-13.3883
▁acronym	-13.3883
▁cosmetic	-13.3883
▁Galile	-13.3883
▁Dubai	-13.3883
▁dominance	-13.3883
▁banjo	-13.3883
▁saturat	-13.3883
▁cyclist	-13.3883
▁dictatorship	-13.3883
▁imaginative	-13.3883
▁tweak	-13.3883
▁Hungarian	-13.3883
▁byproduct	-13.3883
▁excessive	-13.3884
▁graceful	-13.3884
▁championship	-13.3884
▁incubator	-13.3884
▁hostilit	-13.3884
▁hover	-13.3884
▁withdraw	-13.3884
▁Town	-13.3884
▁audition	-13.3884
▁mash	-13.3884
▁prox	-13.3884
▁Minne	-13.3884
▁Strange	-13.3884
▁Fear	-13.3885
▁sa	-13.3885
▁coalition	-13.3885
▁counselor	-13.3885
▁degradation	-13.3885
ISA	-13.3885
▁bombard	-13.3885
▁Father	-13.3885
Channel	-13.3885
▁Mello	-13.3885
▁parade	-13.3886
▁modular	-13.3886
▁integral	-13.3886
▁vend	-13.3886
▁pornograph	-13.3886
▁Walter	-13.3887
▁quantify	-13.3887
▁bolt	-13.3887
▁peril	-13.3888
▁pollinator	-13.3888
▁Federal	-13.3888
▁cult	-13.3888
▁deadline	-13.3889
▁hull	-13.389
▁accelerator	-13.389
iath	-13.389
▁Tree	-13.389
▁advancement	-13.3891
▁astounding	-13.3892
▁Doug	-13.3893
▁extraction	-13.3893
▁Politic	-13.3893
▁anchor	-13.3895
▁Ground	-13.3895
▁Market	-13.3896
▁versa	-13.3897
▁Teacher	-13.3897
▁companion	-13.3897
▁algorithmic	-13.3897
▁propeller	-13.3899
▁differential	-13.39
tting	-13.39
awa	-13.3901
rex	-13.3901
▁residu	-13.3902
▁shredd	-13.3904
▁affection	-13.3906
▁messag	-13.3907
▁pastor	-13.3913
iful	-13.3914
▁violat	-13.3915
▁Hero	-13.3915
▁redefin	-13.3916
▁uprising	-13.3917
▁brows	-13.3922
▁Teach	-13.3926
▁Lind	-13.3927
▁carbonate	-13.3942
▁Bond	-13.3944
▁projector	-13.3945
nonymous	-13.3948
aptain	-13.395
dus	-13.3951
▁intimidat	-13.3953
phy	-13.3957
▁fabricate	-13.3963
DL	-13.3969
▁migrat	-13.3969
v	-13.3969
ich	-13.3971
▁Jenn	-13.3973
▁Leo	-13.3979
top	-13.3986
ascar	-13.3989
▁Ram	-13.399
▁foreigner	-13.3993
▁Math	-13.3998
▁legg	-13.3998
gon	-13.3998
▁wasp	-13.4004
▁outline	-13.4005
pont	-13.4007
du	-13.4011
▁prostitute	-13.4017
▁nurs	-13.4017
▁basin	-13.4022
down	-13.4029
iger	-13.4046
▁resembl	-13.405
sea	-13.4053
▁Aur	-13.4063
ix	-13.4067
▁revers	-13.4074
inner	-13.4085
PEC	-13.4087
▁Cala	-13.4101
▁Diet	-13.4119
▁scholars	-13.4121
▁Jami	-13.4129
sari	-13.4131
▁arrang	-13.4136
▁Word	-13.4137
mart	-13.4139
▁Dea	-13.4144
▁calv	-13.4157
▁locomoti	-13.4159
▁Coh	-13.4166
▁VC	-13.4168
▁dam	-13.4168
▁Gu	-13.4169
▁Nu	-13.4192
▁pee	-13.4196
rin	-13.4201
MI	-13.4202
▁nudge	-13.4204
ograph	-13.4209
▁SR	-13.4212
▁gifted	-13.4214
▁Fat	-13.4232
▁Las	-13.4237
cro	-13.424
▁propulsi	-13.4241
▁va	-13.4245
mas	-13.4254
of	-13.4262
▁wid	-13.4268
▁Bert	-13.4272
▁temporari	-13.4276
▁discriminat	-13.4276
sexual	-13.428
▁Run	-13.4286
▁commentar	-13.4287
▁nun	-13.4289
▁copi	-13.4297
▁BL	-13.4306
ough	-13.431
▁doodl	-13.4312
▁tinker	-13.4322
▁Mari	-13.4325
▁fisc	-13.4325
▁whil	-13.4326
utheast	-13.4327
ify	-13.4329
▁desperat	-13.433
▁sentiment	-13.4336
▁mob	-13.4336
▁juni	-13.4338
▁cereal	-13.4338
▁intellect	-13.4338
▁maze	-13.4338
▁rupee	-13.4338
▁Control	-13.4338
▁Enlighten	-13.4338
▁gorilla	-13.4338
▁sanctuar	-13.4338
▁transgender	-13.4338
▁yogurt	-13.4338
▁Aaron	-13.4338
▁Exxon	-13.4338
▁Glenn	-13.4338
▁Jennifer	-13.4338
▁Lakota	-13.4338
▁Nanopatch	-13.4338
▁Solomon	-13.4338
▁aerodynamic	-13.4338
▁cafeteria	-13.4338
▁constellation	-13.4338
▁daunting	-13.4338
▁drastic	-13.4338
▁elusive	-13.4338
▁lettuce	-13.4338
▁magnify	-13.4338
▁premature	-13.4338
▁prompt	-13.4338
▁skyscraper	-13.4338
▁unfamiliar	-13.4338
▁unnatural	-13.4338
▁unpleasant	-13.4338
▁vegetarian	-13.4338
▁Current	-13.4338
▁biomaterial	-13.4338
▁bruise	-13.4338
▁courtyard	-13.4338
▁hydrocarbon	-13.4338
▁redundan	-13.4338
▁Convention	-13.4338
▁Survey	-13.4338
▁Understand	-13.4338
▁hippie	-13.4338
▁imbalance	-13.4338
▁sequester	-13.4338
igital	-13.4338
▁widow	-13.4338
▁admission	-13.4338
▁microwave	-13.4338
▁apparatus	-13.4338
▁beaver	-13.4338
▁mainframe	-13.4338
▁biops	-13.4338
▁hunch	-13.4338
▁reservation	-13.4338
▁Malawi	-13.4338
▁blunt	-13.4338
▁typeface	-13.4338
▁MBA	-13.4338
▁Left	-13.4338
▁Hotel	-13.4338
▁Isabel	-13.4338
▁mantis	-13.4338
▁stink	-13.4338
▁Further	-13.4338
▁appall	-13.4338
▁fridge	-13.4338
▁Toyota	-13.4338
▁headphone	-13.4338
▁residential	-13.4338
▁ballot	-13.4338
▁ceramic	-13.4338
▁reception	-13.4338
▁subset	-13.4338
▁Bono	-13.4338
▁Shoot	-13.4338
▁hump	-13.4338
▁slate	-13.4338
▁bureaucratic	-13.4339
▁facade	-13.4339
▁sword	-13.4339
▁Barry	-13.4339
▁cubicle	-13.4339
▁energetic	-13.4339
▁Oil	-13.4339
▁twentie	-13.4339
▁Alto	-13.4339
▁carpenter	-13.4339
▁electora	-13.4339
▁precipitat	-13.4339
▁simplifie	-13.4339
▁hostage	-13.434
▁replicator	-13.434
▁DM	-13.434
▁Engineer	-13.434
▁amplify	-13.434
▁diplomatic	-13.434
▁geneticist	-13.4341
disproportionate	-13.4341
▁fundamentalist	-13.4341
▁confrontation	-13.4342
▁dataset	-13.4342
▁Meli	-13.4342
▁Islamist	-13.4343
▁cough	-13.4343
▁corp	-13.4343
▁browse	-13.4344
▁perpetual	-13.4344
▁sleeve	-13.4344
▁statistician	-13.4345
▁decipher	-13.4345
▁Face	-13.4345
▁arrival	-13.4346
▁NY	-13.4346
▁groom	-13.4348
▁prim	-13.4349
▁supplier	-13.435
▁DD	-13.435
▁bald	-13.4351
feld	-13.4352
▁slipper	-13.4352
▁communist	-13.4353
▁hence	-13.4353
▁Ros	-13.4354
▁MM	-13.4355
▁therapeutic	-13.4355
▁contributor	-13.4358
▁Hud	-13.4358
▁hedge	-13.4361
▁offender	-13.4364
▁Chad	-13.4365
▁downside	-13.4371
iel	-13.4372
▁characterize	-13.4372
▁sewer	-13.4373
▁degrade	-13.4373
▁cancel	-13.4374
▁Image	-13.4377
▁inquir	-13.4382
▁Environmental	-13.4382
▁Den	-13.4385
▁AV	-13.4387
▁entr	-13.4388
ithium	-13.4389
▁objection	-13.439
ala	-13.439
▁Sit	-13.4392
▁vaccinat	-13.44
▁bid	-13.4402
rane	-13.4402
ound	-13.4412
▁weep	-13.4414
▁contemplat	-13.4414
▁porn	-13.4417
oca	-13.4432
cent	-13.4438
▁forbidd	-13.4439
▁notation	-13.4443
▁occupi	-13.4449
▁Min	-13.4456
▁Par	-13.4457
▁lip	-13.4459
uc	-13.4462
▁teas	-13.4489
▁despi	-13.4491
▁convergen	-13.4493
▁fl	-13.4496
▁Brand	-13.4504
▁Aw	-13.4505
▁sanitar	-13.4513
▁immersi	-13.4529
ome	-13.4529
▁dunes	-13.453
▁Bever	-13.4534
▁Nag	-13.4535
terior	-13.454
▁Cole	-13.4541
▁diffuse	-13.4546
▁squeez	-13.4548
▁attendan	-13.4568
▁gamer	-13.4575
wash	-13.4575
▁converge	-13.4579
▁Baha	-13.4583
▁Mobil	-13.4584
▁z	-13.4587
ay	-13.4588
▁Cod	-13.4593
▁ge	-13.4596
▁dip	-13.4597
▁sighted	-13.46
▁Nazi	-13.4606
▁Mario	-13.4616
▁oxide	-13.4617
ale	-13.4618
cast	-13.4631
▁rescu	-13.4636
fi	-13.4642
uous	-13.4643
▁Ga	-13.4648
▁oral	-13.4649
▁newly	-13.4652
▁Ke	-13.4653
DG	-13.4654
bul	-13.4661
adi	-13.4664
▁supporti	-13.4664
▁escalat	-13.4674
ement	-13.4674
cus	-13.4677
▁buck	-13.4686
▁evaluat	-13.4688
▁Nan	-13.4691
▁el	-13.4693
▁packing	-13.4695
▁oppose	-13.4702
ury	-13.4706
▁Cultur	-13.4712
▁runner	-13.4715
▁merg	-13.4718
▁knit	-13.4721
▁recorder	-13.4728
▁humane	-13.4734
sors	-13.4751
craft	-13.4753
banish	-13.4754
break	-13.4756
brew	-13.4756
thermal	-13.4756
massive	-13.4756
piece	-13.4757
▁wrestle	-13.476
coal	-13.4764
▁logistic	-13.4765
environmentalist	-13.4765
text	-13.4771
data	-13.4772
etic	-13.4776
▁gyr	-13.4776
▁Compare	-13.4784
▁clicks	-13.4786
inal	-13.4786
▁Sixt	-13.4786
emost	-13.4795
ev	-13.4799
▁Jur	-13.48
▁lymph	-13.48
▁dogma	-13.4805
▁flick	-13.4805
▁slam	-13.481
▁intern	-13.481
▁stumble	-13.4812
▁deplet	-13.4813
▁prohibit	-13.4813
▁vapor	-13.4814
▁Odysse	-13.4814
▁cochlea	-13.4814
▁crochet	-13.4814
▁stakeholder	-13.4814
▁treadmill	-13.4814
▁ultrasound	-13.4814
▁acquisition	-13.4814
▁barbershop	-13.4814
▁fatigue	-13.4814
▁seroton	-13.4814
▁FOX	-13.4814
▁Hiroshi	-13.4814
▁Hurricane	-13.4814
▁Photoshop	-13.4814
▁appetite	-13.4814
▁cherish	-13.4814
▁feminin	-13.4814
▁hummingbird	-13.4814
▁immoral	-13.4814
▁lemon	-13.4814
▁modification	-13.4814
▁partisan	-13.4814
▁primordial	-13.4814
▁reservoir	-13.4814
▁unhealth	-13.4814
▁Dream	-13.4814
▁Rachel	-13.4814
▁enlist	-13.4814
▁hyena	-13.4814
▁megawatt	-13.4814
▁mismatch	-13.4814
▁Excellen	-13.4814
▁Soldier	-13.4814
▁dissect	-13.4814
▁segregat	-13.4814
▁Financial	-13.4814
▁Laborator	-13.4814
▁benchmark	-13.4814
▁teapot	-13.4814
▁vacan	-13.4814
▁olive	-13.4814
▁spectra	-13.4814
▁interference	-13.4814
▁salad	-13.4814
▁Voyage	-13.4814
▁notorious	-13.4814
▁tribute	-13.4814
▁Potter	-13.4814
▁skirt	-13.4814
▁Protect	-13.4814
▁Ryan	-13.4814
▁geologist	-13.4814
▁PDF	-13.4814
▁Rush	-13.4814
▁comedian	-13.4814
▁pluck	-13.4814
▁Maldiv	-13.4814
▁rumor	-13.4814
▁mound	-13.4814
▁superconductor	-13.4814
uick	-13.4814
▁comparative	-13.4814
▁Pearl	-13.4814
▁pub	-13.4814
▁scripture	-13.4814
▁teammate	-13.4814
▁Judge	-13.4814
▁Romo	-13.4814
▁potter	-13.4814
▁Jackson	-13.4815
▁heartbeat	-13.4815
▁vis	-13.4815
▁shoreline	-13.4815
▁Portland	-13.4815
▁resin	-13.4815
▁roost	-13.4815
▁bait	-13.4815
▁Differen	-13.4815
▁sunset	-13.4815
▁Motor	-13.4815
▁undertake	-13.4815
▁medal	-13.4815
▁inappropriate	-13.4815
▁stance	-13.4816
acci	-13.4816
▁slash	-13.4816
▁youngster	-13.4816
▁summon	-13.4816
▁Tiger	-13.4816
▁accumulation	-13.4816
▁deem	-13.4816
▁extrovert	-13.4817
▁Patric	-13.4817
▁rust	-13.4817
▁commandment	-13.4817
▁princess	-13.4818
▁Harle	-13.4818
▁Mayor	-13.4818
▁Clark	-13.4818
▁thunder	-13.4818
▁navigation	-13.4819
▁verify	-13.4819
▁attain	-13.4819
▁aquaculture	-13.4819
▁ripple	-13.4821
▁Dear	-13.4821
wana	-13.4821
▁clinician	-13.4821
▁tyrann	-13.4821
▁spoil	-13.4821
▁bra	-13.4822
▁apprentice	-13.4823
zoning	-13.4823
▁adviser	-13.4824
▁Walker	-13.4825
▁worthless	-13.4826
▁Page	-13.4827
▁mimick	-13.4828
▁Coch	-13.4829
▁lineage	-13.4829
▁Juan	-13.4829
▁aisle	-13.483
▁flare	-13.4832
▁hazard	-13.4833
▁leverag	-13.4833
▁peacekeep	-13.4834
▁Poet	-13.4836
▁rod	-13.4837
▁Film	-13.4837
▁canoe	-13.4837
▁plantation	-13.4843
▁assured	-13.4845
▁Sevent	-13.4847
▁hugg	-13.4849
▁Mosco	-13.4849
▁infuse	-13.485
▁cultivat	-13.4851
ngue	-13.4856
▁cling	-13.4857
▁Senat	-13.4858
▁Fire	-13.4861
▁Row	-13.4863
ambia	-13.4863
▁distracted	-13.4864
▁decode	-13.4864
▁toaster	-13.4866
▁Bern	-13.487
▁fet	-13.4872
▁beg	-13.488
▁optimist	-13.488
▁EC	-13.4882
gged	-13.4883
▁litigat	-13.4886
▁Ko	-13.4887
▁Cut	-13.4889
use	-13.4889
sota	-13.49
shot	-13.4905
▁aura	-13.4909
manda	-13.491
▁Eat	-13.4912
▁Fib	-13.4921
▁-	-13.4923
▁Guy	-13.4926
▁hind	-13.4935
▁defi	-13.4938
▁foresee	-13.494
▁Stand	-13.4943
urani	-13.4946
nny	-13.4949
rock	-13.4961
▁instrumental	-13.4967
▁deflect	-13.4967
▁intra	-13.4968
▁slid	-13.4974
▁Gand	-13.4977
▁Loc	-13.4983
▁marking	-13.5
▁imitat	-13.5008
▁fo	-13.5016
▁tire	-13.5018
ads	-13.5018
▁plank	-13.5018
▁ador	-13.502
▁Anas	-13.502
giv	-13.5022
▁Land	-13.5023
▁polls	-13.503
bridge	-13.5037
▁para	-13.5039
plan	-13.5042
▁Len	-13.5048
atic	-13.505
▁Mos	-13.5074
▁kn	-13.5087
▁doo	-13.5088
▁que	-13.5091
▁personalize	-13.5099
▁RG	-13.5111
▁dune	-13.5111
tification	-13.5113
▁Personal	-13.5114
ual	-13.5117
▁SO	-13.5126
bar	-13.5136
▁judg	-13.5138
▁pea	-13.514
▁micron	-13.5142
▁sta	-13.5155
▁prima	-13.5159
▁miniatur	-13.5161
eign	-13.5164
▁rub	-13.5165
▁proportional	-13.5166
▁Marx	-13.5171
shift	-13.5176
▁reactiv	-13.5182
thic	-13.5185
▁provoke	-13.5191
MS	-13.5195
▁Raise	-13.5197
nar	-13.521
▁Aye	-13.5222
py	-13.5228
▁doll	-13.5229
▁rob	-13.5231
▁advoca	-13.5232
▁semina	-13.5233
▁indicat	-13.5236
▁vaccinate	-13.5249
▁blur	-13.525
▁Living	-13.525
bound	-13.5256
cock	-13.5257
▁Kent	-13.5264
▁royal	-13.5265
▁Juli	-13.5267
ult	-13.5269
▁stunn	-13.5271
▁Prison	-13.5294
▁animat	-13.5294
▁tomb	-13.5297
▁Jamaica	-13.5304
▁Dar	-13.5305
▁infinit	-13.5306
▁anonym	-13.5307
▁pur	-13.531
▁millenni	-13.5311
▁influen	-13.5311
cientific	-13.5313
od	-13.5313
▁quiz	-13.5313
▁stab	-13.5313
▁necessit	-13.5314
▁unravel	-13.5314
▁venom	-13.5314
▁Monkey	-13.5314
▁Sustain	-13.5314
▁dwarf	-13.5314
▁nephew	-13.5314
▁nonverbal	-13.5314
▁shareholder	-13.5314
▁Balkan	-13.5314
▁Ecuador	-13.5314
▁Hopkin	-13.5314
▁Mongol	-13.5314
▁Oscar	-13.5314
▁Papua	-13.5314
▁cradle	-13.5314
▁feat	-13.5314
▁inferior	-13.5314
▁irritat	-13.5314
▁jealous	-13.5314
▁medicinal	-13.5314
▁pragmatic	-13.5314
▁rhino	-13.5314
▁snack	-13.5314
▁suspens	-13.5314
▁toothbrush	-13.5314
▁wilderness	-13.5314
▁discharge	-13.5314
▁Chief	-13.5314
▁Traditional	-13.5314
▁craving	-13.5314
▁indefinite	-13.5314
▁influenza	-13.5314
▁joking	-13.5314
▁nanoscale	-13.5314
▁phthalate	-13.5314
▁Typical	-13.5314
▁forensic	-13.5314
▁glance	-13.5314
▁Negro	-13.5314
▁dashboard	-13.5314
▁revolt	-13.5314
▁automo	-13.5314
▁sentien	-13.5314
▁clarify	-13.5314
▁foam	-13.5314
▁offense	-13.5314
▁detriment	-13.5314
▁doctrine	-13.5314
▁appointment	-13.5314
▁Rosling	-13.5314
▁webcam	-13.5314
▁jerk	-13.5314
▁dreadful	-13.5314
▁paw	-13.5314
▁lyric	-13.5314
▁rug	-13.5314
▁tapestr	-13.5314
▁Nash	-13.5314
▁Stir	-13.5314
▁elastic	-13.5314
▁motive	-13.5314
▁cobra	-13.5314
▁philanthropist	-13.5314
▁underpin	-13.5314
▁levitat	-13.5315
▁rodent	-13.5315
▁soundscape	-13.5315
▁Board	-13.5315
▁landmark	-13.5315
▁Dark	-13.5315
▁kitten	-13.5315
▁foolish	-13.5315
▁vendor	-13.5315
▁dysfunctional	-13.5315
▁Nano	-13.5316
▁accountant	-13.5316
▁Pack	-13.5316
▁Karl	-13.5316
▁incorrect	-13.5316
▁replication	-13.5317
▁prominent	-13.5317
▁advertisement	-13.5317
▁PI	-13.5317
▁castle	-13.5317
▁impatient	-13.5318
▁millennial	-13.5318
▁exhilarating	-13.5318
▁arthriti	-13.5319
▁measl	-13.5319
▁Road	-13.5319
▁stark	-13.5319
▁CB	-13.5319
▁thou	-13.532
▁Extreme	-13.5321
▁lous	-13.5321
▁steak	-13.5322
▁librarian	-13.5322
▁upstream	-13.5325
▁Broad	-13.5326
▁Gwe	-13.5326
▁gum	-13.5326
▁Juda	-13.5326
▁tackl	-13.5327
▁fearless	-13.5328
▁megacit	-13.5329
▁Alf	-13.533
▁Von	-13.5331
In	-13.5331
▁jack	-13.5334
▁dropout	-13.5334
rado	-13.5336
▁mast	-13.5336
▁plasma	-13.534
▁crown	-13.5342
▁soda	-13.5342
▁crisp	-13.5343
▁nut	-13.5345
▁Rif	-13.5346
▁underlie	-13.5346
▁inertia	-13.5346
▁Archi	-13.5347
▁rally	-13.5348
▁trickle	-13.5353
▁inclin	-13.5356
ansa	-13.5358
▁perfection	-13.536
▁Dai	-13.5369
▁neo	-13.5371
im	-13.5371
▁chin	-13.5378
▁vanish	-13.5378
▁Ban	-13.5378
▁sued	-13.5381
▁Lib	-13.5383
▁hatch	-13.5385
▁Pant	-13.5386
▁Gues	-13.5386
▁IDE	-13.5386
▁Ready	-13.5386
▁mandat	-13.539
▁spor	-13.5392
▁cr	-13.5395
▁biomedic	-13.5407
atar	-13.5409
ving	-13.5412
▁fertiliz	-13.5417
▁Cu	-13.5428
▁ranking	-13.5437
▁outsider	-13.545
▁Cle	-13.5451
▁seque	-13.5455
▁inspirational	-13.5476
▁Khan	-13.5478
read	-13.548
▁supporter	-13.5483
▁analyst	-13.55
bas	-13.5508
▁attacker	-13.5518
omi	-13.5527
▁experimenter	-13.5547
EM	-13.5562
▁tortur	-13.5563
▁deepen	-13.557
▁drawer	-13.5573
ellar	-13.5575
▁seller	-13.558
▁menstruat	-13.5581
oke	-13.5597
▁diver	-13.5604
ologist	-13.5609
▁KS	-13.5609
▁congress	-13.5618
ena	-13.5621
ibo	-13.5632
▁cite	-13.5633
▁ply	-13.5639
▁fork	-13.5652
gra	-13.5653
▁tires	-13.5654
utu	-13.5661
ache	-13.5663
▁doc	-13.5663
▁forgett	-13.5667
fell	-13.567
▁congest	-13.5674
llin	-13.5676
AT	-13.5686
▁carb	-13.5693
▁increment	-13.5693
▁Laur	-13.5705
cular	-13.5708
hma	-13.5728
▁elevat	-13.5731
▁loyal	-13.5732
uant	-13.5734
lines	-13.5745
▁Cro	-13.576
▁Wars	-13.5762
times	-13.5769
▁Scr	-13.5774
tel	-13.5776
▁funder	-13.5777
▁replica	-13.5779
organic	-13.5783
▁dealer	-13.5783
▁Vel	-13.5795
▁Ex	-13.5795
▁Fran	-13.5796
▁Build	-13.5797
▁Nichol	-13.5803
▁dar	-13.5807
▁tease	-13.5811
▁Serg	-13.5813
▁Phil	-13.5817
tus	-13.583
▁coup	-13.5832
▁Swee	-13.5833
ampaign	-13.5835
▁photosynthesi	-13.5835
▁prince	-13.5836
▁inspect	-13.5837
▁imperfect	-13.5839
▁persuasi	-13.5839
▁enroll	-13.584
rtie	-13.584
rilliant	-13.584
▁Babylon	-13.584
▁flour	-13.584
incidence	-13.584
▁legitima	-13.584
clusion	-13.584
▁solu	-13.584
▁Morocc	-13.584
▁encompass	-13.584
▁outweigh	-13.584
▁puzzling	-13.584
▁seatbelt	-13.584
▁Dublin	-13.584
▁Senegal	-13.584
▁Sleep	-13.584
▁bargain	-13.584
▁gloom	-13.584
▁granddaughter	-13.584
▁inflict	-13.584
▁knob	-13.584
▁laureate	-13.584
▁marble	-13.584
▁microRNA	-13.584
▁nanotube	-13.584
▁plummet	-13.584
▁portfolio	-13.584
▁prosthes	-13.584
▁rejuvenat	-13.584
▁repositor	-13.584
▁ribbon	-13.584
▁smack	-13.584
▁stubborn	-13.584
▁unexplo	-13.584
▁Matthew	-13.584
▁atrocit	-13.584
▁cramm	-13.584
▁hydrant	-13.584
▁leisure	-13.584
▁parrot	-13.584
▁plume	-13.584
▁refresh	-13.584
▁subconscious	-13.584
▁apprais	-13.584
▁engulf	-13.584
▁frugal	-13.584
▁pavilion	-13.584
▁quark	-13.584
▁relentless	-13.584
▁tornado	-13.584
▁derivative	-13.584
▁entrenche	-13.584
▁prestig	-13.584
▁collage	-13.584
▁dementia	-13.584
▁Barbie	-13.584
▁crave	-13.584
▁charisma	-13.584
▁ATM	-13.584
▁embody	-13.584
▁Mandar	-13.584
▁Giant	-13.5841
▁pillow	-13.5841
▁Hyde	-13.5841
▁vertebrate	-13.5841
▁precedent	-13.5841
▁Chair	-13.5841
▁handbag	-13.5841
▁rebound	-13.5841
▁fax	-13.5841
▁niche	-13.5841
uestion	-13.5841
▁endemic	-13.5841
▁ecologist	-13.5841
▁empti	-13.5841
▁Missou	-13.5841
▁squeak	-13.5841
▁Magic	-13.5841
▁staple	-13.5841
▁skydiv	-13.5841
▁costume	-13.5841
▁euro	-13.5841
▁schizophrenic	-13.5841
▁Operation	-13.5841
▁VR	-13.5841
▁implie	-13.5841
▁trance	-13.5841
▁Litera	-13.5841
▁Emba	-13.5841
▁fetch	-13.5842
▁purse	-13.5842
▁fringe	-13.5842
▁imitation	-13.5842
▁sculptor	-13.5842
▁compensate	-13.5842
▁peripheral	-13.5842
▁paranoi	-13.5842
▁disagreement	-13.5843
▁anthropolog	-13.5843
▁decoration	-13.5843
▁bleach	-13.5843
▁buffer	-13.5843
▁forgiveness	-13.5843
▁fond	-13.5844
▁husk	-13.5844
▁appreciati	-13.5845
▁Mahmo	-13.5845
▁massage	-13.5846
▁surpass	-13.5846
▁guru	-13.5846
▁rode	-13.5847
▁goof	-13.5847
▁plutocrat	-13.5847
▁coil	-13.5848
▁fundamentalism	-13.5848
▁Osa	-13.5848
▁Stockh	-13.5851
▁Robot	-13.5851
▁coward	-13.5852
▁dyslexi	-13.5853
▁Fifth	-13.5854
▁improvis	-13.5854
▁cavit	-13.5855
▁Money	-13.5857
▁dorm	-13.5859
▁orbital	-13.586
▁recurren	-13.5865
▁Noa	-13.5866
▁su	-13.5868
▁Special	-13.587
▁intestine	-13.5871
▁PS	-13.5873
▁withstand	-13.5876
▁TS	-13.5879
.-	-13.5883
▁Serge	-13.5886
▁powerless	-13.5889
▁Grey	-13.589
▁gripp	-13.589
▁Pay	-13.591
▁tense	-13.5914
▁tether	-13.5915
bule	-13.5916
▁adore	-13.5916
▁Birds	-13.5925
▁ob	-13.5926
▁jets	-13.5927
▁Area	-13.5929
▁inward	-13.593
▁pledge	-13.5931
▁trader	-13.5935
▁iv	-13.5938
▁vascular	-13.5945
ara	-13.5952
itis	-13.5963
▁conserve	-13.5967
etas	-13.597
▁miner	-13.5973
PL	-13.5976
▁Eco	-13.5977
aste	-13.5986
▁nutritional	-13.5989
▁commute	-13.5989
▁eater	-13.5993
vil	-13.6005
▁considerabl	-13.6006
cles	-13.6009
▁chatt	-13.6017
nki	-13.6017
NT	-13.602
▁mobiliz	-13.6031
oil	-13.6035
▁Plato	-13.6049
▁ranch	-13.6055
umor	-13.606
▁skinn	-13.6067
▁Rub	-13.6072
▁albe	-13.6074
▁shuffle	-13.6077
▁switche	-13.6087
▁posting	-13.6093
lah	-13.6096
air	-13.6109
▁cu	-13.6126
▁allocate	-13.6134
lider	-13.6139
hr	-13.6145
▁reside	-13.6147
▁whiske	-13.6152
▁KT	-13.6155
▁crowds	-13.6156
▁Nico	-13.616
▁Win	-13.6161
ire	-13.6162
▁disclose	-13.6167
▁suite	-13.6173
▁evoke	-13.6178
▁Ham	-13.6182
▁crosse	-13.6194
▁persuad	-13.6196
▁upsta	-13.6199
▁shave	-13.6203
ague	-13.6207
▁ignite	-13.6209
bone	-13.621
▁outdoors	-13.6214
▁intrac	-13.6219
▁compris	-13.6219
beat	-13.6219
reach	-13.622
▁stockpile	-13.6225
▁LS	-13.6235
▁Mon	-13.6248
▁battles	-13.6252
▁Yu	-13.6253
ain	-13.6254
▁energiz	-13.6267
▁forge	-13.6271
▁wond	-13.6278
▁emulate	-13.6285
▁Oliv	-13.6288
▁rehabilitat	-13.6291
▁characteriz	-13.6298
▁Jud	-13.6298
▁cab	-13.6305
burg	-13.6307
▁diffus	-13.6312
ulation	-13.6313
culture	-13.6315
dan	-13.6315
wesome	-13.6324
hapel	-13.6327
worm	-13.6337
worth	-13.6338
HD	-13.6338
birth	-13.6338
famous	-13.6338
world	-13.6338
▁poo	-13.6339
She	-13.634
national	-13.634
For	-13.634
▁Conservati	-13.6344
▁Lis	-13.6349
nta	-13.6349
▁shal	-13.6349
▁secre	-13.635
▁Rat	-13.6352
nya	-13.6354
▁atmospher	-13.6359
▁Read	-13.636
ats	-13.6367
▁ripe	-13.6368
▁pac	-13.6368
tub	-13.6373
EF	-13.6373
▁reconcili	-13.6375
▁brillian	-13.6376
▁populat	-13.6382
▁psyche	-13.6383
▁plumb	-13.6383
▁sc	-13.6383
oe	-13.6384
▁slap	-13.6386
▁instruct	-13.6386
▁sling	-13.6387
estial	-13.6388
▁transcenden	-13.639
▁Roug	-13.6391
▁Tel	-13.6393
▁dysfunction	-13.6394
▁erupt	-13.6394
▁enact	-13.6395
▁Bagh	-13.6395
ambiguous	-13.6395
▁waist	-13.6396
▁Ukrain	-13.6396
▁epilep	-13.6396
▁administer	-13.6396
▁bundle	-13.6396
▁messenger	-13.6396
▁multitask	-13.6396
NES	-13.6396
▁Blood	-13.6396
▁Bueno	-13.6396
▁Buffet	-13.6396
▁DIY	-13.6396
▁Disease	-13.6396
▁Festival	-13.6396
▁Hispanic	-13.6396
▁Malaysia	-13.6396
▁Picasso	-13.6396
▁Studio	-13.6396
▁autobiograph	-13.6396
▁bonobo	-13.6396
▁contingen	-13.6396
▁coworker	-13.6396
▁enclosure	-13.6396
▁ineffective	-13.6396
▁nostalgi	-13.6396
▁precursor	-13.6396
▁prehistor	-13.6396
▁provocative	-13.6396
▁questionnaire	-13.6396
▁republic	-13.6396
▁sermon	-13.6396
▁shrunk	-13.6396
▁skyrocket	-13.6396
▁sophistication	-13.6396
▁squirrel	-13.6396
▁transcript	-13.6396
▁troubling	-13.6396
▁umbrella	-13.6396
▁windmill	-13.6396
▁Electric	-13.6396
▁Laptop	-13.6396
▁Chicken	-13.6396
▁affluen	-13.6396
▁cymatic	-13.6396
▁decay	-13.6396
▁filament	-13.6396
▁owl	-13.6396
▁traumatiz	-13.6396
▁Critic	-13.6396
▁decisive	-13.6396
▁synonymous	-13.6396
▁artisan	-13.6396
▁mediocr	-13.6396
▁relocate	-13.6396
▁Archimed	-13.6396
▁biomimic	-13.6396
▁Airport	-13.6396
▁bumblebee	-13.6396
▁predominant	-13.6396
▁Generation	-13.6396
▁resume	-13.6396
▁Hanna	-13.6396
▁Morgan	-13.6396
▁compulsive	-13.6396
▁hardwir	-13.6396
▁pediatrician	-13.6396
▁Beatle	-13.6396
▁adverse	-13.6396
▁blindfold	-13.6396
▁Donald	-13.6396
▁abyss	-13.6396
▁NM	-13.6396
▁Vienn	-13.6396
▁altruistic	-13.6397
▁stent	-13.6397
▁Rag	-13.6397
▁disappointment	-13.6397
▁legislator	-13.6397
▁Feel	-13.6397
▁fluent	-13.6397
▁latter	-13.6397
▁sanction	-13.6397
▁Robotic	-13.6397
▁asymmetric	-13.6397
▁impairment	-13.6397
▁grandma	-13.6397
▁elevation	-13.6397
IKE	-13.6398
▁vaccination	-13.6398
▁Grant	-13.6398
▁virulen	-13.6398
▁Evolution	-13.6398
▁resourceful	-13.6398
▁beheading	-13.6398
▁PRI	-13.6398
▁seren	-13.6398
▁strawberr	-13.6399
▁Rod	-13.6399
▁Berg	-13.6399
▁kidnappe	-13.6399
▁headset	-13.6399
▁fulfillment	-13.6399
▁motivator	-13.64
▁repetitive	-13.64
▁pup	-13.6401
▁warrant	-13.6401
▁Java	-13.6401
▁dull	-13.6401
▁Hunter	-13.6402
▁Boom	-13.6402
▁cargo	-13.6403
▁advocat	-13.6404
▁rude	-13.6405
▁bitch	-13.6406
▁Worldchanging	-13.6406
▁Roll	-13.6407
▁halt	-13.6408
▁thermostat	-13.6409
▁flex	-13.641
▁absent	-13.6411
▁sorrow	-13.6412
▁predictabl	-13.6412
▁Wind	-13.6413
▁insecurit	-13.6414
▁pathetic	-13.6416
▁slamm	-13.6417
▁privatiz	-13.6419
ub	-13.6419
▁inference	-13.6419
▁Independent	-13.6422
▁Parad	-13.6423
▁Tyle	-13.6426
▁doodle	-13.6427
▁Jan	-13.6428
vana	-13.6429
▁Eye	-13.6431
▁Mou	-13.6431
▁centric	-13.6433
▁temperat	-13.6434
▁divert	-13.6435
▁Tara	-13.6439
uel	-13.644
olm	-13.6441
▁Horse	-13.6441
▁defy	-13.6446
▁Mak	-13.6446
▁sonic	-13.6457
▁interdependenc	-13.647
assem	-13.6471
▁intercept	-13.6475
▁illuminate	-13.6475
▁Momm	-13.6484
▁bagg	-13.6486
▁Hul	-13.6491
▁pollinate	-13.6491
▁avenue	-13.65
▁forger	-13.6512
osa	-13.6515
▁Br	-13.6515
▁hanger	-13.652
▁immunit	-13.652
mination	-13.6522
▁rearrange	-13.6526
unk	-13.6527
cies	-13.6528
▁spy	-13.6529
▁lu	-13.6535
▁Por	-13.6537
tune	-13.6542
dale	-13.6543
wick	-13.6549
llen	-13.6551
▁cliche	-13.6559
ille	-13.6563
▁cracker	-13.6565
glasse	-13.6566
▁Midwest	-13.6566
▁Cura	-13.6566
▁sovereignt	-13.6567
ular	-13.6567
▁Pur	-13.6574
▁seeker	-13.6574
ico	-13.6579
▁Joy	-13.6584
▁Idea	-13.6597
los	-13.6602
SM	-13.6607
▁Safe	-13.6615
lateral	-13.6622
tter	-13.6625
rail	-13.6627
▁dice	-13.6629
taller	-13.6631
▁Mut	-13.6632
▁Stu	-13.6634
active	-13.6637
ception	-13.6641
▁Merc	-13.6644
▁exercis	-13.6645
▁Indiana	-13.6645
aki	-13.6647
▁utiliz	-13.6648
▁Sue	-13.6652
▁metro	-13.6653
▁relieve	-13.6657
literate	-13.6661
▁siz	-13.6666
▁Mayan	-13.667
▁Tar	-13.6677
▁Bra	-13.669
▁modes	-13.6694
▁Ana	-13.6702
▁mystic	-13.6708
var	-13.671
aque	-13.6712
rank	-13.6718
rial	-13.6719
▁Fab	-13.6721
▁bon	-13.6724
▁deceive	-13.6735
▁oppressi	-13.6739
▁utilize	-13.6754
▁gym	-13.6754
▁alternate	-13.6759
▁Dra	-13.6763
iller	-13.6767
▁TM	-13.6782
▁responder	-13.6785
rez	-13.6788
▁breasts	-13.679
▁interven	-13.68
▁infer	-13.6805
itra	-13.6818
▁Doh	-13.6819
▁curate	-13.682
NC	-13.6832
▁matur	-13.6839
▁Burm	-13.684
▁occupie	-13.6841
▁champions	-13.6842
▁Sata	-13.685
▁decorat	-13.685
spiring	-13.685
▁speculate	-13.6851
▁Ig	-13.6851
take	-13.6854
▁conc	-13.6856
▁synthesiz	-13.6864
▁incorporat	-13.6868
▁Roo	-13.6873
SC	-13.6873
▁unf	-13.6875
▁naught	-13.6879
▁Lyn	-13.689
▁conceivabl	-13.6891
▁flowering	-13.6914
▁inflat	-13.6916
▁southwest	-13.6921
word	-13.6924
walk	-13.6925
▁prescrib	-13.6926
lec	-13.6929
DA	-13.6933
mail	-13.6934
angiogen	-13.694
▁disappoint	-13.6943
▁Tele	-13.6944
urg	-13.6945
math	-13.6946
▁pod	-13.6951
▁contaminate	-13.6955
spora	-13.6956
▁nap	-13.6959
▁Levi	-13.6963
▁stir	-13.6965
▁Uru	-13.6966
▁dread	-13.6966
alactic	-13.6968
ali	-13.697
CO	-13.6975
▁charm	-13.6976
▁sprint	-13.6977
tah	-13.6978
▁embed	-13.6979
mming	-13.6979
▁choreograph	-13.698
▁Der	-13.6981
▁flop	-13.6981
tical	-13.6983
▁intersect	-13.6983
▁affirm	-13.6983
▁Develop	-13.6983
elimina	-13.6983
▁misunderst	-13.6984
▁aquari	-13.6984
▁circus	-13.6984
▁pellet	-13.6984
▁pinnacle	-13.6984
▁precaution	-13.6984
▁relauncher	-13.6984
▁amygdala	-13.6984
▁antidote	-13.6984
▁fountain	-13.6984
▁ounce	-13.6984
▁persecut	-13.6984
▁synagogue	-13.6984
▁synerg	-13.6984
percussion	-13.6984
▁Anthon	-13.6984
▁Challenge	-13.6984
▁Choir	-13.6984
▁Dimitr	-13.6984
▁Elephant	-13.6984
▁Mitchell	-13.6984
▁Reserve	-13.6984
▁Thursday	-13.6984
▁Wednesday	-13.6984
▁administrative	-13.6984
▁asphalt	-13.6984
▁incision	-13.6984
▁lightbulb	-13.6984
▁monolith	-13.6984
▁multimedia	-13.6984
▁neutrino	-13.6984
▁ominous	-13.6984
▁paintbrush	-13.6984
▁reckon	-13.6984
▁rhyme	-13.6984
▁Barbar	-13.6984
▁antiretroviral	-13.6984
▁denominator	-13.6984
▁discount	-13.6984
▁garment	-13.6984
▁gradient	-13.6984
▁handwrit	-13.6984
▁heterosexual	-13.6984
▁shaft	-13.6984
▁occurrence	-13.6984
▁saint	-13.6984
▁seductive	-13.6984
▁ankle	-13.6984
▁crease	-13.6984
▁multicultural	-13.6984
▁paleontologist	-13.6984
▁Sudh	-13.6984
▁Trek	-13.6984
▁autops	-13.6984
▁ministr	-13.6984
▁pave	-13.6984
▁Crime	-13.6984
▁saddle	-13.6984
▁sensual	-13.6984
▁marsh	-13.6984
▁outlier	-13.6984
▁theorem	-13.6984
▁Sufi	-13.6984
▁campfire	-13.6984
▁cursor	-13.6984
▁Geoff	-13.6984
▁telecom	-13.6984
▁Bloom	-13.6984
▁furious	-13.6984
▁Gehr	-13.6984
▁culminat	-13.6984
▁interval	-13.6984
▁Maslow	-13.6984
▁dividend	-13.6984
▁exoskeleton	-13.6984
▁Parent	-13.6985
▁Citizen	-13.6985
▁imam	-13.6985
▁Poem	-13.6985
▁mailbox	-13.6985
▁cofounde	-13.6985
▁exert	-13.6985
▁Harbor	-13.6985
▁curb	-13.6985
▁shaman	-13.6985
▁hyperbolic	-13.6985
▁Hamp	-13.6985
▁coconut	-13.6985
▁litter	-13.6985
▁bloodstream	-13.6985
▁Needles	-13.6985
▁delightful	-13.6985
▁Baker	-13.6985
▁liabilit	-13.6985
▁lexico	-13.6985
▁palace	-13.6985
▁Invest	-13.6986
▁Saul	-13.6986
ureau	-13.6986
▁prohibition	-13.6986
▁paddle	-13.6986
▁invert	-13.6986
▁reversal	-13.6986
▁Getting	-13.6987
▁blackboard	-13.6987
▁squatter	-13.6987
▁Persian	-13.6987
▁activation	-13.6987
▁plow	-13.6987
▁termite	-13.6987
▁crest	-13.6987
▁Bowl	-13.6987
▁Ranger	-13.6987
▁Huge	-13.6988
▁vase	-13.6988
ixon	-13.6988
▁Sina	-13.6989
▁Ly	-13.6989
▁diabetic	-13.699
▁wield	-13.699
▁Shah	-13.699
▁fist	-13.699
▁hawk	-13.699
▁devour	-13.699
▁dumm	-13.6991
▁specialization	-13.6992
▁anarch	-13.6992
▁edition	-13.6993
▁headlight	-13.6994
▁robber	-13.6995
▁ponder	-13.6995
▁Erik	-13.6995
▁viewers	-13.6996
▁contraction	-13.6996
Vision	-13.6996
▁compil	-13.6997
▁Week	-13.6998
▁ambien	-13.6999
▁geolog	-13.7
▁CAPTCHA	-13.7
▁synthesizer	-13.7002
▁butcher	-13.7002
▁Galva	-13.7003
▁advisor	-13.7005
▁Player	-13.7005
▁batch	-13.7006
▁Universe	-13.7006
ode	-13.7009
▁Wales	-13.7009
▁Helen	-13.701
ata	-13.701
▁sweater	-13.7011
▁yearning	-13.7011
overt	-13.7012
gle	-13.7012
▁volatile	-13.7012
▁loom	-13.7014
▁overfish	-13.7015
sane	-13.7015
▁gateway	-13.7017
▁transmitter	-13.7018
▁marginal	-13.7019
II	-13.7021
bil	-13.7021
▁Android	-13.7023
▁Total	-13.7024
▁photographic	-13.7024
▁interg	-13.7026
▁Git	-13.7026
▁Auto	-13.7026
▁Biospher	-13.7026
lese	-13.7027
▁Kate	-13.7027
▁charming	-13.7028
▁Rocket	-13.7029
▁advised	-13.7031
▁Ethiopian	-13.7033
▁jamm	-13.704
▁cel	-13.7041
▁Leave	-13.7043
echanical	-13.7044
▁secretar	-13.7047
▁dock	-13.7047
▁malleab	-13.705
▁persisten	-13.7052
▁Award	-13.7053
▁exceeding	-13.7055
nstrual	-13.7055
▁Fine	-13.7056
▁rot	-13.706
▁financ	-13.7071
cam	-13.7072
▁folder	-13.7073
▁boomer	-13.7079
▁academi	-13.7079
▁Hot	-13.7083
▁gr	-13.7087
▁humiliat	-13.709
▁Euro	-13.7092
uz	-13.7095
▁Tak	-13.7104
▁ballet	-13.7106
▁debat	-13.7108
version	-13.7108
▁dia	-13.7113
▁sever	-13.7121
▁reliev	-13.7123
logy	-13.7129
▁initiate	-13.7133
▁Bach	-13.7139
▁advertise	-13.7142
▁brin	-13.7146
qui	-13.7149
bit	-13.7157
▁kin	-13.7158
moor	-13.716
▁Aim	-13.716
▁Architectur	-13.7169
edible	-13.7169
▁unchang	-13.7171
eautiful	-13.7171
▁stewards	-13.7177
▁loo	-13.7181
▁soak	-13.7185
chk	-13.7186
cu	-13.719
▁contemplate	-13.7193
▁gravel	-13.7198
▁apt	-13.7202
▁greener	-13.7206
nity	-13.7214
▁Twi	-13.7218
▁prob	-13.7235
mah	-13.7242
▁pul	-13.7242
▁scarc	-13.7253
uba	-13.7253
▁Spin	-13.7255
▁rac	-13.7257
mont	-13.7266
▁Bee	-13.7275
▁rigg	-13.7277
rana	-13.728
bed	-13.7284
▁prosecute	-13.7288
ndra	-13.7294
ati	-13.7302
▁fibro	-13.7304
▁credib	-13.7305
▁def	-13.7306
oid	-13.7311
▁yog	-13.7311
▁battl	-13.7318
anzi	-13.733
▁Goldi	-13.7332
▁cascade	-13.7333
▁drums	-13.7334
▁Cla	-13.734
▁McCa	-13.7342
▁diar	-13.7343
tted	-13.7347
▁Fed	-13.735
▁marketer	-13.7353
▁reshape	-13.7364
▁pl	-13.737
▁deriv	-13.7381
▁Mob	-13.7386
▁tinie	-13.739
▁condense	-13.7392
▁Hum	-13.7392
▁coache	-13.7396
▁Gre	-13.7403
ska	-13.7405
▁cub	-13.7408
rger	-13.741
▁Hal	-13.7415
▁ED	-13.7419
▁dire	-13.742
▁handy	-13.7424
▁dries	-13.7428
▁pharmac	-13.7428
▁Ann	-13.7436
▁noon	-13.7443
▁Ric	-13.7448
clamation	-13.745
▁colonial	-13.7462
master	-13.7464
▁Goodb	-13.7467
▁Mann	-13.7469
▁Mot	-13.7471
▁spac	-13.7472
person	-13.7473
▁innovat	-13.7476
eb	-13.7482
code	-13.7483
pi	-13.7497
ken	-13.7503
ardo	-13.7507
eduction	-13.7507
▁intermedia	-13.7509
▁fil	-13.7521
chu	-13.7529
▁fla	-13.7532
▁bik	-13.7541
owing	-13.7545
▁synchron	-13.7547
are	-13.7549
proof	-13.755
Global	-13.7551
▁malignan	-13.7552
room	-13.7552
mple	-13.7558
▁Chang	-13.7559
▁discriminate	-13.7559
disciplinar	-13.756
▁accord	-13.7567
agne	-13.7572
▁Speci	-13.7574
▁interrogat	-13.7574
▁sla	-13.7576
▁Planet	-13.7586
▁Pac	-13.759
▁innocen	-13.7592
▁rebuil	-13.7593
▁TD	-13.7595
▁proxim	-13.7596
▁undo	-13.7597
▁Lanka	-13.7598
▁Bulgaria	-13.7598
CA	-13.7599
▁Sala	-13.7599
▁narrat	-13.76
▁apolog	-13.7603
cho	-13.7603
▁Cas	-13.7604
▁aggressi	-13.7605
mann	-13.7605
▁Shake	-13.7606
ymphon	-13.7608
▁chore	-13.7609
▁advent	-13.7609
trude	-13.7609
▁adversar	-13.7609
ntelligence	-13.7609
▁carcass	-13.7609
▁deform	-13.7609
▁embroider	-13.7609
▁maggot	-13.7609
▁suspicion	-13.7609
▁brothel	-13.7609
▁burglar	-13.7609
▁constituenc	-13.7609
▁embass	-13.7609
▁embodiment	-13.7609
▁franchise	-13.7609
▁inequit	-13.7609
▁jumble	-13.7609
▁patriarch	-13.7609
▁pianist	-13.7609
▁practitioner	-13.7609
▁seaweed	-13.7609
▁substrate	-13.7609
▁sushi	-13.7609
▁terabyte	-13.7609
▁Cruz	-13.7609
▁EEG	-13.7609
▁Orchestra	-13.7609
▁Schwarz	-13.7609
▁Summer	-13.7609
▁beehive	-13.7609
▁daydream	-13.7609
▁detergent	-13.7609
▁disguise	-13.7609
▁dismantle	-13.7609
▁gauge	-13.7609
▁latrine	-13.7609
▁monaster	-13.7609
▁sabbatical	-13.7609
▁snippet	-13.7609
▁surrogate	-13.7609
▁definitive	-13.7609
▁involuntar	-13.7609
▁ruthless	-13.7609
▁Vagina	-13.7609
▁alleged	-13.7609
▁instantaneous	-13.7609
▁relay	-13.7609
▁tedious	-13.7609
▁Search	-13.7609
▁ghetto	-13.7609
▁Dragon	-13.7609
▁progeri	-13.7609
▁CPU	-13.7609
▁Blair	-13.7609
▁combusti	-13.7609
▁dissent	-13.7609
▁radiologist	-13.7609
▁roam	-13.7609
▁amphibian	-13.7609
▁neurologist	-13.7609
▁lipid	-13.7609
▁Study	-13.7609
▁cohesi	-13.7609
▁massacre	-13.7609
▁righteous	-13.7609
▁laparoscopic	-13.7609
▁reunite	-13.7609
▁striving	-13.7609
▁revisit	-13.7609
▁modalit	-13.7609
▁spreadsheet	-13.7609
▁Floren	-13.7609
▁molt	-13.7609
▁Galax	-13.7609
▁lb	-13.7609
▁hail	-13.7609
▁rehearsal	-13.761
▁numerical	-13.761
▁Clean	-13.761
▁suburbia	-13.761
▁hierarchical	-13.761
▁Eames	-13.761
▁Mauriti	-13.761
▁Ahmed	-13.761
▁Ern	-13.761
▁tradeoff	-13.761
▁Commandment	-13.761
▁Cool	-13.761
▁hoop	-13.761
▁waterfront	-13.761
▁tenure	-13.761
▁mason	-13.761
▁Rita	-13.761
▁flashlight	-13.761
▁Smart	-13.761
▁dragline	-13.761
eanor	-13.761
▁milestone	-13.761
▁obsessive	-13.761
▁scarf	-13.761
▁Honor	-13.761
▁Alexandria	-13.761
▁exaggeration	-13.761
▁pacemaker	-13.761
▁examination	-13.761
▁Neuman	-13.7611
▁symbolize	-13.7611
▁pigmentation	-13.7611
▁Martian	-13.7611
▁eruption	-13.7611
▁Orwell	-13.7611
▁speculation	-13.7611
▁orchard	-13.7611
▁humanoid	-13.7612
▁adage	-13.7612
▁sack	-13.7612
▁Oop	-13.7612
▁swam	-13.7612
▁vow	-13.7612
▁SL	-13.7613
▁philanthropic	-13.7613
▁wizard	-13.7613
▁investigator	-13.7613
▁compliance	-13.7613
▁panick	-13.7614
▁vitr	-13.7614
▁fuss	-13.7614
ermaid	-13.7614
▁overload	-13.7615
focal	-13.7615
▁bunk	-13.7615
▁generalization	-13.7616
▁Huss	-13.7616
▁offset	-13.7616
▁vocation	-13.7616
▁thickness	-13.7616
▁crane	-13.7617
▁Major	-13.7617
▁champ	-13.7617
▁daf	-13.7618
▁Team	-13.7618
▁crapp	-13.7618
▁Farmer	-13.7618
▁grazing	-13.7619
▁Organ	-13.762
▁plausibl	-13.762
ollock	-13.7621
▁Name	-13.7621
▁Stac	-13.7622
▁mitigate	-13.7624
▁SK	-13.7624
▁preacher	-13.7624
▁clan	-13.7626
▁classify	-13.7628
▁heap	-13.7629
meer	-13.7629
▁eel	-13.7631
▁extremis	-13.7631
yriad	-13.7632
▁instill	-13.7633
RO	-13.7634
▁bugg	-13.7635
▁communis	-13.7637
▁porch	-13.7639
▁Animal	-13.764
▁biodegrad	-13.7641
▁lick	-13.7643
▁wiggle	-13.7644
▁cellulos	-13.7644
▁Burn	-13.7644
extraterrestrial	-13.7645
▁Serbia	-13.7646
▁wearable	-13.7648
▁cortic	-13.7649
▁hyperactiv	-13.7651
▁skier	-13.7654
▁Plant	-13.7654
▁Rocke	-13.7659
▁Shad	-13.7662
▁highland	-13.7664
▁tast	-13.7671
▁monumental	-13.7672
▁broaden	-13.7673
▁bead	-13.7674
▁articulat	-13.7676
▁echoe	-13.7677
▁insulat	-13.7678
▁gli	-13.768
HIN	-13.7686
▁graves	-13.7693
▁swimmer	-13.7697
uran	-13.7698
▁whipp	-13.7699
▁den	-13.77
▁Jose	-13.7707
▁Happi	-13.7711
ker	-13.7715
▁Johns	-13.7715
▁exchang	-13.7718
▁Ve	-13.772
▁tur	-13.7721
▁locker	-13.7724
▁spik	-13.7725
▁handout	-13.7729
▁dent	-13.7741
far	-13.7741
una	-13.7742
▁Jarr	-13.7744
▁missionar	-13.7749
▁amber	-13.7756
▁oceanograph	-13.7771
cul	-13.7773
▁authoriz	-13.7775
▁Mali	-13.7779
▁Dance	-13.7785
onald	-13.7806
▁Bur	-13.7808
▁mag	-13.781
▁runway	-13.7811
▁cou	-13.7813
▁convers	-13.7815
▁Au	-13.7815
▁Greg	-13.7825
▁Writ	-13.7829
▁HP	-13.7832
itz	-13.7837
▁Mao	-13.7842
▁laborer	-13.7842
▁shorten	-13.7846
▁tan	-13.7848
▁Az	-13.7866
scent	-13.7866
▁Ear	-13.7867
▁Sadd	-13.7869
▁Mathematica	-13.7879
▁invisib	-13.7881
ae	-13.7882
▁USD	-13.7886
dental	-13.7887
▁Nazis	-13.7891
bor	-13.7892
▁Mach	-13.7896
zu	-13.79
▁Mar	-13.7903
▁validat	-13.7906
urance	-13.7925
▁Bam	-13.7925
▁Woo	-13.7928
▁Luk	-13.7931
bre	-13.7932
▁empathize	-13.7935
▁Commun	-13.7937
▁sandwiche	-13.7942
cat	-13.7947
atomic	-13.7949
AM	-13.7951
▁puls	-13.7954
aire	-13.7956
▁prep	-13.7963
chan	-13.7975
ein	-13.7976
▁swin	-13.7977
▁plural	-13.7977
erence	-13.7981
▁Samu	-13.7981
AC	-13.7995
▁grouper	-13.7997
▁Ley	-13.7997
void	-13.8
▁plea	-13.8002
lux	-13.8003
▁quot	-13.8007
▁unp	-13.8018
oul	-13.802
dam	-13.8031
▁unhe	-13.804
▁decreas	-13.8041
▁MP	-13.8057
emption	-13.806
structure	-13.8061
flection	-13.8063
▁irregular	-13.8064
▁barber	-13.8071
▁Cur	-13.8075
▁smuggl	-13.8079
acin	-13.8079
▁AS	-13.8081
▁crowdsourc	-13.8083
▁barb	-13.81
▁preced	-13.81
ubar	-13.8103
▁chok	-13.8106
▁cru	-13.8117
ngular	-13.8119
▁municipal	-13.812
▁patron	-13.8127
▁kits	-13.8136
▁abus	-13.814
lies	-13.8147
▁restor	-13.815
▁Dian	-13.8155
opter	-13.8159
▁Ye	-13.8161
▁Mur	-13.8162
▁Superma	-13.8165
▁digitiz	-13.8167
▁Beau	-13.8167
reek	-13.8168
▁posts	-13.8173
ock	-13.8176
von	-13.8179
trey	-13.818
morph	-13.8194
▁Bor	-13.8197
uda	-13.8197
▁conduc	-13.8199
▁neurologic	-13.8202
▁ingest	-13.8205
▁decod	-13.8206
▁Environment	-13.821
▁Pain	-13.8211
viv	-13.8212
▁tract	-13.8213
▁etern	-13.8216
style	-13.8217
MRI	-13.8218
different	-13.8218
child	-13.822
gill	-13.8221
▁Kat	-13.8229
▁Northwest	-13.8237
rill	-13.824
OS	-13.8246
▁hype	-13.8246
found	-13.825
▁needless	-13.8251
▁tack	-13.8253
▁suicid	-13.8254
▁elegan	-13.8256
▁launder	-13.8261
idle	-13.8265
▁Algeria	-13.8265
▁rack	-13.8266
▁disast	-13.8268
roadway	-13.827
▁tickle	-13.8273
▁Contra	-13.8273
▁tacti	-13.8276
▁logarithm	-13.8276
▁comprehend	-13.8276
▁pluripoten	-13.8276
▁annihilat	-13.8276
▁merchant	-13.8276
▁neutron	-13.8276
▁Airbnb	-13.8276
▁Cameroon	-13.8276
▁Chernobyl	-13.8276
▁Communication	-13.8276
▁Douglas	-13.8276
▁Emmanuel	-13.8276
▁Johannes	-13.8276
▁Simpson	-13.8276
▁Viagra	-13.8276
▁Volunteer	-13.8276
▁amputation	-13.8276
▁appendage	-13.8276
▁arsenal	-13.8276
▁bottleneck	-13.8276
▁brochure	-13.8276
▁clerk	-13.8276
▁debut	-13.8276
▁downhill	-13.8276
▁duct	-13.8276
▁eloquent	-13.8276
▁emerald	-13.8276
▁impoverish	-13.8276
▁intertwine	-13.8276
▁judicia	-13.8276
▁kilowatt	-13.8276
▁nanoparticle	-13.8276
▁nugget	-13.8276
▁outskirt	-13.8276
▁pajama	-13.8276
▁protagonist	-13.8276
▁razor	-13.8276
▁rifle	-13.8276
▁rudder	-13.8276
▁salamander	-13.8276
▁salut	-13.8276
▁squish	-13.8276
▁steroid	-13.8276
▁underdog	-13.8276
▁Charlotte	-13.8276
▁Gabriel	-13.8276
▁Orange	-13.8276
▁ballast	-13.8276
▁churn	-13.8276
▁corrosi	-13.8276
▁handcuff	-13.8276
▁hologram	-13.8276
▁punctuat	-13.8276
▁supreme	-13.8276
▁Belgi	-13.8276
▁Constitution	-13.8276
▁Morning	-13.8276
▁humpback	-13.8276
▁incapa	-13.8276
▁outstanding	-13.8276
▁plaque	-13.8276
▁vault	-13.8276
▁Stalin	-13.8276
▁superintelligen	-13.8276
▁compensati	-13.8276
▁cowboy	-13.8276
▁inadvertent	-13.8276
▁kettle	-13.8276
▁utilitarian	-13.8276
▁mourn	-13.8276
▁ravage	-13.8276
▁exclusion	-13.8276
▁Boeing	-13.8276
▁Shack	-13.8276
▁hotspot	-13.8276
▁typewriter	-13.8276
▁Naj	-13.8276
▁brigade	-13.8276
▁spectroscop	-13.8276
▁Ottoman	-13.8276
▁grill	-13.8276
▁facilitator	-13.8276
▁paycheck	-13.8276
▁stalk	-13.8276
▁upstreamist	-13.8276
▁prolong	-13.8276
▁replay	-13.8276
▁robb	-13.8276
▁Chech	-13.8276
▁twel	-13.8276
▁unsafe	-13.8276
▁Infinit	-13.8276
▁perimeter	-13.8276
▁submission	-13.8276
▁actress	-13.8276
▁Place	-13.8276
▁Standard	-13.8276
▁ginger	-13.8276
▁graze	-13.8276
▁Diver	-13.8276
▁ferment	-13.8276
▁Grandma	-13.8276
▁Shark	-13.8276
▁linger	-13.8276
▁UFO	-13.8276
▁defensive	-13.8277
▁Panama	-13.8277
▁Genetic	-13.8277
▁horrify	-13.8277
▁Might	-13.8277
▁toolbox	-13.8277
▁savage	-13.8277
▁qualitative	-13.8277
▁Train	-13.8277
▁animator	-13.8277
▁persuasion	-13.8277
▁Wang	-13.8278
▁eyeball	-13.8278
▁crunch	-13.8278
trophy	-13.8278
▁setback	-13.8278
▁stigmatiz	-13.8278
▁pinch	-13.8278
▁Brenda	-13.8278
▁Edu	-13.8278
▁oop	-13.8278
▁cartel	-13.8278
▁insurgenc	-13.8278
▁Claus	-13.8278
▁thirst	-13.8278
nitiative	-13.8279
▁enhancement	-13.8279
▁faithful	-13.8279
▁grue	-13.828
▁rebellion	-13.828
▁handheld	-13.8281
▁banal	-13.8281
▁chole	-13.8281
▁queer	-13.8282
▁Mass	-13.8282
▁patriot	-13.8282
▁CL	-13.8283
▁whack	-13.8283
▁crani	-13.8283
▁Fisher	-13.8284
▁snapp	-13.8284
▁fearful	-13.8284
▁incompatib	-13.8284
▁funk	-13.8285
▁Jerem	-13.8285
terol	-13.8285
▁encouragement	-13.8286
▁Burk	-13.8286
▁dangl	-13.8286
▁Must	-13.8287
▁Ow	-13.8287
▁proliferat	-13.8288
hu	-13.8289
▁Jak	-13.8289
▁poacher	-13.8289
▁Action	-13.829
▁turbulent	-13.8291
▁stride	-13.8293
▁reassuring	-13.8294
▁Maya	-13.8294
▁Doc	-13.8294
▁applica	-13.8294
▁juggler	-13.8295
▁onion	-13.8296
ascal	-13.8296
▁Made	-13.8298
▁Klein	-13.8299
fer	-13.8299
▁gig	-13.8299
dia	-13.8299
▁DO	-13.8301
▁revert	-13.8301
▁advise	-13.8303
huma	-13.8308
▁surfer	-13.8309
▁Grove	-13.831
▁nourish	-13.8311
▁perish	-13.8314
▁Manch	-13.8314
▁geopolitic	-13.8315
▁irrigat	-13.8315
▁Tech	-13.8316
teric	-13.8317
▁App	-13.832
▁Kis	-13.832
rop	-13.8321
▁momentous	-13.8321
▁Rama	-13.8322
▁tasting	-13.8322
▁spiritualit	-13.8322
▁savor	-13.8322
olph	-13.8323
▁weaken	-13.8323
▁updat	-13.8324
psychotic	-13.8329
▁contraceptive	-13.833
▁gambl	-13.8331
▁Farm	-13.8331
▁Rwandan	-13.8332
antha	-13.8332
▁transcendent	-13.8333
▁thigh	-13.8333
▁Tal	-13.8334
▁splitt	-13.8338
▁Stroma	-13.8343
▁INC	-13.8343
▁brew	-13.8346
bus	-13.8347
▁peeling	-13.8354
▁mop	-13.8356
▁exaggerat	-13.8358
▁recreat	-13.8358
▁aversion	-13.8359
▁Researcher	-13.8368
▁interdependen	-13.8371
oon	-13.8374
mel	-13.8376
▁navigat	-13.8377
heim	-13.8379
zman	-13.8381
▁formulate	-13.8384
lbert	-13.8385
▁undermin	-13.8391
▁pointer	-13.8397
▁Twa	-13.8397
▁Malt	-13.8399
tador	-13.8399
▁Harrie	-13.8402
▁Song	-13.8417
LAM	-13.8426
▁downward	-13.8426
▁nominate	-13.843
▁Sto	-13.8432
owa	-13.8442
▁reformer	-13.8449
▁enslave	-13.8449
▁fu	-13.8451
for	-13.8452
▁socializ	-13.8468
gger	-13.8468
imi	-13.8473
▁insur	-13.8474
tti	-13.8478
▁hopp	-13.848
pro	-13.8497
▁poisoning	-13.8498
▁preferabl	-13.8504
▁irrigati	-13.8508
ahoo	-13.8508
▁radiate	-13.8512
lity	-13.8517
▁Les	-13.8529
▁Bina	-13.8537
▁pitche	-13.8539
chai	-13.8541
▁coloniz	-13.8564
matic	-13.8572
arily	-13.858
▁Break	-13.8591
▁Gas	-13.8605
▁Carlo	-13.8606
▁dictators	-13.8607
▁perpetuat	-13.8608
▁Para	-13.8614
▁NP	-13.8617
▁Clo	-13.8618
yana	-13.8619
▁Donne	-13.8625
▁pals	-13.8646
uff	-13.8647
etti	-13.8659
▁nurser	-13.866
hou	-13.8674
▁bathe	-13.8677
▁differentiat	-13.8678
▁turnaround	-13.8683
▁rep	-13.8685
▁Mas	-13.8697
related	-13.8697
▁caste	-13.8708
custome	-13.8709
▁pine	-13.871
▁dodg	-13.8717
▁walker	-13.8718
SG	-13.872
horn	-13.8723
SF	-13.8735
▁HC	-13.8736
▁relian	-13.874
▁dressing	-13.8743
▁Bart	-13.8743
lude	-13.8746
ote	-13.8753
▁steward	-13.8759
▁trainer	-13.8762
▁BR	-13.8768
▁sincere	-13.8769
▁goose	-13.8775
▁Ur	-13.8776
▁Olive	-13.8779
▁Opera	-13.8786
▁ba	-13.8793
mine	-13.8796
hole	-13.8801
▁Full	-13.8807
eastern	-13.881
uma	-13.8812
ardon	-13.8814
▁je	-13.8826
uri	-13.8826
▁shad	-13.8826
▁rider	-13.8831
▁conjure	-13.8832
▁Bel	-13.8832
▁torch	-13.8836
▁Met	-13.8839
▁barbari	-13.8844
▁kicks	-13.8848
lia	-13.8849
▁relat	-13.885
▁lust	-13.8861
▁bushe	-13.8862
▁tro	-13.8891
▁Madi	-13.8892
▁Tra	-13.8895
idden	-13.8897
▁fascinate	-13.8897
▁tapes	-13.8898
tu	-13.8899
▁sway	-13.891
▁magnifi	-13.8912
vin	-13.8918
▁Authorit	-13.8925
▁Bret	-13.8926
▁Lou	-13.8929
istence	-13.8932
▁dwell	-13.8932
pour	-13.8933
▁gamble	-13.8934
▁GM	-13.8936
▁subsidize	-13.8941
mega	-13.8943
itan	-13.8946
him	-13.8948
▁Sim	-13.8952
boriginal	-13.8956
▁propagat	-13.896
pad	-13.8961
▁Nep	-13.8964
▁spu	-13.8967
ndent	-13.8967
▁feminis	-13.8967
list	-13.8971
din	-13.8972
▁trawl	-13.8974
▁collid	-13.8975
▁pira	-13.8978
▁verifi	-13.8979
▁Anders	-13.8979
▁Tasmania	-13.898
▁Victoria	-13.898
▁speculat	-13.8981
ritage	-13.8984
▁chemo	-13.8985
hili	-13.8985
▁harden	-13.8985
▁untouch	-13.8989
▁recess	-13.8989
▁bureaucrat	-13.8989
▁Leban	-13.8989
ipher	-13.8989
ccasional	-13.899
▁await	-13.899
▁hospice	-13.899
▁prophec	-13.899
▁remorse	-13.899
▁uterus	-13.899
▁Follow	-13.899
▁Future	-13.899
▁Gapminder	-13.899
▁abduct	-13.899
▁blossom	-13.899
▁bystander	-13.899
▁dazzl	-13.899
▁eclipse	-13.899
▁reassemble	-13.899
▁seduce	-13.899
▁subtitle	-13.899
▁urchin	-13.899
munition	-13.899
neurotransmitter	-13.899
▁Agricultur	-13.899
▁Bolivia	-13.899
▁Cornell	-13.899
▁Faiza	-13.899
▁Instagram	-13.899
▁Kurzweil	-13.899
▁Kuwait	-13.899
▁Reddit	-13.899
▁Thula	-13.899
▁adrenalin	-13.899
▁alleviate	-13.899
▁biblical	-13.899
▁concussion	-13.899
▁deceptive	-13.899
▁excruciating	-13.899
▁expenditure	-13.899
▁furnace	-13.899
▁geyser	-13.899
▁kelp	-13.899
▁marshmallow	-13.899
▁microprocessor	-13.899
▁prairie	-13.899
▁serif	-13.899
▁soybean	-13.899
▁spectacle	-13.899
▁submerge	-13.899
▁Angola	-13.899
▁Immediate	-13.899
▁Increasing	-13.899
▁Inuit	-13.899
▁dissident	-13.899
▁donkey	-13.899
▁microorganism	-13.899
▁outlaw	-13.899
▁propriet	-13.899
▁unpack	-13.899
▁Adult	-13.899
▁Complete	-13.899
▁kidnapping	-13.899
▁mistrust	-13.899
▁orthopedic	-13.899
▁palette	-13.899
▁sympathetic	-13.899
▁Chapter	-13.899
▁Igbo	-13.899
▁cardiologist	-13.899
▁fifty	-13.899
▁crook	-13.899
▁plaza	-13.899
▁approximation	-13.899
▁beacon	-13.899
▁probiotic	-13.899
▁vigorous	-13.899
▁watershed	-13.899
▁Charter	-13.899
▁schematic	-13.899
▁Kickstarter	-13.899
▁overhear	-13.899
▁Message	-13.899
▁Scoop	-13.899
▁Easy	-13.899
▁Plastic	-13.899
▁epidemiologist	-13.899
▁buffalo	-13.899
igible	-13.899
▁coarse	-13.899
▁Rhode	-13.899
▁PCB	-13.899
▁grandmaster	-13.899
teau	-13.899
▁boardroom	-13.899
▁mountaintop	-13.899
▁fragrance	-13.899
▁orthodox	-13.899
▁lord	-13.899
▁Moham	-13.899
▁sculptural	-13.899
▁fluke	-13.899
▁Bonnie	-13.899
▁unicorn	-13.899
▁Committe	-13.899
▁civiliz	-13.899
▁spook	-13.8991
▁editorial	-13.8991
▁PET	-13.8991
▁memoir	-13.8991
▁Devil	-13.8991
▁crayon	-13.8991
▁Studie	-13.8991
▁detaine	-13.8991
▁throwaway	-13.8991
▁Battle	-13.8991
▁landmine	-13.8991
▁Athen	-13.8991
▁haircut	-13.8991
▁paradoxical	-13.8991
▁disturbance	-13.8991
assic	-13.8991
▁equate	-13.8991
▁Aquariu	-13.8991
▁Senator	-13.8991
▁hmm	-13.8991
▁bailout	-13.8991
▁strangl	-13.8991
▁quotation	-13.8991
▁demons	-13.8991
▁immunize	-13.8991
▁Milan	-13.8991
▁thorn	-13.8991
▁granular	-13.8991
▁Fellow	-13.8992
▁homophobi	-13.8992
▁Kins	-13.8992
▁fellowship	-13.8992
▁remak	-13.8992
▁carving	-13.8992
▁Transition	-13.8992
▁Dominican	-13.8992
▁Nino	-13.8992
▁novelist	-13.8992
▁Bow	-13.8992
▁caption	-13.8992
▁squirt	-13.8992
▁firework	-13.8992
▁palpabl	-13.8993
▁SA	-13.8993
▁devastation	-13.8993
▁paraphras	-13.8993
▁devotion	-13.8994
▁carriage	-13.8994
▁Alberto	-13.8994
▁yaw	-13.8995
▁cannon	-13.8995
▁skyline	-13.8995
▁Want	-13.8995
▁Kamen	-13.8995
▁backbone	-13.8995
▁fide	-13.8996
▁EU	-13.8996
wn	-13.8996
▁Owen	-13.8996
▁PT	-13.8997
▁truthful	-13.8998
enture	-13.8998
▁astrolabe	-13.8999
▁limitless	-13.8999
▁Kerr	-13.8999
▁communicator	-13.8999
▁bloodline	-13.9
▁stove	-13.9
▁Yemeni	-13.9001
▁moss	-13.9001
▁recyclable	-13.9001
▁theorist	-13.9002
▁colonize	-13.9002
▁Impossib	-13.9003
▁darn	-13.9003
▁gha	-13.9004
▁prosc	-13.9004
▁Jamaican	-13.9005
▁eagle	-13.9006
▁saucer	-13.9006
monar	-13.9006
▁noun	-13.9007
▁usher	-13.9008
▁Phone	-13.9009
▁biochemistr	-13.9009
▁memoriz	-13.901
▁oas	-13.9011
▁smuggler	-13.9013
▁restless	-13.9014
▁jig	-13.9014
▁Viking	-13.9015
▁Butler	-13.9015
iffe	-13.9017
ku	-13.9019
▁altar	-13.902
▁Bage	-13.9022
▁seminar	-13.9025
▁Sela	-13.9026
▁archiv	-13.9028
▁Path	-13.9029
▁Bayes	-13.9032
▁hum	-13.9034
▁pois	-13.9035
▁Cous	-13.9036
▁retrofitt	-13.9037
span	-13.9042
▁attribut	-13.9043
▁expo	-13.9046
▁apath	-13.9047
▁Justin	-13.905
▁premi	-13.9051
▁Mat	-13.9051
▁Runn	-13.9052
harmonic	-13.9053
▁neon	-13.9054
▁Canal	-13.9055
▁Mard	-13.9055
▁thousandth	-13.9055
gel	-13.9056
▁Lion	-13.9056
▁shooter	-13.9057
rbie	-13.9061
▁acu	-13.9064
▁Barn	-13.9065
▁Ai	-13.9066
▁defender	-13.9072
raba	-13.9072
▁pollute	-13.9073
pex	-13.9076
▁Key	-13.9076
ano	-13.908
▁lid	-13.9082
USB	-13.9084
▁skim	-13.9085
come	-13.9087
gal	-13.9089
lie	-13.9089
▁tier	-13.9094
▁Flo	-13.9095
▁Harris	-13.9097
▁reverberat	-13.9098
▁willful	-13.9101
▁Malari	-13.9104
rative	-13.9109
▁Humanit	-13.9109
▁compost	-13.9111
▁Rap	-13.9114
▁Off	-13.9118
▁outperform	-13.9122
rso	-13.9124
ET	-13.9129
▁Willi	-13.913
▁democratize	-13.9131
eal	-13.9132
ried	-13.9138
▁Tomm	-13.9142
▁Bare	-13.9143
▁Masa	-13.9154
▁ya	-13.9156
▁lag	-13.9156
ath	-13.916
jad	-13.9171
▁pins	-13.9172
▁CE	-13.9176
ifying	-13.918
▁Marco	-13.9183
▁robe	-13.9183
▁arch	-13.9183
▁tug	-13.9183
grown	-13.9186
▁patche	-13.919
rap	-13.9191
▁Bobb	-13.9193
ib	-13.9193
▁meditati	-13.9197
▁Ste	-13.9201
▁crowdsource	-13.9201
▁titan	-13.9203
▁stretche	-13.9206
inister	-13.9207
polis	-13.9214
▁Forb	-13.9224
▁aggregat	-13.9228
working	-13.9236
ander	-13.9238
▁UC	-13.9239
▁mania	-13.9239
▁momm	-13.924
▁Valentin	-13.9244
▁Kay	-13.9248
icular	-13.9249
▁quadruple	-13.9252
▁archaeolog	-13.9256
▁retir	-13.9265
ante	-13.9267
▁categorize	-13.9275
del	-13.9276
mate	-13.9278
into	-13.928
▁presiden	-13.9283
▁hay	-13.9287
▁sentenc	-13.9296
▁dealers	-13.9296
▁monet	-13.9301
cule	-13.9301
lip	-13.9301
▁Flu	-13.9302
ign	-13.9317
ryl	-13.9322
▁starve	-13.9323
▁Univers	-13.9333
▁sociolog	-13.9335
▁grower	-13.9341
▁vici	-13.9345
mun	-13.9351
gate	-13.9362
CAT	-13.9362
▁divin	-13.9363
abul	-13.9366
▁Giv	-13.9373
▁ec	-13.9377
▁aero	-13.9378
▁Mine	-13.9385
ova	-13.9387
▁chap	-13.9387
▁dic	-13.9395
▁Hind	-13.9398
▁disseminat	-13.9403
▁Robin	-13.9409
▁Him	-13.941
▁CS	-13.942
▁Bull	-13.9431
▁una	-13.9432
▁shard	-13.9434
elli	-13.944
dministration	-13.9446
lett	-13.9456
▁Chen	-13.9456
erine	-13.9459
rink	-13.9461
▁Stevens	-13.9464
▁Friends	-13.9465
dah	-13.9474
▁jo	-13.9474
die	-13.948
shes	-13.9484
raham	-13.9485
▁starch	-13.9487
▁modul	-13.95
ignment	-13.9505
NIC	-13.9506
▁discourag	-13.9517
▁junkie	-13.952
▁investigati	-13.9523
▁deteriorat	-13.9528
▁coerc	-13.9529
▁regenerat	-13.9534
loid	-13.9539
▁Tol	-13.9548
▁circulate	-13.9552
▁Drug	-13.9554
osh	-13.9555
▁Rad	-13.9557
▁dub	-13.9557
▁idealis	-13.9558
ockey	-13.9558
ieber	-13.9568
▁stitch	-13.9572
▁glaze	-13.9572
elve	-13.9577
▁recharge	-13.9577
▁Gayl	-13.9578
▁refuge	-13.9582
▁spong	-13.9597
mond	-13.9598
▁launche	-13.9601
▁parasit	-13.9605
ndi	-13.9607
▁urg	-13.962
▁var	-13.9622
▁advis	-13.9623
▁Cook	-13.9625
▁Tric	-13.9626
dium	-13.9627
spective	-13.9627
▁reinforc	-13.9638
▁EB	-13.964
▁Guil	-13.9641
eman	-13.9642
▁rever	-13.9647
heart	-13.9659
▁issu	-13.9661
▁moons	-13.9664
anga	-13.9666
▁spher	-13.9669
iscons	-13.9671
ika	-13.9672
▁bankrupt	-13.9681
▁healthie	-13.9682
after	-13.9696
▁symbio	-13.9697
▁captiv	-13.9698
▁enforc	-13.9698
▁clar	-13.9698
▁pu	-13.97
tooth	-13.9701
convenient	-13.9701
screen	-13.9701
consistent	-13.9701
credit	-13.9701
strip	-13.9701
Lab	-13.9702
people	-13.9702
reasonable	-13.9702
finance	-13.9703
zero	-13.9703
fus	-13.9705
▁Sky	-13.9708
▁unwa	-13.9708
pers	-13.9709
▁TH	-13.971
dded	-13.9716
▁paralyze	-13.9716
▁Cra	-13.9718
▁swell	-13.972
western	-13.9722
bath	-13.9727
ggy	-13.9729
▁trac	-13.973
▁outfit	-13.9731
▁contracepti	-13.9731
log	-13.9732
catch	-13.9732
▁negativ	-13.9733
stand	-13.9735
▁Program	-13.9737
▁dresse	-13.9737
▁fluorescen	-13.974
▁Gun	-13.974
ition	-13.9741
▁automate	-13.9742
▁confer	-13.9743
▁Industr	-13.9744
▁sponsors	-13.9745
▁nutritio	-13.9749
▁Somali	-13.975
▁Lear	-13.9751
locks	-13.9751
▁valu	-13.9751
misphere	-13.9753
▁Trans	-13.9753
▁subscribe	-13.9755
▁hap	-13.9757
▁braver	-13.9757
▁reign	-13.9757
▁typograph	-13.9758
▁inhale	-13.9758
▁electromagnet	-13.9758
▁linguist	-13.9758
▁registr	-13.9759
▁Command	-13.9759
▁Shame	-13.9759
▁pediatric	-13.9759
▁retrospect	-13.9759
▁epidemiolog	-13.9759
▁psychotherap	-13.9759
▁compartment	-13.9759
▁debilitat	-13.9759
▁Treasur	-13.9759
▁amputee	-13.9759
▁culprit	-13.9759
▁dessert	-13.9759
▁disorient	-13.9759
▁entangle	-13.9759
▁escort	-13.9759
▁relegate	-13.9759
▁remnant	-13.9759
▁spectator	-13.9759
▁subvert	-13.9759
▁succumb	-13.9759
▁undesir	-13.9759
ahedron	-13.9759
reconceive	-13.9759
rofo	-13.9759
▁District	-13.9759
▁Kazak	-13.9759
▁Macintosh	-13.9759
▁McLuhan	-13.9759
▁Valdez	-13.9759
▁abolish	-13.9759
▁breeze	-13.9759
▁caffein	-13.9759
▁cassette	-13.9759
▁chimney	-13.9759
▁colossal	-13.9759
▁conceal	-13.9759
▁contempt	-13.9759
▁critique	-13.9759
▁cyberattack	-13.9759
▁delegation	-13.9759
▁desolate	-13.9759
▁hashtag	-13.9759
▁isotope	-13.9759
▁kiosk	-13.9759
▁labyrinth	-13.9759
▁mechanistic	-13.9759
▁replenish	-13.9759
▁reunion	-13.9759
▁rhinovirus	-13.9759
▁sift	-13.9759
▁sprout	-13.9759
▁supernatural	-13.9759
▁telegraph	-13.9759
▁videotape	-13.9759
▁whistleblower	-13.9759
▁Buckminster	-13.9759
▁Curiosit	-13.9759
▁Eagle	-13.9759
▁Glacier	-13.9759
▁Scrapper	-13.9759
▁clutter	-13.9759
▁cramp	-13.9759
▁eleven	-13.9759
▁frantic	-13.9759
▁superficial	-13.9759
▁windshield	-13.9759
▁yacht	-13.9759
▁Classic	-13.9759
▁Linked	-13.9759
▁Nucle	-13.9759
▁Pleuro	-13.9759
▁Utopia	-13.9759
▁calamit	-13.9759
▁capillar	-13.9759
▁entail	-13.9759
▁lobster	-13.9759
▁orchid	-13.9759
▁twitch	-13.9759
▁Carbon	-13.9759
▁Skycar	-13.9759
▁complacen	-13.9759
▁shipyard	-13.9759
▁sledge	-13.9759
▁departure	-13.9759
▁presumption	-13.9759
▁Lindberg	-13.9759
▁Protest	-13.9759
▁barbecue	-13.9759
▁demolish	-13.9759
▁disclosure	-13.9759
▁Clinic	-13.9759
▁delta	-13.9759
▁stereotypical	-13.9759
▁trench	-13.9759
▁bastard	-13.9759
▁motel	-13.9759
ivore	-13.9759
▁Furby	-13.9759
▁Principle	-13.9759
▁pupil	-13.9759
▁joystick	-13.9759
▁proactive	-13.9759
▁slang	-13.9759
▁boast	-13.9759
▁Diamond	-13.9759
▁biomechanic	-13.9759
▁darling	-13.9759
▁hallmark	-13.976
▁crutch	-13.976
▁genealog	-13.976
▁caterpillar	-13.976
▁myriad	-13.976
▁Kiva	-13.976
▁airbag	-13.976
▁chainsaw	-13.976
▁contextual	-13.976
▁Vander	-13.976
▁cosmologist	-13.976
nowledge	-13.976
▁tidy	-13.976
▁peck	-13.976
▁spearhead	-13.976
▁Bernard	-13.976
▁craftsman	-13.976
▁blush	-13.976
▁Emergenc	-13.976
▁playwright	-13.976
▁caution	-13.976
▁CDC	-13.976
peror	-13.976
▁Holland	-13.976
▁Finger	-13.976
▁chant	-13.976
▁filth	-13.976
▁informant	-13.976
▁ballistic	-13.976
ylon	-13.9761
▁interconnection	-13.9761
▁glide	-13.9761
▁pH	-13.9761
▁hexagon	-13.9761
▁flora	-13.9761
▁Coach	-13.9761
▁Gang	-13.9761
▁Arno	-13.9761
▁Bilb	-13.9761
▁Ethan	-13.9761
▁runaway	-13.9761
▁conservationist	-13.9761
▁tenaci	-13.9761
▁scooter	-13.9761
▁reset	-13.9761
nterface	-13.9761
▁inspector	-13.9761
▁slick	-13.9761
▁Gaga	-13.9762
▁Apart	-13.9762
▁formulation	-13.9762
▁avert	-13.9762
▁clogg	-13.9762
▁Michelle	-13.9762
▁Explorer	-13.9762
▁arable	-13.9762
▁Coral	-13.9762
▁overdose	-13.9762
▁Leah	-13.9762
▁Knight	-13.9763
▁Shaw	-13.9763
▁situat	-13.9763
▁gluten	-13.9763
▁Diplomat	-13.9763
▁Oz	-13.9764
▁cutter	-13.9764
▁Whale	-13.9764
▁Adrian	-13.9764
▁Fuller	-13.9764
▁coherenc	-13.9764
▁Grann	-13.9765
▁purposeful	-13.9765
▁sip	-13.9765
▁Brent	-13.9765
▁Nir	-13.9765
▁referral	-13.9766
▁cushion	-13.9767
▁Brigade	-13.9767
▁wiki	-13.9767
▁utopian	-13.9767
▁Lance	-13.9768
awkins	-13.9768
▁Jet	-13.9769
▁rung	-13.9769
NH	-13.9769
▁raid	-13.9769
▁Craz	-13.9769
▁complian	-13.977
▁bunker	-13.977
▁dash	-13.977
▁affectionate	-13.977
▁Race	-13.977
▁choreographer	-13.977
▁Dust	-13.9771
▁Hang	-13.9771
▁frown	-13.9771
▁bean	-13.9771
ignifi	-13.9771
▁Latino	-13.9772
▁clam	-13.9772
▁Sach	-13.9773
▁Hurt	-13.9773
▁grey	-13.9774
▁breathtaking	-13.9774
▁Marie	-13.9774
▁dweller	-13.9774
▁RD	-13.9776
▁hardship	-13.9778
▁prostitut	-13.9778
semen	-13.9779
▁warden	-13.9779
▁sanct	-13.9779
▁undoubt	-13.978
▁directive	-13.978
▁clearance	-13.9781
virus	-13.9782
▁residence	-13.9782
▁marche	-13.9783
▁ascend	-13.9784
readnought	-13.9784
▁Cage	-13.9785
▁endure	-13.9786
▁overlapp	-13.9786
▁justifi	-13.9787
▁Luca	-13.9789
▁hal	-13.9789
▁defecat	-13.9789
▁Highway	-13.9791
LL	-13.9795
▁Beside	-13.9797
▁complementar	-13.9798
uction	-13.9799
▁Natali	-13.9803
▁Vote	-13.9803
▁retailer	-13.9804
▁marit	-13.9807
▁creed	-13.9809
▁reframe	-13.9809
▁dismay	-13.981
▁reciprocal	-13.9812
▁disco	-13.9812
▁Bin	-13.9814
▁Sandy	-13.9816
▁steadi	-13.9818
▁heighten	-13.982
▁Jaw	-13.9825
utum	-13.9825
▁Mmm	-13.9825
spiration	-13.9826
▁spam	-13.9827
▁Clay	-13.983
▁antique	-13.9831
▁denie	-13.9841
ynthetic	-13.9846
▁deed	-13.9846
▁OS	-13.9851
▁constitutional	-13.9865
itude	-13.9865
▁EPA	-13.9866
▁Rott	-13.9875
▁Vin	-13.9876
▁Pon	-13.9878
▁Bih	-13.9881
RS	-13.9885
▁manu	-13.9888
▁Drive	-13.9888
▁barr	-13.9889
▁Tod	-13.9891
era	-13.9894
dside	-13.9897
leigh	-13.9898
▁phy	-13.9899
hoe	-13.9906
▁hy	-13.9907
row	-13.991
▁cello	-13.991
▁proceeding	-13.9911
▁tab	-13.9912
ometric	-13.9912
▁ecstas	-13.9912
▁LA	-13.992
▁barbaria	-13.9926
▁Cow	-13.9931
▁municipalit	-13.9943
▁Nova	-13.9944
boxe	-13.9949
wall	-13.9962
▁sourc	-13.9977
bank	-13.9983
usie	-13.9984
▁Nar	-13.9984
▁domesticate	-13.9985
cted	-13.9987
significant	-13.9999
▁Joan	-14.0006
▁Mira	-14.0014
▁comprise	-14.0014
xi	-14.0016
▁alley	-14.0021
▁chu	-14.0023
▁descen	-14.0025
ometer	-14.0028
win	-14.0029
▁decorati	-14.003
▁tactical	-14.0034
▁condens	-14.0038
iform	-14.0042
▁Tw	-14.0048
lk	-14.0049
▁shav	-14.0051
▁conductiv	-14.0054
▁Lynn	-14.006
sale	-14.0061
rmed	-14.0068
▁Ball	-14.0069
▁interst	-14.0071
▁Spla	-14.0071
▁miniaturiz	-14.0073
▁Salva	-14.0074
rash	-14.0079
idal	-14.0081
aux	-14.0099
▁bash	-14.0104
▁rut	-14.0105
plex	-14.0107
▁dives	-14.011
ates	-14.0111
▁salv	-14.0111
▁Jung	-14.0116
Hex	-14.0116
usa	-14.0118
▁Pol	-14.0118
ulate	-14.0118
▁narcissist	-14.012
▁Hunt	-14.0122
ON	-14.0124
escent	-14.0126
▁disseminate	-14.0129
und	-14.013
▁Words	-14.013
▁barcode	-14.0135
shy	-14.0139
▁Hands	-14.0143
▁Tap	-14.0143
zz	-14.0146
▁cam	-14.0147
▁unions	-14.0148
▁counteract	-14.0153
▁fertilize	-14.0154
▁Sho	-14.0154
pulsion	-14.0156
RT	-14.0163
▁Shen	-14.0164
▁Fan	-14.0164
▁reviv	-14.0171
▁Aus	-14.0173
▁Pri	-14.0175
izer	-14.0176
▁gasse	-14.0177
▁Gl	-14.0181
▁mach	-14.0182
owitz	-14.0182
Family	-14.0186
▁Hoo	-14.0189
▁Rive	-14.0189
▁excavat	-14.0192
marin	-14.0194
▁addicti	-14.0196
▁repetiti	-14.0198
▁outsourc	-14.0199
ace	-14.0204
▁glu	-14.021
pan	-14.0211
▁Aveli	-14.0211
▁Share	-14.0212
▁replie	-14.0213
▁dialect	-14.022
▁naturalist	-14.022
▁scrambl	-14.0227
▁procrastinat	-14.023
ike	-14.0232
▁Eno	-14.0234
▁accuse	-14.0236
▁Mathematic	-14.0241
▁Sty	-14.0242
▁woo	-14.0246
▁Bla	-14.0246
▁Colon	-14.0248
▁duplicate	-14.0263
▁rehearse	-14.0265
▁auntie	-14.0266
lace	-14.0269
▁predicti	-14.0273
upp	-14.0297
arian	-14.0297
▁bo	-14.031
▁Billi	-14.0311
▁studios	-14.032
▁muck	-14.0322
▁Sand	-14.0323
▁exo	-14.0327
▁Mag	-14.0329
▁Architect	-14.0334
▁nav	-14.0337
▁ensur	-14.0338
roa	-14.0343
▁commut	-14.0344
aku	-14.0354
olar	-14.0357
riff	-14.0363
ofi	-14.0366
▁id	-14.0369
page	-14.0374
drop	-14.0374
tha	-14.0378
ugh	-14.038
▁Origin	-14.038
▁Char	-14.0384
▁Vil	-14.0392
▁reassure	-14.0401
▁Ci	-14.0402
▁whal	-14.0409
▁incentivize	-14.0415
etter	-14.0421
▁Capital	-14.0423
erra	-14.0425
▁bun	-14.0426
▁sacrific	-14.043
▁denounce	-14.0434
stical	-14.0437
▁deconstruct	-14.0437
rat	-14.0447
▁Elv	-14.0453
▁lateral	-14.0455
▁academ	-14.0457
▁Hour	-14.0463
▁tumble	-14.0463
▁northwest	-14.0471
love	-14.0474
rong	-14.0481
▁licens	-14.0486
▁exaggerate	-14.0488
▁Sur	-14.0495
nick	-14.0497
▁Bit	-14.0503
arch	-14.0505
▁thro	-14.0512
leg	-14.0514
▁farthe	-14.0516
pparent	-14.0521
▁Levin	-14.0522
scale	-14.053
bury	-14.0532
Justine	-14.0534
known	-14.0534
milk	-14.0535
blood	-14.0535
normal	-14.0535
AIDS	-14.0535
nuclea	-14.0535
boat	-14.0535
ethical	-14.0536
plankt	-14.0536
animate	-14.0536
▁perfume	-14.0537
▁retrofit	-14.0537
lliance	-14.0542
▁supervis	-14.0544
ita	-14.0546
▁scrutin	-14.055
frost	-14.055
▁Meet	-14.0557
▁Sandr	-14.0559
▁ensu	-14.0566
▁fare	-14.0566
due	-14.0572
▁peacebuild	-14.0573
▁immerse	-14.0574
▁interpla	-14.0574
▁magne	-14.0574
▁sec	-14.0574
▁reprogram	-14.0575
?	-14.0576
▁Hack	-14.0577
part	-14.0578
▁slug	-14.0584
Len	-14.0586
rium	-14.0587
minent	-14.0587
izzy	-14.0589
▁Rebe	-14.0589
▁rehab	-14.059
▁amplifie	-14.059
▁prolif	-14.0591
▁implicat	-14.0591
variabl	-14.0592
zhen	-14.0592
▁preoccup	-14.0592
▁shack	-14.0592
▁advert	-14.0592
pecific	-14.0592
nect	-14.0592
▁Columb	-14.0592
▁crate	-14.0592
onologue	-14.0592
▁illitera	-14.0592
▁maid	-14.0593
▁retard	-14.0593
▁Announce	-14.0593
▁clutch	-14.0593
▁dwindl	-14.0593
▁electrifie	-14.0593
▁grizzl	-14.0593
▁insurgent	-14.0593
▁microsecond	-14.0593
▁outlook	-14.0593
▁parody	-14.0593
▁petrochemical	-14.0593
▁qualification	-14.0593
▁recap	-14.0593
▁renovat	-14.0593
▁sunflower	-14.0593
▁Corexit	-14.0593
▁Mushroom	-14.0593
▁Photograph	-14.0593
▁Volvo	-14.0593
▁commemorat	-14.0593
▁conjecture	-14.0593
▁lattice	-14.0593
▁masculin	-14.0593
▁milkweed	-14.0593
▁regress	-14.0593
▁renown	-14.0593
▁transcribe	-14.0593
cautious	-14.0593
haraoh	-14.0593
▁Blind	-14.0593
▁Choice	-14.0593
▁Crisis	-14.0593
▁Eleven	-14.0593
▁Express	-14.0593
▁Ezra	-14.0593
▁Folk	-14.0593
▁Jeep	-14.0593
▁LOLcat	-14.0593
▁Prosper	-14.0593
▁Violen	-14.0593
▁WorldWide	-14.0593
▁Yugoslav	-14.0593
▁absorpti	-14.0593
▁amoeba	-14.0593
▁aphid	-14.0593
▁bachelor	-14.0593
▁cheetah	-14.0593
▁constituent	-14.0593
▁contraption	-14.0593
▁deput	-14.0593
▁diagonal	-14.0593
▁insufficient	-14.0593
▁jirga	-14.0593
▁juxtaposition	-14.0593
▁kangaroo	-14.0593
▁lexicograph	-14.0593
▁lurk	-14.0593
▁megabyte	-14.0593
▁peasant	-14.0593
▁plutonium	-14.0593
▁proclaim	-14.0593
▁proteomic	-14.0593
▁sausage	-14.0593
▁scaveng	-14.0593
▁shrub	-14.0593
▁sophomore	-14.0593
▁splendid	-14.0593
▁uncommon	-14.0593
▁undergrad	-14.0593
▁unprepared	-14.0593
▁unwilling	-14.0593
▁Advanc	-14.0593
▁amputate	-14.0593
▁biochemical	-14.0593
▁coincide	-14.0593
▁cyborg	-14.0593
▁harp	-14.0593
▁senator	-14.0593
▁turkey	-14.0593
▁unconditional	-14.0593
▁bullshit	-14.0593
▁hysterical	-14.0593
▁indiscriminate	-14.0593
▁mockingbird	-14.0593
▁swift	-14.0593
▁actuator	-14.0593
▁coincidental	-14.0593
▁repay	-14.0593
▁skateboard	-14.0593
▁surreal	-14.0593
▁wretche	-14.0593
▁Mozambi	-14.0593
▁botanical	-14.0593
▁confound	-14.0593
▁critter	-14.0593
▁libertarian	-14.0593
▁mislead	-14.0593
▁oncologist	-14.0593
▁Foot	-14.0593
▁agitat	-14.0593
▁mitochondria	-14.0593
▁roast	-14.0593
▁splash	-14.0593
▁clunk	-14.0593
▁bracket	-14.0593
▁Shaba	-14.0593
▁Weather	-14.0593
▁futil	-14.0593
▁Atlas	-14.0593
▁dispersant	-14.0593
▁footnote	-14.0593
▁Fiji	-14.0593
▁frail	-14.0593
▁puddle	-14.0593
▁symbiotic	-14.0593
▁toothp	-14.0593
ethos	-14.0593
nvisibl	-14.0593
▁fluff	-14.0593
▁expend	-14.0593
▁teme	-14.0593
▁retrospective	-14.0593
▁capsize	-14.0593
▁latch	-14.0593
▁safeguard	-14.0593
▁swoop	-14.0593
▁Monet	-14.0593
▁LOL	-14.0593
▁grit	-14.0593
▁doorstep	-14.0593
▁dissonance	-14.0593
▁Huck	-14.0593
▁Romantic	-14.0593
▁Lick	-14.0593
▁bride	-14.0593
▁lobbyist	-14.0593
▁neurosurgeon	-14.0593
▁endowment	-14.0593
▁translucen	-14.0593
▁assay	-14.0593
▁crystalliz	-14.0593
▁thirty	-14.0593
▁convulsion	-14.0593
▁Moderat	-14.0594
atops	-14.0594
▁recursive	-14.0594
▁romanticize	-14.0594
▁pavement	-14.0594
▁frack	-14.0594
▁shutter	-14.0594
▁Declar	-14.0594
▁trickster	-14.0594
▁Hawaiian	-14.0594
▁funnel	-14.0594
▁Hippocrat	-14.0594
▁prosecution	-14.0594
▁abdomen	-14.0594
▁memetic	-14.0594
stonia	-14.0594
▁internalize	-14.0594
▁Newcast	-14.0594
▁payback	-14.0594
▁cherr	-14.0594
▁youthful	-14.0595
▁immunization	-14.0595
▁commonalit	-14.0595
▁consultation	-14.0595
▁scout	-14.0595
▁millionaire	-14.0595
▁rotor	-14.0595
▁fossilize	-14.0595
▁flatter	-14.0595
▁floss	-14.0595
▁Jabb	-14.0595
▁depletion	-14.0595
▁tractor	-14.0595
▁juic	-14.0596
▁bandage	-14.0596
▁Eisen	-14.0596
▁glider	-14.0596
▁Casa	-14.0596
xter	-14.0596
▁Wake	-14.0596
▁randomize	-14.0596
▁Hugh	-14.0596
▁adhesive	-14.0596
ieu	-14.0596
▁smiley	-14.0597
▁PG	-14.0597
▁flopp	-14.0597
▁Milit	-14.0597
rift	-14.0597
▁Block	-14.0598
▁Hazara	-14.0598
▁adjustment	-14.0598
▁successive	-14.0598
▁guardian	-14.0598
▁Carro	-14.0598
▁distortion	-14.0598
▁timescale	-14.0598
▁modernist	-14.0599
▁Mona	-14.06
▁Liver	-14.06
▁Kite	-14.06
ipur	-14.06
▁supervisor	-14.06
gulf	-14.0601
▁mute	-14.0601
▁chatter	-14.0602
▁herring	-14.0603
▁modulate	-14.0603
▁rhythmic	-14.0603
▁Month	-14.0604
hstan	-14.0605
ilence	-14.0605
▁canyon	-14.0605
▁Kera	-14.0605
▁Grab	-14.0605
▁Blackberry	-14.0605
▁Dog	-14.0605
▁sailor	-14.0606
gow	-14.0606
▁DC	-14.0606
▁permeate	-14.0607
▁Raja	-14.0608
▁vine	-14.0608
▁jogg	-14.0608
▁Pool	-14.0608
▁flicker	-14.0608
▁Box	-14.0608
▁Ata	-14.0609
▁vial	-14.0609
▁hone	-14.061
▁consisten	-14.061
▁nann	-14.0611
leton	-14.0611
▁miserabl	-14.0613
▁plumber	-14.0613
▁eminent	-14.0613
▁chopp	-14.0613
▁swapp	-14.0616
ssex	-14.0617
▁Blak	-14.0618
▁Temple	-14.0618
▁diner	-14.0618
nuck	-14.0619
▁fable	-14.0622
▁Lenn	-14.0626
▁prioritiz	-14.0627
▁gem	-14.0627
▁populate	-14.0628
ozy	-14.0629
▁BE	-14.0633
▁fiddle	-14.0636
▁correlat	-14.0638
uja	-14.0639
▁Anne	-14.064
▁fellows	-14.064
▁groove	-14.0641
▁homeland	-14.0642
will	-14.0643
▁dwelling	-14.0645
▁scor	-14.0645
▁torque	-14.065
▁Biolog	-14.0653
▁sadde	-14.0655
▁shortcoming	-14.0656
▁hundredth	-14.0657
▁spice	-14.0657
▁restorati	-14.0659
▁Ott	-14.066
▁pota	-14.0663
▁gal	-14.0663
▁intake	-14.0665
▁carpool	-14.0669
▁Allow	-14.067
▁gill	-14.0671
▁disciplinar	-14.0674
linear	-14.0677
▁padd	-14.0679
abha	-14.068
▁fleeting	-14.0681
▁scent	-14.0681
▁Hart	-14.0682
ei	-14.0683
▁protector	-14.0688
▁Perc	-14.069
bla	-14.0692
▁Designer	-14.0699
▁Bris	-14.07
rump	-14.0702
ela	-14.0702
ipper	-14.0703
▁Martine	-14.0706
▁invoke	-14.0707
▁straighten	-14.0718
skill	-14.072
▁unify	-14.0722
▁Fras	-14.0724
▁tumbl	-14.0726
▁mart	-14.0729
▁Twin	-14.0729
▁cartograph	-14.0743
▁Chev	-14.0745
▁Sen	-14.0749
uza	-14.0749
▁orchestrate	-14.0753
▁bot	-14.076
▁reviewer	-14.0765
▁flashe	-14.0768
▁Googler	-14.0778
▁Burg	-14.0779
▁disma	-14.0781
▁perma	-14.0781
▁tanker	-14.0784
▁gasp	-14.0785
▁Sha	-14.0787
ench	-14.079
usp	-14.079
▁Peer	-14.0792
ental	-14.0795
▁Beth	-14.0805
▁provok	-14.081
▁speculati	-14.0823
▁revolv	-14.0825
lus	-14.0825
▁Poll	-14.0833
gg	-14.0834
cchi	-14.0841
▁escalate	-14.0844
▁darken	-14.0847
▁Witt	-14.0849
▁erode	-14.085
▁deteriorate	-14.085
▁scu	-14.0857
▁List	-14.0859
▁aromat	-14.0861
▁comb	-14.0863
▁pleas	-14.0864
fir	-14.0864
▁spur	-14.0872
▁propagate	-14.0872
▁understate	-14.0876
▁ignit	-14.0884
▁Str	-14.0885
▁beneficiar	-14.0885
▁governors	-14.0904
rmant	-14.091
▁Ap	-14.0913
ulli	-14.092
glo	-14.0924
▁feeder	-14.0924
▁HA	-14.0926
unity	-14.0929
▁Mist	-14.0931
▁manne	-14.0941
▁Dys	-14.0948
cene	-14.0959
▁evocati	-14.096
▁witnesse	-14.0962
▁leash	-14.0962
▁dissipate	-14.0966
utt	-14.0968
liver	-14.0968
▁obscur	-14.0968
sibilit	-14.0971
inson	-14.0974
▁flirt	-14.0975
▁Robbi	-14.0976
our	-14.0978
llows	-14.0979
▁dips	-14.0979
▁Identi	-14.098
▁acro	-14.0981
▁mu	-14.0982
▁Locke	-14.0992
▁Cent	-14.1
▁outsource	-14.1003
▁Theat	-14.1015
▁Scal	-14.1017
▁dubi	-14.1018
witz	-14.1019
▁freed	-14.1021
▁hoc	-14.1022
▁perch	-14.1032
hasa	-14.1034
▁meditate	-14.1036
ibu	-14.1052
vant	-14.1052
centric	-14.1055
▁measurabl	-14.1056
woman	-14.1056
▁Rosi	-14.1062
▁Fer	-14.1068
glass	-14.1075
▁disengage	-14.1077
▁solver	-14.1079
▁redistribut	-14.108
▁Ferm	-14.1081
▁bothers	-14.1084
▁Samar	-14.1084
SS	-14.1085
▁san	-14.1092
atitude	-14.1102
ule	-14.1106
ude	-14.1113
▁Siri	-14.1129
▁interconnect	-14.1132
FC	-14.1137
▁Dry	-14.114
ager	-14.1145
▁facet	-14.1152
▁bubbl	-14.1154
wan	-14.1157
appointed	-14.1158
elle	-14.1168
▁fanci	-14.1172
▁recline	-14.1172
▁Robins	-14.1176
osi	-14.1181
▁underestimat	-14.1183
▁hustle	-14.1186
▁Balle	-14.1187
hin	-14.1189
▁Pate	-14.1189
▁aristocra	-14.119
▁Ideal	-14.1195
▁Dud	-14.1195
▁Moll	-14.1198
▁sneeze	-14.1207
▁Kai	-14.1212
▁Non	-14.1213
teful	-14.1216
▁tenta	-14.1221
▁perpetuate	-14.1223
▁deprive	-14.1226
hotom	-14.1233
▁clich	-14.1236
▁titani	-14.1236
▁Alp	-14.1238
roy	-14.1238
▁Dew	-14.1242
▁fe	-14.1245
▁Wool	-14.1247
rruption	-14.1249
▁Hein	-14.1251
▁Eil	-14.1265
apest	-14.1268
nnett	-14.1271
▁alienat	-14.1272
▁Lof	-14.1277
▁ru	-14.128
mour	-14.1283
▁Chan	-14.1293
iki	-14.1299
▁metaboliz	-14.1299
▁Desc	-14.1303
urek	-14.1306
run	-14.1316
▁fer	-14.1325
achi	-14.1339
orium	-14.134
▁Hai	-14.1357
▁Inc	-14.1358
irming	-14.1359
▁Tab	-14.1361
▁circl	-14.1363
▁Beaut	-14.1369
▁petri	-14.1373
▁disperse	-14.1377
idi	-14.1377
idge	-14.138
rod	-14.1383
argass	-14.1386
scribe	-14.139
▁Pun	-14.1391
illi	-14.1397
tick	-14.1399
▁adventur	-14.1401
path	-14.1407
▁Creat	-14.1408
press	-14.1408
stick	-14.1417
▁Lega	-14.1418
▁retaliat	-14.1422
sek	-14.143
▁skat	-14.1438
icit	-14.1438
borough	-14.1441
Cause	-14.1442
Ex	-14.1444
conventional	-14.1444
sensitive	-14.1444
broken	-14.1444
"	-14.1444
protect	-14.1445
mouth	-14.1445
loop	-14.1446
▁Fold	-14.1446
burn	-14.1447
pole	-14.1448
bias	-14.1449
▁Chop	-14.145
inform	-14.1451
▁Kha	-14.1454
tuition	-14.1454
▁Fact	-14.1455
regulat	-14.1456
hhh	-14.1457
eeming	-14.1458
artes	-14.1462
akash	-14.1464
▁recurr	-14.1469
▁turbulen	-14.1481
▁Buddhis	-14.1482
tat	-14.1483
▁poach	-14.1484
▁patrol	-14.1484
▁NE	-14.1485
▁Electro	-14.1485
▁Cyber	-14.1486
▁Fight	-14.1488
▁glaci	-14.1491
▁filmmak	-14.1492
▁Creativ	-14.1494
▁retriev	-14.1494
sava	-14.1495
▁pseudo	-14.1495
▁repressi	-14.1496
▁trivia	-14.1497
▁Direct	-14.1499
▁sprinkle	-14.1499
▁subtract	-14.15
▁Capit	-14.1501
raib	-14.1501
▁veterinar	-14.1501
ncyclopedia	-14.1501
▁Iron	-14.1501
▁serendipit	-14.1501
▁dexter	-14.1502
▁Hondura	-14.1502
▁Minute	-14.1502
▁catapult	-14.1502
▁contaminant	-14.1502
▁cortiso	-14.1502
▁silo	-14.1502
▁squint	-14.1502
▁Consumer	-14.1502
▁Hirsh	-14.1502
▁PalmPilot	-14.1502
▁Period	-14.1502
▁Success	-14.1502
▁Urban	-14.1502
▁anesthetic	-14.1502
▁climax	-14.1502
▁clump	-14.1502
▁decoupl	-14.1502
▁dehumaniz	-14.1502
▁delegate	-14.1502
▁dissertation	-14.1502
▁eavesdrop	-14.1502
▁enshrin	-14.1502
▁gigawatt	-14.1502
▁imprint	-14.1502
▁mafia	-14.1502
▁minaret	-14.1502
▁nozzle	-14.1502
▁osteo	-14.1502
▁reappear	-14.1502
▁shiver	-14.1502
▁snatch	-14.1502
▁tournament	-14.1502
sidious	-14.1502
▁Caucas	-14.1502
▁Confuci	-14.1502
▁Enjoy	-14.1502
▁Experiment	-14.1502
▁Female	-14.1502
▁Intelligent	-14.1502
▁Pandora	-14.1502
▁Scandinavia	-14.1502
▁Target	-14.1502
▁Transparen	-14.1502
▁abrupt	-14.1502
▁additive	-14.1502
▁archaic	-14.1502
▁bount	-14.1502
▁brittle	-14.1502
▁burrow	-14.1502
▁cataract	-14.1502
▁catheter	-14.1502
▁correspondence	-14.1502
▁custod	-14.1502
▁egalitarian	-14.1502
▁euphori	-14.1502
▁frivolous	-14.1502
▁frostbit	-14.1502
▁gelatin	-14.1502
▁gigabyte	-14.1502
▁goddess	-14.1502
▁hilarious	-14.1502
▁inconsistenc	-14.1502
▁landlord	-14.1502
▁liminal	-14.1502
▁milligram	-14.1502
▁misinterpret	-14.1502
▁mosaic	-14.1502
▁motorbike	-14.1502
▁muffin	-14.1502
▁oblige	-14.1502
▁quadriplegi	-14.1502
▁subscription	-14.1502
▁sunrise	-14.1502
▁superinte	-14.1502
▁tembere	-14.1502
▁uninhabit	-14.1502
▁Euclid	-14.1502
▁Gravit	-14.1502
▁Kelvin	-14.1502
▁chronological	-14.1502
▁crossroad	-14.1502
▁elicit	-14.1502
▁fingernail	-14.1502
▁gloss	-14.1502
▁grandkid	-14.1502
▁scour	-14.1502
▁thermodynamic	-14.1502
▁Kahn	-14.1502
▁agonizing	-14.1502
▁impossibilit	-14.1502
▁menopaus	-14.1502
▁murmur	-14.1502
▁picnic	-14.1502
▁quarry	-14.1502
▁unbearabl	-14.1502
Built	-14.1502
ueensland	-14.1502
▁Shadow	-14.1502
▁binocular	-14.1502
▁lobbie	-14.1502
▁squash	-14.1502
▁trumpet	-14.1502
▁Travel	-14.1502
▁boycott	-14.1502
▁electrochemi	-14.1502
[...]
