<unk>	0
<s>	0
</s>	0
__SEP__	0
_VERB	0
_NOUN	0
_PRON	0
_ADV	0
_PUNCT	0
_DET	0
_AUX	0
_ADJ	0
_PART	0
_ADP	0
_CCONJ	0
_PROPN	0
▁	-0.791597
s	-3.61767
,	-3.68868
▁.	-3.92042
▁the	-3.99888
_	-4.08415
▁to	-4.54056
SCONJ	-4.62755
▁of	-4.68059
▁a	-4.70258
▁and	-4.75466
▁that	-4.9276
y	-4.96041
▁I	-4.97941
▁'	-5.01453
▁in	-5.11647
NUM	-5.25674
ed	-5.26259
▁is	-5.2736
ing	-5.27513
▁you	-5.27682
▁it	-5.29368
▁we	-5.40982
t	-5.58217
ly	-5.60294
▁And	-5.65252
'	-5.70292
▁thi	-5.70884
m	-5.74575
▁be	-5.91462
▁was	-5.9672
0	-6.05025
▁for	-6.06271
▁on	-6.08448
▁are	-6.0866
▁have	-6.09828
d	-6.09944
▁do	-6.14566
▁with	-6.18439
▁--	-6.23272
re	-6.25361
▁So	-6.30874
▁?	-6.3104
▁what	-6.31271
▁-	-6.3445
▁can	-6.35789
▁"	-6.37089
▁about	-6.37214
▁The	-6.41063
e	-6.4111
▁not	-6.48176
ould	-6.4918
▁at	-6.54034
▁all	-6.54093
J	-6.54358
▁my	-6.59594
▁like	-6.60582
INT	-6.60697
▁there	-6.61949
▁n	-6.64599
▁people	-6.65033
▁an	-6.65529
▁It	-6.66152
n	-6.67615
▁so	-6.67968
▁fro	-6.68701
▁as	-6.74172
▁but	-6.76222
▁:	-6.80102
1	-6.80158
▁one	-6.8212
▁our	-6.82928
▁just	-6.82947
▁We	-6.8344
▁But	-6.88306
▁these	-6.9073
▁me	-6.90951
very	-6.91421
▁if	-6.92157
▁w	-6.92507
▁know	-6.9268
▁or	-6.92889
▁see	-6.93955
▁out	-6.95019
▁up	-6.96227
▁going	-6.9959
▁year	-6.99843
▁by	-7.00426
▁when	-7.02598
ve	-7.02736
▁them	-7.0293
▁had	-7.03304
▁because	-7.04359
.	-7.04676
▁he	-7.05585
▁think	-7.07029
▁more	-7.0782
es	-7.08208
▁get	-7.08342
were	-7.09551
▁some	-7.09653
ies	-7.10667
▁who	-7.12164
▁their	-7.12928
▁look	-7.13063
▁which	-7.13294
▁your	-7.13552
en	-7.13601
▁want	-7.14693
▁really	-7.16104
▁how	-7.18768
2	-7.23561
▁go	-7.24057
day	-7.24507
▁time	-7.25131
▁world	-7.26016
▁You	-7.26973
er	-7.27837
▁has	-7.28212
▁here	-7.28302
▁Thi	-7.29609
▁actual	-7.31531
▁c	-7.33538
▁into	-7.34534
then	-7.36187
▁us	-7.37665
▁way	-7.37929
a	-7.38175
▁will	-7.40175
▁did	-7.41595
▁now	-7.42366
▁Now	-7.45143
▁every	-7.45751
things	-7.46257
r	-7.47336
▁make	-7.47638
▁say	-7.53566
hose	-7.53734
in	-7.54138
▁start	-7.55326
▁need	-7.55764
▁said	-7.5769
▁right	-7.57787
▁where	-7.58171
one	-7.58846
▁work	-7.593
uch	-7.5956
▁something	-7.60354
5	-7.61108
on	-7.62639
▁any	-7.63387
▁no	-7.63401
▁two	-7.64398
▁than	-7.64821
▁first	-7.66328
▁got	-7.66335
lso	-7.66581
▁call	-7.66629
thing	-7.67273
able	-7.70004
▁over	-7.70063
▁He	-7.70155
other	-7.71791
▁little	-7.71916
▁take	-7.72182
▁kind	-7.7235
▁come	-7.72771
▁back	-7.72862
▁other	-7.73512
▁That	-7.73857
ll	-7.74987
his	-7.75244
▁talk	-7.76477
w	-7.76913
▁most	-7.78581
▁In	-7.79126
9	-7.8067
▁she	-7.81172
▁What	-7.81804
▁life	-7.82145
▁lot	-7.83735
▁even	-7.84514
▁many	-7.87724
▁new	-7.90225
▁different	-7.90474
▁change	-7.9127
around	-7.93018
▁good	-7.9326
▁wh	-7.94261
3	-7.94446
▁There	-7.94967
▁through	-7.94969
al	-7.95244
▁down	-7.96998
▁her	-8.00083
▁human	-8.00145
▁mean	-8.00216
▁being	-8.01749
▁use	-8.01979
▁same	-8.04519
▁A	-8.04843
▁show	-8.05386
▁Well	-8.06187
;	-8.06543
▁try	-8.06587
▁problem	-8.07274
ever	-8.0943
▁If	-8.10675
▁put	-8.11443
▁great	-8.12731
▁three	-8.12785
self	-8.13766
▁doing	-8.15036
▁tell	-8.15578
▁B	-8.15896
▁doe	-8.16043
4	-8.16491
ity	-8.16861
▁part	-8.17663
▁place	-8.17714
▁percent	-8.19306
c	-8.2027
▁system	-8.20468
▁thing	-8.21267
made	-8.22123
▁again	-8.22682
▁well	-8.229
▁find	-8.24202
S	-8.24398
▁fact	-8.24918
o	-8.2492
▁long	-8.25198
▁give	-8.25299
8	-8.25724
▁question	-8.26678
▁happen	-8.29702
▁idea	-8.30036
st	-8.30312
X	-8.30449
▁own	-8.30986
SP	-8.32143
or	-8.32833
▁should	-8.34233
▁important	-8.35206
ACE	-8.35484
▁thought	-8.364
▁ca	-8.36545
▁last	-8.37112
▁after	-8.38291
▁him	-8.38661
us	-8.39635
▁end	-8.39733
went	-8.41179
▁big	-8.41457
▁Thank	-8.4155
▁let	-8.41825
▁better	-8.41857
▁might	-8.42421
ce	-8.42937
▁before	-8.4298
ally	-8.43058
▁high	-8.43174
▁off	-8.43522
▁help	-8.45207
where	-8.45285
▁course	-8.45329
▁never	-8.45492
▁example	-8.46803
▁million	-8.4756
▁love	-8.4784
▁still	-8.48239
▁point	-8.49945
▁few	-8.49997
▁design	-8.50601
▁together	-8.50854
▁brain	-8.51147
▁old	-8.52212
▁ago	-8.52423
▁story	-8.52459
▁bit	-8.52552
▁create	-8.52821
next	-8.53027
▁school	-8.53428
each	-8.5345
▁sort	-8.5429
ion	-8.55066
▁When	-8.55562
ic	-8.55936
tween	-8.57122
▁How	-8.57262
▁number	-8.57778
▁learn	-8.5778
▁play	-8.58207
used	-8.59149
▁live	-8.59343
▁found	-8.59738
▁turn	-8.60088
▁technology	-8.60573
l	-8.60604
omen	-8.60808
▁water	-8.62138
p	-8.62275
▁data	-8.62897
▁too	-8.63222
▁small	-8.63254
▁become	-8.63303
▁believe	-8.64031
▁feel	-8.6486
▁understand	-8.65901
▁real	-8.67228
ecause	-8.68502
done	-8.68516
est	-8.69079
▁person	-8.70804
▁ask	-8.70994
▁whole	-8.7102
▁may	-8.71324
▁second	-8.7137
▁four	-8.71686
▁hard	-8.72207
ok	-8.72294
▁guy	-8.72551
th	-8.73734
▁power	-8.73875
ness	-8.7459
▁hear	-8.74872
▁large	-8.75385
as	-8.75512
▁car	-8.7556
is	-8.75785
alway	-8.76166
▁cell	-8.76247
ves	-8.76911
▁building	-8.77461
▁working	-8.78424
▁reason	-8.78711
▁away	-8.78875
h	-8.79189
▁country	-8.79283
▁No	-8.80568
▁health	-8.80695
coming	-8.80862
came	-8.80931
▁children	-8.81374
▁home	-8.81602
using	-8.82153
▁computer	-8.83757
▁five	-8.84112
▁famil	-8.84346
▁picture	-8.84652
▁dollar	-8.85142
▁information	-8.85513
▁money	-8.85701
▁experience	-8.85909
▁moment	-8.86695
an	-8.87359
▁light	-8.87495
▁sense	-8.87868
ld	-8.88165
▁space	-8.88214
▁project	-8.88754
▁One	-8.8911
▁My	-8.89121
▁open	-8.89367
▁liv	-8.89402
▁communit	-8.89565
▁case	-8.89883
▁social	-8.89928
thinking	-8.9023
▁move	-8.90458
le	-8.90534
▁kids	-8.90656
ation	-8.90832
▁basic	-8.9084
▁She	-8.91212
▁Do	-8.91514
▁left	-8.91619
aybe	-8.91797
▁process	-8.92033
▁mak	-8.92044
▁month	-8.92145
▁future	-8.9274
▁walk	-8.93208
ers	-8.93728
nough	-8.94122
▁group	-8.94143
▁best	-8.94569
quite	-8.94571
▁interesting	-8.94679
▁energ	-8.9472
▁bring	-8.94887
land	-8.95037
▁These	-8.95282
▁gett	-8.9551
▁hand	-8.95647
▁animal	-8.95771
▁develop	-8.96038
▁came	-8.96216
▁Wh	-8.96826
▁U	-8.97193
it	-8.97603
▁food	-8.97817
▁under	-8.97888
i	-8.98042
▁answer	-8.98123
▁probabl	-8.98193
D	-8.98322
▁C	-8.99314
g	-8.99427
▁countr	-9.00237
▁read	-9.00456
▁science	-9.0046
▁build	-9.00785
▁planet	-9.01071
▁Let	-9.01402
▁stuff	-9.0147
▁For	-9.01594
▁without	-9.01993
▁grow	-9.02273
▁model	-9.02414
▁possibl	-9.02707
▁E	-9.0293
▁keep	-9.03147
▁name	-9.03192
▁allow	-9.03728
▁half	-9.03938
▁else	-9.04781
▁prett	-9.04856
▁hour	-9.05233
ment	-9.05291
▁simple	-9.05682
▁business	-9.06592
▁matter	-9.06592
▁form	-9.06834
▁billion	-9.07282
▁room	-9.07416
▁young	-9.077
across	-9.07741
▁government	-9.07825
less	-9.08001
▁week	-9.08245
▁face	-9.08436
▁lives	-9.09289
um	-9.09368
▁student	-9.09766
▁T	-9.10334
▁piece	-9.10353
▁global	-9.10452
▁saw	-9.10454
body	-9.1105
▁bad	-9.11121
▁Africa	-9.11857
▁minute	-9.11912
▁level	-9.12073
▁complete	-9.12129
▁To	-9.1226
▁later	-9.12465
▁particular	-9.12638
▁All	-9.12791
▁area	-9.12888
▁asked	-9.13346
▁hav	-9.1342
▁times	-9.13647
▁New	-9.14059
▁seem	-9.14164
ether	-9.14212
▁mind	-9.14987
▁image	-9.15319
age	-9.15613
▁close	-9.15808
▁game	-9.16444
▁term	-9.16741
▁far	-9.16815
▁thousand	-9.16853
▁As	-9.17014
▁American	-9.17297
ne	-9.17771
▁city	-9.17875
▁single	-9.18307
such	-9.18671
▁interest	-9.18821
eady	-9.18883
▁remember	-9.19162
▁societ	-9.19246
▁set	-9.19418
▁watch	-9.19419
▁inside	-9.2039
▁disease	-9.20814
▁Earth	-9.21343
▁happens	-9.21449
K	-9.21488
▁market	-9.21785
▁alr	-9.21859
▁top	-9.21969
▁study	-9.22052
almos	-9.22053
▁sure	-9.22494
▁machine	-9.22497
▁control	-9.23117
▁certain	-9.23124
▁yet	-9.23174
▁public	-9.23201
▁imagine	-9.2343
▁saying	-9.23581
▁test	-9.2371
▁six	-9.23781
b	-9.24145
▁figure	-9.24493
▁both	-9.24531
▁nothing	-9.24541
▁order	-9.24599
▁book	-9.24806
▁language	-9.25305
▁discover	-9.25397
▁hope	-9.25411
▁share	-9.25506
out	-9.25551
▁once	-9.25605
▁histor	-9.25656
▁cost	-9.25687
man	-9.26516
▁job	-9.26643
▁often	-9.26791
▁side	-9.26815
▁wrong	-9.26879
▁care	-9.27345
▁makes	-9.27455
▁men	-9.2746
▁issue	-9.27632
▁exact	-9.27918
▁while	-9.28155
▁amazing	-9.28231
▁man	-9.28305
▁beautiful	-9.2905
▁true	-9.29207
▁patient	-9.2954
▁Unit	-9.29555
▁couple	-9.29911
▁child	-9.30015
▁stor	-9.30464
▁girl	-9.30878
▁un	-9.31586
ro	-9.32268
▁entire	-9.32642
k	-9.32969
▁run	-9.33177
▁final	-9.33536
▁difference	-9.33735
special	-9.33889
▁individual	-9.34036
▁buil	-9.34371
▁hundred	-9.34639
▁stop	-9.34881
▁base	-9.34916
▁cancer	-9.35072
▁research	-9.36043
C	-9.37036
▁full	-9.3715
▁mov	-9.37465
▁result	-9.37816
▁material	-9.3818
▁product	-9.38258
▁environment	-9.3843
▁words	-9.38445
▁until	-9.38652
la	-9.39121
▁ways	-9.39189
▁kne	-9.3978
f	-9.39922
ten	-9.39961
▁Internet	-9.40028
▁music	-9.40326
▁centur	-9.4056
taking	-9.40614
▁quick	-9.40775
▁everybody	-9.40852
▁challenge	-9.40932
▁fast	-9.41086
▁deep	-9.41206
▁free	-9.41409
▁decided	-9.41416
co	-9.41488
▁word	-9.41695
▁video	-9.41757
▁States	-9.41903
▁realize	-9.41946
▁America	-9.42043
▁follow	-9.42456
▁leave	-9.42505
ter	-9.42565
▁education	-9.42581
ty	-9.42885
▁heart	-9.4322
▁universe	-9.43271
▁state	-9.43347
▁value	-9.43602
ideas	-9.43841
▁natural	-9.43933
▁must	-9.44484
▁OK	-9.44717
▁friends	-9.44742
▁spend	-9.45008
▁creat	-9.45045
stead	-9.451
▁past	-9.45472
▁war	-9.45473
▁nature	-9.45505
▁happening	-9.45552
▁since	-9.4561
▁...	-9.45627
▁Or	-9.45648
▁speak	-9.45862
▁sometime	-9.45869
▁huge	-9.46066
▁third	-9.46404
▁clear	-9.46626
▁house	-9.46887
▁force	-9.47105
▁woman	-9.47143
po	-9.47298
▁scale	-9.47493
▁plant	-9.4767
▁speci	-9.47905
▁program	-9.48024
ry	-9.48084
▁phone	-9.48125
▁less	-9.48243
▁line	-9.4837
ather	-9.48663
ri	-9.48671
▁God	-9.48684
▁oursel	-9.48707
▁Some	-9.4894
▁sound	-9.49176
msel	-9.49266
▁economic	-9.49331
gan	-9.49576
▁F	-9.4958
▁robot	-9.49605
▁lead	-9.49978
▁body	-9.49987
▁India	-9.50013
▁Okay	-9.50096
▁pay	-9.50166
company	-9.50214
▁Oh	-9.50224
▁bigge	-9.51369
▁mother	-9.5148
▁focus	-9.51519
▁along	-9.51605
▁parent	-9.51879
▁front	-9.51908
rhaps	-9.52479
▁leas	-9.52499
ate	-9.53162
▁solution	-9.53691
▁air	-9.53797
▁object	-9.53804
ist	-9.53865
▁ocean	-9.54058
▁risk	-9.54064
▁population	-9.54426
▁culture	-9.54812
▁TED	-9.55162
▁network	-9.55167
▁team	-9.55208
▁happ	-9.55766
▁size	-9.55925
▁difficult	-9.56037
▁M	-9.56183
▁fly	-9.56228
▁view	-9.56529
▁night	-9.56584
▁scientist	-9.56664
op	-9.5673
▁black	-9.56914
▁early	-9.56971
▁local	-9.57168
▁head	-9.57371
▁outside	-9.57379
▁color	-9.57438
▁experiment	-9.57602
▁paper	-9.57802
u	-9.57887
▁structure	-9.58155
▁works	-9.58501
▁am	-9.58845
hind	-9.59017
▁pick	-9.59364
▁support	-9.59468
▁death	-9.59501
taken	-9.59804
▁buy	-9.60057
▁die	-9.60082
▁China	-9.60247
ant	-9.60342
ither	-9.60381
▁step	-9.60623
ive	-9.60662
A	-9.60796
▁listen	-9.61215
el	-9.61392
more	-9.61606
▁teacher	-9.61755
▁exist	-9.61822
▁amount	-9.61847
▁seven	-9.6207
▁Every	-9.62436
▁tree	-9.62454
▁middle	-9.62664
▁recent	-9.63181
▁behavior	-9.63189
▁field	-9.63408
▁common	-9.63693
▁kill	-9.63887
▁somebod	-9.63914
▁learning	-9.63958
▁drive	-9.64201
▁deal	-9.64306
▁wait	-9.64372
▁shape	-9.64594
▁At	-9.64668
▁engineer	-9.64711
ance	-9.64801
▁relationship	-9.64915
▁On	-9.64945
low	-9.65097
▁cause	-9.65156
ous	-9.65233
itting	-9.65469
▁feeling	-9.65494
how	-9.65784
▁per	-9.65923
turned	-9.65964
▁yourself	-9.66104
▁effect	-9.66144
▁choice	-9.66151
▁father	-9.66156
▁econom	-9.66678
▁beginning	-9.66706
▁safe	-9.66774
▁art	-9.66803
ton	-9.67109
ol	-9.6725
▁H	-9.67341
ch	-9.67345
▁given	-9.6787
ent	-9.6798
▁explain	-9.68105
▁powerful	-9.68258
▁gav	-9.68258
▁eyes	-9.68679
▁pattern	-9.68812
▁friend	-9.68905
▁short	-9.69086
▁rest	-9.69159
▁produce	-9.6919
head	-9.69256
▁oil	-9.69267
▁act	-9.69305
▁wonderful	-9.69385
per	-9.69497
▁wo	-9.69545
▁rule	-9.69618
▁surface	-9.69667
N	-9.69762
▁easy	-9.69812
▁physical	-9.69897
lo	-9.69995
aid	-9.70084
▁center	-9.70085
▁York	-9.7023
▁An	-9.70311
son	-9.70743
▁movement	-9.70845
▁obvious	-9.70964
imply	-9.71031
▁map	-9.7152
companie	-9.71536
▁stay	-9.71701
▁reach	-9.72097
▁decision	-9.72131
-	-9.72359
▁news	-9.72409
▁eight	-9.72418
▁poor	-9.72422
at	-9.72592
▁political	-9.72791
be	-9.72827
▁normal	-9.72869
cy	-9.72988
ory	-9.73049
side	-9.73131
▁device	-9.73312
▁dur	-9.73407
▁major	-9.7361
ish	-9.73728
▁fee	-9.73805
▁voice	-9.74357
▁doctor	-9.74673
▁media	-9.75115
▁begin	-9.75144
abilit	-9.75371
▁tri	-9.75397
▁Just	-9.75412
▁W	-9.75434
▁absolute	-9.75564
▁total	-9.75591
▁protect	-9.75674
▁citi	-9.75693
▁film	-9.75852
felt	-9.75869
▁organization	-9.75874
▁near	-9.75876
▁People	-9.76021
▁save	-9.76128
▁personal	-9.76538
pent	-9.76951
ard	-9.77029
▁realit	-9.77829
▁hands	-9.77926
▁known	-9.78249
▁pe	-9.78267
▁growth	-9.7837
▁fear	-9.78496
▁fish	-9.7851
though	-9.78699
ar	-9.78804
▁treat	-9.78811
▁perfect	-9.78943
▁generation	-9.79055
▁record	-9.79077
▁Yeah	-9.7912
▁blue	-9.79277
▁condition	-9.79595
▁notice	-9.79706
credible	-9.7991
▁though	-9.80129
▁opportunity	-9.80477
▁extreme	-9.80546
▁service	-9.80579
▁de	-9.80721
ra	-9.80778
▁Yes	-9.80907
▁present	-9.81173
▁write	-9.81298
▁wall	-9.8149
▁white	-9.81521
een	-9.81553
▁blood	-9.81598
am	-9.81604
▁travel	-9.8167
▁Our	-9.81673
▁access	-9.81706
▁situation	-9.81832
T	-9.81873
▁green	-9.81885
ary	-9.82317
▁complex	-9.82621
▁wonder	-9.8313
▁strong	-9.83296
ta	-9.83498
▁toward	-9.83528
▁break	-9.83638
▁Right	-9.83791
▁impact	-9.83956
▁Can	-9.84014
z	-9.84125
▁message	-9.84326
▁G	-9.84427
▁sea	-9.84451
lost	-9.84541
▁eat	-9.84597
aught	-9.84784
▁climate	-9.84788
il	-9.84871
▁Al	-9.85409
▁key	-9.85575
▁consider	-9.8606
ism	-9.86114
▁DNA	-9.86126
▁increase	-9.86126
ship	-9.86223
▁fight	-9.86366
▁nice	-9.86384
▁approach	-9.86647
to	-9.8694
▁chance	-9.86978
▁cool	-9.86978
▁arm	-9.87117
▁slow	-9.8724
▁CA	-9.8726
▁average	-9.87314
▁morning	-9.87657
un	-9.87704
▁sign	-9.8778
▁age	-9.88022
▁send	-9.88058
▁Not	-9.88116
▁train	-9.88193
ac	-9.88321
▁decade	-9.88344
▁camera	-9.88539
ine	-9.88897
▁literal	-9.88964
▁bottom	-9.89037
▁industr	-9.89383
▁pull	-9.89387
I	-9.8944
rote	-9.89527
▁solve	-9.89544
▁potential	-9.89909
▁audience	-9.90085
▁sun	-9.90135
▁forward	-9.90139
▁add	-9.90191
▁pass	-9.90287
▁hold	-9.90871
ma	-9.91439
▁innovation	-9.915
R	-9.91648
li	-9.9177
vi	-9.92041
▁attention	-9.92403
▁action	-9.92476
▁sex	-9.92496
M	-9.9254
▁knowledge	-9.92759
▁measure	-9.92892
▁photograph	-9.93275
▁sudden	-9.93297
▁stage	-9.93567
▁understanding	-9.9387
▁fall	-9.93985
▁raise	-9.94034
▁runn	-9.94476
▁studie	-9.94574
▁born	-9.94674
up	-9.94725
▁dark	-9.9475
▁serious	-9.94758
▁artist	-9.95098
▁factor	-9.95216
ie	-9.9524
▁technologi	-9.95276
lots	-9.95852
▁fun	-9.95894
alone	-9.96095
▁general	-9.96985
▁kid	-9.97132
▁guess	-9.97179
▁rate	-9.97203
▁law	-9.97223
▁stand	-9.97253
▁qualit	-9.97367
▁essential	-9.97557
▁World	-9.97557
▁di	-9.9757
tic	-9.97642
▁ground	-9.97814
▁class	-9.98096
▁page	-9.9815
▁miles	-9.98393
▁specific	-9.98569
▁continue	-9.98577
changing	-9.98632
▁box	-9.99056
▁memor	-9.99443
▁non	-9.99524
▁tools	-9.99645
▁hospital	-9.9966
▁cut	-9.99672
▁eye	-9.99684
▁character	-9.99778
ful	-9.99993
▁movie	-10
▁meet	-10.0001
▁giv	-10.0006
▁development	-10.0007
way	-10.0023
water	-10.0024
▁late	-10.0032
▁easi	-10.0034
ur	-10.0068
▁R	-10.0082
▁met	-10.0084
▁thank	-10.0084
▁soon	-10.0093
▁goal	-10.0121
▁books	-10.0124
▁cover	-10.0135
rought	-10.0161
B	-10.0177
▁current	-10.0181
go	-10.0182
▁track	-10.0185
▁P	-10.0185
▁type	-10.0186
▁shows	-10.0192
▁telling	-10.0198
▁village	-10.0201
▁African	-10.0214
▁manage	-10.0224
▁electric	-10.0229
▁dead	-10.0237
▁English	-10.024
▁avail	-10.024
▁main	-10.0243
▁With	-10.0262
▁lab	-10.0263
▁push	-10.028
▁site	-10.0317
im	-10.0343
▁worth	-10.0355
▁fundamental	-10.0359
▁South	-10.0376
by	-10.0393
▁degree	-10.04
▁tin	-10.0412
▁sit	-10.0417
▁dream	-10.0435
▁equal	-10.0441
ian	-10.0445
▁fire	-10.0466
▁Europe	-10.0481
▁source	-10.0481
▁represent	-10.05
▁conversation	-10.0502
▁among	-10.0502
online	-10.0523
▁effective	-10.0544
▁Where	-10.0548
▁similar	-10.0559
▁activit	-10.0563
▁attack	-10.0563
app	-10.0569
▁office	-10.0579
▁journey	-10.0646
light	-10.0652
ran	-10.0661
▁truth	-10.0668
olar	-10.0708
▁spread	-10.0708
ia	-10.0724
SYM	-10.0729
▁resources	-10.0781
rid	-10.0784
▁Google	-10.0791
▁baby	-10.0796
bi	-10.0805
▁street	-10.0817
wide	-10.0819
▁direct	-10.0825
id	-10.0845
▁Re	-10.0851
pe	-10.0864
▁plan	-10.0871
▁evidence	-10.0876
▁modern	-10.0887
▁sell	-10.0897
▁provide	-10.0937
▁medical	-10.094
▁smart	-10.0955
▁search	-10.0961
▁Look	-10.0983
▁speed	-10.0983
▁period	-10.0996
▁miss	-10.1013
▁By	-10.1014
▁region	-10.1017
▁response	-10.1046
incredibly	-10.1046
▁song	-10.1051
▁success	-10.1089
▁connect	-10.1116
ife	-10.1128
▁code	-10.1143
▁affect	-10.1153
▁fund	-10.1184
▁leg	-10.1212
▁drug	-10.1235
▁event	-10.1238
▁predict	-10.124
▁rich	-10.125
▁digital	-10.1273
no	-10.1276
▁fair	-10.1286
▁First	-10.1308
▁scientific	-10.1315
▁expect	-10.1327
▁hit	-10.1331
▁function	-10.1357
▁leaders	-10.1357
ling	-10.138
▁list	-10.1437
ex	-10.144
▁beyond	-10.1442
▁role	-10.1444
▁red	-10.1472
▁teach	-10.1481
▁benefit	-10.1487
▁Chinese	-10.1509
care	-10.151
ily	-10.1517
▁yes	-10.1517
▁carbon	-10.152
▁several	-10.1532
▁nine	-10.1534
▁Of	-10.1548
▁touch	-10.1575
▁connection	-10.1579
▁Maybe	-10.1579
▁subject	-10.1622
na	-10.1632
▁writing	-10.1633
he	-10.164
men	-10.1652
▁suggest	-10.1689
ir	-10.1699
ical	-10.17
ize	-10.1701
te	-10.1715
▁putt	-10.1726
▁screen	-10.1735
▁worker	-10.1751
▁drugs	-10.1766
▁throw	-10.1783
▁includ	-10.1794
▁institution	-10.1796
▁gas	-10.1807
▁collect	-10.1821
▁recognize	-10.1822
▁usual	-10.1832
▁wind	-10.185
▁After	-10.1853
▁favorite	-10.1853
▁mass	-10.1858
wood	-10.1867
▁software	-10.1877
▁Who	-10.19
▁price	-10.19
▁require	-10.191
▁foot	-10.1915
▁national	-10.1929
▁gre	-10.1944
▁extraordinar	-10.1947
▁Chris	-10.1971
et	-10.1979
▁waste	-10.1988
▁tend	-10.199
▁draw	-10.199
▁block	-10.1995
▁nation	-10.1999
▁park	-10.2001
form	-10.2044
▁vision	-10.2047
▁violen	-10.2051
▁anybody	-10.2056
▁sleep	-10.2071
▁aware	-10.2077
▁conscious	-10.2089
▁remain	-10.2089
▁compassion	-10.209
▁trust	-10.2093
▁necessar	-10.2113
▁zero	-10.2113
▁wish	-10.212
▁ones	-10.213
▁flow	-10.2131
▁virus	-10.2137
▁onto	-10.2151
▁join	-10.2172
▁visual	-10.2178
mo	-10.2208
▁successful	-10.2224
▁mine	-10.2231
▁democrac	-10.2258
▁skin	-10.2316
▁molecule	-10.2356
▁Go	-10.2373
▁count	-10.2378
▁treatment	-10.2382
▁practice	-10.2396
▁evolution	-10.2402
▁further	-10.2405
▁Be	-10.2408
F	-10.241
▁genetic	-10.2429
▁okay	-10.243
▁star	-10.2435
com	-10.2436
▁realiz	-10.2438
▁concept	-10.2452
▁exciting	-10.2454
ated	-10.2459
▁fail	-10.2477
▁positive	-10.2479
▁conflict	-10.2504
▁return	-10.2506
▁lose	-10.2519
▁direction	-10.2525
▁craz	-10.2529
▁clean	-10.2531
▁invent	-10.2534
ach	-10.2535
▁creative	-10.2544
▁post	-10.2562
▁stick	-10.2581
▁involv	-10.2584
▁finding	-10.2588
▁designer	-10.2605
▁medicine	-10.2611
▁adult	-10.2617
night	-10.2636
▁abilit	-10.2663
▁b	-10.268
▁signal	-10.2685
ut	-10.2695
▁surprise	-10.2705
▁police	-10.2724
▁detail	-10.2731
▁element	-10.2731
ha	-10.2746
▁moral	-10.2747
line	-10.2748
▁road	-10.276
rap	-10.2764
▁eventual	-10.2783
V	-10.2793
ph	-10.2805
▁shift	-10.2808
▁choose	-10.2813
▁Man	-10.2814
▁tru	-10.2821
▁Even	-10.2831
▁agree	-10.2835
▁War	-10.284
▁transform	-10.2844
time	-10.2844
▁revolution	-10.2861
▁door	-10.2875
▁male	-10.2884
▁fuel	-10.2885
▁mental	-10.2904
▁sounds	-10.2913
▁finish	-10.2915
E	-10.2916
▁Are	-10.2918
▁visit	-10.2928
▁North	-10.2943
the	-10.2949
▁securit	-10.2956
▁appear	-10.2963
▁carry	-10.2967
▁letter	-10.2972
▁neuron	-10.2993
▁Most	-10.3015
▁immediate	-10.3015
▁prevent	-10.3015
ti	-10.3021
▁connected	-10.3033
▁colleague	-10.3041
▁meeting	-10.3058
▁context	-10.3068
▁low	-10.3073
▁supposed	-10.3074
▁fine	-10.3082
▁depend	-10.3092
▁store	-10.3092
▁perspective	-10.3094
▁square	-10.3094
others	-10.31
▁meaning	-10.3106
▁forest	-10.3121
▁describe	-10.3122
standing	-10.3161
▁emotion	-10.3162
P	-10.3182
▁meter	-10.3183
▁publish	-10.3197
▁shar	-10.32
▁college	-10.3201
▁chemical	-10.3231
▁card	-10.3233
tra	-10.326
▁trial	-10.326
pover	-10.3283
▁win	-10.3292
ood	-10.3294
▁possibilit	-10.3308
▁secret	-10.3326
▁launch	-10.3335
▁traditional	-10.3336
▁hot	-10.3343
▁accept	-10.3362
▁international	-10.3362
▁income	-10.3362
▁sent	-10.3387
▁address	-10.3389
▁earlie	-10.3389
older	-10.34
▁wealth	-10.3416
▁link	-10.3439
▁bunch	-10.3444
hi	-10.3454
▁task	-10.3471
▁L	-10.3476
▁report	-10.3479
▁worse	-10.3481
bo	-10.3491
▁concern	-10.3498
▁West	-10.3503
▁boy	-10.3508
▁pain	-10.3516
▁inspire	-10.3526
▁fit	-10.3527
▁interact	-10.3551
▁please	-10.3562
▁critical	-10.3563
wise	-10.3565
▁invest	-10.3572
▁offer	-10.358
▁version	-10.3608
▁militar	-10.3609
▁above	-10.3609
IV	-10.3619
▁pre	-10.3625
▁driv	-10.3629
▁principle	-10.3637
▁standard	-10.3655
▁Ma	-10.3658
O	-10.3665
▁excited	-10.3671
da	-10.3671
▁sub	-10.3677
▁wear	-10.3695
▁happiness	-10.3701
▁career	-10.3711
▁female	-10.3721
▁plastic	-10.3721
▁content	-10.3721
▁progress	-10.3746
▁check	-10.3749
▁expert	-10.3749
crisis	-10.3749
▁impossibl	-10.3806
▁account	-10.3833
▁meant	-10.3838
▁fill	-10.3841
▁rise	-10.3844
G	-10.385
▁position	-10.3852
▁warm	-10.3884
▁enjoy	-10.3891
▁tool	-10.3898
▁floor	-10.392
▁terribl	-10.3948
▁indeed	-10.3949
iz	-10.3981
▁ultimate	-10.4006
▁freedom	-10.4035
▁rain	-10.404
ge	-10.4061
▁complicated	-10.4064
▁website	-10.4093
▁shot	-10.4097
lines	-10.4098
▁afford	-10.4099
▁reading	-10.4108
do	-10.4115
kept	-10.4123
▁feed	-10.4135
▁deliver	-10.414
ization	-10.4141
▁original	-10.4148
▁jump	-10.4152
▁private	-10.4152
▁writ	-10.4157
▁purpose	-10.4181
▁Dr	-10.4189
je	-10.4197
▁lesson	-10.4202
▁range	-10.4216
refore	-10.424
▁galax	-10.424
▁pressure	-10.4241
▁perform	-10.4268
▁series	-10.4273
▁roll	-10.4276
H	-10.4279
▁famous	-10.4281
L	-10.4289
▁text	-10.43
▁East	-10.43
▁genes	-10.4301
▁TV	-10.4301
▁policy	-10.4303
▁mention	-10.4304
▁O	-10.431
▁cold	-10.4325
▁table	-10.4343
▁training	-10.436
▁typical	-10.436
▁wave	-10.4373
▁blind	-10.439
▁Like	-10.439
▁dangerous	-10.439
▁communication	-10.439
▁lower	-10.4413
▁prison	-10.4414
▁cross	-10.443
▁temperature	-10.445
▁remarkabl	-10.4452
▁financial	-10.448
▁dis	-10.4484
ring	-10.4497
▁reduce	-10.4511
▁daughter	-10.4511
▁alive	-10.4515
x	-10.4515
▁relative	-10.4519
▁biolog	-10.452
▁race	-10.4545
▁decide	-10.4557
▁nuclea	-10.4584
▁unique	-10.4602
▁ice	-10.4641
▁De	-10.4647
▁strange	-10.4658
▁improve	-10.4667
▁prove	-10.4675
▁stopp	-10.4688
ul	-10.4692
▁effort	-10.4695
▁organism	-10.4695
▁citizens	-10.4701
▁sustain	-10.4704
▁Afghan	-10.4726
▁upon	-10.4738
fi	-10.4749
▁mom	-10.4751
▁cap	-10.4756
▁physic	-10.4768
▁stars	-10.4772
▁increasing	-10.4789
▁creature	-10.4789
▁massive	-10.4817
▁bacteria	-10.4882
▁enormous	-10.4883
▁bodie	-10.4883
▁math	-10.4885
em	-10.4886
▁yea	-10.4887
▁propert	-10.491
▁saving	-10.4914
▁argument	-10.4915
v	-10.4926
▁significant	-10.4941
▁expensive	-10.4946
▁wild	-10.4946
▁Which	-10.4947
▁performance	-10.4947
▁achieve	-10.4967
▁capital	-10.4973
▁demand	-10.4978
▁heat	-10.4989
▁San	-10.4996
led	-10.4999
▁skills	-10.5003
▁slight	-10.5004
lock	-10.5005
▁constant	-10.501
ating	-10.5011
ice	-10.5013
jobs	-10.5027
▁virtual	-10.5061
▁target	-10.5074
▁hair	-10.5074
▁survive	-10.5077
▁charge	-10.5087
▁strateg	-10.5104
▁architecture	-10.5107
▁neighborhood	-10.5107
▁brother	-10.5112
lly	-10.5121
▁respond	-10.5122
▁extra	-10.5137
▁convince	-10.5139
▁instance	-10.5139
▁stress	-10.5139
▁forth	-10.5147
our	-10.5168
▁edge	-10.517
▁intelligence	-10.5171
▁German	-10.5171
ow	-10.5187
rop	-10.5191
▁pound	-10.5204
▁catch	-10.5213
red	-10.5218
▁transport	-10.5237
▁define	-10.5239
▁painting	-10.525
▁luck	-10.5251
▁universit	-10.5269
▁cheap	-10.5269
▁drink	-10.5269
▁drop	-10.5275
▁nobod	-10.5286
mark	-10.5299
▁influence	-10.5303
▁super	-10.5313
▁Ra	-10.5335
magine	-10.5335
ought	-10.5351
fish	-10.5354
▁farm	-10.5355
▁Indian	-10.536
ca	-10.5363
truck	-10.537
▁breath	-10.537
▁corner	-10.5371
▁player	-10.5396
▁particle	-10.5402
▁teaching	-10.5412
▁legal	-10.5426
king	-10.5462
▁familiar	-10.5468
▁protein	-10.5502
▁environmental	-10.5504
▁bone	-10.5523
▁random	-10.5536
▁respect	-10.5537
U	-10.5541
ga	-10.5541
istan	-10.5542
▁Universit	-10.5543
▁bed	-10.5559
▁fantastic	-10.5569
▁City	-10.5587
▁religion	-10.5603
▁email	-10.5606
art	-10.562
▁politic	-10.562
▁Ver	-10.5629
▁vehicle	-10.5637
▁cultural	-10.5637
ho	-10.5645
▁dog	-10.565
▁path	-10.5653
▁brains	-10.5657
▁apply	-10.5665
over	-10.5666
▁capacit	-10.5671
▁responsibilit	-10.5672
▁production	-10.5678
ab	-10.5684
▁web	-10.5688
▁peace	-10.5702
▁trade	-10.5709
▁emotional	-10.5722
que	-10.5731
ill	-10.5739
▁Mars	-10.574
▁interview	-10.5741
▁finger	-10.5774
▁urban	-10.5774
▁distance	-10.5775
▁engage	-10.5779
▁weight	-10.5784
▁biological	-10.581
tion	-10.5817
▁except	-10.5843
▁beaut	-10.5844
▁professional	-10.5853
▁underst	-10.5854
▁unit	-10.5861
▁user	-10.5864
▁Your	-10.5898
▁release	-10.5922
gun	-10.5939
▁Le	-10.5945
▁explore	-10.5945
▁Two	-10.5949
▁fix	-10.5967
▁useful	-10.599
▁communicate	-10.5992
▁layer	-10.6
ber	-10.6001
▁failure	-10.602
▁farmer	-10.603
▁Second	-10.6055
▁tissue	-10.6055
▁interaction	-10.6057
▁forget	-10.6081
if	-10.6086
▁sensor	-10.6098
ches	-10.6103
▁Many	-10.6118
ster	-10.6118
▁separate	-10.6123
▁various	-10.6126
▁atmosphere	-10.6129
work	-10.6137
▁remind	-10.615
▁mobile	-10.615
▁serve	-10.6163
paid	-10.6167
ier	-10.6172
▁honest	-10.6198
ial	-10.6217
stream	-10.6233
▁popular	-10.6234
▁print	-10.6237
▁surger	-10.6245
▁destroy	-10.627
▁straight	-10.627
▁television	-10.627
▁trouble	-10.627
▁landscape	-10.627
▁sister	-10.6271
▁investment	-10.6272
▁types	-10.6296
▁cook	-10.6301
▁London	-10.6307
▁disappear	-10.6307
▁weapon	-10.6307
▁infrastructure	-10.6307
▁wors	-10.6315
cat	-10.6322
▁sky	-10.6329
▁apart	-10.6332
▁board	-10.6335
▁leader	-10.6337
▁produc	-10.6341
▁genome	-10.6343
▁summer	-10.6343
▁twi	-10.6351
▁paint	-10.636
▁Pro	-10.6368
▁expand	-10.638
▁identit	-10.638
▁spoke	-10.638
▁collective	-10.6381
▁conference	-10.6416
▁willing	-10.6438
▁involve	-10.6445
▁efficient	-10.6453
▁speech	-10.6453
▁Great	-10.6453
▁spot	-10.6462
▁blow	-10.6463
▁anyway	-10.6465
▁surviv	-10.648
▁cycle	-10.6484
stone	-10.6492
▁dance	-10.6504
▁supply	-10.6528
▁sat	-10.6531
pi	-10.6533
▁match	-10.6535
▁slide	-10.654
▁Me	-10.6549
ifi	-10.6557
▁John	-10.6564
▁instrument	-10.6565
▁From	-10.6565
▁bar	-10.6589
▁coral	-10.6602
▁enter	-10.6633
▁document	-10.6643
▁boat	-10.6655
▁seat	-10.6666
▁double	-10.6678
▁sick	-10.669
▁magic	-10.6696
▁Pe	-10.6709
▁California	-10.6716
▁Think	-10.6716
▁shark	-10.6717
▁smell	-10.6717
▁option	-10.6718
tuck	-10.6742
▁Western	-10.6743
▁consequence	-10.6754
▁dynamic	-10.6754
▁sand	-10.6785
espite	-10.6792
▁passion	-10.6792
▁sentence	-10.6814
▁method	-10.6819
▁switch	-10.683
▁feature	-10.683
well	-10.6832
▁bear	-10.6838
▁sample	-10.6845
▁minds	-10.6847
▁led	-10.6856
▁profit	-10.6869
▁sector	-10.6869
▁gene	-10.6873
right	-10.6873
▁laws	-10.6879
eating	-10.6887
istic	-10.6894
▁mistake	-10.6894
▁crime	-10.6907
▁mix	-10.6909
▁basi	-10.691
▁pro	-10.6932
amp	-10.6933
ba	-10.6936
▁Mi	-10.6937
▁grand	-10.6946
▁birth	-10.6961
▁careful	-10.6987
▁evolv	-10.6991
▁organ	-10.7003
▁radio	-10.7007
ni	-10.7009
▁sexual	-10.7018
▁neighbor	-10.7024
▁border	-10.7024
▁profound	-10.7024
▁wire	-10.7037
▁engine	-10.7043
band	-10.7044
▁streets	-10.7054
▁circle	-10.7057
▁technique	-10.7063
▁brand	-10.7063
▁campaign	-10.7064
▁gain	-10.7074
▁ball	-10.7091
▁poet	-10.7101
▁insect	-10.7102
▁tremendous	-10.7102
▁soldier	-10.7103
▁station	-10.7112
▁Pa	-10.7112
▁babi	-10.7123
▁micro	-10.7128
held	-10.7132
▁Facebook	-10.7142
▁muscle	-10.7142
▁active	-10.7146
▁creativ	-10.716
▁avoid	-10.7162
▁hole	-10.7162
▁bank	-10.7165
gon	-10.7168
▁none	-10.7176
▁express	-10.718
▁outcome	-10.7182
▁window	-10.7191
▁afr	-10.7194
▁won	-10.7198
▁threat	-10.7213
▁oxygen	-10.7222
▁vast	-10.7224
▁worry	-10.725
▁core	-10.7256
▁loss	-10.7278
▁St	-10.7286
▁Any	-10.7297
▁article	-10.7302
▁chair	-10.7302
▁National	-10.7303
▁rock	-10.7306
▁sequence	-10.7309
▁Take	-10.7314
▁bough	-10.7318
▁beat	-10.7332
▁definition	-10.7342
▁surprising	-10.7342
▁commercial	-10.7342
▁photo	-10.7355
▁Ne	-10.7356
▁contain	-10.7357
▁controll	-10.7359
ground	-10.7363
va	-10.7367
▁belief	-10.7378
▁Her	-10.7378
ors	-10.7379
pit	-10.738
▁contact	-10.7382
▁funny	-10.7383
▁driver	-10.7395
round	-10.7402
▁notion	-10.7403
mber	-10.7411
▁dimension	-10.7412
▁glass	-10.7423
wa	-10.7427
▁states	-10.7446
▁limit	-10.7451
ake	-10.7453
ah	-10.7458
▁civil	-10.7463
eath	-10.7466
▁European	-10.7467
▁accident	-10.7496
der	-10.7501
▁climb	-10.7503
▁gold	-10.7512
▁compare	-10.7539
broad	-10.7546
▁promise	-10.7546
▁lack	-10.7547
▁balance	-10.7557
▁generate	-10.7557
▁related	-10.756
▁central	-10.7584
▁Over	-10.7588
▁quote	-10.7618
▁Brit	-10.7622
▁rapid	-10.7629
▁consumer	-10.7642
▁anti	-10.7656
ble	-10.7664
▁component	-10.7671
▁unfortunate	-10.7671
▁drawing	-10.7678
▁dad	-10.7687
bu	-10.7689
▁members	-10.7691
▁vaccine	-10.7702
▁plane	-10.7707
ui	-10.7712
▁husband	-10.7712
▁hate	-10.7723
▁boys	-10.7746
▁broken	-10.7752
▁victim	-10.7754
▁fashion	-10.7754
▁earth	-10.7767
▁rare	-10.7778
▁giant	-10.7797
▁flight	-10.7797
table	-10.7821
ke	-10.7838
▁Again	-10.7839
tech	-10.7867
▁diversit	-10.7876
▁satellite	-10.7882
▁rough	-10.7882
▁classroom	-10.7882
▁gap	-10.7883
▁negative	-10.7884
▁mountain	-10.7886
gu	-10.7894
▁dramatic	-10.7924
▁His	-10.7925
▁tough	-10.7935
▁La	-10.7963
▁application	-10.7967
▁reaction	-10.7968
▁town	-10.7985
▁capture	-10.799
▁fr	-10.7992
ck	-10.8005
▁opposite	-10.801
▁civilization	-10.8011
▁Good	-10.8013
ki	-10.8026
▁Did	-10.8034
load	-10.8042
▁detect	-10.8046
▁chain	-10.8055
▁background	-10.8058
▁researcher	-10.8061
▁Ri	-10.8063
▁argue	-10.8073
▁Y	-10.8078
▁Arab	-10.8084
▁continent	-10.8093
▁Muslim	-10.8097
▁kilometer	-10.8097
▁alternative	-10.8097
▁include	-10.8121
ang	-10.813
▁aspect	-10.8135
▁scene	-10.8141
▁imagination	-10.8141
▁recover	-10.8145
▁reward	-10.8146
▁labor	-10.8146
CO	-10.815
▁coffee	-10.8185
pa	-10.8185
▁enable	-10.8187
▁Ha	-10.8191
▁etc	-10.8195
iddle	-10.8206
hip	-10.8207
ver	-10.8208
▁fold	-10.8209
▁island	-10.8214
▁Actua	-10.8236
▁hearing	-10.824
▁flower	-10.8245
vo	-10.8259
and	-10.8269
▁weird	-10.8273
▁graduate	-10.8279
▁See	-10.8279
▁birds	-10.8288
▁plann	-10.8313
▁airplane	-10.8317
▁museum	-10.8317
▁radical	-10.8317
▁David	-10.832
stock	-10.8323
▁complexit	-10.8323
ap	-10.8336
▁bus	-10.8362
▁opportunit	-10.8381
most	-10.8397
▁dinosaur	-10.8407
▁encourage	-10.8407
▁yellow	-10.8407
▁forever	-10.8411
▁Ta	-10.8417
▁justice	-10.8422
ture	-10.8429
▁industrial	-10.8452
▁mouth	-10.8452
▁moon	-10.8456
▁advance	-10.8459
▁correct	-10.846
▁reflect	-10.8461
cent	-10.8463
▁dreams	-10.8465
W	-10.8469
▁Mr	-10.8479
ud	-10.8486
▁remote	-10.8497
▁batter	-10.8497
▁party	-10.853
▁president	-10.8538
ai	-10.8539
▁adapt	-10.8541
we	-10.8541
▁multi	-10.8543
▁click	-10.8544
▁More	-10.8548
▁desire	-10.8548
▁sold	-10.8581
▁architect	-10.8588
▁bio	-10.8588
▁ecosystem	-10.8588
▁stem	-10.8592
▁solv	-10.8596
zone	-10.8622
aging	-10.8632
▁Twitter	-10.8634
▁platform	-10.8634
▁technical	-10.8634
▁Sometime	-10.8635
▁Bill	-10.8643
▁noise	-10.865
▁introduce	-10.866
▁Have	-10.8668
what	-10.8671
ig	-10.8672
▁date	-10.8676
▁algorithm	-10.8677
▁Brazil	-10.868
▁religious	-10.868
▁competition	-10.868
▁bottle	-10.868
▁proud	-10.868
▁operat	-10.8686
▁tail	-10.8688
▁Iraq	-10.8707
▁mess	-10.8713
▁advantage	-10.8726
▁ancient	-10.8726
▁desert	-10.8727
▁expression	-10.8729
▁hopeful	-10.8729
▁Once	-10.8734
▁colon	-10.8737
ural	-10.8748
inner	-10.8751
ak	-10.8753
▁tradition	-10.8771
▁burn	-10.8775
hell	-10.878
▁identify	-10.882
▁magazine	-10.882
▁mechanism	-10.882
shop	-10.882
press	-10.8825
▁whale	-10.883
▁emerg	-10.8839
▁monkey	-10.8867
▁suffering	-10.8869
ite	-10.8879
▁Asia	-10.8896
▁claim	-10.8914
▁phenomeno	-10.8914
▁translate	-10.8914
▁election	-10.8915
▁river	-10.8936
▁struggle	-10.8937
▁mission	-10.8944
▁coast	-10.8961
▁gender	-10.8961
ug	-10.8986
▁due	-10.8992
▁attempt	-10.9009
▁regular	-10.9009
▁pair	-10.9009
▁hero	-10.9012
▁compar	-10.9017
▁trick	-10.902
io	-10.9051
▁responsibl	-10.9057
▁creation	-10.9065
ball	-10.9074
▁cloud	-10.9075
ped	-10.9077
car	-10.9101
▁universal	-10.9105
▁appreciat	-10.9105
▁sorry	-10.9105
▁worri	-10.9105
▁bright	-10.9106
▁organiz	-10.9114
▁bubble	-10.9123
▁oh	-10.9138
▁soil	-10.9141
ru	-10.9141
izing	-10.9148
ham	-10.9149
▁suffer	-10.915
▁Web	-10.9151
▁Japan	-10.9153
ip	-10.9156
▁Hey	-10.9157
▁scar	-10.9181
ium	-10.9186
spring	-10.9202
▁chose	-10.9249
▁French	-10.925
▁foreign	-10.925
▁mouse	-10.9251
▁holding	-10.9253
clock	-10.9269
nstead	-10.9279
▁spin	-10.9281
ford	-10.9297
▁disorder	-10.9299
▁faith	-10.9299
▁odd	-10.93
▁dimensional	-10.9334
▁score	-10.9342
▁AIDS	-10.9349
▁electronic	-10.935
▁Life	-10.935
port	-10.9362
▁operation	-10.9383
▁Washing	-10.9398
▁debate	-10.9398
▁succeed	-10.9398
▁gift	-10.9398
▁motor	-10.9398
board	-10.94
▁press	-10.9408
▁marrie	-10.9409
▁foundation	-10.9412
▁sum	-10.9426
▁statistic	-10.9439
ode	-10.9442
▁marriage	-10.9448
▁empower	-10.9448
▁bread	-10.9448
▁analys	-10.9449
tor	-10.9452
▁fac	-10.9465
▁damage	-10.9488
log	-10.9493
orrow	-10.9497
▁breast	-10.9498
▁previous	-10.9498
▁interface	-10.9498
▁patent	-10.9498
sight	-10.951
▁receive	-10.9517
▁bird	-10.9531
gen	-10.9539
▁curve	-10.9541
▁crowd	-10.9543
▁era	-10.9544
▁symbol	-10.9545
▁restaurant	-10.9548
▁tumor	-10.9548
▁shock	-10.9548
▁sad	-10.9549
▁adopt	-10.9549
▁childhood	-10.9549
▁hop	-10.9549
▁brilliant	-10.9552
▁emission	-10.9554
▁hurt	-10.9555
▁br	-10.9561
▁extend	-10.9562
▁pack	-10.9567
▁budget	-10.9599
▁puzzle	-10.9599
▁honor	-10.9599
credit	-10.9599
▁horse	-10.9599
▁criminal	-10.9599
organic	-10.9605
▁lay	-10.9626
▁cry	-10.9635
▁authorit	-10.9638
▁net	-10.9641
▁Bo	-10.9646
▁motion	-10.9647
▁newspaper	-10.9649
▁Art	-10.9682
▁suit	-10.9684
▁engag	-10.9692
▁note	-10.97
▁fresh	-10.97
▁professor	-10.97
▁leaving	-10.9701
▁poem	-10.9701
▁injur	-10.9703
▁dozen	-10.9714
▁invisibl	-10.9726
pan	-10.973
den	-10.9738
▁independent	-10.9742
▁laugh	-10.975
▁reveal	-10.9752
▁belong	-10.9762
▁transformation	-10.9807
nce	-10.9821
▁fascinating	-10.9837
▁theater	-10.9839
▁Ca	-10.9852
ise	-10.9853
▁inter	-10.9855
▁Sun	-10.9858
▁proper	-10.9866
▁vote	-10.9873
▁Big	-10.9874
▁estimate	-10.9885
▁gay	-10.9904
▁fossil	-10.9907
▁lunch	-10.9907
▁unlike	-10.9908
▁root	-10.9922
▁bomb	-10.9923
▁chip	-10.9924
▁litera	-10.9927
▁exercise	-10.9932
▁smile	-10.9942
▁tens	-10.9951
▁lung	-10.996
▁dai	-10.9965
▁volunteer	-11.0012
▁display	-11.0012
▁Paul	-11.0013
▁discussion	-11.0014
▁clinical	-11.0015
ot	-11.0038
▁Spa	-11.0041
▁graph	-11.0054
▁frame	-11.0055
ick	-11.0057
▁trip	-11.0062
▁hidden	-11.0065
▁disaster	-11.0067
▁surround	-11.0067
▁closed	-11.0075
▁provid	-11.0076
val	-11.0082
▁grade	-11.0082
▁Li	-11.0083
▁sustainabl	-11.0104
▁strength	-11.011
▁George	-11.0118
▁dinner	-11.013
lin	-11.0138
▁Ki	-11.0139
▁quant	-11.0142
oc	-11.0156
▁occur	-11.0161
▁wheel	-11.0168
▁mirror	-11.0172
▁opinion	-11.0172
▁Audience	-11.0172
▁crack	-11.0172
▁dress	-11.0173
▁prim	-11.0204
▁copy	-11.0206
▁politician	-11.0226
▁Ka	-11.0228
▁receiv	-11.0234
▁atom	-11.0236
▁topic	-11.0238
▁master	-11.0238
ley	-11.0245
▁combine	-11.0251
house	-11.0274
▁epidemic	-11.028
af	-11.0281
ler	-11.0281
▁mathematic	-11.0287
▁remove	-11.0294
du	-11.0312
▁Un	-11.0315
▁Ph	-11.0324
▁humanit	-11.0325
▁evolve	-11.0326
▁seed	-11.0333
▁novel	-11.0334
▁narrative	-11.0334
▁variet	-11.0334
▁artificial	-11.0336
▁collection	-11.0338
setting	-11.0343
town	-11.0365
▁dry	-11.0385
▁spirit	-11.0388
ending	-11.0389
▁channel	-11.0389
▁garden	-11.0389
▁logic	-11.039
▁precise	-11.0393
▁fell	-11.0394
tric	-11.0407
▁bridge	-11.0408
while	-11.0415
hill	-11.042
ile	-11.0423
mer	-11.0441
▁multiple	-11.0443
▁folks	-11.0444
▁intelligent	-11.0444
▁versus	-11.0444
▁Hi	-11.0448
▁float	-11.0449
▁partner	-11.0451
▁knowing	-11.0459
▁traffic	-11.0465
▁tax	-11.0467
ka	-11.0477
▁metal	-11.0492
▁metaphor	-11.0498
▁trillion	-11.0499
▁roof	-11.0499
▁exchange	-11.0504
▁poll	-11.0506
uring	-11.0513
▁flu	-11.0515
ana	-11.0521
▁Gu	-11.053
▁Se	-11.0547
▁circuit	-11.0554
▁location	-11.0557
▁Green	-11.0562
coal	-11.0573
▁grown	-11.0573
▁Ro	-11.0608
▁GDP	-11.061
▁elephant	-11.061
▁quarter	-11.061
▁brief	-11.061
▁depression	-11.0612
ob	-11.0614
▁operate	-11.0623
▁insight	-11.0626
▁equip	-11.0631
kind	-11.0633
▁resistan	-11.0637
▁Australia	-11.0654
ttle	-11.0661
▁bees	-11.0662
▁cognitive	-11.0668
▁seek	-11.0673
▁wake	-11.0683
▁lie	-11.0686
▁crash	-11.0715
▁Mexic	-11.0722
▁existence	-11.0723
▁fellow	-11.0723
▁journalist	-11.0724
life	-11.0739
▁measur	-11.0744
▁continu	-11.0746
▁collapse	-11.0748
▁shoes	-11.0754
▁Con	-11.0761
▁invention	-11.0784
▁refugee	-11.0793
▁Everything	-11.08
ade	-11.081
ink	-11.082
▁peer	-11.0828
▁Richard	-11.0837
▁quiet	-11.0837
▁feedback	-11.0837
▁applie	-11.0838
▁customer	-11.0846
▁ride	-11.0859
▁Sea	-11.0872
▁consumption	-11.0894
▁nervous	-11.0894
▁stupid	-11.0894
▁replace	-11.0894
▁limited	-11.0895
▁distribution	-11.0896
▁invite	-11.0899
▁bag	-11.0903
▁lifetime	-11.0903
▁Ba	-11.0932
▁meat	-11.0934
▁mathematical	-11.0943
▁discuss	-11.095
▁Three	-11.0952
▁curious	-11.0952
utism	-11.0955
▁El	-11.0957
▁Come	-11.0967
▁guid	-11.0979
▁King	-11.0989
xi	-11.0998
▁skill	-11.1005
▁survey	-11.101
▁vessel	-11.1011
▁taste	-11.102
▁cure	-11.1027
ax	-11.1038
children	-11.1041
▁Di	-11.1049
▁assume	-11.105
▁Their	-11.1051
cit	-11.1051
▁nurse	-11.1053
▁England	-11.1069
▁official	-11.1069
▁ordinar	-11.1069
▁wisdom	-11.1069
▁grandmother	-11.1069
▁talent	-11.1069
position	-11.1073
▁par	-11.1103
▁agenc	-11.1106
▁equivalent	-11.1128
▁symptom	-11.1128
▁malaria	-11.1128
▁plate	-11.1136
van	-11.1139
▁occurr	-11.1139
ping	-11.1144
▁hide	-11.1145
▁fourth	-11.1145
▁spaces	-11.1162
▁mid	-11.1164
▁Thanks	-11.1169
▁govern	-11.1181
style	-11.1185
▁error	-11.1187
▁lift	-11.1187
▁opening	-11.1187
▁combination	-11.1187
▁terrorist	-11.1216
tons	-11.1231
ft	-11.1231
lan	-11.1235
▁tear	-11.1236
▁PM	-11.1237
▁weather	-11.1239
▁infect	-11.1244
▁intellectual	-11.1246
▁court	-11.1246
▁economist	-11.1249
:	-11.1255
▁arriv	-11.1257
▁comfort	-11.1258
▁Island	-11.1263
▁Si	-11.1284
▁agricultur	-11.1296
▁killing	-11.1302
▁flat	-11.1306
▁President	-11.1306
▁laptop	-11.1306
▁telescope	-11.1306
▁joke	-11.1306
▁kick	-11.1308
▁reform	-11.1327
▁diet	-11.1333
▁shoulder	-11.1347
ious	-11.1353
unles	-11.1358
holes	-11.1362
▁actor	-11.1362
▁cartoon	-11.1366
▁ancestor	-11.1366
▁volume	-11.1366
▁solid	-11.1366
▁chicken	-11.1368
▁limb	-11.1369
▁orbit	-11.1374
▁Times	-11.1375
▁robotic	-11.1377
▁writer	-11.1384
iv	-11.1406
▁Harv	-11.1406
▁practical	-11.1407
▁gather	-11.141
▁dealing	-11.1414
▁inequalit	-11.1427
bar	-11.1427
▁determine	-11.1429
▁construction	-11.143
expected	-11.1431
▁according	-11.1432
▁Po	-11.1453
▁battle	-11.1455
▁resource	-11.1463
▁Wom	-11.1472
▁Kenya	-11.1475
▁mile	-11.1479
▁Ju	-11.1484
▁Einstein	-11.1488
▁mammal	-11.1488
▁pocket	-11.1488
▁MIT	-11.1488
▁cutting	-11.1489
▁heavy	-11.1491
back	-11.1494
▁joy	-11.1509
erson	-11.151
▁soul	-11.1512
▁member	-11.1534
▁lies	-11.1536
ag	-11.1537
▁perception	-11.155
▁Other	-11.155
▁evil	-11.1551
▁Ho	-11.1551
▁yester	-11.1552
▁string	-11.1553
▁review	-11.1554
cast	-11.1558
▁bill	-11.156
▁Hu	-11.1571
wash	-11.1573
▁photos	-11.1589
rates	-11.1594
▁empty	-11.1611
▁Japanese	-11.1611
▁employee	-11.1611
▁lawyer	-11.1612
▁judge	-11.162
bra	-11.1629
▁north	-11.1633
▁electrical	-11.1647
ide	-11.1664
▁clinic	-11.1669
▁privilege	-11.1673
▁sugar	-11.1673
▁transition	-11.1676
ong	-11.169
ator	-11.1695
conduct	-11.1695
▁ideal	-11.1703
▁divide	-11.1708
▁fat	-11.1713
▁speaker	-11.172
▁attract	-11.1724
▁broke	-11.1725
▁camp	-11.1727
etch	-11.1734
▁equation	-11.1736
▁initial	-11.1736
▁awful	-11.1736
▁accurate	-11.1736
▁title	-11.1736
▁medium	-11.1736
▁peak	-11.1738
▁Iran	-11.1743
room	-11.1758
▁whom	-11.1765
▁hang	-11.1765
ng	-11.1773
ack	-11.1796
fin	-11.1798
▁dolphin	-11.1799
▁Pleas	-11.1799
▁illness	-11.18
▁enem	-11.1807
▁polic	-11.1809
▁threaten	-11.1811
mission	-11.1818
▁Jam	-11.1826
▁Am	-11.1829
▁addition	-11.1839
▁manufactur	-11.1839
let	-11.1852
put	-11.1856
ure	-11.1859
▁Car	-11.1861
▁maintain	-11.1862
▁Last	-11.1867
▁flag	-11.1878
▁Dan	-11.1882
ja	-11.1887
cer	-11.1922
▁construct	-11.1922
▁Amazon	-11.1926
▁Center	-11.1926
▁button	-11.1957
rew	-11.1961
▁abuse	-11.198
▁doubt	-11.1981
▁evolutionar	-11.1982
▁heads	-11.1988
▁laborator	-11.199
▁toilet	-11.199
▁microbe	-11.1991
▁grass	-11.2004
bel	-11.2006
▁Tim	-11.2006
▁los	-11.2013
▁Los	-11.2025
▁empath	-11.2031
▁rat	-11.2031
▁Cha	-11.2041
▁prototype	-11.2041
▁nose	-11.2052
▁attach	-11.2053
sensitive	-11.2054
▁convert	-11.2054
▁plus	-11.2054
▁section	-11.2054
▁capabilit	-11.2055
▁tape	-11.206
▁protection	-11.2062
▁stranger	-11.2066
ways	-11.2078
ware	-11.2079
▁classic	-11.2083
▁participate	-11.2084
▁names	-11.2091
▁School	-11.2119
▁length	-11.2119
▁reef	-11.2119
▁rational	-11.2119
▁grain	-11.2121
▁height	-11.2124
▁Brita	-11.2129
ey	-11.2138
tar	-11.2141
▁cow	-11.2145
cut	-11.2155
▁chemistr	-11.2158
▁undern	-11.2171
▁Mu	-11.2174
▁Day	-11.2181
▁pig	-11.2181
▁Street	-11.2184
church	-11.2184
▁south	-11.2187
▁cave	-11.2241
▁balloon	-11.225
▁explanation	-11.225
▁Hous	-11.2257
▁organize	-11.2272
▁comment	-11.2279
▁gang	-11.2281
▁Sha	-11.23
▁contract	-11.2311
▁invit	-11.2311
▁NASA	-11.2316
▁encounter	-11.2316
▁sweet	-11.2316
▁rocket	-11.2317
▁financ	-11.2321
▁prediction	-11.2322
▁inspiration	-11.2323
▁pure	-11.2329
lit	-11.2329
▁associat	-11.2334
▁Israel	-11.2336
▁facilit	-11.2343
▁shoot	-11.2344
▁Sam	-11.2349
set	-11.2353
▁author	-11.2365
▁illegal	-11.2383
▁incentive	-11.2383
▁surgeon	-11.2384
▁season	-11.24
ue	-11.2435
▁Human	-11.244
ju	-11.2441
▁client	-11.245
▁conclusion	-11.245
col	-11.2453
▁gentlem	-11.2453
▁stoo	-11.2459
▁mothers	-11.2467
▁obes	-11.247
▁divers	-11.2515
▁Congress	-11.2518
▁pump	-11.2518
▁vulnerabl	-11.2518
▁Col	-11.2519
▁librar	-11.2524
▁statement	-11.2525
har	-11.253
gra	-11.253
▁programm	-11.2532
▁soft	-11.2534
▁gravit	-11.254
om	-11.2551
▁importan	-11.2553
lic	-11.2558
▁relate	-11.2563
qui	-11.257
▁Nigeria	-11.2573
▁rescue	-11.2586
▁Angel	-11.2586
▁entertain	-11.2586
▁panel	-11.2586
▁dirt	-11.2586
▁Wi	-11.2588
▁presentation	-11.2592
▁categor	-11.2595
▁director	-11.2606
▁immun	-11.2606
▁habitat	-11.2618
▁former	-11.2622
▁lady	-11.2644
hand	-11.2647
script	-11.2654
▁pleasure	-11.2654
▁regard	-11.2654
▁technological	-11.2654
▁Since	-11.2655
▁Wow	-11.2656
▁physicist	-11.2656
▁musician	-11.2657
▁chart	-11.2659
▁react	-11.266
▁passionate	-11.2661
qua	-11.2666
▁trans	-11.268
▁Sa	-11.2681
▁habit	-11.269
▁carrie	-11.2691
▁violent	-11.2695
▁cup	-11.2697
lf	-11.2698
▁clip	-11.27
bridge	-11.27
▁En	-11.2703
▁danger	-11.2723
▁spectrum	-11.2723
secure	-11.2723
▁steel	-11.2723
▁assumption	-11.2724
▁hotel	-11.2725
▁contribute	-11.2744
▁comfortabl	-11.2779
sha	-11.2785
▁Chicago	-11.2793
▁circumstance	-11.2793
▁definite	-11.2793
▁France	-11.2793
▁label	-11.2796
▁firm	-11.2796
▁BG	-11.28
▁calling	-11.2818
▁status	-11.2818
read	-11.2825
▁Tom	-11.2827
pro	-11.2829
▁graphic	-11.2848
▁scan	-11.2859
▁Institute	-11.2863
▁efficienc	-11.2863
▁studio	-11.2863
▁valuable	-11.2863
▁teeth	-11.2863
▁jail	-11.2863
▁extract	-11.2864
▁winter	-11.2865
▁Ar	-11.2871
▁fan	-11.2874
▁Ben	-11.2878
▁primar	-11.2887
▁historical	-11.2893
ari	-11.2894
▁pitch	-11.2896
▁Bos	-11.2899
▁challeng	-11.29
arrow	-11.2916
▁bare	-11.2921
ative	-11.2926
▁describ	-11.293
▁Francisc	-11.2932
▁mosquito	-11.2933
▁phrase	-11.2933
▁flie	-11.295
ction	-11.2966
II	-11.2969
▁hall	-11.297
▁videos	-11.2995
▁kitchen	-11.3004
▁molecular	-11.3004
▁penguin	-11.3004
▁instant	-11.3004
▁academic	-11.3005
▁Yet	-11.3005
▁Anyway	-11.3005
pt	-11.3012
▁sheet	-11.3018
▁May	-11.3019
▁monitor	-11.3024
ears	-11.3026
▁Stan	-11.303
▁Canad	-11.3031
▁beach	-11.3032
her	-11.3045
▁generat	-11.3049
▁comput	-11.3053
force	-11.3056
und	-11.3067
off	-11.3073
▁chimpanzee	-11.3075
▁courage	-11.3075
▁liquid	-11.3075
▁unusual	-11.3075
▁clever	-11.3076
▁forgot	-11.3076
▁snow	-11.3076
▁staff	-11.3076
▁meaningful	-11.3077
▁Bank	-11.3077
▁infinite	-11.3078
ger	-11.3079
▁Will	-11.3084
▁trend	-11.3085
▁shame	-11.3097
▁educate	-11.3101
▁swimm	-11.3121
rising	-11.3128
▁arrive	-11.3138
▁harvest	-11.3147
▁Christian	-11.3147
▁host	-11.3149
▁teenager	-11.315
▁dive	-11.3153
▁harm	-11.3169
▁happi	-11.3186
ze	-11.3199
▁handle	-11.3199
▁ignore	-11.3202
▁mountains	-11.3213
▁grab	-11.3217
▁grant	-11.322
▁sculpture	-11.322
▁fiber	-11.322
▁alien	-11.322
▁Four	-11.3222
▁internal	-11.3228
ese	-11.3244
hire	-11.3255
▁embrace	-11.3266
▁ski	-11.3269
▁myth	-11.328
▁Che	-11.3292
▁Darwin	-11.3292
▁democratic	-11.3293
▁department	-11.3293
▁silence	-11.3293
▁toxic	-11.3293
▁variation	-11.3293
▁radiation	-11.3294
▁biologist	-11.3295
▁automatic	-11.3296
▁analog	-11.3297
▁earn	-11.3327
▁Ten	-11.3358
za	-11.336
▁fl	-11.3362
▁arrest	-11.3367
▁password	-11.3367
▁conservation	-11.3367
▁shut	-11.3368
▁apartment	-11.3369
▁Park	-11.3372
▁arts	-11.3373
▁reverse	-11.3374
▁awesome	-11.3379
▁tank	-11.3379
▁boundar	-11.3379
▁Fe	-11.3382
▁fle	-11.3398
stage	-11.34
▁prepared	-11.3401
symmetr	-11.3402
▁dense	-11.3403
▁icon	-11.3405
▁confiden	-11.342
▁severe	-11.3422
bound	-11.3429
▁input	-11.3438
▁sophisticate	-11.344
▁illusion	-11.344
▁horribl	-11.344
▁intervention	-11.344
▁innovative	-11.3441
▁implication	-11.3441
▁fake	-11.3441
▁pilot	-11.3444
▁Gra	-11.3448
not	-11.345
▁bike	-11.3458
▁weak	-11.3469
▁homes	-11.3478
dom	-11.3479
hook	-11.3483
▁Da	-11.3498
▁breathe	-11.3511
▁origin	-11.3512
rtex	-11.3514
▁establish	-11.3514
▁Michael	-11.3515
▁YouTube	-11.3515
▁hydrogen	-11.3515
destruction	-11.3515
▁psychological	-11.3515
▁collaboration	-11.3515
▁iron	-11.3518
▁visibl	-11.3518
▁attitude	-11.352
▁split	-11.3525
▁tall	-11.3554
▁corrupti	-11.357
▁mis	-11.3575
▁Steve	-11.3578
▁Valle	-11.359
▁iPhone	-11.359
▁reference	-11.359
proof	-11.3591
▁loud	-11.3591
▁loan	-11.3594
▁zoom	-11.3602
▁tag	-11.3608
▁GP	-11.3625
ail	-11.3625
tan	-11.363
▁counter	-11.3652
▁false	-11.3666
▁ingredient	-11.3666
▁phase	-11.3666
▁prize	-11.3666
▁physician	-11.3667
▁observation	-11.3667
▁assembl	-11.3672
▁nerve	-11.3685
▁trie	-11.3686
▁explor	-11.3703
▁suck	-11.3703
ward	-11.3723
▁decline	-11.3731
▁priva	-11.3737
▁celebrate	-11.3738
▁Science	-11.3742
▁relevant	-11.3742
▁Charles	-11.3742
▁framework	-11.3743
▁escape	-11.3744
▁agent	-11.3745
▁predator	-11.3745
▁inevitabl	-11.3747
hood	-11.3748
corn	-11.375
▁angle	-11.375
ner	-11.3761
▁repeat	-11.3767
▁swim	-11.377
fe	-11.3773
ep	-11.3777
▁route	-11.3779
▁charit	-11.3782
▁emerge	-11.379
fu	-11.3803
nic	-11.3805
▁Real	-11.3811
Global	-11.3819
presence	-11.3819
▁coordinat	-11.3819
▁fortunate	-11.3819
▁permanent	-11.3819
▁repair	-11.3819
▁sphere	-11.3819
▁dedicat	-11.3819
▁lecture	-11.3819
Ex	-11.3829
ung	-11.3846
▁State	-11.3862
▁entrepreneurs	-11.3865
of	-11.3867
▁hunt	-11.3872
▁Russia	-11.3884
▁figur	-11.3887
ko	-11.3889
▁license	-11.3897
milk	-11.3897
ortality	-11.391
uc	-11.3928
▁scared	-11.3938
▁Ab	-11.3944
▁Tu	-11.3952
ero	-11.3961
▁terroris	-11.3961
▁Na	-11.3964
▁mechanical	-11.3969
▁eggs	-11.3973
fer	-11.3974
▁frequenc	-11.3975
▁afternoon	-11.3975
▁antibiotic	-11.3975
▁rhythm	-11.3975
▁witness	-11.3975
▁drill	-11.3975
▁silk	-11.3976
▁meal	-11.3976
use	-11.3978
▁apparent	-11.3983
▁bin	-11.3984
▁musical	-11.3986
▁owner	-11.3987
▁tea	-11.3995
ee	-11.3999
▁fascinat	-11.4002
▁spa	-11.4004
▁printing	-11.4008
ership	-11.4015
▁tap	-11.4018
▁Vi	-11.4022
hat	-11.4031
fa	-11.4032
sources	-11.4035
▁thanks	-11.4038
▁Pakistan	-11.4038
▁nest	-11.4045
mor	-11.4046
▁fiction	-11.405
cu	-11.4053
▁concrete	-11.4054
▁infection	-11.4056
▁Five	-11.4059
▁myster	-11.4088
like	-11.4126
▁dogs	-11.4132
ology	-11.4132
▁grandfather	-11.4133
▁spider	-11.4133
▁Turk	-11.4133
▁exploration	-11.4134
▁isolat	-11.4134
▁improvement	-11.4136
▁clothes	-11.4137
▁axis	-11.4138
▁expectation	-11.4138
all	-11.414
▁activist	-11.4142
ible	-11.4143
▁Nor	-11.4152
▁percentage	-11.4159
▁demonstrate	-11.4166
▁dropp	-11.417
▁heal	-11.4176
some	-11.419
Bay	-11.4207
▁select	-11.4211
aking	-11.4211
ries	-11.4211
▁paradigm	-11.4213
▁Talk	-11.4213
▁greenhouse	-11.4214
▁Paris	-11.4214
▁unknown	-11.4214
▁Bang	-11.4219
▁prisoner	-11.423
ification	-11.4232
▁storm	-11.4232
bb	-11.4234
▁microscope	-11.4236
▁pr	-11.4241
▁file	-11.4246
forests	-11.4252
▁command	-11.4267
▁neuro	-11.427
ane	-11.4271
▁Du	-11.4289
▁sports	-11.4292
▁cluster	-11.4294
▁intense	-11.4294
▁resolution	-11.4294
▁club	-11.4294
av	-11.4295
▁emergenc	-11.4298
▁Give	-11.4305
▁pile	-11.4306
▁admit	-11.4308
▁hous	-11.431
▁oppos	-11.4311
▁committ	-11.4312
▁recording	-11.4315
▁officer	-11.4316
lip	-11.4325
ina	-11.433
craft	-11.4374
▁CEO	-11.4375
parallel	-11.4375
▁advice	-11.4375
▁deserve	-11.4375
▁implement	-11.4375
cloth	-11.4376
chi	-11.4379
▁depress	-11.4382
▁wound	-11.4384
▁Mc	-11.4397
uck	-11.4397
▁US	-11.4401
▁Ah	-11.4408
makers	-11.4408
hal	-11.441
▁weigh	-11.4418
zi	-11.4422
▁employ	-11.4423
▁manager	-11.4427
▁Su	-11.4438
than	-11.4442
Something	-11.4446
▁Whil	-11.4455
▁psycholog	-11.4456
▁Before	-11.4457
▁shadow	-11.4457
oxide	-11.4457
▁drone	-11.4457
worm	-11.4459
▁Thom	-11.4463
implicit	-11.4467
▁Latin	-11.4472
▁angr	-11.4475
book	-11.4487
▁protest	-11.449
gram	-11.4503
▁partners	-11.453
nfortunate	-11.4539
▁contrast	-11.454
▁portrait	-11.454
dor	-11.4541
▁exhibition	-11.4541
▁wireless	-11.4542
▁telephone	-11.4545
▁behave	-11.4547
rus	-11.4556
surance	-11.4565
tial	-11.4572
ign	-11.4579
au	-11.4579
▁Star	-11.4584
▁sail	-11.4591
▁citizen	-11.4609
▁pen	-11.4612
▁abstract	-11.4621
▁ear	-11.4622
▁depth	-11.4623
▁discipline	-11.4623
▁Health	-11.4623
▁boring	-11.4623
▁advertis	-11.4624
▁bond	-11.4627
▁Mary	-11.463
▁lad	-11.4639
▁mad	-11.4639
▁apple	-11.4643
▁polluti	-11.4649
gi	-11.4658
▁consume	-11.4659
▁thick	-11.4678
zen	-11.4686
met	-11.4703
▁trac	-11.4704
▁install	-11.4706
▁Pacific	-11.4707
▁September	-11.4707
▁chapter	-11.4707
▁vertical	-11.4707
▁Number	-11.4707
▁Adam	-11.4707
▁desk	-11.4707
▁steal	-11.4707
▁commitment	-11.4708
▁cord	-11.4708
▁instruction	-11.4708
▁selection	-11.4709
▁download	-11.4714
▁marine	-11.4716
▁pot	-11.4722
conventional	-11.4732
▁Boy	-11.474
▁Lu	-11.4749
bit	-11.475
ably	-11.4757
▁busy	-11.4757
▁dig	-11.4758
fall	-11.4773
▁obsess	-11.4774
ried	-11.4776
▁gut	-11.4782
▁propose	-11.4789
▁boom	-11.4792
▁elder	-11.4793
▁rush	-11.4796
▁revenue	-11.4797
▁motivation	-11.4799
▁exception	-11.4799
▁densit	-11.48
▁Never	-11.48
▁burning	-11.4807
▁suppose	-11.4855
▁exten	-11.4856
▁personalit	-11.4865
▁acid	-11.4878
▁birthday	-11.4894
cur	-11.4895
▁imp	-11.4904
▁Red	-11.4923
▁knee	-11.4935
polar	-11.4947
▁Islam	-11.4961
▁Egypt	-11.4963
▁Wikipedia	-11.4963
▁bicycle	-11.4963
▁Nation	-11.4964
▁humor	-11.4964
consistent	-11.4964
▁meme	-11.4968
▁overall	-11.4969
▁Basic	-11.4969
box	-11.4977
gate	-11.498
▁item	-11.4982
▁Final	-11.4982
▁mice	-11.5002
hr	-11.5007
▁attend	-11.5017
vin	-11.5031
away	-11.5032
emember	-11.5048
▁diagram	-11.505
▁flood	-11.5051
▁Apple	-11.5051
▁imagin	-11.5054
▁Arm	-11.5058
▁Act	-11.509
▁fixed	-11.5092
ek	-11.5093
▁Lo	-11.5121
▁favor	-11.5121
▁recycl	-11.5123
▁domestic	-11.5138
▁hormone	-11.5138
▁piano	-11.5138
▁ritual	-11.5138
▁frank	-11.5139
▁psychologist	-11.5139
▁backward	-11.5143
▁White	-11.5146
▁Abou	-11.5159
▁theme	-11.5191
ris	-11.52
▁Cam	-11.5201
▁danc	-11.5215
▁capitalis	-11.5224
▁confront	-11.5225
▁defense	-11.5227
▁exponential	-11.5227
▁identical	-11.5227
▁medication	-11.5227
▁Obama	-11.5227
▁plent	-11.5227
▁afterward	-11.5229
▁Air	-11.524
▁calculate	-11.524
▁narrow	-11.525
▁march	-11.5256
▁Pr	-11.5259
▁nor	-11.5288
▁caus	-11.5288
▁Mom	-11.5294
▁Black	-11.5316
▁Museum	-11.5316
▁barrier	-11.5316
▁database	-11.5316
▁trigger	-11.5316
▁animation	-11.5317
▁continuous	-11.5317
jo	-11.5317
▁unexpected	-11.5317
▁lifestyle	-11.5322
▁raw	-11.5327
▁rocks	-11.5338
▁educational	-11.5343
arch	-11.5346
mail	-11.5349
▁blog	-11.5363
▁prefer	-11.5382
▁feeding	-11.5385
▁ray	-11.539
▁flash	-11.5406
▁fifth	-11.5406
▁regret	-11.5406
▁mathematician	-11.5407
▁photographer	-11.5417
▁cheat	-11.5436
ado	-11.544
▁promote	-11.5452
▁manag	-11.5479
place	-11.548
verse	-11.5481
cro	-11.5482
▁seal	-11.5491
▁elect	-11.5495
▁absorb	-11.5497
▁scenario	-11.5497
▁Robert	-11.5497
▁genius	-11.5497
▁guard	-11.5497
▁reduc	-11.5497
▁Congo	-11.5498
▁fluid	-11.5498
▁breed	-11.5498
▁regime	-11.5514
▁Age	-11.5515
▁Jim	-11.5517
ean	-11.552
alga	-11.5525
tune	-11.553
▁introduc	-11.5537
▁spec	-11.5551
▁Jun	-11.5555
▁perceive	-11.5556
▁Lin	-11.556
▁philosoph	-11.5561
point	-11.5574
▁Sp	-11.5578
▁improv	-11.558
▁Get	-11.5585
▁Christmas	-11.5589
▁exploit	-11.5589
▁thumb	-11.5589
▁reserve	-11.5589
▁globe	-11.5589
▁Centr	-11.5589
▁painful	-11.559
tz	-11.5593
▁wherever	-11.5602
▁Was	-11.5603
uff	-11.5606
▁Ge	-11.5645
▁observ	-11.5663
▁corporate	-11.5681
▁footprint	-11.5681
▁Antarctic	-11.5681
▁suspect	-11.5681
▁Voice	-11.5681
▁compound	-11.5681
▁judgment	-11.5681
▁renewable	-11.5682
▁minister	-11.5683
▁shall	-11.5684
▁sweat	-11.5686
▁pill	-11.5687
▁announc	-11.5689
linear	-11.5694
▁Martin	-11.5701
ox	-11.5703
dia	-11.5706
▁lion	-11.5713
ose	-11.5714
cul	-11.5731
mar	-11.5754
rose	-11.5755
▁roads	-11.5755
▁Korea	-11.5762
▁expos	-11.5764
sel	-11.577
▁aim	-11.5772
▁January	-11.5775
▁Next	-11.5775
▁conclude	-11.5775
▁diabet	-11.5775
▁session	-11.5775
▁desperate	-11.5778
▁defend	-11.578
▁cable	-11.5784
▁flip	-11.5788
Lab	-11.5793
rank	-11.5794
▁asset	-11.5798
▁plot	-11.5811
▁struggl	-11.5822
wear	-11.5823
▁refer	-11.5827
ilit	-11.585
▁anger	-11.5866
▁recogni	-11.5868
▁grateful	-11.5869
▁strike	-11.5869
▁Sahara	-11.5869
▁raising	-11.5869
▁intend	-11.5875
▁spiritual	-11.5883
▁Del	-11.5918
CD	-11.5919
▁argu	-11.592
▁Part	-11.593
▁releas	-11.5942
▁shooting	-11.5942
▁evening	-11.5955
▁accomplish	-11.5963
▁clue	-11.5964
▁crucial	-11.5964
▁heaven	-11.5965
▁engagement	-11.5967
▁smoke	-11.5969
ther	-11.5981
▁poster	-11.5985
oo	-11.6033
▁behavioral	-11.6036
▁Nothing	-11.604
▁intention	-11.6042
▁implant	-11.606
▁senior	-11.606
▁ticket	-11.606
▁adventure	-11.606
▁knock	-11.606
▁vital	-11.6061
▁reduction	-11.6061
▁Ya	-11.6062
▁overcome	-11.6062
▁hunger	-11.6063
▁interactive	-11.6063
ethical	-11.6064
▁objective	-11.6068
▁tour	-11.6068
▁poorest	-11.6072
▁tired	-11.6072
▁accelerat	-11.6075
▁Holly	-11.608
▁fabric	-11.6102
▁gray	-11.6106
▁bug	-11.6113
oh	-11.6129
▁slum	-11.6136
▁authentic	-11.6157
▁Greek	-11.6158
▁River	-11.6158
▁silent	-11.6158
▁agenda	-11.6158
▁lake	-11.616
▁Pi	-11.6162
▁Tell	-11.6164
▁functional	-11.6168
▁boss	-11.6169
▁Free	-11.6169
▁analyze	-11.6176
▁Ed	-11.6177
▁salt	-11.6178
▁pregnan	-11.618
iving	-11.6184
▁bits	-11.6186
▁mentor	-11.6188
▁bend	-11.6235
ately	-11.6237
▁Up	-11.6238
▁advanc	-11.6238
▁hack	-11.6244
▁Per	-11.6247
kin	-11.6253
▁transplant	-11.6253
▁Foundation	-11.6255
▁column	-11.6255
▁earthquake	-11.6255
▁stroke	-11.6255
▁terrifi	-11.6255
▁prosper	-11.6256
▁drove	-11.6256
▁laser	-11.6257
▁disabilit	-11.6257
▁trait	-11.6258
▁dust	-11.626
▁electron	-11.626
▁welcome	-11.6269
▁integrat	-11.6274
▁smok	-11.6275
▁killer	-11.6276
▁comic	-11.6277
▁transfer	-11.629
▁Th	-11.6292
ik	-11.6299
▁Make	-11.6299
▁melt	-11.6304
ura	-11.6309
bath	-11.6332
hits	-11.6349
▁guarantee	-11.6354
▁miracle	-11.6354
▁polio	-11.6354
▁romantic	-11.6354
▁shelter	-11.6354
▁traged	-11.6355
▁Ghana	-11.6355
▁Revolution	-11.6355
▁Gulf	-11.6355
▁household	-11.6355
▁elite	-11.6355
▁utter	-11.6356
▁magnetic	-11.6356
▁Grand	-11.6361
▁mere	-11.6363
bal	-11.6366
army	-11.6368
zo	-11.6375
▁philosopher	-11.6384
▁tube	-11.6386
▁youth	-11.6392
▁sides	-11.6397
▁tip	-11.6402
▁till	-11.6412
▁shell	-11.6416
▁clouds	-11.6416
▁Bar	-11.6422
sleep	-11.6429
ual	-11.643
▁Te	-11.6432
▁Bu	-11.6445
▁appeal	-11.6454
▁Microsoft	-11.6454
▁chocolate	-11.6454
▁external	-11.6454
▁obstacle	-11.6454
▁procedure	-11.6454
▁International	-11.6455
▁blame	-11.6459
▁wars	-11.6461
gh	-11.6463
▁tight	-11.6469
entered	-11.6485
bul	-11.6487
▁Frank	-11.6497
▁experienc	-11.6514
dependent	-11.6517
▁Bur	-11.6523
▁stepp	-11.6528
shine	-11.653
rin	-11.6534
▁stands	-11.6553
▁curiosit	-11.6555
▁domain	-11.6556
▁High	-11.6556
▁leap	-11.6557
▁stack	-11.6558
▁suicide	-11.656
▁golf	-11.6567
pox	-11.6567
▁alter	-11.6569
▁shake	-11.6572
▁Pole	-11.6576
▁illustrate	-11.6588
▁Sch	-11.6593
▁wage	-11.6609
▁Joe	-11.662
▁liver	-11.6622
▁murder	-11.6633
▁windows	-11.6635
▁grave	-11.6641
▁reported	-11.6647
▁Higgs	-11.6658
▁asteroid	-11.6658
▁ceiling	-11.6658
▁passenger	-11.6658
▁surveill	-11.6658
▁embedded	-11.6658
▁correspond	-11.6658
▁Haiti	-11.6658
▁productivit	-11.6658
▁pretend	-11.6658
▁optimistic	-11.6658
▁orange	-11.6658
▁Bush	-11.666
▁darkness	-11.6666
▁Dur	-11.6675
▁hungr	-11.669
▁achiev	-11.6691
word	-11.6702
▁printer	-11.671
▁excite	-11.6738
▁Ni	-11.6752
▁needle	-11.6754
▁Manhattan	-11.6761
▁confuse	-11.6761
▁debt	-11.6761
▁geometr	-11.6761
▁liberal	-11.6761
▁participant	-11.6761
▁ridiculous	-11.6761
▁unbelievabl	-11.6761
▁Texa	-11.6761
▁recruit	-11.6761
▁federal	-11.6761
▁regulation	-11.6761
stair	-11.6762
▁Ox	-11.6762
▁Islamic	-11.6763
▁Peter	-11.6765
▁representation	-11.6768
▁tuna	-11.6771
▁Law	-11.6772
▁tower	-11.6773
▁cute	-11.6773
▁cash	-11.6775
▁Russian	-11.6777
▁coin	-11.6784
Tri	-11.6786
lor	-11.6791
▁Jo	-11.6806
▁chest	-11.6816
▁frog	-11.6823
▁complain	-11.6826
gar	-11.683
ani	-11.6832
bri	-11.6839
▁extinct	-11.6863
▁deploy	-11.6864
ua	-11.6864
▁Ethiopia	-11.6865
▁Narrat	-11.6865
▁corporation	-11.6865
▁district	-11.6865
▁intuitive	-11.6865
▁vegetable	-11.6865
▁General	-11.6865
▁NGO	-11.6865
▁conservative	-11.6865
▁distant	-11.6865
▁abandon	-11.6865
▁partnership	-11.6866
▁borrow	-11.6866
▁donor	-11.6867
▁lens	-11.687
cha	-11.6876
▁clos	-11.6893
net	-11.6909
▁resist	-11.6923
▁Wal	-11.6927
▁Atlant	-11.693
▁Thing	-11.6932
▁priorit	-11.6938
▁pray	-11.6944
▁headline	-11.6947
del	-11.6958
▁kn	-11.6961
▁capita	-11.6963
▁reject	-11.6969
▁brown	-11.697
▁candidate	-11.697
▁description	-11.697
▁furniture	-11.697
▁request	-11.697
▁mutation	-11.697
MRI	-11.697
▁simulation	-11.6971
ndeed	-11.6971
▁cyber	-11.6971
ock	-11.6972
active	-11.698
ami	-11.6982
▁leak	-11.6996
▁scratch	-11.7002
half	-11.7003
▁falls	-11.7022
▁distribut	-11.7034
▁activate	-11.7054
▁sales	-11.7061
▁observe	-11.7069
crops	-11.7071
▁frighten	-11.7076
▁probabilit	-11.7076
▁Rwanda	-11.7076
▁demographic	-11.7076
▁mushroom	-11.7076
▁laughing	-11.7077
▁textbook	-11.7077
pole	-11.7077
▁dignit	-11.7078
▁airport	-11.7078
▁sheep	-11.7082
DA	-11.7087
▁diagnos	-11.7096
▁Scott	-11.7097
▁Far	-11.7128
lett	-11.7137
spect	-11.7155
▁classe	-11.7177
▁Mark	-11.7184
▁chief	-11.7184
▁rebuild	-11.7184
▁Department	-11.7184
▁yield	-11.7184
▁bulb	-11.7184
cellular	-11.7185
▁quit	-11.7186
▁skeleton	-11.7186
▁pace	-11.7186
▁ultra	-11.7187
war	-11.7188
▁autonomous	-11.719
▁sharp	-11.7192
▁mechanic	-11.7195
▁inspiring	-11.7196
pad	-11.7198
SA	-11.7199
▁rent	-11.721
▁consum	-11.7211
▁confident	-11.7213
▁indicate	-11.7231
ied	-11.7254
▁profile	-11.7293
▁sandwich	-11.7293
▁skull	-11.7293
▁subtle	-11.7293
▁spill	-11.7293
bump	-11.7293
▁football	-11.7294
▁Gi	-11.731
ging	-11.7314
▁entrepreneur	-11.7317
▁combin	-11.7322
▁fisher	-11.7325
can	-11.7337
aker	-11.7343
oid	-11.7355
ji	-11.7357
▁node	-11.7363
▁digit	-11.7364
ino	-11.7365
▁ignoran	-11.7369
▁shipp	-11.739
lime	-11.7398
▁addict	-11.7401
▁optimis	-11.7402
▁William	-11.7403
▁disgust	-11.7403
▁gesture	-11.7403
▁pyramid	-11.7403
▁spectacular	-11.7403
▁uncomfortabl	-11.7403
▁fragil	-11.7403
▁concert	-11.7403
▁demonstration	-11.7404
▁DH	-11.7405
▁legac	-11.7406
▁mold	-11.7406
space	-11.742
stabilit	-11.7422
scal	-11.7423
▁transparent	-11.744
▁cop	-11.7465
accessibl	-11.7489
rice	-11.7489
custom	-11.7491
▁wings	-11.7497
▁norm	-11.7506
▁Girl	-11.7514
▁Ocean	-11.7514
▁flexibl	-11.7514
▁guilt	-11.7514
▁strand	-11.7514
▁gradual	-11.7514
▁cousin	-11.7514
▁Olympic	-11.7514
▁dump	-11.7514
▁extinction	-11.7516
▁achievement	-11.7518
▁editor	-11.7519
plan	-11.7527
▁output	-11.7531
state	-11.7547
bucks	-11.7559
▁brave	-11.7564
pur	-11.7576
▁transparen	-11.7588
▁banks	-11.7588
▁Bi	-11.761
▁locat	-11.7625
▁Six	-11.7626
▁systematic	-11.7626
▁alarm	-11.7626
▁freak	-11.7626
▁poison	-11.7626
▁initiative	-11.7627
▁limitation	-11.763
ole	-11.763
ncy	-11.7632
▁Back	-11.7632
▁bother	-11.7633
▁measurement	-11.7633
highway	-11.7635
▁Bob	-11.7651
▁edit	-11.7655
▁pipe	-11.7656
▁magical	-11.7683
gist	-11.7695
ev	-11.7715
▁inventor	-11.7726
▁essence	-11.774
▁helicopter	-11.774
▁neutral	-11.774
▁ensure	-11.774
▁spark	-11.774
▁naked	-11.774
▁unclear	-11.774
▁array	-11.7741
attractive	-11.7742
graph	-11.7743
▁proportion	-11.7744
▁combat	-11.7744
▁Va	-11.7744
▁compell	-11.7748
ads	-11.7755
▁None	-11.7779
BC	-11.7791
itch	-11.7811
nutrition	-11.783
oven	-11.783
▁hanging	-11.7834
▁sil	-11.7834
BI	-11.7844
▁drag	-11.7844
laughter	-11.7851
▁surrounding	-11.7851
▁Research	-11.7855
▁Blue	-11.7855
▁Octo	-11.7855
▁Uganda	-11.7855
▁dominant	-11.7855
▁northern	-11.7855
▁uncle	-11.7855
▁chao	-11.7855
▁neural	-11.7856
▁neck	-11.7856
▁pink	-11.7856
heimer	-11.7857
▁calculation	-11.7857
▁punch	-11.7858
▁smooth	-11.7859
▁rainforest	-11.7861
▁restore	-11.7864
cle	-11.7866
cher	-11.7868
▁synthetic	-11.7873
▁slides	-11.7885
elling	-11.7886
▁projection	-11.789
▁dish	-11.7892
ound	-11.7896
▁Love	-11.7899
ux	-11.7916
▁miner	-11.7926
▁Wall	-11.7945
connectiv	-11.7951
seas	-11.7961
▁motivate	-11.7966
▁destin	-11.797
▁circula	-11.7971
burst	-11.7971
▁breakthrough	-11.7971
▁reputation	-11.7971
▁interpret	-11.7973
▁lamp	-11.7975
born	-11.7975
▁dear	-11.7975
▁kiss	-11.798
▁recogniz	-11.7981
lect	-11.7981
▁auto	-11.7988
ank	-11.7998
ight	-11.7999
▁fed	-11.8012
org	-11.8022
▁experimental	-11.8025
▁Mother	-11.8043
▁mate	-11.8051
▁remov	-11.8058
root	-11.8058
▁leverage	-11.8078
power	-11.8079
sky	-11.8081
▁Swed	-11.8083
▁sacrifice	-11.8086
▁Smith	-11.8089
▁Vietnam	-11.8089
▁trajector	-11.8089
▁convey	-11.8089
▁plain	-11.8089
▁shrimp	-11.8089
▁basket	-11.8089
▁neuroscience	-11.809
▁paralyz	-11.809
▁contribution	-11.809
shot	-11.8092
▁Bible	-11.8093
▁intuition	-11.8096
pal	-11.8097
▁gear	-11.8098
▁twist	-11.81
▁highlight	-11.8101
▁agricultural	-11.8108
▁Span	-11.8112
crew	-11.8115
ram	-11.8117
▁investor	-11.8129
▁Dad	-11.8148
determined	-11.815
MA	-11.8157
▁Men	-11.8159
▁hyper	-11.8186
▁cooperati	-11.82
▁Gene	-11.8205
▁fulfill	-11.8206
▁relax	-11.8208
▁civic	-11.8208
▁explosion	-11.8208
▁sacred	-11.8208
▁translation	-11.8208
▁tragic	-11.8208
▁biodivers	-11.8208
▁Hello	-11.8208
▁Jewish	-11.8208
▁Nature	-11.8208
▁east	-11.8208
▁aircraft	-11.8209
▁concentration	-11.8209
▁baseball	-11.821
▁Long	-11.821
▁scann	-11.8213
nda	-11.8224
▁survivor	-11.823
▁Mon	-11.823
ez	-11.8232
rail	-11.8235
▁fortune	-11.8238
▁realm	-11.824
▁additional	-11.8251
▁marker	-11.8252
▁faci	-11.8256
▁slaver	-11.8264
▁mood	-11.8272
▁Child	-11.8274
az	-11.8283
▁repeated	-11.8289
▁Kan	-11.8292
▁mal	-11.8293
▁tricks	-11.8298
ov	-11.8298
▁preserv	-11.8313
▁rating	-11.8314
▁replicate	-11.8316
▁substance	-11.8328
▁Soviet	-11.8328
▁tunnel	-11.8328
▁comparison	-11.8328
▁routine	-11.8328
▁bullet	-11.8328
▁spell	-11.8329
▁glacier	-11.833
▁permission	-11.833
▁hid	-11.8342
MT	-11.835
bola	-11.8361
hu	-11.8371
▁shopp	-11.8378
▁branch	-11.8385
▁relations	-11.8394
▁pursue	-11.8398
▁copie	-11.841
▁Pre	-11.8415
▁slice	-11.8427
▁trends	-11.8433
▁min	-11.8439
▁bow	-11.8442
▁adjust	-11.8448
adding	-11.8448
cliff	-11.845
competitive	-11.845
▁aesthetic	-11.845
▁recipe	-11.845
▁robust	-11.845
▁glad	-11.845
▁broadcast	-11.845
▁sensation	-11.8451
▁Third	-11.8451
▁coach	-11.8452
▁portion	-11.8452
▁neat	-11.8454
▁decrease	-11.8455
▁Mac	-11.8456
▁upset	-11.8458
▁inch	-11.8463
▁queen	-11.8463
▁Sir	-11.8476
▁warning	-11.8478
▁demo	-11.8481
▁journal	-11.8482
▁thin	-11.8483
▁believ	-11.8491
tude	-11.8491
aving	-11.8526
▁tent	-11.8534
cause	-11.8535
▁Israeli	-11.8537
▁communicat	-11.8542
▁participat	-11.8549
▁package	-11.8555
bru	-11.8557
▁Obvious	-11.8573
▁confirm	-11.8573
▁alcohol	-11.8573
▁Design	-11.8573
▁Prince	-11.8574
▁Egyptian	-11.8574
▁tackle	-11.8576
▁Out	-11.8576
iff	-11.8586
▁southern	-11.8586
▁helpful	-11.8587
▁anonymous	-11.86
▁winner	-11.8606
tale	-11.8608
Y	-11.8616
runs	-11.8628
▁Ko	-11.8634
flu	-11.8634
part	-11.8658
▁terror	-11.8659
og	-11.8661
▁crossing	-11.8662
▁Moo	-11.8684
etic	-11.8696
▁Through	-11.8698
▁fragment	-11.8698
▁commodit	-11.8698
▁fraction	-11.8698
▁pandemic	-11.8698
▁simultaneous	-11.8698
▁Eastern	-11.8698
▁inherent	-11.8698
athlete	-11.8699
▁marry	-11.8699
▁tension	-11.8703
▁stole	-11.8706
▁failing	-11.8708
▁reactor	-11.8708
lent	-11.871
▁Tes	-11.8711
▁format	-11.8712
field	-11.8714
ome	-11.8717
▁pause	-11.872
ocin	-11.8725
▁sink	-11.8726
▁formula	-11.8728
iness	-11.8744
ologist	-11.8745
hildren	-11.8747
ney	-11.8752
▁hearts	-11.8765
bro	-11.8766
reasonable	-11.8769
mega	-11.8771
bla	-11.8773
▁contribut	-11.8775
▁personaliz	-11.8776
ush	-11.8786
view	-11.8807
static	-11.8808
▁inject	-11.8823
▁resident	-11.8825
pharmaceutical	-11.8825
▁expansion	-11.8825
▁fabulous	-11.8825
▁territor	-11.8825
▁threshold	-11.8825
▁tweet	-11.8825
▁luxur	-11.8825
▁vagina	-11.8825
physiolog	-11.8825
▁transcend	-11.8825
▁Should	-11.8825
▁signature	-11.8825
▁boil	-11.8826
▁keyboard	-11.8826
▁installation	-11.8827
▁agreement	-11.8831
▁constraint	-11.8835
▁fanc	-11.8835
▁Van	-11.8836
▁pathway	-11.8838
▁variable	-11.8839
uthern	-11.8843
ueen	-11.8846
▁soap	-11.8862
▁strip	-11.8865
vill	-11.8865
▁Pan	-11.8865
▁bat	-11.8873
▁Super	-11.8875
hur	-11.8876
bai	-11.888
▁burie	-11.8891
▁ratio	-11.8893
gging	-11.8894
▁acknowledge	-11.8898
▁traffick	-11.8903
▁Put	-11.8913
▁profession	-11.8919
disc	-11.8931
▁Cor	-11.8931
SE	-11.8934
▁computation	-11.8941
▁tribe	-11.8946
▁Court	-11.8953
▁chromosome	-11.8953
▁excuse	-11.8953
▁frequent	-11.8953
▁origami	-11.8953
▁structural	-11.8953
▁vacuum	-11.8953
▁Technolog	-11.8953
▁pioneer	-11.8953
▁dialogue	-11.8953
▁galler	-11.8953
▁bathroom	-11.8953
▁infant	-11.8953
▁collaborative	-11.8953
▁transmission	-11.8953
▁export	-11.8954
▁jelly	-11.8954
▁Prize	-11.8954
▁Rock	-11.8955
rctic	-11.8957
▁passive	-11.8958
▁dial	-11.8969
▁preserve	-11.897
▁twin	-11.8977
▁pet	-11.8989
▁underly	-11.8994
▁Sal	-11.9012
▁compete	-11.9013
cake	-11.9018
▁hypothesi	-11.9021
▁doors	-11.903
▁associate	-11.9044
path	-11.9045
▁cart	-11.9047
▁navigate	-11.9053
▁dictionar	-11.9057
▁magnet	-11.9081
▁Florid	-11.9083
▁Virgin	-11.9083
▁currenc	-11.9083
▁expedition	-11.9083
▁frustrate	-11.9083
▁serving	-11.9083
▁wheelchair	-11.9083
▁Gates	-11.9083
▁tendenc	-11.9084
▁garage	-11.9084
▁mask	-11.9084
▁peaceful	-11.9085
▁lethal	-11.9087
▁tribes	-11.9096
▁Dece	-11.9099
▁Fin	-11.91
atomic	-11.91
▁insist	-11.91
▁astonishing	-11.9101
▁pointed	-11.9126
rick	-11.9134
▁rape	-11.9139
▁Sure	-11.9139
▁rope	-11.9194
▁gathering	-11.9195
saw	-11.9195
▁plug	-11.9206
▁Video	-11.9215
▁drift	-11.9215
▁primitive	-11.9215
▁smartphone	-11.9215
▁automobile	-11.9215
▁mysterious	-11.9215
▁Rome	-11.9216
▁assignment	-11.9216
▁sauce	-11.9216
▁manual	-11.9217
▁ecolog	-11.9222
lace	-11.9225
▁Count	-11.9227
▁reliabl	-11.923
▁scanner	-11.9233
▁occasional	-11.9235
▁minim	-11.9242
▁slave	-11.9243
▁imag	-11.9247
lash	-11.9251
cons	-11.9252
entry	-11.9257
itarian	-11.926
▁oxy	-11.926
aged	-11.9261
▁enhance	-11.9271
▁Mal	-11.9296
amma	-11.9297
▁amaz	-11.9299
▁Mad	-11.9302
bot	-11.9303
erial	-11.9327
▁Harr	-11.9327
long	-11.9327
▁Home	-11.9333
▁shrink	-11.9348
▁immense	-11.9348
▁legislati	-11.9348
▁vulnerabilit	-11.9348
▁barrel	-11.9348
▁valley	-11.9348
▁winning	-11.9348
▁electrode	-11.9348
▁copyright	-11.9349
▁kidney	-11.9349
▁intersection	-11.9351
▁primari	-11.9356
▁native	-11.9384
▁dose	-11.9385
▁arise	-11.9389
atrix	-11.9393
course	-11.9406
nger	-11.9409
▁KB	-11.9421
▁rely	-11.9423
shed	-11.9425
▁def	-11.9427
play	-11.9432
▁mimic	-11.9445
▁choos	-11.9453
aunt	-11.9468
▁instinct	-11.9482
▁Profess	-11.9483
▁genocide	-11.9483
▁impression	-11.9483
▁annual	-11.9483
▁aggressive	-11.9483
▁stake	-11.9489
▁damn	-11.9489
▁bang	-11.949
▁Jesu	-11.9491
▁egg	-11.9493
▁Jack	-11.9497
corrupt	-11.9506
▁Hill	-11.9507
gg	-11.9515
ridge	-11.952
▁wrapp	-11.9541
▁degrad	-11.9542
▁poly	-11.9546
▁beer	-11.9548
▁Bas	-11.9549
grade	-11.9551
uk	-11.9558
erence	-11.9561
rous	-11.9562
▁joint	-11.9562
cats	-11.9607
▁Cal	-11.9609
och	-11.9617
▁recommend	-11.9619
▁horizon	-11.962
▁Beij	-11.962
▁Democrat	-11.962
▁intrigu	-11.962
distinguish	-11.962
▁August	-11.962
▁curricul	-11.962
▁beetle	-11.962
▁expectanc	-11.962
▁Sorry	-11.962
▁weekend	-11.962
▁Italian	-11.9621
▁Str	-11.9624
▁mindset	-11.9624
▁wrap	-11.9626
▁campus	-11.9626
▁ruin	-11.9627
tract	-11.963
▁hir	-11.965
frontal	-11.9652
▁award	-11.9653
glo	-11.9669
together	-11.9681
▁gods	-11.9682
▁determin	-11.9683
ple	-11.9691
▁dancer	-11.9691
nel	-11.9699
▁programmer	-11.9701
▁urge	-11.9707
▁god	-11.9722
mini	-11.9725
▁enabl	-11.9733
▁attribute	-11.9742
venue	-11.975
▁ethic	-11.9753
▁Seven	-11.9754
▁exhibit	-11.9756
▁Brown	-11.9759
▁Square	-11.9759
▁compromise	-11.9759
▁condom	-11.9759
▁grandparent	-11.9759
▁nonprofit	-11.9759
▁thrill	-11.9759
▁extension	-11.9759
▁ecological	-11.9759
▁architectural	-11.976
▁nuts	-11.9762
▁grasp	-11.9762
▁delight	-11.9762
▁crush	-11.9763
▁disconnect	-11.9764
▁biase	-11.9765
▁Philip	-11.9768
▁Ital	-11.9768
▁suggestion	-11.9771
PA	-11.9771
▁dumb	-11.9778
▁Sunday	-11.9778
▁wider	-11.9779
▁woke	-11.9789
▁Ken	-11.9797
▁opera	-11.9799
▁transmitt	-11.9807
▁pulse	-11.9818
▁reinvent	-11.9833
nar	-11.9835
▁sport	-11.9844
▁upside	-11.985
urg	-11.9853
▁Dere	-11.9857
▁Pop	-11.9861
▁Cro	-11.9876
ker	-11.9884
hol	-11.9896
spread	-11.9896
▁distinct	-11.9897
▁handed	-11.9899
▁Saturn	-11.99
▁TEDTalk	-11.99
▁audio	-11.99
▁crawl	-11.99
▁intensive	-11.99
▁spray	-11.99
▁shout	-11.9901
▁pride	-11.9901
▁contemporar	-11.9901
▁representative	-11.9901
▁interpretation	-11.9902
▁screw	-11.9905
▁shin	-11.9906
▁Swede	-11.9908
▁Yorker	-11.9911
▁duck	-11.9918
▁incident	-11.9927
▁chas	-11.994
▁Asian	-11.9969
▁drought	-11.9975
▁lean	-11.9975
zz	-11.9989
▁entit	-12.001
▁analyz	-12.0015
uction	-12.0028
▁import	-12.0031
▁metha	-12.0031
▁Pu	-12.0032
▁Edi	-12.0036
▁supplie	-12.0037
▁approv	-12.004
▁Silicon	-12.0043
▁cheese	-12.0043
▁gallon	-12.0043
▁innocent	-12.0043
▁microbial	-12.0043
▁supermarket	-12.0043
▁Northern	-12.0043
▁pigeon	-12.0043
▁Play	-12.0043
▁generous	-12.0044
▁marketplace	-12.0044
▁Open	-12.0048
▁detection	-12.0049
glasse	-12.005
▁drum	-12.0053
realistic	-12.0055
▁selfish	-12.0056
dec	-12.0057
ett	-12.0058
▁palm	-12.0061
▁bats	-12.0061
▁hackers	-12.0062
▁loving	-12.0064
▁Lad	-12.0065
▁parasite	-12.0071
▁tongue	-12.0073
▁fate	-12.0077
▁blend	-12.0077
diac	-12.0081
▁gase	-12.0082
▁integrate	-12.0087
▁silver	-12.009
aday	-12.0092
PR	-12.0093
▁prepare	-12.0093
▁pose	-12.0107
MS	-12.0111
▁investigat	-12.0121
▁manipulate	-12.0121
▁rivers	-12.0122
▁ignor	-12.0124
rum	-12.0135
oat	-12.0161
ives	-12.0161
down	-12.0172
convenient	-12.0188
▁bizarre	-12.0188
▁burden	-12.0188
▁millimeter	-12.0188
▁paradox	-12.0188
▁stunt	-12.0188
▁LED	-12.0188
▁clay	-12.0188
▁March	-12.0191
▁appearance	-12.0191
▁trash	-12.0194
▁resilienc	-12.0196
▁chat	-12.0204
han	-12.0207
▁mapping	-12.0222
▁formation	-12.0222
▁crop	-12.0233
▁producer	-12.0237
▁brutal	-12.0238
▁tile	-12.0241
cho	-12.0245
▁washing	-12.0247
lower	-12.0248
▁guns	-12.025
▁Medic	-12.0251
▁Kid	-12.0253
▁divid	-12.0253
▁creator	-12.0257
▁referr	-12.027
quot	-12.0275
educat	-12.0286
▁cosm	-12.03
▁Den	-12.0301
▁Eric	-12.0301
▁reproduce	-12.0302
▁occasion	-12.0313
▁Pat	-12.0317
ulation	-12.033
▁Mountain	-12.0335
▁enterprise	-12.0335
▁triangle	-12.0335
▁descend	-12.0335
▁Church	-12.0335
▁Wait	-12.0335
▁deforest	-12.0335
▁fraud	-12.0335
▁garbage	-12.0335
▁sponsor	-12.0335
▁unconscious	-12.0335
▁unprecedented	-12.0335
▁fool	-12.0335
▁Minister	-12.0335
▁antenna	-12.0335
heading	-12.0335
▁honey	-12.0335
▁pie	-12.0335
▁Republican	-12.0336
▁altitude	-12.0336
▁compress	-12.0336
▁primate	-12.0337
▁calori	-12.0338
▁advocate	-12.0338
▁shore	-12.0339
▁homework	-12.0341
▁manner	-12.0342
gentleman	-12.0343
RB	-12.0345
▁synthesiz	-12.0347
gel	-12.0355
▁statistical	-12.0359
BM	-12.0359
▁homeless	-12.0363
▁overwhelming	-12.0381
▁rotate	-12.0382
▁trad	-12.0413
▁goat	-12.0415
bone	-12.043
SW	-12.043
▁bored	-12.0432
▁soup	-12.0439
▁Chile	-12.0447
▁bind	-12.0451
▁LG	-12.0454
version	-12.046
▁exam	-12.0479
▁consist	-12.0483
▁retire	-12.0483
▁microphone	-12.0484
▁fence	-12.0484
▁venture	-12.0484
▁devil	-12.0484
▁mari	-12.0485
interrupt	-12.0485
▁Albert	-12.0485
▁Har	-12.0487
▁Lego	-12.0487
▁Hall	-12.0488
▁Com	-12.0489
▁jar	-12.049
▁shit	-12.0493
▁Uni	-12.0495
▁strategic	-12.0495
pping	-12.0496
▁Gold	-12.05
▁detector	-12.0502
▁beating	-12.0519
▁endless	-12.0528
▁ban	-12.0529
▁mobil	-12.0537
sale	-12.0543
gie	-12.0555
▁quantit	-12.0561
▁geo	-12.057
▁crap	-12.0575
▁caves	-12.0576
▁donat	-12.058
▁cod	-12.0601
cus	-12.0609
crow	-12.0627
▁blank	-12.0635
▁Bangladesh	-12.0635
▁striking	-12.0635
▁uniform	-12.0635
▁chamber	-12.0636
▁Palestinian	-12.0636
▁watt	-12.0636
▁comet	-12.0637
▁harness	-12.0637
▁hemisphere	-12.0637
▁besides	-12.0642
▁viewer	-12.0649
hold	-12.0655
▁dung	-12.0656
▁quad	-12.0658
▁Steven	-12.0661
▁bombs	-12.0662
▁Roo	-12.0696
▁uncertaint	-12.0696
ough	-12.0697
▁camel	-12.0702
▁refuse	-12.0709
eaten	-12.0709
▁fo	-12.0711
▁diagnosi	-12.0718
front	-12.0722
tooth	-12.0727
▁theori	-12.0761
▁historic	-12.0761
flo	-12.0768
▁developer	-12.0778
▁philanthrop	-12.0789
▁crystal	-12.0789
▁margin	-12.0789
▁cigarette	-12.0789
▁intimate	-12.0789
▁precious	-12.0789
▁recall	-12.0789
▁cotton	-12.0789
▁Listen	-12.0789
▁viral	-12.0789
▁rubber	-12.0789
▁kingdom	-12.079
▁girlfriend	-12.079
▁civilian	-12.0791
▁subway	-12.0793
▁defeat	-12.0795
▁elegant	-12.0798
▁friendship	-12.0798
▁replac	-12.0801
▁calm	-12.0801
▁deck	-12.0801
▁heavi	-12.0805
▁reflection	-12.0805
▁server	-12.0815
▁opt	-12.0818
▁wedding	-12.0819
flow	-12.0829
▁mud	-12.084
ER	-12.0845
▁distribute	-12.0848
ograph	-12.085
▁canop	-12.0851
▁delivery	-12.0853
▁dut	-12.0854
▁induc	-12.0875
▁explode	-12.0876
ult	-12.0883
▁sens	-12.0888
▁displac	-12.0895
▁equit	-12.0913
▁verb	-12.092
▁glamor	-12.0928
alo	-12.0929
▁Sara	-12.0933
▁formal	-12.0935
lum	-12.0935
aba	-12.0941
▁dispos	-12.0943
▁psycho	-12.0945
▁magni	-12.0945
▁ceremon	-12.0946
▁diamond	-12.0946
▁impressive	-12.0946
▁membrane	-12.0946
▁spontaneous	-12.0946
▁terrifying	-12.0946
▁tsunami	-12.0946
▁acoustic	-12.0946
▁indigen	-12.0946
▁flaw	-12.0946
▁Until	-12.0946
▁Alexand	-12.0946
▁exposure	-12.0946
▁sketch	-12.0946
▁torture	-12.0946
nforcement	-12.0946
▁unfold	-12.0947
▁Iranian	-12.0947
▁Mike	-12.0947
ropical	-12.0948
▁addiction	-12.0948
▁Santa	-12.0949
▁temporar	-12.0951
▁aspiration	-12.0969
evel	-12.0974
▁Brun	-12.0975
▁interior	-12.0975
▁wandering	-12.0978
▁trapp	-12.0981
▁bold	-12.0983
ou	-12.0983
j	-12.0989
▁Monte	-12.0989
rod	-12.099
▁Henr	-12.0997
▁whistle	-12.0998
▁logo	-12.1009
▁mat	-12.1011
food	-12.1012
blo	-12.1024
▁imager	-12.1033
▁sanit	-12.1053
lov	-12.1053
gal	-12.1055
▁eradicat	-12.1057
▁Fortun	-12.1059
estate	-12.1062
bab	-12.1071
ibilit	-12.1076
lief	-12.1077
▁acquire	-12.1088
▁assemble	-12.1091
▁purchase	-12.1098
▁assign	-12.1104
▁Friday	-12.1104
▁awkward	-12.1104
▁centimeter	-12.1104
▁sufficient	-12.1104
▁suspend	-12.1104
▁theoretical	-12.1104
▁Taliban	-12.1104
▁unemploy	-12.1104
▁Dutch	-12.1104
▁Leonard	-12.1104
ealand	-12.1105
▁chunk	-12.1105
▁Mandel	-12.1105
▁bedroom	-12.1105
▁Homo	-12.1105
▁retirement	-12.1106
▁steer	-12.1106
evit	-12.1106
▁pond	-12.1106
▁Brazilian	-12.1106
▁align	-12.1107
▁specialist	-12.111
▁Marc	-12.1114
▁Work	-12.1115
rays	-12.1116
▁Moon	-12.112
▁typ	-12.1123
▁update	-12.1124
▁astronomer	-12.1134
▁upload	-12.114
▁bust	-12.1141
pinning	-12.1145
▁Rob	-12.1149
erry	-12.1154
LT	-12.1158
▁hunter	-12.1162
▁Inter	-12.1163
fare	-12.1175
sati	-12.118
▁span	-12.1203
▁concentrate	-12.1213
ich	-12.1216
▁commit	-12.1226
▁accelerate	-12.1232
▁Gar	-12.1235
▁prop	-12.1239
▁por	-12.1241
▁Win	-12.1251
▁Matt	-12.1254
▁liberat	-12.1263
▁maxim	-12.1265
▁Gab	-12.1265
▁genuine	-12.1266
▁substantial	-12.1266
▁Council	-12.1266
▁Peace	-12.1266
▁Saudi	-12.1266
▁amateur	-12.1266
▁collision	-12.1266
▁contrar	-12.1266
▁despair	-12.1266
▁redesign	-12.1266
▁straightforward	-12.1266
▁chronic	-12.1266
▁confine	-12.1266
▁Jew	-12.1266
legitimate	-12.1266
▁geek	-12.1266
controversial	-12.1266
▁mild	-12.1266
▁propaga	-12.1266
▁cruel	-12.1266
▁excellen	-12.1266
▁executive	-12.1266
▁proposition	-12.1266
▁archive	-12.1267
▁proposal	-12.1267
▁Eight	-12.1267
▁Gandhi	-12.1268
▁Kev	-12.1269
▁celebrat	-12.1273
▁calculat	-12.1274
▁leather	-12.1274
▁workplace	-12.1275
▁fertilizer	-12.1278
▁administration	-12.1287
▁Korean	-12.1287
▁bowl	-12.1291
▁nerd	-12.1293
hor	-12.1304
▁concentrat	-12.1316
▁smil	-12.1326
▁ego	-12.1327
▁rebel	-12.133
▁Bell	-12.133
▁landing	-12.1338
▁Roman	-12.1345
▁logg	-12.1347
▁prior	-12.1368
▁beam	-12.1379
▁Ever	-12.1394
cted	-12.1395
unk	-12.1407
ff	-12.1407
▁offering	-12.1409
mite	-12.1419
▁trauma	-12.1429
▁Jeff	-12.1429
▁Argentin	-12.143
▁Watch	-12.143
▁dilemma	-12.143
▁phosphor	-12.143
▁Social	-12.143
▁Tanzania	-12.143
▁deliberate	-12.143
▁inherit	-12.143
▁Brian	-12.143
▁fault	-12.143
▁mutual	-12.143
▁banana	-12.143
▁Twenty	-12.143
▁loose	-12.143
▁diagnostic	-12.143
▁pursuit	-12.143
▁ongoing	-12.1431
▁texture	-12.1431
▁punishment	-12.1431
▁blah	-12.1431
▁brick	-12.1431
▁coca	-12.1431
tolerance	-12.1432
▁insane	-12.1433
▁vot	-12.1434
▁Josh	-12.1434
▁Year	-12.1436
▁downtown	-12.144
▁ideolog	-12.1444
▁bush	-12.1447
▁yoursel	-12.1448
▁comp	-12.145
▁Ray	-12.145
▁upward	-12.1451
▁prepar	-12.1458
▁fired	-12.1461
▁ethnic	-12.1462
▁patch	-12.1463
rib	-12.1469
▁bull	-12.1481
▁camps	-12.1484
▁criticiz	-12.1499
▁virtue	-12.1503
nal	-12.1507
▁Carolin	-12.1517
ifying	-12.152
▁regulate	-12.1538
▁transmit	-12.1539
▁overwhelm	-12.1544
▁monitoring	-12.155
ggle	-12.1568
▁assist	-12.1574
▁storytell	-12.1577
▁Bor	-12.1584
▁disagree	-12.1595
▁punish	-12.1595
▁hierarch	-12.1596
▁drown	-12.1596
▁Academ	-12.1596
▁Bronx	-12.1596
▁cricket	-12.1596
▁encrypt	-12.1596
▁endanger	-12.1596
▁exclusive	-12.1596
▁pencil	-12.1596
▁tattoo	-12.1596
▁scheme	-12.1596
▁Lord	-12.1596
▁monster	-12.1596
▁hydro	-12.1596
thermal	-12.1597
▁Compan	-12.1597
▁Doctor	-12.1597
▁deaf	-12.1598
▁Lake	-12.1599
▁strain	-12.1599
▁Johnson	-12.16
▁collaborator	-12.16
▁frontier	-12.16
▁assure	-12.16
▁minorit	-12.1601
▁dawn	-12.1601
onica	-12.1603
▁dragg	-12.161
gli	-12.1614
▁compet	-12.1615
▁shak	-12.162
▁sixth	-12.1626
▁dominat	-12.163
▁dare	-12.1639
eastern	-12.1645
▁anticipate	-12.1648
▁visualize	-12.1652
▁tagg	-12.1655
pine	-12.1657
▁AK	-12.1663
onia	-12.1693
▁Shi	-12.1698
▁bite	-12.172
▁Sad	-12.1721
iel	-12.1743
▁bless	-12.1745
▁accus	-12.1752
▁ambitio	-12.1754
xcept	-12.1759
▁Nel	-12.1759
▁reconstruct	-12.1764
▁flourish	-12.1766
▁iPod	-12.1766
▁pedestrian	-12.1766
▁Shanghai	-12.1766
▁System	-12.1766
▁absence	-12.1766
▁division	-12.1766
▁encouraging	-12.1766
▁principal	-12.1766
▁stomach	-12.1766
▁Indonesia	-12.1766
▁distort	-12.1766
▁casual	-12.1766
▁Media	-12.1766
▁foster	-12.1766
▁Way	-12.1766
▁kilo	-12.1767
▁artwork	-12.1769
▁Die	-12.177
▁miserable	-12.1771
▁requirement	-12.1774
▁Mor	-12.1775
▁feminist	-12.1775
▁Newton	-12.1779
▁phenomenal	-12.178
▁interconnected	-12.1786
▁Ford	-12.1788
▁hub	-12.1794
▁Rose	-12.1799
▁radi	-12.18
▁jam	-12.1805
▁Penn	-12.1807
obi	-12.1809
compos	-12.1812
▁ugl	-12.1814
phy	-12.1818
▁starv	-12.1819
tlantic	-12.1831
▁institutional	-12.1842
tting	-12.1844
fold	-12.1852
mann	-12.1854
▁manufacturer	-12.1861
pati	-12.1868
▁dropping	-12.1878
▁tubes	-12.1891
▁eliminate	-12.1894
▁tone	-12.19
▁phenomena	-12.1924
▁electro	-12.1928
▁outer	-12.1929
nny	-12.1932
ench	-12.1936
scope	-12.1938
▁Snow	-12.1938
▁Sudden	-12.1938
▁dopamine	-12.1938
▁junk	-12.1938
▁parachute	-12.1938
▁pizza	-12.1938
▁receptor	-12.1938
▁syndrome	-12.1938
▁tutor	-12.1938
▁suppress	-12.1938
▁backyard	-12.1938
▁Half	-12.1939
▁applau	-12.1939
▁trivial	-12.1939
▁horizontal	-12.1939
entropy	-12.1939
▁Nick	-12.1939
▁disabl	-12.194
▁minus	-12.1942
ndustrial	-12.1945
▁stamp	-12.1945
▁ironic	-12.1948
lab	-12.1948
▁simulate	-12.1948
ubb	-12.198
▁specializ	-12.1982
▁swing	-12.199
mart	-12.1997
drew	-12.2003
▁Jane	-12.201
▁Sur	-12.2014
▁relation	-12.2014
sea	-12.204
oma	-12.2041
uke	-12.2069
▁sequenc	-12.2082
▁exhaust	-12.2082
▁shower	-12.2083
▁vari	-12.2089
▁Lar	-12.2096
▁teenage	-12.2108
▁Fey	-12.2111
▁champion	-12.2113
▁fantas	-12.2113
adequate	-12.2114
▁Government	-12.2114
▁Neanderthal	-12.2114
▁Swiss	-12.2114
▁breakfast	-12.2114
▁diameter	-12.2114
▁explicit	-12.2114
▁phantom	-12.2114
▁prescription	-12.2114
▁retreat	-12.2114
▁fusion	-12.2114
▁delay	-12.2114
▁occupy	-12.2114
▁Thai	-12.2114
▁Koran	-12.2114
▁brush	-12.2115
▁riot	-12.2115
▁carpet	-12.2117
▁Stop	-12.2117
q	-12.2118
▁fatal	-12.2124
atur	-12.2125
▁ambition	-12.2127
▁partial	-12.213
▁angel	-12.2131
▁filmmaker	-12.2137
▁purpl	-12.214
giv	-12.2142
▁unhapp	-12.2144
diagnose	-12.2145
▁popp	-12.215
cover	-12.2169
▁blogs	-12.2174
▁Force	-12.2176
wid	-12.2176
▁Cu	-12.2178
stan	-12.2178
▁shoe	-12.2195
▁seeming	-12.2197
▁captur	-12.2198
echo	-12.2205
▁cue	-12.2208
▁Nove	-12.2209
tta	-12.2213
▁ripp	-12.2236
▁Syria	-12.2267
▁documentar	-12.2276
▁approache	-12.2278
▁mall	-12.228
ollege	-12.2286
▁Leban	-12.2292
▁declare	-12.2292
▁astronaut	-12.2292
▁Michel	-12.2292
▁celebrit	-12.2292
▁hybrid	-12.2292
▁temple	-12.2292
▁drunk	-12.2292
▁lobby	-12.2292
▁ubiquitous	-12.2292
▁proceed	-12.2292
▁wheat	-12.2292
volt	-12.2292
▁articulat	-12.2292
▁emphasize	-12.2292
▁harmon	-12.2292
▁Brother	-12.2293
▁infectious	-12.2293
▁candle	-12.2293
▁Cuba	-12.2293
▁stumbl	-12.2294
▁prostate	-12.2294
▁thread	-12.2294
▁Histor	-12.2294
▁canvas	-12.2294
▁mainstream	-12.2294
▁steam	-12.2295
▁naive	-12.2295
▁automat	-12.2296
▁investigation	-12.2298
▁outbreak	-12.2299
▁grabb	-12.2301
▁tiger	-12.2302
▁freeze	-12.2302
▁sneaker	-12.231
▁Try	-12.2315
▁nano	-12.232
▁vary	-12.232
▁singer	-12.2325
faction	-12.2327
ional	-12.2344
▁worrying	-12.2345
▁Rand	-12.2353
▁embrac	-12.236
case	-12.2363
ica	-12.2364
▁deposit	-12.2368
▁branche	-12.2388
eur	-12.239
▁Bee	-12.2397
▁Andrew	-12.2398
▁earning	-12.242
▁Bat	-12.2421
location	-12.2444
▁spike	-12.2453
▁lonel	-12.2453
▁motivat	-12.246
▁geograph	-12.247
▁potato	-12.2474
▁obtain	-12.2474
▁schedul	-12.2474
▁Hawaii	-12.2474
▁Jordan	-12.2474
▁chimp	-12.2474
▁enzyme	-12.2474
▁flavor	-12.2474
▁frustration	-12.2474
▁segment	-12.2474
▁swallow	-12.2474
▁terrain	-12.2474
▁illuminat	-12.2474
▁Aristot	-12.2474
riving	-12.2474
▁magnificent	-12.2474
▁grocer	-12.2474
▁optical	-12.2474
▁repli	-12.2475
▁distinction	-12.2476
▁visualization	-12.2477
▁pipeline	-12.248
▁strict	-12.2484
▁Rather	-12.2485
▁Show	-12.2492
▁Eve	-12.2497
▁shy	-12.2501
▁Carl	-12.2506
▁devastating	-12.2514
gin	-12.2527
▁belt	-12.2527
gro	-12.2532
horn	-12.2543
TI	-12.2543
▁employer	-12.2548
▁cube	-12.2552
▁cooperate	-12.2567
lop	-12.2572
▁container	-12.259
▁maker	-12.2598
pollut	-12.2604
unch	-12.2613
gras	-12.2613
▁flags	-12.2614
AM	-12.2615
▁Mart	-12.2625
▁schizophreni	-12.2656
▁Fift	-12.2658
▁bribe	-12.2658
▁Accord	-12.2659
▁Keep	-12.2659
▁Securit	-12.2659
▁artifact	-12.2659
▁diarrhea	-12.2659
▁discriminati	-12.2659
▁divorce	-12.2659
▁empire	-12.2659
▁horror	-12.2659
▁satisfy	-12.2659
▁sibling	-12.2659
▁vacation	-12.2659
▁warrior	-12.2659
▁multiply	-12.2659
▁jazz	-12.2659
▁Coke	-12.2659
▁cream	-12.2659
▁indoor	-12.2659
eague	-12.2659
▁sidewalk	-12.266
▁migration	-12.266
▁negotiation	-12.2661
▁spacecraft	-12.2662
▁Port	-12.2663
▁pirate	-12.2663
▁denial	-12.2663
▁readers	-12.2663
▁Berli	-12.2666
▁unlock	-12.2666
▁sperm	-12.2666
▁Ven	-12.267
▁Fo	-12.2674
▁Has	-12.2675
ku	-12.2676
▁glamo	-12.268
▁workshop	-12.268
▁fur	-12.268
therland	-12.2689
▁Pri	-12.2689
ora	-12.269
▁collaborate	-12.2694
▁Roy	-12.2708
▁screaming	-12.2708
▁tide	-12.2714
▁glue	-12.2721
▁germ	-12.2724
▁Pol	-12.2725
ological	-12.2732
▁Tony	-12.2737
▁association	-12.2737
pod	-12.275
ulate	-12.2755
void	-12.2758
▁Hav	-12.2764
▁trap	-12.2765
▁Mum	-12.2774
▁Bab	-12.2786
western	-12.2789
▁processor	-12.279
▁accumulate	-12.2798
aff	-12.2799
▁Hans	-12.2808
PC	-12.2811
▁Turns	-12.2819
▁sew	-12.2831
▁banker	-12.2831
kill	-12.2836
▁transit	-12.2842
▁pollinat	-12.2844
▁settl	-12.2846
▁accura	-12.2847
▁Business	-12.2848
▁libert	-12.2848
▁marathon	-12.2848
▁Catholic	-12.2848
▁approximate	-12.2848
▁embryo	-12.2848
▁incarcerat	-12.2848
▁jihad	-12.2848
▁peculiar	-12.2848
▁spiral	-12.2848
▁summit	-12.2848
▁whisper	-12.2848
▁psychopath	-12.2848
▁Portug	-12.2848
▁lifespan	-12.2848
▁Probab	-12.2849
▁destination	-12.285
▁disrupt	-12.2851
▁probe	-12.2852
▁Stage	-12.2853
▁chase	-12.2857
lves	-12.286
regulat	-12.2863
▁realization	-12.2869
▁participati	-12.2871
pend	-12.2873
vian	-12.2881
▁Nigerian	-12.2883
bag	-12.2885
▁embarrassing	-12.289
▁rang	-12.2894
▁erect	-12.2905
▁kidd	-12.2907
▁lap	-12.2909
foot	-12.2911
▁rethink	-12.2914
▁Ala	-12.2925
▁promot	-12.2927
▁useless	-12.293
▁founder	-12.2945
leg	-12.2954
una	-12.2957
lanes	-12.2958
▁Bio	-12.296
▁Cyr	-12.296
berg	-12.2962
▁surf	-12.2964
▁deni	-12.2967
▁Fil	-12.298
hou	-12.2983
▁tablet	-12.2987
▁triple	-12.2992
impos	-12.2993
ith	-12.2995
JA	-12.2997
▁independen	-12.3002
sburg	-12.3006
rah	-12.3011
heart	-12.3017
cou	-12.3026
▁negotiate	-12.3027
witzer	-12.303
▁orient	-12.3039
lihood	-12.3039
eith	-12.304
▁stereotype	-12.304
▁episode	-12.304
▁impulse	-12.304
▁translator	-12.304
▁Yemen	-12.304
▁correlation	-12.304
▁glimpse	-12.304
▁harbor	-12.304
▁veteran	-12.304
racial	-12.304
▁Abraham	-12.304
▁outdoor	-12.304
▁augment	-12.304
▁wrestl	-12.304
▁therapist	-12.304
▁summarize	-12.3041
▁prospect	-12.3041
▁Nike	-12.3041
▁Redwood	-12.3041
lium	-12.3041
▁harmful	-12.3041
▁Hope	-12.3041
▁Still	-12.3041
▁separation	-12.3042
▁derive	-12.3043
▁informal	-12.3043
motive	-12.3043
sulin	-12.3044
▁insert	-12.3044
▁boost	-12.3044
▁invitation	-12.3044
▁Alex	-12.3045
▁dependenc	-12.3046
▁jaw	-12.3046
▁intrinsic	-12.3051
▁MK	-12.3061
▁Mean	-12.3066
▁sir	-12.307
▁Bru	-12.3075
▁bann	-12.3083
▁Hol	-12.3083
▁Australian	-12.3084
▁sweep	-12.31
▁overhead	-12.3104
▁chemist	-12.3119
ergy	-12.3153
▁demonstrat	-12.3153
▁impose	-12.3153
integration	-12.3157
▁practic	-12.3157
apes	-12.3178
▁drain	-12.3178
▁verbal	-12.318
▁scream	-12.3184
▁diploma	-12.3197
▁cope	-12.3203
▁graduat	-12.321
▁Ti	-12.3219
ogether	-12.3224
▁char	-12.3225
▁psychiatr	-12.3235
▁consult	-12.3236
petition	-12.3236
▁contest	-12.3236
▁Absolute	-12.3236
▁Clinton	-12.3236
▁Coast	-12.3236
▁Saturday	-12.3236
▁Singapore	-12.3236
▁envelope	-12.3236
▁neocort	-12.3236
▁nitrogen	-12.3236
▁welfare	-12.3236
▁Louis	-12.3236
▁Pretty	-12.3236
▁Telescope	-12.3236
▁creep	-12.3236
▁Berk	-12.3236
▁priest	-12.3236
▁retail	-12.3236
▁Geograph	-12.3236
▁puppet	-12.3237
▁juice	-12.3237
▁hint	-12.3237
▁intensit	-12.3237
▁exot	-12.3238
potent	-12.3239
▁donation	-12.324
▁guest	-12.324
▁TEDster	-12.3241
▁Kar	-12.3243
▁settle	-12.3244
▁playful	-12.3256
▁payment	-12.3256
▁nast	-12.3272
complete	-12.3274
▁vaccin	-12.3284
▁prayer	-12.3286
ctor	-12.3288
▁wip	-12.3292
propos	-12.3293
▁Ja	-12.3302
assum	-12.332
▁investigate	-12.3322
far	-12.3336
▁requir	-12.3339
▁boot	-12.3351
▁explorer	-12.3355
▁vent	-12.3374
▁convention	-12.3377
uous	-12.3399
▁Gree	-12.3409
culture	-12.3411
genesis	-12.3435
▁Detroit	-12.3436
▁Organization	-12.3436
▁Societ	-12.3436
▁Stephen	-12.3436
▁corridor	-12.3436
▁cylinder	-12.3436
▁default	-12.3436
▁gorgeous	-12.3436
▁protocell	-12.3436
▁Shakespeare	-12.3436
▁arrang	-12.3436
▁scrap	-12.3436
▁victor	-12.3436
▁wrist	-12.3436
▁introduction	-12.3437
▁Spring	-12.3437
▁conceptual	-12.3437
▁contradiction	-12.3437
▁toxin	-12.3437
▁gluco	-12.3437
ounce	-12.3438
▁timing	-12.3438
▁flesh	-12.3439
▁cosmo	-12.344
▁Mexican	-12.3441
▁shocking	-12.3442
▁Kh	-12.3442
▁atheist	-12.3444
nman	-12.3447
▁Jones	-12.3457
▁mesh	-12.3466
▁persuade	-12.3473
illa	-12.3477
▁Amy	-12.3479
▁Shar	-12.3484
▁tire	-12.3485
▁eliminat	-12.3488
▁salar	-12.349
Map	-12.35
gua	-12.351
▁lotter	-12.3511
oto	-12.3514
ada	-12.3524
roid	-12.3528
▁shap	-12.3562
▁innovate	-12.3568
▁moralit	-12.3576
coli	-12.3581
hum	-12.3589
ase	-12.359
▁meta	-12.3597
kar	-12.3605
▁flipp	-12.3611
Bot	-12.3613
▁bioma	-12.3622
▁Young	-12.3629
walk	-12.3632
▁Vin	-12.3637
▁convict	-12.3638
▁violat	-12.3638
▁scholar	-12.364
▁depriv	-12.364
▁Apri	-12.364
▁Civil	-12.364
▁DVD	-12.364
▁Parkinson	-12.364
▁Watson	-12.364
▁abundance	-12.364
▁assault	-12.364
▁beneficia	-12.364
▁inhibit	-12.364
▁migrant	-12.364
▁remix	-12.364
▁scaffold	-12.364
▁crab	-12.364
▁modest	-12.364
▁thrive	-12.364
▁dispers	-12.364
▁Daniel	-12.364
▁warehouse	-12.3641
▁Development	-12.3641
▁consent	-12.3641
▁blob	-12.3641
▁Pitt	-12.3641
▁philosophical	-12.3641
differentiate	-12.3641
▁firefl	-12.3642
strong	-12.3642
▁Lester	-12.3642
plankt	-12.3642
ima	-12.3643
▁heritage	-12.3643
▁decent	-12.3643
▁elevator	-12.3644
▁Music	-12.3647
▁sake	-12.3647
▁juggl	-12.3648
▁tele	-12.3648
istine	-12.365
▁trailer	-12.3653
▁Acc	-12.3653
▁bacterial	-12.3656
▁tun	-12.3657
▁semi	-12.3661
▁computational	-12.3664
▁forbid	-12.3666
▁zoo	-12.3667
▁stimulate	-12.3668
iful	-12.3674
bil	-12.3682
▁Cel	-12.3686
▁critic	-12.3691
rich	-12.3692
▁helpless	-12.3697
▁warmer	-12.3702
▁boots	-12.3734
▁delicio	-12.375
burg	-12.375
pun	-12.3755
▁bleed	-12.3759
▁squeeze	-12.3762
▁Ask	-12.3768
▁heel	-12.3782
▁anticipat	-12.3784
▁taxe	-12.3784
▁Para	-12.3784
▁Scot	-12.3808
▁carve	-12.382
▁provider	-12.3826
▁precis	-12.3831
▁resilien	-12.3836
▁Han	-12.3842
▁cockroach	-12.3849
openha	-12.3849
▁Benjam	-12.3849
▁Supreme	-12.3849
▁album	-12.3849
▁confess	-12.3849
▁consensu	-12.3849
▁criteri	-12.3849
▁elaborate	-12.3849
▁endeavor	-12.3849
▁expense	-12.3849
▁intact	-12.3849
▁maneuver	-12.3849
▁neuroscientist	-12.3849
▁preference	-12.3849
▁stabilize	-12.3849
vascular	-12.3849
▁Interesting	-12.3849
▁Office	-12.3849
▁irrational	-12.3849
▁nightmare	-12.3849
▁sovereign	-12.3849
▁defining	-12.3849
▁flame	-12.3849
▁utilit	-12.3849
▁Iceland	-12.3849
▁hostile	-12.3849
▁Water	-12.3849
▁smash	-12.3849
▁Rick	-12.3852
bury	-12.3853
▁intent	-12.3855
▁pathogen	-12.3856
▁Bra	-12.3856
opper	-12.3857
▁preach	-12.3857
▁fluorescent	-12.3859
▁coverage	-12.386
ivor	-12.3862
▁Old	-12.3864
▁separat	-12.3864
▁vibration	-12.3864
configuration	-12.3867
▁Jona	-12.3868
midst	-12.387
▁hopeless	-12.3875
RS	-12.3875
▁fever	-12.3877
▁scaling	-12.3894
▁expose	-12.3896
lick	-12.39
▁Litt	-12.3911
▁Mill	-12.3912
▁Kenn	-12.3947
▁meditat	-12.395
posed	-12.3961
▁spine	-12.3965
▁aggregate	-12.3982
▁rear	-12.3987
▁wow	-12.3989
▁lawn	-12.3991
eley	-12.3997
paste	-12.4002
▁render	-12.4009
conceive	-12.4018
ament	-12.4019
finish	-12.4026
▁arter	-12.4027
▁Op	-12.4031
busi	-12.4033
▁cru	-12.4037
cker	-12.4041
▁bounce	-12.4041
▁panic	-12.4051
▁skelet	-12.4057
▁enthusias	-12.406
▁forgive	-12.4061
▁volcano	-12.4061
▁Milk	-12.4061
▁Secret	-12.4061
▁adolescent	-12.4061
▁affair	-12.4061
▁arrangement	-12.4061
▁bamboo	-12.4061
▁bioluminescen	-12.4061
▁headquarter	-12.4061
▁prosthetic	-12.4061
▁transistor	-12.4061
▁Education	-12.4061
▁monument	-12.4061
▁deficit	-12.4061
▁vocal	-12.4061
▁steep	-12.4061
▁kilogram	-12.4062
▁cheer	-12.4062
▁deception	-12.4062
▁hallucination	-12.4062
▁Light	-12.4062
▁execution	-12.4062
▁Canadian	-12.4063
▁index	-12.4063
▁selective	-12.4063
▁Trad	-12.4063
▁Kong	-12.4064
▁USA	-12.4065
▁swo	-12.4065
▁pigment	-12.4065
▁adaptation	-12.4068
▁Cape	-12.4076
▁blast	-12.4078
▁arena	-12.4078
▁Nata	-12.4081
▁eternal	-12.4082
▁operator	-12.4085
▁basement	-12.4087
tification	-12.4091
▁Syrian	-12.4092
▁Goal	-12.4093
▁Terr	-12.4095
▁thus	-12.4103
▁Move	-12.4104
▁capitalist	-12.4106
▁cookie	-12.4107
▁similarit	-12.4108
▁belly	-12.4113
▁globaliz	-12.4126
▁stimul	-12.4134
▁prescrib	-12.4134
▁perceiv	-12.4137
▁conc	-12.4138
bon	-12.4139
umbl	-12.4141
▁Fort	-12.4143
▁refine	-12.4145
ogen	-12.4159
▁melting	-12.4174
▁refus	-12.418
▁prey	-12.4182
ette	-12.4228
larity	-12.4228
▁Lot	-12.4246
racing	-12.4266
▁Par	-12.4267
▁elevat	-12.4272
SM	-12.4276
▁distract	-12.4277
wipe	-12.4278
▁assistan	-12.4278
▁Titan	-12.4278
▁Disney	-12.4279
▁anniversar	-12.4279
▁constitution	-12.4279
▁entrance	-12.4279
▁inclusive	-12.4279
▁Journal	-12.4279
▁Natural	-12.4279
▁generic	-12.4279
▁transaction	-12.4279
▁voluntar	-12.4279
▁locomoti	-12.4279
▁pleasant	-12.4279
▁staircase	-12.4279
▁depict	-12.4279
▁chew	-12.4279
▁forecast	-12.4279
▁vivid	-12.4279
▁bucket	-12.4279
▁harsh	-12.4279
▁blade	-12.428
▁immortal	-12.4282
▁odor	-12.4282
▁gross	-12.4283
▁ooh	-12.4283
▁accountabilit	-12.4283
▁replacement	-12.4283
▁progressive	-12.4284
erusal	-12.4284
▁Say	-12.4284
▁penis	-12.4286
▁subjective	-12.4287
▁passage	-12.4292
▁dough	-12.4294
tub	-12.4297
▁tenth	-12.4297
▁Columbia	-12.4298
▁storyteller	-12.4306
▁stare	-12.4307
▁Walk	-12.4312
▁hut	-12.4316
▁Pass	-12.432
▁Yo	-12.4321
▁obsession	-12.4322
mund	-12.4329
lav	-12.4329
▁couch	-12.4332
chu	-12.4338
▁JF	-12.4338
▁Sound	-12.4338
traction	-12.434
▁tourist	-12.4347
▁Arabia	-12.4348
▁voter	-12.4368
▁Rais	-12.439
▁valid	-12.4401
weight	-12.4401
▁transferr	-12.4423
economic	-12.4426
▁journalis	-12.4437
▁advis	-12.444
HC	-12.4446
rock	-12.4447
master	-12.4459
▁masse	-12.4463
▁Job	-12.4463
constrain	-12.4484
▁Phil	-12.4486
▁spare	-12.449
viv	-12.4495
▁compute	-12.4498
▁initiat	-12.45
▁contemplat	-12.4501
▁Computer	-12.4501
▁rabbit	-12.4501
▁underestimate	-12.4501
▁taboo	-12.4501
▁virgin	-12.4501
qualifie	-12.4501
▁Apollo	-12.4501
▁Similar	-12.4501
▁democratiz	-12.4501
▁infra	-12.4501
▁collar	-12.4501
▁destructive	-12.4501
▁retain	-12.4501
▁shatter	-12.4501
▁tomato	-12.4501
▁Charli	-12.4501
▁headache	-12.4501
▁Machine	-12.4501
▁swarm	-12.4502
▁inflation	-12.4502
▁illustration	-12.4502
▁accent	-12.4502
▁worship	-12.4502
▁Got	-12.4502
▁refrigerator	-12.4504
▁lobe	-12.4505
▁Earl	-12.4507
▁asthma	-12.4511
▁vice	-12.4515
▁Bern	-12.4515
▁Plan	-12.4519
ature	-12.4534
▁airline	-12.4535
▁migrate	-12.4541
▁accidental	-12.455
mates	-12.4555
lept	-12.4556
blew	-12.4568
pu	-12.4576
cock	-12.4576
▁visitor	-12.4577
otto	-12.4577
▁snap	-12.4579
App	-12.458
animate	-12.4606
ternet	-12.4618
RA	-12.4618
▁decid	-12.4618
▁animat	-12.4625
▁mum	-12.4629
▁Brad	-12.463
lau	-12.4635
▁MR	-12.4644
boat	-12.4644
▁jur	-12.4648
examine	-12.4649
▁Ron	-12.4664
▁microscop	-12.4664
▁poke	-12.4665
▁unst	-12.4671
trol	-12.4685
▁astronom	-12.4686
▁filling	-12.4687
bing	-12.4687
ndi	-12.4691
AG	-12.4698
▁Under	-12.4702
▁warn	-12.4719
trips	-12.4724
▁reporter	-12.4728
▁controvers	-12.4728
▁McDonald	-12.4728
▁alphabet	-12.4728
▁envision	-12.4728
▁favela	-12.4728
▁festival	-12.4728
▁immigrant	-12.4728
▁jungle	-12.4728
▁juvenile	-12.4728
▁pixel	-12.4728
▁stagger	-12.4728
▁trunk	-12.4728
▁chef	-12.4728
▁mosque	-12.4728
▁stunn	-12.4728
▁numer	-12.4728
▁spouse	-12.4728
▁exceed	-12.4728
compatib	-12.4728
▁parliament	-12.4729
▁macro	-12.4729
▁loyal	-12.4729
▁stain	-12.4729
▁towel	-12.4729
▁tapir	-12.4729
▁opposition	-12.473
▁recession	-12.473
▁Power	-12.473
uite	-12.4731
▁celebration	-12.4731
▁browser	-12.4731
▁stimulation	-12.4732
▁greet	-12.4732
▁indicator	-12.4733
wan	-12.4733
brew	-12.4734
▁bonus	-12.4734
▁Phila	-12.4735
▁crude	-12.4737
▁slope	-12.4738
▁historian	-12.4739
▁Chi	-12.4739
▁overlap	-12.4739
tenance	-12.4741
urgenc	-12.4749
elphi	-12.475
▁plea	-12.4753
ventual	-12.4753
▁Stone	-12.4757
▁intervene	-12.4764
▁alike	-12.4774
securit	-12.4788
▁menu	-12.4795
▁screening	-12.4804
▁Less	-12.482
▁pursu	-12.4826
responding	-12.4852
▁flap	-12.4858
ambi	-12.486
piece	-12.486
▁prioritiz	-12.4884
▁Pur	-12.4891
▁regenerate	-12.4895
ark	-12.4897
ori	-12.4899
▁reinforce	-12.4906
▁embarrass	-12.4908
listic	-12.4915
titude	-12.4937
▁admire	-12.4939
▁soc	-12.4942
▁Ger	-12.4947
▁bacteri	-12.4951
▁manifest	-12.4959
▁inhabit	-12.496
▁Moz	-12.4961
powder	-12.4961
violet	-12.4961
▁Bhutan	-12.4961
▁Elizabeth	-12.4961
▁Mount	-12.4961
▁Public	-12.4961
▁Suppose	-12.4961
▁congesti	-12.4961
▁guitar	-12.4961
▁pesticide	-12.4961
▁prostituti	-12.4961
▁protocol	-12.4961
▁sensitivit	-12.4961
▁stadium	-12.4961
▁undergraduate	-12.4961
▁vocabular	-12.4961
▁enlighten	-12.4961
▁faint	-12.4961
▁encode	-12.4961
▁apologize	-12.4961
▁melod	-12.4961
▁superpower	-12.4961
▁psychiatrist	-12.4962
▁Connecti	-12.4962
var	-12.4962
▁drama	-12.4962
▁anatom	-12.4962
▁settlement	-12.4962
▁assess	-12.4962
▁orientation	-12.4962
▁alert	-12.4963
▁magician	-12.4964
▁Missi	-12.4964
▁Fund	-12.4964
▁flock	-12.4964
▁dune	-12.4966
▁GG	-12.4966
▁disk	-12.4968
bati	-12.4969
activat	-12.497
▁Ell	-12.497
ila	-12.4971
▁Laden	-12.4975
▁flee	-12.4976
▁speculat	-12.4978
viation	-12.4979
erran	-12.4994
▁Citi	-12.4999
OL	-12.5
▁Bett	-12.5001
▁assistant	-12.5003
lvani	-12.5008
lix	-12.5021
▁nail	-12.5022
aa	-12.5033
▁whip	-12.505
▁sole	-12.5054
rizon	-12.5055
▁Cat	-12.5059
▁hom	-12.5062
ennis	-12.5063
▁Cur	-12.5064
planetar	-12.5064
matic	-12.5067
▁Read	-12.5072
dding	-12.5075
▁dip	-12.5079
▁farthe	-12.5088
lage	-12.5092
▁Nav	-12.5097
▁entitle	-12.5102
ular	-12.5104
voted	-12.5108
▁UN	-12.5116
▁dishe	-12.5117
▁controller	-12.5119
▁contaminat	-12.5133
osh	-12.5136
▁gentle	-12.5136
▁calcul	-12.5136
raf	-12.5138
▁nois	-12.5143
▁devastat	-12.5147
▁manufacture	-12.5151
IP	-12.5152
▁skip	-12.5154
▁Live	-12.5161
▁mill	-12.5165
▁usage	-12.5166
▁solo	-12.517
▁minimal	-12.5174
▁digg	-12.5175
▁Countr	-12.5177
▁inmate	-12.518
▁hacker	-12.5187
▁Republic	-12.5198
▁commut	-12.5199
▁Hospital	-12.5199
▁Joseph	-12.5199
▁Scientist	-12.5199
▁abundant	-12.5199
▁caregiver	-12.5199
▁famine	-12.5199
▁parameter	-12.5199
▁Librar	-12.5199
▁fuzz	-12.5199
▁idiot	-12.5199
▁Craig	-12.5199
▁multinational	-12.5199
▁silicon	-12.5199
▁penalt	-12.5199
▁Medicine	-12.52
▁summar	-12.52
▁feather	-12.52
kyo	-12.52
▁escalat	-12.52
▁restriction	-12.5201
▁retina	-12.5201
▁Hunt	-12.5202
oline	-12.5202
ois	-12.5203
▁Dick	-12.5203
▁Marine	-12.5205
▁Holo	-12.5206
▁cafe	-12.5207
▁peel	-12.5214
▁mapp	-12.5215
▁progression	-12.5216
▁firing	-12.5216
▁piss	-12.5221
▁acquir	-12.5223
▁Ross	-12.5236
▁declin	-12.5237
▁Aid	-12.5241
▁statue	-12.5241
addy	-12.5252
▁Pen	-12.526
limited	-12.5262
▁equi	-12.5267
belief	-12.5269
▁emergence	-12.5271
chan	-12.5284
▁regional	-12.5288
▁Ash	-12.53
ason	-12.5305
ius	-12.5305
ella	-12.5306
▁stimulat	-12.5324
lateral	-12.5327
▁grad	-12.5329
step	-12.5331
▁Cod	-12.5337
▁lucki	-12.5338
ssociation	-12.5348
▁endur	-12.535
▁tur	-12.5356
▁needles	-12.5362
▁quo	-12.5363
upp	-12.5369
▁relativ	-12.5374
ola	-12.5376
nformation	-12.5383
▁Lee	-12.5389
▁RM	-12.5392
▁immers	-12.5396
liter	-12.5399
pp	-12.5403
▁eyed	-12.541
RIS	-12.5412
▁specialize	-12.5414
▁revolutionar	-12.5416
▁awake	-12.543
▁cleaner	-12.5434
NC	-12.5437
▁autonom	-12.5442
▁conserv	-12.5442
▁conquer	-12.5443
▁Christopher	-12.5443
▁Clear	-12.5443
▁Sierra	-12.5443
▁Student	-12.5443
▁arbitrar	-12.5443
▁blueprint	-12.5443
▁cholera	-12.5443
▁cocktail	-12.5443
▁council	-12.5443
▁exquisite	-12.5443
▁holiday	-12.5443
▁institute	-12.5443
▁invasion	-12.5443
▁module	-12.5443
▁obsolet	-12.5443
▁reproductive	-12.5443
▁unfair	-12.5443
▁surgical	-12.5443
▁gravitational	-12.5443
▁tactic	-12.5443
▁turtle	-12.5443
▁presum	-12.5443
▁authoritarian	-12.5443
▁Trans	-12.5443
▁iceberg	-12.5443
▁improvisation	-12.5443
▁premise	-12.5443
▁ladder	-12.5444
hammer	-12.5444
onsider	-12.5444
▁spite	-12.5444
▁fuck	-12.5444
▁manifestation	-12.5444
▁tribal	-12.5444
▁preparation	-12.5445
▁Hubb	-12.5445
▁Recent	-12.5445
▁Simon	-12.5446
▁Camp	-12.5447
▁enrich	-12.5447
▁Francis	-12.5448
▁Rover	-12.5449
▁liar	-12.5449
▁educator	-12.5449
▁isolation	-12.5449
memorial	-12.5449
▁Color	-12.5452
adi	-12.5452
DI	-12.5456
▁negotiat	-12.5457
▁yards	-12.5457
▁Monday	-12.5458
▁disturbing	-12.5461
phil	-12.5461
▁graf	-12.5462
shade	-12.5464
▁cooperative	-12.5465
▁performer	-12.5465
▁awe	-12.5465
▁trail	-12.5466
▁Lama	-12.5476
▁Lib	-12.5478
▁Ag	-12.5496
▁baker	-12.5497
▁chop	-12.552
gged	-12.5529
▁Peru	-12.5544
▁Hawk	-12.555
▁integr	-12.5552
▁persist	-12.5553
▁manipulat	-12.5554
▁Coc	-12.5556
▁lover	-12.5561
▁equipp	-12.5607
▁curl	-12.5621
ini	-12.5628
tangible	-12.5629
▁fog	-12.5636
▁Canc	-12.5637
▁Au	-12.564
▁wander	-12.5641
scribe	-12.5643
▁fled	-12.5654
▁significan	-12.5655
exist	-12.5661
▁Edward	-12.5661
▁axe	-12.5666
▁hug	-12.5671
▁humble	-12.5673
▁skeptic	-12.5674
▁learner	-12.5679
▁prosecut	-12.5686
▁suburb	-12.5691
▁differ	-12.5692
▁kindergart	-12.5693
▁Defen	-12.5693
▁Learn	-12.5693
▁overlook	-12.5693
promising	-12.5693
▁Alaska	-12.5693
▁catastrophe	-12.5693
▁chemotherap	-12.5693
▁distress	-12.5693
▁flexibilit	-12.5693
▁fractal	-12.5693
▁ghost	-12.5693
▁invasive	-12.5693
▁metabolism	-12.5693
▁nonviolen	-12.5693
▁pancrea	-12.5693
▁technician	-12.5693
▁violin	-12.5693
temporal	-12.5693
▁socio	-12.5693
▁Montana	-12.5693
▁ancestr	-12.5693
▁Tower	-12.5693
▁rigid	-12.5693
▁Nepal	-12.5693
▁Bosnia	-12.5693
▁acute	-12.5693
▁scholarship	-12.5693
▁connectome	-12.5694
▁spear	-12.5694
▁assessment	-12.5694
▁Step	-12.5695
▁doodl	-12.5696
▁Nair	-12.5696
▁Milo	-12.5697
Land	-12.5699
▁exit	-12.5699
▁unf	-12.57
▁Book	-12.5701
▁heroic	-12.5706
▁symbolic	-12.5706
▁governor	-12.5714
▁optimize	-12.5717
▁eighth	-12.5719
▁regulator	-12.5721
▁customiz	-12.5726
massive	-12.5727
sexual	-12.573
▁arc	-12.5741
worth	-12.5745
▁Find	-12.5751
data	-12.5752
▁veil	-12.5757
▁lightn	-12.5758
▁medi	-12.5765
▁swap	-12.5775
avage	-12.5776
▁slip	-12.5783
▁Know	-12.5788
▁nucle	-12.5791
▁Post	-12.5797
▁emitt	-12.5804
▁humili	-12.5811
▁Ali	-12.5817
ED	-12.5819
▁transformati	-12.5821
▁fertil	-12.5821
▁Start	-12.5822
▁wishe	-12.5823
▁resemble	-12.5827
▁DR	-12.5836
▁blink	-12.5851
▁dominate	-12.5856
▁Hold	-12.5862
▁DP	-12.5871
▁grip	-12.5874
▁glu	-12.5877
▁packag	-12.589
▁hive	-12.5891
leans	-12.5894
▁owe	-12.5899
plat	-12.5906
▁heroin	-12.5911
▁Pete	-12.5946
▁excess	-12.5949
▁Georgia	-12.5949
▁PowerPoint	-12.5949
▁RNA	-12.5949
▁Sudan	-12.5949
▁catastrophic	-12.5949
▁cellphone	-12.5949
▁correlate	-12.5949
▁dismiss	-12.5949
▁embodie	-12.5949
▁inexpensive	-12.5949
▁metabolic	-12.5949
▁occupie	-12.5949
▁revelation	-12.5949
▁unleash	-12.5949
▁vitamin	-12.5949
▁Tunisia	-12.5949
▁thrust	-12.5949
▁avatar	-12.5949
▁extensive	-12.5949
▁funeral	-12.5949
▁salmon	-12.5949
▁Stewar	-12.5949
▁genomic	-12.5949
▁mustache	-12.5949
▁butterfl	-12.5949
▁portray	-12.5949
▁Phoenix	-12.5949
▁Jefferson	-12.5949
▁slogan	-12.5949
▁devise	-12.595
▁gaze	-12.595
▁Canyon	-12.595
▁Indus	-12.595
▁cinema	-12.595
▁beef	-12.595
▁mixture	-12.5951
▁brake	-12.5951
▁digitize	-12.5951
▁encyclopedia	-12.5951
▁Treat	-12.5952
▁conviction	-12.5952
▁delete	-12.5952
▁stereo	-12.5952
Tech	-12.5952
▁captain	-12.5954
▁collid	-12.5954
▁Carne	-12.5956
▁prosecutor	-12.5956
▁merc	-12.5958
▁slam	-12.5959
gger	-12.5962
MG	-12.5964
rect	-12.5967
▁Band	-12.5969
▁composer	-12.597
▁disappointed	-12.5972
▁seventh	-12.5981
▁myceli	-12.5982
▁dome	-12.5984
▁Turn	-12.5989
▁Miss	-12.5996
▁Top	-12.5996
▁Dra	-12.5998
▁dictionarie	-12.6001
Len	-12.6006
▁dece	-12.6009
beat	-12.6011
▁observer	-12.6015
▁rott	-12.6021
▁OE	-12.6031
▁Cold	-12.6037
▁Mari	-12.6048
▁Bali	-12.605
▁Whoa	-12.6052
▁intentional	-12.6053
▁Luc	-12.6059
▁gyr	-12.6064
▁symmetric	-12.6064
▁explod	-12.6065
awa	-12.6066
mination	-12.6068
▁autist	-12.6069
cal	-12.6073
nia	-12.6074
ix	-12.6099
hoped	-12.6101
Swee	-12.6107
tips	-12.611
lia	-12.6135
▁pregnanc	-12.6152
tool	-12.6166
▁Tit	-12.6174
▁Cap	-12.6175
break	-12.6182
▁Too	-12.6188
▁scarce	-12.6204
shift	-12.6208
▁tempt	-12.6211
▁dictator	-12.6212
▁fundrais	-12.6212
▁Buddha	-12.6212
▁Cambodia	-12.6212
▁absurd	-12.6212
▁ambulance	-12.6212
▁competitor	-12.6212
▁desktop	-12.6212
▁friction	-12.6212
▁imperative	-12.6212
▁intimac	-12.6212
▁modifi	-12.6212
▁obligation	-12.6212
▁province	-12.6212
▁reflex	-12.6212
▁synapse	-12.6212
▁triumph	-12.6212
▁Wolf	-12.6212
▁Tibet	-12.6212
▁occupation	-12.6212
▁polite	-12.6212
▁Kosov	-12.6212
▁Liberia	-12.6212
▁contagio	-12.6212
▁Thirty	-12.6213
▁Allen	-12.6213
▁curator	-12.6213
▁Garden	-12.6213
▁larva	-12.6213
▁swamp	-12.6213
▁anthropologist	-12.6213
▁Nazi	-12.6213
▁Mind	-12.6213
▁snail	-12.6213
▁Norden	-12.6213
▁admitted	-12.6213
▁singular	-12.6213
▁squid	-12.6213
▁Libya	-12.6214
▁millennia	-12.6214
▁Rub	-12.6214
▁Serg	-12.6214
▁gigant	-12.6214
▁manipulation	-12.6214
▁urbanization	-12.6215
▁Guard	-12.6215
▁Death	-12.6216
▁Data	-12.6216
▁injection	-12.6216
▁Notice	-12.6217
▁abstraction	-12.6219
text	-12.622
▁Somalia	-12.6224
▁Sex	-12.6228
▁compil	-12.623
▁slaughter	-12.623
▁ease	-12.6234
▁generator	-12.6235
▁crank	-12.6235
nburg	-12.6239
cam	-12.624
▁Building	-12.624
▁Heart	-12.6248
▁glove	-12.625
ulu	-12.6251
centric	-12.6262
DD	-12.6263
▁Brookl	-12.627
structure	-12.6272
jan	-12.6275
▁cosmolog	-12.628
▁Lat	-12.6286
▁penn	-12.6319
face	-12.6332
▁Add	-12.6335
▁receiver	-12.6336
▁Ok	-12.6341
▁Gal	-12.6349
▁unsee	-12.6349
▁Yu	-12.6361
coma	-12.638
▁lighter	-12.6387
▁goodness	-12.6389
▁fuse	-12.6394
▁bore	-12.6396
▁mytholog	-12.6411
▁planner	-12.6412
▁shelve	-12.6419
AA	-12.642
▁beside	-12.6427
▁Maria	-12.6436
▁subsid	-12.6441
cular	-12.6446
▁steril	-12.6451
NG	-12.6453
oster	-12.6456
▁fade	-12.6471
▁polariz	-12.648
▁bombing	-12.6481
▁decorat	-12.6481
▁angiogenesis	-12.6483
▁reclaim	-12.6483
▁Colombia	-12.6483
▁Dallas	-12.6483
▁Sylvi	-12.6483
▁biofuel	-12.6483
▁convincing	-12.6483
▁diminish	-12.6483
▁gadget	-12.6483
▁guerrilla	-12.6483
▁honeybee	-12.6483
▁neglect	-12.6483
▁peanut	-12.6483
▁pervasive	-12.6483
▁sulfide	-12.6483
▁supernova	-12.6483
▁velocit	-12.6483
▁delicate	-12.6483
▁reproduction	-12.6483
▁Austria	-12.6483
▁alumin	-12.6483
▁resort	-12.6483
▁carrot	-12.6483
▁problematic	-12.6483
▁hatred	-12.6483
▁urgent	-12.6483
▁bulk	-12.6484
▁vanish	-12.6484
▁textile	-12.6484
▁pillar	-12.6484
ribbe	-12.6485
▁Hmm	-12.6485
▁Lago	-12.6485
▁lump	-12.6486
▁insult	-12.6486
▁cartoonist	-12.6486
berry	-12.6489
▁Gius	-12.649
▁sadness	-12.6491
▁Food	-12.6492
▁calculator	-12.6492
▁Buddhist	-12.6494
▁ingenu	-12.6494
▁cease	-12.6498
▁fame	-12.6499
▁flush	-12.6502
▁skeptical	-12.6503
▁Jean	-12.6503
▁mature	-12.6508
▁moist	-12.6508
▁cement	-12.652
▁Wood	-12.6521
idi	-12.6523
▁publisher	-12.6534
▁behold	-12.6537
▁improvise	-12.6549
▁Loc	-12.6556
▁Jud	-12.6558
unity	-12.6561
▁damag	-12.6564
▁Line	-12.659
▁fisherm	-12.6608
▁memoriz	-12.6609
▁hypothes	-12.6614
▁Creat	-12.6621
ept	-12.6621
ison	-12.6629
▁Hand	-12.6631
▁collaps	-12.6637
▁Wit	-12.6656
▁fungi	-12.6663
▁execute	-12.6672
▁Such	-12.6676
▁fec	-12.6683
▁reader	-12.6689
screen	-12.6697
▁Mall	-12.6728
oga	-12.6729
rump	-12.6729
cumen	-12.6734
bank	-12.6738
child	-12.674
▁advoca	-12.6753
ater	-12.6754
▁impair	-12.6759
▁orphan	-12.6759
▁Himalaya	-12.676
▁curtain	-12.676
▁disadvantage	-12.676
▁manuscript	-12.676
▁thylacine	-12.676
▁Grow	-12.676
▁Wonder	-12.676
▁calendar	-12.676
▁hamburger	-12.676
▁iPad	-12.676
▁shepherd	-12.676
▁smuggl	-12.676
▁ALS	-12.676
▁Certain	-12.676
▁Empire	-12.676
▁Michigan	-12.676
▁Namibia	-12.676
▁Small	-12.676
▁adolescence	-12.676
▁dissolve	-12.676
▁dragonfl	-12.676
▁elbow	-12.676
▁prevalence	-12.676
▁vegetati	-12.676
▁Kepler	-12.676
▁modify	-12.676
▁essay	-12.6761
▁grammar	-12.6761
▁legend	-12.6761
▁submitt	-12.6761
▁circulation	-12.6761
▁committee	-12.6761
▁tilt	-12.6762
▁Movement	-12.6762
haul	-12.6764
▁Venus	-12.6764
robb	-12.6764
▁Lyn	-12.6765
liberation	-12.6766
cuba	-12.6766
▁weakness	-12.6767
▁fingertip	-12.6769
motion	-12.677
ogue	-12.6772
▁climber	-12.6772
▁Hum	-12.6774
▁foi	-12.6774
▁baseline	-12.6779
▁Senat	-12.6779
AC	-12.6779
▁affection	-12.6786
▁duration	-12.6787
▁publication	-12.6803
▁fleet	-12.6808
ometer	-12.6808
▁Jess	-12.6811
▁symphon	-12.6815
▁prototyp	-12.6819
▁Large	-12.6822
▁lane	-12.6829
▁Nativ	-12.6839
▁methodolog	-12.6839
▁bli	-12.6842
▁teache	-12.6874
odbye	-12.6876
surfing	-12.6877
▁Iraqi	-12.6877
▁estimat	-12.6886
material	-12.6905
▁redefine	-12.6918
cared	-12.6919
geographic	-12.6932
uri	-12.6935
▁loser	-12.6942
▁rotat	-12.6944
lb	-12.6945
▁Polic	-12.6945
▁causal	-12.6954
imi	-12.6957
gains	-12.6958
▁passe	-12.6962
▁eco	-12.6968
▁mandate	-12.6971
eval	-12.6993
▁bay	-12.6998
▁erase	-12.7001
▁Bel	-12.7006
chemical	-12.7007
▁Stor	-12.7007
▁arous	-12.7009
LA	-12.7013
▁patien	-12.7016
libr	-12.7028
eddy	-12.703
▁disrupti	-12.7033
▁sticker	-12.7037
▁influen	-12.7038
▁stigma	-12.7045
▁stratospher	-12.7046
▁persuasi	-12.7046
▁affirm	-12.7046
rejudice	-12.7046
throat	-12.7046
▁CMU	-12.7046
▁Oklahoma	-12.7046
▁Yellow	-12.7046
▁anxious	-12.7046
▁cathedral	-12.7046
▁existential	-12.7046
▁fierce	-12.7046
▁frustrating	-12.7046
▁helmet	-12.7046
▁improbab	-12.7046
▁injustice	-12.7046
▁lesbian	-12.7046
▁rectangle	-12.7046
▁sediment	-12.7046
▁submarine	-12.7046
▁thorough	-12.7046
imbabwe	-12.7046
▁Climate	-12.7046
▁Common	-12.7046
▁bypass	-12.7046
▁Prime	-12.7046
▁abnormal	-12.7046
▁claw	-12.7046
▁nonsens	-12.7046
▁oyster	-12.7046
▁Help	-12.7046
▁monarch	-12.7046
▁wreck	-12.7046
ulosi	-12.7046
jacket	-12.7046
▁Down	-12.7046
▁calci	-12.7047
▁fluctuation	-12.7047
▁octop	-12.7047
▁Johnny	-12.7047
▁leopard	-12.7047
▁shove	-12.7047
▁chaotic	-12.7047
▁Lewi	-12.7047
▁indication	-12.7048
▁Tru	-12.7048
▁missile	-12.7048
pago	-12.7049
▁Fried	-12.7049
▁accomplishment	-12.705
▁reliev	-12.705
Corp	-12.705
▁gait	-12.7051
▁genero	-12.7051
▁hallway	-12.7051
▁conductor	-12.7053
▁Golden	-12.7062
▁devoted	-12.7062
▁worldview	-12.7063
▁Word	-12.7064
▁yell	-12.7065
eager	-12.7066
▁Luck	-12.7067
▁replicat	-12.7068
▁butter	-12.707
▁yeast	-12.7078
▁blogger	-12.7079
▁pup	-12.7081
▁proton	-12.7084
▁outward	-12.7085
▁strengthen	-12.709
ardboard	-12.7093
▁recycle	-12.7096
▁diplomat	-12.71
▁bitter	-12.7102
▁antibod	-12.7102
aka	-12.7106
pressing	-12.711
▁accumulat	-12.7121
▁Story	-12.7122
▁Linu	-12.7139
arity	-12.7163
▁invad	-12.7168
▁fertiliz	-12.7169
▁Bud	-12.7171
▁Simpl	-12.7172
▁mobilize	-12.7173
unny	-12.7177
▁Lady	-12.7191
▁painter	-12.7199
istence	-12.7215
▁fighter	-12.7216
▁Tro	-12.722
famous	-12.723
heated	-12.7265
▁balanc	-12.7265
▁Nu	-12.7271
burn	-12.7273
▁Brook	-12.7277
▁patholog	-12.7279
▁spott	-12.7282
amount	-12.7285
coloniz	-12.7286
▁Saf	-12.7291
▁vibrat	-12.7306
▁simulat	-12.7316
▁plott	-12.732
▁numb	-12.7321
▁admir	-12.7324
▁Woo	-12.7329
▁anesthesi	-12.7333
ugg	-12.7334
▁counsel	-12.7336
CT	-12.7338
ghett	-12.734
▁opponent	-12.734
▁grind	-12.734
▁wavelength	-12.734
▁Norwegian	-12.734
▁brainstorm	-12.734
▁confusion	-12.734
▁janitor	-12.734
▁mammoth	-12.734
▁mutilat	-12.734
▁sentiment	-12.734
▁unpredictab	-12.734
coherent	-12.734
▁Chuck	-12.734
▁Jamaica	-12.734
▁Siberia	-12.734
▁Venezuela	-12.734
▁doubling	-12.734
▁hobby	-12.734
▁irrelevan	-12.734
▁visceral	-12.734
optimal	-12.734
▁defect	-12.734
▁romance	-12.734
▁chord	-12.734
▁coincidence	-12.7341
▁font	-12.7341
▁cabinet	-12.7341
▁pubert	-12.7341
▁Danny	-12.7341
▁electromagnetic	-12.7341
▁bionic	-12.7341
▁blanket	-12.7341
▁traumatic	-12.7341
▁billboard	-12.7341
▁breakdown	-12.7341
▁timber	-12.7341
▁Oliv	-12.7341
▁flick	-12.7342
▁uninten	-12.7342
▁posture	-12.7342
▁horrific	-12.7342
▁Gol	-12.7342
▁uncover	-12.7342
▁rival	-12.7342
▁minor	-12.7342
▁bent	-12.7343
▁broc	-12.7344
▁bask	-12.7344
▁gym	-12.7345
▁adaptive	-12.7345
▁Invest	-12.7345
▁Gri	-12.7346
▁Gala	-12.7346
▁revolutionize	-12.7348
▁Emil	-12.7348
▁newborn	-12.735
▁playground	-12.7354
alai	-12.7356
▁Kiri	-12.7356
▁accompani	-12.7361
▁Auto	-12.7361
▁sync	-12.7363
▁blogg	-12.7363
▁Muh	-12.7368
▁semina	-12.737
acci	-12.737
▁noble	-12.7378
lik	-12.738
▁rehabilitati	-12.7381
▁Change	-12.7381
▁cycl	-12.7392
▁evaluate	-12.7395
▁plac	-12.7396
PS	-12.7421
▁Mont	-12.7425
▁incremental	-12.7434
harming	-12.7437
idge	-12.745
▁periodic	-12.7451
▁nurture	-12.7452
▁geographical	-12.7467
▁Rea	-12.7478
▁Levi	-12.7494
▁Radio	-12.7498
▁Had	-12.7501
▁Frankl	-12.7517
▁developmental	-12.752
▁buck	-12.7523
IA	-12.7525
▁nurtur	-12.7529
▁rig	-12.7545
mino	-12.7548
▁compose	-12.7549
▁deny	-12.7552
BP	-12.7553
vil	-12.7555
▁nuclei	-12.7567
▁End	-12.7569
MO	-12.7583
▁migrat	-12.7586
▁mortal	-12.7589
▁bake	-12.7594
▁matche	-12.7605
▁dealer	-12.7617
Vo	-12.7624
▁chick	-12.7637
▁metropoli	-12.7643
Amsterdam	-12.7643
▁Hundred	-12.7643
▁appliance	-12.7643
▁companion	-12.7643
▁equator	-12.7643
▁indirect	-12.7643
▁recipient	-12.7643
▁subsequent	-12.7643
▁unacceptabl	-12.7643
▁distill	-12.7643
▁lamb	-12.7643
▁satisfie	-12.7643
▁voyage	-12.7643
▁deplet	-12.7643
▁benign	-12.7643
▁Dead	-12.7643
▁biosphere	-12.7643
▁innovators	-12.7643
▁scroll	-12.7643
▁battlefield	-12.7644
▁Intel	-12.7644
▁facult	-12.7644
▁internship	-12.7644
▁polymer	-12.7644
▁Roger	-12.7644
▁offshor	-12.7644
▁criticism	-12.7644
▁resonate	-12.7644
▁Plu	-12.7644
▁Mola	-12.7645
▁terminal	-12.7645
▁Fast	-12.7645
▁instinctive	-12.7645
▁huh	-12.7645
▁puff	-12.7646
▁violation	-12.7646
▁passport	-12.7646
▁Norman	-12.7647
▁Tasmanian	-12.7649
▁budd	-12.7649
▁Leg	-12.7649
▁thankful	-12.7651
▁TEDx	-12.7651
▁wetland	-12.7651
▁dam	-12.7653
▁specimen	-12.7654
▁spade	-12.7654
▁Often	-12.7655
icious	-12.766
▁upgrade	-12.7665
▁conception	-12.7668
▁Tami	-12.7669
▁carrier	-12.7669
▁Merc	-12.7669
▁Sho	-12.767
▁Slow	-12.767
▁Warr	-12.7674
▁ramp	-12.7675
comb	-12.7675
ventilat	-12.7678
▁Dave	-12.7681
▁Kenyan	-12.7707
▁torn	-12.7708
omic	-12.7709
▁Though	-12.771
▁startup	-12.7734
▁eradicate	-12.7734
▁thermo	-12.7737
▁mock	-12.7738
escent	-12.7743
▁Side	-12.7754
▁cris	-12.7754
▁complaint	-12.7757
▁Vent	-12.776
birth	-12.7772
CRI	-12.7776
▁emit	-12.7783
▁riches	-12.7786
world	-12.7789
national	-12.7801
▁Cra	-12.7816
▁justify	-12.782
▁invade	-12.7825
▁clon	-12.7832
ira	-12.7852
▁Happ	-12.7866
found	-12.789
emia	-12.7907
disturb	-12.7932
▁virtu	-12.7949
uddin	-12.7951
▁Sub	-12.7951
solu	-12.7953
▁paraly	-12.7953
▁compass	-12.7954
▁straw	-12.7954
venge	-12.7956
▁sympath	-12.7956
▁monk	-12.7956
▁prevail	-12.7956
puncture	-12.7956
▁Taiwan	-12.7956
▁responsive	-12.7956
▁surrender	-12.7956
▁Exact	-12.7956
▁Service	-12.7956
▁Skyp	-12.7956
▁adjacen	-12.7956
▁backpack	-12.7956
▁conscience	-12.7956
▁imprison	-12.7956
▁motorcycle	-12.7956
▁praise	-12.7956
▁provok	-12.7956
▁submersible	-12.7956
▁delusion	-12.7956
▁genital	-12.7956
▁esteem	-12.7956
▁shuttle	-12.7956
▁steward	-12.7956
▁prophet	-12.7956
▁audaci	-12.7956
▁niece	-12.7956
▁harass	-12.7956
▁syringe	-12.7956
▁Massac	-12.7956
▁auditorium	-12.7956
▁Cultur	-12.7956
▁buzz	-12.7956
▁masterpiece	-12.7956
▁boyfriend	-12.7956
▁choir	-12.7956
▁compact	-12.7956
▁Nathan	-12.7956
▁catalog	-12.7956
▁marvelous	-12.7956
▁pollutant	-12.7956
▁geological	-12.7956
▁Ardu	-12.7956
▁cerebr	-12.7956
▁hollow	-12.7957
▁logistic	-12.7957
banish	-12.7957
▁grape	-12.7957
▁distinctive	-12.7957
▁suburban	-12.7958
quatic	-12.7958
▁comprehensive	-12.7959
▁distraction	-12.7959
midnight	-12.796
▁Alright	-12.796
friend	-12.796
▁Hindu	-12.7963
▁Tele	-12.7963
▁Evan	-12.7963
▁Trac	-12.7963
▁anomal	-12.7964
▁lure	-12.7964
▁forge	-12.7966
▁meaningless	-12.797
bama	-12.797
airo	-12.7977
▁debri	-12.798
▁lapse	-12.7987
▁Mou	-12.7989
▁charter	-12.7997
▁Mag	-12.8
▁warp	-12.8015
▁technologist	-12.8016
▁heck	-12.8022
▁skat	-12.8026
illi	-12.803
fend	-12.8033
▁hatch	-12.8035
▁blessing	-12.8053
caust	-12.8057
▁operational	-12.8068
▁Ninet	-12.807
▁doom	-12.8077
▁examin	-12.8079
▁Jay	-12.808
▁rub	-12.8095
▁tipp	-12.8102
utu	-12.811
rout	-12.8122
▁reasonabl	-12.8125
▁cardio	-12.8152
huse	-12.8165
angelo	-12.8169
alti	-12.817
▁unite	-12.8173
▁sanct	-12.8191
▁Pier	-12.8196
tention	-12.8207
▁visionar	-12.8208
▁permit	-12.8216
▁Alic	-12.8216
arian	-12.8223
TO	-12.8228
▁Twi	-12.8232
▁activis	-12.824
uba	-12.8247
▁behav	-12.825
▁propell	-12.8253
rief	-12.8254
▁Archi	-12.8263
▁exceptional	-12.8268
▁sculpt	-12.8273
agne	-12.8276
▁possess	-12.8276
arliament	-12.8278
▁multipli	-12.8278
synchron	-12.8278
▁cybercriminal	-12.8278
▁cheek	-12.8278
▁turbine	-12.8278
▁Economic	-12.8278
▁crocodile	-12.8278
▁migraine	-12.8278
▁mortgage	-12.8278
▁shield	-12.8278
Patient	-12.8278
▁Believe	-12.8278
▁Katrina	-12.8278
▁Welcome	-12.8278
▁abortion	-12.8278
▁altruism	-12.8278
▁athletic	-12.8278
▁dentist	-12.8278
▁evident	-12.8278
▁glorious	-12.8278
▁hectare	-12.8278
▁imperfect	-12.8278
▁laundr	-12.8278
▁monsoon	-12.8278
▁radar	-12.8278
▁resonance	-12.8278
▁superior	-12.8278
▁surplus	-12.8278
▁tuberc	-12.8278
▁grim	-12.8278
▁Rule	-12.8278
▁complian	-12.8279
▁quantitative	-12.8279
▁Forget	-12.8279
▁Univers	-12.8279
▁secular	-12.8279
▁Commission	-12.8279
▁Veg	-12.8279
▁royal	-12.8279
▁ideological	-12.8279
▁glory	-12.8279
▁maximize	-12.8279
▁dude	-12.8279
abbage	-12.828
▁bombsight	-12.828
▁temptation	-12.828
▁reply	-12.8281
fiti	-12.8282
▁deployment	-12.8282
▁Marsha	-12.8282
▁seize	-12.8283
▁compris	-12.8283
▁merit	-12.8284
▁Susan	-12.8284
▁captiv	-12.8285
▁vector	-12.8285
▁industrialize	-12.8286
▁Use	-12.8286
▁beast	-12.8287
▁approval	-12.8287
▁disruption	-12.8287
▁petal	-12.8288
▁Nice	-12.8288
▁laz	-12.829
OS	-12.8297
▁poetic	-12.8297
ethano	-12.8299
▁superhero	-12.8301
▁holder	-12.8304
▁promotion	-12.8305
▁drip	-12.8306
▁Julie	-12.8311
▁keen	-12.8315
▁incorporate	-12.8322
FO	-12.8324
▁halve	-12.8329
▁daylight	-12.833
▁outlet	-12.8332
ndex	-12.8336
▁fem	-12.8344
▁continual	-12.835
▁dug	-12.8353
▁rendering	-12.8358
▁intangible	-12.8361
beard	-12.8362
mania	-12.8365
▁tender	-12.838
▁hoo	-12.8382
▁mystic	-12.8386
"	-12.8398
▁Sever	-12.842
clips	-12.842
zler	-12.8423
▁Rica	-12.8424
▁stripp	-12.8426
▁follower	-12.8426
terior	-12.843
▁Cup	-12.8445
▁sensibl	-12.8459
bearing	-12.8483
▁communi	-12.8486
cca	-12.8522
▁rage	-12.8535
▁Leader	-12.8537
▁Dec	-12.8548
▁Bad	-12.8555
mediate	-12.8558
▁recreate	-12.8565
▁Send	-12.857
Char	-12.857
▁Fla	-12.8576
▁Ob	-12.8577
limina	-12.8583
▁Jaz	-12.8586
▁Laur	-12.8598
▁listener	-12.8599
▁Abu	-12.8601
▁Window	-12.8612
▁populate	-12.8612
▁fracture	-12.8612
▁shuffl	-12.8612
▁provision	-12.8612
▁treasure	-12.8612
burial	-12.8612
embark	-12.8612
▁Babylon	-12.8612
▁Copernic	-12.8612
▁Excuse	-12.8612
▁Ministr	-12.8612
▁Sydney	-12.8612
▁Ultimate	-12.8612
▁agnostic	-12.8612
▁arrogan	-12.8612
▁attorney	-12.8612
▁chalk	-12.8612
▁choreograph	-12.8612
▁compliment	-12.8612
▁hypothetical	-12.8612
▁obscure	-12.8612
▁rhetoric	-12.8612
▁Modern	-12.8612
▁pepper	-12.8612
▁plumb	-12.8612
▁Costa	-12.8612
▁Desert	-12.8612
▁Guinea	-12.8612
▁decentraliz	-12.8612
▁testimon	-12.8612
▁orgasm	-12.8612
utheast	-12.8612
▁alliance	-12.8612
▁divine	-12.8612
▁Short	-12.8612
▁intricate	-12.8612
▁Medit	-12.8612
Bird	-12.8612
▁humid	-12.8612
eopard	-12.8612
▁Point	-12.8612
▁clich	-12.8613
▁obey	-12.8613
▁erotic	-12.8613
▁minimize	-12.8613
▁verge	-12.8613
▁consultant	-12.8613
▁shallow	-12.8613
▁orphanage	-12.8613
▁Nicole	-12.8613
▁Honey	-12.8613
▁possession	-12.8614
▁Darwinian	-12.8614
▁knot	-12.8614
▁UCL	-12.8615
Pix	-12.8615
stein	-12.8615
scape	-12.8616
▁tickl	-12.8617
▁Normal	-12.8618
▁Victorian	-12.8618
▁epic	-12.8618
▁grassland	-12.8619
▁Wild	-12.8619
▁wallet	-12.8621
liabilit	-12.8623
▁Station	-12.8624
▁gosh	-12.8624
▁purchas	-12.8625
▁miser	-12.8626
Brain	-12.8629
▁Solar	-12.8632
▁Euro	-12.8634
▁stir	-12.8636
▁regain	-12.8637
▁Beck	-12.8641
MM	-12.8643
▁experimentation	-12.8649
spar	-12.8651
▁neurological	-12.8652
▁Aust	-12.8655
▁dual	-12.8656
▁divergen	-12.8657
▁annoying	-12.8661
pont	-12.8663
▁badge	-12.8664
▁originate	-12.8664
▁SO	-12.8667
radiat	-12.8668
▁Comp	-12.8676
▁carti	-12.8678
taller	-12.868
▁Mel	-12.8682
▁buyer	-12.8686
▁versa	-12.8688
▁mash	-12.8696
▁backup	-12.8697
▁inquir	-12.8699
▁ignit	-12.8706
▁Idea	-12.8714
▁gambl	-12.8714
▁Mada	-12.8717
▁commander	-12.8717
▁Cart	-12.872
ike	-12.8722
▁certificate	-12.8722
▁loneli	-12.874
▁tribu	-12.8746
▁ruler	-12.8751
fitte	-12.8757
▁acknowledg	-12.8758
urine	-12.8761
inflate	-12.8778
▁pat	-12.8807
▁merge	-12.8821
▁penetrate	-12.8835
▁charg	-12.8846
▁SB	-12.8851
▁preferr	-12.886
▁slap	-12.8871
▁collaborat	-12.8881
▁enforc	-12.8884
▁cultivate	-12.8884
▁beep	-12.8886
▁Kal	-12.8923
▁synthesi	-12.8928
▁converg	-12.8933
▁Dai	-12.8937
▁Davi	-12.8938
▁resurrect	-12.8946
▁lense	-12.8956
▁Palestin	-12.8956
▁emphasi	-12.8956
▁exclude	-12.8957
▁intimidat	-12.8957
▁rediscover	-12.8957
ambiguous	-12.8957
bladder	-12.8957
▁Alpha	-12.8957
▁Language	-12.8957
▁Spider	-12.8957
▁Sputnik	-12.8957
▁accommodate	-12.8957
▁algebra	-12.8957
▁ambiguit	-12.8957
▁hurdle	-12.8957
▁hurricane	-12.8957
▁inefficient	-12.8957
▁nanometer	-12.8957
▁nanotechnolog	-12.8957
▁railroad	-12.8957
▁relevanc	-12.8957
▁sulfur	-12.8957
▁supercomputer	-12.8957
▁susceptib	-12.8957
▁unnecessar	-12.8957
▁volcani	-12.8957
▁wetsuit	-12.8957
plasma	-12.8957
▁condens	-12.8957
▁crater	-12.8957
▁withdraw	-12.8957
hazard	-12.8957
▁Wilson	-12.8957
▁draft	-12.8957
▁snapshot	-12.8957
▁Hyper	-12.8957
▁Game	-12.8957
biotechnolog	-12.8957
▁Speak	-12.8957
▁Depressio	-12.8957
▁Stein	-12.8957
Gowan	-12.8957
▁Uncle	-12.8957
▁Stay	-12.8957
▁bloom	-12.8957
▁linguistic	-12.8958
enthusiastic	-12.8958
NY	-12.8958
▁haunt	-12.8958
▁outrage	-12.8959
▁bunk	-12.8959
▁perpetrator	-12.8959
▁Genom	-12.8959
▁Deep	-12.8959
▁joyful	-12.8959
competent	-12.8959
▁railway	-12.896
▁Oak	-12.896
yriad	-12.896
▁constructive	-12.896
▁Fall	-12.8961
▁stiff	-12.8961
▁NI	-12.8962
▁simulator	-12.8962
▁alternat	-12.8963
▁Rena	-12.8965
▁toleran	-12.8966
▁hello	-12.8966
▁innate	-12.8969
RL	-12.8972
NN	-12.8972
▁mindful	-12.8976
▁analytical	-12.8977
Justine	-12.8979
▁shortage	-12.8982
▁slipp	-12.8983
tron	-12.8985
▁gland	-12.8985
TA	-12.8987
▁humbl	-12.8987
▁Anna	-12.8989
lah	-12.899
▁placebo	-12.8994
▁Julian	-12.9001
different	-12.9005
MW	-12.9007
▁armor	-12.9007
▁crashe	-12.9009
?	-12.901
▁crowdsourc	-12.9013
▁Mama	-12.9014
▁secondar	-12.9015
▁Bear	-12.9021
▁emulat	-12.9021
linking	-12.9022
▁Oo	-12.9025
▁Hard	-12.9029
▁Nico	-12.9033
▁undergo	-12.9041
▁Forest	-12.9042
ectar	-12.9043
itis	-12.9055
skies	-12.9058
▁Bol	-12.9059
significant	-12.9065
iger	-12.9066
wick	-12.9074
wig	-12.9077
▁standardiz	-12.9092
▁Gh	-12.9102
▁fatt	-12.911
mobile	-12.9115
▁imitate	-12.9123
plex	-12.9128
woman	-12.9142
ignifi	-12.9143
awn	-12.915
fir	-12.9157
▁protester	-12.917
▁env	-12.9174
▁Shir	-12.9178
▁SAR	-12.9181
▁hung	-12.9194
▁whistl	-12.9195
lider	-12.9205
▁reflectiv	-12.9209
▁Main	-12.9209
grown	-12.9212
▁northeast	-12.9213
bling	-12.9224
CL	-12.9224
▁undermine	-12.9229
▁agil	-12.923
▁incidental	-12.9244
runner	-12.9246
▁Gall	-12.9251
▁annoy	-12.9263
▁desir	-12.9268
ompassion	-12.9306
SF	-12.931
▁cabin	-12.9313
▁auditor	-12.9313
▁contracepti	-12.9314
Cloud	-12.9314
▁condemn	-12.9314
▁epilep	-12.9314
▁Mathematic	-12.9314
▁Nichol	-12.9314
▁Perfect	-12.9314
▁Whitopia	-12.9314
▁census	-12.9314
▁excerpt	-12.9314
▁lawsuit	-12.9314
▁millisecond	-12.9314
▁municipal	-12.9314
▁remittance	-12.9314
▁repertoire	-12.9314
▁respirator	-12.9314
▁sapien	-12.9314
▁supplement	-12.9314
▁suspicious	-12.9314
▁turbulen	-12.9314
▁unequal	-12.9314
hygien	-12.9314
▁moderate	-12.9314
▁vapor	-12.9314
▁psyche	-12.9314
fensive	-12.9314
▁rooftop	-12.9314
▁spawn	-12.9314
▁guideline	-12.9314
▁Kelly	-12.9314
▁solemn	-12.9314
▁vicious	-12.9314
▁Emma	-12.9314
▁conspirac	-12.9314
withstand	-12.9314
▁synchronize	-12.9314
▁announcement	-12.9314
▁astronomical	-12.9314
▁moth	-12.9314
▁outrageous	-12.9314
▁Full	-12.9314
▁Night	-12.9315
▁forehead	-12.9315
▁Irish	-12.9315
Barack	-12.9315
▁queue	-12.9315
▁petrol	-12.9315
▁pivot	-12.9316
▁pupp	-12.9317
▁Mobi	-12.9317
▁peek	-12.9317
▁bombard	-12.9318
▁boson	-12.9318
▁excellence	-12.9319
▁reimagin	-12.9319
▁Pink	-12.9319
▁attachment	-12.932
▁Bridge	-12.9322
▁waterfall	-12.9322
Ark	-12.9323
▁stall	-12.9323
▁symbio	-12.9324
▁MoM	-12.9325
▁twenty	-12.9325
▁generalize	-12.9326
▁Along	-12.9326
▁weave	-12.9327
▁Poor	-12.9329
opter	-12.933
▁fictional	-12.933
▁unto	-12.9333
KA	-12.9342
▁reconnect	-12.9342
▁spl	-12.9343
▁contractor	-12.9348
heid	-12.9349
▁recreation	-12.9352
▁wool	-12.9352
▁Bring	-12.9355
▁solita	-12.9362
ippi	-12.9371
▁reache	-12.9375
▁entrepreneuri	-12.9382
▁Pakistani	-12.9387
▁oppress	-12.9389
ibera	-12.9393
▁nitr	-12.9396
▁murderer	-12.9402
ISA	-12.9405
BA	-12.9406
▁Call	-12.9411
▁Inside	-12.9419
▁execut	-12.9426
▁grader	-12.9433
inventing	-12.9435
▁reminder	-12.9438
▁Head	-12.9447
▁rubbl	-12.9453
▁clone	-12.9459
▁knit	-12.9472
icular	-12.9489
▁indicat	-12.9512
▁humiliat	-12.9513
lude	-12.9541
▁fung	-12.9545
enberg	-12.9569
▁Mov	-12.9611
ngular	-12.9622
▁astonish	-12.9632
▁racis	-12.9647
tease	-12.9652
announce	-12.9653
proving	-12.9659
pathetic	-12.9662
▁cogniti	-12.9675
▁pale	-12.9678
▁refrigerat	-12.9679
▁exaggerat	-12.9682
▁sketche	-12.9683
▁advent	-12.9684
▁Achill	-12.9684
▁Cooper	-12.9684
▁DARPA	-12.9684
▁Lawrence	-12.9684
▁Margar	-12.9684
▁Network	-12.9684
▁Serious	-12.9684
▁Ushahidi	-12.9684
▁Virtual	-12.9684
▁ambassador	-12.9684
▁anecdote	-12.9684
▁antidepressant	-12.9684
▁balcon	-12.9684
▁beekeeper	-12.9684
▁capsule	-12.9684
▁complication	-12.9684
▁efficac	-12.9684
▁estrogen	-12.9684
▁explosive	-12.9684
▁mutant	-12.9684
▁nuance	-12.9684
▁perceptual	-12.9684
▁reluctant	-12.9684
▁servant	-12.9684
▁template	-12.9684
▁Model	-12.9684
▁interrogat	-12.9684
▁dictate	-12.9684
▁epidemiolog	-12.9684
▁volatil	-12.9684
vocation	-12.9684
▁disseminat	-12.9684
▁gossip	-12.9684
▁hippocamp	-12.9684
▁superstar	-12.9684
▁unaware	-12.9684
▁pension	-12.9684
▁juni	-12.9685
▁discard	-12.9685
▁barbari	-12.9685
▁polish	-12.9685
▁Among	-12.9685
▁Fair	-12.9685
▁heartbreak	-12.9685
▁tinker	-12.9685
▁biotech	-12.9686
▁iteration	-12.9686
▁Millenni	-12.9686
▁lightweight	-12.9687
Market	-12.9687
▁metaphorical	-12.9687
▁Self	-12.9687
hrir	-12.9687
▁shortcut	-12.9688
▁recommendation	-12.9688
▁payoff	-12.9688
▁reconstruction	-12.9688
▁Fox	-12.9688
entagon	-12.9689
▁flute	-12.9693
▁PhD	-12.9693
▁feat	-12.9694
quer	-12.9697
▁Case	-12.9697
▁Fran	-12.9698
jack	-12.9698
▁Uber	-12.9699
Neil	-12.9702
▁mustard	-12.9704
▁Low	-12.9705
▁plugg	-12.9708
pets	-12.9709
▁unifie	-12.971
▁convers	-12.9714
▁evaporate	-12.9717
▁spaceship	-12.9718
▁freeway	-12.972
gill	-12.9723
▁hotte	-12.9741
▁Wor	-12.9744
▁Kara	-12.9746
▁fad	-12.9755
▁fram	-12.9758
▁dye	-12.9759
▁paradi	-12.9763
ledge	-12.9764
HO	-12.9766
▁Lang	-12.9778
astro	-12.9781
cela	-12.9797
▁conform	-12.9797
▁spor	-12.9802
▁herb	-12.9802
▁mistaken	-12.9812
▁bark	-12.9816
iath	-12.9825
▁merg	-12.9825
FL	-12.9827
▁Samu	-12.9838
HD	-12.9862
▁brut	-12.9889
▁enhanc	-12.9905
▁facilitate	-12.9913
▁sci	-12.9914
▁uncertain	-12.9916
▁emergen	-12.9917
▁Carol	-12.9922
▁Nine	-12.9941
osa	-12.9944
cientific	-12.9946
▁fisc	-12.9962
▁CC	-12.9983
▁rust	-12.9988
▁quiz	-12.9993
▁timeline	-12.9994
▁evaluat	-12.9995
▁seasonal	-12.9998
ronto	-13.0001
atar	-13.0004
▁Julia	-13.0026
▁optimiz	-13.0032
▁sneak	-13.0033
RE	-13.0034
utilize	-13.0037
curv	-13.0042
▁reuse	-13.0043
▁analytic	-13.0045
▁renew	-13.0064
▁preced	-13.0068
▁cubic	-13.0069
▁unsustainabl	-13.0069
▁unimaginabl	-13.0069
▁perpetuat	-13.0069
▁nickname	-13.0069
▁retrofit	-13.0069
▁uplift	-13.0069
clamation	-13.0069
counterintuitive	-13.0069
▁Amazing	-13.0069
▁Everglade	-13.0069
▁Group	-13.0069
▁Guatemala	-13.0069
▁Pantheon	-13.0069
▁administrator	-13.0069
▁catalyst	-13.0069
▁checklist	-13.0069
▁communal	-13.0069
▁confusing	-13.0069
▁convenience	-13.0069
▁empirical	-13.0069
▁epiphan	-13.0069
▁gecko	-13.0069
▁homosexual	-13.0069
▁landfill	-13.0069
▁mammogram	-13.0069
▁mammograph	-13.0069
▁orangutan	-13.0069
▁paragraph	-13.0069
▁pheromone	-13.0069
▁plutocra	-13.0069
▁preschool	-13.0069
▁seizure	-13.0069
restrain	-13.0069
▁Differen	-13.0069
▁tectonic	-13.0069
▁unveil	-13.0069
▁vibran	-13.0069
decipher	-13.0069
hypertensi	-13.0069
▁socket	-13.0069
▁deteriorat	-13.0069
▁interfere	-13.0069
▁Text	-13.0069
▁Electro	-13.0069
▁rigorous	-13.0069
▁Close	-13.0069
▁clapp	-13.0069
▁Gord	-13.0069
▁sniff	-13.0069
▁trustworth	-13.0069
▁latitude	-13.0069
▁nomad	-13.007
alactic	-13.007
▁persistent	-13.007
▁mutate	-13.007
▁biograph	-13.007
▁Program	-13.007
▁inhabitant	-13.007
▁pearl	-13.007
▁devou	-13.007
▁forager	-13.007
▁Micro	-13.007
▁tolerate	-13.007
▁Type	-13.007
▁Beau	-13.007
▁Prison	-13.007
▁Living	-13.0071
Planet	-13.0071
▁Truth	-13.0071
▁viewpoint	-13.0072
▁barber	-13.0072
▁packet	-13.0072
osion	-13.0072
▁Million	-13.0072
▁BMW	-13.0072
▁livelihood	-13.0072
trude	-13.0073
▁Mose	-13.0073
▁Pick	-13.0074
ithium	-13.0075
▁Psycho	-13.0075
▁establishment	-13.0075
generation	-13.0075
eera	-13.0075
groom	-13.0076
▁jean	-13.0077
▁photon	-13.0081
▁portal	-13.0082
▁teens	-13.0082
▁medal	-13.0084
▁pharmac	-13.0085
▁clash	-13.0092
▁setup	-13.0093
hacked	-13.0096
stripe	-13.0096
ambia	-13.0098
▁centraliz	-13.0099
▁bass	-13.0104
▁Bolt	-13.0108
▁bounc	-13.0108
▁racist	-13.0109
▁Whit	-13.0116
▁thoughtful	-13.0117
▁perfection	-13.0118
daho	-13.0124
▁Save	-13.0133
▁blurr	-13.0142
▁sponge	-13.0145
▁collector	-13.0167
hran	-13.0176
chin	-13.0184
tria	-13.02
▁gentl	-13.0201
▁intern	-13.0205
▁rider	-13.0209
▁Math	-13.021
▁Aspe	-13.0218
PO	-13.0218
weep	-13.024
▁redefin	-13.0245
▁reconcile	-13.027
hma	-13.0288
▁Colli	-13.0312
▁sampl	-13.0321
▁surge	-13.0346
cratch	-13.0346
▁substitute	-13.0359
▁misuse	-13.0367
people	-13.0371
ascar	-13.0374
▁Ferr	-13.0376
▁organizer	-13.0379
▁lend	-13.0384
▁ethnicit	-13.0388
▁correction	-13.0394
hun	-13.0409
uf	-13.0426
▁evaporat	-13.0433
▁visualiz	-13.0442
nterviewer	-13.0454
▁wrinkle	-13.0466
▁marvel	-13.0468
▁commerc	-13.0469
CAPTCHA	-13.0469
▁Club	-13.0469
▁Corporation	-13.0469
▁Darfur	-13.0469
▁Freud	-13.0469
▁Friend	-13.0469
▁Innovation	-13.0469
▁Murray	-13.0469
▁Oregon	-13.0469
▁Pepsi	-13.0469
▁Ukrain	-13.0469
▁Village	-13.0469
▁audition	-13.0469
▁desalinat	-13.0469
▁disparate	-13.0469
▁eyebrow	-13.0469
▁introvert	-13.0469
▁miraculous	-13.0469
▁monopol	-13.0469
▁plunge	-13.0469
▁psychic	-13.0469
▁qualify	-13.0469
▁reservation	-13.0469
▁semester	-13.0469
▁simplify	-13.0469
▁synesthe	-13.0469
▁thunder	-13.0469
▁Conservati	-13.0469
▁arithmetic	-13.0469
▁disparit	-13.0469
▁Democracy	-13.0469
▁archaeolog	-13.0469
▁retrospect	-13.0469
▁Algeria	-13.0469
▁congress	-13.0469
▁detach	-13.0469
▁enroll	-13.0469
▁stagna	-13.0469
nourish	-13.0469
▁strive	-13.0469
▁Russe	-13.0469
▁registr	-13.0469
▁composite	-13.0469
▁veterinarian	-13.0469
consistenc	-13.0469
▁Teacher	-13.0469
▁illiterate	-13.0469
▁sociologist	-13.0469
ahren	-13.0469
▁holistic	-13.0469
▁Beyon	-13.0469
▁cruise	-13.0469
▁aspire	-13.0469
zoning	-13.047
▁Kind	-13.047
▁Creative	-13.047
▁Writ	-13.047
▁resign	-13.047
▁lesion	-13.047
▁variant	-13.047
▁ruling	-13.047
ermaid	-13.0471
▁restoration	-13.0471
▁Titanic	-13.0472
▁persever	-13.0472
▁NL	-13.0473
▁humiliation	-13.0473
▁exile	-13.0473
▁Trust	-13.0474
▁flatten	-13.0475
▁evaluation	-13.0475
▁grace	-13.0475
▁expressive	-13.0476
▁crust	-13.0476
▁Vel	-13.0477
ureau	-13.0477
▁Huh	-13.0479
MF	-13.0479
▁Hadr	-13.048
edited	-13.0481
▁Grace	-13.0481
▁cynic	-13.0482
▁Robin	-13.0482
▁Fred	-13.0483
▁fitting	-13.0483
▁Opera	-13.0485
GB	-13.0489
PL	-13.0491
▁extremist	-13.0493
▁classmate	-13.0498
IMS	-13.0502
▁complet	-13.0512
▁SR	-13.0513
▁hike	-13.0536
▁Nag	-13.0538
▁Sony	-13.0546
▁touche	-13.0547
omi	-13.0561
aque	-13.0568
▁Westerner	-13.0585
▁cancel	-13.0594
▁Dian	-13.0594
▁Bert	-13.0607
onze	-13.0608
▁Aur	-13.0609
ST	-13.0653
▁gatherer	-13.0663
▁ovari	-13.0673
MI	-13.068
balone	-13.0718
▁participator	-13.0727
▁curse	-13.0752
▁Mau	-13.0806
▁fiddl	-13.0808
▁pickle	-13.0813
▁glide	-13.0815
TH	-13.0824
▁AO	-13.0825
▁categoriz	-13.0828
osphere	-13.084
manda	-13.0852
▁devote	-13.0862
igital	-13.0875
witz	-13.0878
▁horrifi	-13.0883
dispens	-13.0885
▁Jacque	-13.0885
▁bureaucrac	-13.0885
elecommunication	-13.0885
emption	-13.0885
▁Circle	-13.0885
▁Conference	-13.0885
▁Economist	-13.0885
▁Essential	-13.0885
▁Explor	-13.0885
▁Fantastic	-13.0885
▁Federal	-13.0885
▁Magazine	-13.0885
▁Marx	-13.0885
▁Picture	-13.0885
▁Sebastia	-13.0885
▁acronym	-13.0885
▁carcinogen	-13.0885
▁constitute	-13.0885
▁discomfort	-13.0885
▁discourag	-13.0885
▁discrete	-13.0885
▁dominance	-13.0885
▁exoplanet	-13.0885
▁fingerprint	-13.0885
▁giraffe	-13.0885
▁homicide	-13.0885
▁immigration	-13.0885
▁napkin	-13.0885
▁pinpoint	-13.0885
▁plague	-13.0885
▁plaster	-13.0885
▁prevalent	-13.0885
▁prostitute	-13.0885
▁reptile	-13.0885
▁sprint	-13.0885
▁taxpayer	-13.0885
▁toddler	-13.0885
▁confer	-13.0885
▁indulge	-13.0885
▁nudge	-13.0885
▁Discover	-13.0885
▁kidnappe	-13.0885
▁mangrove	-13.0885
▁oblivio	-13.0885
▁billionaire	-13.0885
tyrann	-13.0885
▁shredd	-13.0885
▁bookstore	-13.0885
▁seamless	-13.0885
▁Saint	-13.0885
▁residu	-13.0885
steak	-13.0885
Agnes	-13.0885
▁ingenious	-13.0885
▁alpha	-13.0885
▁Politic	-13.0886
▁outsourc	-13.0886
▁Personal	-13.0886
▁diffuse	-13.0886
▁asylum	-13.0886
▁marginaliz	-13.0886
▁embed	-13.0886
▁Bonobo	-13.0886
▁scoop	-13.0886
▁counterpart	-13.0886
▁suitcase	-13.0886
▁Compare	-13.0886
spoil	-13.0886
plausibl	-13.0886
▁reshap	-13.0886
▁residential	-13.0886
▁pledge	-13.0886
▁Palm	-13.0886
▁notebook	-13.0886
allocate	-13.0886
▁enslav	-13.0886
▁parade	-13.0887
▁hurry	-13.0887
▁Mahat	-13.0887
psychotic	-13.0887
▁Flick	-13.0887
▁droplet	-13.0887
▁dislike	-13.0887
▁embarrassment	-13.0887
▁modulat	-13.0888
▁instructor	-13.0889
▁Director	-13.0889
▁statistician	-13.0889
▁Contra	-13.089
▁energetic	-13.089
▁Wide	-13.089
▁Klei	-13.0891
▁respectful	-13.0891
▁integral	-13.0891
▁mama	-13.0892
razine	-13.0892
▁payload	-13.0893
▁rejection	-13.0893
▁PH	-13.0894
▁relational	-13.0894
▁Cassi	-13.0895
▁hover	-13.0895
▁advancement	-13.0897
▁poop	-13.0898
▁Tree	-13.0898
▁pedal	-13.0901
▁Doug	-13.0901
▁vibrate	-13.0902
DG	-13.0903
▁Award	-13.0905
▁rotation	-13.0906
▁awaken	-13.0908
▁mantra	-13.0908
▁centi	-13.0909
▁peril	-13.0909
▁Jenn	-13.091
▁roommate	-13.0911
▁clam	-13.0914
literate	-13.0915
▁tailor	-13.092
▁strapp	-13.0921
▁Sri	-13.0929
▁differential	-13.0931
▁beans	-13.0936
▁diffusi	-13.0947
▁shave	-13.0953
▁Near	-13.0956
▁geolog	-13.0959
urani	-13.0972
▁chok	-13.0973
▁navigat	-13.0976
Cause	-13.0977
▁characteriz	-13.1011
robe	-13.1016
▁interconnect	-13.1026
▁Broad	-13.103
▁innovat	-13.1034
▁penetrat	-13.1034
NP	-13.1046
▁unthink	-13.1052
hili	-13.1066
competenc	-13.1067
▁Bond	-13.1067
▁subsidiz	-13.107
▁Juan	-13.1071
▁mast	-13.1075
▁validat	-13.108
▁permea	-13.1099
▁unsu	-13.1109
▁pessimist	-13.1125
▁frie	-13.1133
ductive	-13.1153
touris	-13.1156
ouver	-13.1159
▁stat	-13.1166
RD	-13.1179
▁functionalit	-13.1187
▁Cala	-13.1201
▁VC	-13.1206
▁apolog	-13.1206
DL	-13.1224
nonymous	-13.1225
wins	-13.1231
▁savanna	-13.1242
▁decode	-13.1247
ellar	-13.1248
▁DE	-13.1252
illin	-13.1293
tinies	-13.1296
rger	-13.1297
▁desperat	-13.1303
▁proportional	-13.1304
▁strap	-13.1312
▁prince	-13.1313
aptain	-13.1315
▁peripher	-13.1317
▁contradict	-13.1318
▁anonym	-13.132
▁cemeter	-13.132
▁Engineer	-13.132
▁Record	-13.132
▁ridicule	-13.132
Channel	-13.132
Speech	-13.132
disproportionate	-13.132
hthalate	-13.132
rthodox	-13.132
▁Bulgaria	-13.132
▁Cameron	-13.132
▁Falcon	-13.132
▁Isabel	-13.132
▁Jennifer	-13.132
▁Nevada	-13.132
▁Toyota	-13.132
▁Tweet	-13.132
▁adversar	-13.132
▁adversit	-13.132
▁apparatus	-13.132
▁astounding	-13.132
▁byproduct	-13.132
▁cafeteria	-13.132
▁coalition	-13.132
▁cumulative	-13.132
▁fission	-13.132
▁hominid	-13.132
▁incubator	-13.132
▁lettuce	-13.132
▁misconception	-13.132
▁mitigat	-13.132
▁modular	-13.132
▁necessit	-13.132
▁reckless	-13.132
▁sprawl	-13.132
▁stakeholder	-13.132
▁swirl	-13.132
▁tadpole	-13.132
▁terrestrial	-13.132
▁unpleasant	-13.132
▁Progress	-13.132
▁jurisdiction	-13.132
▁microwave	-13.132
▁postcard	-13.132
▁vegetarian	-13.132
▁Gaza	-13.132
▁scandal	-13.132
▁sleeve	-13.132
▁Plato	-13.132
▁vague	-13.132
▁Dream	-13.132
▁Minne	-13.132
▁pornograph	-13.132
▁tweak	-13.132
▁utopia	-13.132
▁carpenter	-13.132
▁hijack	-13.132
▁Hungarian	-13.132
▁cosmetic	-13.132
▁anchor	-13.132
IDE	-13.132
▁Galile	-13.132
▁Town	-13.132
▁banjo	-13.132
▁biomaterial	-13.132
▁Dubai	-13.1321
▁graceful	-13.1321
▁imaginative	-13.1321
▁hostilit	-13.1321
▁dictatorship	-13.1321
Robot	-13.1321
▁cyclist	-13.1321
▁slate	-13.1321
▁MBA	-13.1321
▁excessive	-13.1321
▁Check	-13.1321
▁championship	-13.1321
▁Left	-13.1322
▁seque	-13.1322
▁Walter	-13.1324
▁hedge	-13.1324
▁Islamist	-13.1324
▁ballot	-13.1325
▁degradation	-13.1325
▁classifi	-13.1325
▁prox	-13.1325
▁Fat	-13.1325
▁revis	-13.1325
▁untouch	-13.1326
▁counselor	-13.1327
▁confrontation	-13.1327
▁replicator	-13.1327
▁hull	-13.1327
▁Ground	-13.1328
▁Excellen	-13.1328
▁magnifi	-13.1328
▁Hamp	-13.1329
▁Coh	-13.133
▁stink	-13.1334
▁olive	-13.1334
▁extraction	-13.1335
▁Mello	-13.1337
▁quantify	-13.1339
ghar	-13.134
▁hunch	-13.134
▁Fear	-13.1342
▁pollinator	-13.1343
izzy	-13.1345
▁accelerator	-13.1346
▁convergen	-13.135
▁algorithmic	-13.1353
▁welcom	-13.1354
▁radioactiv	-13.1354
▁Father	-13.1356
▁contributor	-13.1357
▁propeller	-13.1359
▁commentar	-13.1362
▁ranch	-13.1366
heim	-13.1377
▁deadline	-13.1383
▁ecsta	-13.1385
▁sewer	-13.1403
ulli	-13.1427
▁Shake	-13.1429
▁nurs	-13.1451
▁Scr	-13.1464
▁Strange	-13.147
▁vend	-13.149
ibu	-13.1507
▁sanitar	-13.1524
▁slot	-13.1532
▁resembl	-13.1533
▁antiqu	-13.154
▁carbonate	-13.1553
▁regenerati	-13.1554
bou	-13.1585
▁legg	-13.1593
▁messag	-13.1608
amel	-13.1612
▁bugg	-13.1616
▁illustrat	-13.1626
▁Equ	-13.1633
rash	-13.1647
idden	-13.1654
▁refin	-13.1662
▁fabricate	-13.1672
▁oppressi	-13.1683
▁underwa	-13.17
▁Europ	-13.1727
Card	-13.1728
fford	-13.1729
pple	-13.175
▁temporari	-13.1758
▁propulsi	-13.1766
▁browse	-13.1769
▁prohibit	-13.1773
▁intellect	-13.1775
▁misunderst	-13.1775
▁Laborator	-13.1775
▁Nanopatch	-13.1775
▁mismatch	-13.1775
▁sanctuar	-13.1775
arthriti	-13.1775
▁Current	-13.1775
▁Effect	-13.1775
▁Exxon	-13.1775
▁Further	-13.1775
▁Glenn	-13.1775
▁Hotel	-13.1775
▁Lakota	-13.1775
▁Malawi	-13.1775
▁Potter	-13.1775
▁Solomon	-13.1775
▁acquisition	-13.1775
▁aerodynamic	-13.1775
▁amplify	-13.1775
▁appetite	-13.1775
▁blunt	-13.1775
▁ceramic	-13.1775
▁cochlea	-13.1775
▁constellation	-13.1775
▁elusive	-13.1775
▁excavat	-13.1775
▁extrovert	-13.1775
▁gorilla	-13.1775
▁headphone	-13.1775
▁hummingbird	-13.1775
▁hydrocarbon	-13.1775
▁hyena	-13.1775
▁imbalance	-13.1775
▁mainframe	-13.1775
▁peacekeep	-13.1775
▁perpetual	-13.1775
▁premature	-13.1775
▁primordial	-13.1775
▁simplifie	-13.1775
▁skyscraper	-13.1775
▁transgender	-13.1775
▁unfamiliar	-13.1775
▁unnatural	-13.1775
▁yogurt	-13.1775
▁Convention	-13.1775
osaurus	-13.1775
▁drastic	-13.1775
▁magnify	-13.1775
▁redundan	-13.1775
▁rupee	-13.1775
▁Aaron	-13.1775
▁Enlighten	-13.1775
▁courtyard	-13.1775
▁partisan	-13.1775
▁Lanka	-13.1775
▁hippie	-13.1775
▁patron	-13.1775
▁Survey	-13.1775
▁daunting	-13.1775
▁Road	-13.1775
▁patrol	-13.1775
▁sequester	-13.1775
▁Control	-13.1775
▁widow	-13.1775
▁attain	-13.1775
▁cereal	-13.1775
▁beaver	-13.1775
▁offender	-13.1775
▁biops	-13.1775
▁typeface	-13.1775
▁Fib	-13.1776
▁cherish	-13.1776
▁Shoot	-13.1776
▁salad	-13.1776
▁mantis	-13.1776
▁appall	-13.1776
▁bureaucratic	-13.1776
▁facade	-13.1776
▁admission	-13.1776
▁fridge	-13.1776
▁cubicle	-13.1776
▁Diver	-13.1776
▁maze	-13.1776
▁subset	-13.1777
▁bruise	-13.1778
▁Bono	-13.1778
▁Portland	-13.1778
▁hump	-13.1778
▁Fold	-13.1778
AID	-13.1778
▁Barry	-13.1778
▁shoreline	-13.1779
▁NO	-13.1779
▁communist	-13.178
▁Face	-13.178
▁diplomatic	-13.178
▁Motor	-13.1781
▁precipitat	-13.1782
▁hostage	-13.1782
▁reception	-13.1783
feld	-13.1783
respective	-13.1783
▁narrat	-13.1786
▁Oil	-13.1787
▁Image	-13.1787
▁dataset	-13.1789
▁geneticist	-13.1789
▁Alto	-13.1789
▁DM	-13.1789
▁fundamentalist	-13.1792
▁supplier	-13.1794
▁twentie	-13.1795
▁Mayor	-13.1795
▁slipper	-13.1797
▁electora	-13.1797
environmentalist	-13.1797
▁cough	-13.18
mont	-13.1812
▁Environmental	-13.1813
▁fist	-13.1813
▁Meli	-13.1828
wana	-13.1828
▁Understand	-13.1829
▁Brand	-13.1835
▁anthropolog	-13.1839
▁Donn	-13.1841
▁immersi	-13.1864
▁infuse	-13.1902
▁scarc	-13.1905
▁Baha	-13.1909
▁Hack	-13.1913
▁enact	-13.1918
huma	-13.1965
▁squeez	-13.1969
naut	-13.1973
blood	-13.1977
normal	-13.1983
nuclea	-13.199
known	-13.199
▁cooperat	-13.1995
▁Spin	-13.2039
class	-13.2042
resent	-13.2047
▁puls	-13.2047
▁syllab	-13.2065
▁Roug	-13.2124
▁tomb	-13.2161
lender	-13.217
ctur	-13.2186
▁Proto	-13.2208
aternal	-13.2216
▁porn	-13.2222
▁Mot	-13.2229
▁tackl	-13.2244
▁Kath	-13.225
disciplinar	-13.225
▁photosynthesi	-13.2251
▁megawatt	-13.2251
pocalyp	-13.2251
▁Clark	-13.2251
▁glance	-13.2251
▁griev	-13.2251
▁modification	-13.2251
▁nonverbal	-13.2251
▁prosthes	-13.2251
▁PDF	-13.2251
▁benchmark	-13.2251
▁fatigue	-13.2251
▁intestine	-13.2251
▁reservoir	-13.2251
▁superconductor	-13.2251
angiogen	-13.2251
▁Hiroshi	-13.2251
▁Hurricane	-13.2251
▁Monkey	-13.2251
▁Mosco	-13.2251
▁Odysse	-13.2251
▁Pearl	-13.2251
▁Photoshop	-13.2251
▁Rachel	-13.2251
▁Voyage	-13.2251
▁advertisement	-13.2251
▁aquaculture	-13.2251
▁biodegrad	-13.2251
▁crochet	-13.2251
▁dreadful	-13.2251
▁jealous	-13.2251
▁segregat	-13.2251
▁suspens	-13.2251
▁teapot	-13.2251
▁treadmill	-13.2251
▁ultrasound	-13.2251
▁unhealth	-13.2251
▁immoral	-13.2251
▁pluck	-13.2251
▁Soldier	-13.2251
▁plural	-13.2251
▁reciproc	-13.2251
▁notorious	-13.2251
▁seroton	-13.2251
onologue	-13.2251
▁enlist	-13.2251
▁Financial	-13.2251
▁dashboard	-13.2251
▁retriev	-13.2251
▁dissect	-13.2251
▁revolv	-13.2251
▁summon	-13.2251
▁interference	-13.2251
▁barbershop	-13.2251
loom	-13.2251
▁litigat	-13.2251
▁scripture	-13.2251
▁sentien	-13.2251
▁Judge	-13.2251
▁comedian	-13.2251
▁lemon	-13.2251
▁levitat	-13.2252
▁vacan	-13.2252
▁Protect	-13.2252
▁Maldiv	-13.2252
▁comparative	-13.2252
▁aisle	-13.2252
▁geologist	-13.2252
▁heartbeat	-13.2252
▁deceive	-13.2253
▁FOX	-13.2253
▁enclosure	-13.2253
▁foam	-13.2253
▁pillow	-13.2253
▁prohibition	-13.2253
▁Tiger	-13.2253
▁flare	-13.2253
▁Ryan	-13.2253
▁Rush	-13.2254
▁Jackson	-13.2254
▁cobra	-13.2254
▁dysfunctional	-13.2254
▁accumulation	-13.2254
▁decoration	-13.2254
▁clinician	-13.2254
▁fax	-13.2255
▁sunset	-13.2255
▁pub	-13.2255
▁waist	-13.2255
▁underlie	-13.2255
▁Gand	-13.2255
▁Stir	-13.2256
▁Khan	-13.2256
▁assert	-13.2256
▁Board	-13.2257
▁millennial	-13.2258
▁commandment	-13.2258
▁princess	-13.2259
▁Harle	-13.2259
▁Dear	-13.226
▁rumor	-13.226
▁Emba	-13.226
▁scour	-13.226
▁navigation	-13.2261
▁Tara	-13.2261
▁verify	-13.2261
▁deem	-13.2262
▁Pack	-13.2263
Key	-13.2265
▁spectra	-13.2267
▁grappl	-13.2267
spora	-13.2268
▁youngster	-13.2269
▁crown	-13.2269
▁Walker	-13.2272
▁stark	-13.2272
▁digesti	-13.2273
▁vow	-13.2275
▁worthless	-13.228
▁canoe	-13.2283
▁rug	-13.2283
▁hugg	-13.229
▁teammate	-13.2293
▁leverag	-13.2293
▁dogma	-13.2296
▁Stu	-13.2307
▁adviser	-13.2318
▁lyric	-13.2333
▁Jami	-13.2344
▁cultivat	-13.2352
▁Poet	-13.2367
▁trickle	-13.2377
▁outfit	-13.2386
▁Mario	-13.2388
▁mimick	-13.2389
▁curate	-13.2412
▁Biolog	-13.2425
▁deflect	-13.2427
▁Page	-13.2431
▁aggregat	-13.2433
▁Independen	-13.2437
▁Row	-13.2441
▁defi	-13.2453
▁foresee	-13.2458
▁Midwest	-13.2461
▁Mach	-13.248
NT	-13.2488
▁inflat	-13.2503
▁imitat	-13.2512
▁McC	-13.2524
▁salv	-13.2533
▁Osa	-13.2551
▁slid	-13.2586
▁increment	-13.2591
▁RG	-13.2593
▁calv	-13.2595
▁Mai	-13.2602
▁blur	-13.2655
▁judg	-13.2678
▁underpin	-13.2695
▁Juli	-13.2698
▁Build	-13.2699
sota	-13.2701
ndent	-13.2721
glass	-13.2735
▁millenni	-13.2741
conditional	-13.2744
writing	-13.2746
grav	-13.2749
▁infinit	-13.2751
▁Sustain	-13.2751
▁discharge	-13.2751
▁reprogram	-13.2751
▁rhino	-13.2751
▁serendipit	-13.2751
▁Ecuador	-13.2751
▁incentiviz	-13.2751
▁malignan	-13.2751
▁rearrange	-13.2751
borough	-13.2751
▁Balkan	-13.2751
▁Chief	-13.2751
▁Extreme	-13.2751
▁Hopkin	-13.2751
▁Papua	-13.2751
▁Sleep	-13.2751
▁Traditional	-13.2751
▁Typical	-13.2751
▁appointment	-13.2751
▁bankrupt	-13.2751
▁clarify	-13.2751
▁cradle	-13.2751
▁doctrine	-13.2751
▁dwarf	-13.2751
▁elastic	-13.2751
▁incorrect	-13.2751
▁indefinite	-13.2751
▁inferior	-13.2751
▁irritat	-13.2751
▁medicinal	-13.2751
▁nanotube	-13.2751
▁nephew	-13.2751
▁plummet	-13.2751
▁prominent	-13.2751
▁quark	-13.2751
▁scrambl	-13.2751
▁shareholder	-13.2751
▁toothbrush	-13.2751
▁unravel	-13.2751
▁disclose	-13.2751
▁pragmatic	-13.2751
▁stockpile	-13.2751
▁nanoscale	-13.2751
▁Origin	-13.2751
▁Cook	-13.2751
▁craving	-13.2751
▁exhilarating	-13.2751
▁kitten	-13.2751
▁wilderness	-13.2751
▁detriment	-13.2751
▁jerk	-13.2751
▁plume	-13.2751
▁forensic	-13.2751
▁Oscar	-13.2751
▁Rosling	-13.2751
▁Mongol	-13.2751
▁offense	-13.2751
▁Mandar	-13.2751
▁influenza	-13.2751
▁Nash	-13.2751
▁charisma	-13.2751
▁venom	-13.2751
▁fond	-13.2751
▁megacit	-13.2751
▁tapestr	-13.2751
▁calibrat	-13.2751
▁webcam	-13.2751
▁Negro	-13.2751
▁joking	-13.2752
▁telecom	-13.2752
▁Communi	-13.2752
▁rodent	-13.2752
▁squeak	-13.2752
▁soundscape	-13.2752
▁costume	-13.2752
▁Dark	-13.2752
▁snack	-13.2752
CP	-13.2753
▁foolish	-13.2753
▁whiske	-13.2753
▁Nano	-13.2753
▁philanthropist	-13.2753
▁Special	-13.2754
▁Magic	-13.2754
hariot	-13.2754
▁librarian	-13.2754
▁replication	-13.2754
▁forgiveness	-13.2755
▁invok	-13.2755
▁Karl	-13.2756
polis	-13.2756
▁castle	-13.2756
▁vendor	-13.2756
▁landmark	-13.276
▁embody	-13.2761
▁coil	-13.2762
▁premier	-13.2763
▁RO	-13.2763
▁accountant	-13.2763
▁dropout	-13.2766
ception	-13.2778
▁measl	-13.278
▁privatiz	-13.2786
TP	-13.2787
▁inclin	-13.2791
▁mobiliz	-13.2802
▁inertia	-13.2817
▁paw	-13.2817
protect	-13.2828
▁Ott	-13.2837
▁massage	-13.2838
▁roost	-13.2846
untie	-13.2849
▁Gwe	-13.2855
▁Patric	-13.286
ngue	-13.2865
▁lous	-13.287
▁biomedic	-13.2874
▁Juda	-13.2876
broken	-13.2887
▁Lead	-13.2896
▁interdependenc	-13.2902
▁Eat	-13.2904
▁mandat	-13.2922
uestion	-13.2955
amble	-13.2973
eject	-13.2988
ongratulation	-13.2993
▁Sala	-13.2997
PEC	-13.3032
uick	-13.3055
▁Coch	-13.3094
▁crisp	-13.3139
▁amuse	-13.3157
ansa	-13.3173
▁proliferat	-13.3177
▁Rif	-13.3201
anthrop	-13.3202
▁Calcu	-13.3219
▁atmospher	-13.3235
▁miniatur	-13.3237
▁brillian	-13.3239
echanical	-13.3263
▁criminaliz	-13.327
ampaign	-13.327
▁idealis	-13.3271
▁Romo	-13.3274
▁erupt	-13.3276
▁legitima	-13.3276
▁aggress	-13.3277
incidence	-13.3277
clusion	-13.3277
▁temperat	-13.3277
▁entrenche	-13.3277
▁atrocit	-13.3277
▁encompass	-13.3277
▁launder	-13.3277
▁refresh	-13.3277
▁bargain	-13.3277
▁surpass	-13.3277
▁Brilliant	-13.3277
▁Dublin	-13.3277
▁Generation	-13.3277
▁Matthew	-13.3277
▁Picasso	-13.3277
▁Senegal	-13.3277
▁amplifie	-13.3277
▁buffer	-13.3277
▁dementia	-13.3277
▁derivative	-13.3277
▁dilut	-13.3277
▁discriminate	-13.3277
▁dyslexi	-13.3277
▁engulf	-13.3277
▁filament	-13.3277
▁fountain	-13.3277
▁frugal	-13.3277
▁granddaughter	-13.3277
▁hydrant	-13.3277
▁inflict	-13.3277
▁leisure	-13.3277
▁messenger	-13.3277
▁microRNA	-13.3277
▁outweigh	-13.3277
▁parrot	-13.3277
▁pavilion	-13.3277
▁portfolio	-13.3277
▁preoccup	-13.3277
▁prestig	-13.3277
▁pseudo	-13.3277
▁puzzling	-13.3277
▁questionnaire	-13.3277
▁rejuvenat	-13.3277
▁relentless	-13.3277
▁repositor	-13.3277
▁seatbelt	-13.3277
▁stubborn	-13.3277
▁subconscious	-13.3277
▁troubling	-13.3277
▁unexplo	-13.3277
▁windmill	-13.3277
grazing	-13.3277
▁apprais	-13.3277
▁irregular	-13.3277
ahedron	-13.3277
▁ATM	-13.3277
▁paranoi	-13.3277
▁endemic	-13.3277
▁latter	-13.3277
hawk	-13.3277
▁Stockh	-13.3277
▁ribbon	-13.3277
▁staple	-13.3277
▁empti	-13.3277
▁cramm	-13.3277
▁ministr	-13.3277
▁Barbie	-13.3277
▁Morocc	-13.3277
▁absent	-13.3277
▁collage	-13.3277
▁tornado	-13.3277
▁trawl	-13.3277
▁compulsive	-13.3278
▁vertebrate	-13.3278
▁Operation	-13.3278
▁Mahmo	-13.3278
▁crave	-13.3278
▁marble	-13.3278
▁Barbar	-13.3278
▁gloom	-13.3278
▁precedent	-13.3278
▁evoke	-13.3278
▁knob	-13.3278
▁blindfold	-13.3278
▁Missou	-13.3278
▁adverse	-13.3278
▁Getting	-13.3279
▁implie	-13.3279
▁cavit	-13.3279
▁trance	-13.3279
▁bleach	-13.3279
▁imitation	-13.3279
▁irrigati	-13.328
▁Poem	-13.328
▁skydiv	-13.328
▁Chair	-13.328
▁Money	-13.328
▁smack	-13.3281
▁Giant	-13.3281
▁topograph	-13.3281
▁handbag	-13.3281
▁disagreement	-13.3281
▁purse	-13.3281
▁resourceful	-13.3281
▁peripheral	-13.3282
▁Fifth	-13.3282
▁VR	-13.3282
▁fulfillment	-13.3283
▁Grey	-13.3283
▁incapa	-13.3283
hapel	-13.3284
▁sculptor	-13.3285
▁coward	-13.3285
▁schizophrenic	-13.3285
▁guru	-13.3286
▁inhale	-13.3288
▁fringe	-13.3289
▁Galva	-13.3289
▁ripe	-13.329
▁deform	-13.329
▁husk	-13.3291
▁HP	-13.3293
teau	-13.3293
▁Uru	-13.3295
eagle	-13.3299
▁monet	-13.3302
▁niche	-13.3311
▁Litera	-13.3319
▁chopp	-13.3329
▁crest	-13.3338
▁Hyde	-13.3343
▁scor	-13.3352
▁recurren	-13.3354
▁bagg	-13.3405
▁nutritional	-13.3408
Tun	-13.341
▁intercept	-13.3421
saver	-13.3424
▁dodg	-13.3427
▁gripp	-13.3436
▁Bagh	-13.3458
blinking	-13.3487
▁Brea	-13.3535
nya	-13.3544
authoriz	-13.3545
▁Bret	-13.357
▁disintegrat	-13.3578
ME	-13.365
▁KT	-13.3662
LM	-13.3681
▁unchang	-13.3695
▁improvis	-13.3706
▁persuad	-13.373
wesome	-13.374
nect	-13.3748
▁diverg	-13.3758
▁secre	-13.3762
spiring	-13.377
hhh	-13.377
▁reconcili	-13.3787
▁instruct	-13.3818
▁precipi	-13.3824
▁dysfunction	-13.3829
▁giga	-13.3831
▁conven	-13.3832
▁biomimic	-13.3833
▁multitask	-13.3833
▁contingen	-13.3833
▁scribbl	-13.3833
▁skyrocket	-13.3833
▁Beatle	-13.3833
▁Blood	-13.3833
▁Bueno	-13.3833
▁Chicken	-13.3833
▁Festival	-13.3833
▁Hispanic	-13.3833
▁Laptop	-13.3833
▁Malaysia	-13.3833
▁Reserve	-13.3833
▁Studio	-13.3833
▁Thursday	-13.3833
▁administer	-13.3833
▁affluen	-13.3833
▁antidote	-13.3833
▁autobiograph	-13.3833
▁bonobo	-13.3833
▁bumblebee	-13.3833
▁decisive	-13.3833
▁deconstruct	-13.3833
▁denominator	-13.3833
▁firefight	-13.3833
▁hardwir	-13.3833
▁incision	-13.3833
▁ineffective	-13.3833
▁legislator	-13.3833
▁nostalgi	-13.3833
▁outskirt	-13.3833
▁precursor	-13.3833
▁predominant	-13.3833
▁prehistor	-13.3833
▁relocate	-13.3833
▁repetitive	-13.3833
▁republic	-13.3833
▁shrunk	-13.3833
▁sophistication	-13.3833
▁squirrel	-13.3833
▁thermostat	-13.3833
▁umbrella	-13.3833
▁Capital	-13.3833
▁Disease	-13.3833
▁astrophysic	-13.3833
▁defecat	-13.3833
▁scrutin	-13.3833
▁transcript	-13.3833
▁Critic	-13.3833
▁Electric	-13.3833
▁crease	-13.3833
solicit	-13.3833
▁Buffet	-13.3833
▁artisan	-13.3833
▁coworker	-13.3833
▁occurrence	-13.3833
▁reckon	-13.3833
▁redistribut	-13.3833
▁perfume	-13.3833
▁DIY	-13.3833
▁sermon	-13.3833
pirac	-13.3833
▁Horse	-13.3833
▁decay	-13.3833
▁traumatiz	-13.3833
▁paleontologist	-13.3833
▁provocative	-13.3833
▁typograph	-13.3833
▁mediocr	-13.3833
reversibl	-13.3833
anguish	-13.3833
IKE	-13.3833
▁pediatrician	-13.3833
▁sensual	-13.3833
▁Grant	-13.3833
▁Donald	-13.3833
▁proxim	-13.3833
▁fibro	-13.3833
▁cymatic	-13.3834
▁Crime	-13.3834
NES	-13.3834
argass	-13.3834
▁synonymous	-13.3834
▁Robotic	-13.3834
▁disappointment	-13.3834
▁Airport	-13.3834
▁altruistic	-13.3834
tobac	-13.3834
▁Boom	-13.3834
▁interval	-13.3835
▁activation	-13.3835
▁abyss	-13.3835
▁impairment	-13.3835
▁Morgan	-13.3835
▁oceanograph	-13.3835
▁Vienn	-13.3836
▁Bloom	-13.3836
▁vaccination	-13.3837
▁strawberr	-13.3837
▁elevation	-13.3838
▁speculation	-13.3838
▁Hanna	-13.3838
▁Sixty	-13.3838
▁Feel	-13.3838
▁Product	-13.3839
▁Meet	-13.3839
▁grandma	-13.384
▁Joan	-13.3841
▁fluent	-13.3841
▁NM	-13.3842
▁bloodstream	-13.3842
▁resume	-13.3842
▁headset	-13.3846
▁Berg	-13.3848
▁motivator	-13.3852
▁Flu	-13.3857
▁Archimed	-13.3861
wheel	-13.3868
▁Java	-13.3876
▁asymmetric	-13.3877
▁utiliz	-13.3879
CH	-13.388
practical	-13.3881
▁Mali	-13.3882
rugged	-13.3885
continent	-13.3889
peace	-13.3891
BO	-13.3892
ndra	-13.3929
▁rude	-13.3931
circle	-13.3953
▁aroma	-13.3956
assem	-13.3965
▁Tyle	-13.3976
prene	-13.3976
▁Mayan	-13.3986
▁substitut	-13.3988
EP	-13.4011
pulsion	-13.4052
chuck	-13.4069
▁starch	-13.4071
▁conceivabl	-13.4074
▁considerabl	-13.4075
▁secretar	-13.4091
▁McCa	-13.4097
▁modernis	-13.41
▁exercis	-13.4136
nstrual	-13.4208
chrom	-13.422
▁bik	-13.4225
roadway	-13.4254
ML	-13.4289
▁cub	-13.4304
▁NB	-13.4315
▁interven	-13.4327
▁rehabilitat	-13.4339
▁Chang	-13.434
▁incorporat	-13.4341
▁academi	-13.4347
▁disappoint	-13.4367
▁procrastinat	-13.4387
▁southwest	-13.4397
enchant	-13.4405
▁intersect	-13.441
▁Develop	-13.442
▁lexico	-13.4421
▁maggot	-13.4421
▁peacebuild	-13.4421
▁practitioner	-13.4421
▁relauncher	-13.4421
▁terabyte	-13.4421
phobia	-13.4421
▁gradient	-13.4421
▁lightbulb	-13.4421
▁neutrino	-13.4421
▁Challenge	-13.4421
▁Elephant	-13.4421
▁antiretroviral	-13.4421
▁asphalt	-13.4421
▁coconut	-13.4421
▁conjure	-13.4421
▁exoskeleton	-13.4421
▁heterosexual	-13.4421
▁metaboliz	-13.4421
▁rhyme	-13.4421
▁sprinkle	-13.4421
▁squatter	-13.4421
▁synagogue	-13.4421
percussion	-13.4421
▁Choir	-13.4421
▁Constitution	-13.4421
▁Dimitr	-13.4421
▁Harbor	-13.4421
▁Mitchell	-13.4421
▁Wednesday	-13.4421
▁administrative	-13.4421
▁amygdala	-13.4421
▁campfire	-13.4421
▁circus	-13.4421
▁discount	-13.4421
▁inflammat	-13.4421
▁instantaneous	-13.4421
▁monolith	-13.4421
▁ominous	-13.4421
▁paintbrush	-13.4421
▁pellet	-13.4421
▁persecut	-13.4421
▁pianist	-13.4421
▁pinnacle	-13.4421
▁precaution	-13.4421
▁rehearsal	-13.4421
▁reversal	-13.4421
▁squish	-13.4421
▁multicultural	-13.4421
▁substrate	-13.4421
eminent	-13.4421
▁multimedia	-13.4421
RCA	-13.4421
▁nominate	-13.4421
▁Anthon	-13.4421
▁orchard	-13.4421
▁churn	-13.4421
▁Persian	-13.4421
▁Bowl	-13.4421
▁paddle	-13.4421
▁saint	-13.4421
eautiful	-13.4421
▁Animal	-13.4421
▁aquari	-13.4421
trophy	-13.4421
▁Trek	-13.4421
▁Citizen	-13.4421
▁cursor	-13.4421
▁Erik	-13.4421
▁Leave	-13.4421
▁autops	-13.4421
▁seductive	-13.4421
▁synerg	-13.4421
▁saddle	-13.4421
▁mailbox	-13.4421
▁dividend	-13.4421
▁Maslow	-13.4421
▁expir	-13.4421
▁palace	-13.4421
▁Sudh	-13.4421
▁furious	-13.4421
▁Shame	-13.4422
▁Gehr	-13.4422
Vision	-13.4422
▁Geoff	-13.4422
▁coerci	-13.4422
▁Galax	-13.4422
cortic	-13.4422
▁theorem	-13.4422
▁hyperbolic	-13.4422
▁Ranger	-13.4422
▁cofounde	-13.4422
▁retard	-13.4422
▁wobbl	-13.4423
▁outlier	-13.4423
▁Fact	-13.4423
▁delightful	-13.4423
▁eruption	-13.4423
LAM	-13.4423
▁exert	-13.4423
litude	-13.4423
▁examination	-13.4424
▁Sufi	-13.4424
▁dumm	-13.4424
▁Needles	-13.4424
▁Parent	-13.4424
▁garment	-13.4424
▁exaggeration	-13.4424
▁gateway	-13.4424
▁litter	-13.4425
▁relay	-13.4425
▁Finger	-13.4425
▁qualitative	-13.4425
▁shaman	-13.4425
▁curb	-13.4426
▁Saul	-13.4426
▁obsessive	-13.4426
palpabl	-13.4427
flux	-13.4428
▁blackboard	-13.443
▁invert	-13.443
▁hail	-13.4433
ucifer	-13.4434
ahoo	-13.4435
▁vase	-13.4445
characterize	-13.4451
EB	-13.4454
foil	-13.4474
▁Biospher	-13.4485
▁spik	-13.4495
▁batch	-13.4495
▁classify	-13.45
Hex	-13.45
▁advisor	-13.4502
▁credib	-13.4504
▁Total	-13.4514
▁predat	-13.4521
▁hyperactiv	-13.4558
▁Architectur	-13.4573
contaminate	-13.459
▁culminat	-13.4606
▁handwrit	-13.4606
acted	-13.4607
EF	-13.4619
▁malleab	-13.4659
▁Sata	-13.4661
medicine	-13.4724
▁insulat	-13.4728
▁battl	-13.4755
▁invisib	-13.4761
▁meditati	-13.4768
awkins	-13.4771
▁Tak	-13.4804
intermediat	-13.4837
▁immunit	-13.4853
zzar	-13.4858
spiration	-13.4888
lbert	-13.4916
ymphon	-13.4922
▁spiritualit	-13.4953
▁prosc	-13.4957
hoot	-13.4974
rbie	-13.4989
▁rigg	-13.4989
▁accord	-13.4994
publish	-13.5005
▁extremis	-13.5007
government	-13.5011
▁suicid	-13.5017
▁hype	-13.5023
▁Speci	-13.5036
▁dynam	-13.5036
▁restricti	-13.5043
▁irrigat	-13.5043
ntelligence	-13.5045
▁Schwarz	-13.5046
▁amphibian	-13.5046
▁beehive	-13.5046
▁disguise	-13.5046
▁dismantle	-13.5046
▁latrine	-13.5046
▁merchant	-13.5046
▁modalit	-13.5046
▁snippet	-13.5046
▁spreadsheet	-13.5046
▁Communication	-13.5046
▁brothel	-13.5046
▁bulldoz	-13.5046
▁daydream	-13.5046
▁detergent	-13.5046
▁embass	-13.5046
▁exacerbat	-13.5046
▁neurologist	-13.5046
▁paycheck	-13.5046
▁reassure	-13.5046
Brigade	-13.5046
boriginal	-13.5046
▁Airbnb	-13.5046
▁Blair	-13.5046
▁Clean	-13.5046
▁EEG	-13.5046
▁Mauriti	-13.5046
▁Orchestra	-13.5046
▁Serbia	-13.5046
▁Statistic	-13.5046
▁Termina	-13.5046
▁Vagina	-13.5046
▁Visual	-13.5046
▁carriage	-13.5046
▁consolidat	-13.5046
▁constituenc	-13.5046
▁cowboy	-13.5046
▁deficien	-13.5046
▁definitive	-13.5046
▁embodiment	-13.5046
▁embroider	-13.5046
▁fifty	-13.5046
▁grue	-13.5046
▁involuntar	-13.5046
▁laparoscopic	-13.5046
▁monaster	-13.5046
▁patriarch	-13.5046
▁psychotherap	-13.5046
▁ruthless	-13.5046
▁sabbatical	-13.5046
▁surrogate	-13.5046
▁suspicion	-13.5046
▁Cool	-13.5046
▁Floren	-13.5046
▁Nikola	-13.5046
▁Summer	-13.5046
▁burglar	-13.5046
▁debut	-13.5046
▁retaliat	-13.5046
▁Jacob	-13.5046
▁inequit	-13.5046
▁wizard	-13.5046
▁Major	-13.5046
▁gauge	-13.5046
▁Neuman	-13.5046
▁alleged	-13.5046
▁carcass	-13.5046
▁massacre	-13.5046
▁pinch	-13.5046
▁seaweed	-13.5046
▁Eames	-13.5046
▁jumble	-13.5046
▁morpholog	-13.5046
▁reunite	-13.5046
zhen	-13.5046
▁Alexandria	-13.5046
▁combusti	-13.5046
▁vitro	-13.5046
▁Cruz	-13.5046
▁palette	-13.5046
▁Stalin	-13.5046
▁cohesi	-13.5046
▁crunch	-13.5046
▁CPU	-13.5046
▁crippl	-13.5046
▁Study	-13.5046
▁progeri	-13.5046
▁radiologist	-13.5046
focal	-13.5046
▁cartograph	-13.5046
▁mourn	-13.5046
▁franchise	-13.5046
▁dissent	-13.5046
▁righteous	-13.5046
▁instill	-13.5046
▁Dragon	-13.5047
▁crumbl	-13.5047
▁Goodbye	-13.5047
▁tedious	-13.5047
▁Commandment	-13.5047
▁kettle	-13.5047
▁suburbia	-13.5047
▁shack	-13.5047
▁Search	-13.5047
▁numerical	-13.5047
▁Ahmed	-13.5047
▁Infinit	-13.5047
▁hierarchical	-13.5047
▁Martian	-13.5047
▁lust	-13.5048
▁revisit	-13.5048
▁tradeoff	-13.5048
▁toolbox	-13.5048
▁ghetto	-13.5049
▁rehab	-13.5049
▁flashlight	-13.5049
▁Ern	-13.5049
▁submission	-13.5049
▁milestone	-13.505
▁Team	-13.505
▁empathize	-13.505
▁pacemaker	-13.5051
▁Jarr	-13.5051
▁ascend	-13.5053
▁Champ	-13.5054
▁symbolize	-13.5055
▁tenure	-13.5056
▁triangula	-13.5059
▁dragline	-13.506
▁sushi	-13.5067
▁recreat	-13.5068
▁Break	-13.5083
▁Name	-13.5086
▁panick	-13.5089
▁molt	-13.5094
raining	-13.5101
HIN	-13.513
LL	-13.5144
▁porch	-13.5177
harmonic	-13.519
▁Happi	-13.5257
adulter	-13.5376
resting	-13.5452
flection	-13.546
onald	-13.5464
▁Driv	-13.5495
heav	-13.5524
▁conduc	-13.5581
median	-13.5592
uza	-13.5611
▁neurologic	-13.563
▁etern	-13.5647
▁Environment	-13.5656
▁elegan	-13.568
▁decreas	-13.5685
▁Northwest	-13.5698
inister	-13.5698
nitiative	-13.5712
▁sociolog	-13.5713
▁intertwine	-13.5713
▁aristocra	-13.5713
▁circum	-13.5713
▁metastas	-13.5713
▁pilgrim	-13.5713
▁Cameroon	-13.5713
▁annihilat	-13.5713
▁comprehend	-13.5713
▁crucifi	-13.5713
▁leapfrog	-13.5713
cushion	-13.5713
▁Agricultur	-13.5713
▁Charlotte	-13.5713
▁Chernobyl	-13.5713
▁Johannes	-13.5713
▁Ottoman	-13.5713
▁Simpson	-13.5713
▁Standard	-13.5713
▁Volunteer	-13.5713
▁adrenalin	-13.5713
▁alleviate	-13.5713
▁amputation	-13.5713
▁appendage	-13.5713
▁arsenal	-13.5713
▁astrolabe	-13.5713
▁bottleneck	-13.5713
▁brochure	-13.5713
▁corpus	-13.5713
▁corrosi	-13.5713
▁deceptive	-13.5713
▁duplicate	-13.5713
▁eloquent	-13.5713
▁emerald	-13.5713
▁evacuat	-13.5713
▁expenditure	-13.5713
▁furnace	-13.5713
▁geopolitic	-13.5713
▁glaze	-13.5713
▁grill	-13.5713
▁handcuff	-13.5713
▁hologram	-13.5713
▁horrify	-13.5713
▁hotspot	-13.5713
▁impoverish	-13.5713
▁inadvertent	-13.5713
▁judicia	-13.5713
▁kilowatt	-13.5713
▁microprocessor	-13.5713
▁nanoparticle	-13.5713
▁neutron	-13.5713
▁nugget	-13.5713
▁orthopedic	-13.5713
▁pajama	-13.5713
▁patrioti	-13.5713
▁perimeter	-13.5713
▁plaque	-13.5713
▁plaza	-13.5713
▁pluripoten	-13.5713
▁protagonist	-13.5713
▁punctuat	-13.5713
▁quadruple	-13.5713
▁reassemble	-13.5713
▁reassuring	-13.5713
▁rehearse	-13.5713
▁reverberat	-13.5713
▁rifle	-13.5713
▁rudder	-13.5713
▁salamander	-13.5713
▁schematic	-13.5713
▁suffocat	-13.5713
▁supreme	-13.5713
▁typewriter	-13.5713
▁underdog	-13.5713
▁Authorit	-13.5713
▁Emmanuel	-13.5713
▁Gabriel	-13.5713
▁Viagra	-13.5713
▁detain	-13.5713
▁disengage	-13.5713
▁razor	-13.5713
▁upstreamist	-13.5713
▁outperform	-13.5713
▁unsafe	-13.5713
▁Fisher	-13.5713
▁Orange	-13.5713
▁clerk	-13.5713
▁Adult	-13.5713
▁Douglas	-13.5713
▁logarithm	-13.5713
▁Brenda	-13.5713
▁Complete	-13.5713
possum	-13.5713
▁Rabbi	-13.5713
▁dexter	-13.5713
▁superintelligen	-13.5713
▁landmine	-13.5713
▁utilitarian	-13.5713
▁Runn	-13.5713
▁ballast	-13.5713
▁humpback	-13.5713
▁Claus	-13.5713
▁exclusion	-13.5713
▁Morning	-13.5713
▁compensati	-13.5713
▁duct	-13.5713
Script	-13.5713
▁titani	-13.5713
▁Marri	-13.5713
▁vault	-13.5713
▁stalk	-13.5713
▁actress	-13.5713
▁Charter	-13.5713
▁Belgi	-13.5713
▁Panama	-13.5713
▁Naj	-13.5714
▁disast	-13.5714
▁doorstep	-13.5714
STE	-13.5714
▁defensive	-13.5714
▁Boeing	-13.5714
▁salut	-13.5714
▁facilitator	-13.5714
▁prolong	-13.5714
▁Stroma	-13.5715
▁Grove	-13.5715
▁graze	-13.5715
▁savor	-13.5715
▁revert	-13.5716
▁stigmatiz	-13.5716
▁repel	-13.5716
▁xeno	-13.5718
ucci	-13.5718
eligi	-13.572
▁seduce	-13.572
▁eclipse	-13.572
USB	-13.5721
rigor	-13.5727
▁dangl	-13.5728
▁crani	-13.5734
▁Jerem	-13.5735
▁slug	-13.5751
CAT	-13.5752
▁Marl	-13.5771
immin	-13.5775
amara	-13.5785
Box	-13.5787
monar	-13.5816
▁Train	-13.5823
▁menstruati	-13.5845
▁Madi	-13.5857
▁premi	-13.5868
▁undermin	-13.5876
▁attribut	-13.5897
leigh	-13.595
llows	-13.6019
▁exchang	-13.6059
nhuman	-13.6064
▁preferabl	-13.6089
happiness	-13.6116
hocke	-13.6117
connected	-13.613
ertie	-13.6132
hotom	-13.6148
justifi	-13.6171
euros	-13.6294
▁conductiv	-13.6302
pecific	-13.6312
dministration	-13.6332
▁reconfigur	-13.6364
▁Greg	-13.6368
RT	-13.6374
▁feminis	-13.6385
ctus	-13.6387
▁negativ	-13.6393
▁Victoria	-13.6414
▁Tasmania	-13.6414
glaci	-13.6416
ritage	-13.6424
▁bureaucrat	-13.6425
ccasional	-13.6426
▁Command	-13.6426
▁recess	-13.6426
▁pediatric	-13.6426
appointed	-13.6427
▁compartment	-13.6427
ludge	-13.6427
▁Impossib	-13.6427
▁buffalo	-13.6427
▁demoraliz	-13.6427
munition	-13.6427
neurotransmitter	-13.6427
obstruct	-13.6427
▁Aquariu	-13.6427
▁Bolivia	-13.6427
▁Chapter	-13.6427
▁Committe	-13.6427
▁Cornell	-13.6427
▁Dominican	-13.6427
▁Faiza	-13.6427
▁Follow	-13.6427
▁Future	-13.6427
▁Gapminder	-13.6427
▁Increasing	-13.6427
▁Instagram	-13.6427
▁Kickstarter	-13.6427
▁Kurzweil	-13.6427
▁Kuwait	-13.6427
▁Message	-13.6427
▁Moham	-13.6427
▁Plastic	-13.6427
▁Principle	-13.6427
▁Rhode	-13.6427
▁Scoop	-13.6427
▁Thula	-13.6427
▁Transition	-13.6427
▁approximation	-13.6427
▁bailout	-13.6427
▁barbecue	-13.6427
▁biblical	-13.6427
▁blossom	-13.6427
▁bystander	-13.6427
▁cardiologist	-13.6427
▁concussion	-13.6427
▁crayon	-13.6427
▁dazzl	-13.6427
▁delegation	-13.6427
▁dissident	-13.6427
▁donkey	-13.6427
▁enlarg	-13.6427
▁excruciating	-13.6427
▁flirt	-13.6427
▁fragrance	-13.6427
▁granular	-13.6427
▁hospice	-13.6427
▁juxtaposition	-13.6427
▁kelp	-13.6427
▁kidnapping	-13.6427
▁kiosk	-13.6427
▁marshmallow	-13.6427
▁memoir	-13.6427
▁meritocra	-13.6427
▁microorganism	-13.6427
▁paraphras	-13.6427
▁prairie	-13.6427
▁propriet	-13.6427
▁reframe	-13.6427
▁remorse	-13.6427
▁soybean	-13.6427
▁spectacle	-13.6427
▁squirt	-13.6427
▁strangl	-13.6427
▁submerge	-13.6427
▁subtitle	-13.6427
▁superficial	-13.6427
▁transgress	-13.6427
▁uncommon	-13.6427
▁unicorn	-13.6427
▁unpack	-13.6427
▁uterus	-13.6427
▁vigorous	-13.6427
▁frantic	-13.6427
▁homophobi	-13.6427
▁prophec	-13.6427
Family	-13.6427
▁Angola	-13.6427
▁Reddit	-13.6427
▁reunion	-13.6427
▁mountaintop	-13.6427
redeem	-13.6427
▁Toraja	-13.6427
▁geyser	-13.6427
▁coarse	-13.6427
▁complacen	-13.6427
mendment	-13.6427
▁overdose	-13.6427
▁PET	-13.6427
▁sympathetic	-13.6427
▁taxonom	-13.6427
▁carving	-13.6427
vicini	-13.6427
▁equate	-13.6427
▁Igbo	-13.6427
▁probiotic	-13.6427
▁Inuit	-13.6427
▁outlaw	-13.6427
▁urchin	-13.6427
lligator	-13.6427
▁Immediate	-13.6427
▁sculptural	-13.6427
▁crypto	-13.6427
▁disturbance	-13.6428
▁darn	-13.6428
▁Devil	-13.6428
▁PCB	-13.6428
▁Malari	-13.6428
▁Studie	-13.6428
ipher	-13.6428
▁repay	-13.6428
▁grandmaster	-13.6428
▁handicap	-13.6428
NIC	-13.6428
▁Easy	-13.6428
▁abduct	-13.6429
▁serif	-13.6429
▁await	-13.6429
▁beacon	-13.6429
▁Fellow	-13.6429
▁demons	-13.6429
▁Tempe	-13.643
▁overhear	-13.643
▁slack	-13.6439
adjustment	-13.6441
▁resurrecti	-13.6448
▁trench	-13.6453
capitalize	-13.646
▁dash	-13.6474
ominee	-13.6476
▁statu	-13.6481
handler	-13.6491
ozy	-13.6494
▁presiden	-13.6506
▁miniaturiz	-13.6532
▁decod	-13.655
exhausti	-13.6558
ectom	-13.6565
▁proliferati	-13.6568
feasibl	-13.6581
▁Humanit	-13.6599
▁Kerr	-13.6729
▁sentenc	-13.6733
▁counteract	-13.6848
uarter	-13.695
▁Architect	-13.6999
▁fratern	-13.7003
▁refuge	-13.7016
▁conceiv	-13.7025
▁feasib	-13.7035
▁parasit	-13.7042
▁spong	-13.7043
rofo	-13.7066
ynthetic	-13.7073
frost	-13.7139
▁sublim	-13.7145
▁fluorescen	-13.7158
▁Somali	-13.7161
▁Industr	-13.7163
▁nutritio	-13.7178
misphere	-13.7187
valuation	-13.7189
ennial	-13.7192
▁restorati	-13.7193
▁linguist	-13.7194
▁situat	-13.7194
▁electromagnet	-13.7194
▁posit	-13.7195
Direct	-13.7196
▁debilitat	-13.7196
▁microblogg	-13.7196
▁rhinovirus	-13.7196
▁skateboard	-13.7196
▁Classic	-13.7196
▁disorient	-13.7196
▁trespass	-13.7196
cautious	-13.7196
discretion	-13.7196
mphatic	-13.7196
▁Announce	-13.7196
▁Buckminster	-13.7196
▁Coach	-13.7196
▁Curiosit	-13.7196
▁Diamond	-13.7196
▁District	-13.7196
▁Eagle	-13.7196
▁Emergenc	-13.7196
▁Furby	-13.7196
▁Glacier	-13.7196
▁Kazak	-13.7196
▁Lindberg	-13.7196
▁Macintosh	-13.7196
▁McLuhan	-13.7196
▁Scrapper	-13.7196
▁Skycar	-13.7196
▁Treasur	-13.7196
▁Utopia	-13.7196
▁Valdez	-13.7196
▁abolish	-13.7196
▁amoeba	-13.7196
▁amputee	-13.7196
▁blush	-13.7196
▁botanical	-13.7196
▁breeze	-13.7196
▁caffein	-13.7196
▁cassette	-13.7196
▁caterpillar	-13.7196
▁chimney	-13.7196
▁colossal	-13.7196
▁contempt	-13.7196
▁critique	-13.7196
▁critter	-13.7196
▁culprit	-13.7196
▁cyberattack	-13.7196
▁darling	-13.7196
▁decoupl	-13.7196
▁demolish	-13.7196
▁departure	-13.7196
▁desolate	-13.7196
▁dessert	-13.7196
▁escort	-13.7196
▁filth	-13.7196
▁hashtag	-13.7196
▁isotope	-13.7196
▁joystick	-13.7196
▁labyrinth	-13.7196
▁lobster	-13.7196
▁microsecond	-13.7196
▁milkweed	-13.7196
▁playwright	-13.7196
▁remnant	-13.7196
▁reorganize	-13.7196
▁scooter	-13.7196
▁stereotypical	-13.7196
▁succumb	-13.7196
▁supernatural	-13.7196
▁translucen	-13.7196
▁undesir	-13.7196
▁whistleblower	-13.7196
▁windshield	-13.7196
▁barcode	-13.7196
▁bastard	-13.7196
▁complementar	-13.7196
▁eleven	-13.7196
▁hexagon	-13.7196
▁mechanistic	-13.7196
▁renovat	-13.7196
▁replenish	-13.7196
▁Michoac	-13.7196
▁discontinu	-13.7196
▁caution	-13.7196
▁conceal	-13.7196
▁genealog	-13.7196
▁abdomen	-13.7196
▁calamit	-13.7196
▁motel	-13.7196
▁subvert	-13.7196
▁inaugura	-13.7196
▁capillar	-13.7196
▁View	-13.7196
▁Linked	-13.7196
▁flopp	-13.7196
▁shipyard	-13.7196
▁twitch	-13.7196
▁videotape	-13.7196
▁monstro	-13.7196
readnought	-13.7196
▁Brent	-13.7196
▁Jeep	-13.7196
▁boast	-13.7196
▁dismay	-13.7196
▁craftsman	-13.7196
▁Gaga	-13.7196
▁cramp	-13.7196
▁Nucle	-13.7196
▁Clinic	-13.7196
▁disclosure	-13.7196
▁presumption	-13.7196
▁wiki	-13.7196
▁Cyber	-13.7196
▁Protest	-13.7196
▁telegraph	-13.7196
▁orchid	-13.7196
▁relegate	-13.7196
▁percolat	-13.7196
▁denounce	-13.7197
▁clogg	-13.7197
▁biomechanic	-13.7197
▁spectator	-13.7197
▁Carbon	-13.7197
▁dweller	-13.7197
▁slang	-13.7197
▁footnote	-13.7197
▁Pleuro	-13.7197
▁crystalliz	-13.7197
▁uneas	-13.7197
atops	-13.7197
▁futil	-13.7198
▁recap	-13.7199
▁Bonne	-13.72
▁crutch	-13.72
▁Bilb	-13.7202
▁inoculat	-13.7204
▁emanat	-13.721
nterface	-13.722
▁tenaci	-13.7222
▁bash	-13.7238
▁Grann	-13.7271
▁undoubt	-13.7271
▁academ	-13.7289
▁interdependen	-13.7306
degenerati	-13.7308
▁deregulati	-13.7323
enesis	-13.7343
nnett	-13.7369
▁Sandr	-13.7402
▁convuls	-13.7436
▁patern	-13.7452
▁Vote	-13.7607
▁congratulat	-13.7632
dimensional	-13.7676
Soft	-13.769
▁bubbl	-13.7703
nowledge	-13.7708
ensibl	-13.7872
pparent	-13.7935
▁Columb	-13.7953
variabl	-13.7954
▁northwest	-13.7984
▁advert	-13.8014
biotic	-13.8014
▁prolif	-13.8027
▁fluctuat	-13.8028
▁implicat	-13.8028
▁Olymp	-13.8028
bject	-13.8028
▁illitera	-13.8029
▁coincide	-13.8029
▁Moderat	-13.8029
▁Transparen	-13.8029
▁absorpti	-13.8029
▁electrifie	-13.8029
▁Hippocrat	-13.8029
▁custod	-13.8029
▁hitchhik	-13.8029
▁infiltrat	-13.8029
▁masculin	-13.8029
▁orchestrate	-13.8029
▁reintroduce	-13.8029
▁subordinat	-13.8029
▁Eleven	-13.8029
▁Spirit	-13.8029
▁commemorat	-13.8029
▁conjecture	-13.8029
▁cyborg	-13.8029
▁dwindl	-13.8029
▁grizzl	-13.8029
conclusive	-13.8029
haraoh	-13.8029
misunderstanding	-13.8029
ounterterroris	-13.8029
simplification	-13.8029
▁Advanc	-13.8029
▁Choice	-13.8029
▁Corexit	-13.8029
▁Declar	-13.8029
▁Ezra	-13.8029
▁Folk	-13.8029
▁LOLcat	-13.8029
▁Metropoli	-13.8029
▁Minute	-13.8029
▁Mushroom	-13.8029
▁Photograph	-13.8029
▁Volvo	-13.8029
▁WorldWide	-13.8029
▁Yugoslav	-13.8029
▁abrupt	-13.8029
▁actuator	-13.8029
▁adhesive	-13.8029
▁bachelor	-13.8029
▁bracket	-13.8029
▁briquette	-13.8029
▁bullshit	-13.8029
▁cheetah	-13.8029
▁clunk	-13.8029
▁clutch	-13.8029
▁coincidental	-13.8029
▁constituent	-13.8029
▁contraption	-13.8029
▁cortiso	-13.8029
▁diagonal	-13.8029
▁dissonance	-13.8029
▁euthan	-13.8029
▁ferocious	-13.8029
▁fingernail	-13.8029
▁hypnoti	-13.8029
▁hysterical	-13.8029
▁imprint	-13.8029
▁indiscriminate	-13.8029
▁insufficient	-13.8029
▁insurgent	-13.8029
▁jirga	-13.8029
▁kangaroo	-13.8029
▁lattice	-13.8029
▁megabyte	-13.8029
▁mislead	-13.8029
♫	-15.3228
