,	274276
.	224362
▁the	174379
s	137303
▁to	111518
'	109172
▁of	101498
▁and	95028
▁a	94639
▁that	79324
▁I	73482
▁in	67598
▁is	55991
▁it	54873
▁you	54746
▁we	49239
▁	43717
▁And	37902
▁this	36595
t	32307
▁was	27194
0	26177
▁for	25478
▁are	24565
▁have	24209
▁they	23261
▁on	22653
▁--	21747
▁with	21580
▁can	20784
-	20037
▁So	19905
?	19704
▁what	19257
re	19084
▁about	18647
▁be	18602
▁at	16664
▁as	16661
▁not	16036
▁all	15964
▁do	15772
ing	15541
▁there	14917
d	14441
▁people	14222
▁my	14199
▁one	14033
▁so	14022
▁like	14011
▁It	13943
▁"	13941
▁from	13602
▁but	12852
ed	12837
m	12833
▁an	12675
:	12370
1	12325
▁our	12100
▁or	11919
▁just	11845
▁We	11527
▁But	11129
▁out	11118
▁me	11115
▁if	11040
▁these	10986
▁know	10698
▁very	10508
▁them	10387
▁The	10273
▁up	10205
▁by	10157
ve	10093
▁going	9993
▁when	9828
▁he	9710
▁because	9651
▁more	9626
▁had	9575
▁see	9237
▁think	9205
▁who	9056
▁were	8960
▁their	8818
▁which	8803
▁your	8761
▁would	8570
▁really	8496
▁how	8482
▁get	8339
2	8012
▁us	7862
▁world	7606
▁time	7583
▁here	7518
▁then	7502
▁has	7400
▁This	7252
▁into	7115
▁some	7111
▁You	7072
▁don	7032
▁actually	6991
▁way	6849
ly	6702
▁years	6686
▁where	6678
▁will	6663
▁things	6581
▁go	6572
▁now	6513
▁other	6403
▁want	6368
▁Now	6339
▁could	6303
▁They	6114
▁make	6099
▁been	6097
▁said	5687
5	5502
▁something	5424
▁no	5365
y	5308
ll	5290
▁right	5275
▁than	5252
▁those	5220
▁two	5190
▁first	5149
▁over	5064
▁also	5032
▁back	4947
▁got	4943
▁thing	4871
▁little	4841
▁much	4827
er	4826
▁look	4721
▁In	4659
▁say	4654
▁work	4597
▁That	4587
9	4548
▁only	4525
▁she	4452
▁life	4447
▁his	4423
▁most	4419
▁need	4391
e	4390
▁even	4290
n	4210
▁many	4184
▁take	4146
▁lot	4083
▁kind	4060
▁new	3977
▁did	3951
3	3937
▁good	3936
▁around	3911
▁different	3840
p	3834
▁What	3828
▁♫	3803
▁There	3714
▁down	3710
▁her	3682
al	3663
▁through	3564
▁He	3542
▁every	3509
▁same	3495
▁come	3442
r	3415
▁use	3389
▁A	3377
▁put	3360
▁being	3343
;	3287
es	3275
▁doing	3270
c	3235
▁day	3179
▁If	3177
▁three	3172
4	3159
▁well	3057
in	3054
▁any	3013
▁called	3010
▁percent	3004
▁made	2911
g	2905
▁find	2891
▁fact	2882
8	2878
▁Well	2877
▁human	2843
▁talk	2780
▁tell	2780
▁why	2756
▁year	2731
u	2725
▁change	2688
▁didn	2659
▁own	2647
▁great	2635
▁today	2614
▁should	2614
▁started	2606
▁thought	2582
▁let	2564
▁idea	2562
▁after	2555
a	2550
6	2533
▁last	2530
th	2445
▁better	2439
▁went	2435
7	2421
▁might	2417
▁big	2404
▁before	2399
ic	2387
▁give	2369
▁course	2367
▁another	2367
▁off	2360
▁important	2357
▁part	2335
▁problem	2321
▁able	2320
▁never	2318
▁bit	2299
▁still	2288
▁re	2286
▁start	2269
▁system	2268
▁together	2260
▁him	2229
"	2221
l	2205
▁ago	2203
▁water	2202
▁end	2182
▁next	2171
▁story	2165
▁show	2156
▁brain	2154
▁came	2153
▁place	2149
▁long	2124
o	2110
▁few	2106
▁again	2090
or	2077
▁used	2071
▁does	2060
▁When	2050
▁between	2043
▁each	2040
▁mean	2025
▁found	2019
▁data	1998
▁technology	1997
▁too	1997
▁question	1985
,"	1969
▁women	1946
▁love	1933
S	1926
▁looking	1926
▁point	1908
▁understand	1904
▁example	1879
▁done	1865
▁wanted	1862
el	1857
▁S	1852
▁doesn	1849
▁Because	1843
ation	1817
▁ever	1816
▁whole	1811
▁real	1809
I	1801
▁call	1798
b	1792
▁live	1780
▁sort	1775
▁believe	1768
le	1763
▁E	1754
▁million	1753
▁four	1747
▁power	1741
▁trying	1733
ers	1731
ro	1729
▁person	1723
▁school	1721
▁always	1721
ur	1715
▁children	1711
▁working	1710
▁away	1706
▁try	1701
▁un	1698
▁feel	1696
▁may	1676
i	1670
▁country	1669
▁help	1656
!	1629
ter	1620
▁means	1599
▁using	1591
▁design	1588
▁How	1583
▁thinking	1580
▁money	1568
▁information	1563
▁took	1561
▁high	1558
able	1555
ion	1544
▁five	1542
▁maybe	1541
▁create	1533
▁space	1531
▁man	1528
▁home	1523
▁everything	1520
▁number	1518
▁become	1517
▁C	1516
▁sense	1514
▁kids	1514
▁small	1507
▁old	1493
▁am	1485
▁One	1480
▁light	1466
▁hard	1463
▁left	1461
▁de	1459
▁best	1458
▁My	1456
▁B	1453
▁getting	1451
▁future	1449
▁enough	1449
it	1446
▁For	1446
▁She	1443
ri	1437
▁second	1432
▁social	1420
▁U	1418
▁food	1410
▁comes	1405
▁quite	1403
▁times	1396
ra	1388
▁side	1387
▁making	1387
▁less	1384
▁These	1383
▁happened	1382
▁ask	1380
▁energy	1379
▁talking	1379
▁play	1373
▁probably	1362
▁told	1358
▁body	1355
▁build	1353
ch	1353
▁countries	1348
▁room	1347
▁stuff	1346
▁science	1342
▁interesting	1341
▁hand	1339
il	1334
▁building	1334
▁without	1333
an	1317
▁car	1314
ity	1302
▁men	1299
la	1299
▁dollars	1296
▁lives	1295
▁T	1293
▁coming	1283
▁moment	1281
▁pretty	1276
▁Here	1275
▁such	1272
▁anything	1269
▁care	1267
▁saw	1263
▁happen	1251
▁across	1248
li	1244
A	1242
▁As	1240
▁open	1239
▁family	1234
▁under	1233
▁Let	1228
▁learn	1222
▁set	1220
▁bring	1217
▁seen	1215
▁says	1214
▁later	1212
▁half	1211
▁asked	1206
▁F	1202
▁living	1199
▁makes	1198
ness	1196
▁New	1193
▁Africa	1193
▁reason	1189
▁else	1183
ar	1179
ce	1177
▁case	1175
▁goes	1174
▁process	1174
▁having	1174
ent	1173
▁simple	1172
▁far	1171
se	1171
▁experience	1171
C	1169
ment	1169
f	1168
▁move	1166
▁happens	1165
▁bad	1164
▁ways	1162
▁days	1157
▁young	1156
h	1149
▁All	1145
▁project	1144
▁picture	1133
▁city	1129
▁No	1128
▁computer	1126
▁single	1124
▁problems	1115
▁top	1113
▁global	1112
▁mind	1112
▁while	1111
▁health	1102
▁almost	1102
▁saying	1100
▁already	1099
▁inside	1098
▁community	1097
▁hope	1095
on	1095
▁control	1092
▁Earth	1092
▁planet	1091
▁public	1090
▁per	1086
▁yet	1077
▁Thank	1075
▁looked	1074
▁business	1069
▁both	1068
▁book	1068
▁billion	1068
▁once	1064
▁age	1060
▁six	1060
▁remember	1059
▁order	1059
▁answer	1059
▁nothing	1058
▁read	1057
▁whether	1051
▁possible	1051
▁someone	1047
▁matter	1043
▁often	1042
▁war	1040
▁head	1039
▁ideas	1037
us	1035
▁within	1032
▁basically	1030
est	1030
ul	1028
▁history	1026
▁guy	1025
▁myself	1025
▁wrong	1021
de	1020
D	1020
up	1016
▁months	1014
▁keep	1012
▁Why	1011
▁true	1010
▁child	1010
▁looks	1007
▁couple	999
▁sure	997
▁imagine	995
k	993
lo	988
▁heard	985
▁heart	983
▁job	982
▁face	980
▁form	977
▁group	976
▁cells	974
▁amazing	974
w	967
▁United	966
ist	963
▁wasn	962
ma	962
▁model	958
▁cancer	954
▁government	953
▁beautiful	952
▁research	951
▁night	949
to	949
▁words	948
▁turn	947
▁built	946
[	946
]	942
▁stop	940
▁line	931
▁G	930
▁until	930
▁run	928
age	924
ate	922
▁self	920
▁share	917
ive	916
▁piece	912
▁works	909
▁music	906
▁decided	903
▁became	903
▁knew	903
▁species	902
ci	901
▁isn	900
▁must	900
▁Internet	898
▁word	897
▁though	896
▁everybody	895
▁past	895
▁places	894
▁video	893
▁language	892
x	889
▁America	887
▁completely	883
▁education	883
▁friends	883
’	881
▁hear	880
▁States	879
▁universe	879
▁study	879
▁learned	873
▁To	873
▁happening	870
ac	868
▁since	866
▁students	865
ting	864
▁name	864
▁front	863
▁large	861
▁somebody	861
M	860
▁state	860
▁taking	860
▁exactly	859
▁nature	858
▁woman	858
▁Or	858
▁society	857
▁animals	857
▁huge	855
▁gets	852
▁itself	852
▁stories	851
en	847
▁level	836
ol	834
▁ourselves	831
▁questions	830
▁themselves	830
▁against	830
ne	829
▁sometimes	829
un	822
▁ones	821
▁hours	819
▁kinds	816
▁India	814
▁created	814
▁sound	814
▁company	812
▁along	809
▁team	809
▁minutes	807
▁co	807
▁OK	807
T	805
▁TED	803
▁couldn	803
P	800
man	800
▁disease	800
ry	799
▁worked	798
▁Do	795
▁God	795
▁view	794
▁rather	794
▁particular	793
ta	793
ant	793
▁mother	793
▁walk	792
▁P	792
▁environment	792
▁art	791
▁turns	791
▁others	785
▁least	782
as	782
▁air	781
▁figure	781
▁Then	780
▁game	778
▁thousands	778
▁third	778
▁population	776
id	776
ck	775
▁outside	775
▁entire	775
▁black	774
▁won	774
ies	774
▁early	773
z	773
—	773
▁house	772
▁close	772
▁land	772
▁everyone	769
▁c	766
▁news	762
ha	762
▁guys	760
▁gave	759
old	757
▁instead	755
▁At	754
▁free	754
▁...	753
▁lots	752
▁paper	751
ized	750
▁natural	750
▁taken	749
▁grow	749
▁seven	747
▁D	745
▁happy	744
▁con	744
▁cell	743
▁systems	741
▁deal	739
▁common	736
▁full	735
▁China	735
▁difference	732
▁scale	731
▁American	730
▁changed	728
▁short	727
▁market	726
▁M	724
▁learning	719
▁machine	715
▁middle	714
L	714
▁local	711
ted	710
ism	710
▁Okay	708
▁leave	708
▁p	707
▁century	706
▁area	706
ty	706
▁eyes	703
ated	702
▁father	702
▁given	701
▁cities	701
▁pay	698
ating	698
▁st	694
ie	694
ut	692
▁turned	692
▁R	691
▁beginning	691
▁difficult	690
▁cost	689
tion	687
▁finally	684
▁behind	684
ling	684
▁yourself	683
▁York	682
▁needed	682
▁perhaps	682
▁powerful	681
▁size	681
▁oil	680
year	678
▁seeing	678
um	678
▁certain	678
▁easy	676
▁began	675
ous	675
less	675
tic	674
▁wonderful	674
▁takes	672
▁culture	671
▁terms	671
▁surface	669
▁rest	668
The	667
ine	666
▁moving	666
during	665
ad	665
▁needs	665
▁media	664
▁cannot	663
▁hands	662
▁realized	661
▁red	661
▁companies	661
▁test	659
▁fish	658
ia	658
♪	658
rs	656
▁longer	656
▁parts	656
▁poor	652
E	650
▁Some	650
▁simply	650
at	650
▁K	649
▁image	648
em	647
▁reality	644
vi	644
▁week	643
ver	642
B	642
▁Ma	640
▁phone	638
▁spend	638
▁economic	635
▁felt	635
O	635
▁whatever	633
▁buy	633
na	631
▁parents	631
▁eight	630
▁tried	626
▁produce	624
▁amount	623
▁met	622
▁e	622
▁program	620
▁O	618
▁quickly	618
▁death	617
▁ground	617
▁People	613
▁spent	613
▁ocean	612
be	612
▁blood	612
▁fear	612
▁low	609
co	608
▁pre	608
ba	607
▁interested	606
▁humans	606
▁growth	605
pe	604
▁f	602
▁opportunity	602
▁die	601
▁weeks	601
com	601
ally	600
the	600
▁political	599
▁speak	598
▁Just	598
▁gone	597
▁value	596
▁write	596
N	594
▁complex	594
▁blue	593
te	592
▁known	591
ig	591
▁sea	590
▁field	590
▁J	590
▁access	589
▁ability	588
▁either	587
▁changes	587
▁allow	587
▁behavior	586
▁Re	585
▁sitting	584
▁friend	583
▁economy	582
▁green	581
nt	581
▁lost	581
▁dis	581
▁stage	579
▁hold	579
▁white	579
Well	579
▁impact	579
▁Can	578
▁individual	578
▁Our	578
▁CA	578
▁key	577
▁shows	577
▁nice	577
▁DNA	576
▁climate	575
▁cool	575
▁W	574
▁On	573
▁chance	573
▁challenge	573
am	572
op	572
uc	571
▁eat	571
▁feet	569
▁realize	569
▁support	568
hi	568
▁Right	567
▁measure	565
ard	565
ize	565
▁incredible	564
▁areas	564
▁structure	562
▁feeling	561
▁morning	560
▁sub	560
▁animal	560
▁pro	559
ber	559
▁step	558
mo	558
Z	557
▁average	557
▁cut	556
con	556
ary	555
▁risk	555
▁wouldn	554
▁patients	553
▁fire	553
▁physical	552
▁N	552
▁innovation	551
▁clear	551
▁bottom	550
▁born	548
▁kid	547
▁growing	546
▁based	545
▁numbers	545
▁watch	544
▁scientists	543
▁audience	543
▁result	543
▁non	542
▁understanding	542
▁Not	541
ir	541
▁wrote	540
▁material	540
and	539
▁issue	539
▁brought	539
▁film	539
▁network	539
▁literally	537
You	535
R	535
▁attention	534
▁color	534
▁experiment	534
ect	534
▁b	533
ance	533
▁development	531
▁lab	531
▁knowledge	529
."	529
▁personal	529
per	528
▁pick	527
▁hundreds	526
▁technologies	526
is	525
▁dark	525
sh	524
▁alone	523
▁special	523
▁forward	523
▁running	522
▁developed	521
K	520
▁books	520
▁giving	520
ti	519
▁girl	518
▁miles	518
ge	518
▁guess	516
▁World	516
line	514
▁V	514
bo	513
▁tools	513
What	513
▁fun	511
▁millions	511
▁seems	511
▁map	510
▁starting	509
bi	508
▁center	508
▁fly	508
▁sun	505
▁deep	505
▁anyone	504
ach	504
ian	504
▁movement	504
▁break	503
▁telling	502
▁solve	502
▁theory	501
om	501
▁focus	499
▁images	498
▁gives	498
▁St	496
▁force	496
▁meet	495
▁Yeah	494
▁present	493
▁talked	493
▁absolutely	493
▁issues	492
bu	492
▁explain	491
▁sit	490
▁showed	490
▁act	490
▁stay	487
os	486
▁solution	485
▁sex	485
▁period	485
▁voice	484
▁cars	484
▁similar	483
▁online	482
▁Le	482
▁thank	481
▁English	480
▁girls	480
▁develop	480
▁Be	480
▁send	480
der	479
▁save	479
▁ex	479
▁De	478
no	478
▁Europe	478
▁normal	478
▁type	477
▁industry	477
▁By	476
▁South	476
▁rate	476
▁discovered	475
▁table	475
▁resources	473
▁office	472
min	471
▁modern	470
▁developing	470
▁stand	469
fi	469
▁fast	469
▁eye	469
ho	468
▁creating	468
▁dream	467
▁recently	467
▁situation	466
▁robot	466
▁baby	465
▁designed	465
▁journey	465
▁plant	464
▁seem	464
▁dead	463
▁perfect	463
▁soon	461
ni	461
▁begin	461
▁door	460
▁tiny	460
▁Google	460
▁screen	460
ful	460
▁reasons	458
▁son	458
son	458
▁relationship	457
▁product	457
▁follow	457
▁major	456
oc	456
▁tend	456
▁available	456
▁drive	455
ton	455
▁law	454
▁truth	454
▁yes	453
▁groups	453
▁shape	452
▁playing	452
▁medical	452
▁Yes	451
▁computers	450
▁patient	450
▁evidence	450
▁asking	450
▁especially	450
▁continue	450
ical	449
va	448
time	448
▁code	448
▁response	447
▁street	447
▁mass	446
▁involved	446
Q	445
▁haven	445
▁basic	445
▁incredibly	445
▁treat	445
ron	444
▁digital	444
▁ice	443
ence	443
▁Oh	443
▁mo	441
▁vision	441
▁pictures	440
▁approach	440
G	440
▁changing	439
ab	439
▁lived	439
▁bar	439
▁role	439
▁ma	437
▁generation	437
▁box	436
ot	436
▁carbon	435
▁towards	435
▁class	434
me	434
▁list	433
v	433
F	432
▁Chinese	432
▁becomes	432
▁bigger	432
▁choice	432
▁drugs	431
▁writing	430
▁beyond	429
▁First	429
▁several	429
▁drug	429
▁message	428
▁solar	428
▁effect	427
▁putting	427
▁likely	425
dy	425
▁nine	425
▁object	424
▁month	423
▁wind	423
▁Ba	423
▁potential	422
▁national	422
▁hundred	421
▁aren	421
▁mine	420
he	420
ran	419
mi	419
side	419
▁add	418
ial	417
▁died	417
▁clean	416
▁software	416
▁stick	416
▁speed	415
▁favorite	415
▁schools	415
▁communities	415
▁lose	414
ca	414
▁teach	414
▁hit	413
▁position	413
▁With	412
▁An	412
▁After	412
ped	411
▁Maybe	410
▁trust	410
▁worth	410
▁device	410
▁reach	409
▁fight	409
▁cr	408
▁Of	407
▁onto	407
▁strong	407
▁starts	406
ish	405
▁general	405
▁provide	405
▁rules	405
▁higher	404
▁success	404
▁anybody	404
▁rights	403
▁quality	402
▁Chris	402
ga	402
ists	401
▁particularly	401
▁visual	401
mer	401
▁Every	401
▁action	401
▁violence	401
▁moved	400
nd	400
we	399
▁camera	399
▁finding	399
▁sounds	399
out	398
▁showing	398
▁examples	398
▁certainly	398
▁late	398
vo	397
▁hot	397
▁listen	397
tra	397
▁largest	397
▁path	397
▁skin	396
▁Go	394
▁Me	394
▁Who	394
▁wall	394
▁walking	394
▁treatment	393
▁expect	393
▁medicine	393
▁totally	392
▁scientific	392
▁wish	392
▁okay	392
▁spread	392
▁evolution	392
di	391
▁materials	391
▁exciting	390
▁super	390
▁safe	390
▁plants	390
▁further	390
ization	389
▁obviously	389
▁wait	389
▁results	389
▁kill	389
▁fall	388
▁leaders	388
▁sent	388
▁creative	387
▁biggest	387
▁nobody	387
H	387
▁bio	386
▁teachers	386
▁wants	386
▁among	385
▁hour	385
▁v	384
▁fit	384
▁g	384
▁police	383
ee	382
▁ready	382
▁waste	382
▁smart	381
▁choose	380
▁meaning	380
▁watching	380
▁protect	379
qui	379
▁cause	379
▁individuals	379
▁named	378
▁lead	378
▁L	378
▁student	378
▁projects	378
▁led	378
▁everywhere	377
▁village	377
land	377
▁consider	377
ator	376
▁star	376
▁version	375
▁North	375
ke	375
▁sleep	374
▁Most	374
▁secret	374
ex	374
▁plan	373
Oh	373
▁slow	373
▁security	373
▁travel	373
▁extremely	373
ward	372
▁fine	372
▁ball	372
▁African	372
▁games	372
▁context	372
▁tool	372
▁Even	371
▁road	371
▁fundamental	371
▁gas	371
end	370
pa	370
▁notice	370
▁Ho	370
▁eventually	370
▁inter	370
▁crazy	370
▁la	369
▁revolution	369
▁Dr	369
▁hospital	369
▁models	369
ten	369
▁connected	369
▁train	368
▁supposed	367
▁trees	367
che	367
▁store	365
▁flow	365
▁War	365
▁moral	365
▁touch	365
▁grew	365
X	364
▁allowed	364
▁shot	364
▁track	364
▁robots	364
▁fuel	364
▁main	364
▁jobs	363
▁conflict	363
▁goal	362
har	362
▁essentially	361
▁shown	361
▁pattern	361
▁tree	361
▁college	361
fa	360
que	360
▁tells	360
▁perspective	359
▁meant	359
▁including	359
▁record	359
▁families	359
▁cases	359
▁search	359
▁rich	358
izing	358
No	358
▁objects	358
▁arm	358
▁forest	358
▁thousand	358
▁positive	357
▁address	357
▁connect	357
ud	356
▁international	356
▁serious	356
▁extraordinary	356
▁organization	356
▁Ha	356
▁wife	355
▁worse	355
▁boy	355
▁square	355
▁West	353
▁Don	353
by	353
▁bunch	353
▁traditional	353
▁poverty	353
ug	353
▁memory	353
ities	352
ions	352
▁recognize	352
▁above	352
▁taught	352
▁pain	351
▁source	351
▁critical	350
▁affect	350
▁Li	350
if	350
▁movie	350
▁career	349
▁near	349
▁buildings	349
▁Co	349
▁board	348
▁conditions	348
▁killed	348
▁zero	348
▁faster	348
▁allows	347
▁crisis	346
▁genetic	346
▁somewhere	346
▁larger	345
ny	345
▁ended	345
▁progress	345
▁democracy	344
▁Al	344
▁brains	343
▁lower	343
▁doctor	343
▁Where	343
▁standing	343
▁activity	343
▁content	342
▁plastic	342
▁suddenly	342
way	342
▁happiness	341
▁please	341
▁micro	341
▁conversation	341
▁decision	340
▁Today	340
▁excited	340
▁compassion	339
▁truly	338
▁female	338
▁famous	338
▁check	337
ors	337
▁increase	337
ative	337
We	336
▁drop	336
▁kept	336
▁post	336
▁genes	335
▁teacher	335
▁website	335
▁di	335
gen	334
▁bed	334
▁Those	334
▁studies	334
▁products	334
▁complicated	334
▁cold	334
▁sell	334
▁song	333
▁text	333
▁stars	333
▁older	333
▁rise	332
▁indeed	332
▁gr	332
▁specific	332
▁reading	332
▁Look	332
▁workers	332
▁pull	331
▁impossible	331
▁Are	331
▁HIV	331
▁wonder	330
ow	330
▁forms	330
▁ca	330
go	329
▁exist	329
▁minute	329
▁mental	329
ip	329
do	328
▁successful	328
▁return	328
▁military	328
▁nuclear	327
▁TV	327
▁dangerous	327
tor	327
▁site	327
W	327
▁feed	327
▁account	327
▁interest	326
▁freedom	326
let	326
▁floor	326
▁count	325
/	324
▁daughter	323
▁sorts	323
▁Ro	323
▁w	323
▁massive	323
▁training	322
▁shift	322
▁private	322
▁East	321
▁pieces	321
▁decisions	321
▁solutions	320
▁San	320
▁price	320
▁purpose	319
▁ho	319
term	319
▁service	319
▁temperature	319
▁series	319
▁unique	319
▁prison	319
▁financial	319
▁smaller	318
▁range	318
oo	318
▁points	318
▁race	318
▁sky	318
▁region	317
ever	317
▁decide	317
▁bo	316
▁upon	316
▁yeah	316
▁usually	316
▁Like	316
▁patterns	316
▁somehow	316
▁Man	316
▁lines	315
▁machines	315
▁Bo	315
ight	315
▁pressure	315
▁alive	315
▁bacteria	315
row	314
▁subject	314
▁seconds	313
▁prevent	313
▁weren	312
▁environmental	312
▁electricity	312
▁strange	312
▁current	312
▁extra	312
▁Mo	312
like	311
ring	311
▁anymore	311
▁beings	311
ens	311
▁physics	311
▁biology	311
▁win	310
ified	310
▁Y	310
▁draw	310
▁press	310
▁becoming	310
led	309
ble	309
▁effective	309
▁healthy	308
▁peace	308
ap	308
▁skills	308
▁mom	308
▁respect	308
▁math	307
ff	307
▁enormous	307
wa	307
▁loved	307
▁page	307
▁practice	307
▁charge	306
▁ran	306
▁sign	306
ious	306
▁H	306
▁Americans	306
ning	305
▁predict	305
▁capital	305
▁doctors	305
▁anywhere	305
▁actual	305
▁function	305
▁waiting	305
▁web	304
▁raise	304
▁Pa	304
▁en	303
▁explore	303
▁cat	303
▁written	302
pi	302
▁costs	302
▁trade	302
▁po	301
▁earlier	301
▁policy	301
▁institutions	301
▁Ca	300
▁heat	300
▁concept	300
▁target	300
▁o	299
▁forth	299
▁bodies	299
▁dog	298
▁instance	298
▁income	298
▁diseases	298
▁willing	297
▁immediately	297
▁report	297
▁attack	297
▁final	297
▁clearly	296
▁expensive	296
▁direction	296
▁foot	296
▁town	296
les	295
▁park	295
▁intelligence	295
▁demand	294
▁visit	294
▁throughout	294
▁neurons	294
▁teaching	293
▁rule	293
▁photo	293
▁da	293
▁Which	293
▁legal	293
▁citizens	292
▁greater	292
▁Another	292
ea	292
▁Imagine	291
▁minds	290
▁greatest	290
▁Mi	290
▁himself	290
▁governments	290
▁University	290
▁listening	290
med	289
▁cover	289
▁hair	289
▁architecture	289
▁sh	288
▁stress	288
▁familiar	288
▁email	288
▁weight	287
▁rain	287
▁Indian	287
▁corner	287
▁apply	287
▁driving	287
▁term	287
▁performance	286
▁fantastic	286
▁religion	286
▁aid	286
▁respond	286
▁challenges	286
▁Mars	286
▁decade	286
ah	285
vis	285
▁City	285
men	285
▁enjoy	285
mon	284
▁humanity	284
▁survive	284
▁li	284
ps	283
▁spot	283
▁legs	282
▁mobile	282
▁sat	282
▁wealth	282
▁walked	282
▁bomb	282
▁flu	282
▁blind	282
▁therefore	281
▁accident	281
▁decades	281
▁biological	281
▁anti	280
▁cultural	280
▁levels	279
▁improve	278
▁values	278
▁virus	278
▁push	278
▁communicate	278
▁join	278
cent	278
▁production	278
▁services	277
▁useful	277
▁urban	277
▁engineering	277
▁except	277
▁meeting	277
▁types	276
▁terrible	276
▁boat	275
▁Di	275
▁politics	275
▁Many	275
ible	275
king	275
fu	275
▁Sa	275
▁cross	274
▁forget	274
▁professional	274
▁reduce	274
▁quick	274
▁radio	274
▁programs	273
▁distance	273
▁mission	273
▁beauty	273
▁colleagues	273
▁tissue	273
▁bear	272
▁describe	271
▁babies	271
▁choices	271
▁genome	271
▁fix	271
▁river	271
▁helped	270
▁failure	270
▁Two	270
▁following	270
ey	270
ner	270
▁trouble	270
▁imp	270
▁organizations	270
▁ahead	269
▁shared	269
▁connection	269
▁infrastructure	269
▁anyway	269
?"	269
▁remarkable	269
▁block	268
▁landscape	268
ka	268
j	268
▁obvious	268
▁event	268
▁atmosphere	268
▁male	268
▁various	268
▁mis	268
▁effects	268
▁gene	268
▁summer	268
▁although	267
U	267
▁photograph	267
▁popular	267
▁London	267
▁nation	267
light	267
air	266
▁invented	266
V	266
▁jump	266
▁dance	266
▁speech	266
▁investment	266
▁Western	266
▁straight	265
▁birth	265
▁complete	264
▁standard	264
cy	264
ill	264
au	264
▁Jo	263
▁comp	263
ak	263
▁television	263
▁uses	263
▁mostly	263
▁Mar	263
▁conference	263
ite	263
▁condition	262
▁Your	262
▁understood	261
▁Sh	261
tri	261
▁laws	261
log	261
▁total	261
▁worst	261
ther	260
▁Ka	260
▁stopped	260
▁rock	260
▁flying	260
▁La	259
▁supply	259
ping	258
rt	258
▁agree	258
▁magic	257
▁apart	257
▁ship	257
▁below	257
▁th	257
▁smell	257
▁possibly	257
▁cycle	257
▁causes	257
▁From	256
▁John	256
▁recent	256
▁slightly	256
▁California	256
▁streets	256
▁sc	255
za	254
▁aware	254
▁original	254
▁sick	254
▁central	254
▁Instead	253
▁meters	253
▁Afghanistan	253
▁sector	253
▁artist	252
▁states	252
▁sequence	252
▁capacity	252
▁relationships	252
▁pop	251
▁crime	251
hand	251
▁slide	251
one	251
▁Lo	251
▁passion	251
▁paid	251
off	250
▁experiments	250
▁task	250
▁match	249
▁interact	248
ium	248
▁gun	248
ology	248
▁rid	247
▁app	247
▁dad	247
▁degrees	247
io	247
▁sand	247
▁vast	246
▁campaign	246
▁Hu	246
den	246
▁multi	246
▁bought	246
▁twice	245
▁societies	245
ler	245
▁roll	245
▁avoid	245
▁creativity	245
▁published	245
▁directly	245
▁Think	245
ray	245
pro	245
▁quote	244
▁afford	244
▁offer	244
▁boys	244
▁sentence	244
▁engine	244
▁tremendous	244
▁answers	243
ack	243
▁article	243
▁planets	243
for	243
▁devices	243
▁r	243
ability	243
▁responsibility	243
▁noticed	242
▁feels	242
▁funny	242
▁depend	242
▁Facebook	242
▁character	242
▁dying	242
▁networks	242
▁bridge	242
▁speaking	242
▁oxygen	241
▁easily	241
▁chair	241
▁closer	241
▁achieve	241
ast	241
▁commercial	240
ris	240
▁deliver	240
▁brand	240
▁National	240
▁played	240
▁notion	240
▁afraid	239
▁threat	239
▁differently	239
▁wild	239
▁sustainable	239
▁random	239
▁evolved	239
▁throw	239
▁broken	239
▁significant	238
▁lack	238
tes	238
▁worry	238
▁highly	238
▁window	238
▁communication	237
ob	237
▁efficient	237
▁emotional	237
▁markets	237
▁His	236
▁balance	236
ain	236
▁civil	236
▁core	236
▁plane	236
▁inspired	236
▁active	235
▁sp	235
▁trip	234
▁influence	234
▁etc	234
▁forces	234
▁catch	234
▁net	234
▁discover	234
▁chemical	233
▁glass	233
▁Ja	233
▁oh	233
▁produced	233
▁carry	233
▁vote	233
▁earth	232
▁equal	232
▁missing	232
▁Great	232
▁Da	232
▁contact	232
ja	232
▁identity	232
▁experiences	232
ving	231
top	231
▁mountain	231
▁camp	231
▁husband	231
▁designers	231
▁knowing	231
▁molecules	231
ki	231
▁continent	231
▁members	230
▁helping	230
▁drawing	230
▁diversity	230
port	230
▁Over	230
▁scientist	229
▁seemed	229
▁hole	229
$	229
▁hearing	229
▁reaction	229
my	229
▁differences	228
▁pass	228
▁giant	228
How	228
▁passed	228
ging	228
▁dreams	227
▁birds	227
▁Ki	227
▁civilization	226
▁struggle	226
▁represent	226
▁flight	226
▁crowd	226
▁studying	226
▁farm	225
▁forever	225
▁European	225
▁Bu	225
▁gap	225
▁surgery	225
▁basis	225
▁Con	225
▁collect	225
▁Take	225
▁tough	224
▁industrial	224
qua	224
▁classroom	224
▁fair	223
▁chain	223
▁satellite	223
▁nearly	223
▁gotten	223
▁spending	223
sis	222
▁definition	222
Why	222
▁Car	222
▁island	222
▁Again	222
▁coffee	222
▁engage	222
ari	222
▁remind	221
▁leg	221
▁background	221
▁detect	221
ably	221
▁alternative	221
▁weird	221
▁gain	221
▁sold	221
▁lights	220
▁extreme	220
ship	220
▁fund	220
ration	220
▁fully	220
sum	220
lin	220
▁party	220
▁complexity	220
da	220
cal	219
▁eating	219
▁imagination	219
▁im	218
▁opposite	218
▁El	218
▁reward	218
▁interview	218
▁Ne	218
▁labor	218
ang	218
▁creates	218
set	218
▁Ph	217
▁invest	217
▁raised	217
ide	217
▁focused	216
▁cave	216
ile	216
▁negative	216
▁none	216
▁express	216
▁scene	216
ren	215
▁graph	215
▁See	215
▁justice	215
▁Po	215
▁airplane	215
▁structures	215
▁easier	215
▁mid	215
▁However	214
fer	214
▁matters	214
▁importantly	214
▁desire	214
▁paint	214
▁effort	214
▁honest	213
▁criminal	213
▁despite	213
▁opportunities	213
▁lucky	213
It	213
▁David	213
▁date	213
▁platform	212
▁Ta	212
▁stem	212
▁Cha	212
▁possibility	212
▁sharing	211
▁noise	211
▁trick	211
▁separate	211
▁moon	211
▁proud	211
▁trial	211
dge	211
▁held	210
▁bottle	210
▁Her	210
▁magazine	210
▁Su	210
▁Brazil	210
▁transform	210
▁ultimately	210
▁yellow	210
▁due	209
▁Pro	209
▁identify	209
▁museum	209
▁virtual	209
▁artists	209
▁mouth	209
based	209
▁turning	209
▁Actually	209
ically	209
▁manage	208
▁stuck	208
▁bag	208
▁consciousness	208
▁desert	208
▁sad	208
▁fold	208
ral	208
▁Second	208
▁surprise	208
▁fairly	208
▁More	208
▁card	208
▁brings	208
▁suffering	207
▁switch	207
▁phones	207
▁signal	207
▁unit	207
▁competition	207
▁painting	207
▁Twitter	207
▁benefit	207
ib	207
▁argue	206
▁moments	206
han	206
▁tradition	206
dimensional	206
▁neighborhood	206
ai	206
▁breast	206
▁flag	206
iv	206
▁motor	205
▁Bill	205
▁Once	205
▁advantage	205
▁argument	205
▁necessary	205
▁calls	205
▁grand	205
▁claim	205
▁soil	205
▁ancient	205
▁bat	205
▁figured	204
▁opened	204
▁attempt	204
▁coast	204
▁Middle	204
▁ha	204
over	204
▁Iraq	204
▁Sometimes	204
▁fill	204
▁emotions	204
▁Ru	204
▁wear	204
ame	204
▁du	204
▁benefits	204
▁Japan	204
▁religious	203
ick	203
▁phenomenon	203
▁collective	203
▁Asia	203
▁damage	203
▁motion	203
▁base	203
▁spaces	202
ned	202
▁entirely	202
▁leadership	202
uff	202
▁helps	202
▁direct	201
▁pair	201
▁click	201
▁billions	201
▁double	201
▁creatures	200
▁hell	200
▁brother	200
▁cheap	200
▁se	200
▁accept	200
▁Com	200
▁bone	200
▁creation	200
▁fashion	199
car	199
▁finish	199
▁interface	199
▁climb	199
▁crash	199
▁loss	199
▁sorry	199
ier	199
▁era	199
▁operate	199
▁bright	199
▁gender	199
▁faith	199
▁debate	199
▁Vi	198
▁university	198
▁restaurant	198
▁suit	198
▁studied	198
▁hurt	198
▁bread	198
▁location	198
▁curve	197
▁bubble	197
▁gift	197
gg	197
▁rec	196
▁grade	196
▁walls	196
▁marriage	196
▁French	196
▁foreign	196
form	196
▁foundation	196
▁failed	195
▁score	195
▁cap	195
▁necessarily	195
▁particles	195
▁Mr	195
▁prove	195
▁bi	195
▁stream	195
▁honor	195
▁discovery	195
▁elements	195
▁events	195
▁Good	195
▁bees	195
▁CO	195
▁brilliant	195
▁k	195
▁pounds	195
▁letter	195
▁beat	194
▁cloud	194
▁Na	194
▁compared	194
ima	194
▁Did	194
▁puzzle	193
▁responsible	193
▁tens	193
ologist	193
▁tumor	193
▁smile	193
J	193
▁leading	193
▁master	193
▁Web	193
▁Washington	193
▁lay	193
▁managed	193
▁poem	193
work	193
rus	193
▁farmers	193
▁professor	192
▁hate	192
▁Have	192
▁bank	192
▁strategy	192
▁release	192
▁Mu	192
▁organisms	192
▁childhood	192
▁dollar	191
ay	191
▁adults	191
▁sister	191
▁engineers	191
▁fresh	191
▁wood	191
▁patent	191
▁holding	191
▁Kenya	191
▁expression	191
▁belong	191
van	191
▁mouse	190
▁sudden	190
▁universal	190
ju	190
▁fail	190
ake	190
ft	189
▁oceans	189
▁majority	189
▁generate	189
▁British	189
ui	189
▁typical	189
▁degree	189
istic	188
▁lo	188
ng	188
▁fascinating	188
▁Gr	188
sta	188
▁fighting	188
▁deeply	188
▁lesson	188
▁believed	188
▁edge	188
lan	187
▁unfortunately	187
▁theater	187
▁watched	187
▁newspaper	187
▁caught	187
▁Ex	187
▁leaving	187
▁faces	187
This	187
ham	187
▁transformation	187
▁businesses	187
▁Ri	187
▁wearing	187
▁ideal	187
aw	187
▁Si	187
▁perform	187
▁horse	186
▁lunch	186
▁president	186
ef	186
▁related	186
rate	186
▁independent	186
▁limited	186
▁fossil	186
▁otherwise	186
▁frame	185
cut	185
▁closed	185
▁shop	185
ook	185
▁capable	185
▁bird	185
▁enable	185
▁colors	184
▁Se	184
▁finished	184
▁leads	184
▁interaction	184
▁names	184
▁dinner	184
▁budget	184
▁serve	184
▁drink	184
meter	183
▁Ad	183
ue	183
▁display	183
▁whom	183
▁occur	183
of	183
▁link	183
▁clinical	183
▁slowly	182
▁Life	182
hy	182
▁gay	182
▁profound	182
▁Gu	182
▁sexual	182
▁George	182
chi	182
▁channel	182
▁Very	182
▁enter	182
▁hidden	182
▁copy	182
▁constantly	182
▁ra	182
▁steps	181
▁Big	181
▁exists	181
▁discussion	181
▁concerned	181
▁strength	181
▁everyday	181
▁lu	181
▁breath	181
▁traffic	181
▁insects	181
▁invisible	181
▁note	181
▁epidemic	181
▁married	181
▁layer	181
▁perfectly	180
▁launched	180
▁trained	180
▁row	180
▁mix	180
▁currently	180
▁exchange	180
▁pig	180
▁flat	179
▁warm	179
▁mirror	179
▁described	179
▁multiple	179
▁followed	179
all	179
▁tail	178
▁tape	178
▁saving	178
▁begins	178
▁novel	178
▁launch	178
▁principles	178
▁homes	178
▁exercise	178
▁folks	178
▁topic	178
▁received	178
▁disappear	178
▁mentioned	178
▁moves	178
▁opinion	178
▁fell	178
▁sum	178
ice	178
▁garden	178
▁invited	178
kin	177
▁grown	177
▁safety	177
fe	177
▁metal	177
▁collection	177
▁highest	177
▁disaster	177
▁tons	177
ound	177
▁weapons	177
▁survival	177
▁promise	177
ular	176
▁relative	176
▁kilometers	176
▁wide	176
▁detail	175
▁heads	175
▁wake	175
her	175
▁dry	175
▁odd	175
day	175
▁mathematics	175
▁correct	175
▁journalist	175
▁contract	175
▁adult	175
▁cure	175
▁host	175
gram	175
bal	175
▁May	175
▁artificial	175
▁spoke	175
▁normally	174
▁Richard	174
▁consequences	174
▁factory	174
▁define	174
▁paying	174
af	174
▁bus	174
▁chart	174
▁blow	174
▁clinic	174
▁parent	174
▁spirit	174
▁organic	174
▁graduate	174
▁arms	174
▁partner	174
▁Everybody	174
▁signals	174
▁appear	173
▁worried	173
ency	173
ries	173
▁surprised	173
ern	173
▁fo	173
▁trillion	173
▁band	173
▁ten	173
▁ride	173
▁zone	173
▁ring	173
▁Australia	173
▁pages	173
phi	173
▁hasn	172
▁insight	172
▁versus	172
press	172
▁metaphor	172
▁Mexico	172
▁compare	172
lon	172
▁fellow	172
▁leader	172
▁narrative	172
▁para	172
▁comment	172
▁seat	172
▁crack	172
ual	172
▁seriously	172
▁gold	171
▁mark	171
▁transport	171
▁testing	171
▁shoes	171
▁invention	171
▁command	171
▁mothers	171
▁joy	171
▁load	171
▁dynamic	171
▁feedback	171
▁Does	171
▁blog	171
▁mathematical	170
▁Sp	170
▁quantum	170
▁considered	170
▁circle	170
▁cognitive	170
▁existence	170
ose	170
▁comfortable	170
▁operating	170
▁pl	170
▁nervous	170
▁Sun	170
▁fan	170
▁GDP	170
▁depression	170
▁wheel	170
▁round	169
ification	169
▁galaxies	169
▁researchers	169
▁unless	169
▁generations	169
▁healthcare	169
val	169
▁roof	169
▁wave	168
▁harder	168
rop	168
▁qua	168
▁surprising	168
▁England	168
▁lie	168
▁profit	168
▁experts	168
▁quiet	168
▁leaves	168
▁principle	168
▁laptop	167
▁coral	167
▁hopefully	167
▁Three	167
▁weather	167
▁fat	167
▁soldiers	167
▁Hi	167
▁concern	167
▁intelligent	167
▁Thanks	167
▁forced	167
▁treated	167
▁circuit	166
▁planning	166
▁op	166
▁emissions	166
▁associated	166
▁killing	166
▁remote	166
bra	166
▁wisdom	166
▁experienced	166
▁protein	166
▁clip	166
▁belief	166
▁opening	166
▁harm	166
▁stood	166
▁Would	166
▁consumption	165
▁wire	165
▁Wi	165
▁meat	165
▁designer	165
▁Island	165
▁advance	165
▁molecule	165
▁capture	165
▁fields	165
▁survey	165
▁equivalent	165
▁curious	165
▁electric	165
▁saved	164
cho	164
▁taste	164
▁court	164
▁equipment	164
▁stupid	164
▁warming	164
▁rural	164
▁joke	164
ger	164
▁letters	164
▁print	164
▁expected	164
▁vehicle	164
▁ants	164
▁distribution	163
▁mess	163
ero	163
▁selling	163
▁judge	163
▁hide	163
▁pen	163
▁Their	163
▁daily	163
▁dealing	163
▁economics	163
ough	163
▁Bi	163
▁diet	163
▁importance	163
If	163
▁lifetime	163
▁ski	163
▁official	162
▁cartoon	162
▁Germany	162
▁shapes	162
▁processes	162
▁inner	162
gi	162
▁reform	162
▁determine	162
▁statistics	161
▁autism	161
▁MIT	161
▁Che	161
▁participate	161
▁picked	161
▁Times	161
▁resource	161
▁Everything	161
▁telescope	161
▁reflect	161
ome	161
▁toward	161
▁north	161
▁extract	161
oli	160
▁users	160
▁technical	160
▁credit	160
▁method	160
▁Mc	160
▁analysis	160
▁j	160
▁soul	160
▁increasingly	160
▁covered	160
▁videos	160
▁AIDS	160
▁connections	160
▁Iran	160
▁robotic	160
▁exact	159
▁Einstein	159
▁convinced	159
▁calling	159
▁agriculture	159
▁filled	159
▁combination	159
▁plate	159
▁tall	159
▁Audience	159
rk	159
▁al	159
▁fourth	158
▁season	158
▁intellectual	158
▁member	158
▁according	158
rew	158
▁limb	158
▁photos	158
▁setting	158
▁skill	158
▁broke	157
▁organized	157
▁battle	157
▁habit	157
▁medium	157
Yes	157
▁fe	157
phe	157
▁Am	157
▁movies	157
▁President	157
▁shoulder	157
▁error	157
▁hadn	157
▁malaria	157
▁grandmother	157
▁lies	157
▁engineer	157
▁keeping	157
▁tip	156
▁te	156
▁property	156
▁perception	156
▁chicken	156
ley	156
▁languages	156
▁auto	156
▁peak	156
▁caused	156
▁arrived	156
▁stone	156
Do	155
▁counter	155
▁quarter	155
▁volume	155
▁mistake	155
▁galaxy	155
scale	155
▁yesterday	155
▁construction	155
▁factors	155
head	155
nce	155
cla	155
▁suggest	155
▁arts	155
▁ordinary	155
▁cameras	155
▁houses	155
▁wondering	155
low	154
▁losing	154
▁movements	154
▁risks	154
▁station	154
▁rapidly	154
▁Center	154
▁rates	154
▁addition	154
right	154
▁title	154
▁stock	154
▁awful	154
▁Mon	154
▁empty	153
▁instrument	153
▁prototype	153
▁cutting	153
▁toilet	153
ew	153
▁underneath	153
▁muscle	153
▁Human	153
▁heavy	153
▁dimensions	153
▁remain	153
▁released	153
Hey	153
▁abuse	153
▁maintain	152
▁string	152
▁rare	152
▁voices	152
▁adapt	152
▁players	152
▁coal	152
▁nose	152
▁electrical	152
▁requires	152
▁protection	152
▁feelings	152
▁equation	152
▁sa	152
▁regular	152
▁limit	152
▁messages	152
gar	151
▁transition	151
ians	151
▁driver	151
▁nations	151
▁peer	151
art	151
▁bill	151
▁hang	151
▁evil	151
▁author	151
▁sending	151
▁pocket	151
cop	151
▁introduce	151
▁embrace	151
▁designing	150
▁dec	150
net	150
▁Japanese	150
nna	150
ov	150
▁appropriate	150
▁cards	150
▁battery	150
▁Arab	150
▁trials	150
▁Pakistan	150
▁encourage	150
▁Amazon	150
▁Street	150
hop	150
▁deeper	149
▁Last	149
▁rat	149
▁represents	149
▁Los	149
▁na	149
▁poetry	149
▁height	149
▁su	149
▁Britain	149
hor	149
▁facing	149
▁doubt	149
▁waves	149
▁gang	148
▁Harvard	148
▁surgeon	148
▁carefully	148
▁liked	148
▁cow	148
▁emerging	148
▁Sam	148
▁encounter	148
▁tag	148
▁balloon	148
▁advanced	148
▁filter	148
▁operation	148
grad	148
▁sites	148
▁burn	148
▁Art	148
▁properties	148
▁contain	148
▁emotion	148
▁NASA	148
▁spec	148
▁trans	148
▁pump	148
▁School	148
▁button	147
ulation	147
▁sample	147
▁characters	147
▁grid	147
▁demo	147
▁require	147
▁holes	147
▁victims	147
ory	147
▁tube	147
▁south	147
▁essential	147
▁Paul	147
▁weak	147
ily	147
▁possibilities	146
hu	146
ek	146
▁absolute	146
▁Could	146
▁chemistry	146
▁sugar	146
▁tax	146
▁tomorrow	146
▁review	146
▁fiction	146
▁gentlemen	146
▁physicist	146
▁rational	146
▁Congress	146
▁former	146
▁forests	145
▁spring	145
matic	145
▁length	145
▁broad	145
▁Francisco	145
use	145
▁celebrate	145
▁microbes	145
▁details	145
▁estimate	145
▁inspiration	145
▁management	145
▁Dan	145
▁Ben	145
▁appreciate	145
source	144
▁Nigeria	144
▁mention	144
▁tea	144
▁II	144
▁increasing	144
▁conclusion	144
▁pure	144
▁protest	144
▁variety	144
▁cook	144
▁inequality	144
▁specifically	144
▁cu	144
▁hotel	144
▁soft	144
▁cup	144
▁relate	143
▁illegal	143
▁dots	143
▁required	143
ise	143
▁signs	143
▁document	143
▁studio	143
▁technological	143
▁pal	143
▁finger	143
▁presentation	143
room	143
▁sweet	142
▁player	142
▁replace	142
▁firm	142
é	142
▁convince	142
▁Canada	142
▁Since	142
ord	142
▁snow	142
▁vulnerable	142
▁rocket	142
▁handle	142
▁funding	142
▁root	142
ung	141
▁myth	141
▁Anderson	141
▁chemicals	141
▁user	141
▁sources	141
▁politicians	141
▁France	141
▁cultures	141
▁effectively	141
▁lady	141
That	141
▁swim	141
▁fewer	140
▁reveal	140
cus	140
▁habitat	140
phy	140
▁receive	140
zz	140
▁actions	140
▁explanation	140
▁sight	140
▁jail	140
▁passionate	140
▁pleasure	140
▁invent	140
▁mile	140
▁react	140
▁staff	140
▁king	140
▁lessons	140
▁relatively	139
▁Th	139
▁producing	139
▁prop	139
▁status	139
ky	139
▁Yet	139
▁Ar	139
▁bare	139
▁exception	139
▁shoot	139
▁Israel	138
▁academic	138
▁director	138
▁formed	138
▁James	138
▁maps	138
▁Chicago	138
▁valuable	138
▁molecular	138
▁Han	138
▁winter	138
▁Har	138
▁statement	138
ump	138
In	138
▁buying	138
▁scan	138
▁vaccine	138
▁orbit	138
▁sheet	137
▁Come	137
▁option	137
dding	137
▁goals	137
▁Anyway	137
▁dinosaurs	137
▁radical	137
▁shame	137
▁sing	137
▁infinite	137
▁BG	137
▁church	137
▁plot	137
▁danger	137
board	137
▁flip	136
▁hospitals	136
▁mosquito	136
▁fruit	136
▁graphic	136
mate	136
▁outcome	136
▁laugh	136
▁thanks	136
▁pitch	136
▁hall	136
▁techniques	136
▁meaningful	136
▁steel	136
▁ecosystem	136
▁corruption	136
▁teeth	136
▁beach	136
▁monitor	136
▁symbol	136
▁phrase	136
▁succeed	136
vin	136
▁Darwin	136
▁Ju	136
▁centers	136
▁evolutionary	135
▁remove	135
▁symptoms	135
▁mountains	135
ana	135
▁Bank	135
▁consumer	135
▁silence	135
▁primary	135
▁suffer	135
▁kitchen	135
▁internal	135
▁include	135
▁Tom	135
uring	135
▁Boston	135
▁depends	135
ank	135
▁prime	135
▁bike	135
water	134
gy	134
▁refer	134
ko	134
▁previous	134
▁atoms	134
▁conscious	134
▁carrying	134
▁Pi	134
▁expand	134
mar	134
▁Per	134
▁definitely	134
▁assume	134
▁loud	134
▁situations	134
▁clever	134
▁Institute	134
▁worldwide	134
▁decline	134
oid	133
▁intervention	133
▁democratic	133
▁increased	133
▁flies	133
▁sculpture	133
▁awareness	133
▁spectrum	133
▁loan	133
▁however	133
cle	133
▁roughly	133
▁engaged	133
▁thin	133
▁collapse	133
▁violent	133
▁productive	133
▁unusual	133
▁input	133
▁conservation	133
▁manufacturing	132
▁sharks	132
▁solid	132
▁Other	132
▁radiation	132
▁shut	132
▁translate	132
▁interests	132
▁Green	132
▁introduced	132
▁existing	132
▁Women	132
▁potentially	132
app	132
hen	132
▁pack	132
▁German	132
▁recorded	132
▁generally	132
▁reverse	132
▁department	132
▁keeps	132
▁split	132
ept	132
▁par	132
▁pulled	132
▁apartment	131
▁pet	131
▁blocks	131
▁regions	131
▁viruses	131
▁severe	131
▁grab	131
▁conversations	131
▁harvest	131
▁environments	131
▁Muslim	131
▁grain	131
▁behaviors	131
▁hydrogen	131
▁comfort	131
▁attract	131
▁dogs	131
▁prepared	131
▁Park	131
▁components	131
▁poet	131
▁compete	131
▁drives	131
▁tank	130
bar	130
▁alien	130
▁Islam	130
▁collaboration	130
▁Christian	130
▁illusion	130
▁intention	130
▁YouTube	130
▁sophisticated	130
▁predator	130
▁factor	130
▁attitude	130
▁finance	130
▁Steve	130
▁runs	130
▁fake	130
▁empathy	130
▁bias	130
▁protected	130
▁Four	130
▁variation	130
▁earn	130
▁feature	130
▁reached	129
▁poll	129
▁attacks	129
ulate	129
▁physically	129
▁sphere	129
▁added	129
▁applied	129
▁Day	129
▁spider	129
▁prize	129
▁strip	129
▁physician	129
▁notes	129
▁providing	129
▁affected	129
bit	129
▁organize	129
▁typically	129
▁escape	128
▁license	128
▁mechanism	128
▁gravity	128
▁organs	128
atur	128
▁combine	128
▁liquid	128
▁miss	128
▁Michael	128
▁neighbors	128
▁recover	128
▁pilot	128
▁sustain	128
▁innovative	128
▁iPhone	128
▁pollution	128
▁framework	128
▁practical	128
▁agent	127
▁vehicles	127
▁processing	127
▁lecture	127
▁plus	127
▁fishing	127
▁relevant	127
▁bee	127
▁breathe	127
▁naturally	127
▁observation	127
ane	127
▁fundamentally	127
▁personally	127
▁trend	127
▁nerve	127
▁false	127
▁permanent	127
▁Any	127
▁fiber	127
▁aging	127
▁ultimate	127
▁Russia	127
▁origin	127
▁route	127
▁zoom	126
▁collected	126
▁knee	126
▁employees	126
lit	126
▁remains	126
▁activities	126
▁repeat	126
▁nest	126
▁algorithms	126
ina	126
▁toxic	126
▁phase	126
▁awesome	126
▁loop	126
▁solved	126
▁mechanical	126
▁fl	125
▁While	125
▁prefer	125
▁lying	125
tz	125
▁dramatic	125
▁stronger	125
▁State	125
▁joined	125
▁section	125
▁Charles	125
▁election	125
well	125
Fi	125
▁policies	125
our	125
▁privacy	125
▁milk	125
▁infection	125
▁computing	125
▁figures	125
▁partners	124
▁wa	124
▁repair	124
▁underwater	124
▁musical	124
▁ancestors	124
long	124
ridge	124
▁reference	124
▁mortality	124
▁dense	124
▁Air	124
▁shark	124
▁Will	124
▁amounts	124
▁Du	124
▁polar	124
▁functions	124
▁sports	124
ivity	124
▁complain	124
▁border	124
▁angle	124
▁suck	124
▁traveling	124
▁housing	124
▁microscope	124
▁hoping	123
▁surrounded	123
▁recording	123
▁Ni	123
▁activist	123
▁evening	123
▁hits	123
▁needle	123
▁Also	123
▁King	123
▁features	123
▁improvement	123
▁storm	123
▁concrete	123
▁element	123
▁manager	123
▁photographs	123
▁behave	123
▁eggs	123
▁Science	123
▁meal	123
▁lens	123
ye	123
▁Perhaps	123
▁swimming	123
▁silk	123
▁bug	123
▁Nobody	123
▁cast	123
▁admit	122
▁ought	122
▁ill	122
▁evolve	122
▁driven	122
▁clock	122
▁afternoon	122
▁PM	122
▁deserve	122
▁dropped	122
par	122
▁murder	122
▁psychological	122
▁visible	122
▁explained	122
down	122
▁functional	122
▁stretch	122
▁clothes	122
▁constant	122
▁guide	122
▁officer	122
▁pill	122
▁efficiency	121
▁Bar	121
▁talent	121
▁fabric	121
▁agreed	121
▁institution	121
▁literature	121
▁Project	121
▁drone	121
▁exhibition	121
avi	121
▁destruction	121
▁equality	121
▁Red	121
▁Talk	121
foot	121
now	121
▁sunlight	121
▁wound	121
etic	121
▁intense	121
▁singing	121
▁percentage	121
▁scared	120
fully	120
▁drill	120
▁wash	120
aries	120
▁shadow	120
▁tap	120
state	120
▁Paris	120
▁advice	120
back	120
▁printing	120
▁wine	120
▁psychology	120
▁pile	120
▁authority	120
▁Valley	120
▁divide	120
▁illness	120
▁equally	120
▁chose	119
▁horrible	119
▁sail	119
▁younger	119
▁CEO	119
▁extend	119
▁contribute	119
aving	119
▁proteins	119
▁infected	119
▁tests	119
▁unknown	119
rand	119
▁kick	119
▁nor	119
▁emerge	119
▁contrast	119
▁flash	119
ez	119
▁script	119
▁fingers	119
▁memories	119
▁club	119
▁occurred	119
▁download	119
▁wireless	119
▁Latin	119
▁owner	119
▁grass	119
▁cluster	119
▁cry	119
ou	119
▁mistakes	118
▁acting	118
▁circumstances	118
▁pour	118
▁Tu	118
▁Five	118
▁shock	118
▁telephone	118
▁applications	118
▁boring	118
▁nowhere	118
onic	118
▁weigh	118
▁Gi	118
▁challenging	118
▁deaths	118
ear	118
▁smoke	118
▁tested	118
▁entrepreneurs	117
▁sensors	117
▁neighbor	117
▁marine	117
▁sensitive	117
▁September	117
▁tracking	117
▁bond	117
▁tonight	117
▁falling	117
▁cortex	117
▁defined	117
▁GPS	117
▁Un	117
▁pot	117
▁file	117
lock	117
bb	117
▁transportation	117
▁largely	117
▁apple	117
▁options	117
▁rush	117
▁worker	117
rin	117
▁chapter	117
▁spiritual	117
▁busy	117
▁Unfortunately	117
▁cord	116
▁combined	116
▁selection	116
▁thick	116
▁abstract	116
ological	116
▁promote	116
▁flew	116
▁Health	116
making	116
▁aspect	116
▁accurate	116
▁theme	116
ery	116
▁capitalism	116
▁terrorism	116
ney	116
▁organism	116
▁paradigm	116
▁tie	116
▁Only	116
▁records	116
tract	116
assemble	116
▁controlled	115
▁style	115
▁resistance	115
▁sustainability	115
▁Wikipedia	115
▁pan	115
▁angry	115
▁hill	115
▁stayed	115
▁presence	115
▁exploration	115
aph	115
▁marketing	115
▁bones	115
▁secure	115
being	115
▁attend	115
▁borders	115
teen	115
▁Number	115
▁cents	114
▁upper	114
fish	114
▁parallel	114
Y	114
▁vertical	114
▁dress	114
▁confidence	114
jo	114
ani	114
▁conduct	114
▁depth	114
▁commitment	114
▁tech	114
▁seek	114
▁Adam	114
▁flower	114
▁bicycle	114
lip	114
▁unlike	114
ria	114
▁electronic	114
▁Sea	114
▁lift	114
▁rocks	113
▁closely	113
▁motivation	113
▁organ	113
▁steal	113
▁revenue	113
▁films	113
ura	113
▁cyber	113
▁Egypt	113
▁parking	113
▁favor	113
▁inspire	113
▁expert	113
ong	113
▁House	113
▁suppose	113
ography	113
▁custom	112
▁measured	112
▁Before	112
▁songs	112
▁Angeles	112
▁provided	112
▁humor	112
▁pool	112
▁Something	112
▁fixed	112
▁signed	112
▁somewhat	112
box	112
▁neuro	112
▁roads	112
▁database	112
Look	112
path	112
▁burning	112
▁greenhouse	112
▁desk	112
▁Obama	112
rd	112
▁mad	111
▁villages	111
▁mice	111
▁solving	111
▁overall	111
▁stands	111
▁Act	111
▁boom	111
▁acid	111
ened	111
▁Abou	111
▁therapy	111
▁educational	111
▁psychologist	111
▁march	111
▁Global	111
▁ladies	111
American	111
▁discipline	111
ker	111
▁cooking	111
house	111
▁pin	111
▁struck	110
▁US	110
▁gut	110
▁architect	110
life	110
▁birthday	110
▁Wal	110
▁rely	110
az	110
▁ritual	110
▁convert	110
▁subjects	110
▁Museum	110
▁plans	110
▁invite	110
▁seal	110
cha	110
▁emergency	110
▁hero	110
▁grandfather	110
▁hormone	110
▁laboratory	110
▁Apple	110
▁outcomes	109
▁lifestyle	109
▁poster	109
▁spa	109
▁Pacific	109
▁extent	109
▁chip	109
▁flood	109
▁ear	109
▁centuries	109
▁boxes	109
▁floating	109
▁mode	109
▁unexpected	109
▁Christmas	109
win	109
late	109
▁logic	109
▁customers	108
▁faced	108
▁economists	108
▁meme	108
▁guard	108
mark	108
▁Everyone	108
▁causing	108
▁transfer	108
▁existed	108
▁photographer	108
ock	108
▁hook	108
▁wondered	108
▁narrow	108
▁Robert	108
▁breathing	108
ik	108
▁trigger	108
▁piano	108
▁Mary	108
▁aspects	108
▁feeding	108
▁Thomas	108
▁army	107
▁ears	107
verse	107
▁animation	107
▁regime	107
▁br	107
▁edit	107
called	107
▁implications	107
▁destroy	107
▁Ten	107
▁algorithm	107
▁classes	107
▁samples	107
▁Basically	107
aster	107
▁cheat	107
▁engaging	107
▁diagram	107
▁limits	107
▁transformed	107
▁disc	107
▁June	107
▁destroyed	107
▁whales	107
bling	107
▁Remember	107
key	107
▁suggests	107
▁conclude	106
urge	106
▁offered	106
▁identical	106
▁domestic	106
▁Martin	106
▁welcome	106
▁carried	106
▁minister	106
▁privilege	106
▁represented	106
▁aim	106
▁scenario	106
▁courage	106
▁falls	106
▁barrier	106
▁Boy	106
▁log	106
▁Frank	106
▁application	106
▁pushing	106
▁reserve	106
▁standards	106
▁technique	106
▁library	106
▁dive	105
▁raw	105
▁judgment	105
▁truck	105
▁transplant	105
▁creature	105
▁males	105
▁Finally	105
nal	105
▁cable	105
▁suspect	105
read	105
▁correspond	105
▁proportion	105
▁lock	105
▁critic	105
▁corporate	105
▁frankly	105
▁Jim	105
▁hyper	105
▁dramatically	105
▁session	104
▁renewable	104
▁defense	104
▁arguments	104
▁medication	104
▁vessels	104
hour	104
▁globe	104
▁wherever	104
▁diver	104
▁drinking	104
▁spreading	104
▁genius	104
Sahara	104
▁Was	103
▁architects	103
▁Sch	103
▁careful	103
xi	103
▁footprint	103
aking	103
▁behavioral	103
▁pace	103
▁economies	103
▁continued	103
▁Pe	103
▁Star	103
▁shell	103
▁presented	103
▁engagement	103
view	103
▁fluid	103
▁flowers	103
▁lion	103
▁shall	103
▁geo	102
▁Black	102
▁reduction	102
▁lake	102
pping	102
▁precisely	102
stream	102
▁slum	102
▁Get	102
▁grateful	102
▁thumb	102
▁Korea	102
▁committed	102
▁neither	102
▁increases	102
▁vital	102
hood	102
▁crucial	102
▁Union	102
▁agenda	102
▁anger	102
▁acts	102
▁ignore	102
▁defend	102
▁dig	102
Yeah	102
▁White	102
▁automatically	102
▁overcome	102
▁whale	102
part	101
▁savings	101
▁salt	101
▁diverse	101
▁performing	101
▁disorder	101
▁placed	101
▁distributed	101
▁regret	101
▁compound	101
level	101
▁painful	101
▁absorb	101
ago	101
▁Gene	101
▁instruments	101
▁trace	101
org	101
▁Ge	101
▁alter	101
▁achieved	101
▁rescue	101
gh	101
▁Please	101
▁appeared	101
▁pregnant	101
▁ticket	101
▁clouds	101
▁recognition	101
gin	101
▁portrait	101
▁scary	100
▁Greek	100
▁Never	100
▁Lu	100
some	100
▁dozen	100
▁illustrate	100
▁efforts	100
▁shooting	100
▁colony	100
▁River	100
▁Dur	100
▁shelter	100
▁sweat	100
▁classic	100
▁interactive	100
▁Ghana	100
▁vaccines	100
▁Min	100
▁brothers	100
▁mammals	100
▁Africans	100
▁activate	100
▁preserve	100
▁plug	100
▁obsessed	100
▁Sweden	100
▁clue	100
▁Pat	100
▁linked	100
▁January	100
▁dust	100
▁verb	100
▁conventional	100
▁melt	100
class	100
▁tune	100
▁monkey	100
▁windows	100
▁measuring	100
▁senior	100
▁laser	100
▁mentor	99
▁elite	99
▁mate	99
▁enemy	99
▁spinal	99
▁lung	99
▁disorders	99
▁Lab	99
▁immune	99
▁empower	99
My	99
▁Give	99
ink	99
▁strategies	99
gging	99
▁spin	99
ggle	99
▁comic	99
▁appears	99
▁external	99
▁Gulf	99
▁pollen	99
▁insurance	99
▁component	99
▁poorest	99
▁collecting	99
▁philosopher	99
▁drove	99
▁Voice	99
▁liver	99
▁controlling	99
▁gather	98
▁brave	98
▁recommend	98
▁consume	98
▁heaven	98
▁silent	98
▁Ah	98
iness	98
▁suicide	98
▁objective	98
▁dancing	98
▁connecting	98
▁removed	98
▁Cor	98
▁Central	98
▁Microsoft	98
▁hunger	98
▁tasks	98
▁column	98
▁personality	98
▁mystery	98
▁romantic	97
▁traveled	97
▁embedded	97
▁guarantee	97
▁gray	97
▁Bur	97
▁blame	97
▁Bush	97
▁tired	97
▁recognized	97
▁strike	97
▁miracle	97
tech	97
▁missed	97
▁Next	97
▁Foundation	97
▁units	97
▁Space	97
▁methods	97
▁polio	97
▁implant	97
▁Ed	97
▁mainly	97
▁brief	97
▁golf	97
▁consistent	97
▁optimistic	96
▁grave	96
▁entered	96
ix	96
ibility	96
▁corals	96
▁crying	96
▁universities	96
take	96
▁Haiti	96
law	96
▁darkness	96
▁interactions	96
▁leap	96
▁electron	96
Okay	96
▁Higgs	96
▁knock	96
▁stack	96
▁Six	96
▁demonstrate	96
bro	96
▁adventure	96
▁magnetic	96
▁philosophy	96
▁aside	96
▁recruit	96
ional	96
▁thrown	96
▁Pole	96
▁cash	96
▁rising	96
▁exploring	96
▁hip	96
ean	96
▁gate	96
flu	96
▁colleague	96
▁chocolate	96
rick	96
▁citizen	95
▁prices	95
▁shake	95
▁till	95
▁sales	95
▁tri	95
▁medi	95
▁cheaper	95
▁elephant	95
▁Manhattan	95
▁imagined	95
▁tuna	95
▁antibiotics	95
▁Revolution	95
▁properly	95
▁simulation	95
▁coin	95
▁banks	95
▁boss	95
▁neighborhoods	95
▁Nations	95
▁muscles	95
▁monkeys	95
▁cute	95
▁killer	95
▁household	95
▁procedure	95
▁printer	95
▁asteroid	95
▁stations	94
▁Indeed	94
▁worm	94
century	94
▁reaching	94
▁volunteers	94
face	94
▁involves	94
▁donor	94
itch	94
cher	94
▁partnership	94
▁leak	94
▁tries	94
▁heroes	94
▁interacting	94
▁domain	94
▁earthquake	94
▁resolution	94
▁directions	94
▁mega	94
▁rot	94
▁Super	94
▁paintings	94
▁ban	94
▁isolated	94
▁appeal	94
▁debt	94
▁pretend	94
▁fascinated	94
▁orange	94
▁tele	94
▁curiosity	94
▁hardware	94
▁Ethiopia	94
▁Rwanda	94
▁divided	93
▁recovery	93
▁wise	93
rum	93
▁Stanford	93
▁Grand	93
▁hungry	93
▁oldest	93
▁Texas	93
▁request	93
▁meetings	93
▁passenger	93
▁flo	93
▁Russian	93
▁herself	93
ush	93
▁latest	93
▁rhythm	93
▁vegetable	93
▁dial	93
▁concepts	93
▁mail	93
▁facial	93
▁ceiling	93
▁crops	93
▁International	93
ett	93
▁indicate	93
arian	93
▁Mac	93
▁captured	93
▁tower	93
▁virtually	93
▁consumers	93
But	93
▁wage	93
▁globally	93
▁productivity	93
▁elsewhere	93
▁headline	93
vor	93
▁penguins	93
▁chest	93
▁regulation	93
▁federal	93
▁rough	93
▁candidate	93
▁wrap	92
awa	92
▁searching	92
▁seeds	92
▁tricks	92
▁electro	92
▁accepted	92
▁laughing	92
▁skull	92
▁practices	92
Don	92
▁brown	92
▁textbook	92
▁density	92
▁lit	92
▁writer	92
▁raising	92
▁arrive	92
▁reported	92
▁Jack	92
▁description	92
▁Islamic	92
▁corn	92
▁collaborat	92
▁stake	92
▁attached	92
▁frog	92
▁usual	92
▁Congo	92
▁scratch	92
▁van	92
gal	92
dom	92
▁Peter	92
stone	91
▁mimic	91
▁pray	91
ending	91
▁slides	91
py	91
▁apparently	91
▁underground	91
▁district	91
▁quit	91
▁lovely	91
▁upset	91
▁borrow	91
rie	91
▁cart	91
▁mushroom	91
▁Hollywood	91
▁whi	91
▁subtle	91
▁nano	91
▁Nobel	91
▁dedicated	91
▁rebuild	91
▁High	91
▁rap	91
▁spectacular	91
▁label	91
▁Bay	91
own	91
▁cop	91
▁Pre	91
▁demographic	91
grade	91
▁Law	91
▁liberal	90
▁William	90
war	90
▁accessible	90
▁arch	90
▁Department	90
▁pursue	90
▁exposed	90
▁particle	90
▁bend	90
▁entertainment	90
▁airport	90
▁dioxide	90
lop	90
▁representation	90
▁stroke	90
▁bulb	90
oe	90
▁parties	90
▁visited	90
▁sandwich	90
▁wings	90
▁dignity	90
▁frozen	90
▁rent	90
▁volunteer	90
play	90
dollar	90
▁weapon	90
▁delivered	90
▁expectations	90
▁ethical	90
▁pushed	90
▁hire	90
▁fulfill	90
▁adjust	90
▁gesture	90
▁ridiculous	90
ene	90
▁furniture	89
▁legacy	89
▁craft	89
▁extinct	89
Let	89
▁dirty	89
▁cousin	89
q	89
▁layers	89
▁surveillance	89
tories	89
▁opposed	89
▁Bang	89
▁mutation	89
erial	89
active	89
▁spill	89
▁historical	89
▁confident	89
lla	89
▁Pan	89
▁settle	89
▁Part	89
atory	89
▁meter	89
▁skeleton	89
▁plenty	89
▁conservative	88
▁package	88
▁investing	88
uk	88
▁coat	88
▁Really	88
▁Pol	88
▁concert	88
▁proper	88
▁Hy	88
dia	88
place	88
▁bra	88
▁refugees	88
can	88
▁capita	88
▁chief	88
▁pie	88
plan	88
▁surely	88
▁scar	88
rid	88
▁Inter	88
zo	88
▁editor	88
▁locked	88
▁bother	88
▁announced	88
▁charity	88
cker	88
▁tears	88
▁norm	88
▁Atlantic	87
▁pyramid	87
▁acknowledge	87
▁obesity	87
▁dump	87
▁calculation	87
▁beliefs	87
▁disappeared	87
▁breaking	87
▁distant	87
▁General	87
▁integrated	87
▁DH	87
▁establish	87
▁mono	87
▁governance	87
▁Mark	87
▁protecting	87
▁gu	87
▁restore	87
▁hat	87
▁fi	87
hoo	87
▁fifth	87
ality	87
▁psycho	87
▁calculate	87
▁focusing	87
▁Woman	86
▁Olympic	86
▁spoken	86
▁ingredients	86
▁yield	86
▁compar	86
▁affordable	86
▁Nothing	86
▁magical	86
▁icon	86
▁intuitive	86
▁realm	86
▁Rio	86
▁generated	86
▁reconstruct	86
▁incentives	86
▁delight	86
▁achievement	86
▁granted	86
▁Tri	86
▁neck	86
▁Age	86
▁orchestra	86
▁Back	86
▁pink	86
▁transparency	86
▁nurse	86
▁poison	86
▁cooperation	86
▁sheep	86
lash	86
▁initial	86
hr	86
▁transparent	86
▁Wall	86
▁demonstration	86
▁Fe	86
▁chosen	86
▁combat	86
▁Bob	86
▁Ya	86
▁Turn	85
bble	85
▁regard	85
▁agencies	85
▁leverage	85
▁kilo	85
▁experimental	85
▁uncomfortable	85
▁Par	85
racy	85
▁helicopter	85
▁chaos	85
maker	85
▁dominant	85
▁contains	85
▁plain	85
▁communications	85
ya	85
▁array	85
▁initiative	85
▁programming	85
▁tied	85
rap	85
▁drivers	85
▁synthetic	85
ties	85
▁ugly	85
▁gear	85
▁inventor	85
tail	85
▁sketch	85
▁ensure	85
▁twin	85
▁refugee	85
▁printed	85
▁football	85
▁mold	85
free	85
▁tragedy	85
▁Cu	85
▁margin	85
▁pat	84
▁boundaries	84
▁breakthrough	84
▁replicate	84
▁transmit	84
put	84
▁pit	84
▁jet	84
▁Tell	84
▁lungs	84
▁fool	84
▁x	84
▁Ke	84
▁Smith	84
▁neural	84
ica	84
▁bound	84
▁projection	84
▁reduced	84
▁alarm	84
▁spark	84
▁October	84
▁discoveries	84
▁inspiring	84
▁lamp	84
▁enhance	84
▁laughter	84
▁touched	84
▁output	84
ade	84
▁Narrator	84
▁Bible	84
▁terrorist	84
▁rainforest	84
▁northern	84
▁pur	84
▁naked	84
▁resolve	84
gle	84
▁drawn	84
▁diabetes	84
▁Far	84
▁Bra	84
▁axis	84
▁characteristics	84
▁amongst	84
▁cor	84
▁backwards	84
▁Make	84
▁confront	84
▁fortune	84
▁fur	84
ographic	83
▁rapid	83
▁pointed	83
▁tent	83
▁nurses	83
▁disgust	83
▁commit	83
▁freak	83
▁hanging	83
▁decrease	83
▁trends	83
▁clients	83
▁Things	83
▁dish	83
▁survivor	83
dor	83
▁analyze	83
So	83
▁struggling	83
▁Muslims	83
▁dynamics	83
▁symmetry	83
▁contribution	83
syn	83
▁profile	83
▁actors	83
▁Nor	83
▁ethnic	83
eur	83
▁shrimp	83
▁probability	83
▁stable	82
▁instinct	82
▁neuroscience	82
▁diagnosed	82
▁dependent	82
▁relations	82
▁pipe	82
▁shore	82
▁dolphins	82
▁neuron	82
▁advertising	82
▁Ko	82
▁painted	82
▁accelerate	82
▁baseball	82
▁autonomous	82
▁theories	82
▁dozens	82
run	82
▁tick	82
▁addict	82
▁sharp	82
▁served	82
city	82
▁aircraft	82
▁laid	82
▁tackle	82
▁discuss	82
▁iron	82
▁simplicity	82
▁uncle	82
▁returned	82
▁extinction	82
▁farmer	82
▁Kar	82
▁surrounding	82
▁mood	82
▁None	82
fold	82
▁anxiety	82
▁participation	82
▁concentration	82
uous	82
▁landed	82
▁essence	81
ole	81
▁bump	81
▁Ocean	81
▁speakers	81
▁passing	81
▁routine	81
▁additional	81
▁explode	81
▁whistle	81
▁Joe	81
▁roots	81
▁identified	81
▁civic	81
▁Te	81
▁slavery	81
▁permission	81
ching	81
▁speaker	81
▁slice	81
▁broadcast	81
▁Research	81
▁tragic	81
▁victim	81
▁picking	81
▁bow	81
▁musicians	81
▁Antarctica	81
▁educated	81
▁smooth	81
▁electronics	81
▁briefly	81
▁marker	81
▁strangers	81
▁Alzheimer	81
▁punch	81
▁dear	81
▁sensory	81
▁convey	81
rat	81
▁mechanisms	81
▁toys	81
▁interpret	81
▁bull	80
door	80
yl	80
▁twist	80
▁proof	80
▁lane	80
▁opera	80
▁occasion	80
pan	80
▁injury	80
▁tunnel	80
▁explosion	80
▁Arch	80
▁suggesting	80
MA	80
▁circles	80
▁sisters	80
▁Mother	80
▁rope	80
▁attractive	80
▁east	80
▁links	80
lies	80
▁spell	80
▁lighting	80
▁recipe	80
▁capability	80
▁richer	80
▁agency	80
changing	80
▁relax	80
▁navigate	80
▁sacred	80
▁reminded	80
▁consequence	80
▁highlight	80
▁mechanics	80
▁Third	80
ifying	80
▁coach	80
▁intuition	80
▁lawyer	80
▁kiss	80
▁merely	80
▁terrorists	80
▁confirm	80
▁bullet	80
▁relation	80
▁glacier	80
▁Jewish	80
▁dimension	80
▁hum	79
▁artistic	79
▁ecosystems	79
▁resist	79
berg	79
unclear	79
▁winner	79
load	79
ural	79
▁rating	79
▁MRI	79
▁warning	79
▁comparison	79
hether	79
▁grandchildren	79
▁persist	79
lish	79
▁Blue	79
▁Uganda	79
▁wipe	79
▁seats	79
▁gases	79
▁algae	79
▁tear	79
▁reputation	79
▁Ver	79
▁highway	79
▁smoking	79
▁happier	79
▁Italy	79
blo	79
▁agricultural	79
▁participants	79
▁Soviet	79
▁fragment	79
▁Hey	79
▁tension	79
▁bath	79
▁edges	79
▁chimpanzees	79
▁Egyptian	78
▁informed	78
▁branch	78
▁rarely	78
▁boil	78
▁robust	78
▁Chi	78
▁marry	78
▁pathway	78
▁biodiversity	78
rated	78
pper	78
▁mini	78
▁ignorance	78
There	78
▁disagree	78
▁facility	78
▁Child	78
▁dose	78
▁reefs	78
▁irre	78
▁separated	78
▁substance	78
▁soap	78
▁partly	78
▁linear	78
▁Bl	78
word	78
▁assumptions	78
bon	78
▁pandemic	78
▁luck	78
▁suggested	78
▁transmission	78
▁insist	78
▁fee	78
▁Pen	78
▁alcohol	78
▁aesthetic	77
▁installation	77
▁glad	77
▁documents	77
▁elections	77
▁fraction	77
▁computation	77
▁originally	77
▁funded	77
▁predictions	77
▁ratio	77
▁sin	77
▁pioneer	77
▁tribes	77
▁frequency	77
▁shopping	77
▁begun	77
▁Shi	77
▁anonymous	77
▁Prize	77
▁failing	77
▁journal	77
▁predicted	77
bed	77
▁consist	77
▁symbols	77
away	77
▁excuse	77
iest	77
▁inevitable	77
▁construct	77
ambi	77
▁passwords	77
▁Nature	77
▁structural	77
▁collaborative	77
▁magnet	77
▁queen	77
▁Eastern	77
▁employ	77
third	77
▁photography	77
▁fed	77
▁biologists	77
ino	77
▁teenagers	77
▁extended	77
▁afterwards	77
▁dinosaur	77
oon	76
▁underlying	76
▁Oxford	76
▁implement	76
▁dialogue	76
▁fought	76
▁entering	76
▁Obviously	76
▁Rob	76
uthern	76
rry	76
▁flexible	76
▁globalization	76
▁Israeli	76
▁expedition	76
ndi	76
▁wing	76
▁safer	76
▁insect	76
▁manipulate	76
▁southern	76
▁interestingly	76
▁pole	76
▁Long	76
▁operations	76
▁pulling	76
unk	76
▁trauma	76
▁determined	76
ets	76
▁abilities	76
iff	76
▁buried	76
▁elephants	76
▁fastest	76
▁tweet	76
▁Tra	76
▁immediate	76
finite	76
▁bin	76
▁strand	76
▁sensation	76
▁publish	76
▁radically	76
▁quo	76
▁translation	76
▁render	76
▁Through	75
▁profession	75
▁lawyers	75
▁reactor	75
▁portion	75
▁crystal	75
▁origami	75
▁purchase	75
▁actor	75
▁vagina	75
▁witness	75
▁proposed	75
ancy	75
related	75
burg	75
osi	75
▁translated	75
▁Gates	75
▁astonishing	75
▁Girl	75
▁govern	75
▁observe	75
▁expanding	75
▁joint	75
▁includes	75
▁agreement	75
▁urge	75
▁format	75
▁export	75
▁sink	75
▁mysterious	75
▁Time	75
▁chromosome	75
▁supported	75
▁Design	75
▁mask	75
▁simulate	75
▁December	75
▁throwing	75
▁smarter	75
▁anticipate	75
▁Up	75
▁primitive	75
roll	75
▁variable	75
▁pad	75
▁bathroom	75
▁Cal	75
ueen	75
ening	74
▁investors	74
▁inject	74
▁wheelchair	74
▁category	74
▁crossing	74
▁Mom	74
▁invested	74
clock	74
▁connectivity	74
▁helpful	74
▁kit	74
▁smartphone	74
ken	74
▁neat	74
power	74
▁infant	74
▁unlikely	74
▁mixed	74
▁Children	74
▁Men	74
▁sacrifice	74
▁depressed	74
▁experiencing	74
▁prisoners	74
▁sauce	74
▁keyboard	74
▁caring	74
▁neutral	74
▁sew	74
▁Florida	74
▁gathering	74
▁garage	74
▁Out	74
▁answered	74
▁soldier	74
▁shaped	74
▁KB	74
▁arise	74
▁peaceful	74
▁competitive	73
▁fabulous	73
aging	73
▁sleeping	73
▁formula	73
▁bite	73
▁imaging	73
▁tribe	73
▁impression	73
▁adopt	73
▁pause	73
▁terror	73
▁kidney	73
▁smallpox	73
▁eliminate	73
ball	73
ville	73
▁assignment	73
▁programmer	73
▁gods	73
▁founded	73
ash	73
▁vacuum	73
lev	73
generating	73
▁signature	73
▁expansion	73
▁reinvent	73
▁exploit	73
Wow	73
▁nutrition	73
▁forgotten	73
▁included	73
▁Wa	73
▁mall	73
▁inform	73
▁immense	73
▁shrink	73
hold	73
▁August	73
▁quad	73
▁involve	73
▁hack	72
▁threshold	72
▁scanner	72
gua	72
▁dictionary	72
▁choosing	72
▁arrested	72
▁constructed	72
▁flee	72
▁drift	72
▁intersection	72
half	72
▁approaches	72
▁sensor	72
assembly	72
made	72
zi	72
▁Video	72
▁passive	72
▁primarily	72
print	72
▁via	72
▁Yorker	72
▁fragile	72
▁reef	72
▁annual	72
human	72
atter	72
▁unbelievable	72
▁poly	72
▁reject	72
▁gradually	72
Can	72
Where	72
▁Square	72
▁explaining	72
▁burst	72
▁confused	72
▁pharmaceutical	72
▁panels	72
▁chips	71
▁campus	71
▁trucks	71
▁bang	71
▁initially	71
▁burned	71
not	71
▁Sunday	71
▁Put	71
▁Rome	71
▁silly	71
▁mindset	71
▁colonies	71
▁cliff	71
▁Pri	71
▁surprisingly	71
▁wired	71
▁Fo	71
▁strongly	71
▁aggressive	71
▁figuring	71
▁arrow	71
▁Court	71
een	71
▁adopted	71
▁compelling	71
▁rabbi	71
▁Hill	71
▁gli	71
▁rotate	71
▁Home	71
▁significantly	71
▁weekend	71
▁beetle	71
▁difficulty	71
▁industries	71
▁Port	71
▁climbing	71
▁vent	71
▁attribute	71
▁analog	71
▁logical	71
When	71
▁interpretation	70
▁Mill	70
▁automobile	70
▁writers	70
▁Turkey	70
▁closing	70
▁forming	70
▁slave	70
book	70
▁tar	70
▁shocked	70
▁Seven	70
▁manual	70
▁egg	70
▁inches	70
▁resilience	70
▁elected	70
▁drag	70
▁leaf	70
bel	70
▁widely	70
wo	70
▁screw	70
▁Cambridge	70
▁nutrients	70
▁formal	70
▁slip	70
▁gam	70
▁authorities	70
▁nonprofit	70
mus	70
▁hackers	70
▁Tim	70
▁damn	70
▁bake	70
▁ecological	70
▁native	69
▁instantly	69
under	69
▁Norway	69
▁pride	69
▁dancer	69
▁ruin	69
▁audio	69
▁Spanish	69
▁Mor	69
▁disconnect	69
▁imagery	69
zero	69
▁minimum	69
▁precise	69
▁epi	69
▁Arabic	69
▁innocent	69
▁hypothesis	69
▁pulse	69
▁valley	69
▁healthier	69
▁woke	69
new	69
▁covering	69
▁Asian	69
▁Gen	69
▁panel	69
▁Wow	69
▁Brown	69
▁grasp	69
▁brutal	69
▁stranger	69
▁successfully	69
▁chat	69
▁copyright	69
▁supermarket	69
▁condom	69
▁Italian	69
star	69
▁Pop	69
▁rice	69
▁lean	69
▁survived	69
▁cheese	69
▁distinct	69
▁qualities	69
▁shine	69
▁reproduce	68
▁garbage	68
▁advocate	68
ati	68
▁emit	68
▁fortunate	68
engineer	68
▁frustrated	68
▁nuts	68
▁mining	68
▁metric	68
▁methane	68
▁socially	68
He	68
▁sport	68
▁jumped	68
itz	68
▁float	68
▁register	68
▁drought	68
▁curriculum	68
▁February	68
▁shout	68
ette	68
▁elderly	68
digit	68
▁instructions	68
▁Jesus	68
▁trajectory	68
▁drum	68
▁footage	68
▁ethic	68
▁reducing	68
▁pigeon	68
▁spray	68
▁suggestion	68
▁upside	68
▁improving	68
▁prior	68
▁quest	68
▁supporting	68
▁crawl	68
▁bored	68
▁barrel	68
▁March	68
▁oxytocin	68
▁mayor	67
person	67
▁perceive	67
▁remembered	67
▁tendency	67
rian	67
▁trash	67
▁hitting	67
▁whatsoever	67
▁representative	67
▁parasite	67
▁rank	67
▁improved	67
▁Ebola	67
▁compromise	67
lay	67
▁viewer	67
▁excitement	67
RB	67
▁homeless	67
▁antenna	67
▁emerged	67
▁institutional	67
▁spi	67
▁expertise	67
CA	67
▁TEDTalk	67
▁fraud	67
▁genocide	67
▁Secondly	67
▁cake	67
▁extension	67
▁Love	67
▁interviewed	67
▁silver	67
▁suffered	67
▁Without	67
▁Chile	67
▁paralyzed	67
▁Play	67
▁selfish	67
▁Lego	67
▁marketplace	67
ark	67
▁Medic	67
▁profoundly	67
Be	67
▁perceived	67
▁burden	67
▁Church	67
fire	67
▁architectural	67
▁serving	67
ility	67
▁horizon	67
▁wider	67
▁blend	67
▁crush	67
▁reasonable	66
▁appearance	66
▁fate	66
▁wealthy	66
▁palm	66
▁microbial	66
▁diploma	66
▁detection	66
▁Mountain	66
▁optimism	66
▁triangle	66
▁Somebody	66
▁completed	66
▁washing	66
potent	66
▁unable	66
▁genetically	66
▁exhibit	66
▁pose	66
▁bizarre	66
▁prepare	66
heart	66
▁microphone	66
▁Should	66
point	66
▁realizing	66
▁dolphin	66
▁collectively	66
▁binary	66
▁formation	66
▁overwhelming	66
▁exponential	66
▁goat	66
AR	65
▁generous	65
▁camel	65
▁delivery	65
▁paradox	65
▁golden	65
▁besides	65
▁Northern	65
▁select	65
▁valid	65
ote	65
▁simultaneously	65
angle	65
▁jar	65
▁manner	65
▁headed	65
▁factories	65
▁mineral	65
▁crew	65
Wait	65
▁approaching	65
▁mal	65
▁Ab	65
▁incident	65
▁compress	65
▁Albert	65
▁shit	65
▁Republican	65
▁clothing	65
▁strategic	65
▁prediction	65
▁hydro	65
▁coordinate	65
▁staying	65
▁crop	65
▁detector	65
▁forgive	65
▁subway	65
▁fence	65
▁farming	65
▁hemisphere	65
vy	65
▁stunt	65
▁clay	65
▁honey	65
don	65
▁devil	65
▁endless	65
▁Bangladesh	65
▁FBI	65
▁creator	65
▁Sal	65
▁gentleman	65
▁distinguish	65
▁diagnosis	65
▁assets	65
▁challenged	65
▁Moore	65
OK	65
▁beneath	65
▁unconscious	65
▁rape	65
▁winning	65
▁primate	65
▁LED	64
▁exam	64
▁remained	64
▁Bell	64
▁morality	64
▁prosperity	64
Who	64
▁Gore	64
▁wedding	64
▁capabilities	64
▁propose	64
▁threatened	64
▁client	64
▁dumb	64
▁Derek	64
▁recall	64
▁classical	64
▁detailed	64
▁located	64
▁duck	64
▁hired	64
▁compassionate	64
▁facilities	64
▁ownership	64
▁tongue	64
▁badly	64
▁membrane	64
▁dating	64
▁soup	64
▁fancy	64
▁hardest	64
▁gallon	64
▁watt	64
▁beaten	64
▁Silicon	64
▁mathematicians	64
▁Scott	64
▁bucks	64
Listen	64
▁hunting	64
▁Char	64
▁precious	64
▁dung	64
holder	64
▁expecting	64
▁instant	64
▁beautifully	64
▁regulate	64
▁Pu	64
▁intended	64
▁Arctic	64
▁Titan	64
▁Hall	64
▁remaining	64
▁wildlife	64
▁humanitarian	64
wood	64
chu	63
▁crap	63
▁awake	63
▁shirt	63
▁calm	63
▁forgot	63
ealand	63
▁corporations	63
▁someday	63
▁items	63
▁Saturn	63
▁established	63
ime	63
▁enterprise	63
▁aspiration	63
▁influenced	63
▁disability	63
efficient	63
▁striking	63
▁Although	63
▁reflection	63
▁July	63
▁unprecedented	63
▁beating	63
▁rolling	63
▁rose	63
▁vaccinat	63
▁friendly	63
▁Trans	63
▁relie	63
▁App	63
▁retire	63
▁Friday	63
▁openness	63
▁mobility	63
▁safely	63
interest	63
four	63
▁elegant	63
▁cotton	63
▁photographed	63
▁Spain	63
LT	63
▁Santa	63
▁AB	63
▁steppe	63
▁hiding	63
▁rob	63
▁torture	63
▁Eric	63
▁bind	63
▁Matt	62
▁workplace	62
▁span	62
▁Steven	62
▁enforcement	62
▁armed	62
▁civilian	62
▁Open	62
▁Sir	62
▁luxury	62
▁educate	62
▁glasses	62
▁sculpt	62
▁redesign	62
known	62
▁analogy	62
oh	62
▁vulnerability	62
▁pun	62
▁hunter	62
▁terrifying	62
▁Dad	62
▁conducted	62
▁interior	62
▁listened	62
▁Taliban	62
▁uniform	62
▁limitations	62
cost	62
▁Gold	62
▁unfold	62
▁tight	62
▁impressive	62
▁Sure	62
▁chamber	62
▁rubber	62
▁workforce	62
▁install	62
▁mild	62
▁continuous	62
▁archive	62
▁cosmic	62
▁Brazilian	62
▁awkward	62
▁snake	62
▁expectancy	62
▁encouraged	62
ji	62
▁Minister	62
▁restrict	62
▁Beijing	62
▁matrix	62
▁categories	62
▁blank	62
▁accumulate	62
▁server	62
flow	62
▁friendship	62
▁diamond	61
▁Until	61
▁retirement	61
▁NGOs	61
▁exposure	61
▁amateur	61
lick	61
▁upload	61
▁musician	61
▁collision	61
▁leather	61
expl	61
▁geek	61
▁Win	61
▁flaw	61
▁observed	61
▁beam	61
▁tsunami	61
▁bold	61
▁temporary	61
▁steer	61
▁loose	61
▁nearby	61
▁venture	61
▁landing	61
▁commission	61
▁defeat	61
▁chase	61
▁static	61
▁kingdom	61
▁gathered	61
▁pond	61
▁magnitude	61
▁theoretical	61
▁homework	61
▁chronic	61
▁intimate	61
▁dare	61
▁germ	61
▁upward	61
▁logo	61
▁Mike	61
▁terribly	61
▁shower	61
▁proved	61
▁makers	61
▁glamorous	61
cade	61
▁researcher	61
▁investigate	61
wind	61
▁desperately	61
▁deck	61
▁surround	61
▁uncertainty	61
▁administration	61
▁contemporary	61
▁Both	61
▁Sorry	61
▁obstacles	61
wandering	61
▁addiction	60
▁counting	60
▁motivate	60
thermal	60
▁shipping	60
▁conc	60
▁update	60
▁storytelling	60
▁assumption	60
▁residents	60
▁previously	60
▁despair	60
▁patch	60
▁Ray	60
▁glue	60
▁sponsor	60
▁fortunately	60
▁Tanzania	60
▁customer	60
▁Council	60
▁assistance	60
▁assign	60
▁specialist	60
▁hunt	60
uate	60
▁closest	60
▁bribe	60
worth	60
▁align	60
▁continuing	60
▁proposition	60
▁astronomer	60
▁rethink	60
▁Saudi	60
▁Ladies	60
▁blah	60
▁inherit	60
▁MT	60
▁reliable	60
▁visualize	60
ogue	60
▁ego	60
▁stimulate	60
▁genuine	60
▁ongoing	60
▁estate	60
▁viral	60
▁indigenous	60
▁mud	60
▁traits	60
▁mapping	60
▁CD	60
▁Ken	60
▁diagnostic	60
scribe	59
step	59
▁legislation	59
▁earliest	59
minute	59
▁Whereas	59
▁harness	59
▁Palestinian	59
▁Homo	59
▁excellent	59
▁brick	59
▁dressed	59
▁panic	59
▁girlfriend	59
▁yourselves	59
▁proven	59
space	59
▁Korean	59
▁spike	59
▁occasionally	59
▁absence	59
▁specialized	59
wan	59
▁Iranian	59
▁pedestrian	59
▁trap	59
▁Howard	59
▁Media	59
▁teenager	59
▁cruel	59
clusive	59
▁ignored	59
▁Nelson	59
▁Moon	59
▁grandparents	59
▁flowing	59
▁entry	59
▁entrepreneur	59
▁confine	59
▁contrary	59
▁Hello	59
chasing	59
▁supplies	59
▁Alexander	59
▁deforestation	59
▁chop	59
▁sufficient	59
▁historic	59
▁Mad	59
▁exclusive	59
▁nerd	59
▁flourish	59
▁stability	59
▁punish	59
▁Social	59
▁monitoring	59
▁Gandhi	59
▁pursuit	59
▁Walk	59
▁substantial	58
▁principal	58
oney	58
▁punishment	58
▁vessel	58
▁Lake	58
▁storage	58
▁promised	58
▁Army	58
▁succeeded	58
▁mutual	58
▁altitude	58
▁grip	58
▁executive	58
▁Dutch	58
▁voting	58
▁pound	58
▁mammal	58
▁receptor	58
▁Jeff	58
▁interconnected	58
▁dawn	58
▁bush	58
▁SS	58
▁Almost	58
Re	58
▁devote	58
▁fertilizer	58
▁constraints	58
▁fault	58
▁excess	58
▁exhaust	58
▁frontier	58
▁Bronx	58
▁dopamine	58
▁lowest	58
▁incentive	58
▁dilemma	58
▁ambitious	58
▁glow	58
▁bowl	58
▁Afghan	58
▁banana	58
▁Indonesia	58
▁cigarette	58
▁proposal	58
break	58
▁County	58
▁chimpanzee	58
version	58
▁Whatever	57
▁angel	57
▁manufacture	57
▁teenage	57
▁Rand	57
town	57
▁currency	57
▁refine	57
▁texture	57
▁Newton	57
▁encouraging	57
▁Professor	57
▁straightforward	57
▁personalized	57
▁admire	57
▁bust	57
cast	57
▁tale	57
lapping	57
▁destiny	57
▁iPod	57
▁hug	57
▁delay	57
▁canopy	57
▁cue	57
▁Brian	57
▁requirement	57
▁synthesize	57
▁aunt	57
▁chunk	57
▁guilty	57
▁interrupt	57
▁acoustic	57
▁geometry	57
▁seemingly	57
▁economist	57
▁parachute	57
▁miserable	57
▁virtue	57
▁discovering	57
▁loving	57
▁cricket	57
▁arrest	57
▁pizza	57
▁rig	57
▁overnight	57
▁singer	57
▁phantom	57
▁shifting	57
▁filmmaker	57
▁Except	57
▁estimated	57
▁jam	57
▁canvas	56
▁graduated	56
self	56
▁enabled	56
▁System	56
▁Vietnam	56
▁counsel	56
▁hub	56
▁negotiate	56
▁offering	56
▁performed	56
▁Anybody	56
▁artwork	56
▁motivated	56
▁Carolina	56
▁lobby	56
driven	56
▁insane	56
▁branches	56
▁composition	56
nne	56
▁collapsed	56
▁preparing	56
▁authentic	56
▁sir	56
▁worrying	56
▁corrupt	56
▁persuade	56
▁foster	56
▁suppress	56
▁gig	56
▁transcend	56
▁Shanghai	56
▁AK	56
▁Peace	56
gras	56
▁Mandela	56
lia	56
▁territory	56
▁Henry	56
▁riot	56
▁pencil	56
▁empowered	56
▁division	56
▁honestly	56
▁Year	56
▁biologist	56
▁freely	56
fulness	56
▁cellular	56
▁strain	56
▁endangered	56
▁scheme	56
▁Twenty	56
▁phenomena	56
▁phenomenal	56
▁tattoo	56
position	56
▁millimeter	56
▁Delhi	56
▁downtown	56
▁elementary	56
▁migrate	55
▁crossed	55
▁thread	55
▁diving	55
▁container	55
▁wrist	55
▁mainstream	55
uch	55
▁occupy	55
▁Roman	55
▁backyard	55
▁Lord	55
▁Seattle	55
▁freeze	55
▁enzyme	55
▁distort	55
▁Koran	55
▁proceed	55
▁syndrome	55
▁eaten	55
▁attach	55
▁stomach	55
▁Technology	55
▁fusion	55
▁stopping	55
▁prevention	55
▁millennia	55
▁employer	55
▁password	55
▁ambition	55
▁magnificent	55
body	55
▁terrified	55
▁retreat	55
▁predictable	55
▁blink	55
▁Bio	55
▁junk	55
▁conv	55
Ha	55
▁staring	55
▁breakfast	55
▁cube	55
second	55
▁extraordinar	55
oma	55
▁chemist	55
▁Rock	55
▁horizontal	55
▁knife	55
▁semi	55
▁bedroom	55
▁receiving	55
ali	55
▁raped	55
▁manufacturer	55
▁astronaut	55
▁temple	55
▁Johnson	55
▁amazingly	55
▁regardless	55
▁Jordan	54
▁enemies	54
▁horror	54
▁feminist	54
▁swing	54
▁tiger	54
▁November	54
▁gained	54
▁chimp	54
▁approached	54
▁warrior	54
▁smallest	54
▁ecology	54
▁fallen	54
▁Ch	54
▁responded	54
▁entropy	54
two	54
▁Andrew	54
aeda	54
▁workshop	54
▁Rather	54
í	54
▁jellyfish	54
▁devastating	54
▁deposit	54
▁selected	54
▁contributed	54
▁Jane	54
▁taxes	54
▁sexy	54
▁catching	54
▁Syria	54
▁concentrated	54
▁electrodes	54
▁steam	54
▁convenient	54
▁diameter	54
▁replaced	54
world	54
▁sixth	54
▁sidewalk	54
▁wheat	54
▁unhappy	54
▁realistic	54
▁outbreak	54
▁Ron	54
▁fatal	54
▁shoe	54
▁visualization	54
▁emphasize	54
corn	54
inal	54
▁rip	54
▁Way	54
▁cocaine	54
▁Neanderthal	54
▁brush	54
▁College	54
▁assure	54
▁investigation	54
▁Kh	54
▁hybrid	54
how	54
▁Work	54
▁packed	54
▁intensive	54
▁relief	54
▁Bruno	54
▁pipeline	54
▁recycling	54
▁seeking	54
▁legitimate	53
▁approved	53
▁correctly	53
▁Pal	53
▁Cuba	53
▁negotiation	53
▁publishing	53
▁grabb	53
▁Brooklyn	53
▁momentum	53
▁stored	53
▁Gabby	53
▁invade	53
▁hated	53
▁processor	53
shot	53
▁earning	53
▁cream	53
▁advise	53
▁contaminat	53
▁Suddenly	53
▁Industrial	53
▁Government	53
▁risky	53
▁advertise	53
▁Watch	53
▁migration	53
▁nodes	53
▁strict	53
▁amazed	53
▁potato	53
▁satisfy	53
▁readers	53
▁Force	53
▁ubiquitous	53
▁trivial	53
▁segment	53
▁purple	53
▁mentally	53
▁divorce	53
▁infectious	53
▁drew	53
▁prostate	53
▁sibling	53
▁declare	53
▁ironic	53
▁Little	53
▁unlock	53
▁Someone	53
▁flavor	53
▁breeding	53
▁Tony	53
▁Accord	53
▁spacecraft	53
▁Carl	53
▁blindness	53
▁controversial	53
▁carpet	53
▁useless	53
▁spiral	53
xic	53
▁cooperate	53
▁posted	53
storm	53
tropical	53
▁association	53
▁shelf	53
▁attacked	53
▁candle	53
▁asleep	52
▁Van	52
▁worthy	52
▁sake	52
▁arguing	52
▁naive	52
▁inevitably	52
▁rib	52
▁multiply	52
▁atomic	52
▁champion	52
▁MK	52
▁minus	52
▁terrain	52
▁decent	52
▁Lincoln	52
▁constrain	52
▁politically	52
▁destination	52
▁installed	52
▁frustration	52
▁onstage	52
▁smiling	52
▁diarrhea	52
▁whisper	52
▁realization	52
wise	52
▁enjoyed	52
▁probe	52
▁sperm	52
▁breed	52
AIDS	52
▁monster	52
▁utterly	52
▁vary	52
▁informal	52
▁eradicate	52
powered	52
▁harmful	52
▁Str	52
▁Half	52
▁bounce	52
▁surf	52
▁belt	52
▁revealed	52
▁frequently	52
▁Brother	52
▁Ireland	52
▁banker	52
▁Hawaii	52
▁echo	52
▁communicating	52
▁innovate	52
▁Catholic	52
▁Redwood	52
▁halfway	52
▁transforming	52
▁optical	52
▁demonstrated	52
▁Swiss	52
▁banking	52
▁distinction	52
▁believing	52
▁regularly	52
▁summit	52
▁accuracy	52
▁ultra	51
generation	51
▁snap	51
▁spine	51
▁contest	51
▁competing	51
▁tutor	51
▁Op	51
▁TEDster	51
▁statistic	51
▁scream	51
▁trapped	51
income	51
▁injured	51
▁Kevin	51
▁locally	51
▁squeeze	51
▁embarrassing	51
▁Ear	51
▁guest	51
▁Nike	51
▁obtain	51
▁jihad	51
▁Nick	51
▁Stone	51
ella	51
▁messy	51
▁hierarchy	51
▁describing	51
▁Telescope	51
▁abandoned	51
All	51
▁planetary	51
▁disabled	51
▁Leonardo	51
▁Anyone	51
▁priority	51
▁consumed	51
▁Show	51
▁equity	51
▁slime	51
rich	51
▁stereotype	51
▁drunk	51
field	51
Ma	51
▁evolving	51
▁Abraham	51
▁priest	51
▁destroying	51
▁Yemen	51
▁vacation	51
▁outdoor	51
▁screaming	50
ku	50
▁nowadays	50
▁behalf	50
▁slight	50
▁veteran	50
scape	50
skeletal	50
▁impulse	50
▁Hong	50
▁creep	50
wide	50
▁wishes	50
▁adapted	50
▁spinning	50
▁Doctor	50
▁empire	50
▁centimeter	50
▁sanitation	50
▁summarize	50
▁Amy	50
▁healing	50
▁Mexican	50
▁approximate	50
▁peculiar	50
▁correlation	50
change	50
▁tide	50
▁juice	50
▁Organization	50
▁randomly	50
▁jazz	50
▁invitation	50
child	50
▁cookie	50
▁exotic	50
▁lonely	50
▁hometown	50
▁teaches	50
▁calories	50
▁simplest	50
mediate	50
▁simpler	50
▁prescription	50
▁Australian	50
▁lifespan	50
▁remarkably	50
▁insert	50
material	50
▁sale	50
▁PMS	50
▁shy	50
▁doubled	50
wash	50
▁organizing	50
▁SW	50
▁aggregate	50
▁welfare	50
▁explorer	50
▁schizophrenia	50
▁artifact	50
▁Switzerland	50
▁augment	50
▁Alex	50
▁Louis	50
▁evaluat	50
▁SP	50
▁Detroit	50
▁RS	50
▁discussing	50
▁pirate	50
▁USA	50
▁Turk	50
▁dominated	50
▁transit	49
▁expanded	49
▁tiles	49
▁intrinsic	49
▁Still	49
▁technically	49
▁Coast	49
▁modest	49
▁boost	49
▁realities	49
▁typing	49
▁historically	49
▁obese	49
▁Shakespeare	49
▁Jupiter	49
▁drain	49
▁scholar	49
▁phosphorus	49
▁Singapore	49
▁mill	49
▁collaborate	49
▁hacking	49
▁disrupt	49
▁fin	49
▁engineered	49
▁Berlin	49
▁Coke	49
▁intervene	49
▁migrant	49
stick	49
▁tire	49
▁Saturday	49
▁accomplished	49
▁Pretty	49
▁helpless	49
▁introduction	49
▁stolen	49
▁Argentina	49
▁expressed	49
▁consciously	49
▁convention	49
▁blown	49
▁calculated	49
▁heritage	49
▁harbor	49
looking	49
▁Development	49
▁macro	49
▁gorgeous	49
▁dirt	49
▁lap	49
▁therapist	49
▁integrate	49
▁discrimination	49
▁deaf	49
nnie	49
▁dropping	49
▁stigma	49
▁separation	49
▁kidding	49
▁scaffold	49
▁Together	49
▁retail	49
▁hint	49
▁Probably	49
▁episode	49
kill	49
ER	49
▁privileged	49
▁tolerance	49
▁jaw	49
style	49
▁namely	49
▁Indus	49
▁reporting	49
▁shocking	49
▁remix	49
standing	48
count	48
▁belly	48
▁thrive	48
▁batteries	48
▁philosophical	48
▁endeavor	48
▁Daniel	48
▁nitrogen	48
▁examine	48
▁warmer	48
ounce	48
▁likelihood	48
type	48
▁album	48
▁import	48
▁PR	48
▁cubic	48
▁neuroscientist	48
▁labeled	48
▁consent	48
▁cosmos	48
▁glamour	48
▁Stephen	48
▁PC	48
▁stereo	48
▁puppet	48
▁hostile	48
▁assault	48
▁blob	48
▁youngest	48
▁cylinder	48
▁warehouse	48
▁Brad	48
▁lifted	48
▁marathon	48
Man	48
▁broader	48
night	48
▁deepest	48
▁deployed	48
▁independence	48
▁lethal	48
▁psychopath	48
▁compute	48
▁Monterey	48
▁switched	48
bound	48
▁cockroach	48
▁Watson	48
▁Geographic	48
▁scaling	48
▁arc	48
▁Jones	48
rious	48
▁abundance	48
shirt	48
▁Try	48
▁provider	48
▁wore	48
▁accomplish	48
▁corridor	48
profit	48
▁Iceland	48
▁slower	48
Absolutely	48
▁capitalist	47
▁convicted	47
▁descend	47
▁machinery	47
▁computational	47
▁scanning	47
▁mesh	47
Go	47
▁boundary	47
▁operator	47
▁spare	47
▁Cape	47
▁insulin	47
▁glimpse	47
▁intent	47
eval	47
▁geography	47
▁Feynman	47
▁prospect	47
▁philanthropy	47
▁Spring	47
▁zoo	47
▁glucose	47
▁volcano	47
▁flesh	47
▁prisoner	47
mile	47
touch	47
▁Supreme	47
▁ceremony	47
▁deploy	47
five	47
▁fisheries	47
▁inhibit	47
▁swallow	47
▁overwhelmed	47
▁Clinton	47
▁utter	47
▁documentary	47
▁offspring	47
▁reflected	47
▁bleed	47
▁cope	47
▁Luc	47
▁Stage	47
▁Atlanta	47
▁repeated	47
▁dough	47
▁sexually	47
▁Young	47
▁default	47
á	47
▁actively	47
▁envelope	47
▁IBM	47
lapse	47
▁Security	47
▁bamboo	47
▁Parkinson	47
▁reinforce	47
▁laughed	47
▁planned	47
▁wrapped	47
voluntary	47
▁translator	47
▁Gar	47
▁penguin	47
▁contradiction	47
▁irrational	47
▁rub	47
▁trailer	47
▁mankind	47
▁transistor	47
▁harmony	47
degree	47
▁digest	47
▁rode	47
▁Philip	47
▁resistant	47
▁elaborate	47
itude	47
▁bacterial	47
▁protocell	47
▁threaten	47
▁trading	47
▁grace	47
▁prayer	47
▁therapies	47
▁Nigerian	47
▁Copenhagen	46
▁DVD	46
▁biomass	46
▁grant	46
▁heavily	46
▁sequencing	46
▁nightmare	46
▁whoever	46
found	46
▁Society	46
▁JF	46
▁democracies	46
▁maneuver	46
▁freezing	46
▁April	46
▁Rick	46
▁stare	46
▁Kong	46
▁witnessed	46
risk	46
▁steep	46
▁Ram	46
▁tan	46
oop	46
▁handful	46
▁minor	46
▁intact	46
▁Trade	46
frame	46
▁elevator	46
▁thus	46
▁lawn	46
▁consult	46
phone	46
▁adaptation	46
▁sovereign	46
▁owe	46
threatening	46
▁timing	46
▁conceptual	46
▁expense	46
▁Greece	46
▁mount	46
▁journalism	46
vascular	46
▁staircase	46
▁kicked	46
▁minority	46
▁prey	46
▁stamp	46
▁crab	46
volving	46
▁vibration	46
▁sneak	46
▁forbid	46
▁execution	46
uh	46
▁Business	46
▁humble	46
▁impos	46
▁basketball	46
▁masses	46
osa	46
▁prosthetic	46
▁yell	46
▁entertain	46
▁odor	46
▁overhead	46
▁instruction	46
Prince	46
▁coordination	46
▁subjective	46
▁hopeless	46
proof	46
▁schedule	46
▁smash	46
▁mum	46
▁gross	46
spot	46
▁pleasant	45
▁strap	45
▁Music	45
▁mathematician	45
cause	45
▁argued	45
▁helium	45
▁synap	45
▁delicious	45
▁emotionally	45
▁reache	45
▁neo	45
▁buses	45
▁reporter	45
liter	45
▁harsh	45
▁losses	45
▁preference	45
▁poke	45
▁vivid	45
▁consensus	45
▁scrap	45
▁arrangement	45
▁Keep	45
▁regenerate	45
alai	45
▁basement	45
▁managing	45
▁rebel	45
▁livestock	45
▁blast	45
▁coverage	45
▁blur	45
▁Teach	45
▁transformative	45
horn	45
▁hopeful	45
espite	45
▁thrilled	45
▁duty	45
▁triple	45
▁wow	45
▁occurring	45
▁JA	45
▁Civil	45
▁asthma	45
▁Arabia	45
▁constitution	45
▁suspended	45
▁tomato	45
▁trafficking	45
ok	45
page	45
▁Water	45
iction	45
▁blade	45
▁remotely	45
▁intensity	45
▁chew	45
▁vocal	45
▁distract	45
zen	45
▁taboo	45
▁Say	45
▁tempo	45
To	45
▁diagnose	45
▁flame	45
▁preach	45
▁wooden	45
natu	45
▁Arthur	45
▁deadly	45
▁progressive	45
▁converge	45
▁pants	45
▁prim	45
▁kilogram	45
▁iconic	45
▁LG	45
▁tourist	45
▁grocery	45
▁denial	45
quality	45
▁systematically	45
▁merge	44
▁FDA	44
▁cheer	44
▁inflation	44
▁replacement	44
▁desperate	44
▁Berkeley	44
▁farther	44
▁anniversary	44
▁headquarters	44
▁virgin	44
▁refuse	44
▁Journal	44
▁passes	44
▁gallery	44
▁jungle	44
Here	44
month	44
▁irony	44
▁nasty	44
▁payment	44
▁bonus	44
▁inmates	44
▁Hawk	44
▁defining	44
▁happily	44
▁rejected	44
Please	44
▁sooner	44
▁Disney	44
▁rear	44
▁contributing	44
▁analyzed	44
▁injuries	44
▁exceed	44
▁generic	44
▁crude	44
▁fluorescent	44
▁fade	44
▁confronted	44
▁Education	44
▁Virginia	44
▁obsession	44
▁attracted	44
▁monument	44
▁forecast	44
▁transaction	44
▁Mumbai	44
▁Aristotle	44
hole	44
▁literacy	44
▁MR	44
▁comedy	44
▁Benjamin	44
▁longest	44
▁index	44
▁plea	44
▁depict	44
▁adolescent	44
▁underestimate	44
▁greet	44
▁History	44
▁recession	44
▁deficit	44
▁confess	44
▁imagining	44
▁historian	44
▁selective	44
▁swarm	44
▁browser	44
▁associate	44
▁eternal	44
▁accent	44
▁precision	44
▁penis	44
▁integration	44
▁assumed	44
▁stabilize	44
▁sweep	44
▁optimize	44
three	44
▁accountability	43
▁immortal	43
▁juvenile	43
▁maximum	43
▁vice	43
▁encode	43
▁spouse	43
▁Mount	43
craft	43
▁slope	43
▁melting	43
▁indicator	43
▁Brit	43
▁fluctuat	43
▁thermo	43
▁rail	43
▁fever	43
▁airline	43
▁resurrect	43
▁systematic	43
speed	43
▁pesticide	43
▁achieving	43
▁recognizing	43
▁couch	43
▁Syrian	43
▁passage	43
▁submit	43
▁cattle	43
▁bucket	43
▁Public	43
▁recycled	43
▁lever	43
▁hut	43
▁vend	43
▁stumble	43
▁accelerating	43
▁unfortunate	43
▁Office	43
▁practicing	43
▁merit	43
▁converted	43
▁selves	43
cam	43
▁Plan	43
▁talented	43
culture	43
story	43
ssuming	43
▁settlement	43
▁Free	43
▁Natural	43
▁Columbia	43
▁documented	43
articulate	43
▁lobe	43
oriented	43
▁Jerusalem	43
▁cage	43
▁headache	43
▁copies	43
▁cardiac	43
▁mosque	43
▁storyteller	43
▁trunk	43
▁ideology	43
▁SETI	43
▁Apollo	43
▁chef	43
▁ooh	43
▁surgeries	43
▁Ask	43
▁worship	43
▁curl	43
▁hypo	43
▁redefine	43
▁eastern	43
▁lottery	43
▁frightening	43
▁Bhutan	43
▁refused	42
▁digging	42
▁regional	42
▁calculus	42
▁acquire	42
▁shatter	42
▁superpower	42
▁GG	42
▁rescued	42
▁alphabet	42
invasive	42
▁caregiver	42
▁undergraduate	42
▁assess	42
▁orientation	42
▁Canadian	42
▁circular	42
▁Academy	42
▁festival	42
▁concentrate	42
▁implemented	42
▁towel	42
▁McDonald	42
▁employment	42
▁differentiate	42
▁deception	42
▁continuously	42
▁morph	42
▁Harry	42
▁nail	42
Having	42
▁progression	42
▁illustration	42
▁Edward	42
▁Intel	42
▁assistant	42
▁scare	42
▁opposition	42
▁gentle	42
▁sync	42
▁spatial	42
▁richest	42
▁Milk	42
▁favela	42
▁parliament	42
▁tapir	42
▁Light	42
▁secondary	42
▁Sur	42
And	42
▁minimal	42
▁Camp	42
▁economically	42
▁clone	42
▁apologize	42
▁expo	42
▁disturb	42
▁entities	42
▁mite	42
effective	42
▁adoption	42
▁prince	42
▁blew	42
▁retina	42
▁carries	42
▁manifest	42
▁spite	41
▁immigrant	41
▁Joseph	41
▁psychiatrist	41
▁playful	41
▁protocol	41
▁configuration	41
▁pixel	41
▁Democrat	41
▁Map	41
▁racial	41
▁sensing	41
▁ingredient	41
istan	41
▁Hospital	41
▁Under	41
▁Nav	41
▁Philadelphia	41
God	41
▁stain	41
▁luckily	41
ranging	41
▁celebrity	41
▁Jersey	41
▁soccer	41
▁faint	41
▁NSA	41
▁mobilize	41
shaped	41
▁preparation	41
▁Old	41
▁inherently	41
▁Netherlands	41
▁Kids	41
▁Republic	41
▁navigat	41
▁guitar	41
▁racing	41
▁entrance	41
▁refrigerator	41
▁dishes	41
▁Fortunately	41
▁Lama	41
percent	41
▁alert	41
▁retain	41
▁acres	41
▁holiday	41
▁flock	41
▁stimulation	41
▁transmitted	41
▁statue	41
▁Lebanon	41
▁preced	41
▁stadium	41
▁institute	41
▁commodity	41
▁Greenland	41
▁clarity	41
▁politician	41
▁laboratories	41
▁discussed	41
▁chess	41
genic	41
▁atheist	41
▁inhabit	41
▁Wright	41
▁isolation	41
built	41
▁multinational	41
▁Craig	41
▁elevate	41
▁Computer	41
animate	41
▁emergence	41
▁scientifically	41
▁cafe	41
▁protective	41
▁piss	41
dependent	41
▁DR	40
case	40
▁revolutionary	40
▁abandon	40
▁Milo	40
▁peel	40
▁infect	40
▁acute	40
▁ultraviolet	40
▁Luther	40
▁Fund	40
▁Cyrus	40
disc	40
▁inspect	40
▁Sound	40
▁connectome	40
▁rigid	40
▁surgical	40
▁Library	40
▁liar	40
▁premise	40
▁abroad	40
▁module	40
▁hacker	40
▁disturbing	40
▁mating	40
▁sensitivity	40
▁resilient	40
▁celebration	40
▁trail	40
▁improvise	40
▁exit	40
▁authenticity	40
Thank	40
▁Opera	40
▁RM	40
▁prohibit	40
minded	40
▁DP	40
▁criteria	40
▁Tech	40
▁fractal	40
▁Sarah	40
▁envision	40
▁differ	40
▁prostitution	40
▁Monday	40
▁technician	40
▁pul	40
▁council	40
▁cocktail	40
▁resemble	40
▁Montana	40
▁taxi	40
▁bench	40
held	40
▁cloth	40
▁fantasy	40
▁Ross	40
▁dune	40
▁Eventually	40
▁Dick	40
▁analyzing	40
▁Nepal	40
▁distribute	40
▁Tokyo	40
▁gravitational	40
▁Around	40
▁neocortex	40
▁disk	40
▁satisfaction	40
▁Pennsylvania	40
▁Marine	40
stitution	40
▁distress	40
▁spear	40
▁staggering	40
▁western	40
▁loyal	40
▁iceberg	40
▁ladder	39
▁metabolism	39
▁ghost	39
▁Charlie	39
▁terrific	39
▁turtle	39
▁fuck	39
▁tribal	39
▁prosecutor	39
▁Machine	39
▁devise	39
▁captain	39
▁encyclopedia	39
▁swap	39
▁unfair	39
▁empowerment	39
▁firing	39
▁Sierra	39
▁Medicine	39
▁Alaska	39
▁acquired	39
▁scholarship	39
▁Phil	39
▁dip	39
▁famine	39
bone	39
▁Suppose	39
▁exponentially	39
▁drama	39
▁idiot	39
▁observer	39
▁Hubble	39
▁profitable	39
▁Fat	39
▁skip	39
▁congestion	39
▁Goals	39
▁cardboard	39
▁regulator	39
▁feather	39
▁thrust	39
▁authoritarian	39
▁genomic	39
wall	39
▁accurately	39
▁magician	39
▁applies	39
▁improvisation	39
▁Christopher	39
▁successes	39
ductive	39
▁deciding	39
▁RNA	39
▁brake	39
▁Simon	39
▁cholera	39
▁mixture	39
▁mustache	39
giving	39
▁manifestation	39
▁statistical	39
▁integrity	39
▁consideration	39
▁catastrophe	39
▁educator	39
▁digitize	39
▁significance	39
▁Kennedy	39
▁logging	39
▁Thailand	39
▁Alice	39
▁Jefferson	39
▁longevity	39
▁scarce	39
▁portray	39
▁skeptic	39
▁embracing	39
▁eco	39
▁exquisite	39
▁Allen	39
▁BJ	38
▁Peru	38
virus	38
▁frequencies	38
▁axe	38
▁nonviolen	38
▁Phoenix	38
▁disruptive	38
▁tangible	38
▁continu	38
▁mapped	38
▁observing	38
▁imperative	38
▁Boo	38
▁conquer	38
▁province	38
▁Association	38
▁dysfunction	38
▁Cold	38
million	38
▁shining	38
▁snail	38
▁anthropologist	38
▁trait	38
▁folk	38
▁penalty	38
▁slaughter	38
eanwhile	38
▁cinema	38
MG	38
▁slogan	38
▁disappointed	38
▁slam	38
▁practically	38
▁Band	38
▁governor	38
▁composer	38
▁overlook	38
▁cooperative	38
▁Treat	38
▁memorial	38
▁ancestr	38
▁copied	38
▁Therefore	38
NG	38
▁vocabulary	38
▁dictator	38
▁impose	38
high	38
▁Laden	38
▁participating	38
▁EM	38
stein	38
▁squid	38
▁diplomacy	38
▁shaking	38
activat	38
▁extensive	38
▁planner	38
▁Norden	38
▁Auto	38
▁UK	38
▁invasion	38
▁competitor	38
▁Pete	38
▁wives	38
▁heroin	38
▁Sudan	38
▁Everest	38
▁gasoline	38
▁occupie	38
▁obsolete	38
▁dismiss	38
▁kite	38
responsibilities	38
▁unleash	38
▁avatar	38
▁funeral	38
▁conviction	38
▁obligation	38
▁overseas	38
▁inexpensive	38
▁locomotion	38
▁steady	38
▁Maria	38
▁escalat	38
▁matches	38
bran	38
▁nurture	38
cultural	38
▁altogether	38
▁blueprint	38
▁Tower	38
▁whip	38
▁Less	38
▁liberate	38
▁Abed	38
▁publisher	38
▁posed	38
▁Bosnia	38
▁curator	38
▁promot	38
▁PowerPoint	38
▁mandate	38
▁identities	38
conscious	37
▁voters	37
ither	37
▁lightning	37
▁relativity	37
▁Tunisia	37
▁Kingdom	37
▁Georgia	37
▁obstacle	37
▁nuclei	37
▁oven	37
▁desktop	37
▁blessed	37
Hi	37
pound	37
▁abstraction	37
▁Book	37
▁reclaim	37
▁Party	37
▁triumph	37
▁ease	37
▁admitted	37
▁enrich	37
▁Beau	37
▁Buddha	37
▁Somalia	37
▁veil	37
▁gaze	37
▁neglect	37
▁eighth	37
▁tagged	37
▁vanish	37
▁singular	37
▁beneficial	37
▁Building	37
▁intimacy	37
▁Notice	37
write	37
▁Consider	37
▁Interestingly	37
▁intriguing	37
Hmm	37
▁heroic	37
▁wander	37
▁angiogenesis	37
▁circulat	37
▁surviving	37
▁cease	37
▁violate	37
▁CRISPR	37
▁Power	37
▁vest	37
▁Liberia	37
▁utility	37
▁friction	37
▁noisy	37
▁compil	37
▁chemotherapy	37
centric	37
▁priorities	37
▁numerous	37
▁referred	37
▁Later	37
▁loo	37
▁Canyon	37
▁bacterium	37
▁reproduction	37
▁polite	37
▁rehabilitation	37
▁abundant	37
you	37
control	37
▁touches	37
▁generator	37
▁prescribe	37
▁Libya	37
▁cellphone	37
▁salmon	37
school	37
▁crank	37
▁basket	37
▁Linux	37
▁silicon	36
▁appreciation	36
uite	36
▁Sylvia	36
▁unseen	36
▁Michigan	36
▁assessment	36
▁conserv	36
▁violin	36
controlled	36
▁symmetrical	36
▁calendar	36
▁enthusiasm	36
biotic	36
▁Stewart	36
▁fuzzy	36
▁correlate	36
▁nonetheless	36
▁ambulance	36
▁revelation	36
▁humility	36
▁delicate	36
▁humankind	36
▁Fifty	36
▁committee	36
▁swamp	36
▁Mozart	36
▁viable	36
▁tempt	36
▁autistic	36
enabling	36
▁Post	36
▁receiver	36
▁accountable	36
▁pharma	36
▁perpetrat	36
shift	36
▁Thirty	36
▁kindergarten	36
▁pricing	36
▁metabolic	36
▁Fish	36
▁diminish	36
▁Tibet	36
▁erase	36
▁maintenance	36
▁petition	36
▁Robot	36
▁Heart	36
communica	36
▁ashamed	36
▁skeptical	36
▁Nairobi	36
▁characterize	36
#	36
▁bulk	36
▁tightly	36
▁urbanization	36
▁zip	36
▁goodbye	36
▁Austria	36
▁reproductive	36
▁Tuesday	36
▁absurd	36
▁fungi	36
imb	36
▁repeatedly	36
▁biases	36
▁convincing	36
Cola	36
Africa	36
▁controversy	36
▁bay	36
▁rays	36
cellular	36
▁Caribbean	36
▁dispute	36
▁hamburger	36
▁Jean	36
▁fog	36
▁internet	36
walk	36
▁embarrassed	36
▁gigantic	36
▁urgent	36
sourcing	36
▁Venus	36
▁reflex	36
▁accuse	36
▁Joshua	36
▁sadness	36
▁Garden	36
▁sexuality	36
▁delete	36
▁iPad	36
▁Gius	36
▁manipulation	36
▁Fire	36
▁replacing	36
▁Defense	36
▁Swedish	36
▁guerrilla	36
▁Iraqi	36
▁symmetries	36
▁seawater	35
▁sneakers	35
▁vitamin	35
▁curtain	35
▁memorize	35
▁Data	35
▁anxious	35
▁deliberately	35
▁cartoonist	35
▁displaced	35
▁sulfide	35
▁plankton	35
▁MO	35
wire	35
▁Movement	35
▁Beach	35
▁problematic	35
▁Step	35
▁ingenuity	35
▁Clar	35
var	35
▁accomplishment	35
▁honeybee	35
▁legend	35
note	35
▁fishermen	35
▁pervasive	35
▁flush	35
▁textile	35
▁powder	35
▁glove	35
▁frustrating	35
▁Cambodia	35
section	35
▁Clearly	35
▁slept	35
▁essay	35
▁destructive	35
▁widespread	35
imbabwe	35
stepping	35
▁Bali	35
▁optic	35
▁Native	35
▁greed	35
▁spontaneously	35
▁disappoint	35
▁fierce	35
▁hatred	35
▁injection	35
script	35
▁dictionaries	35
▁hammer	35
▁Country	35
▁Environment	35
▁libraries	35
▁northeast	35
▁Himalaya	35
▁calculator	35
▁dragon	35
▁dissolve	35
▁occupation	35
plex	35
▁flexibility	35
screen	35
▁dorm	35
▁lend	35
▁psychiatri	35
▁disabilities	35
cientific	35
▁tilt	35
▁Tesla	35
▁Cru	35
▁CMU	35
▁autonomy	35
▁fame	35
▁combin	35
▁impressed	35
▁thorough	35
▁physiology	35
▁incorporate	35
▁Similarly	35
▁Lyn	35
▁Dallas	35
▁Namibia	35
▁mature	34
induced	34
▁chaotic	34
▁casual	34
▁eBay	34
▁OECD	34
▁Carnegie	34
▁indication	34
clusion	34
▁entrepreneurial	34
atic	34
▁rectangle	34
▁mycelium	34
etween	34
frontal	34
▁intrigue	34
▁applause	34
▁leopard	34
▁supportive	34
radiat	34
social	34
▁opponent	34
▁prevalence	34
▁intend	34
Just	34
▁grassroots	34
▁Larry	34
▁uncover	34
▁valve	34
▁Colombia	34
▁sediment	34
▁resort	34
▁anatomy	34
sensitive	34
▁defect	34
▁ancestor	34
▁censor	34
▁characteristic	34
olar	34
▁visitors	34
▁salary	34
▁microscopic	34
▁noticing	34
▁gadget	34
▁patience	34
▁shove	34
▁janitor	34
▁geometric	34
One	34
▁Golden	34
▁grammar	34
▁affirm	34
▁abnormal	34
▁pursuing	34
▁NGO	34
▁Climate	34
▁Norwegian	34
▁Fred	34
▁prioritize	34
▁generosity	34
▁Paulo	34
▁liberty	34
▁semina	34
▁Ow	34
▁blogger	34
glass	34
▁pillar	34
▁Warren	34
▁orphan	34
▁baseline	34
egan	34
▁flex	34
▁Portugal	34
▁monarch	34
▁cement	34
▁Empire	34
▁catastrophic	34
▁thylacine	34
▁reflective	34
▁inherent	34
▁Venezuela	34
▁strengthen	34
▁Food	34
kar	34
▁Line	34
▁insult	34
▁marijuana	34
▁Large	34
▁infrared	34
Wonder	34
▁Common	33
▁Lagos	33
▁Word	33
▁equilibrium	33
▁celebrating	33
▁shepherd	33
▁polymer	33
▁missile	33
▁voyage	33
Come	33
▁carrier	33
mming	33
▁nevertheless	33
turn	33
▁glu	33
▁shaping	33
▁rival	33
▁expose	33
+	33
▁bionic	33
▁Yellow	33
▁easiest	33
▁causal	33
▁hobby	33
▁appliance	33
▁dwell	33
▁billboard	33
▁Rover	33
▁warfare	33
▁enthusiast	33
surfing	33
▁posture	33
▁yeast	33
▁resonate	33
▁spaghetti	33
▁quantity	33
structure	33
▁cathedral	33
▁gait	33
▁mammoth	33
▁Hold	33
▁transferred	33
▁elbow	33
▁personalities	33
▁Princeton	33
▁embryo	33
▁symbolic	33
▁flick	33
▁carrot	33
imposed	33
▁shelves	33
▁Coca	33
▁calculating	33
▁recreate	33
▁modify	33
Would	33
▁submarine	33
▁Royal	33
borne	33
▁weakness	33
▁terminal	33
▁rhino	33
Good	33
▁biosphere	33
eign	33
▁Orleans	33
Star	33
▁colorful	33
▁Connecticut	33
friendly	33
▁lump	33
▁Usually	33
▁timber	33
▁Kepler	33
▁arbitrary	33
▁Danny	33
▁Small	33
▁Kiribati	33
▁Univers	33
▁disadvantage	33
▁recycle	33
▁Siberia	33
▁adolescence	33
▁Secretary	33
▁doubling	33
piece	33
▁cabinet	33
▁manuscript	33
▁revolutionize	33
▁Buddhist	33
▁symptom	33
▁specimen	33
hhh	33
▁penetrate	32
▁cultivate	32
▁electromagnetic	32
▁acceptable	32
▁ALS	32
▁bypass	32
▁benign	32
▁unemployment	32
▁distill	32
born	32
▁gym	32
▁entity	32
▁peanut	32
▁releas	32
▁ramp	32
▁reuse	32
▁skate	32
▁Grow	32
▁Taiwan	32
▁masterpiece	32
▁supernova	32
▁Unlike	32
▁playground	32
▁propaganda	32
▁satisfied	32
▁deplet	32
▁shuttle	32
▁technologist	32
▁promising	32
▁bask	32
▁embodied	32
▁compass	32
▁citizenship	32
▁evaporate	32
▁velocity	32
▁quantities	32
▁Slow	32
▁nonsense	32
▁Recently	32
▁Oklahoma	32
▁oyster	32
▁rainfall	32
▁helmet	32
▁copper	32
▁Nazi	32
traumatic	32
▁encrypt	32
▁Diego	32
▁crust	32
▁sang	32
▁Tele	32
▁Tasmanian	32
▁conception	32
▁nucleus	32
▁syringe	32
▁degraded	32
▁sentiment	32
▁illnesses	32
partisan	32
▁acceptance	32
▁statistically	32
▁hallway	32
▁SMS	32
▁injustice	32
▁parameters	32
▁societ	32
▁conscience	32
▁dragge	32
atomic	32
Every	32
esteem	32
▁shade	32
▁Nathan	32
▁marrow	32
▁buzz	32
▁chick	32
axis	32
▁victory	32
▁Galapagos	32
▁chord	32
▁fireflies	32
▁overlap	32
▁eradication	32
▁adequate	32
▁comprehensive	32
▁lesbian	32
▁companion	32
▁inflate	32
▁wreck	32
▁confusion	32
▁aluminum	32
onomic	32
▁Merc	32
▁explicitly	32
▁banned	32
▁Jobs	32
design	32
▁submitted	32
▁romance	32
▁Service	32
▁remov	32
▁coincidence	32
▁circulation	32
▁Cultur	32
▁Often	32
▁Side	32
▁harass	32
▁seafood	31
Welcome	31
Forget	31
▁Amsterdam	31
▁paralysis	31
▁indirect	31
▁migraine	31
▁dye	31
▁straw	31
▁reasonably	31
▁dentist	31
▁shipped	31
▁scroll	31
▁calcium	31
government	31
▁geographical	31
▁Arizona	31
correct	31
▁erupt	31
▁puberty	31
▁courageous	31
link	31
▁mundane	31
most	31
▁genital	31
▁radar	31
▁approval	31
▁Susan	31
▁Julie	31
▁marvelous	31
▁deployment	31
▁horrific	31
▁keen	31
▁numb	31
▁deny	31
▁antibiotic	31
▁subsequent	31
▁possess	31
▁Prime	31
▁Information	31
▁newborn	31
▁superior	31
▁suburban	31
▁distinctive	31
▁undermine	31
▁Commission	31
▁galleries	31
▁commodities	31
▁internship	31
▁geological	31
▁Find	31
▁jury	31
▁Sub	31
friend	31
▁tennis	31
▁introducing	31
▁equator	31
▁Denmark	31
▁resonance	31
ã	31
▁seize	31
▁scope	31
▁dependence	31
▁Michelangelo	31
▁modified	31
▁bombsight	31
▁blanket	31
▁Mola	31
▁Death	31
▁Snowden	31
▁octopus	31
▁monk	31
▁catalog	31
▁adaptive	31
▁Leader	31
▁Rica	31
▁duration	31
derived	31
▁Radio	31
▁executed	31
▁presidential	31
▁nitr	31
▁Edinburgh	31
▁cybercriminal	31
post	31
▁breakdown	31
▁marsh	31
▁Chuck	31
▁imitate	31
▁Jamaica	31
▁incremental	31
▁Freedom	31
▁backpack	31
▁Kosovo	31
security	31
▁Muhammad	31
▁visceral	31
▁Fast	31
▁grape	31
▁quantitative	31
▁Angel	31
▁geographic	31
▁meaningless	31
▁prevail	31
▁pregnancy	31
▁permit	31
▁Roosevelt	31
▁LGBT	31
▁abortion	31
▁Norman	31
▁choir	31
▁grim	31
▁broccoli	31
▁niece	31
▁commute	31
▁hallucinations	31
▁Justice	31
▁Invest	31
▁Leone	31
▁prejudice	31
▁accompanie	31
credit	31
▁Hindu	31
▁Alright	31
Keith	31
▁Roger	31
▁altruism	30
▁grassland	30
▁declining	30
▁midnight	30
▁temptation	30
▁anesthesia	30
▁Nicole	30
▁Luckily	30
▁Land	30
▁treasure	30
▁collide	30
▁intricate	30
▁loneliness	30
▁complicat	30
▁Johnny	30
▁choreograph	30
▁Kansas	30
▁stir	30
▁compact	30
positive	30
▁existential	30
▁Arduino	30
▁unacceptable	30
▁vegetation	30
▁Babylon	30
▁criticism	30
lethal	30
▁athletic	30
▁Virgin	30
▁Parliament	30
▁Carol	30
▁wavelength	30
▁recurr	30
▁motorcycle	30
▁Teszler	30
▁Natasha	30
wheel	30
▁hollow	30
▁puff	30
▁Desert	30
▁gratitude	30
▁epic	30
▁Democratic	30
▁neurological	30
▁battlefield	30
▁throat	30
▁Costa	30
▁stratosphere	30
▁recipient	30
▁Company	30
▁superhero	30
▁Jill	30
▁imperfect	30
▁obscure	30
▁Victorian	30
▁Julian	30
▁wallet	30
▁elect	30
▁versa	30
▁Report	30
▁guilt	30
▁orgasm	30
▁Down	30
▁inviting	30
▁obey	30
▁fuse	30
▁irrelevant	30
▁intangible	30
▁evaluate	30
▁promotion	30
tolerant	30
▁Pittsburgh	30
▁activism	30
▁Emily	30
▁wrestle	30
▁hatch	30
▁multiverse	30
▁turbine	30
▁clap	30
▁alliance	30
▁royal	30
▁halve	30
▁Brea	30
▁surrender	29
▁haunt	29
public	29
▁railroad	29
▁submersible	29
▁orphanage	29
▁optimal	29
▁guidance	29
▁attorney	29
▁crocodile	29
▁Nico	29
▁annoying	29
▁prophet	29
▁mythology	29
▁praise	29
▁Doaa	29
▁biotech	29
▁Skype	29
storing	29
▁minimize	29
▁venue	29
▁verge	29
▁Solar	29
▁Finland	29
▁lamb	29
▁ideological	29
▁surplus	29
▁wetsuit	29
▁grief	29
▁imaginary	29
▁Lewis	29
▁sulfur	29
▁wolves	29
▁oppos	29
▁flap	29
▁cardio	29
▁railway	29
▁Katrina	29
▁coding	29
▁mortgage	29
▁frightened	29
▁denied	29
▁mash	29
▁Ultimately	29
▁hypotheses	29
pool	29
▁wax	29
▁divine	29
▁entitled	29
▁auditorium	29
▁happiest	29
▁Point	29
▁rediscover	29
▁fisc	29
Excuse	29
▁originate	29
▁unstable	29
▁fingertips	29
▁violation	29
▁censorship	29
▁compliment	29
▁reply	29
▁hind	29
funded	29
▁distraction	29
▁limestone	29
▁supercomputer	29
▁Exactly	29
▁hectare	29
▁tuberculosis	29
▁jacket	29
▁delusion	29
▁chalk	29
▁chap	29
abilities	29
▁provision	29
▁joyful	29
▁ethanol	29
aunch	29
resistant	29
▁pathogens	29
▁unintended	29
▁Bangalore	29
▁comparable	29
▁impaired	29
▁draft	29
▁LHC	29
odd	29
▁jewelry	29
▁Alabama	29
▁snapshot	29
▁savanna	29
▁passport	29
▁hypothetical	29
▁knot	29
performing	29
▁debris	29
▁exploitation	29
▁vector	29
▁certificate	29
lude	29
▁pollute	29
▁Help	29
▁rage	29
▁stole	29
▁chill	29
▁Francis	29
▁maximize	29
▁cartilage	29
▁offshore	29
▁UCLA	29
specific	29
▁manipulat	29
▁innate	28
▁eager	28
▁lips	28
▁Yale	28
▁Astro	28
▁Believe	28
▁Vegas	28
▁Index	28
▁Full	28
mother	28
▁apparent	28
▁beloved	28
▁restrictions	28
entrepreneurship	28
▁rooftop	28
▁summary	28
resolution	28
▁matern	28
▁Copernic	28
▁outrage	28
▁bloom	28
▁recreation	28
▁exclude	28
▁Somehow	28
▁implicit	28
▁hung	28
▁possession	28
carbon	28
▁Cross	28
fused	28
▁Ooh	28
▁Though	28
▁graffiti	28
▁spawn	28
▁stall	28
▁boson	28
growing	28
▁symphony	28
▁incidentally	28
▁erotic	28
▁nectar	28
▁millisecond	28
▁thriving	28
▁Kelly	28
▁buck	28
▁continually	28
▁standpoint	28
▁accommodate	28
▁burial	28
phobic	28
▁enforce	28
Barack	28
▁shield	28
▁tropics	28
▁pristine	28
▁dragonflies	28
▁literal	28
▁continuum	28
▁simulator	28
▁jewel	28
▁shallow	28
▁lawsuit	28
regulating	28
▁psyche	28
▁excellence	28
▁hurdle	28
▁Guinea	28
▁aquatic	28
▁Mediterranean	28
▁Cairo	28
▁drip	28
metric	28
▁relevance	28
▁bunk	28
▁Especially	28
proving	28
▁acceleration	28
▁responsive	28
▁unequal	28
▁glorious	28
▁portable	28
nanometer	28
▁Certainly	28
▁Massachusetts	28
▁Lady	28
▁bombard	28
▁Sydney	28
great	28
▁worthwhile	28
▁corporation	28
▁depressing	28
▁pepper	28
▁solemn	28
▁Babbage	28
▁dude	28
▁rhetoric	28
ompanies	28
▁arriving	28
▁rotating	28
▁secular	28
market	28
▁glory	28
writing	28
▁Master	28
▁regain	28
▁Baltimore	28
Because	28
▁Scottish	28
▁Economic	28
▁monsoon	28
▁Jerry	27
▁reconnect	27
▁fracture	27
▁similarities	27
▁Patient	27
▁puncture	27
▁faculty	27
enberg	27
▁quiz	27
▁Students	27
▁bandwidth	27
▁servant	27
▁malnutrition	27
▁incomplete	27
▁incarceration	27
▁Beethoven	27
▁abusive	27
▁capsule	27
▁pivot	27
▁estrogen	27
▁excite	27
▁slot	27
color	27
▁scanned	27
▁prototyping	27
▁Sputnik	27
▁instability	27
▁laundry	27
▁repertoire	27
▁Palestine	27
▁disruption	27
▁sought	27
▁replied	27
▁advent	27
organism	27
▁improbable	27
▁Ushahidi	27
▁ambassador	27
▁supplement	27
▁crater	27
▁Pink	27
▁stiff	27
▁charities	27
▁pediatric	27
solving	27
unshine	27
▁underpin	27
▁nanotechnology	27
▁Wilson	27
▁encryption	27
▁Change	27
▁larvae	27
▁tinker	27
▁dictate	27
▁mortal	27
▁arose	27
▁forehead	27
with	27
▁justify	27
group	27
▁linguistic	27
▁cried	27
▁nurturing	27
▁perceptual	27
▁feat	27
▁racism	27
▁raft	27
▁unaware	27
▁iteration	27
▁swear	27
conceived	27
▁Bruce	27
▁Network	27
▁petals	27
▁dominate	27
▁vicious	27
▁cheek	27
▁policing	27
▁dining	27
▁Scotland	27
▁varieties	27
▁neurogenesis	27
▁Count	27
▁Cooper	27
colonial	27
▁employee	27
dragging	27
▁Mov	27
▁negotiating	27
▁misery	27
▁urine	27
conflict	27
ploy	27
▁adjacent	27
▁Whitopia	27
▁Alpha	27
▁Kyoto	27
▁hurricane	27
▁embark	27
▁mysteries	27
▁volcan	27
▁astronomical	27
▁DARPA	27
varian	27
▁refrigera	27
▁methodology	27
▁synthesis	27
▁queue	27
▁Venice	27
▁unemployed	27
▁digits	27
▁analytical	27
ó	26
appropriate	26
▁Engine	26
▁Amazing	26
▁retrofit	26
cycle	26
▁erectus	26
▁orangutan	26
▁Jazeera	26
▁lightweight	26
▁League	26
▁Ministry	26
▁Modern	26
▁pearl	26
▁crises	26
▁meadow	26
▁emergent	26
▁demonstrat	26
▁template	26
▁convenience	26
▁municipal	26
▁checklist	26
spiring	26
ç	26
▁anecdote	26
▁gossip	26
▁reconcile	26
▁announcement	26
▁Perfect	26
▁synchronize	26
▁uplift	26
▁remittance	26
▁landfill	26
▁Deep	26
▁Samuel	26
▁lazy	26
▁ignorant	26
▁insecure	26
▁wool	26
▁Group	26
▁communal	26
typical	26
▁moderate	26
▁unpredictable	26
▁erect	26
▁Franklin	26
counterintuitive	26
▁scuba	26
▁Virtual	26
▁algebra	26
▁contagious	26
▁Language	26
▁Renaissance	26
▁viewpoint	26
ripped	26
▁Irish	26
▁decode	26
▁misuse	26
▁personnel	26
▁aviation	26
▁automated	26
▁antidepressant	26
▁Toronto	26
▁census	26
▁Euro	26
▁Spider	26
▁mutant	26
▁Glass	26
▁homosexual	26
▁mutate	26
▁foreground	26
▁Emma	26
▁radius	26
▁metaphorical	26
▁boyfriend	26
▁disseminat	26
▁conceive	26
▁solitary	26
▁Margaret	26
▁paragraph	26
▁integrating	26
▁meditation	26
chlor	26
▁Guatemala	26
value	26
▁Ninety	26
▁melody	26
▁constructive	26
organized	26
▁nomad	26
▁ozone	26
▁racist	26
alactic	26
placing	26
▁Model	26
▁Several	26
▁Speak	26
▁consultant	26
▁Wild	26
▁teddy	26
▁withdraw	26
educated	26
▁attachment	26
▁Already	26
▁polish	26
▁empirical	26
▁altruist	26
▁peek	26
▁Better	26
▁cognition	26
learn	26
▁nickname	26
▁vapor	26
▁pension	26
▁provoke	26
▁simplistic	26
▁booth	26
vocation	26
▁Program	26
▁cerebral	26
▁uncertain	26
Happy	26
▁SARS	26
▁BMW	26
▁Agency	26
▁pronounce	26
▁rigorous	26
▁condemn	26
▁EDI	26
▁chemo	26
keeping	26
▁agnostic	25
▁packaging	25
▁Type	25
▁liberation	25
▁latitude	25
▁Hopefully	25
▁RISD	25
▁suspicious	25
▁Depression	25
Psycho	25
▁superstar	25
▁erosion	25
▁mammogram	25
▁curse	25
▁gecko	25
▁twenty	25
▁unfinished	25
white	25
▁preservation	25
▁seizure	25
good	25
▁Simple	25
▁substitute	25
▁Darwinian	25
▁Lawrence	25
▁worries	25
▁Darfur	25
▁preschool	25
▁physiological	25
▁variant	25
▁pneumonia	25
▁biotechnology	25
▁Sadly	25
▁Among	25
▁tuck	25
▁administrator	25
▁Freud	25
▁devastated	25
▁rubble	25
▁interfere	25
▁Grace	25
▁holistic	25
▁pessimist	25
%	25
▁thunder	25
hypertension	25
burn	25
▁investigating	25
▁Differen	25
▁Neither	25
▁ambiguity	25
▁unveil	25
▁livelihood	25
▁congress	25
▁veterinarian	25
▁Marshall	25
illennium	25
▁evident	25
▁undercover	25
▁bury	25
▁Learning	25
green	25
▁nuance	25
▁meanwhile	25
▁paradise	25
▁miraculous	25
▁MoMA	25
▁Murray	25
model	25
▁bass	25
▁tolerate	25
▁scalable	25
▁Oregon	25
▁cult	25
▁fundraising	25
Great	25
▁introvert	25
▁respiratory	25
▁testosterone	25
▁rainbow	25
▁vibrate	25
▁catalyst	25
▁marvel	25
▁bluefin	25
▁aspire	25
▁speculate	25
▁hippocampus	25
trained	25
▁inadequate	25
▁plunge	25
▁excerpt	25
▁ruling	25
symmetric	25
▁unsustainable	25
▁disperse	25
=	25
▁Incredible	25
▁Pepsi	25
▁announce	25
wept	25
disciplinary	25
energy	25
▁sensible	25
▁Pantheon	25
▁Prison	25
▁utilit	25
▁retrospect	25
retroviral	25
▁cancel	24
replicating	24
▁giraffe	24
▁Text	24
Sweeney	24
▁narco	24
▁constitute	24
▁Avenue	24
▁Ferr	24
▁pledge	24
▁humiliation	24
▁taxpayer	24
Jeopardy	24
organizing	24
▁Holocaust	24
▁embed	24
▁Compare	24
▁implication	24
▁psychic	24
▁Idaho	24
▁resign	24
▁Economist	24
figure	24
▁tiniest	24
è	24
▁notebook	24
▁embarrassment	24
▁Dylan	24
▁worn	24
▁identification	24
▁hurry	24
▁decentralized	24
▁vibrating	24
▁exoplanet	24
▁homicide	24
▁discomfort	24
▁irrigation	24
▁efficacy	24
▁restoration	24
▁instructor	24
▁prosecute	24
rried	24
▁interconnect	24
quarters	24
▁facilitate	24
▁Julia	24
▁Otherwise	24
▁antibodies	24
▁juggling	24
▁plaster	24
▁prostitute	24
▁nudge	24
driving	24
▁bioluminescence	24
▁Democracy	24
▁lesion	24
▁capacities	24
▁jeans	24
▁Starbucks	24
▁Scratch	24
▁Windows	24
▁motto	24
▁coherent	24
▁wrinkle	24
▁illiterate	24
▁eyebrow	24
▁Vinci	24
▁AIMS	24
▁educating	24
▁Vancouver	24
▁Compassion	24
▁blogging	24
▁ingenious	24
▁Fox	24
Uncle	24
▁damaging	24
▁Tennessee	24
▁Pixar	24
▁Magazine	24
▁spontaneous	24
▁porn	24
▁auditory	24
▁extremist	24
▁Mahat	24
▁bookstore	24
▁outrageous	24
▁Rosetta	24
▁Oakland	24
▁Energy	24
▁scoop	24
▁discrete	24
▁Armstrong	24
▁behaving	24
▁confuse	24
▁immigration	24
▁pancreatic	24
▁Taylor	24
▁strive	24
▁diffuse	24
▁conspiracy	24
▁sapiens	24
▁pedal	24
▁sponge	24
▁metropolitan	24
▁Behind	24
▁sociologist	24
▁pheromone	24
▁asylum	24
▁Everglades	24
▁adulthood	24
▁certified	24
▁fission	23
rthodox	23
▁Fortune	23
▁BBC	23
▁hijack	23
▁literary	23
▁byproduct	23
izzy	23
▁Gaza	23
▁horrified	23
▁hominid	23
▁emphasis	23
▁Nevada	23
▁presumably	23
▁Agnes	23
Get	23
▁explicit	23
▁jurisdiction	23
▁offensive	23
▁Colorado	23
▁disbelief	23
▁bioluminescent	23
▁sympathy	23
▁ridicule	23
▁packet	23
▁seamless	23
▁banjo	23
▁Conference	23
▁reviv	23
▁auction	23
genesis	23
▁Goliath	23
▁Algeria	23
▁cruise	23
▁envy	23
Huh	23
▁preferred	23
obbing	23
▁Madagascar	23
▁Hitler	23
▁migrat	23
▁huh	23
▁detach	23
▁Isaac	23
growth	23
▁semester	23
▁scandal	23
▁Village	23
▁frequent	23
▁classmates	23
▁modular	23
▁Moses	23
▁circumstance	23
▁Kibera	23
▁Strange	23
▁Progress	23
▁tectonic	23
▁Tahrir	23
▁Russell	23
▁coalition	23
▁uprising	23
Contra	23
▁Police	23
▁disparate	23
▁cyclist	23
▁memorable	23
▁Cameron	23
▁degradation	23
▁incubator	23
▁prevalent	23
▁tadpole	23
▁sprawl	23
▁socket	23
▁Record	23
▁quantify	23
fashioned	23
nterviewer	23
▁integral	23
▁residu	23
▁democratize	23
▁oblivio	23
▁Pentagon	23
▁mangrove	23
▁Saint	23
▁Personal	23
▁wiring	23
people	23
▁Guardian	23
▁league	23
▁Tehran	23
▁cumulative	23
▁qualify	23
industrial	23
▁ninth	23
▁Edison	23
▁audition	23
▁Wolfram	23
▁messaging	23
▁whistling	23
▁Fahrenheit	23
▁moisture	23
▁CNN	23
▁Truth	23
generated	23
▁Mississippi	23
▁plague	23
▁Bonobo	23
▁virtuous	23
▁astounding	23
▁dictatorship	23
▁stunning	23
Fantastic	23
▁deliberate	23
▁bolt	23
▁fingerprint	23
▁fertility	23
▁starvation	23
grown	23
▁periphery	23
▁nun	23
▁discourse	23
simil	23
▁acronym	23
▁solidarity	23
▁hike	23
▁sniff	23
▁instinctively	23
▁hiring	23
legged	22
▁clash	22
▁Creative	22
▁uranium	22
▁Corporation	22
▁Federal	22
▁propeller	22
▁gorilla	22
▁penicillin	22
▁propulsion	22
▁reception	22
▁hunch	22
▁participatory	22
▁tactics	22
▁StoryCorps	22
▁Bulgaria	22
▁Discover	22
▁confusing	22
cule	22
▁Witness	22
▁misconception	22
▁Essentially	22
▁brute	22
▁disposal	22
▁intellect	22
▁transgender	22
▁Beyond	22
▁ensu	22
▁replicator	22
▁hallucinat	22
▁residential	22
▁drank	22
▁cafeteria	22
▁electora	22
▁slap	22
▁Tamiflu	22
▁swirl	22
▁amplify	22
▁thrill	22
▁casualties	22
▁guidelines	22
▁Lanka	22
▁Toyota	22
▁balancing	22
▁Nanopatch	22
▁halt	22
▁eliminating	22
▁Gordon	22
▁Antarctic	22
▁unlimited	22
▁susceptible	22
▁browse	22
▁cosmetic	22
▁hydrocarbon	22
▁unfamiliar	22
▁Caltech	22
▁Houston	22
▁translating	22
▁Lakota	22
▁Wired	22
Solomon	22
▁Vietnamese	22
▁lymph	22
orbital	22
rhythm	22
▁pollinate	22
▁applaud	22
▁IMF	22
▁animated	22
▁agile	22
▁arteries	22
▁imaginative	22
▁contradict	22
▁hull	22
▁accelerator	22
▁CIA	22
▁fungus	22
▁butterflies	22
▁daunting	22
▁Market	22
▁Glenn	22
▁populated	22
ubbed	22
attle	22
▁deceased	22
▁microwave	22
▁patrol	22
▁Reagan	22
▁gently	22
▁napkin	22
▁prompt	22
▁tweak	22
▁vibrant	22
▁admission	22
▁Dubai	22
▁excavat	22
▁reservation	22
▁arrival	22
▁Diet	22
▁downstairs	22
▁energetic	22
▁proposing	22
▁Trust	22
▁sterile	22
▁simplify	22
▁pub	22
▁supplier	22
▁pinpoint	22
▁vague	22
▁enroll	22
▁Jenn	22
▁mammography	22
▁unpleasant	22
▁courtyard	22
▁toddler	22
▁Achilles	22
▁widow	22
▁drastic	22
▁Miami	22
▁centigrade	22
▁elusive	22
▁Self	22
▁enact	22
author	22
disproportionate	22
▁humbl	22
▁destined	22
▁revenge	22
▁constellation	22
▁Director	22
▁Jesse	22
▁Oliver	22
▁facade	22
▁indulge	22
▁arithmetic	22
▁desperation	22
▁unthinkable	22
▁stimulus	22
▁championship	22
▁lettuce	22
▁Tweet	22
▁Plato	22
▁Survey	22
▁Theater	22
▁Malawi	22
▁suitcase	22
▁lithium	22
▁clam	22
cross	22
▁epiphany	22
▁reckless	22
▁Europa	22
▁Flickr	22
▁CERN	22
▁cereal	22
▁MBA	22
▁alpha	22
▁dedicate	22
▁nud	22
▁Galileo	22
present	22
▁Face	22
▁carcinogen	21
▁Bahamas	21
▁inhabitants	21
▁counterpart	21
)	21
▁ignor	21
▁socioeconomic	21
▁vegetarian	21
▁utopia	21
▁nursing	21
▁communist	21
megawatt	21
▁modification	21
▁notorious	21
▁Cassini	21
assembling	21
▁Aaron	21
▁unnecessary	21
▁Channel	21
▁ignite	21
▁WHO	21
▁carpenter	21
▁comedian	21
▁bait	21
nutrient	21
▁PDF	21
blood	21
▁scarcity	21
▁Understand	21
▁hippie	21
▁accumulation	21
▁shiny	21
▁apprentice	21
▁unnatural	21
stabiliz	21
bureaucratic	21
▁Hungarian	21
species	21
▁Falcon	21
▁valu	21
▁adversity	21
Hello	21
plus	21
▁zoning	21
▁Current	21
▁immoral	21
▁appetite	21
▁advancing	21
▁hyena	21
▁premature	21
▁mutilate	21
▁junior	21
▁Potter	21
▁bronze	21
▁revolv	21
▁urgency	21
▁imbalance	21
▁narrat	21
machine	21
▁cochlea	21
▁browsing	21
▁apparatus	21
lecommunications	21
▁spoil	21
▁True	21
▁atrazine	21
▁allocate	21
▁hummingbird	21
▁Jonathan	21
Cause	21
▁Bonica	21
▁primordial	21
▁proxy	21
▁Jennifer	21
llowing	21
▁deflect	21
technology	21
▁benchmark	21
▁Captain	21
▁maze	21
▁cosmology	21
▁dried	21
▁ceramic	21
▁swam	21
▁Circle	21
▁colonize	21
gatherer	21
▁amaze	21
▁vase	21
▁Innovation	21
extrovert	21
▁Southeast	21
▁hygiene	21
▁yogurt	21
▁ultrasound	21
▁magnify	21
▁salad	21
▁Control	21
▁skyscraper	21
echanical	21
▁pluck	21
▁Club	21
▁proliferation	21
▁decipher	21
science	21
▁condense	21
▁aerodynamic	21
▁tribute	21
▁aquaculture	21
▁Raisuddin	21
▁dominance	21
function	21
▁Convention	21
▁bruise	21
“	21
▁Photoshop	21
▁subsidies	21
▁mismatch	21
▁beaver	21
▁roost	21
▁Venter	21
▁acquisition	21
▁enlist	21
▁precipitat	21
▁treadmill	21
▁Friedman	21
▁Collider	21
▁restrain	21
▁incarcerated	21
▁Sebastian	21
▁barbershop	21
computer	21
▁Financial	21
▁brink	21
▁Traditional	20
▁vacan	20
▁utilize	20
▁unravel	20
▁separating	20
▁amphibi	20
▁enslave	20
course	20
▁toothbrush	20
▁charging	20
▁exaggerate	20
▁Scot	20
▁Rosling	20
▁embryonic	20
▁policymakers	20
▁charcoal	20
▁Panbanisha	20
▁Maldives	20
replication	20
▁dwarf	20
▁visualiz	20
▁contributor	20
▁captur	20
▁Midwest	20
identifie	20
▁Hudson	20
▁slid	20
▁sequester	20
▁Exxon	20
▁categorize	20
▁credible	20
▁underlie	20
▁motive	20
▁elastic	20
▁discharge	20
▁Thousands	20
▁exhilarating	20
▁Soldier	20
▁Melinda	20
▁interdependenc	20
▁Film	20
▁Titus	20
▁feminine	20
▁venom	20
▁immunity	20
▁appointment	20
▁grappl	20
▁pollinators	20
▁Rachel	20
Maybe	20
▁philanthropist	20
▁rearrange	20
▁influenza	20
▁steak	20
▁resembl	20
▁rumor	20
▁pornography	20
▁forensic	20
▁impatient	20
▁cherish	20
▁durable	20
▁perpetual	20
▁hazard	20
▁premier	20
▁stockpile	20
▁deceive	20
▁reservoir	20
▁millennium	20
▁prominent	20
intelligent	20
▁crochet	20
▁accumulating	20
▁blunt	20
▁doctrine	20
▁Everywhere	20
▁prosperous	20
▁Protect	20
▁Raise	20
▁complement	20
▁Oscar	20
▁gyrus	20
▁Harlem	20
▁monopoly	20
▁desalination	20
blown	20
▁Ryan	20
▁geologist	20
estament	20
▁omni	20
▁pragmatic	20
▁doodling	20
▁offense	20
▁width	20
▁inferior	20
▁glance	20
▁emulate	20
blowing	20
▁inertia	20
▁Moscow	20
▁heartbeat	20
▁interference	20
▁terrestrial	20
▁clarify	20
▁Movember	20
▁descendants	20
▁variability	20
▁wilderness	20
▁Ecuador	20
▁Excellent	20
▁dispens	20
▁blaz	20
▁detriment	20
▁humidity	20
▁verify	20
▁illuminate	20
▁lemon	20
▁Planet	20
▁shave	20
▁compatible	20
▁Collect	20
▁stunned	20
▁comprised	20
wrestling	19
▁guiding	19
▁fascination	19
▁plume	19
▁snack	19
▁Shortly	19
▁surpass	19
confidence	19
▁Knowing	19
▁stubborn	19
▁metasta	19
assisted	19
capita	19
▁microRNA	19
▁reprogram	19
▁energies	19
▁Pearl	19
▁illumination	19
▁endemic	19
▁automotive	19
▁postcards	19
▁Hopkins	19
▁dissect	19
▁foremost	19
▁wondrous	19
▁trawl	19
▁imitation	19
▁prestig	19
▁Senegal	19
▁Extreme	19
▁puzzling	19
▁congratulat	19
▁advocacy	19
▁outweigh	19
▁measles	19
▁lyric	19
▁Hurricane	19
▁annoyed	19
▁contemplate	19
▁examining	19
▁derivative	19
ague	19
▁Enceladus	19
ustainable	19
▁temporarily	19
▁desirable	19
▁unhealthy	19
▁engulf	19
▁Dublin	19
▁sleeve	19
▁laureate	19
▁guru	19
▁vertebrate	19
▁reshape	19
▁Birds	19
▁jealous	19
▁evoke	19
▁infinity	19
▁peripheral	19
▁ecologist	19
▁knitting	19
▁handbag	19
granddaughter	19
▁leisure	19
People	19
▁biomedical	19
▁withstand	19
▁increment	19
▁humiliate	19
▁plutocrat	19
▁announcing	19
▁Lesterland	19
discriminat	19
▁availability	19
▁repositor	19
definition	19
▁tornado	19
▁decoration	19
▁Sergio	19
▁irregular	19
▁supermassive	19
uestion	19
▁anonymity	19
▁twentie	19
▁flare	19
agged	19
▁ripple	19
nspired	19
▁Dream	19
▁niche	19
▁scissors	19
colonization	19
▁trustworthy	19
▁teapot	19
▁disclose	19
▁Papua	19
teacher	19
▁epidemiologi	19
▁nanotube	19
Sleep	19
▁puppy	19
▁Kentucky	19
nstrual	19
▁Philippines	19
▁fringe	19
▁analyst	19
▁geese	19
▁dairy	19
▁arguably	19
▁deprivation	19
▁blaming	19
▁knob	19
▁Origin	19
▁legitimacy	19
▁spores	19
▁joking	19
fifth	19
▁anthropology	19
▁dreadful	19
▁relentless	19
▁plasma	19
▁intestine	19
▁bargain	19
▁parrot	19
▁bankrupt	19
▁influential	19
▁Hebrew	19
▁scripture	19
▁pavilion	19
▁diffusion	19
▁Digital	19
▁derive	19
Actor	19
▁southwest	19
sanitary	19
performance	19
▁Graham	19
▁fertilize	19
▁Special	19
▁Campaign	19
▁Tiger	19
▁discriminate	19
▁framing	19
▁jelly	19
▁serotonin	19
▁staple	19
haired	19
▁transcript	18
▁buffer	18
▁messenger	18
▁bleach	18
▁hydrant	18
▁illustrat	18
▁Embassy	18
▁absent	18
▁liberating	18
▁bonobo	18
▁Conservation	18
▁Barbie	18
▁Hispanic	18
▁encompass	18
speaking	18
▁degrading	18
▁Illinois	18
ö	18
ncidentally	18
▁IDEO	18
▁elevation	18
▁Missouri	18
▁imprisoned	18
▁secrecy	18
▁seatbelt	18
▁Festival	18
▁Shoots	18
▁divergence	18
▁Bueno	18
▁Evolution	18
connected	18
▁repetitive	18
▁dividing	18
▁sanctuary	18
▁appreciat	18
▁Bassem	18
▁Mongolia	18
grain	18
▁filament	18
▁Anonymous	18
▁Amanda	18
▁infamous	18
▁inference	18
▁pollination	18
▁relocate	18
▁plummet	18
▁Kanzi	18
graphers	18
shelf	18
▁crave	18
▁logistics	18
▁fiddle	18
▁bureaucracy	18
▁Batman	18
▁upstairs	18
▁thermostat	18
▁Nicholas	18
▁malware	18
▁Voyager	18
▁evolutionarily	18
▁fatigue	18
▁Capital	18
▁epilepsy	18
▁umbrella	18
▁marble	18
Daddy	18
▁dashboard	18
▁sophistication	18
decisive	18
protected	18
▁oppression	18
destruct	18
▁synesthesia	18
▁DIY	18
▁audacious	18
▁anomaly	18
▁spoof	18
▁litigation	18
▁Northwest	18
▁squeak	18
▁perfume	18
▁crisp	18
▁photosynthesis	18
▁ambiguous	18
▁Laptop	18
▁naught	18
▁Studio	18
▁replica	18
▁privatiz	18
▁locate	18
▁abalone	18
▁strawberr	18
▁Laboratory	18
▁husk	18
▁persuasive	18
▁embody	18
▁Galois	18
▁avenue	18
▁inorganic	18
▁portfolio	18
▁academia	18
▁menstruation	18
▁exploding	18
▁cymatic	18
transcendence	18
spective	18
▁rejuvenat	18
▁bumblebee	18
▁brilliance	18
▁synonymous	18
”	18
▁squirrel	18
▁regenerative	18
▁albeit	18
▁anticipation	18
▁frugal	18
▁Alfred	18
▁Ukraine	18
▁Nowadays	18
▁entrenche	18
▁Magic	18
▁questionnaire	18
▁costume	18
▁bundle	18
▁Morgan	18
▁McGowan	18
▁Disease	18
▁Matthew	18
▁astonished	18
▁Baghdad	18
▁Rouge	18
▁windmill	18
▁trafficked	18
helix	18
▁plywood	18
▁antiangiogenic	17
▁butterfly	17
▁peacebuild	17
▁schizophrenic	17
▁legislators	17
▁neurobiolog	17
▁sensual	17
▁Acumen	17
▁Bureau	17
▁CAPTCHA	17
▁trek	17
▁curb	17
evolution	17
▁Needles	17
▁bipolar	17
▁diabetic	17
▁cofounde	17
▁Mitchell	17
▁paddle	17
▁USDA	17
▁Crime	17
▁crease	17
▁slippery	17
▁Mathematica	17
enchant	17
▁occurrence	17
▁activation	17
▁Minnesota	17
▁gradient	17
endurance	17
▁saddle	17
▁resume	17
▁Gwen	17
Mobile	17
▁Uruguay	17
▁disengag	17
▁medicinal	17
▁squatter	17
▁palace	17
▁ominous	17
▁exoskeleton	17
▁asphalt	17
▁reconciliation	17
▁requir	17
▁nominate	17
▁Product	17
▁doodle	17
▁Jacques	17
▁motivating	17
Leave	17
▁yoga	17
▁jerk	17
▁precursor	17
▁Bowl	17
▁Stanley	17
▁defecat	17
▁Ranger	17
▁Hunter	17
▁plausibl	17
Awesome	17
▁Hampshire	17
▁Brilliant	17
▁Erik	17
organization	17
▁provocative	17
▁conceivabl	17
World	17
▁cockpit	17
▁alternate	17
normal	17
▁sermon	17
▁IKEA	17
▁tub	17
▁Stirling	17
▁discarded	17
▁Hiroshima	17
focus	17
▁Rag	17
▁petroleum	17
▁wield	17
▁paintbrush	17
▁incidence	17
▁ADHD	17
mobile	17
▁Botswana	17
▁Reserve	17
▁pennies	17
▁Celsius	17
Citizen	17
▁Picasso	17
▁Thursday	17
▁Plus	17
▁stimulating	17
▁cursor	17
▁culminat	17
▁gratification	17
▁shaft	17
ficiencies	17
▁intercept	17
▁NIH	17
▁fountain	17
▁gloom	17
▁compensate	17
▁nephew	17
▁heterosexual	17
building	17
▁precaution	17
▁troubling	17
▁Congolese	17
▁unexplored	17
▁unbelievably	17
▁sampling	17
▁enclosure	17
▁articulat	17
▁Beatles	17
▁Judaism	17
▁circus	17
▁hawk	17
▁preliminary	17
@	17
▁amygdala	17
▁pseudo	17
▁wobbl	17
▁impairment	17
▁artisan	17
▁Delta	17
▁leverag	17
▁Malaysia	17
▁lousy	17
▁Portuguese	17
▁motivator	17
▁misunderstood	17
▁Mahmoud	17
▁Choir	17
▁numerical	16
▁communism	16
▁incision	16
▁hardwired	16
▁Madison	16
▁advisor	16
▁Management	16
▁tragedies	16
▁collapsing	16
▁squeez	16
▁sabbatical	16
▁Austin	16
▁investigator	16
▁ghetto	16
▁Broadway	16
▁pinnacle	16
▁arthritis	16
focal	16
▁Arkansas	16
▁insignificant	16
▁Cochrane	16
▁Challenge	16
flipping	16
▁expir	16
ynthetic	16
▁graduation	16
▁welcoming	16
▁retaliat	16
▁administrative	16
▁dismantle	16
▁Study	16
▁sprinkle	16
▁Develop	16
▁brothel	16
▁embodiment	16
▁tramp	16
▁TEDGlobal	16
▁beehive	16
▁credibility	16
▁striving	16
▁Aurora	16
▁rehearsal	16
▁judging	16
▁tobacco	16
▁substrate	16
▁Asperger	16
Search	16
▁terabyte	16
happiness	16
▁crux	16
▁Serbia	16
▁leukemia	16
▁porch	16
▁lightbulb	16
▁pianist	16
▁Helvetica	16
▁triangula	16
▁pigmentation	16
▁necessity	16
▁Alexandria	16
▁multimedia	16
▁surrogate	16
▁instantaneous	16
▁volatile	16
▁Dragon	16
▁Stockholm	16
▁Morocco	16
▁Nollywood	16
▁atmospher	16
▁ambien	16
▁Wednesday	16
▁devour	16
▁hyperbolic	16
▁militar	16
▁proximity	16
▁Rockefeller	16
▁trance	16
▁detergent	16
▁sequel	16
▁skyrocket	16
▁Nikola	16
▁opaque	16
▁innocence	16
▁jumble	16
▁Gallery	16
custome	16
▁Mandarin	16
girl	16
▁Anthony	16
boriginal	16
▁arrogant	16
▁wiggle	16
▁classify	16
▁burglar	16
▁definitive	16
▁Correct	16
▁Horse	16
▁archetyp	16
▁Sudhir	16
▁EEG	16
▁hierarchical	16
▁cohesi	16
▁Fifth	16
▁zodiac	16
▁antidote	16
licious	16
▁empathize	16
▁spreadsheet	16
▁Harbor	16
▁bedrock	16
▁practitioner	16
▁Elephant	16
▁swollen	16
▁shrunk	16
▁revisit	16
▁miniature	16
▁Species	16
▁Balkans	16
▁Mubarak	16
▁phthalates	16
▁Gando	16
▁crammed	16
▁Intelligence	16
▁choke	16
▁Archimedes	16
nversely	16
▁disguise	16
▁grazing	16
▁ventilation	16
▁OPEC	16
▁HeForShe	16
▁dengue	16
sufficient	16
▁Saddam	16
▁Jacob	16
defined	16
▁examination	16
▁laparoscopic	16
▁Vermeer	16
▁advocating	15
▁synchrony	15
▁Dimitri	15
▁reassure	15
▁hologram	15
▁lexicon	15
▁indifferent	15
▁SOPA	15
▁atrocities	15
▁reckon	15
▁sanction	15
▁bulldoze	15
▁latrine	15
▁snippet	15
▁pellets	15
▁escap	15
▁rifle	15
iquette	15
▁nugget	15
▁conjure	15
▁accord	15
nuclear	15
pplied	15
▁coconut	15
▁aggregat	15
▁Chernobyl	15
▁Langley	15
▁discourage	15
▁Vienna	15
▁radiologist	15
eminent	15
▁persuasion	15
▁fMRI	15
▁maggots	15
▁Douglas	15
▁Gertrude	15
▁PIPA	15
▁Kabul	15
▁kilowatt	15
▁paycheck	15
▁Istanbul	15
▁kettle	15
▁Fibonacci	15
enhancing	15
▁suspicion	15
▁brochure	15
▁appalling	15
▁defensive	15
▁extremism	15
▁DDT	15
▁eternity	15
▁leapfrog	15
▁shaman	15
▁Symphony	15
▁duplicate	15
▁rebellion	15
▁indicating	15
▁Orchestra	15
▁comprehend	15
portrait	15
▁dispose	15
▁razor	15
▁bureaucrat	15
▁Neumann	15
▁Viagra	15
▁pilgrim	15
▁corpus	15
▁Cameroon	15
▁tactile	15
▁disastrous	15
▁Chicken	15
▁NATO	15
▁judicia	15
▁feasible	15
▁synagogue	15
▁cholesterol	15
▁Julius	15
▁Hannah	15
▁turnaround	15
▁exterior	15
▁Mouaz	15
▁amputation	15
▁Nixon	15
▁fragility	15
▁Netflix	15
▁brigade	15
▁patriarch	15
▁multitasking	15
▁neutrino	15
▁Seriously	15
▁plaque	15
▁pajama	15
▁emerald	15
▁salamander	15
submission	15
▁Gabriel	15
▁porridge	15
▁swine	15
▁typewriter	15
▁neurologic	15
▁cycling	15
▁progeria	15
▁champagne	15
▁savage	15
▁reassuring	15
▁vigil	15
▁Airbnb	15
▁suffocat	15
Life	15
▁dementia	15
▁immersive	15
▁Ottoman	15
▁perimeter	15
▁neutron	15
factor	15
▁Critic	15
▁Geiger	15
▁marrie	15
▁daydream	15
▁Mauritius	15
▁exaggeration	15
▁simulating	15
▁arsenal	15
▁administer	15
▁bottleneck	15
!]	15
▁Eleanor	15
▁appendage	15
▁biomimicry	15
▁aquarium	15
▁neurologist	15
Vagina	15
▁Hussein	15
▁Terror	15
▁franchise	15
▁cowboy	15
▁ruthless	15
▁supreme	15
▁protagonist	15
▁merchant	15
▁sentient	15
▁FreeSpeech	15
▁Initiative	15
▁suicidal	14
extraterrestrial	14
▁turbulent	14
▁Connect	14
▁quadruple	14
▁Sioux	14
▁Emmanuel	14
▁compliance	14
▁rehearse	14
▁Mermaid	14
▁salaries	14
▁ravage	14
▁knives	14
▁annihilat	14
▁cultivat	14
▁redefining	14
▁woven	14
▁metadata	14
▁inflection	14
▁psychiatry	14
▁visibility	14
▁philanthropic	14
▁qualitative	14
▁PISA	14
▁disparity	14
▁facilitator	14
▁UFO	14
▁Poetry	14
▁contemplating	14
▁Tarahumara	14
▁Barbara	14
▁monastery	14
▁rudder	14
▁saturated	14
▁combustion	14
▁coincide	13
▁wizard	13
▁perseverance	13
▁rhyme	13
▁liberties	13
–	12
contacted	12
written	12
▁influenc	12
ñ	9
fulfilling	9
(	8
ù	8
[#	8
ü	7
ï	7
^	7
‘	6
à	6
ø	5
[@	5
ā	4
É	3
♫	3
Á	3
ê	3
*	3
£	3
▁foi	3
â	3
ZX	3
________	3
ë	2
â	2
QQ	2
!!!	2
ī	2
	2
ć	2
ô	2
ä	2
อร่อย	2
XX	2
!!	2
!!!!!	2
Q!	1
ē	1
_	1
ZZ	1
][	1
ū	1
]!	1
——	1
̊	1
#@	1
Å	1
ì	1
Ç	1
[$	1
XXX	1
’”	1
Zé	1
æ	1
çã	1
ò	1
++	1
€	1
¢	1
Č	1
!”	1
à!	1
ě	1
送你葱	1
¡	1
