,	274138
.	224259
▁the	174355
s	137331
▁to	111520
'	109147
▁of	101449
▁and	95142
▁a	94577
▁that	79342
▁I	73501
▁in	67560
▁is	55927
▁it	54816
▁you	54707
▁we	49170
▁	43672
▁And	37923
▁this	36506
t	32298
▁was	27232
0	26157
▁for	25449
▁are	24575
▁have	24127
▁they	23287
▁on	22642
▁--	21711
▁with	21572
▁can	20798
-	20002
▁So	19916
?	19733
▁what	19221
re	19036
▁about	18633
▁be	18614
▁at	16653
▁as	16623
▁not	16055
▁all	15949
▁do	15776
ing	15555
▁there	14931
d	14468
▁people	14249
▁my	14227
▁so	14040
▁one	14040
▁like	14028
▁"	13974
▁It	13898
▁from	13590
m	12852
ed	12842
▁but	12832
▁an	12685
:	12357
1	12356
▁our	12083
▁or	11927
▁just	11860
▁We	11490
▁But	11160
▁me	11120
▁out	11108
▁if	11040
▁these	11019
▁know	10711
▁very	10505
▁them	10361
▁The	10289
▁up	10220
▁by	10162
ve	10086
▁going	10019
▁when	9818
▁he	9735
▁because	9643
▁more	9616
▁had	9576
▁see	9204
▁think	9201
▁who	9066
▁were	8992
▁their	8876
▁which	8788
▁your	8733
▁would	8576
▁how	8521
▁really	8473
▁get	8349
2	7997
▁us	7828
▁world	7590
▁time	7574
▁here	7504
▁then	7491
▁has	7384
▁This	7228
▁some	7133
▁into	7111
▁You	7078
▁don	7045
▁actually	6988
▁way	6828
ly	6694
▁years	6693
▁will	6676
▁where	6671
▁things	6592
▁go	6583
▁now	6513
▁want	6399
▁other	6395
▁Now	6339
▁could	6310
▁They	6101
▁been	6090
▁make	6083
▁said	5687
5	5495
▁something	5411
▁no	5387
y	5332
▁right	5291
ll	5288
▁than	5274
▁those	5251
▁two	5197
▁first	5134
▁over	5053
▁also	5003
▁back	4958
▁got	4949
▁thing	4869
▁much	4837
er	4821
▁little	4819
▁look	4719
▁In	4673
▁say	4653
▁That	4608
▁work	4594
9	4543
▁only	4521
▁his	4437
▁she	4434
▁life	4424
▁most	4409
▁need	4394
e	4379
▁even	4283
n	4215
▁many	4186
▁take	4127
▁kind	4067
▁lot	4065
▁new	3954
▁did	3951
▁good	3944
3	3933
▁around	3894
p	3848
▁What	3829
▁different	3822
▁♫	3783
▁There	3722
▁down	3697
al	3672
▁her	3671
▁through	3553
▁He	3538
▁same	3505
▁every	3489
▁come	3426
r	3394
▁use	3389
▁A	3359
▁put	3349
▁being	3342
;	3298
es	3275
▁doing	3273
c	3232
▁three	3188
▁If	3177
4	3170
▁day	3166
▁well	3069
in	3046
▁any	3030
▁percent	3005
▁called	2977
g	2901
▁made	2895
▁find	2894
▁Well	2872
8	2871
▁fact	2871
▁human	2855
▁tell	2788
▁why	2772
▁talk	2768
u	2732
▁year	2729
▁change	2698
▁didn	2663
▁own	2638
▁great	2636
▁today	2608
▁started	2601
▁thought	2594
▁should	2593
▁let	2563
▁idea	2559
▁after	2551
a	2537
6	2534
▁last	2529
th	2458
▁went	2450
▁better	2432
▁big	2427
▁might	2426
7	2410
▁before	2395
ic	2390
▁important	2374
▁another	2363
▁give	2363
▁course	2361
▁off	2354
▁part	2346
▁able	2323
▁problem	2321
▁never	2312
▁bit	2288
▁still	2284
▁re	2283
▁system	2261
▁together	2260
▁start	2257
▁him	2225
"	2224
▁water	2216
l	2211
▁ago	2207
▁end	2184
▁story	2171
▁next	2162
▁show	2160
▁brain	2158
▁came	2153
▁place	2148
▁long	2138
o	2131
▁few	2100
▁again	2086
or	2081
▁When	2066
▁used	2066
▁does	2056
▁between	2047
▁each	2042
▁found	2025
▁mean	2022
▁technology	1998
▁data	1998
▁too	1997
▁question	1985
,"	1981
▁women	1948
S	1937
▁love	1931
▁looking	1922
▁point	1917
▁understand	1897
▁example	1892
el	1871
▁doesn	1862
▁wanted	1856
▁done	1854
▁S	1842
▁Because	1829
▁ever	1818
ation	1817
▁whole	1811
b	1807
I	1805
▁real	1797
▁call	1795
▁sort	1784
▁live	1777
le	1777
▁believe	1776
▁E	1756
▁four	1745
▁million	1741
ro	1738
▁trying	1731
▁always	1728
ers	1725
▁power	1724
▁person	1722
▁children	1721
ur	1719
▁school	1718
▁try	1707
▁away	1703
▁working	1697
▁un	1694
▁feel	1684
i	1680
▁may	1677
▁country	1674
▁help	1653
!	1625
ter	1622
▁means	1601
▁using	1599
▁How	1592
▁design	1591
▁thinking	1583
able	1567
▁took	1566
▁maybe	1563
▁high	1557
▁information	1555
▁money	1553
▁create	1551
▁space	1549
ion	1544
▁five	1537
▁man	1527
▁sense	1525
▁become	1523
▁home	1517
▁small	1511
▁kids	1506
▁everything	1504
▁C	1502
▁number	1501
▁One	1483
▁old	1482
▁am	1478
▁left	1467
▁hard	1462
it	1456
▁de	1456
▁light	1454
▁future	1454
▁B	1452
▁enough	1452
▁best	1451
▁My	1451
▁For	1446
▁getting	1442
ri	1438
▁She	1438
▁second	1428
▁U	1424
▁social	1417
▁quite	1413
▁food	1410
▁comes	1405
ra	1395
▁side	1391
▁making	1390
▁These	1387
▁energy	1386
▁times	1385
▁ask	1383
▁talking	1381
▁less	1381
▁happened	1377
▁play	1373
▁probably	1366
▁told	1361
▁body	1355
ch	1354
▁interesting	1352
▁building	1352
▁hand	1349
▁build	1348
▁room	1347
▁without	1343
▁science	1338
▁countries	1337
il	1328
▁stuff	1326
an	1311
▁car	1305
▁T	1303
ity	1301
▁dollars	1301
▁men	1296
la	1294
▁lives	1289
▁pretty	1282
▁moment	1277
▁anything	1276
▁Here	1275
▁such	1273
▁coming	1272
▁care	1262
▁saw	1259
▁across	1250
▁happen	1248
▁As	1237
li	1234
▁family	1232
A	1231
▁open	1229
▁set	1228
▁under	1226
▁Let	1226
▁says	1225
▁half	1225
▁later	1218
▁learn	1218
▁seen	1215
▁bring	1211
▁reason	1209
▁F	1204
▁makes	1203
▁asked	1203
ness	1203
▁else	1200
▁living	1197
▁Africa	1191
▁New	1189
▁having	1181
▁experience	1180
ce	1178
ar	1177
f	1174
▁far	1174
▁ways	1171
▁goes	1171
se	1171
▁process	1170
▁case	1170
ment	1165
ent	1163
▁bad	1162
▁simple	1162
▁young	1161
C	1157
▁days	1157
▁happens	1156
▁All	1153
▁move	1152
h	1146
▁picture	1141
▁project	1135
▁computer	1131
▁No	1129
▁single	1121
▁city	1119
▁mind	1117
▁top	1115
▁problems	1113
▁almost	1106
▁public	1104
▁while	1102
on	1101
▁global	1101
▁inside	1101
▁control	1099
▁saying	1099
▁Earth	1099
▁health	1097
▁hope	1092
▁planet	1090
▁already	1087
▁per	1084
▁community	1084
▁Thank	1078
▁book	1078
▁looked	1077
▁both	1076
▁business	1074
▁yet	1073
▁billion	1070
▁order	1063
▁nothing	1061
▁read	1060
▁once	1059
▁six	1058
▁answer	1057
▁remember	1057
▁age	1056
▁whether	1056
▁possible	1056
▁matter	1046
▁someone	1045
▁often	1044
▁ideas	1041
▁head	1039
▁war	1034
▁within	1033
est	1033
▁basically	1032
▁wrong	1029
us	1027
D	1026
▁guy	1025
▁history	1024
▁keep	1022
▁myself	1019
▁looks	1019
ul	1019
de	1018
▁child	1018
up	1014
▁Why	1013
▁true	1008
▁months	1007
k	999
▁couple	997
▁imagine	994
▁sure	993
lo	987
▁job	984
▁group	980
▁heard	979
▁heart	978
▁form	976
▁amazing	976
▁cells	976
▁face	976
w	966
▁wasn	963
ist	962
▁United	959
ma	954
▁government	953
▁cancer	952
▁beautiful	949
▁words	948
▁model	946
▁turn	945
to	944
▁built	942
▁night	937
▁run	937
▁stop	936
▁research	934
▁line	929
▁until	927
[	925
▁self	924
age	920
▁G	920
]	920
ate	918
▁piece	917
▁everybody	912
▁works	912
▁share	912
ive	906
▁Internet	904
▁music	902
▁knew	899
▁places	899
x	899
▁isn	899
▁decided	898
ci	897
▁must	896
▁friends	895
▁species	894
▁became	893
▁education	893
▁America	892
▁language	888
▁though	886
▁word	886
▁completely	884
▁past	884
▁video	883
▁universe	882
▁study	881
▁hear	881
▁To	879
’	874
▁learned	873
ting	871
▁States	871
ac	867
▁exactly	867
▁front	866
▁since	863
▁stories	863
▁happening	862
▁animals	861
▁woman	861
▁large	860
M	859
▁huge	859
▁Or	858
▁nature	858
▁somebody	857
▁students	856
▁name	856
▁itself	853
▁gets	853
▁taking	851
▁state	851
en	850
▁society	847
▁questions	838
▁ourselves	837
▁against	836
▁level	836
ol	834
ne	831
▁themselves	829
▁sometimes	822
un	820
▁kinds	820
▁hours	819
▁created	817
▁company	817
▁ones	813
▁sound	812
▁team	811
▁along	810
man	808
▁couldn	808
▁India	808
▁Do	807
▁co	807
P	806
▁minutes	805
▁OK	803
T	803
▁disease	801
▁mother	801
▁turns	800
ry	799
ta	797
▁TED	797
▁God	797
▁P	796
▁worked	795
▁rather	793
▁particular	791
▁walk	790
▁view	790
▁art	788
▁air	787
ant	786
▁game	785
▁least	783
▁Then	781
▁population	779
▁environment	779
▁figure	778
▁land	777
▁everyone	776
▁won	776
▁black	775
▁early	775
id	774
▁close	774
as	773
▁third	773
▁house	772
▁thousands	771
▁entire	770
ies	770
▁outside	770
▁others	770
ck	769
—	769
z	764
▁c	764
old	763
▁instead	761
▁guys	759
ha	757
▁paper	754
▁seven	754
▁news	754
▁At	753
▁free	752
▁gave	751
▁...	751
▁lots	750
▁happy	749
ized	749
▁con	749
▁grow	748
▁natural	747
▁D	741
▁cell	740
▁taken	739
▁full	739
▁common	738
▁systems	737
▁deal	737
▁short	735
▁changed	734
▁scale	733
▁China	733
▁difference	731
▁American	726
▁M	724
▁market	724
▁learning	719
▁p	713
▁middle	713
▁century	711
ty	711
▁Okay	710
ted	709
▁local	709
▁leave	707
ism	707
▁cities	707
▁machine	706
L	706
▁area	705
▁eyes	703
▁father	702
▁st	699
ated	699
ie	697
▁pay	697
ut	696
▁given	696
▁turned	694
tion	691
▁cost	690
▁beginning	690
ating	690
▁size	688
▁difficult	687
▁yourself	687
▁R	685
▁behind	685
▁York	683
▁perhaps	682
▁oil	679
ling	678
year	678
▁needed	677
▁certain	677
▁powerful	677
▁easy	677
tic	676
▁finally	676
▁takes	675
▁began	675
less	675
▁surface	673
▁wonderful	673
▁rest	672
um	672
▁seeing	672
ine	668
▁culture	667
ous	666
▁moving	666
▁media	666
ad	665
▁realized	665
▁test	665
▁needs	664
▁terms	664
♪	664
rs	662
▁cannot	662
▁fish	662
▁companies	662
during	662
at	661
The	661
▁longer	660
ia	659
▁Some	657
▁poor	655
▁hands	654
▁parts	654
vi	651
▁K	650
▁simply	650
▁image	650
▁red	649
em	648
E	644
▁spend	642
▁reality	641
▁felt	641
▁week	640
▁economic	640
B	637
▁Ma	636
▁tried	636
▁phone	635
O	634
▁whatever	634
na	632
▁eight	631
▁parents	630
ver	629
▁produce	628
▁met	626
▁e	626
▁buy	625
▁amount	622
▁program	621
▁quickly	619
▁O	619
▁death	618
▁fear	618
▁ground	615
be	612
▁growth	611
ba	611
▁spent	610
▁opportunity	609
▁pre	609
▁humans	609
co	609
▁low	609
▁People	607
pe	607
▁ocean	607
▁blood	607
▁interested	604
▁gone	600
ally	600
com	599
▁value	599
▁Just	598
▁speak	598
▁weeks	598
▁write	597
▁known	597
the	597
▁Re	596
▁die	595
te	594
▁either	594
▁political	594
▁friend	592
▁f	591
▁complex	591
▁ability	590
N	590
▁allow	589
ig	589
▁changes	588
▁J	588
▁sea	588
▁economy	588
▁access	587
▁behavior	587
▁impact	586
▁field	586
▁stage	585
▁Our	584
▁blue	584
▁climate	584
▁dis	583
▁sitting	583
▁shows	583
hi	582
▁CA	582
▁hold	581
nt	581
▁lost	581
▁white	580
▁individual	580
▁On	580
▁challenge	578
▁green	578
op	575
Well	575
▁W	575
▁chance	575
▁DNA	574
▁realize	574
▁support	573
uc	573
▁nice	571
am	571
▁key	571
▁eat	570
▁cool	570
▁feet	570
con	567
▁areas	567
▁Can	566
▁incredible	565
ard	565
▁pro	565
▁structure	564
ize	563
▁Right	563
▁animal	562
Z	561
▁average	559
ber	559
▁feeling	558
mo	558
▁measure	558
▁risk	557
▁sub	556
▁patients	556
▁morning	556
▁step	555
▁cut	555
ary	554
▁physical	550
▁wouldn	549
▁innovation	549
▁based	549
▁audience	548
▁clear	548
▁watch	548
▁Not	547
▁bottom	547
▁numbers	546
▁N	546
▁fire	545
▁experiment	545
▁growing	544
▁brought	543
▁scientists	542
▁network	542
▁material	542
ir	542
▁kid	541
▁result	540
▁non	540
▁born	539
▁issue	538
▁literally	538
▁understanding	537
▁color	537
You	536
▁film	536
R	536
."	535
per	534
▁hundreds	533
ect	533
ance	531
▁development	530
▁attention	530
▁knowledge	529
▁lab	529
sh	528
▁personal	528
▁b	527
and	527
▁wrote	527
▁special	524
ge	523
is	523
ti	523
K	523
▁V	522
▁technologies	522
▁pick	522
▁map	522
▁alone	522
▁forward	521
▁girl	520
▁fun	518
▁developed	518
▁running	517
▁giving	517
▁books	516
What	515
▁dark	515
▁miles	514
▁tools	514
line	514
▁millions	512
▁guess	510
▁World	508
bi	506
▁movement	506
▁fly	506
▁anyone	505
▁telling	505
bo	505
▁starting	504
▁theory	504
▁break	502
▁force	502
ian	502
▁sun	502
▁deep	502
om	502
▁center	502
▁seems	500
▁images	499
▁solve	498
▁sit	498
▁talked	497
▁explain	496
ach	496
▁present	496
bu	496
▁meet	495
▁Yeah	494
▁St	493
▁gives	492
▁absolutely	491
▁act	490
▁focus	490
▁issues	489
▁showed	488
os	487
▁girls	487
▁English	486
▁period	486
▁De	485
▁sex	485
▁rate	484
▁stay	484
▁voice	484
▁similar	482
▁cars	481
▁normal	481
▁thank	479
▁Be	479
der	479
▁Europe	479
▁send	477
▁type	477
▁industry	477
▁ex	477
no	477
▁solution	476
▁discovered	475
▁develop	475
▁South	475
▁online	475
▁table	474
▁office	474
▁Le	473
▁save	473
▁fast	472
▁creating	470
ho	469
▁journey	469
▁eye	469
▁resources	468
▁dream	468
▁law	468
min	468
▁developing	467
▁recently	467
▁robot	467
▁By	465
▁baby	465
▁designed	464
▁stand	464
▁seem	464
▁relationship	464
▁door	463
ni	463
ful	461
fi	461
▁modern	461
▁situation	461
▁dead	461
▁screen	459
▁perfect	459
▁soon	459
▁yes	458
▁available	458
oc	458
▁asking	458
▁product	458
▁reasons	457
son	457
▁major	456
▁plant	456
▁begin	455
ton	455
▁son	455
▁Google	454
▁truth	454
▁groups	454
▁follow	454
▁Yes	452
▁drive	452
▁medical	452
▁playing	452
▁especially	452
▁basic	452
▁evidence	451
▁tiny	451
▁patient	451
▁treat	451
▁code	450
▁continue	450
▁tend	450
▁haven	450
▁shape	449
▁street	448
ence	448
▁Oh	447
ron	447
▁involved	446
ical	446
▁computers	445
time	444
va	444
▁response	444
▁bigger	444
▁incredibly	443
▁ice	443
▁mo	442
▁mass	441
Q	441
▁bar	440
▁becomes	440
▁changing	440
▁pictures	439
▁digital	439
ot	438
▁generation	438
▁role	437
▁ma	437
▁effect	437
G	436
▁carbon	435
▁lived	435
▁approach	434
▁vision	434
▁choice	433
ab	433
▁drugs	433
v	433
me	432
▁message	432
▁towards	431
▁list	431
F	431
▁writing	431
▁drug	430
▁beyond	429
▁putting	429
▁box	429
▁solar	429
dy	428
▁Ba	428
▁Chinese	428
▁several	427
▁month	427
▁national	426
▁class	426
▁wind	424
▁object	424
▁hundred	424
▁add	422
he	421
▁lose	421
ial	420
ran	420
▁aren	420
▁likely	420
▁died	420
▁First	419
▁mine	419
▁nine	419
side	418
▁potential	418
▁clean	417
▁favorite	417
▁schools	417
▁speed	416
mi	416
▁After	416
▁software	415
▁fight	414
▁With	413
▁stick	413
▁teach	413
ped	412
▁worth	411
ca	410
▁position	409
▁reach	409
▁Chris	408
▁hit	408
▁cr	408
▁anybody	408
▁communities	408
▁trust	408
▁general	407
▁onto	407
▁device	406
▁An	405
▁higher	405
▁Every	404
▁rules	404
▁quality	404
▁success	404
▁strong	403
▁Maybe	403
ish	402
▁camera	402
mer	402
▁listen	401
▁rights	401
▁path	401
▁Of	401
nd	401
ists	400
▁action	400
vo	399
▁examples	399
out	399
▁hot	398
ga	398
▁finding	398
▁wish	398
▁late	398
▁wait	398
▁expect	398
▁starts	398
▁Who	397
▁biggest	397
▁spread	397
▁materials	396
▁Go	396
▁walking	396
▁treatment	396
▁provide	396
tra	396
▁sounds	395
▁particularly	395
di	395
▁scientific	394
we	394
▁showing	394
▁totally	394
▁skin	394
▁certainly	393
▁moved	393
▁wall	393
▁super	393
▁violence	393
▁exciting	392
▁fall	392
ization	392
▁largest	392
▁medicine	391
▁visual	391
▁leaders	391
▁Me	391
▁further	391
▁okay	391
▁sent	390
▁safe	390
▁evolution	389
▁bio	389
▁creative	389
▁g	388
▁wants	386
▁kill	386
H	386
▁results	385
▁obviously	385
▁plants	385
▁among	384
▁teachers	384
▁lead	382
▁nobody	382
▁fit	382
▁choose	381
▁hour	381
▁v	381
▁cause	381
▁protect	380
▁L	380
ator	380
▁waste	380
▁everywhere	379
▁smart	379
▁police	379
qui	378
land	378
▁led	378
▁village	377
▁plan	377
▁ready	377
ke	377
▁secret	377
▁sleep	377
▁extremely	376
ee	376
▁projects	376
▁star	376
Oh	376
▁context	376
▁security	375
▁North	375
▁watching	375
▁gas	374
▁meaning	374
▁individuals	374
ward	373
▁consider	373
▁eventually	373
▁named	372
ten	372
▁Most	372
▁travel	372
▁crazy	371
▁revolution	371
▁fundamental	371
▁jobs	371
ex	371
▁slow	371
▁allowed	370
▁student	370
▁Even	370
▁version	370
▁notice	370
pa	370
▁la	369
▁inter	369
▁African	369
▁Dr	368
▁touch	368
▁main	368
har	368
▁ball	368
▁track	368
▁Ho	367
▁fine	367
▁War	367
▁moral	367
▁games	367
▁tool	367
▁goal	367
end	366
▁road	366
▁conflict	366
che	365
▁college	365
▁perspective	365
▁hospital	365
X	365
▁robots	365
▁trees	365
▁supposed	364
▁models	364
▁grew	364
▁tells	364
▁shot	363
▁connected	363
▁tree	363
▁objects	363
▁train	363
▁fuel	361
▁including	361
▁search	361
▁boy	361
▁families	361
▁arm	360
▁record	360
▁connect	360
▁essentially	359
▁store	359
▁traditional	359
▁shown	358
▁flow	358
▁organization	357
▁address	357
ions	357
▁recognize	357
▁poverty	357
▁Ha	356
▁West	356
▁movie	356
fa	356
No	355
▁pattern	355
▁international	355
▁extraordinary	355
▁memory	355
▁rich	354
▁Li	354
▁meant	354
▁wife	354
izing	354
▁worse	354
▁thousand	354
▁serious	354
ities	353
que	353
if	353
▁square	353
ud	353
▁cases	353
▁source	352
▁bunch	352
▁ended	352
▁critical	351
▁faster	351
▁Don	351
ug	351
way	350
by	350
▁positive	350
▁Al	350
▁zero	350
▁democracy	350
▁brains	350
▁lower	349
▁Co	349
▁genetic	349
▁killed	349
▁somewhere	348
▁taught	348
▁buildings	348
▁affect	348
▁pain	347
▁career	347
▁forest	347
▁allows	346
▁above	346
▁crisis	346
▁board	345
▁Where	345
▁larger	344
▁famous	344
ny	344
We	344
▁micro	344
▁near	344
▁content	343
▁progress	343
▁excited	342
▁plastic	342
▁standing	342
▁conversation	341
▁please	341
▁happiness	340
▁teacher	340
▁female	340
▁activity	339
▁suddenly	339
▁doctor	339
▁Today	338
▁decision	338
▁sell	337
▁check	337
ors	337
▁cold	337
▁complicated	337
▁reading	336
▁post	336
▁Those	336
▁compassion	336
▁increase	336
▁truly	335
ative	335
▁drop	335
▁Look	335
gen	335
▁stars	335
▁conditions	335
▁ca	334
▁rise	334
▁bed	334
▁genes	334
▁site	333
▁specific	333
▁exist	333
▁di	333
▁successful	333
▁indeed	333
▁minute	332
▁song	332
W	331
▁workers	331
▁impossible	331
▁gr	331
▁older	331
▁Are	331
ip	330
▁studies	330
▁products	330
▁wonder	330
tor	330
▁kept	330
▁pull	330
let	329
ow	329
▁text	329
▁freedom	329
▁floor	329
▁forms	328
▁feed	328
go	328
▁nuclear	328
▁interest	328
▁website	328
▁count	327
▁massive	327
▁military	327
▁TV	327
do	326
▁financial	325
▁w	325
▁Ro	325
▁region	325
▁shift	325
▁return	325
▁mental	325
▁sorts	324
▁HIV	323
▁pieces	323
▁training	323
▁private	322
term	321
▁unique	321
▁usually	321
▁service	321
▁prison	321
▁somehow	320
▁decisions	320
▁East	320
▁purpose	320
▁range	320
▁bo	319
oo	319
▁subject	319
▁temperature	319
▁dangerous	319
▁race	319
▁Man	319
▁Bo	319
▁account	319
▁points	318
▁series	318
▁upon	318
ever	318
▁price	317
▁patterns	317
▁alive	317
▁electricity	316
▁Mo	316
▁win	316
▁lines	316
▁respect	316
▁decide	316
▁San	316
▁peace	316
▁current	315
▁Like	315
▁pressure	315
▁smaller	315
ight	315
/	314
▁solutions	314
▁prevent	314
ring	314
▁draw	314
▁skills	314
▁strange	314
▁anymore	314
▁sky	313
▁ho	313
▁machines	313
ious	312
▁daughter	311
▁sign	311
▁press	311
▁seconds	311
like	311
▁yeah	311
ens	310
▁Y	310
ified	310
▁bacteria	310
row	310
▁physics	310
▁practice	310
▁actual	309
▁page	309
▁beings	309
led	309
▁ran	309
▁biology	308
▁predict	308
▁policy	308
ble	308
▁healthy	308
▁trade	308
▁loved	308
▁extra	308
▁math	307
▁enormous	307
ap	307
▁o	307
wa	306
▁Americans	306
▁becoming	306
▁effective	306
▁weren	306
▁raise	306
▁cat	306
pi	305
▁environmental	305
▁web	305
▁mom	305
ff	305
▁explore	304
▁written	304
▁H	304
▁function	304
▁capital	303
▁charge	303
▁earlier	303
▁costs	303
▁anywhere	303
▁po	303
▁income	303
▁waiting	303
▁instance	301
▁heat	301
ning	301
▁Pa	301
▁expensive	300
▁doctors	300
▁rule	300
▁bodies	300
▁intelligence	299
▁forth	299
▁target	299
▁dog	299
▁Ca	299
▁clearly	298
▁park	298
▁report	298
▁willing	298
▁town	298
▁en	297
les	297
▁diseases	297
▁institutions	296
▁governments	296
▁visit	296
▁listening	296
▁demand	296
▁throughout	295
▁attack	295
▁direction	295
▁concept	294
▁greatest	294
▁final	294
▁immediately	294
▁greater	293
▁cover	293
▁Another	293
▁neurons	293
▁familiar	292
▁legal	292
▁hair	292
▁citizens	292
▁Indian	292
▁da	291
▁teaching	291
▁Imagine	291
▁Which	291
▁sh	291
▁foot	290
▁enjoy	290
▁respond	290
▁stress	290
▁University	289
▁minds	289
▁photo	289
men	289
▁email	287
ea	287
▁rain	287
▁performance	287
▁himself	287
▁fantastic	287
▁wealth	286
▁architecture	286
▁decade	286
▁blind	286
▁apply	286
▁Mi	286
vis	286
▁driving	285
▁religion	285
▁production	285
▁term	285
ps	285
▁weight	285
▁corner	285
▁li	284
▁therefore	284
▁City	284
▁services	284
▁survive	283
▁aid	283
med	283
▁Mars	283
▁humanity	282
fu	282
▁walked	281
▁communicate	281
ey	281
cent	281
▁levels	281
▁improve	281
▁flu	281
▁bomb	280
▁except	280
▁anti	280
▁challenges	280
▁radio	280
▁values	280
king	279
▁spot	279
▁accident	279
▁push	278
▁politics	278
▁legs	278
▁terrible	278
▁decades	278
ah	277
▁cultural	277
▁mobile	277
▁join	277
▁quick	276
▁sat	276
▁boat	276
▁meeting	276
▁mission	276
?"	275
mon	275
▁Di	275
ible	275
▁forget	275
▁engineering	275
▁colleagues	274
▁beauty	274
▁reduce	274
▁useful	274
▁fix	274
▁types	274
▁urban	274
▁choices	273
V	273
▁block	273
▁biological	272
▁imp	272
▁professional	272
▁cross	272
▁virus	272
▁distance	272
▁event	271
▁popular	271
▁Many	271
▁river	271
▁Two	270
▁infrastructure	270
▁summer	270
▁various	270
▁following	270
▁failure	270
▁although	270
▁atmosphere	270
j	270
▁helped	270
ner	270
▁tissue	269
▁Sa	269
▁ahead	269
▁trouble	269
▁invented	269
▁shared	269
▁obvious	268
▁programs	268
light	268
▁bear	268
▁remarkable	268
▁describe	268
▁uses	267
▁anyway	267
▁landscape	267
▁photograph	267
▁mis	267
▁babies	267
▁complete	267
▁male	267
▁dance	267
▁investment	267
▁genome	266
▁connection	266
U	266
▁condition	265
▁organizations	265
ill	265
▁th	264
▁Western	264
▁London	264
▁straight	264
▁speech	264
ite	264
▁effects	264
▁conference	263
air	263
▁comp	263
rt	263
ka	263
▁understood	263
▁jump	263
▁Sh	262
▁ship	262
▁worst	262
ak	262
ther	262
▁supply	262
au	262
log	261
▁stopped	261
▁Mar	261
▁Your	261
▁nation	261
▁recent	261
▁television	261
▁laws	261
tri	261
▁cycle	260
▁standard	260
▁birth	260
▁mostly	260
▁causes	260
▁flying	259
▁agree	259
▁apart	259
▁La	258
▁streets	258
▁Jo	258
▁gene	258
▁total	258
▁artist	258
▁Ka	258
ping	257
▁John	257
▁rock	257
cy	257
▁From	257
▁slide	257
▁magic	256
hand	256
za	256
▁possibly	256
▁Afghanistan	255
▁below	254
▁Lo	254
▁sector	254
▁slightly	254
▁sand	254
▁capacity	253
▁crime	253
▁relationships	252
▁aware	252
▁sc	252
▁smell	252
▁Instead	252
▁task	252
▁sequence	251
▁app	251
off	251
▁sick	251
▁dad	251
▁central	250
▁California	250
▁passion	250
▁original	249
one	249
▁pop	249
▁states	249
▁sentence	249
▁roll	249
▁paid	248
ium	248
▁interact	248
▁match	248
▁boys	248
▁twice	247
den	247
▁rid	247
▁campaign	247
▁offer	247
▁directly	247
▁meters	247
▁engine	246
▁Hu	246
▁character	246
▁easily	246
▁planets	246
▁Facebook	246
▁chair	245
▁afford	245
ology	245
▁multi	245
for	245
▁answers	245
io	245
▁gun	245
▁responsibility	244
▁bought	244
▁avoid	244
▁feels	244
▁vast	244
▁experiments	244
ast	244
▁dying	244
ray	244
▁creativity	243
▁societies	243
▁speaking	243
▁worry	243
▁differently	242
ability	242
▁commercial	242
▁threat	242
▁devices	242
▁depend	242
pro	242
ler	242
▁Think	242
▁afraid	242
▁played	242
▁degrees	242
▁r	242
▁tremendous	241
tes	241
▁highly	241
▁article	241
ack	241
▁sustainable	241
▁networks	241
▁quote	240
▁brand	240
▁achieve	240
▁significant	240
▁notion	240
▁oxygen	240
▁His	240
▁vote	239
ain	239
ris	239
▁published	239
▁markets	239
▁wild	239
▁broken	239
▁window	238
▁efficient	238
▁National	238
▁helping	238
▁catch	237
▁closer	237
▁net	237
▁active	237
▁lack	236
▁throw	236
▁sp	236
▁core	236
▁evolved	235
▁emotional	235
▁contact	235
▁funny	234
▁etc	234
▁forces	234
ob	234
▁giant	234
▁plane	234
▁inspired	234
▁Great	234
▁chemical	234
▁civil	234
▁discover	233
▁noticed	233
▁glass	233
▁deliver	233
▁equal	233
ja	233
▁communication	233
▁influence	233
▁scientist	232
▁drawing	232
▁camp	232
▁missing	232
▁bridge	232
▁random	232
top	232
ving	232
▁designers	232
▁dreams	231
port	231
▁oh	231
$	231
▁balance	231
How	231
▁produced	231
▁Ja	231
▁Da	230
▁carry	230
▁differences	230
▁members	230
▁trip	230
▁husband	230
▁hearing	230
▁classroom	230
▁Ki	229
▁molecules	229
▁Over	229
▁gap	229
▁basis	228
my	228
ging	228
sis	228
▁continent	228
▁hole	228
▁European	228
▁crowd	228
▁experiences	227
▁gain	227
▁passed	227
▁tough	227
▁struggle	227
▁complexity	226
▁gotten	226
▁flight	226
▁surgery	226
▁nearly	226
ki	226
▁mountain	226
▁birds	226
▁forever	226
▁knowing	226
▁identity	226
▁island	225
▁detect	225
▁studying	225
▁farm	224
ship	224
▁seemed	224
▁diversity	224
▁reaction	224
▁earth	224
▁collect	224
ably	224
▁alternative	223
▁pass	223
▁eating	223
▁Take	223
▁fair	223
▁extreme	223
▁Bu	223
▁coffee	222
▁represent	222
▁Con	222
▁spending	222
▁remind	222
▁engage	222
qua	222
▁civilization	222
▁satellite	222
▁background	221
▁industrial	221
▁party	221
sum	221
▁creates	221
▁chain	220
▁El	220
lin	220
▁definition	220
▁lights	220
▁im	220
▁raised	219
ari	219
▁sold	219
▁weird	219
▁opposite	219
ang	219
set	219
▁fund	219
▁imagination	218
ren	218
▁labor	218
▁interview	218
▁none	218
▁focused	218
▁easier	218
▁leg	218
ration	218
▁fully	218
▁museum	217
▁opportunities	217
▁justice	217
▁Again	217
▁See	217
ile	217
Why	217
▁Ph	216
▁express	216
da	216
▁desire	216
▁Car	216
ide	216
▁airplane	215
fer	215
▁scene	215
It	215
▁Po	215
▁invest	215
▁importantly	215
▁Ne	214
▁separate	214
▁date	214
▁reward	214
cal	214
▁proud	214
▁honest	214
▁stem	213
▁negative	213
▁effort	213
▁trial	213
▁paint	213
▁graph	213
▁signal	213
▁possibility	213
▁mid	213
▁turning	212
▁More	212
▁held	212
▁bag	211
▁identify	211
▁However	211
▁moon	211
▁matters	211
ically	211
▁structures	211
▁advantage	211
▁Asia	211
▁criminal	211
▁despite	211
▁benefit	210
▁Pro	210
▁lucky	210
▁Actually	210
▁Cha	210
▁cave	210
▁surprise	210
dge	210
ai	210
▁virtual	210
▁noise	210
▁transform	209
▁competition	209
▁card	209
▁trick	209
▁platform	209
▁unit	209
▁stuck	209
▁sad	209
▁bottle	209
▁brings	209
▁Ta	208
▁David	208
▁Her	208
▁hell	208
▁ultimately	208
▁fairly	208
▁mouth	208
▁desert	208
dimensional	208
▁Su	208
▁Twitter	208
▁sharing	207
▁fold	207
▁neighborhood	207
▁artists	207
▁magazine	207
▁tradition	207
▁motor	206
▁grand	206
ick	206
▁du	206
▁yellow	206
▁coast	206
▁benefits	206
iv	205
▁Ru	205
▁damage	205
ib	205
▁bat	205
han	205
▁moments	205
▁religious	205
▁consciousness	205
▁due	205
▁argue	205
▁soil	205
▁emotions	205
▁fill	205
▁ha	205
based	205
▁Iraq	205
▁manage	205
▁Brazil	205
▁wear	204
▁figured	204
▁argument	204
▁ancient	204
▁suffering	204
▁era	204
▁breast	204
▁attempt	204
▁flag	204
▁necessary	204
over	203
▁Japan	203
▁phones	203
▁calls	203
▁painting	203
▁Bill	203
uff	203
▁double	203
▁Once	203
▁claim	203
▁Second	202
▁sorry	202
▁pair	202
▁spaces	202
ral	202
▁bees	202
▁Com	202
ame	202
▁opened	201
▁base	201
▁fashion	201
▁cheap	201
▁switch	201
▁motion	201
▁finish	201
▁se	201
▁Sometimes	201
▁Middle	201
▁loss	201
▁crash	200
▁debate	200
▁bubble	200
▁gender	200
▁gift	200
▁brother	200
ier	200
▁billions	199
▁entirely	199
▁bi	199
▁leadership	199
ned	199
ima	199
▁pounds	199
▁rec	199
▁collective	199
▁studied	199
▁phenomenon	199
▁cloud	199
▁click	199
▁restaurant	198
▁direct	198
▁necessarily	198
▁creatures	198
▁Vi	198
▁climb	198
▁helps	198
▁creation	198
▁walls	198
▁location	198
▁university	198
▁compared	198
▁master	197
▁CO	197
▁bread	197
▁accept	197
▁failed	197
▁leading	197
▁suit	197
form	197
▁bone	197
▁Good	196
▁faith	196
▁puzzle	196
▁events	196
▁operate	196
▁farmers	196
▁interface	196
▁smile	196
▁k	196
▁Did	196
▁French	196
car	196
▁prove	196
gg	196
▁Mr	195
▁brilliant	195
▁bright	195
ologist	195
▁elements	195
▁letter	195
▁beat	195
▁holding	195
▁foundation	195
▁stream	195
▁British	195
aw	194
▁Kenya	194
work	194
▁Washington	194
▁particles	194
▁marriage	194
▁fresh	194
▁mouse	194
▁Web	194
▁drink	193
▁score	193
▁typical	193
▁fail	193
▁professor	193
▁childhood	193
ju	193
▁wood	193
▁Mu	193
rus	193
▁curve	192
▁managed	192
▁lay	192
▁grade	192
▁foreign	192
▁cap	192
▁belong	192
ay	192
▁honor	191
▁Na	191
▁discovery	191
▁adults	191
▁newspaper	191
▁expression	191
▁bank	191
lan	191
ake	191
▁dollar	190
▁strategy	190
▁deeply	190
▁engineers	190
▁hurt	190
▁sudden	189
▁majority	189
▁universal	189
▁organisms	189
▁hate	189
▁responsible	189
▁generate	189
ui	189
van	189
▁release	189
▁oceans	189
ft	189
▁tumor	188
This	188
▁bird	188
▁link	188
▁caught	188
ef	188
sta	188
▁limited	188
▁edge	188
▁fighting	188
▁Have	188
▁tens	188
▁patent	188
▁sister	188
▁budget	188
▁transformation	188
▁believed	187
▁Gr	187
▁lesson	187
▁leads	187
ook	187
ng	187
▁businesses	187
▁leaving	187
▁horse	187
istic	187
▁lo	187
▁lunch	186
▁Ri	186
▁enable	186
▁perform	186
▁Si	186
▁Big	186
▁unfortunately	186
▁fascinating	186
▁watched	186
▁degree	185
▁frame	185
▁independent	185
▁profound	185
cut	185
▁wearing	185
J	185
▁related	185
▁theater	185
▁names	185
▁faces	185
▁poem	185
▁whom	185
▁clinical	185
▁shop	185
ham	185
▁everyday	185
▁Ex	184
chi	184
▁closed	184
meter	184
▁ra	184
▁otherwise	184
▁fossil	184
▁colors	184
▁serve	184
▁dinner	183
hy	183
▁discussion	183
▁grown	183
▁president	183
▁traffic	183
▁multiple	183
rate	183
▁trained	182
▁Se	182
▁followed	182
▁copy	182
▁tail	182
▁display	182
▁lu	182
▁promise	182
▁sexual	182
▁safety	182
▁pig	182
▁hidden	182
▁breath	182
▁enter	181
▁disaster	181
▁metal	181
▁slowly	181
▁Very	181
▁note	181
▁warm	181
▁interaction	181
▁George	181
▁gay	181
▁constantly	180
▁novel	180
▁finished	180
▁mix	180
▁exists	180
▁invisible	180
▁ideal	180
▁row	180
▁exercise	180
▁mentioned	180
ue	180
▁described	180
bal	180
▁topic	180
▁married	180
▁invited	179
▁opinion	179
▁channel	179
▁Ad	179
all	179
▁artificial	179
▁launched	179
▁flat	179
of	179
▁capable	179
▁epidemic	179
▁adult	179
fe	179
▁dry	179
▁exchange	179
▁occur	178
▁principles	178
▁Gu	178
▁crack	178
▁insects	178
▁layer	178
her	178
▁currently	178
▁steps	178
▁launch	178
▁folks	178
▁odd	178
ular	178
▁saving	178
▁strength	177
▁moves	177
▁Life	177
▁clinic	177
▁concerned	177
▁survival	177
▁disappear	177
▁heads	177
▁begins	177
▁collection	177
▁contract	177
▁received	177
▁garden	177
▁wide	177
af	176
▁blow	176
ency	176
▁mathematics	176
▁surprised	176
▁consequences	176
▁parent	176
ice	176
▁host	176
▁homes	176
▁fell	176
▁signals	176
▁relative	176
day	175
lon	175
▁partner	175
ound	175
▁kilometers	175
▁perfectly	175
kin	175
▁tape	175
▁spirit	175
▁define	175
▁mark	175
▁appear	175
▁ten	175
▁comment	174
press	174
▁graduate	174
▁Everybody	174
▁cure	174
▁pages	174
phi	174
▁wake	174
▁roof	174
▁wave	174
▁May	174
▁fo	174
▁transport	174
gram	174
▁joy	174
ries	174
▁shoes	173
▁mirror	173
▁narrative	173
▁compare	173
▁arms	173
▁Australia	173
▁tons	173
▁leader	173
ern	173
▁paying	173
▁insight	173
▁zone	173
▁organic	173
▁weapons	173
▁GDP	173
▁bus	173
▁hasn	172
▁ride	172
▁journalist	172
▁load	172
▁gold	172
▁highest	172
▁band	172
▁sum	172
▁fellow	172
▁blog	172
▁existence	172
▁correct	172
▁normally	171
▁seat	171
▁cognitive	171
▁op	171
▁factory	171
▁mathematical	171
▁Does	171
▁Sun	171
▁Sp	171
▁dynamic	171
▁para	171
▁trillion	171
▁metaphor	171
▁spoke	171
▁galaxies	171
▁seriously	170
▁round	170
val	170
▁mothers	170
▁fat	170
ose	170
▁versus	170
▁nervous	170
▁letters	169
▁feedback	169
▁researchers	169
▁detail	169
▁considered	169
▁quantum	169
▁chart	169
▁wheel	169
▁associated	169
▁harder	169
▁Hi	169
▁testing	169
▁electric	168
▁stood	168
▁principle	168
bra	168
▁treated	168
▁healthcare	168
ual	168
▁Richard	168
▁remote	168
rop	168
▁ring	168
▁depression	168
▁Mexico	168
▁circle	168
▁qua	168
▁pl	168
▁protein	168
▁worried	168
▁fan	167
▁England	167
▁experts	167
▁Would	167
▁command	167
▁stupid	167
▁intelligent	167
▁operating	167
▁ants	167
▁profit	167
▁invention	167
▁comfortable	167
▁planning	167
▁surprising	166
▁print	166
▁emissions	166
▁economics	166
ero	166
▁clip	166
▁advance	166
▁weather	166
▁lie	166
▁forced	166
▁concern	165
▁official	165
▁quiet	165
ome	165
▁equivalent	165
▁capture	165
▁joke	165
▁Their	165
▁daily	165
▁reform	165
▁generations	165
▁hopefully	165
▁soldiers	165
▁opening	165
▁Island	165
▁leaves	165
▁ski	165
▁diet	165
▁Thanks	165
▁wisdom	165
▁curious	165
▁meat	165
▁processes	165
▁coral	165
ification	165
ger	164
▁harm	164
▁fields	164
▁distribution	164
▁belief	164
▁hide	164
▁unless	164
▁court	164
▁importance	164
▁Three	164
▁warming	164
If	164
▁consumption	164
▁grandmother	164
▁circuit	163
▁molecule	163
▁resource	163
▁laptop	163
▁lifetime	163
▁saved	163
▁vehicle	163
▁Audience	163
▁survey	163
▁Germany	163
▁participate	163
▁exact	163
▁pen	163
▁calling	163
▁killing	163
▁autism	163
▁Times	162
▁inner	162
▁wire	162
▁equipment	162
▁according	162
▁picked	162
▁judge	162
▁selling	162
▁Mc	162
▁photos	162
▁mess	162
▁combination	161
▁Bi	161
▁setting	161
▁soul	161
▁keeping	161
▁designer	161
▁credit	161
▁telescope	161
▁method	161
▁season	161
▁expected	161
▁extract	161
▁tall	160
▁Wi	160
▁Einstein	160
▁dealing	160
▁videos	160
▁AIDS	160
▁rural	160
▁statistics	160
▁galaxy	160
▁reflect	160
ough	160
▁robotic	160
▁Iran	160
▁member	160
▁filled	159
▁MIT	159
▁Everything	159
▁analysis	159
▁shoulder	159
▁shapes	159
▁experienced	159
▁j	159
▁Mon	159
▁agriculture	159
▁determine	159
▁fourth	159
▁hadn	159
▁battle	159
▁factors	159
oli	159
▁connections	159
▁cartoon	159
cho	159
rew	158
▁intellectual	158
▁broke	158
▁users	158
▁organized	158
▁arrived	158
▁movements	158
▁President	158
▁Am	158
scale	158
▁languages	158
▁pocket	158
▁covered	158
▁taste	158
▁malaria	158
▁increasingly	158
phe	158
▁ordinary	158
▁string	158
▁convinced	158
▁limb	157
▁toward	157
▁property	157
▁stone	157
head	157
▁north	157
Do	157
▁movies	157
▁al	157
▁voices	157
▁plate	157
▁skill	156
▁error	156
nce	156
rk	156
▁te	156
▁volume	156
▁caused	156
▁Che	156
▁mistake	156
▁addition	156
▁medium	156
▁chicken	156
▁wondering	156
gi	156
▁construction	156
▁peak	156
▁heavy	156
▁fe	156
▁hang	155
▁Human	155
▁encourage	155
▁technical	155
▁station	155
Hey	155
▁habit	155
▁title	155
ley	155
▁arts	155
▁suggest	155
▁auto	155
▁players	155
▁lies	154
▁Center	154
▁evil	154
▁awful	154
▁perception	154
▁toilet	154
cla	154
▁released	154
gar	154
▁losing	154
▁equation	154
▁counter	153
▁author	153
▁stock	153
▁transition	153
▁empty	153
Yes	153
▁yesterday	153
▁engineer	153
▁abuse	153
▁Harvard	153
▁risks	153
▁victims	153
▁burn	152
▁protection	152
▁maintain	152
▁houses	152
▁nose	152
▁sites	152
net	152
▁underneath	152
▁prototype	152
▁tube	152
hop	152
▁remain	152
▁dimensions	152
nna	152
▁Amazon	152
▁bill	152
▁messages	152
▁cow	152
▁Last	151
▁driver	151
cop	151
▁sa	151
▁electrical	151
▁quarter	151
▁NASA	151
▁tag	151
▁tip	151
▁cutting	151
▁su	151
▁cards	151
▁rare	151
▁rapidly	151
▁holes	151
▁Los	151
▁trans	151
ov	151
▁Japanese	150
▁sending	150
▁sample	150
hor	150
▁Arab	150
▁facing	150
▁represents	150
▁contain	150
▁coal	150
▁south	150
ians	150
▁embrace	150
▁requires	150
▁emotion	150
ew	150
▁operation	150
▁waves	150
▁poetry	150
▁regular	149
▁sugar	149
▁designing	149
▁essential	149
▁introduce	149
▁muscle	149
low	149
ily	149
▁peer	149
▁School	149
right	149
▁nations	149
▁feelings	149
▁battery	149
▁possibilities	149
▁rates	149
▁limit	149
▁dec	149
▁inequality	149
▁deeper	148
hu	148
▁variety	148
▁button	148
▁doubt	148
▁instrument	148
▁pure	148
▁Sam	148
▁appropriate	148
▁emerging	148
▁trials	148
▁cameras	148
▁Pakistan	148
▁estimate	148
▁na	147
▁characters	147
▁filter	147
▁Congress	147
▁adapt	147
▁sweet	147
▁spec	147
▁mention	147
▁rat	147
ory	147
▁liked	147
▁Street	147
▁fiction	147
▁rational	146
▁review	146
▁pump	146
source	146
▁gentlemen	146
▁Paul	146
▁surgeon	146
▁cu	146
▁microbes	146
▁Art	146
▁document	146
▁tomorrow	146
▁properties	146
▁broad	146
▁encounter	146
▁Ben	146
▁signs	146
▁balloon	146
▁absolute	145
▁increasing	145
▁advanced	145
▁former	145
▁chemicals	145
▁spring	145
art	145
▁Dan	145
▁myth	145
▁specifically	145
ek	145
▁tax	145
▁rocket	145
▁Could	145
▁require	145
▁soft	145
▁Britain	145
▁II	145
▁details	145
▁cup	145
▁required	144
▁physicist	144
▁technological	144
matic	144
use	144
room	144
▁conclusion	144
grad	144
▁inspiration	144
▁forests	144
ulation	144
▁demo	144
▁management	144
▁weak	144
é	143
▁carefully	143
▁height	143
▁gang	143
▁swim	143
That	143
▁Nigeria	143
▁appreciate	143
▁laugh	143
▁Han	143
▁statement	143
▁Francisco	143
▁tea	143
▁illegal	143
▁protest	143
▁player	142
▁effectively	142
▁funding	142
▁convince	142
▁grid	142
▁Anderson	142
▁pal	142
▁relatively	142
▁habitat	142
▁length	142
▁Canada	142
▁shoot	142
▁bare	141
▁presentation	141
▁exception	141
▁relate	141
▁fewer	141
▁lessons	141
▁cultures	141
▁status	141
▁cook	141
▁user	141
▁Israel	141
▁France	141
▁celebrate	141
▁Since	141
▁chemistry	141
▁hotel	140
▁studio	140
▁Th	140
▁invent	140
▁dots	140
ung	140
phy	140
▁fruit	140
▁passionate	140
▁vulnerable	140
▁Ju	140
▁lady	140
▁Ar	140
▁maps	140
▁king	140
ord	140
▁snow	140
▁politicians	140
▁react	140
▁handle	139
▁sight	139
▁academic	139
▁church	139
ise	139
dding	139
▁explanation	139
▁pleasure	139
ump	139
▁firm	139
▁producing	139
▁molecular	139
▁finger	139
▁formed	139
▁director	139
▁root	139
▁reveal	139
▁phrase	139
cus	139
▁roughly	138
▁include	138
▁option	138
▁consumer	138
▁staff	138
▁sources	138
ank	138
▁orbit	138
▁valuable	138
▁succeed	138
▁depends	138
zz	138
board	138
▁Yet	138
▁meaningful	138
▁Come	138
▁goals	138
▁radical	138
▁jail	138
▁mile	138
▁receive	138
▁corruption	137
▁sculpture	137
ky	137
▁Chicago	137
▁buying	137
▁scan	137
▁vaccine	137
▁replace	137
▁expand	137
▁winter	137
▁Anyway	137
▁dinosaurs	137
▁infinite	137
▁teeth	137
▁prop	136
water	136
▁evolutionary	136
▁actions	136
▁danger	136
▁steel	136
ana	136
▁Bank	136
▁beach	136
▁loud	136
▁sing	136
▁hall	136
▁outcome	136
▁James	136
▁graphic	136
▁engaged	136
▁techniques	136
In	136
mar	136
▁decline	136
▁shame	136
▁spectrum	136
▁Boston	135
▁kitchen	135
▁carrying	135
▁thanks	135
▁grain	135
▁suffer	135
▁Institute	135
▁definitely	135
▁mountains	135
▁symbol	135
▁manufacturing	135
▁monitor	135
▁ecosystem	135
▁Tom	135
▁unusual	135
▁prime	135
▁sheet	135
▁factor	135
▁BG	135
▁however	134
gy	134
▁Darwin	134
ko	134
▁thin	134
▁behaviors	134
▁comfort	134
▁increased	134
▁solid	134
uring	134
▁Har	134
▁clever	134
ept	134
vin	134
▁pack	134
mate	134
▁Pi	134
▁fake	134
▁centers	134
▁symptoms	134
▁flip	134
▁Green	134
▁blocks	134
▁radiation	134
▁bike	134
▁awareness	133
oid	133
▁environments	133
▁atoms	133
▁remove	133
▁flies	133
▁worldwide	133
▁introduced	133
▁mosquito	133
▁hospitals	133
▁intervention	133
▁loan	133
▁conscious	133
▁previous	132
▁reverse	132
atur	132
▁pitch	132
▁Other	132
▁democratic	132
▁Per	132
▁generally	132
▁collapse	132
▁assume	132
▁attract	132
▁organize	132
▁tank	132
cle	132
▁plot	132
▁primary	132
▁split	132
▁Women	132
▁sharks	132
▁translate	132
ulate	132
▁collaboration	132
▁severe	132
▁silence	131
▁drives	131
▁sophisticated	131
▁internal	131
▁illusion	131
app	131
▁components	131
▁applied	131
▁regions	131
▁YouTube	131
▁compete	131
▁situations	131
▁notes	131
▁conservation	131
▁added	131
▁interests	131
▁dogs	131
▁attitude	131
▁finance	131
▁shut	131
▁violent	131
▁Islam	131
▁conversations	131
▁fundamentally	130
▁prefer	130
▁employees	130
▁runs	130
▁false	130
▁neighbors	130
▁poll	130
▁input	130
▁Four	130
▁reached	130
▁productive	130
▁pulled	130
▁poet	130
▁fiber	130
▁existing	130
▁typically	130
▁affected	130
▁variation	130
▁grab	130
▁alien	130
hen	130
▁protected	130
▁German	130
▁trend	130
▁department	130
▁zoom	130
▁harvest	130
▁Christian	130
▁Steve	129
▁Muslim	129
▁par	129
bar	129
▁intention	129
▁apartment	129
▁nerve	129
▁Park	129
▁pet	129
▁loop	129
▁refer	129
▁providing	129
▁viruses	129
▁potentially	129
▁earn	129
▁miss	129
▁hydrogen	128
▁lecture	128
▁sustain	128
ivity	128
▁agent	128
▁spider	128
▁innovative	128
▁feature	128
▁gravity	128
▁keeps	128
▁solved	128
▁bee	128
▁pollution	128
▁liquid	128
▁strip	128
▁predator	128
▁recorded	128
▁origin	128
▁combine	128
▁toxic	128
▁attacks	128
▁organs	128
▁eggs	128
▁physician	128
▁repeat	127
▁knee	127
ina	127
▁Michael	127
▁practical	127
▁sphere	127
▁destruction	127
▁Day	127
▁plus	127
▁physically	127
▁pilot	127
▁joined	127
▁relevant	127
▁framework	127
▁traveling	127
▁Any	127
▁observation	127
▁recover	127
▁iPhone	127
▁prepared	127
▁phase	127
▁concrete	127
▁fishing	127
▁aging	127
ane	126
▁Charles	126
▁tap	126
▁computing	126
▁figures	126
tz	126
▁musical	126
▁naturally	126
now	126
▁wa	126
▁underwater	126
▁reference	126
▁escape	126
ridge	126
▁empathy	126
▁awesome	126
▁ultimate	126
▁vehicles	126
▁bias	126
▁Perhaps	125
▁efficiency	125
▁license	125
▁ought	125
▁While	125
▁equality	125
▁personally	125
▁election	125
▁infection	125
▁guide	125
▁Ni	125
▁Russia	125
▁stronger	125
▁breathe	125
▁ancestors	125
bit	125
▁Air	124
▁hits	124
▁element	124
▁Will	124
▁psychological	124
▁section	124
▁evolve	124
▁remains	124
lit	124
▁activities	124
▁lens	124
▁milk	124
down	124
▁needle	124
▁nest	124
aving	124
▁printing	124
▁lying	124
▁manager	123
▁evening	123
▁hoping	123
▁surrounded	123
▁King	123
our	123
▁mechanism	123
▁functions	123
▁sports	123
▁housing	123
▁collected	123
▁fl	123
▁authority	123
▁suck	123
▁constant	123
▁dropped	123
well	123
▁angle	123
▁swimming	123
▁storm	123
▁border	123
foot	123
▁repair	123
▁emerge	123
▁permanent	123
▁Valley	123
▁drill	123
▁Du	123
▁activist	123
▁improvement	123
▁cast	123
▁processing	123
▁divide	123
▁Paris	123
▁Science	122
▁literature	122
▁behave	122
▁Talk	122
▁driven	122
▁Nobody	122
▁fingers	122
ye	122
▁fabric	122
▁prize	122
▁dramatic	122
▁dense	122
▁complain	122
▁functional	122
▁afternoon	122
ou	122
▁meal	122
▁State	122
long	122
▁silk	122
▁microscope	122
▁singing	122
▁scared	122
▁murder	122
▁shark	122
▁flash	122
▁ill	122
▁officer	122
▁photographs	121
▁explained	121
▁organ	121
▁partners	121
▁extend	121
▁clock	121
▁mechanical	121
▁features	121
▁unknown	121
▁club	121
▁polar	121
Fi	121
▁Un	121
▁bug	121
▁deserve	121
▁policies	121
▁psychology	121
par	121
▁amounts	121
▁Project	120
etic	120
▁equally	120
▁terrorism	120
▁memories	120
▁grass	120
▁challenging	120
▁weigh	120
▁privacy	120
avi	120
▁wine	120
▁institution	120
▁Also	120
▁CEO	120
▁shock	120
▁drone	120
▁tested	120
back	120
▁route	120
ear	120
▁PM	120
▁sail	120
▁algorithms	120
▁illness	120
▁wash	119
▁cluster	119
▁sunlight	119
▁circumstances	119
▁paradigm	119
▁Bar	119
▁script	119
onic	119
▁stretch	119
▁clothes	119
▁talent	119
▁exhibition	119
▁visible	119
lock	119
▁pot	119
▁transportation	119
▁mortality	119
aries	119
▁mistakes	119
▁Red	119
▁agreed	119
▁tests	119
▁younger	119
state	118
teen	118
▁wireless	118
▁percentage	118
▁Latin	118
being	118
▁spiritual	118
▁applications	118
▁admit	118
▁acting	118
▁occurred	118
▁desk	118
ez	118
▁cry	118
▁September	118
ological	118
▁busy	118
▁advice	118
aph	118
▁Unfortunately	118
rin	118
▁exploration	118
▁selection	118
▁records	118
▁shadow	118
fully	118
▁nor	118
▁download	118
▁tie	118
▁largely	118
▁pile	118
▁contrast	118
▁wound	117
▁smoke	117
▁contribute	117
ney	117
rand	117
▁file	117
▁deaths	117
▁pour	117
▁Gi	117
▁theme	117
▁nowhere	117
▁telephone	117
▁electronic	117
▁organism	117
▁style	117
▁Health	117
▁abstract	117
▁borders	117
▁falling	117
▁bond	117
▁kick	117
▁defined	117
▁marine	117
▁worker	117
▁dress	117
▁owner	117
▁sustainability	117
▁GPS	117
▁recording	117
tract	117
▁flew	116
▁stayed	116
making	116
▁Tu	116
▁boring	116
▁chose	116
▁attend	116
▁chapter	116
▁thick	116
▁vertical	116
▁presence	116
▁infected	116
▁Only	116
▁sensitive	116
▁roads	116
▁greenhouse	116
▁upper	116
▁cortex	116
ery	116
▁sensors	116
▁angry	116
▁House	115
▁pan	115
▁parallel	115
▁aspect	115
▁neighbor	115
▁Number	115
▁resistance	115
▁horrible	115
▁overall	115
▁hill	115
lip	115
▁intense	115
Y	115
▁pill	115
▁tonight	115
▁Five	115
bb	115
▁rush	115
ani	115
cha	115
▁somewhat	115
▁confidence	115
▁seek	115
▁Sea	115
▁combined	115
▁tech	115
▁revenue	115
▁secure	115
▁promote	114
▁signed	114
ography	114
▁options	114
▁depth	114
▁apple	114
▁Wal	114
▁gut	114
jo	114
▁tracking	114
▁cents	114
▁suppose	114
▁conduct	114
▁neuro	114
▁cyber	114
▁capitalism	114
▁Adam	114
▁cooking	114
▁favor	114
▁bones	114
▁parking	114
▁accurate	114
▁lift	114
▁commitment	114
▁marketing	113
▁entrepreneurs	113
▁flower	113
▁pool	113
▁proteins	113
▁motivation	113
▁stands	113
Look	113
▁humor	113
▁Angeles	113
▁grandfather	113
▁unlike	113
▁bicycle	113
▁expert	113
assemble	113
▁Wikipedia	113
house	112
▁steal	112
▁flood	112
rd	112
▁discipline	112
▁march	112
▁pin	112
▁ritual	112
▁controlled	112
▁ear	112
▁Obama	112
▁US	112
fish	112
▁fixed	112
ria	112
▁boom	112
path	112
▁centuries	112
▁Egypt	112
▁mice	112
▁therapy	111
▁burning	111
▁laboratory	111
▁hero	111
▁provided	111
▁struck	111
▁hormone	111
▁solving	111
late	111
▁birthday	111
▁cord	111
▁acid	111
▁custom	111
▁customers	111
▁wondered	111
box	111
▁Global	111
American	111
▁existed	111
▁songs	111
▁psychologist	111
▁educational	110
ock	110
▁mad	110
▁application	110
ened	110
▁causing	110
▁breathing	110
▁spa	110
▁destroy	110
▁ladies	110
▁chip	110
▁database	110
▁poster	110
▁outcomes	110
▁lifestyle	110
▁Act	110
▁films	110
win	110
▁Pacific	110
mark	110
ong	110
ura	110
ker	110
▁plans	109
▁transplant	109
▁economists	109
▁standards	109
▁inspire	109
▁rely	109
▁photographer	109
▁transfer	109
▁rocks	109
▁closely	109
▁convert	109
▁algorithm	109
▁Robert	109
▁diagram	109
▁Apple	109
▁aim	109
▁villages	109
▁extent	108
▁trigger	108
▁subjects	108
▁animation	108
▁mode	108
▁Abou	108
▁Something	108
▁ears	108
▁economies	108
bling	108
▁Everyone	108
▁classes	108
▁feeding	108
▁technique	108
az	108
▁meme	108
▁Before	108
life	108
ik	108
▁destroyed	108
▁narrow	108
▁Frank	108
▁guard	108
▁vessels	108
▁aspects	108
▁cheat	108
▁raw	108
▁Museum	108
▁welcome	107
▁faced	107
hour	107
▁seal	107
key	107
▁June	107
▁domestic	107
▁barrier	107
▁Remember	107
▁Jim	107
▁falls	107
▁continued	107
▁architect	107
▁fluid	107
▁logic	107
▁hook	107
▁wherever	107
▁boxes	107
urge	107
▁scenario	107
▁Ten	107
▁engaging	106
▁offered	106
▁corporate	106
▁Mary	106
▁army	106
▁limits	106
▁Thomas	106
▁invite	106
▁Christmas	106
▁dive	106
▁renewable	106
▁suggests	106
▁Basically	106
▁samples	106
▁whales	106
▁Union	106
nal	106
▁Boy	106
▁measured	106
▁Finally	106
▁pushing	106
▁disc	106
▁globe	106
▁unexpected	106
▁br	106
▁conclude	105
▁critic	105
▁emergency	105
▁hyper	105
▁cable	105
▁instruments	105
▁judgment	105
▁Martin	105
▁Get	105
▁floating	105
pping	105
▁medication	105
▁piano	105
▁careful	105
▁regime	105
▁implications	105
▁privilege	105
▁represented	105
▁defend	105
gin	105
▁males	105
▁transformed	105
xi	105
▁edit	105
▁log	105
▁grateful	104
▁White	104
read	104
▁defense	104
▁January	104
Yeah	104
▁arguments	104
▁carried	104
verse	104
▁diver	104
▁measuring	104
▁clue	104
▁genius	104
▁frankly	104
▁correspond	104
▁truck	104
▁library	104
▁creature	104
▁compound	104
called	104
▁monkey	104
aster	104
▁Star	104
▁trace	104
▁ignore	104
▁minister	104
▁disorder	104
view	103
aking	103
▁Ge	103
part	103
▁pace	103
ink	103
▁Please	103
▁absorb	103
Sahara	103
▁tune	103
▁Was	103
▁automatically	103
▁thumb	103
hood	103
▁traveled	103
▁shell	103
▁regret	103
▁neither	103
▁session	103
▁lion	103
▁savings	103
▁crucial	103
class	103
▁behavioral	103
▁dramatically	103
▁presented	102
▁Sch	102
▁dig	102
▁overcome	102
▁flowers	102
org	102
▁increases	102
▁precisely	102
▁Pe	102
gh	102
▁Black	102
▁courage	102
▁footprint	102
▁Pat	102
▁anger	102
▁distributed	102
▁dancing	102
▁painful	102
▁drinking	102
▁geo	102
▁conventional	102
▁dozen	102
▁slum	102
▁vital	102
stream	102
▁salt	102
▁lock	102
▁silent	102
▁shall	102
▁spreading	102
▁sweat	102
rick	101
▁portrait	101
▁reduction	101
▁shelter	101
ago	101
▁preserve	101
▁architects	101
▁laser	101
▁Greek	101
▁alter	101
▁Min	101
▁identical	101
▁windows	101
▁diverse	101
▁tired	101
▁achieved	101
▁recognition	101
▁engagement	101
▁Korea	101
▁hunger	101
▁strike	101
▁linked	101
▁column	100
▁liver	100
some	100
▁obsessed	100
▁Lu	100
iness	100
▁placed	100
▁heaven	100
▁Sweden	100
▁rescue	100
▁Ghana	100
level	100
▁whale	100
▁Gulf	100
My	100
▁senior	100
▁committed	100
▁consume	100
▁ticket	100
▁performing	100
▁comic	100
▁proportion	100
▁acts	100
▁agenda	100
▁activate	100
▁pollen	100
▁dust	100
▁drove	100
▁gather	100
▁suspect	100
▁objective	100
▁elite	100
▁illustrate	99
▁lung	99
▁Cor	99
▁personality	99
▁colony	99
▁methods	99
▁Lab	99
gging	99
▁empower	99
▁reserve	99
▁immune	99
▁classic	99
▁mate	99
▁Voice	99
ional	99
▁brothers	99
▁efforts	99
▁gray	99
▁implant	99
▁shooting	99
▁enemy	99
▁melt	99
▁colleague	99
▁connecting	99
▁clouds	99
▁verb	99
▁consistent	99
▁Gene	98
▁vaccines	98
▁removed	98
▁poorest	98
▁pregnant	98
▁mainly	98
▁philosopher	98
▁philosophy	98
▁knock	98
▁brave	98
▁units	98
▁lake	98
▁mentor	98
ggle	98
▁Central	98
▁universities	98
▁boss	98
▁exploring	98
▁scary	98
▁Space	98
▁entered	98
▁River	98
▁spin	98
▁golf	98
▁brief	98
▁chocolate	98
Okay	98
▁Ed	98
▁disorders	98
▁household	97
ean	97
tech	97
▁interactive	97
▁Ah	97
▁accepted	97
▁stack	97
▁leap	97
▁thrown	97
▁electron	97
▁suicide	97
▁mystery	97
▁Microsoft	97
▁Never	97
▁recommend	97
▁mammals	97
flu	97
▁Foundation	97
▁earthquake	97
▁appeared	97
▁directions	97
▁missed	97
▁Give	97
▁polio	97
▁Dur	97
▁insurance	97
▁hip	97
▁meetings	96
▁external	96
▁romantic	96
▁till	96
▁Africans	96
▁coin	96
▁Bush	96
▁properly	96
▁asteroid	96
▁interactions	96
▁adventure	96
▁cheaper	96
▁strategies	96
law	96
▁muscles	96
▁controlling	96
▁Higgs	96
▁cute	96
▁Bur	96
▁shake	96
▁indicate	96
▁rising	96
ibility	96
▁monkeys	96
▁Nations	96
▁gate	96
▁globally	96
▁spinal	96
▁magnetic	96
▁recruit	96
▁blame	96
▁tasks	96
▁citizen	96
▁Pole	96
▁cash	95
▁pray	95
▁plug	95
▁frog	95
▁guarantee	95
▁interacting	95
▁component	95
But	95
▁prices	95
▁appears	95
▁miracle	95
rum	95
▁lit	95
▁Ethiopia	95
▁debt	95
▁nano	95
▁divided	95
▁darkness	95
▁demonstrate	95
▁tele	95
▁aside	95
bro	95
▁consumers	95
▁Manhattan	95
▁appeal	95
▁pretend	95
▁Peter	95
▁tries	95
▁vegetable	95
▁facial	95
▁embedded	95
▁crying	95
▁optimistic	95
ix	95
take	94
▁High	94
▁mega	94
century	94
▁neighborhoods	94
▁wrap	94
▁Next	94
▁quit	94
▁involves	94
▁hungry	94
▁isolated	94
▁practices	94
▁grave	94
▁collecting	94
▁Russian	94
▁ceiling	94
ush	94
▁heroes	94
▁rot	94
▁flo	94
▁sales	94
▁simulation	94
▁imagined	94
▁plenty	94
face	94
py	94
▁productivity	94
▁captured	94
▁tower	94
▁volunteers	94
▁raising	94
ett	94
▁tuna	94
▁Haiti	94
▁wise	94
▁worm	94
▁federal	94
▁request	94
▁Super	94
▁partnership	94
▁mail	94
▁stations	94
▁Mac	93
▁International	93
Let	93
▁virtually	93
▁representation	93
▁district	93
▁procedure	93
▁tri	93
▁domain	93
▁regulation	93
▁seeds	93
▁lovely	93
▁liberal	93
▁donor	93
▁concepts	93
▁stroke	93
▁dial	93
▁slides	93
▁rhythm	93
▁description	93
cher	93
▁Jack	93
itch	93
▁paintings	93
▁hardware	93
▁resolution	93
▁demographic	93
▁recognized	93
▁Islamic	93
▁reaching	93
▁penguins	93
▁corals	93
▁van	93
▁printer	93
▁electro	93
▁wage	93
▁passenger	93
▁banks	93
▁rebuild	92
▁attached	92
▁fascinated	92
▁apparently	92
▁skull	92
▁Department	92
▁antibiotics	92
▁herself	92
▁corn	92
ene	92
▁Indeed	92
grade	92
▁orange	92
▁distant	92
▁Six	92
▁oldest	92
▁airport	92
▁collaborat	92
▁density	92
▁adjust	92
own	92
Don	92
active	92
▁elephant	92
▁searching	92
arian	92
war	92
▁Revolution	92
▁curiosity	92
▁elsewhere	92
▁scratch	92
▁candidate	92
▁tricks	92
▁stake	92
▁whi	92
▁killer	92
▁rap	92
stone	92
dom	91
▁bulb	91
▁sandwich	91
▁writer	91
▁Bay	91
▁medi	91
▁rough	91
▁scar	91
▁mushroom	91
▁Law	91
▁accessible	91
▁Inter	91
▁Texas	91
▁furniture	91
▁reported	91
▁ban	91
▁bend	91
▁usual	91
▁borrow	91
▁leak	91
▁label	91
▁chest	91
▁package	91
▁Bang	91
▁Stanford	90
▁laughing	90
▁Nothing	90
zo	90
▁dignity	90
dollar	90
▁dirty	90
plan	90
▁opposed	90
▁brown	90
▁crops	90
▁cart	90
▁pushed	90
▁historical	90
▁hire	90
vor	90
▁fulfill	90
▁ethical	90
play	90
▁Rwanda	90
awa	90
▁Grand	90
▁obesity	90
▁breaking	90
▁mutation	90
▁wings	90
▁incentives	90
▁Part	90
▁recovery	90
▁locked	90
▁latest	90
▁cop	90
▁spectacular	90
▁craft	89
▁pursue	89
place	89
▁dioxide	89
▁bother	89
▁gesture	89
▁Pol	89
▁expectations	89
oe	89
▁Nobel	89
▁textbook	89
▁psycho	89
▁dedicated	89
▁bra	89
▁pie	89
▁volunteer	89
rie	89
erial	89
lop	89
▁parties	89
▁Hy	89
▁subtle	89
▁frozen	89
▁arch	89
▁Fe	89
▁weapon	89
▁headline	89
▁Hollywood	89
gal	89
▁skeleton	89
▁visited	89
▁Atlantic	89
▁beliefs	89
▁protecting	89
▁rent	88
▁arrive	88
▁Rio	88
▁concert	88
▁dump	88
▁ridiculous	88
▁upset	88
maker	88
▁kilo	88
▁entertainment	88
▁Really	88
tail	88
▁norm	88
▁extinct	88
▁demonstration	88
▁Mark	88
▁chief	88
▁delivered	88
▁magical	88
▁fi	88
▁generated	88
lash	88
▁capita	88
▁Congo	88
▁Ke	88
▁disgust	88
▁fifth	88
▁confident	88
hoo	88
▁spill	88
racy	88
▁Woman	88
▁surveillance	88
▁conservative	88
▁Pre	87
ending	87
▁intuitive	87
▁icon	87
▁realm	87
▁charity	87
▁uncomfortable	87
▁axis	87
▁coat	87
▁replicate	87
▁Far	87
▁orchestra	87
▁settle	87
▁announced	87
free	87
▁legacy	87
atory	87
▁William	87
▁transparent	87
▁underground	87
tories	87
▁particle	87
▁cor	87
▁surely	87
▁exposed	87
▁Olympic	87
▁establish	87
▁Tri	87
▁mold	87
▁affordable	87
▁pink	87
▁Pan	87
▁meter	87
▁pyramid	87
▁Muslims	87
▁cousin	87
▁disappeared	87
▁transparency	87
▁initiative	87
▁mimic	87
▁layers	87
uk	87
▁mono	87
▁diabetes	87
▁yield	87
cker	86
rap	86
▁editor	86
▁refugees	86
▁dolphins	86
▁Bob	86
▁drawn	86
▁General	86
q	86
▁ugly	86
▁programming	86
▁Cu	86
▁experimental	86
▁tears	86
▁spark	86
▁poison	86
▁calculate	86
can	86
▁calculation	86
▁sketch	86
▁Age	86
▁dominant	86
▁restore	86
▁nurse	86
▁chaos	86
▁drivers	86
▁investing	86
▁focusing	86
▁DH	86
▁proper	86
▁gu	85
▁pur	85
▁essence	85
▁pipe	85
▁inventor	85
▁inspiring	85
▁governance	85
▁refugee	85
▁football	85
▁Kar	85
▁freak	85
▁spoken	85
dor	85
▁interpret	85
▁tied	85
dia	85
▁margin	85
bble	85
▁neuroscience	85
▁Par	85
▁backwards	85
▁combat	85
▁Turn	85
▁Bra	85
▁Wall	85
▁integrated	85
▁tragedy	85
▁printed	85
▁Research	85
▁compar	85
▁boundaries	85
▁chosen	85
▁reconstruct	85
▁acknowledge	85
▁initial	85
▁ensure	85
▁contains	85
▁profile	85
lla	85
▁actors	85
▁Ya	85
▁Make	85
▁achievement	85
▁alarm	84
▁addict	84
▁delight	84
ica	84
▁enhance	84
▁communications	84
▁Tell	84
▁decrease	84
▁amongst	84
▁fool	84
▁granted	84
▁lungs	84
▁surrounding	84
▁clients	84
▁cooperation	84
▁naked	84
▁ingredients	84
▁neck	84
▁terrorist	84
▁leverage	84
▁array	84
ade	84
rid	84
▁Ocean	84
▁sheep	84
▁northern	84
▁projection	84
▁fortune	84
hr	84
▁helicopter	84
▁dish	84
▁Smith	84
▁lamp	84
▁intuition	84
▁resolve	84
▁uncle	84
▁hat	84
put	84
▁Back	84
▁rapid	83
▁trends	83
▁tackle	83
▁breakthrough	83
▁instinct	83
ality	83
▁Jewish	83
▁Ko	83
▁hanging	83
▁kiss	83
▁served	83
▁struggling	83
▁accelerate	83
▁shore	83
▁stable	83
▁output	83
▁rainforest	83
ties	83
syn	83
▁tent	83
▁jet	83
▁picking	83
▁synthetic	83
fold	83
▁October	83
▁discoveries	83
▁Narrator	83
▁theories	83
run	83
ya	83
▁transmit	83
▁diagnosed	83
▁Antarctica	83
▁survivor	83
▁confront	83
▁regard	83
▁pit	83
▁richer	83
▁fur	83
▁Things	83
▁characteristics	83
▁simplicity	83
▁bound	82
▁pointed	82
▁lawyer	82
ching	82
MA	82
▁smooth	82
ifying	82
▁analyze	82
▁sharp	82
▁Uganda	82
▁ethnic	82
▁mechanisms	82
▁Nor	82
▁dear	82
▁plain	82
▁additional	82
▁commit	82
▁tragic	82
changing	82
▁bow	82
▁bump	82
▁passing	82
ole	82
▁identified	82
▁participation	82
▁aircraft	82
▁nurses	82
▁gear	82
▁neuron	82
▁failing	82
▁reduced	82
▁neural	82
▁farmer	82
▁landed	82
▁victim	82
▁concentration	82
▁returned	82
▁relations	82
▁mechanics	82
▁coach	82
▁x	82
▁agencies	82
▁hum	82
▁educated	82
▁anxiety	82
▁east	81
▁Mother	81
▁Te	81
▁explode	81
▁consequence	81
▁Bible	81
▁iron	81
▁relax	81
▁roots	81
▁twist	81
eur	81
▁highlight	81
gle	81
▁sensory	81
▁gases	81
▁bull	81
▁attractive	81
uous	81
▁probability	81
▁participants	81
▁Joe	81
▁touched	81
▁pat	81
▁dozens	81
▁recipe	81
▁autonomous	81
▁twin	81
So	81
▁dependent	81
▁suggesting	81
▁advertising	81
ambi	81
▁strangers	81
▁assumptions	81
▁contribution	81
▁whistle	81
pan	80
▁capability	80
▁lighting	80
▁tick	80
▁punch	80
▁highway	80
▁informed	80
▁afterwards	80
▁manipulate	80
▁painted	80
▁shrimp	80
▁chimpanzees	80
load	80
▁Ver	80
▁toys	80
berg	80
▁reputation	80
▁links	80
▁symmetry	80
▁agricultural	80
▁mood	80
▁routine	80
ural	80
▁convey	80
▁proof	80
hether	80
▁circles	80
▁wipe	80
▁comparison	80
▁rope	80
▁sisters	80
▁dynamics	80
city	80
rat	80
▁confirm	80
▁electronics	80
▁extinction	80
▁navigate	80
▁broadcast	80
▁winner	80
door	80
▁agency	80
▁terrorists	80
▁speaker	80
▁reefs	80
▁civic	80
▁None	80
▁irre	80
▁discuss	80
▁southern	80
▁queen	80
▁Alzheimer	80
▁musicians	80
▁laughter	80
ographic	80
▁slavery	80
▁tension	79
▁Bl	79
▁MRI	79
▁elephants	79
▁smoking	79
▁seats	79
▁Soviet	79
▁linear	79
▁biologists	79
▁merely	79
▁luck	79
▁flexible	79
unk	79
lies	79
▁Third	79
▁laid	79
▁resist	79
▁persist	79
▁permission	79
▁tunnel	79
▁spell	79
▁artistic	79
▁marker	79
▁Rob	79
▁separated	79
blo	79
▁sacred	79
▁alcohol	79
▁biodiversity	79
▁Pen	79
▁explosion	79
▁insist	79
▁opera	79
▁tear	79
▁tribes	79
▁briefly	79
▁substance	79
▁dose	79
▁Egyptian	79
▁relation	79
▁crossing	79
yl	79
▁baseball	79
▁rating	79
▁boil	78
▁injury	78
▁branch	78
▁disagree	78
▁bath	78
▁expanding	78
▁Italy	78
▁ignorance	78
bon	78
bed	78
pper	78
▁symbols	78
▁Arch	78
▁Chi	78
▁reminded	78
▁bullet	78
▁photography	78
▁Child	78
▁actor	78
▁soap	78
unclear	78
▁slice	78
▁happier	78
▁ecosystems	78
▁facility	78
▁sensation	78
▁fee	78
There	78
▁Blue	78
▁algae	78
▁funded	78
▁edges	78
▁mini	78
lish	78
▁grandchildren	78
▁glacier	78
▁publish	77
▁neat	77
ino	77
▁supported	77
▁Up	77
third	77
▁fraction	77
▁consist	77
▁robust	77
▁collaborative	77
▁begun	77
word	77
▁fed	77
▁fragment	77
▁origami	77
▁Nature	77
▁occasion	77
▁suggested	77
▁Hey	77
▁Long	77
▁pulling	77
away	77
▁journal	77
▁determined	77
▁Shi	77
▁warning	77
▁sink	77
▁anonymous	77
▁speakers	77
▁bin	77
▁trauma	77
▁elections	77
▁tweet	77
▁pandemic	77
▁lane	77
▁employ	77
ndi	77
▁passwords	77
▁Obviously	76
▁govern	76
▁Florida	76
▁Oxford	76
▁shopping	76
▁depressed	76
▁quo	76
▁profession	76
ening	76
▁significantly	76
▁Prize	76
▁fought	76
▁sin	76
▁portion	76
▁pad	76
▁extended	76
▁pioneer	76
▁pause	76
▁documents	76
▁Tra	76
▁transmission	76
▁exploit	76
▁bathroom	76
▁aesthetic	76
power	76
▁inevitable	76
▁safer	76
▁installation	76
▁construct	76
▁Design	76
▁Eastern	76
uthern	76
▁Israeli	76
▁glad	76
▁dinosaur	76
ball	76
▁originally	76
▁agreement	76
▁abilities	76
▁invested	76
▁urge	76
clock	76
▁astonishing	76
▁inject	76
▁radically	76
▁format	76
▁pathway	76
roll	76
rated	76
▁Time	76
▁observe	76
▁predictions	76
▁excuse	76
▁marry	76
▁fastest	76
▁immediate	75
▁interestingly	75
▁constructed	75
osi	75
▁chromosome	75
▁includes	75
finite	75
▁buried	75
▁dialogue	75
▁pole	75
▁export	75
▁strand	75
related	75
▁neutral	75
▁ratio	75
▁garage	75
▁flee	75
▁globalization	75
▁dimension	75
▁frequency	75
▁crystal	75
iest	75
▁structural	75
▁predicted	75
▁sensor	75
▁mask	75
rry	75
▁joint	75
hold	75
▁variable	75
▁magnet	75
▁smarter	75
ancy	75
▁translation	75
▁anticipate	75
▁nutrition	75
zi	75
▁reactor	75
▁teenagers	75
▁Wa	75
▁rarely	75
▁prisoners	75
▁arise	74
▁wheelchair	74
▁connectivity	74
ets	74
▁December	74
▁implement	74
Wow	74
▁unlikely	74
atter	74
▁shaped	74
▁adopt	74
▁render	74
▁gathering	74
▁panels	74
▁throwing	74
▁Spanish	74
burg	74
▁sacrifice	74
▁KB	74
oon	74
▁sleeping	74
▁category	74
▁figuring	74
▁expedition	74
▁proposed	74
▁computation	74
▁soldier	74
▁translated	74
▁underlying	74
▁eliminate	74
▁Children	74
▁lawyers	74
▁vacuum	74
▁quad	74
▁vagina	74
▁entering	74
▁smartphone	74
▁peaceful	74
Where	74
ville	73
▁drift	73
▁sauce	73
▁attribute	73
▁sew	73
▁experiencing	73
▁witness	73
▁competitive	73
iff	73
▁programmer	73
▁insect	73
▁forgotten	73
▁poly	73
▁signature	73
▁reject	73
▁fabulous	73
▁impression	73
▁reef	73
▁purchase	73
▁simulate	73
▁caring	73
▁Gates	73
▁imaging	73
▁expansion	73
▁answered	73
▁gam	73
made	73
▁Through	73
▁shocked	73
▁Out	73
▁included	73
ken	73
Can	73
▁Girl	73
▁mysterious	73
ueen	73
▁smallpox	73
▁kidney	73
aging	73
▁widely	73
▁wing	73
▁operations	73
▁formula	73
▁helpful	73
▁dictionary	73
▁keyboard	73
▁chips	73
▁intersection	73
▁unbelievable	73
▁arrested	73
▁Put	72
gua	72
▁assignment	72
▁immense	72
▁mixed	72
lev	72
▁slave	72
▁strongly	72
▁Cal	72
▁fragile	72
When	72
▁cliff	72
▁Home	72
▁campus	72
▁infant	72
▁reinvent	72
▁Pri	72
▁wired	72
▁passive	72
not	72
▁shrink	72
▁rabbi	72
▁primitive	72
▁native	72
▁vent	72
▁industries	72
▁difficulty	72
▁explaining	72
▁dancer	72
print	72
▁Mom	72
▁tribe	72
generating	72
▁via	72
▁kit	72
▁mindset	72
▁involve	72
▁hack	72
▁precise	72
▁burned	72
▁frustrated	72
▁burst	72
human	72
▁investors	72
een	72
▁partly	71
▁trucks	71
▁rotate	71
▁Hill	71
▁silly	71
▁Turkey	71
▁Men	71
▁bite	71
▁elected	71
▁manual	71
▁copyright	71
▁founded	71
▁shout	71
▁colonies	71
▁woke	71
▁imagery	71
▁Norway	71
▁August	71
▁Arabic	71
▁choosing	71
▁hackers	71
assembly	71
▁slip	71
▁Yorker	71
▁terror	71
▁nonprofit	71
▁approaches	71
bel	71
▁Rome	71
▁pose	70
▁screw	70
▁confused	70
▁tar	70
▁writers	70
▁Italian	70
▁qualities	70
▁covering	70
▁crew	70
▁forming	70
He	70
▁gods	70
▁initially	70
▁pride	70
wo	70
▁arrow	70
▁shine	70
▁ecological	70
▁leaf	70
▁aggressive	70
▁Cambridge	70
▁inches	70
▁float	70
▁February	70
▁surprisingly	70
▁climbing	70
▁annual	70
▁damn	70
▁analog	70
▁mall	70
new	70
▁threshold	70
▁spray	70
▁egg	70
▁adopted	70
book	70
▁bake	69
▁cheese	69
▁Sunday	69
▁Gen	69
▁healthier	69
▁lean	69
▁prior	69
▁Video	69
half	69
▁Should	69
mus	69
▁Wow	69
▁suggestion	69
▁bored	69
star	69
▁gradually	69
▁condom	69
▁Jesus	69
▁drought	69
▁ethic	69
▁logical	69
▁closing	69
▁valley	69
▁Brown	69
▁compelling	69
▁jumped	69
▁Asian	69
▁scanner	69
▁Square	69
▁marketplace	69
▁formal	69
▁Somebody	69
ati	69
▁pharmaceutical	69
▁distinct	69
▁nutrients	69
▁interpretation	69
▁TEDTalk	69
▁rice	69
Be	69
▁innocent	69
▁Seven	69
ility	69
▁selfish	69
zero	69
▁hitting	69
under	69
▁drag	69
ash	69
▁upside	69
▁exhibit	69
▁pulse	69
▁fortunate	69
▁hypothesis	69
▁oxytocin	69
▁Fo	69
▁beetle	69
▁Medic	69
▁supporting	69
▁elderly	69
▁perceived	69
▁chat	69
▁Court	69
▁reproduce	68
ark	68
▁mayor	68
▁whatsoever	68
▁Republican	68
▁garbage	68
▁advocate	68
▁inform	68
▁Mor	68
▁suffered	68
▁bang	68
▁ruin	68
▁Mill	68
▁bizarre	68
▁gli	68
▁instant	68
▁pigeon	68
▁socially	68
▁microbial	68
▁viewer	68
▁footage	68
▁grasp	68
▁profoundly	68
▁improving	68
▁Northern	68
▁wealthy	68
▁disconnect	68
▁serving	68
▁crush	68
▁Mountain	68
▁authorities	68
▁methane	68
▁nuts	68
▁dolphin	68
▁successfully	68
▁supermarket	68
▁diploma	68
▁reducing	68
▁survived	68
▁mining	68
▁emit	68
▁stranger	68
▁panel	68
▁fate	68
▁optimism	68
▁Without	68
▁Tim	68
▁drum	68
▁honey	68
engineer	68
▁trajectory	68
▁fraud	68
▁audio	68
▁institutional	67
▁automobile	67
▁representative	67
▁bucks	67
▁appearance	67
▁tendency	67
▁barrel	67
▁quest	67
▁duck	67
▁brutal	67
▁epi	67
▁binary	67
▁incident	67
▁emerged	67
digit	67
heart	67
▁propose	67
▁detector	67
▁cake	67
▁resilience	67
▁interviewed	67
▁staying	67
ette	67
▁silver	67
▁compromise	67
▁instructions	67
▁overwhelming	67
▁extension	67
▁register	67
▁capabilities	67
▁architectural	67
▁burden	67
▁weekend	67
▁Port	67
▁genocide	67
▁LED	67
▁perceive	67
▁rank	67
▁improved	67
▁curriculum	67
CA	67
▁excitement	67
▁clay	66
▁intended	66
▁trash	66
▁exponential	66
▁reasonable	66
point	66
▁parasite	66
▁Bell	66
▁crawl	66
▁primarily	66
▁enterprise	66
▁metric	66
▁endless	66
RB	66
person	66
▁besides	66
don	66
▁instantly	66
▁Love	66
▁paralyzed	66
▁Arctic	66
▁Chile	66
▁detailed	66
▁hydro	66
ote	66
▁clothing	66
angle	66
▁paradox	66
▁expertise	66
fire	66
▁mineral	66
▁triangle	66
▁dumb	66
▁minimum	66
▁Secondly	66
▁sport	66
▁wider	66
▁regulate	66
▁antenna	66
▁unable	66
▁prepare	66
▁Play	66
Wait	66
▁Pop	66
▁exam	66
▁Pu	66
▁horizon	66
▁Lego	66
▁farming	66
▁beautifully	66
▁goat	66
▁Moore	65
▁subway	65
itz	65
vy	65
▁select	65
▁factories	65
▁distinguish	65
▁expecting	65
chu	65
AR	65
▁rose	65
▁AB	65
▁hired	65
▁Titan	65
▁creator	65
▁ownership	65
▁winning	65
▁remembered	65
▁blend	65
▁hemisphere	65
▁completed	65
▁remained	65
▁classical	65
▁Hall	65
▁valid	65
potent	65
▁coordinate	65
rian	65
▁prediction	65
▁Ab	65
▁gentleman	65
▁Bangladesh	65
▁generous	65
▁rape	65
▁rob	65
▁unconscious	65
▁compassionate	65
▁palm	65
▁corporations	65
▁assets	65
▁educate	65
▁steppe	65
wood	65
▁spi	65
▁tongue	65
lay	65
▁March	65
▁badly	65
▁Church	65
▁bind	65
▁detection	65
▁primate	65
▁homeless	65
▁formation	64
▁items	64
▁precious	64
▁luxury	64
▁humanitarian	64
▁realizing	64
▁facilities	64
Listen	64
▁server	64
▁listened	64
cost	64
▁bribe	64
▁simultaneously	64
OK	64
▁strategic	64
holder	64
▁manner	64
▁Silicon	64
▁safely	64
▁Sal	64
▁delivery	64
▁golden	64
▁hardest	64
▁conducted	64
▁homework	64
▁devil	64
▁collectively	64
▁challenged	64
ji	64
▁influenced	64
▁striking	64
▁genetically	64
▁approaching	64
▁microphone	64
▁located	64
▁disability	64
▁mal	64
▁openness	64
▁prosperity	64
cade	63
▁sculpt	63
▁gallon	63
▁Beijing	63
▁remaining	63
▁unfold	63
▁aspiration	63
▁Brazilian	63
▁unprecedented	63
▁mathematicians	63
interest	63
▁snake	63
▁forgot	63
▁forgive	63
▁stunt	63
▁Dad	63
▁musician	63
▁Sure	63
known	63
▁wedding	63
▁Albert	63
▁Matt	63
▁interior	63
▁chamber	63
▁Until	63
▁Saturn	63
▁Although	63
▁Trans	63
ealand	63
▁wildlife	63
▁flaw	63
▁accumulate	63
▁blank	63
▁bold	63
▁soup	63
▁fence	63
▁specialist	63
▁hunting	63
▁intimate	63
▁Gold	63
▁washing	63
▁friendship	63
▁App	63
▁nearby	63
Who	63
▁vaccinat	63
▁threatened	63
▁Both	63
▁Steven	63
ime	63
▁compress	63
▁friendly	63
▁July	63
four	63
▁armed	63
wind	63
▁impressive	63
▁exposure	63
▁vulnerability	63
▁dating	63
▁torture	63
▁FBI	63
▁beaten	63
▁shirt	63
▁surround	62
▁continuous	62
▁Open	62
▁install	62
▁theoretical	62
▁uniform	62
▁recall	62
▁crop	62
▁NGOs	62
oh	62
minute	62
▁morality	62
▁pun	62
▁Gore	62
▁magnitude	62
efficient	62
▁encouraged	62
▁camel	62
▁beam	62
▁Char	62
▁defeat	62
▁Walk	62
▁gathered	62
▁logo	62
▁membrane	62
▁mild	62
▁terribly	62
▁beneath	62
▁photographed	62
▁someday	62
▁diamond	62
▁elegant	62
flow	62
▁fancy	62
▁cotton	62
▁shit	62
▁panic	62
▁upload	62
▁Iranian	62
▁sponsor	62
▁contemporary	62
▁Taliban	62
▁retire	62
▁diagnosis	62
▁Spain	62
▁uncertainty	62
▁headed	62
▁workforce	62
▁matrix	62
▁Friday	62
▁mobility	62
▁Mike	62
▁astronomer	62
▁kingdom	62
▁chronic	62
worth	62
▁tight	62
▁awkward	62
▁dung	62
▁visualize	62
▁jar	62
▁Derek	62
▁closest	62
▁Eric	62
▁expectancy	62
▁analogy	61
lick	61
▁substantial	61
▁watt	61
▁crap	61
▁harness	61
▁relie	61
▁workplace	61
▁pond	61
▁Ebola	61
▁awake	61
▁acoustic	61
▁trap	61
▁mutual	61
▁rubber	61
▁established	61
▁graduated	61
uate	61
▁assistance	61
▁reflection	61
▁hunter	61
▁hunt	61
▁cruel	61
wandering	61
▁client	61
▁categories	61
▁investigate	61
▁cigarette	61
▁researcher	61
▁teenager	61
▁traits	61
▁rolling	61
▁ego	61
▁glasses	61
▁girlfriend	61
▁despair	61
▁Sorry	61
▁limitations	61
▁restrict	61
▁beating	61
▁civilian	61
▁proposition	61
▁Palestinian	61
▁glamorous	61
▁collision	61
▁dare	61
LT	61
Re	61
▁enforcement	61
▁viral	61
▁reliable	61
▁hiding	61
▁MT	61
▁chase	61
▁Ray	61
▁yourselves	60
▁inherit	60
▁estate	60
clusive	60
▁commission	60
▁CD	60
▁cosmic	60
▁makers	60
▁mapping	60
▁static	60
▁Ladies	60
▁entry	60
▁Council	60
▁Minister	60
▁chop	60
scribe	60
▁amateur	60
▁Tanzania	60
▁motivate	60
▁dawn	60
▁Sir	60
▁Ken	60
▁align	60
▁Alexander	60
▁stimulate	60
▁tsunami	60
▁terrifying	60
▁proved	60
▁bush	60
▁administration	60
▁loose	60
▁conc	60
▁ongoing	60
▁calm	60
▁Win	60
▁patch	60
▁voting	60
▁Gandhi	60
▁dilemma	60
▁archive	60
▁shipping	60
▁entrepreneur	60
▁venture	60
▁deforestation	60
▁Saudi	60
▁desperately	60
thermal	60
▁obstacles	60
▁Bronx	60
▁update	60
▁rethink	59
▁continuing	59
▁Howard	59
▁mud	59
▁refine	59
▁span	59
▁pound	59
▁pedestrian	59
expl	59
space	59
chasing	59
▁banana	59
▁brick	59
▁geek	59
▁redesign	59
▁succeeded	59
▁devote	59
▁Lake	59
▁fault	59
▁ignored	59
▁glue	59
▁Dutch	59
▁honestly	59
▁excellent	59
▁assign	59
▁storytelling	59
▁Nelson	59
nne	59
▁Moon	59
▁offering	59
▁miserable	59
▁steer	59
▁observed	59
▁proven	59
▁Afghan	59
▁genuine	59
▁occasionally	59
▁scheme	59
ogue	59
▁retirement	59
▁arrest	59
▁spike	59
▁assumption	59
▁confine	59
▁earliest	59
▁Homo	59
▁deck	59
▁stability	59
▁exclusive	59
▁grandparents	59
▁hug	59
▁exhaust	59
▁indigenous	59
▁insane	59
▁landing	59
▁currency	59
▁Henry	58
▁dopamine	58
▁downtown	58
▁Whereas	58
▁constraints	58
▁encouraging	58
▁sufficient	58
▁assure	58
▁upward	58
▁SS	58
▁motivated	58
▁performed	58
▁interconnected	58
▁economist	58
▁tale	58
▁Jeff	58
▁absence	58
▁fortunately	58
▁glow	58
position	58
▁temporary	58
▁germ	58
▁supplies	58
▁storage	58
▁Korean	58
▁Hello	58
▁residents	58
version	58
wan	58
▁iPod	58
▁destiny	58
▁manufacturer	58
▁customer	58
▁counting	58
▁leather	58
▁excess	58
▁frontier	58
▁Delhi	58
step	58
▁diagnostic	58
▁principal	58
▁bust	58
▁strain	58
▁fertilizer	58
oma	58
▁contrary	58
▁negotiate	58
▁previously	58
▁bowl	58
▁Indonesia	58
▁singer	58
▁dressed	58
▁overnight	58
▁tattoo	58
▁incentive	58
▁Almost	58
▁punish	58
break	58
▁interrupt	58
▁discovering	58
▁shower	58
▁Scott	58
▁Social	58
▁geometry	58
▁Newton	58
oney	57
▁approached	57
▁blah	57
▁seemingly	57
▁phenomena	57
▁historic	57
▁Vietnam	57
▁chimpanzee	57
▁synthesize	57
▁Mad	57
▁stomach	57
▁Media	57
▁Brian	57
▁corrupt	57
▁freely	57
▁gig	57
▁Twenty	57
▁executive	57
▁flowing	57
▁jam	57
▁Mandela	57
▁grip	57
▁authentic	57
▁endangered	57
self	57
▁canopy	57
▁nerd	57
▁Roman	57
▁angel	57
▁promised	57
▁altitude	57
▁phenomenal	57
▁cricket	57
▁flourish	57
▁estimated	57
▁legislation	57
▁straightforward	57
▁Shanghai	57
▁County	57
▁artwork	57
▁addiction	57
▁Army	57
▁Peace	57
▁receptor	57
▁admire	57
▁monitoring	57
▁ambitious	57
▁shifting	57
▁Johnson	56
▁rig	56
▁delay	56
▁persuade	56
▁seeking	56
▁Except	56
▁Anybody	56
▁freeze	56
▁lowest	56
▁sixth	56
▁collapsed	56
▁riot	56
▁composition	56
▁staring	56
▁territory	56
▁retreat	56
▁Santa	56
▁empowered	56
▁cue	56
▁filmmaker	56
▁AK	56
▁relief	56
▁parachute	56
▁chunk	56
town	56
▁virtue	56
▁suppress	56
▁proposal	56
uch	56
▁outbreak	56
▁Bio	56
▁sir	56
▁Professor	56
▁enabled	56
▁vessel	56
▁Neanderthal	56
▁raped	56
▁punishment	56
▁Koran	56
▁division	56
second	56
▁contributed	56
▁loving	56
▁backyard	56
▁manufacture	56
▁specialized	56
▁astronaut	56
▁millennia	56
gras	56
▁carpet	55
▁concentrated	55
▁cube	55
driven	55
▁texture	55
▁Technology	55
▁Suddenly	55
▁migrate	55
ali	55
▁Ch	55
▁receiving	55
storm	55
▁millimeter	55
▁preparing	55
▁elementary	55
▁grabb	55
▁hybrid	55
▁ironic	55
▁eaten	55
▁Year	55
▁Way	55
xic	55
▁conv	55
▁intensive	55
▁temple	55
▁Lord	55
fulness	55
lapping	55
▁container	55
▁Brother	55
▁semi	55
▁hated	55
▁chemist	55
aeda	55
▁blindness	55
▁branches	55
▁mammal	55
▁junk	55
▁fatal	55
▁Rand	55
▁Rather	55
▁Bruno	55
▁fusion	55
▁wrist	55
▁constrain	55
▁stopping	55
▁worrying	55
▁feminist	55
▁Whatever	55
▁Andrew	55
▁hub	55
▁foster	55
lia	55
▁employer	55
▁wheat	55
▁proceed	55
▁pursuit	55
▁replaced	55
▁aunt	55
▁cellular	55
▁magnificent	55
cast	55
▁extraordinar	55
▁visualization	55
▁Pal	55
▁Jane	55
▁Ron	55
▁horizontal	55
▁requirement	55
▁rip	54
▁cocaine	54
world	54
▁belt	54
▁recycling	54
body	54
▁readers	54
▁naive	54
▁mainstream	54
▁gained	54
▁bedroom	54
▁optical	54
▁regardless	54
▁Work	54
▁transcend	54
▁syndrome	54
▁negotiation	54
▁enemies	54
▁Seattle	54
▁minus	54
▁convenient	54
tropical	54
▁Carolina	54
▁potato	54
▁jellyfish	54
▁banking	54
▁lobby	54
▁pizza	54
▁realistic	54
▁Lincoln	54
▁College	54
▁spacecraft	54
▁distort	54
▁drew	54
▁canvas	54
▁taxes	54
▁Someone	54
▁lap	54
▁Brooklyn	54
Ha	54
▁breakfast	54
▁pipeline	54
▁Ireland	54
▁diving	54
▁Kh	54
▁politically	54
▁thread	54
▁sperm	54
▁devastating	54
▁arguing	54
▁satisfy	54
▁momentum	54
corn	54
▁prostate	54
▁entropy	54
▁occupy	54
▁password	54
▁terrified	54
▁electrodes	54
▁System	54
▁Jordan	54
▁strict	54
▁biologist	54
▁fallen	54
▁personalized	54
▁risky	54
▁segment	54
▁attacked	54
í	54
▁blink	54
▁November	54
▁smallest	54
▁ambition	54
how	54
▁steam	54
▁phantom	53
▁Little	53
▁publishing	53
▁Catholic	53
▁predictable	53
▁controversial	53
inal	53
▁prevention	53
▁workshop	53
shot	53
▁horror	53
▁spiral	53
▁Watch	53
▁counsel	53
▁unlock	53
▁cream	53
▁Government	53
powered	53
▁guilty	53
▁ecology	53
▁attach	53
▁Carl	53
▁Rock	53
▁Nick	53
▁breeding	53
▁pencil	53
▁transforming	53
▁Tony	53
▁diameter	53
▁ubiquitous	53
▁advise	53
▁brush	53
▁warrior	53
▁banker	53
▁asleep	53
▁selected	53
▁declare	53
▁candle	53
▁teenage	53
▁summit	53
▁onstage	53
▁monster	53
▁responded	53
▁crossed	53
▁describing	53
▁nodes	53
▁terrain	53
▁artifact	53
two	53
▁trivial	53
▁installed	53
▁Accord	53
▁Stone	53
▁deposit	53
▁Leonardo	53
▁swing	53
▁divorce	53
▁accuracy	53
▁advertise	53
▁packed	53
▁decent	53
▁empire	53
▁Coke	53
▁purple	53
▁sibling	53
▁chimp	53
▁sidewalk	53
▁Force	52
▁lonely	52
▁approximate	52
▁RS	52
▁halfway	52
▁migration	52
▁Nike	52
▁Str	52
▁communicating	52
▁realization	52
▁inevitably	52
▁stereotype	52
▁demonstrated	52
▁mentally	52
▁shelf	52
▁destination	52
▁frequently	52
▁emphasize	52
▁echo	52
▁harmful	52
▁Turk	52
▁Van	52
▁screaming	52
All	52
▁enjoyed	52
▁Cuba	52
▁tutor	52
▁sexy	52
▁processor	52
▁Redwood	52
▁regularly	52
▁contaminat	52
▁whisper	52
▁Hawaii	52
▁stored	52
income	52
▁unhappy	52
▁invade	52
▁Ear	52
▁revealed	52
▁utterly	52
▁veteran	52
▁jazz	52
▁abandoned	52
change	52
▁posted	52
▁enzyme	52
▁Anyone	52
▁schizophrenia	52
▁informal	52
▁innovate	52
▁association	52
▁champion	52
▁investigation	52
▁atomic	52
▁believing	52
▁jihad	52
▁slime	52
▁legitimate	52
▁evolving	52
▁messy	52
▁knife	52
▁disabled	52
▁catching	52
▁bounce	52
▁lifespan	52
▁eradicate	52
▁tiles	52
ounce	51
▁sake	51
▁diarrhea	51
▁spinning	51
▁correlation	51
▁fin	51
▁TEDster	51
▁smiling	51
ku	51
▁Switzerland	51
▁useless	51
▁Doctor	51
▁destroying	51
▁Together	51
▁drunk	51
▁boost	51
▁locally	51
▁correctly	51
▁prescription	51
kill	51
▁augment	51
▁priest	51
▁centimeter	51
▁embarrassing	51
▁Abraham	51
▁Telescope	51
▁amazingly	51
▁Op	51
▁consumed	51
▁shoe	51
field	51
▁cooperate	51
wise	51
▁wishes	51
▁Syria	51
▁consciously	51
▁Alex	51
▁tide	51
▁aggregate	51
generation	51
▁behalf	51
material	51
looking	51
▁vary	51
▁distinction	51
▁trapped	51
▁multiply	51
▁slight	51
▁amazed	51
▁probe	51
▁dirt	51
▁competing	51
▁guest	51
▁insert	51
▁welfare	51
▁tiger	51
▁Swiss	51
▁injured	51
▁rib	51
▁juice	51
▁MK	51
▁blown	50
▁Luc	50
▁Kevin	50
▁harbor	50
▁remarkably	50
Ma	50
▁Louis	50
▁approved	50
▁Mexican	50
▁stigma	50
▁slower	50
▁worthy	50
▁equity	50
▁calculated	50
wide	50
▁obtain	50
▁hierarchy	50
▁broader	50
▁Nigerian	50
ella	50
▁statistic	50
▁creep	50
▁teaches	50
▁Hong	50
▁Try	50
▁spine	50
▁deepest	50
▁shy	50
▁ultra	50
▁Industrial	50
▁Saturday	50
▁separation	50
▁vacation	50
▁Clinton	50
▁Amy	50
▁shocking	50
▁calories	50
▁Stage	50
▁surf	50
▁frustration	50
▁Organization	50
▁Berlin	50
▁squeeze	50
▁engineered	50
▁summarize	50
AIDS	50
rich	50
▁earning	50
▁Half	50
▁tolerance	50
▁SP	50
▁USA	50
▁episode	50
▁breed	50
▁transit	50
▁Detroit	50
▁accomplish	50
▁wrapped	50
▁realities	50
▁expanded	50
▁peculiar	50
▁Yemen	50
▁obese	50
▁drain	50
▁hacking	50
▁Jupiter	50
▁Coast	50
skeletal	50
scape	50
▁Indus	50
mediate	50
▁nowadays	50
▁priority	50
▁phosphorus	50
rious	49
▁historically	49
child	49
▁consent	49
▁expressed	49
▁snap	49
▁sanitation	49
▁deaf	49
▁Monterey	49
▁namely	49
▁Probably	49
▁retail	49
▁swallow	49
▁Atlanta	49
▁intrinsic	49
type	49
▁scholar	49
Man	49
▁Show	49
▁explorer	49
▁adapted	49
▁jaw	49
▁forbid	49
▁exotic	49
stick	49
▁kidding	49
▁reporting	49
▁PR	49
▁elevator	49
▁technically	49
▁machinery	49
style	49
▁digest	49
▁sale	49
▁Pretty	49
▁Daniel	49
▁remix	49
▁outdoor	49
▁convention	49
▁discrimination	49
▁integrate	49
▁impulse	49
▁consult	49
▁glucose	49
▁pirate	49
▁infectious	49
▁Australian	49
▁planetary	49
▁likelihood	49
▁Argentina	49
▁Singapore	49
▁Spring	49
▁cylinder	49
▁nitrogen	49
▁boundary	49
▁hint	49
▁therapist	49
▁intervene	49
▁Gabby	49
▁ceremony	49
▁wore	49
▁mesh	49
▁tire	49
▁gorgeous	49
▁mill	49
▁organizing	49
▁hometown	49
▁migrant	49
▁flavor	49
▁dropping	49
▁handful	49
▁SW	49
▁PMS	49
▁batteries	48
▁inhibit	48
▁Watson	48
▁corridor	48
▁default	48
▁stamp	48
▁resistant	48
▁cosmos	48
▁flame	48
▁sexually	48
▁Young	48
▁independence	48
▁Stephen	48
▁helpless	48
▁trailer	48
▁glimpse	48
▁modest	48
▁cubic	48
▁cockroach	48
itude	48
▁compute	48
▁intent	48
▁grant	48
▁randomly	48
▁mount	48
wash	48
▁Business	48
▁puppet	48
▁Shakespeare	48
▁Philip	48
▁Brad	48
▁introduction	48
▁dominated	48
▁descend	48
▁stolen	48
▁accomplished	48
▁protocell	48
▁contest	48
▁harmony	48
▁privileged	48
▁prisoner	48
▁lethal	48
▁zoo	48
shirt	48
▁offspring	48
▁doubled	48
▁cookie	48
▁utter	48
▁stereo	48
▁iconic	48
▁switched	48
▁fluorescent	48
▁timing	48
▁Feynman	48
▁translator	48
▁philosophical	48
▁Still	48
▁Aristotle	48
▁disrupt	48
▁geography	48
standing	48
nnie	48
▁assault	48
degree	48
▁Security	48
▁reflected	48
▁glamour	48
frame	48
▁insulin	48
▁marathon	48
▁Parkinson	48
▁heritage	48
▁psychopath	48
▁buses	47
▁therapies	47
lapse	47
bound	47
▁collaborate	47
▁import	47
▁overwhelmed	47
▁simpler	47
▁healing	47
▁laughed	47
count	47
▁documentary	47
▁Gar	47
▁invitation	47
▁overhead	47
▁simplest	47
▁hostile	47
▁endeavor	47
mile	47
▁expense	47
▁PC	47
▁scream	47
Absolutely	47
▁bleed	47
▁Society	47
▁transistor	47
▁Geographic	47
▁grace	47
▁frightening	47
▁thrilled	47
vascular	47
▁deployed	47
▁envelope	47
▁examine	47
phone	47
▁rode	47
▁lifted	47
▁Jones	47
▁tan	47
voluntary	47
▁schedule	47
▁nightmare	47
▁Iceland	47
▁philanthropy	47
á	47
▁cope	47
▁flesh	47
▁threaten	47
Go	47
▁abundance	47
▁preference	47
▁thrive	47
profit	47
▁bamboo	47
▁convicted	47
▁Ram	47
▁trading	47
▁typing	47
ER	47
▁DVD	47
▁prospect	47
▁contradiction	47
▁neuroscientist	47
▁April	47
▁IBM	47
▁denial	47
▁sneak	47
▁evaluat	47
▁execution	47
▁warmer	47
▁labeled	47
▁macro	47
▁operator	47
▁mankind	47
▁warehouse	47
touch	47
▁dough	47
▁vibration	47
▁Supreme	47
▁lawn	47
▁Say	46
▁Rick	46
▁owe	46
▁reache	46
▁subjective	46
▁impos	46
▁recycled	46
▁spare	46
▁instruction	46
▁vocal	46
▁Civil	46
cause	46
▁whoever	46
▁argued	46
▁maneuver	46
▁prey	46
Here	46
▁belly	46
▁album	46
▁kicked	46
▁scanning	46
proof	46
▁basketball	46
▁hopeless	46
▁happily	46
▁reinforce	46
▁coverage	46
iction	46
oop	46
▁discussing	46
▁deploy	46
▁volcano	46
▁staircase	46
▁thus	46
five	46
▁consensus	46
▁History	46
▁actively	46
▁rub	46
▁Copenhagen	46
▁mum	46
▁scaffold	46
▁computational	46
found	46
▁deadly	46
▁triple	46
▁blob	46
▁prayer	46
▁synap	46
▁refused	46
▁youngest	46
▁adolescent	46
▁minor	46
▁strap	46
▁preach	46
▁adaptation	46
month	46
▁smash	46
▁pants	46
▁coordination	46
▁irrational	46
▁scaling	46
▁imagining	46
▁vivid	46
night	46
eval	46
▁delicious	46
▁contributing	45
▁swarm	45
▁intensity	45
▁forecast	45
▁gross	45
▁defining	45
▁journalism	45
▁immortal	45
▁prim	45
▁sequencing	45
▁refuse	45
▁blade	45
▁vice	45
▁arrangement	45
▁Kong	45
▁blast	45
▁managing	45
▁mathematician	45
▁entertain	45
▁inflation	45
▁distract	45
▁converge	45
▁eastern	45
▁steep	45
▁fluctuat	45
▁losses	45
▁occurring	45
▁comedy	45
▁tempo	45
▁fade	45
▁inmates	45
▁conceptual	45
▁Music	45
▁hopeful	45
▁cheer	45
▁merit	45
▁sweep	45
▁Trade	45
▁irony	45
▁selective	45
▁suspended	45
▁Arabia	45
▁deficit	45
▁witnessed	45
▁poke	45
▁scrap	45
▁Teach	45
▁prosthetic	45
▁rejected	45
▁transaction	45
To	45
▁progressive	45
▁Development	45
▁Journal	45
▁humble	45
▁livestock	45
▁emotionally	45
spot	45
articulate	45
▁precision	45
risk	45
▁desperate	45
liter	45
espite	45
▁bacterial	45
▁heavily	45
zen	45
uh	45
▁capitalist	45
▁Disney	45
▁planned	45
▁arc	45
▁odor	45
▁asthma	45
▁wooden	45
▁maximum	45
▁rear	44
▁integration	44
▁merge	44
▁grocery	44
▁Under	44
▁lever	44
▁farther	44
▁minority	44
▁analyzed	44
▁Academy	44
hole	44
▁nasty	44
▁stabilize	44
▁index	44
▁acres	44
▁pleasant	44
volving	44
▁Hawk	44
▁wow	44
▁historian	44
▁penis	44
▁jungle	44
▁monument	44
craft	44
osa	44
▁yell	44
▁LG	44
▁Berkeley	44
▁acquire	44
▁gallery	44
▁masses	44
▁sooner	44
▁transformative	44
▁regenerate	44
▁repeated	44
▁stare	44
▁Office	44
Please	44
alai	44
▁assumed	44
▁penguin	44
▁reporter	44
three	44
▁recognizing	44
▁chew	44
▁Keep	44
▁intact	44
story	44
▁rail	44
▁longest	44
▁blur	44
▁selves	44
▁Arthur	44
horn	44
▁democracies	44
▁replacement	44
▁diagnose	44
▁Map	44
▁browser	44
▁underestimate	44
▁anniversary	44
▁passes	44
▁elaborate	44
▁ideology	44
▁lottery	44
▁taboo	44
▁provider	44
▁trafficking	44
▁greet	44
▁melting	44
▁JA	44
▁generic	44
▁talented	44
▁sovereign	44
▁JF	44
▁Water	44
▁Greece	44
ssuming	44
▁juvenile	44
▁tapir	44
▁tomato	43
▁constitution	43
▁atheist	43
▁Democrat	43
▁hut	43
▁alphabet	43
▁spouse	43
▁passage	43
▁curl	43
▁towel	43
▁accent	43
▁crude	43
▁submit	43
▁Milk	43
God	43
▁headquarters	43
▁spatial	43
▁cardiac	43
▁circular	43
▁helium	43
▁vend	43
▁rebel	43
▁surgeries	43
▁nail	43
▁Brit	43
▁trunk	43
▁superpower	43
▁Plan	43
▁guitar	43
▁mite	43
▁exceed	43
▁neo	43
▁SETI	43
▁injuries	43
▁cattle	43
▁Cape	43
▁Benjamin	43
▁crab	43
▁practicing	43
▁Mumbai	43
▁Public	43
▁implemented	43
▁accountability	43
▁duty	43
▁freezing	43
▁Columbia	43
oriented	43
▁systematically	43
▁recession	43
▁redefine	43
quality	43
▁undergraduate	43
▁eternal	43
▁Eventually	43
▁biomass	43
▁FDA	43
▁lobe	43
▁economically	43
▁plea	43
▁documented	43
page	43
▁harsh	43
▁virgin	43
▁carries	43
▁assistant	43
▁attracted	43
▁mosque	43
speed	43
▁unfortunate	43
▁Bhutan	43
▁Free	43
Having	43
▁fisheries	43
▁optimize	43
▁basement	43
▁chef	43
▁fever	43
▁adoption	43
▁payment	43
threatening	43
▁confess	43
▁literacy	43
▁accelerating	43
▁MR	43
▁tourist	43
▁hypo	43
▁confronted	43
▁bucket	43
▁Jerusalem	43
▁refrigerator	43
▁sync	43
▁bonus	43
▁copies	43
▁deception	43
▁alert	43
▁NSA	43
▁headache	43
▁Lebanon	42
▁thermo	42
▁stumble	42
▁illustration	42
▁Harry	42
▁Canadian	42
▁racial	42
▁flock	42
▁protocol	42
▁shatter	42
▁Fund	42
▁Mount	42
▁systematic	42
▁achieving	42
ok	42
▁regional	42
▁Nav	42
▁resurrect	42
▁worship	42
▁ingredient	42
▁psychiatrist	42
▁obsession	42
▁McDonald	42
▁clone	42
▁manifest	42
▁pesticide	42
▁slope	42
▁disk	42
▁orientation	42
▁concentrate	42
▁dishes	42
▁scare	42
ranging	42
▁parliament	42
▁rescued	42
▁Fortunately	42
▁storyteller	42
▁Ask	42
▁digging	42
animate	42
▁politician	42
▁elevate	42
▁faint	42
Prince	42
▁posed	42
▁settlement	42
▁favela	42
▁caregiver	42
▁Edward	42
culture	42
▁Kids	42
▁stain	42
▁morph	42
effective	42
▁inherently	42
cam	42
▁assess	42
▁racing	42
▁opposition	42
▁airline	42
▁employment	42
▁depict	42
▁GG	42
▁indicator	42
natu	42
▁Natural	42
▁improvise	42
▁Education	42
▁whip	42
▁Apollo	42
▁Phil	42
▁Syrian	42
▁kilogram	41
▁Medicine	41
▁progression	41
▁Computer	41
▁emergence	41
stitution	41
▁Wright	41
▁abroad	41
▁gentle	41
▁encode	41
▁cocktail	41
▁mobilize	41
▁discussed	41
▁dune	41
▁Charlie	41
▁converted	41
▁couch	41
▁pixel	41
▁spite	41
▁Hospital	41
▁statue	41
▁stimulation	41
▁Library	41
▁cardboard	41
▁sensing	41
▁associate	41
▁Sound	41
▁differentiate	41
▁authenticity	41
▁Light	41
percent	41
▁soccer	41
▁Mozart	41
▁fantasy	41
▁cafe	41
▁council	41
istan	41
▁bench	41
▁isolation	41
▁Camp	41
genic	41
▁drama	41
▁immigrant	41
▁luckily	41
dependent	41
▁Netherlands	41
▁Craig	41
▁entities	41
▁Sur	41
▁retina	41
▁remotely	41
▁celebration	41
▁continuously	41
▁apologize	41
▁secondary	41
▁resemble	41
▁Philadelphia	41
▁practically	41
▁stadium	41
▁liar	41
▁module	41
▁hacker	41
▁Laden	41
▁laboratories	41
▁minimal	41
▁resilient	41
▁revolutionary	41
bone	41
▁prostitution	41
And	41
▁inhabit	41
▁entrance	41
▁terrific	41
▁Jersey	41
▁piss	41
▁exit	40
disc	40
▁consideration	40
▁Joseph	40
▁ooh	40
▁premise	40
▁institute	40
▁neocortex	40
▁transmitted	40
▁idiot	40
▁fractal	40
▁Marine	40
case	40
▁Old	40
▁clarity	40
▁technician	40
▁Greenland	40
▁conquer	40
▁infect	40
▁taxi	40
▁cloth	40
▁heroin	40
▁Intel	40
▁educator	40
▁prohibit	40
▁navigat	40
▁Thailand	40
▁playful	40
▁expo	40
▁trail	40
▁blew	40
▁preparation	40
▁distribute	40
held	40
▁protective	40
▁manifestation	40
▁celebrity	40
▁disturb	40
▁western	40
▁Alaska	40
▁Around	40
▁Virginia	40
▁Tech	40
▁Lama	40
▁configuration	40
▁multinational	40
▁Fat	40
▁Christopher	40
▁mating	40
▁richest	40
▁connectome	40
▁criteria	40
▁prince	40
invasive	40
▁festival	40
▁commodity	40
▁Ross	40
▁significance	40
▁scientifically	40
▁Pennsylvania	40
▁ultraviolet	40
▁Luther	40
▁EM	40
▁Montana	40
▁rigid	40
▁DP	40
▁preced	40
▁skip	40
▁feather	40
▁analyzing	40
▁retain	40
▁Tokyo	40
▁envision	40
▁swap	40
▁penalty	40
▁distress	40
▁Goals	40
Thank	40
▁peel	40
▁cage	40
built	39
▁differ	39
▁steady	39
▁priorities	39
▁accurately	39
▁surgical	39
▁Less	39
▁Suppose	39
▁Sierra	39
▁funeral	39
▁Georgia	39
▁ghost	39
▁Allen	39
▁magician	39
▁vitamin	39
▁scholarship	39
▁wives	39
▁iceberg	39
▁catastrophe	39
▁Post	39
▁eco	39
▁cooperative	39
▁tagged	39
▁Machine	39
▁loyal	39
responsibilities	39
▁integrity	39
▁Jefferson	39
▁Kennedy	39
▁Hubble	39
▁escalat	39
shaped	39
wall	39
▁logging	39
▁Monday	39
▁captain	39
imb	39
▁inspect	39
▁overlook	39
▁veil	39
virus	39
▁metabolism	39
▁sensitivity	39
▁wander	39
▁staggering	39
▁Opera	39
▁acquired	39
▁famine	39
▁dip	39
▁mixture	39
▁Milo	39
▁observing	39
▁deciding	39
▁axe	39
▁exquisite	39
▁embracing	39
▁regulator	39
▁slogan	39
▁nonviolen	39
▁digitize	39
▁altogether	39
▁RM	39
▁ladder	39
▁chess	39
▁scarce	39
▁continu	39
▁Band	39
▁vocabulary	39
▁locomotion	39
▁Nepal	39
▁empowerment	39
▁Boo	39
▁Sarah	39
▁gravitational	39
▁prosecutor	39
▁pul	39
▁acute	39
▁turtle	39
▁Alice	39
▁calculus	39
▁mustache	39
▁cellphone	39
▁invasion	39
▁Cyrus	39
▁cholera	39
▁congestion	39
▁participating	39
▁erase	38
▁DR	38
▁gasoline	38
▁skeptic	38
▁lightning	38
▁shining	38
▁profitable	38
▁publisher	38
▁violate	38
▁encyclopedia	38
▁internet	38
▁Kingdom	38
▁fog	38
▁ancestr	38
▁fuck	38
pound	38
▁extensive	38
▁blueprint	38
▁spear	38
▁squid	38
enabling	38
biotic	38
▁Republic	38
▁surviving	38
eanwhile	38
▁Tower	38
▁improvisation	38
▁dismiss	38
▁longevity	38
▁anthropologist	38
▁shaking	38
▁Liberia	38
▁cinema	38
▁Phoenix	38
▁avatar	38
▁circulat	38
▁imperative	38
▁genomic	38
communica	38
▁violin	38
▁copied	38
bran	38
▁Bosnia	38
▁tangible	38
▁authoritarian	38
▁inexpensive	38
▁catastrophic	38
stein	38
▁metabolic	38
▁tribal	38
Hmm	38
activat	38
▁oven	38
▁chemotherapy	38
▁competitor	38
▁unleash	38
▁disturbing	38
▁exponentially	38
▁abandon	38
▁conviction	38
▁Everest	38
▁frequencies	38
▁snail	38
▁unfair	38
▁Treat	38
million	38
▁Peru	38
▁satisfaction	38
▁BJ	38
▁disruptive	38
▁heroic	38
▁curator	38
▁composer	38
high	38
▁dictator	38
▁promot	38
▁applies	38
▁Later	38
▁Association	38
▁prescribe	38
▁devise	38
▁disappointed	38
▁singular	38
minded	38
▁trait	38
▁Abed	38
▁governor	38
▁admitted	38
▁Simon	38
ductive	38
▁Cold	38
▁identities	38
▁UK	38
▁kite	38
▁Dick	38
▁statistical	38
centric	38
▁holiday	38
▁slam	38
▁Therefore	38
▁thrust	38
▁triumph	38
▁obsolete	38
▁overseas	38
▁firing	38
▁memorial	38
etween	37
▁noisy	37
▁cease	37
ither	37
▁brake	37
▁Swedish	37
conscious	37
▁numerous	37
▁abstraction	37
▁accuse	37
▁Tibet	37
▁slaughter	37
▁Similarly	37
▁crank	37
▁Linux	37
giving	37
▁Building	37
▁swamp	37
▁Gius	37
▁liberate	37
▁polite	37
▁silicon	37
▁Auto	37
sourcing	37
▁province	37
▁impose	37
▁successes	37
▁mandate	37
▁perpetrat	37
▁bulk	37
▁occupie	37
▁Power	37
▁angiogenesis	37
▁bacterium	37
▁Beau	37
▁nuclei	37
▁cartoonist	37
▁blessed	37
▁Somalia	37
▁assessment	37
▁Libya	37
▁petition	37
▁matches	37
▁libraries	37
▁Canyon	37
▁biases	37
▁intend	37
MG	37
▁PowerPoint	37
▁sexuality	37
▁salmon	37
▁gigantic	37
▁portray	37
▁Notice	37
▁enthusiasm	37
▁folk	37
▁combin	37
▁absurd	37
▁Book	37
▁correlate	37
▁Nairobi	37
NG	37
▁fuzzy	37
▁viable	37
▁revelation	37
▁diminish	37
control	37
▁Tunisia	37
▁obstacle	37
▁Joshua	37
▁Bali	37
▁Cambodia	37
▁Fifty	37
▁ambulance	37
▁Fish	37
▁Norden	37
▁obligation	36
▁committee	36
▁bay	36
▁problematic	36
▁cement	36
▁orphan	36
▁slept	36
▁shepherd	36
▁displaced	36
▁zip	36
▁ingenuity	36
▁Interestingly	36
▁Buddha	36
Africa	36
▁Michigan	36
▁Heart	36
▁utility	36
▁beneficial	36
▁symbolic	36
▁reclaim	36
▁rays	36
▁occupation	36
▁Fred	36
▁desktop	36
▁Thirty	36
▁Venus	36
▁northeast	36
▁embarrassed	36
▁hamburger	36
walk	36
▁urbanization	36
▁resort	36
▁causal	36
▁Sudan	36
▁accountable	36
▁mapped	36
▁gaze	36
▁injection	36
▁Step	36
▁Iraqi	36
▁referred	36
▁voters	36
▁convincing	36
school	36
▁Sylvia	36
▁Beach	36
▁nurture	36
▁tempt	36
▁spontaneously	36
▁RNA	36
▁humility	36
▁diplomacy	36
note	36
▁intriguing	36
▁symmetrical	36
▁baseline	36
▁sadness	36
▁manipulation	36
▁Tuesday	36
cellular	36
▁delete	36
▁Consider	36
▁characterize	36
▁replacing	36
▁touches	36
▁nonetheless	36
▁Jean	36
▁reflex	36
▁widespread	36
▁rehabilitation	36
▁Lyn	36
▁neglect	36
▁calculator	36
▁observer	36
▁Party	36
▁urgent	36
▁repeatedly	36
▁controversy	36
▁marijuana	36
▁essay	36
▁receiver	36
▁greed	36
▁fungi	36
Hi	36
▁goodbye	36
▁Larry	36
▁tightly	36
▁Clar	36
▁Rover	36
cultural	36
▁vest	36
▁Stewart	36
▁abundant	36
▁Austria	36
▁reproduction	36
▁iPad	36
▁fame	36
▁ease	36
▁intimacy	36
▁maintenance	36
▁guerrilla	36
▁pricing	36
▁CRISPR	36
▁skeptical	35
▁Common	35
▁powder	35
▁Caribbean	35
▁Defense	35
▁plankton	35
▁eighth	35
▁hatred	35
▁Buddhist	35
▁compil	35
var	35
▁anxious	35
▁chaotic	35
▁sediment	35
▁Maria	35
▁calendar	35
▁characteristic	35
▁physiology	35
surfing	35
▁fierce	35
▁Data	35
▁loo	35
▁ancestor	35
▁legend	35
▁enthusiast	35
▁Robot	35
▁Himalaya	35
▁dysfunction	35
▁semina	35
▁Empire	35
▁unseen	35
▁thorough	35
imbabwe	35
▁incorporate	35
▁pharma	35
▁pursuing	35
▁basket	35
▁symmetries	35
kar	35
▁supportive	35
▁enrich	35
▁dissolve	35
▁Dallas	35
▁flexibility	35
olar	35
▁Clearly	35
▁delicate	35
▁appreciation	35
▁dispute	35
▁insult	35
cientific	35
▁glove	35
▁marrow	35
▁friction	35
▁generator	35
▁curtain	35
▁mature	35
▁Carnegie	35
▁manuscript	35
▁infrared	35
▁honeybee	35
▁MO	35
▁sneakers	35
▁lend	35
▁thylacine	35
uite	35
shift	35
▁dictionaries	35
▁liberty	35
▁Fire	35
▁humankind	35
atic	35
▁affirm	35
▁vanish	35
▁supernova	35
▁seawater	35
▁Namibia	35
▁conserv	35
▁reproductive	35
▁ashamed	35
Wonder	35
▁disabilities	35
▁dorm	35
▁Small	35
Cola	35
controlled	35
▁autistic	35
▁CMU	35
clusion	34
▁Paulo	34
▁eBay	34
▁visitors	34
▁pervasive	34
▁prioritize	34
▁Usually	34
▁blogger	34
▁tilt	34
▁sang	34
▁inherent	34
▁opponent	34
▁prevalence	34
▁impressed	34
▁timber	34
write	34
▁applause	34
▁Environment	34
▁glu	34
▁mycelium	34
▁Lagos	34
▁Colombia	34
▁salary	34
▁submarine	34
▁relativity	34
▁posture	34
▁lump	34
wire	34
screen	34
▁Venezuela	34
▁censor	34
▁NGO	34
▁Tesla	34
▁Norwegian	34
plex	34
▁embodied	34
▁sulfide	34
▁grassroots	34
▁autonomy	34
▁abnormal	34
▁cathedral	34
▁rival	34
▁leopard	34
most	34
▁cabinet	34
▁flush	34
▁bypass	34
▁frustrating	34
egan	34
▁Yellow	34
Just	34
radiat	34
you	34
▁disappoint	34
+	34
▁Kepler	34
▁ALS	34
▁intrigue	34
▁rectangle	34
▁memorize	34
▁grammar	34
▁deliberately	34
▁uncover	34
▁hallway	34
▁Univers	34
▁kindergarten	34
▁Native	34
▁textile	34
▁Climate	34
frontal	34
induced	34
▁Line	34
▁gait	34
▁newborn	34
▁citizenship	34
▁Country	34
section	34
social	34
▁fireflies	34
▁Princeton	34
▁monarch	34
▁planner	34
▁Cru	34
▁Pete	34
▁janitor	34
▁gadget	33
▁hammer	33
▁Orleans	33
▁Movement	33
▁illnesses	33
▁statistically	33
▁calculating	33
▁shove	33
▁quantity	33
onomic	33
piece	33
mming	33
Would	33
▁arbitrary	33
▁shelves	33
▁Kansas	33
▁Nazi	33
▁Jamaica	33
▁microscopic	33
▁noticing	33
▁Garden	33
script	33
▁Hold	33
▁inflate	33
▁Large	33
▁scope	33
▁Word	33
Good	33
Keith	33
▁conception	33
glass	33
▁transferred	33
▁pregnancy	33
▁erupt	33
▁Warren	33
One	33
▁nevertheless	33
▁romance	33
▁indication	33
▁remov	33
▁doubling	33
▁accomplishment	33
▁carrot	33
▁recreate	33
▁banned	33
▁modify	33
▁colorful	33
▁deplet	33
▁valve	33
▁gym	33
▁OECD	33
▁Tele	33
▁reflective	33
▁personalities	33
▁Often	33
▁voyage	33
▁elbow	33
structure	33
▁electromagnetic	33
▁easiest	33
▁puff	33
▁embryo	33
▁defect	33
▁indirect	33
▁weakness	33
▁optic	33
▁psychiatri	33
traumatic	33
▁adolescence	33
▁celebrating	33
▁chord	33
▁acceptance	33
▁playground	33
▁galleries	33
▁Roosevelt	33
▁bionic	33
▁billboard	33
▁revolutionize	33
▁Grow	33
▁criticism	33
▁fishermen	33
▁warfare	33
▁Golden	33
▁Food	33
eign	33
▁propaganda	33
▁pillar	33
▁victory	33
▁specimen	33
sensitive	33
▁peanut	33
▁Pittsburgh	33
friendly	33
▁disadvantage	33
▁Oklahoma	33
▁breakdown	33
imposed	33
#	33
▁motorcycle	32
▁dragge	32
▁lips	32
▁incremental	32
▁buzz	32
▁Kosovo	32
▁copper	32
▁anatomy	32
▁backpack	32
▁shaping	32
▁reasonably	32
▁dragon	32
▁Ow	32
▁Roger	32
▁dye	32
borne	32
▁imitate	32
Come	32
▁ramp	32
▁submitted	32
▁executed	32
▁overlap	32
▁numb	32
▁Royal	32
▁mundane	32
▁velocity	32
▁Service	32
▁dwell	32
▁choir	32
▁recycle	32
▁Siberia	32
▁Nathan	32
▁Denmark	32
▁explicitly	32
▁conscience	32
▁Invest	32
▁societ	32
▁eradication	32
▁horrific	32
▁bask	32
▁masterpiece	32
▁syringe	32
▁reuse	32
▁introducing	32
▁Alright	32
▁technologist	32
▁coincidence	32
▁oyster	32
▁circulation	32
▁chick	32
▁distill	32
Star	32
▁entrepreneurial	32
▁generosity	32
▁acceptable	32
▁Kiribati	32
▁meaningless	32
▁spaghetti	32
born	32
▁flex	32
▁entity	32
▁releas	32
▁adequate	32
▁penetrate	32
▁Taiwan	32
▁benign	32
▁Recently	32
▁terminal	32
▁injustice	32
▁companion	32
▁quantities	32
▁missile	32
▁courageous	32
stepping	32
▁parameters	32
▁Snowden	32
▁rhino	32
▁compass	32
▁destructive	32
▁rainfall	32
hhh	32
▁wreck	32
▁resonate	32
partisan	32
derived	32
▁carrier	32
Every	32
▁Portugal	32
▁Merc	32
turn	32
▁casual	32
▁Unlike	32
▁geometric	32
▁appliance	32
▁strengthen	32
▁nucleus	32
▁biosphere	32
▁expose	32
▁adaptive	32
▁passport	32
▁crust	32
▁unemployment	32
▁Johnny	32
▁degraded	32
▁genital	32
▁flick	32
▁cultivate	32
▁existential	32
▁Chuck	32
▁yeast	32
▁Coca	32
▁Tasmanian	32
▁internship	32
▁hobby	32
▁shade	31
▁Jobs	31
▁prevail	31
▁jury	31
▁approval	31
▁buck	31
▁keen	31
▁comprehensive	31
▁monk	31
▁Leone	31
▁tennis	31
▁Julie	31
▁octopus	31
▁Land	31
▁antibiotic	31
▁helmet	31
▁calcium	31
▁grape	31
▁blanket	31
▁skate	31
▁radar	31
▁Arizona	31
▁shipped	31
▁Amsterdam	31
esteem	31
▁accompanie	31
▁superhero	31
▁duration	31
▁resonance	31
▁prejudice	31
▁compact	31
atomic	31
▁Brea	31
▁commute	31
▁seize	31
▁hallucinations	31
▁oppos	31
▁modified	31
▁Hindu	31
▁Prime	31
▁mortgage	31
government	31
▁pediatric	31
▁hypotheses	31
▁Sub	31
▁Galapagos	31
▁aluminum	31
▁Justice	31
▁sentiment	31
▁halve	31
correct	31
▁superior	31
post	31
▁Down	31
▁scroll	31
▁mammoth	31
▁Angel	31
▁battlefield	31
ã	31
▁Norman	31
▁midnight	31
▁promising	31
▁harass	31
▁symptom	31
▁visceral	31
▁lesbian	31
▁athletic	31
▁confusion	31
▁Information	31
▁recipient	31
▁polymer	31
▁deny	31
▁abortion	31
▁distraction	31
▁quantitative	31
▁equilibrium	31
▁Cultur	31
▁satisfied	31
▁deployment	31
▁Death	31
▁Find	31
▁Danny	31
security	31
Forget	31
▁patience	31
friend	31
▁subsequent	31
▁Secretary	31
▁Connecticut	31
▁possess	31
▁Edinburgh	31
▁encrypt	31
▁niece	31
▁cybercriminal	31
▁grim	31
▁Parliament	31
design	31
▁evaporate	31
▁paralysis	31
▁apparent	31
▁Mola	31
▁Michelangelo	30
▁evaluate	30
▁Lady	30
▁imperfect	30
▁complicat	30
▁Muhammad	30
▁praise	30
▁straw	30
▁Company	30
wheel	30
▁shallow	30
▁Teszler	30
▁Francis	30
▁throat	30
▁Jill	30
▁Desert	30
▁fuse	30
▁neurological	30
▁Side	30
link	30
▁intricate	30
▁Susan	30
▁shield	30
▁shuttle	30
▁catalog	30
▁jewelry	30
▁commodities	30
▁originate	30
▁justify	30
▁Sydney	30
▁choreograph	30
▁gratitude	30
▁censorship	30
▁promotion	30
▁royal	30
▁delusion	30
▁SMS	30
▁alliance	30
▁nonsense	30
▁possession	30
▁distinctive	30
▁auditorium	30
▁equator	30
▁surplus	30
▁Luckily	30
▁obscure	30
▁intangible	30
▁Freedom	30
▁Bangalore	30
▁violation	30
▁Radio	30
▁marsh	30
▁depressing	30
▁wrestle	30
▁stir	30
▁drip	30
▁rhetoric	30
▁unintended	30
credit	30
▁Yale	30
▁prophet	30
▁rage	30
▁presidential	30
▁inviting	30
▁multiverse	30
▁chalk	30
▁dude	30
▁attorney	30
▁declining	30
Welcome	30
▁Commission	30
▁epic	30
▁marvelous	30
▁stole	30
▁coding	30
specific	30
metric	30
▁recurr	30
▁vegetation	30
▁puberty	30
▁hatch	30
▁Rica	30
▁seafood	30
▁cardio	30
▁Fast	30
▁verge	30
▁loneliness	30
▁Lewis	30
▁permit	30
▁crocodile	30
▁clap	30
▁Diego	30
▁versa	30
▁offshore	30
▁Victorian	30
▁wavelength	30
▁undermine	30
▁fingertips	30
▁geographic	30
▁maximize	30
▁LGBT	30
▁Nicole	30
▁migraine	30
▁Leader	30
▁wolves	30
▁bombsight	30
▁Virgin	29
▁manipulat	29
▁optimal	29
▁ethanol	29
▁orgasm	29
▁Slow	29
▁glory	29
▁secular	29
▁crater	29
▁treasure	29
▁Massachusetts	29
▁scanned	29
▁anesthesia	29
▁debris	29
▁annoying	29
▁limestone	29
▁volcan	29
▁outrage	29
▁grief	29
▁certificate	29
▁guilt	29
odd	29
▁UCLA	29
▁railroad	29
▁hollow	29
▁exclude	29
▁Copernic	29
▁frightened	29
▁divine	29
▁wax	29
▁Skype	29
▁ideological	29
▁Jerry	29
public	29
tolerant	29
lude	29
▁summary	29
▁Emily	29
▁orphanage	29
▁dragonflies	29
▁hypothetical	29
▁cartilage	29
▁provision	29
▁emergent	29
▁entitled	29
resistant	29
Excuse	29
▁geological	29
entrepreneurship	29
▁unemployed	29
▁corporation	29
▁snapshot	29
▁Carol	29
aunch	29
▁flap	29
▁restrictions	29
▁meditation	29
▁standpoint	29
funded	29
▁consultant	29
▁guidance	29
▁chap	29
▁exploitation	29
▁Help	29
▁beloved	29
▁grassland	29
▁hectare	29
resolution	29
▁minimize	29
▁irrelevant	29
▁Finland	29
▁chill	29
▁activism	29
▁literal	29
▁altruism	29
▁glorious	29
▁Costa	29
▁wetsuit	29
▁replied	29
▁Though	29
▁stratosphere	29
▁LHC	29
▁Alabama	29
▁similarities	29
▁Astro	29
▁savanna	29
▁wallet	29
▁enforce	29
▁submersible	29
▁supercomputer	29
▁haunt	29
positive	29
▁temptation	29
▁regain	29
lethal	29
▁Julian	29
▁Arduino	29
▁jacket	29
▁imaginary	29
▁collide	29
▁railway	29
▁pollute	29
▁fisc	29
▁dependence	29
▁Alpha	29
▁dentist	29
▁Katrina	29
▁biotech	29
▁happiest	29
▁Doaa	29
▁Vegas	28
▁vapor	28
▁aquatic	28
▁lawsuit	28
▁Ooh	28
▁implicit	28
▁Point	28
▁instability	28
▁bloom	28
▁tuberculosis	28
▁worthwhile	28
▁improbable	28
▁hurdle	28
▁Darwinian	28
great	28
▁Language	28
carbon	28
▁elect	28
▁vector	28
▁pathogens	28
phobic	28
▁broccoli	28
▁Believe	28
▁misuse	28
▁refrigera	28
▁employee	28
▁hung	28
▁portable	28
▁innate	28
▁nanotechnology	28
▁Exactly	28
▁solemn	28
▁Scottish	28
▁Guinea	28
▁Wilson	28
▁continuum	28
▁eager	28
▁Pink	28
▁Democratic	28
▁incomplete	28
▁recreation	28
▁suburban	28
growing	28
▁Nico	28
▁algebra	28
▁reply	28
▁digits	28
▁Report	28
▁acceleration	28
▁psyche	28
ripped	28
▁continually	28
▁Count	28
▁thriving	28
proving	28
▁geographical	28
fused	28
▁Cross	28
▁unequal	28
▁reconnect	28
▁cried	28
▁stall	28
▁rooftop	28
▁bombard	28
▁comparable	28
placing	28
ompanies	28
▁abusive	28
▁graffiti	28
▁boson	28
▁nectar	28
▁accommodate	28
▁impaired	28
▁Index	28
▁monsoon	28
▁burial	28
varian	28
▁rediscover	28
▁Baltimore	28
▁Economic	28
pool	28
▁Change	28
▁spawn	28
▁incidentally	28
▁mash	28
▁pepper	28
▁hind	28
▁mythology	28
▁knot	28
▁Full	28
▁census	28
Barack	28
organism	28
▁Babylon	28
▁unstable	28
▁Cairo	28
unshine	28
▁Solar	28
▁symphony	28
performing	28
group	28
▁Babbage	28
▁lamb	28
▁Certainly	27
▁Irish	27
▁bandwidth	27
▁Kyoto	27
▁raft	27
color	27
▁joyful	27
▁perceptual	27
▁malnutrition	27
▁synthesis	27
▁obey	27
▁jewel	27
▁laundry	27
▁Cooper	27
▁slot	27
▁adjacent	27
▁iteration	27
▁Already	27
colonial	27
▁Fox	27
appropriate	27
▁nitr	27
▁bunk	27
▁Students	27
▁stiff	27
▁mysteries	27
▁Natasha	27
▁Wild	27
▁fundraising	27
▁Kelly	27
▁forehead	27
▁spontaneous	27
▁erect	27
spiring	27
▁compliment	27
▁arose	27
▁Ultimately	27
▁constructive	27
▁tropics	27
▁swear	27
▁feat	27
▁Bruce	27
▁relevance	27
▁Euro	27
▁pivot	27
▁Ushahidi	27
▁analytical	27
▁Master	27
▁cerebral	27
▁servant	27
▁misery	27
▁cheek	27
▁ambassador	27
▁Patient	27
▁erotic	27
▁Beethoven	27
▁unacceptable	27
▁denied	27
mother	27
▁pristine	27
▁racism	27
▁Mediterranean	27
▁vicious	27
writing	27
▁Scotland	27
▁altruist	27
▁Palestine	27
▁DARPA	27
▁Somehow	27
▁lazy	27
storing	27
%	27
▁estrogen	27
▁urine	27
▁Network	27
▁faculty	27
▁excite	27
ploy	27
▁responsive	27
▁unpredictable	27
▁incarceration	27
▁draft	27
▁Franklin	27
regulating	27
▁Speak	27
▁remittance	27
▁Renaissance	27
▁contagious	27
▁larvae	27
▁neurogenesis	27
▁meanwhile	27
▁dining	27
▁anecdote	27
cycle	27
▁Ministry	27
abilities	27
▁mutant	27
▁surrender	27
▁embark	27
▁hurricane	27
▁venue	27
value	27
▁Mov	27
▁withdraw	27
▁negotiating	27
▁encryption	27
▁quiz	27
▁unaware	27
▁meadow	27
▁rotating	27
▁arriving	27
▁policing	27
▁investigating	27
nanometer	27
▁packaging	27
▁ozone	27
▁sulfur	27
▁disruption	27
▁EDI	27
▁petals	27
▁simulator	27
axis	27
chlor	26
▁nun	26
▁Jazeera	26
conceived	26
▁template	26
▁interconnect	26
▁capsule	26
▁sought	26
▁aviation	26
▁pronounce	26
▁mutate	26
▁metaphorical	26
ó	26
▁tinker	26
▁BMW	26
▁Sputnik	26
▁foreground	26
▁facilitate	26
counterintuitive	26
▁solitary	26
▁Group	26
▁prototyping	26
▁peek	26
▁worn	26
▁interfere	26
▁Depression	26
▁demonstrat	26
▁advent	26
▁polish	26
▁integrating	26
▁repertoire	26
▁reconcile	26
wept	26
▁cult	26
▁Agency	26
▁Glass	26
▁rainbow	26
▁disperse	26
▁Pixar	26
▁automated	26
▁Especially	26
educated	26
vocation	26
disciplinary	26
▁Engine	26
symmetric	26
▁erectus	26
▁landfill	26
▁matern	26
▁crises	26
▁Better	26
▁millisecond	26
▁cognition	26
▁nomad	26
▁methodology	26
▁booth	26
keeping	26
▁Learning	26
▁melody	26
ç	26
▁dictate	26
▁Otherwise	26
▁clash	26
▁metropolitan	26
▁MoMA	26
▁simplistic	26
▁varieties	26
dragging	26
▁personnel	26
▁dominate	26
▁mortal	26
▁uplift	26
▁excellence	26
▁substitute	26
▁attachment	26
▁moderate	26
▁preferred	26
▁League	26
▁twenty	26
▁administrator	26
▁Venice	26
▁viewpoint	26
▁communal	26
▁biotechnology	26
▁orangutan	26
▁linguistic	26
▁condemn	26
▁tolerate	26
▁puncture	26
▁checklist	26
▁underpin	26
▁pancreatic	26
typical	26
▁nickname	26
▁synchronize	26
▁latitude	26
▁provoke	26
▁chemo	26
▁testosterone	26
▁Spider	26
solving	26
▁Perfect	26
▁suspicious	26
▁retrofit	26
▁Whitopia	26
white	25
▁Modern	25
▁SARS	25
▁illiterate	25
▁respiratory	25
▁agnostic	25
▁Among	25
organized	25
▁announce	25
▁conceive	25
▁ambiguity	25
model	25
▁miraculous	25
▁outrageous	25
▁nurturing	25
▁Hopefully	25
▁supplement	25
energy	25
▁literary	25
▁paragraph	25
▁Julia	25
▁Darfur	25
▁congress	25
▁tuck	25
▁variant	25
▁queue	25
▁retrospect	25
▁Guatemala	25
▁insecure	25
▁thunder	25
▁Program	25
▁nuance	25
▁astronomical	25
▁jeans	25
▁paradise	25
▁Marshall	25
▁evident	25
▁boyfriend	25
quarters	25
learn	25
▁worries	25
=	25
▁Freud	25
conflict	25
▁teddy	25
retroviral	25
▁physiological	25
▁convenience	25
▁resign	25
▁livelihood	25
burn	25
▁veterinarian	25
▁Pepsi	25
▁utilit	25
enberg	25
▁superstar	25
▁educating	25
▁erosion	25
▁unsustainable	25
▁vibrating	25
▁Lawrence	25
Great	25
market	25
alactic	25
▁Algeria	25
▁seizure	25
▁packet	25
▁pension	25
▁plunge	25
Happy	25
▁excerpt	25
▁sensible	25
▁confusing	25
▁vibrate	25
▁Democracy	25
trained	25
▁municipal	25
▁Model	25
▁homosexual	25
▁preschool	25
▁empirical	25
▁Several	25
▁strive	25
▁Neither	25
▁decode	25
▁Avenue	25
▁bury	25
▁gossip	25
hypertension	25
with	25
▁sociologist	25
▁adulthood	25
▁catalyst	25
▁hippocampus	25
green	25
▁ignorant	25
▁gecko	25
▁marvel	25
▁Murray	25
▁Prison	25
▁radius	25
▁Village	25
▁pneumonia	25
▁frequent	25
▁Incredible	25
▁lymph	25
▁undercover	25
▁bass	25
▁introvert	25
▁pearl	25
▁speculate	25
▁pessimist	25
▁Samuel	25
▁Emma	25
▁Oregon	25
▁disseminat	25
▁announcement	25
▁Wolfram	25
▁scuba	25
▁unfinished	25
▁Virtual	25
▁offensive	25
▁antidepressant	25
▁bluefin	25
▁charities	25
▁ruling	25
▁turbine	25
▁RISD	25
▁Ferr	25
▁Grace	25
▁Tennessee	24
Psycho	24
▁Behind	24
▁prostitute	24
▁counterpart	24
▁discrete	24
Huh	24
▁seamless	24
▁inadequate	24
▁fertility	24
▁pledge	24
▁irrigation	24
▁fracture	24
▁tectonic	24
organizing	24
▁bioluminescence	24
Sweeney	24
▁Dylan	24
▁plaster	24
▁Mississippi	24
▁Colorado	24
▁Sadly	24
▁rigorous	24
▁suitcase	24
figure	24
▁Idaho	24
▁eyebrow	24
Uncle	24
▁implication	24
▁explicit	24
▁socket	24
▁Toronto	24
▁identification	24
▁scoop	24
▁Deep	24
▁instructor	24
Because	24
▁Differen	24
▁decentralized	24
▁auditory	24
▁Vinci	24
▁sympathy	24
▁emphasis	24
▁immigration	24
▁slap	24
▁Compassion	24
▁Margaret	24
▁embarrassment	24
▁discourse	24
▁scalable	24
▁confuse	24
industrial	24
▁Simple	24
▁porn	24
▁rubble	24
▁Corporation	24
▁uncertain	24
▁taxpayer	24
good	24
▁behaving	24
driving	24
▁liberation	24
genesis	24
▁Mahat	24
▁Windows	24
▁Reagan	24
▁Text	24
▁Taylor	24
▁stunning	24
▁antibodies	24
▁juggling	24
▁devastated	24
▁hurry	24
▁simplify	24
▁enroll	24
▁Amazing	24
è	24
▁Scratch	24
▁racist	24
▁Oakland	24
▁semester	24
▁conspiracy	24
▁prosecute	24
▁democratize	24
▁Ninety	24
▁Vancouver	24
▁exoplanet	24
▁fingerprint	24
▁restoration	24
rried	24
▁solidarity	24
▁curse	24
▁Rosetta	24
▁ingenious	24
▁embed	24
▁sapiens	24
Contra	24
▁unveil	24
▁bookstore	24
▁hiring	24
▁plague	24
▁damaging	24
▁lesion	24
▁blogging	24
▁diffuse	24
▁aspire	24
▁wool	24
▁nudge	24
▁Type	24
▁Starbucks	24
Jeopardy	24
▁CNN	24
▁narco	24
▁preservation	24
▁asylum	24
▁Discover	23
▁Creative	23
▁holistic	23
author	23
▁Saint	23
▁Pentagon	23
▁Russell	23
▁capacities	23
▁cosmetic	23
▁Moses	23
▁Bonobo	23
▁bolt	23
▁modular	23
▁wrinkle	23
▁toddler	23
▁cruise	23
▁Record	23
▁AIMS	23
▁sterile	23
▁Miami	23
▁Guardian	23
▁Holocaust	23
▁Nevada	23
Get	23
▁Edison	23
▁virtuous	23
▁Magazine	23
▁Falcon	23
▁balancing	23
▁scandal	23
▁championship	23
▁Gaza	23
▁Tamiflu	23
▁oblivio	23
▁BBC	23
▁Federal	23
▁degradation	23
▁constitute	23
▁pedal	23
▁instinctively	23
▁Agnes	23
▁deliberate	23
▁disbelief	23
▁applaud	23
attle	23
▁pinpoint	23
▁astounding	23
▁vibrant	23
▁hominid	23
▁Progress	23
▁ridicule	23
▁dried	23
▁tiniest	23
▁mammogram	23
▁mammography	23
▁Armstrong	23
▁extremist	23
▁Strange	23
▁uprising	23
▁byproduct	23
▁certified	23
nterviewer	23
▁integral	23
▁Personal	23
▁banjo	23
▁contradict	23
▁animated	23
▁memorable	23
obbing	23
▁Truth	23
▁Circle	23
▁shave	23
▁dominance	23
▁sponge	23
Fantastic	23
▁cyclist	23
▁residu	23
▁Compare	23
▁Diet	23
grown	23
▁Pantheon	23
▁envy	23
▁imaginative	23
▁discomfort	23
▁pheromone	23
▁dictatorship	23
▁periphery	23
▁giraffe	23
▁humiliation	23
▁motto	23
▁quantify	23
▁Everglades	23
▁hijack	23
▁translating	23
▁homicide	23
▁hike	23
▁arithmetic	23
echanical	23
▁Hitler	23
illennium	23
▁Market	23
▁coherent	23
rthodox	23
▁migrat	23
▁Fahrenheit	23
▁cancel	23
▁Isaac	23
growth	23
▁qualify	23
▁messaging	23
▁lightweight	23
▁bioluminescent	23
▁disparate	23
▁guidelines	23
▁propeller	23
▁moisture	23
▁Cameron	23
▁sniff	23
▁notebook	23
▁stimulus	23
▁misconception	23
▁Jenn	23
▁downstairs	23
▁swirl	23
▁inhabitants	23
▁acronym	23
▁horrified	23
▁efficacy	23
▁Police	23
▁auction	23
▁alpha	23
▁detach	23
replicating	23
▁cumulative	23
▁whistling	23
▁league	23
▁circumstance	23
▁starvation	23
▁Club	23
▁incubator	23
▁Self	23
▁huh	23
▁StoryCorps	23
▁Europa	23
▁tadpole	23
▁fission	23
▁Economist	23
▁vague	23
▁lithium	22
▁nud	22
▁arrival	22
▁eliminating	22
▁unlimited	22
▁unnatural	22
▁precipitat	22
▁proposing	22
▁Lanka	22
▁napkin	22
lecommunications	22
▁constellation	22
▁IMF	22
▁Channel	22
▁wiring	22
▁apparatus	22
▁ceramic	22
▁microwave	22
▁yogurt	22
▁excavat	22
▁accelerator	22
orbital	22
▁supplier	22
▁reception	22
▁Jonathan	22
▁arteries	22
▁destined	22
▁susceptible	22
▁facade	22
▁carpenter	22
▁cereal	22
▁Tehran	22
▁Glenn	22
ubbed	22
▁reservation	22
Solomon	22
▁hallucinat	22
▁Face	22
▁CIA	22
people	22
generated	22
▁prevalent	22
▁Gordon	22
▁mangrove	22
▁psychic	22
▁Galileo	22
▁humbl	22
▁penicillin	22
▁Southeast	22
▁amplify	22
▁populated	22
▁classmates	22
▁Antarctic	22
▁desperation	22
▁unnecessary	22
▁disposal	22
▁thrill	22
▁tactics	22
▁Plato	22
▁Bulgaria	22
▁browse	22
▁butterflies	22
▁revenge	22
▁Director	22
▁epiphany	22
▁participatory	22
▁daunting	22
fashioned	22
▁Flickr	22
cross	22
▁residential	22
▁centigrade	22
Cause	22
▁agile	22
▁enact	22
▁indulge	22
rhythm	22
▁drastic	22
▁Jesse	22
▁blunt	22
▁Dubai	22
present	22
▁Fortune	22
▁ignite	22
▁maze	22
▁Tweet	22
▁shiny	22
▁sequester	22
▁Trust	22
▁amaze	22
▁unthinkable	22
▁Caltech	22
gatherer	22
▁hunch	22
▁Wired	22
▁junior	22
▁Essentially	22
▁pub	22
▁Energy	22
▁beaver	22
▁energetic	22
▁hull	22
▁Exxon	22
▁contributor	22
▁reckless	22
▁Vietnamese	22
▁nursing	22
▁Conference	22
▁cafeteria	22
▁Oliver	22
▁ensu	22
▁unfamiliar	22
▁brink	22
▁fungus	22
▁tweak	22
▁propulsion	22
▁skyscraper	22
▁lettuce	22
▁Madagascar	22
▁MBA	22
▁carcinogen	22
▁browsing	22
▁widow	22
▁Achilles	22
▁deceased	22
▁Theater	22
▁Nanopatch	22
▁allocate	21
▁variability	21
▁Potter	21
▁presumably	21
▁Raise	21
▁Kibera	21
▁hygiene	21
▁deflect	21
▁Financial	21
▁drank	21
▁audition	21
machine	21
▁aerodynamic	21
▁ignor	21
▁cosmology	21
▁Cassini	21
▁Hungarian	21
▁courtyard	21
▁hazard	21
▁ultrasound	21
▁vegetarian	21
▁hippie	21
▁heartbeat	21
izzy	21
▁Collider	21
nutrient	21
▁Soldier	21
▁gorilla	21
▁comprised	21
▁zoning	21
▁terrestrial	21
▁bronze	21
▁Jennifer	21
technology	21
science	21
▁Survey	21
▁unpleasant	21
▁Witness	21
▁pollinate	21
blood	21
▁advancing	21
▁Innovation	21
▁perpetual	21
▁cherish	21
▁Photoshop	21
▁prosperous	21
▁swam	21
▁captur	21
disproportionate	21
▁casualties	21
▁Digital	21
▁Tahrir	21
▁dedicate	21
▁proliferation	21
▁Anonymous	21
▁cochlea	21
▁atrazine	21
▁imbalance	21
▁urgency	21
)	21
▁restrain	21
stabiliz	21
▁magnify	21
▁electora	21
plus	21
cule	21
▁bruise	21
▁brute	21
▁prompt	21
Hello	21
▁patrol	21
▁bait	21
▁appetite	21
▁Captain	21
▁rumor	21
▁notorious	21
blowing	21
▁coalition	21
▁proxy	21
▁Houston	21
▁tribute	21
▁treadmill	21
▁Panbanisha	21
computer	21
▁comedian	21
▁admission	21
legged	21
▁gently	21
▁Venter	21
▁accumulation	21
▁dissect	21
▁communist	21
▁subsidies	21
▁mutilate	21
▁fertilize	21
▁Sebastian	21
▁jurisdiction	21
function	21
▁WHO	21
▁reservoir	21
▁Convention	21
▁interference	21
▁immunity	21
▁CERN	21
▁apprentice	21
▁adversity	21
▁PDF	21
“	21
▁width	21
▁hydrocarbon	21
▁elusive	21
▁hummingbird	21
▁halt	21
▁humidity	21
▁visualiz	21
▁immoral	21
▁scripture	21
▁incarcerated	21
▁socioeconomic	21
assembling	21
▁spoil	21
▁vase	21
▁sprawl	21
▁crochet	21
▁aquaculture	21
▁Bonica	21
extrovert	21
▁uranium	21
▁Movember	21
Maybe	20
▁geologist	20
▁modification	20
▁advocacy	20
▁monopoly	20
▁complement	20
▁influenza	20
▁Understand	20
▁Rachel	20
▁Toyota	20
▁policymakers	20
simil	20
▁Film	20
▁enlist	20
estament	20
▁jealous	20
▁verify	20
▁Midwest	20
▁appointment	20
▁colonize	20
▁pornography	20
▁feminine	20
▁descendants	20
▁Moscow	20
▁announcing	20
▁Excellent	20
megawatt	20
▁roost	20
▁Beyond	20
▁utopia	20
▁benchmark	20
▁availability	20
▁Scot	20
People	20
▁ripple	20
▁millennium	20
▁gyrus	20
blown	20
▁vacan	20
▁wilderness	20
▁Maldives	20
▁separating	20
▁categorize	20
▁doctrine	20
▁accumulating	20
▁clam	20
▁Lakota	20
▁premier	20
▁decipher	20
▁ninth	20
▁exaggerate	20
confidence	20
▁intellect	20
▁scarcity	20
▁narrat	20
▁compatible	20
▁flare	20
▁discharge	20
▁utilize	20
▁serotonin	20
▁scissors	20
▁Control	20
▁Rosling	20
▁automotive	20
▁Melinda	20
▁emulate	20
▁dreadful	20
▁embryonic	20
▁Hurricane	20
▁Oscar	20
▁prominent	20
▁acquisition	20
▁reviv	20
▁Titus	20
wrestling	20
▁plasma	20
▁condense	20
▁philanthropist	20
▁pluck	20
bureaucratic	20
▁Protect	20
▁resembl	20
▁transgender	20
▁Current	20
▁Pearl	20
▁illuminate	20
▁snack	20
▁unhealthy	20
identifie	20
nstrual	20
▁Hudson	20
▁derive	20
▁Malawi	20
▁rearrange	20
▁True	20
▁primordial	20
▁replicator	20
▁omni	20
species	20
▁durable	20
▁detriment	20
▁glance	20
▁premature	20
▁energies	20
llowing	20
▁Ecuador	20
▁pollinators	20
▁motive	20
▁deceive	20
▁hyena	20
▁knitting	20
▁venom	20
▁Hebrew	20
▁desalination	20
▁infinity	20
▁inertia	20
▁fascination	20
▁Aaron	20
▁toothbrush	20
intelligent	20
▁credible	20
▁supermassive	20
▁Harlem	20
course	20
▁elastic	20
▁Lesterland	20
▁entrenche	19
▁derivative	19
▁seatbelt	19
▁Senegal	19
fifth	19
▁influential	19
ncidentally	19
replication	19
performance	19
▁staple	19
▁synesthesia	19
▁reshape	19
▁interdependenc	19
▁spores	19
▁Barbie	19
▁Knowing	19
▁stunned	19
▁geese	19
▁impatient	19
colonization	19
▁photosynthesis	19
▁embody	19
▁Papua	19
▁replica	19
▁revolv	19
▁enslave	19
▁Tiger	19
▁Ryan	19
▁unravel	19
▁encompass	19
capita	19
Daddy	19
teacher	19
discriminat	19
▁portfolio	19
▁Thousands	19
▁examining	19
▁salad	19
▁valu	19
▁arguably	19
▁plummet	19
▁temporarily	19
▁blaz	19
▁lyric	19
assisted	19
▁charcoal	19
▁inferior	19
▁outweigh	19
▁steak	19
▁Shortly	19
▁buffer	19
▁analyst	19
▁Campaign	19
▁dairy	19
▁evoke	19
▁Traditional	19
▁Friedman	19
▁dashboard	19
▁pollination	19
▁Dublin	19
▁Origin	19
▁Bahamas	19
▁plutocrat	19
▁clarify	19
▁crisp	19
▁peripheral	19
▁repositor	19
▁knob	19
▁engulf	19
▁fatigue	19
▁underlie	19
▁congratulat	19
▁southwest	19
▁Raisuddin	19
▁Special	19
▁menstruation	19
nspired	19
▁withstand	19
▁mismatch	19
▁Botswana	19
▁twentie	19
▁vertebrate	19
▁Judaism	19
▁Kentucky	19
▁Graham	19
uestion	19
▁discriminate	19
▁teapot	19
▁ecologist	19
▁stockpile	19
▁Birds	19
▁rejuvenat	19
granddaughter	19
▁forensic	19
▁bargain	19
▁increment	19
▁desirable	19
▁guiding	19
▁liberating	19
Sleep	19
▁charging	19
▁pragmatic	19
▁anonymity	19
▁intestine	19
▁stubborn	19
▁jelly	19
▁plume	19
▁framing	19
▁puppy	19
▁squeak	19
▁joking	19
▁decoration	19
▁Enceladus	19
▁legitimacy	19
▁leisure	19
▁logistics	19
ustainable	19
▁exhilarating	19
haired	19
▁lemon	19
Actor	19
▁postcards	19
▁Amanda	19
▁Collect	19
▁Sergio	19
▁barbershop	19
▁offense	19
▁irregular	19
▁trustworthy	19
▁sleeve	19
▁deprivation	19
sanitary	19
▁doodling	19
▁bureaucracy	18
▁Stirling	18
▁fringe	18
▁epilepsy	18
▁naught	18
▁sermon	18
▁provocative	18
▁unbelievably	18
▁privatiz	18
▁exploding	18
▁Alfred	18
connected	18
▁anomaly	18
▁Picasso	18
▁Laboratory	18
▁biomedical	18
▁niche	18
▁Conservation	18
destruct	18
▁sanctuary	18
▁Shoots	18
▁anthropology	18
▁divergence	18
▁perfume	18
grain	18
▁filament	18
▁imprisoned	18
▁skyrocket	18
▁precursor	18
▁Planet	18
▁fiddle	18
▁husk	18
▁Bueno	18
▁Capital	18
▁gloom	18
▁umbrella	18
▁absent	18
agged	18
▁cymatic	18
▁DIY	18
ague	18
▁endemic	18
▁hydrant	18
▁dwarf	18
▁Mathematica	18
▁metasta	18
▁Magic	18
▁alternate	18
▁Voyager	18
▁trawl	18
▁dispens	18
▁tub	18
▁thermostat	18
▁Acumen	18
▁Philippines	18
▁dividing	18
▁prestig	18
transcendence	18
▁abalone	18
▁relentless	18
▁Everywhere	18
▁guru	18
▁academia	18
▁amphibi	18
▁bundle	18
▁slid	18
▁dementia	18
▁tornado	18
▁Morgan	18
▁marble	18
▁blaming	18
speaking	18
▁synonymous	18
▁albeit	18
▁litigation	18
▁laureate	18
▁Laptop	18
▁Brilliant	18
▁degrading	18
enchant	18
▁puzzling	18
▁bumblebee	18
▁regenerative	18
▁relocate	18
endurance	18
▁repetitive	18
▁Extreme	18
▁Matthew	18
▁annoyed	18
▁Hispanic	18
▁avenue	18
▁Ukraine	18
▁Batman	18
▁brilliance	18
definition	18
▁artisan	18
▁shrunk	18
▁lousy	18
▁reprogram	18
protected	18
▁Dream	18
▁surpass	18
▁humiliate	18
▁crave	18
▁illustrat	18
▁evolutionarily	18
▁wondrous	18
▁trafficked	18
▁Galois	18
▁ambiguous	18
▁Baghdad	18
ö	18
graphers	18
▁contemplate	18
helix	18
▁Evolution	18
▁inorganic	18
▁disclose	18
▁Festival	18
▁persuasive	18
▁astonished	18
decisive	18
▁audacious	18
▁bankrupt	18
▁Nowadays	18
▁anticipation	18
▁epidemiologi	18
▁Rouge	18
▁Malaysia	18
▁Embassy	18
▁squirrel	18
▁parrot	18
spective	18
▁Northwest	18
▁imitation	18
▁troubling	18
▁appreciat	18
▁diffusion	18
▁grappl	18
▁defecat	18
▁nanotube	18
▁Disease	18
▁Helvetica	18
▁Mahmoud	18
▁Hopkins	18
▁spoof	18
▁nephew	18
▁Bassem	18
▁bipolar	18
▁handbag	18
▁motivator	18
▁Goliath	18
▁bonobo	18
▁microRNA	18
▁doodle	18
▁Fibonacci	18
▁costume	18
”	18
▁McGowan	18
evolution	17
▁Elephant	17
▁precaution	17
▁Kanzi	17
▁Austin	17
▁wield	17
▁paintbrush	17
▁inference	17
▁foremost	17
flipping	17
▁schizophrenic	17
▁incidence	17
▁circus	17
▁paddle	17
▁palace	17
▁Delta	17
▁Congolese	17
▁Minnesota	17
▁locate	17
▁USDA	17
▁heterosexual	17
▁nominate	17
▁IDEO	17
▁atmospher	17
▁articulat	17
▁gratification	17
▁Uruguay	17
▁lexicon	17
▁pinnacle	17
▁Nicholas	17
▁sampling	17
▁sanction	17
licious	17
▁plywood	17
▁Bureau	17
▁expir	17
▁questionnaire	17
▁antiangiogenic	17
▁elevation	17
▁compensate	17
▁ominous	17
▁jerk	17
▁Mitchell	17
▁activation	17
focus	17
▁Kabul	17
▁leukemia	17
▁Archimedes	17
Awesome	17
▁NIH	17
▁cofounde	17
▁Beatles	17
▁Portuguese	17
World	17
▁Missouri	17
▁leverag	17
▁Product	17
▁resume	17
mobile	17
▁Erik	17
▁cursor	17
▁malware	17
▁Crime	17
▁stimulating	17
nversely	17
▁exoskeleton	17
ficiencies	17
▁secrecy	17
▁synagogue	17
▁peacebuild	17
▁misunderstood	17
▁hawk	17
▁squatter	17
▁occurrence	17
▁Jacques	17
▁Fifth	17
▁volatile	17
▁Thursday	17
▁Mongolia	17
▁arrogant	17
▁measles	17
▁discarded	17
▁Needles	17
Mobile	17
▁incision	17
Citizen	17
▁Illinois	17
▁culminat	17
▁Harbor	17
▁wobbl	17
▁pennies	17
▁preliminary	17
▁reconciliation	17
▁ADHD	17
▁requir	17
▁curb	17
▁IKEA	17
▁infamous	17
▁strawberr	17
▁disengag	17
▁legislators	17
▁reckon	17
@	17
▁conceivabl	17
▁biomimicry	17
▁butterfly	17
▁upstairs	17
▁Studio	17
▁trek	17
▁medicinal	17
▁conjure	17
▁intercept	17
▁trance	17
▁pavilion	17
▁asphalt	17
▁petroleum	17
▁Ranger	17
▁Plus	17
▁frugal	17
▁Choir	17
▁transcript	17
▁amygdala	17
▁windmill	17
▁CAPTCHA	17
▁Gwen	17
▁sensual	16
▁Broadway	16
▁squeez	16
▁Sudhir	16
▁sprinkle	16
▁Stockholm	16
▁ruthless	16
▁extremism	16
▁Study	16
▁gradient	16
▁graduation	16
▁crease	16
▁Hiroshima	16
enhancing	16
▁beehive	16
▁messenger	16
▁accord	16
▁practitioner	16
▁wiggle	16
▁Orchestra	16
happiness	16
▁appalling	16
girl	16
Life	16
▁discourage	16
▁coconut	16
▁judging	16
▁devour	16
▁shaft	16
building	16
▁motivating	16
▁crux	16
▁advisor	16
▁bleach	16
▁jumble	16
▁Balkans	16
▁Challenge	16
▁burglar	16
▁Saddam	16
▁welcoming	16
▁illumination	16
▁disguise	16
▁sophistication	16
▁TEDGlobal	16
eminent	16
▁definitive	16
▁NATO	16
▁neutrino	16
▁Mandarin	16
▁EEG	16
▁antidote	16
▁pianist	16
▁innocence	16
▁yoga	16
▁unexplored	16
▁Species	16
▁neurologist	16
▁opaque	16
Search	16
▁shaman	16
sufficient	16
▁militar	16
▁HeForShe	16
▁Celsius	16
▁saturated	16
▁classify	16
▁zodiac	16
▁revisit	16
▁Rockefeller	16
▁proximity	16
▁porch	16
▁Develop	16
▁enclosure	16
▁Aurora	16
▁Wednesday	16
▁tramp	16
▁pseudo	16
▁Intelligence	16
▁Stanley	16
▁neurobiolog	16
▁Nollywood	16
▁insignificant	16
▁numerical	16
▁sequel	16
▁slippery	16
focal	16
▁Cochrane	16
▁credibility	16
▁examination	16
boriginal	16
▁surrogate	16
▁oppression	16
▁Vienna	16
▁dengue	16
Leave	16
▁rehearsal	16
▁Alexandria	16
▁triangula	16
▁cockpit	16
▁franchise	16
▁multimedia	16
▁Mubarak	16
▁spreadsheet	16
▁brothel	16
▁plausibl	16
▁Hampshire	16
▁tobacco	16
shelf	16
▁Madison	16
▁choke	16
organization	16
▁Rag	16
▁Langley	16
▁advocating	16
▁tragedies	16
▁swollen	16
▁Anthony	16
▁Jacob	16
▁collapsing	16
▁cohesi	16
▁arthritis	16
▁saddle	16
▁Arkansas	16
▁Correct	16
▁Bowl	16
▁administrative	16
▁Morocco	16
Vagina	16
▁sabbatical	16
▁Gando	16
▁pigmentation	16
▁FreeSpeech	16
▁combustion	15
▁kilowatt	15
▁retaliat	15
▁fountain	15
▁Hunter	15
▁inflection	15
▁fMRI	15
▁crammed	15
▁bureaucrat	15
▁indicating	15
▁nugget	15
▁psychiatry	15
▁atrocities	15
▁annihilat	15
▁paycheck	15
▁brochure	15
▁arsenal	15
▁terabyte	15
▁Julius	15
▁Viagra	15
▁ghetto	15
▁rifle	15
extraterrestrial	15
▁redefining	15
▁suicidal	15
▁archetyp	15
▁investigator	15
▁persuasion	15
▁hologram	15
▁compliance	15
▁porridge	15
▁feasible	15
▁perimeter	15
▁aquarium	15
▁diabetic	15
▁supreme	15
▁Dimitri	15
▁Sioux	15
▁dispose	15
▁Initiative	15
▁wizard	15
▁Seriously	15
▁Douglas	15
▁liberties	15
▁Hussein	15
▁hardwired	15
▁influenc	15
▁razor	15
▁maggots	15
▁ravage	15
▁Gallery	15
▁amputation	15
▁rudder	15
▁contemplating	15
▁tactile	15
▁protagonist	15
▁fragility	15
submission	15
▁ambien	15
▁communism	15
▁latrine	15
factor	15
▁qualitative	15
iquette	15
▁instantaneous	15
▁vigil	15
▁Chernobyl	15
▁lightbulb	15
▁impairment	15
▁Reserve	15
▁synchrony	15
▁simulating	15
▁kettle	15
▁appendage	15
▁champagne	15
▁philanthropic	15
▁dismantle	15
▁facilitator	15
▁Asperger	15
▁quadruple	15
▁emerald	15
▁necessity	15
!]	15
▁ventilation	15
written	15
▁Gertrude	15
▁plaque	15
▁miniature	15
▁administer	15
▁DDT	15
▁pilgrim	15
▁bottleneck	15
▁comprehend	15
custome	15
▁Chicken	15
▁exaggeration	15
▁pellets	15
▁woven	15
▁reassuring	15
pplied	15
▁empathize	15
▁detergent	15
▁cowboy	15
▁bulldoze	15
▁Istanbul	15
▁snippet	15
▁bedrock	15
▁Tarahumara	15
▁visibility	15
▁hyperbolic	15
defined	15
▁Eleanor	15
▁substrate	15
▁embodiment	15
▁hierarchical	15
▁Connect	15
▁Airbnb	15
ynthetic	15
▁Mouaz	15
▁suffocat	15
▁monastery	15
▁Management	15
▁turbulent	15
▁suspicion	15
▁Neumann	15
▁turnaround	15
normal	15
▁Serbia	15
▁cycling	15
nuclear	15
▁escap	15
▁radiologist	15
▁cholesterol	15
▁disastrous	15
▁aggregat	15
▁Symphony	15
▁multitasking	15
▁Poetry	15
▁Critic	15
▁daydream	15
▁salamander	15
▁Hannah	15
portrait	15
▁indifferent	15
▁neurologic	15
▁Nikola	15
▁pajama	15
▁corpus	15
▁Mauritius	15
▁Vermeer	15
▁PISA	15
▁Mermaid	15
▁phthalates	15
▁laparoscopic	15
▁Dragon	15
▁progeria	15
▁OPEC	14
▁knives	14
▁striving	14
▁perseverance	14
▁reassure	14
▁Cameroon	14
▁Gabriel	14
▁Emmanuel	14
▁merchant	14
▁swine	14
▁leapfrog	14
▁Ottoman	14
▁rebellion	14
▁patriarch	14
▁judicia	14
▁SOPA	14
▁PIPA	14
▁neutron	14
▁Geiger	14
▁salaries	14
▁disparity	14
▁sentient	14
▁grazing	14
▁immersive	14
▁eternity	14
▁Horse	14
▁duplicate	14
▁exterior	14
▁metadata	14
▁typewriter	14
▁UFO	14
▁Terror	14
▁Netflix	14
▁Barbara	14
▁Nixon	14
▁brigade	14
▁savage	14
▁cultivat	14
▁rehearse	13
▁defensive	13
▁rhyme	13
▁coincide	13
contacted	12
–	11
▁marrie	11
ñ	9
fulfilling	9
(	8
[#	8
ù	8
ü	7
^	7
ï	6
à	6
‘	6
ø	5
[@	5
ZX	4
ā	4
▁foi	3
£	3
*	3
♫	3
É	3
â	3
ê	3
________	3
Á	3
QQ	2
ä	2
ī	2
ć	2
!!!	2
!!!!!	2
	2
อร่อย	2
XX	2
ë	2
â	2
ô	2
!!	2
XXX	1
[$	1
Zé	1
¡	1
çã	1
ò	1
ē	1
à!	1
][	1
]!	1
Č	1
Å	1
¢	1
æ	1
Ç	1
送你葱	1
——	1
€	1
ě	1
++	1
Q!	1
̊	1
ū	1
!”	1
’”	1
ZZ	1
ì	1
