▁	320990
,	274276
.	224362
__SEP__	220736
s	177872
▁the	174465
▁to	112108
'	109172
▁of	101502
▁a	96477
▁and	95148
▁that	79329
▁I	73707
▁in	68491
▁is	56188
▁it	54994
▁you	54743
▁we	49302
0	39002
▁And	37902
▁this	36595
t	36095
▁was	27315
▁for	25711
▁people	25437
▁like	25431
▁are	24582
▁have	24209
re	24193
▁they	23261
▁on	22728
▁just	21886
▁--	21747
▁with	21597
ing	21454
▁know	21068
▁can	20991
d	20481
-	20037
▁So	19912
?	19704
▁going	19418
▁what	19274
ed	19259
▁be	19170
▁about	18647
▁think	18224
1	18143
▁as	16817
▁at	16642
▁do	16141
▁all	16085
▁not	16075
▁really	15653
▁there	14942
m	14619
▁world	14447
▁don	14413
▁so	14406
▁my	14283
▁one	14042
▁It	13943
▁"	13941
▁time	13638
▁from	13602
▁want	13043
▁but	12926
▁way	12767
▁an	12728
:	12370
▁things	12229
▁our	12103
▁or	12012
▁actually	12001
▁years	11990
2	11680
▁said	11630
▁We	11541
▁me	11526
▁out	11351
▁But	11129
▁if	11042
▁right	11034
▁these	10986
ve	10968
▁very	10508
▁them	10409
▁The	10295
▁up	10286
▁by	10273
▁make	10186
ly	9998
▁he	9860
▁when	9828
▁because	9651
▁more	9630
▁had	9593
▁see	9392
▁thing	9385
▁look	9041
e	9036
▁who	8971
▁were	8960
▁work	8899
▁their	8837
▁which	8814
▁your	8761
▁got	8704
▁would	8570
▁how	8536
▁did	8525
▁need	8429
▁say	8388
▁get	8344
▁little	8081
▁us	8004
y	7966
5	7853
▁life	7845
n	7750
▁good	7729
er	7662
▁ve	7565
▁here	7539
▁then	7502
▁has	7451
▁let	7435
▁This	7252
▁into	7139
▁lot	7130
▁You	7119
▁some	7116
▁new	7059
▁different	7024
9	6992
▁go	6774
▁will	6731
▁where	6688
▁kind	6657
▁now	6513
▁other	6419
▁Now	6357
▁could	6303
▁come	6183
▁They	6114
▁been	6097
▁doing	5914
al	5871
ll	5863
▁use	5750
3	5632
▁no	5613
▁year	5519
▁day	5439
▁something	5425
▁tell	5422
▁talk	5338
▁didn	5269
▁over	5267
▁than	5256
▁those	5220
▁called	5216
▁two	5196
r	5183
▁first	5131
▁back	5093
▁change	5058
▁also	5032
▁percent	5018
▁great	4939
es	4890
▁thought	4881
▁much	4827
▁In	4826
▁problem	4694
▁she	4683
▁today	4677
▁big	4650
4	4604
▁went	4593
▁That	4587
▁started	4542
▁does	4541
c	4540
▁idea	4536
▁story	4526
▁only	4525
▁course	4461
▁human	4441
▁his	4440
▁most	4420
▁better	4386
▁even	4295
▁important	4284
8	4223
▁many	4189
▁question	4170
▁take	4166
o	4138
▁fact	4107
▁start	4095
▁water	4050
in	4032
▁mean	4018
▁love	3942
▁around	3911
ic	3854
▁thank	3849
▁What	3828
▁bit	3825
▁brain	3822
▁♫	3803
6	3789
▁down	3783
▁her	3764
▁A	3725
▁There	3714
▁data	3687
p	3664
▁place	3644
▁He	3643
▁came	3636
▁wanted	3596
▁through	3566
7	3565
▁women	3547
th	3523
▁every	3509
▁able	3507
▁same	3506
▁example	3475
▁technology	3454
▁put	3447
▁point	3435
▁used	3431
▁ll	3397
▁doesn	3396
▁end	3395
▁understand	3365
▁long	3363
▁being	3343
g	3309
▁looking	3298
;	3287
▁believe	3281
▁If	3177
▁three	3175
▁real	3166
a	3140
▁well	3105
▁ago	3069
▁maybe	3069
▁working	3045
▁feel	3038
▁any	3034
le	3014
▁children	3007
▁power	2999
▁try	2997
▁school	2989
▁person	2959
▁live	2952
u	2945
▁find	2937
or	2934
ation	2916
▁made	2913
▁Well	2877
▁trying	2875
▁happened	2861
▁man	2828
▁sort	2807
li	2778
▁away	2773
▁help	2762
▁number	2758
ro	2756
▁why	2756
ra	2754
V	2734
▁money	2732
▁thinking	2728
i	2709
▁million	2695
▁ask	2686
▁old	2680
▁design	2670
▁hard	2670
▁country	2665
▁after	2664
an	2643
ri	2637
ers	2631
▁kids	2624
▁information	2613
▁own	2606
▁second	2599
▁light	2596
▁last	2595
▁S	2576
▁talking	2569
en	2562
▁took	2542
▁means	2536
l	2521
▁play	2520
st	2518
▁home	2517
▁pretty	2504
▁space	2495
▁left	2475
▁interesting	2474
▁quite	2470
▁car	2464
▁stuff	2452
▁future	2447
▁simple	2446
▁best	2437
▁might	2436
▁food	2429
▁should	2421
▁un	2405
▁comes	2404
▁happen	2403
ch	2402
▁before	2399
▁told	2398
▁part	2395
▁off	2394
▁using	2378
el	2376
▁give	2375
it	2374
▁wrong	2373
▁another	2367
▁answer	2364
▁hand	2359
▁small	2346
able	2324
▁picture	2320
▁never	2318
▁moment	2312
▁getting	2312
▁system	2302
ity	2297
▁still	2296
▁body	2295
▁high	2294
▁yes	2293
▁sense	2291
▁create	2282
▁building	2282
▁times	2273
▁science	2271
▁room	2269
▁him	2265
▁together	2263
▁happens	2263
▁T	2256
il	2244
▁bad	2233
▁E	2230
f	2229
"	2221
▁energy	2218
▁build	2205
▁countries	2179
▁probably	2178
▁social	2176
▁true	2175
▁next	2174
▁okay	2174
▁learn	2173
▁coming	2171
▁show	2169
▁asked	2169
▁care	2166
ur	2161
▁case	2147
▁goes	2139
▁making	2114
▁de	2113
▁few	2106
▁says	2103
▁saw	2093
▁again	2090
S	2081
▁B	2075
▁young	2075
▁ways	2069
▁reason	2066
▁When	2050
▁men	2050
ion	2047
▁found	2043
▁between	2043
▁each	2040
I	2036
▁too	2036
▁C	2034
▁makes	2032
▁experience	2025
on	2020
▁hope	2016
▁works	2003
▁open	2002
▁city	2002
▁amazing	1996
us	1994
▁family	1992
ar	1990
ate	1990
▁wasn	1988
▁dollars	1982
▁project	1977
,"	1969
▁seen	1966
▁mind	1958
▁half	1955
▁lives	1946
▁set	1943
▁remember	1940
▁stop	1929
▁process	1916
▁computer	1906
▁imagine	1906
▁far	1898
▁matter	1892
h	1890
▁problems	1889
▁isn	1883
▁book	1882
▁billion	1882
▁word	1880
▁read	1879
ent	1877
▁looks	1876
▁c	1874
▁done	1865
▁business	1860
▁ever	1860
▁guy	1857
ness	1854
▁yeah	1848
▁Because	1843
▁days	1837
▁sure	1826
▁whole	1821
▁call	1815
▁living	1814
▁face	1808
▁war	1805
▁words	1799
▁looked	1798
▁possible	1788
▁ideas	1782
▁beautiful	1775
▁video	1773
▁happening	1769
▁later	1766
▁four	1757
▁planet	1756
▁everybody	1755
▁cancer	1750
▁control	1748
▁turn	1744
▁basically	1744
▁community	1740
▁saying	1731
ist	1725
▁always	1721
▁single	1715
▁inside	1714
b	1712
▁child	1707
▁cells	1703
▁global	1702
ne	1695
▁may	1695
▁woman	1693
▁model	1693
▁job	1686
▁music	1675
▁age	1673
▁heard	1667
▁health	1656
▁F	1652
▁couple	1647
!	1626
▁bring	1624
▁line	1624
▁knew	1617
▁having	1613
ment	1604
▁public	1602
▁history	1599
▁months	1597
k	1595
A	1587
▁How	1583
▁universe	1578
▁built	1568
▁P	1565
ter	1562
▁am	1557
ive	1555
▁form	1555
▁language	1553
▁head	1553
▁self	1550
▁exactly	1546
est	1546
▁five	1544
▁walk	1534
▁stories	1534
▁education	1532
▁run	1532
▁worked	1531
▁happy	1530
▁share	1530
▁group	1529
▁f	1527
▁won	1525
▁completely	1524
▁piece	1523
▁For	1522
▁decided	1520
▁everything	1520
▁become	1517
▁hear	1516
▁night	1515
▁order	1513
▁nature	1510
▁U	1508
ant	1502
to	1500
▁questions	1493
▁species	1493
▁G	1484
▁couldn	1484
▁sound	1481
▁One	1480
▁news	1479
▁huge	1474
▁changed	1472
ul	1472
▁mother	1472
▁learned	1470
▁turns	1470
▁art	1468
x	1465
▁g	1459
ac	1458
▁My	1456
▁friends	1455
w	1452
▁enough	1449
▁She	1443
▁research	1441
▁free	1431
▁animals	1431
▁places	1424
▁study	1423
la	1423
▁con	1420
▁heart	1420
▁ones	1418
▁government	1418
C	1416
▁lots	1416
▁state	1412
▁R	1408
▁somebody	1406
▁per	1404
▁gets	1398
▁less	1397
▁easy	1397
po	1396
lo	1389
▁These	1383
▁guys	1380
man	1372
▁wonderful	1366
un	1363
▁air	1361
ia	1360
▁under	1359
ce	1356
▁game	1350
te	1350
▁close	1348
▁level	1347
▁society	1346
▁b	1345
as	1340
▁co	1337
▁without	1333
▁As	1332
▁students	1332
▁black	1328
▁difference	1326
▁view	1321
▁house	1314
▁minutes	1311
▁past	1311
▁eyes	1308
▁audience	1306
▁scale	1304
▁oh	1297
▁hours	1297
▁machine	1297
ting	1296
ta	1296
age	1296
▁company	1292
▁side	1282
▁leave	1276
ct	1275
▁Here	1275
▁kinds	1274
▁such	1272
up	1271
▁anything	1269
ian	1267
▁team	1264
bo	1263
▁ok	1262
▁disease	1253
▁cell	1252
▁common	1249
▁created	1249
▁across	1248
▁taking	1243
▁No	1242
▁difficult	1242
▁deal	1240
▁oil	1238
id	1237
▁reality	1233
▁natural	1233
▁seven	1229
▁Let	1228
▁learning	1228
na	1226
▁beginning	1225
▁figure	1224
▁land	1224
▁large	1223
▁father	1223
▁test	1222
pe	1209
▁environment	1207
▁finally	1202
▁cities	1199
▁cost	1198
▁gave	1197
▁New	1193
▁thousands	1193
▁Africa	1193
▁move	1192
▁taken	1188
▁All	1187
▁else	1183
▁D	1181
▁M	1181
▁ca	1180
ha	1180
▁turned	1180
▁p	1179
▁tried	1177
▁needed	1174
▁step	1173
▁outside	1172
▁powerful	1171
rs	1169
D	1169
▁fish	1165
▁paper	1163
▁early	1160
▁dis	1158
▁watch	1158
▁image	1156
ism	1154
▁market	1151
▁hands	1149
▁area	1148
▁began	1147
▁population	1147
▁middle	1144
▁top	1144
▁instead	1140
▁short	1134
▁wouldn	1131
▁culture	1129
▁buy	1129
▁cool	1129
▁write	1123
▁pay	1122
▁seeing	1117
▁challenge	1116
ized	1114
▁felt	1114
▁moving	1112
▁while	1111
▁fear	1108
M	1105
ine	1103
▁nice	1103
▁almost	1102
ated	1102
▁needs	1100
ci	1099
▁already	1099
▁surface	1096
▁systems	1096
▁phone	1095
▁week	1095
▁century	1093
▁Earth	1092
▁pre	1091
z	1087
▁white	1086
ba	1085
▁media	1085
▁particular	1083
▁incredible	1083
▁act	1081
▁yet	1080
▁nothing	1080
▁certain	1079
ol	1077
▁Thank	1075
ry	1073
ma	1072
less	1071
▁rest	1069
▁interested	1069
▁six	1069
▁fun	1069
▁born	1069
▁both	1068
▁size	1067
▁once	1064
▁entire	1061
▁guess	1061
co	1061
▁poor	1060
▁eat	1060
pa	1058
▁takes	1057
ck	1055
▁whether	1051
▁longer	1050
▁someone	1047
▁lost	1047
▁often	1046
▁green	1045
▁parents	1045
▁local	1043
▁changes	1037
ous	1037
▁opportunity	1034
ir	1033
▁within	1032
▁hold	1032
▁stage	1031
▁Ma	1031
▁program	1030
▁voice	1030
▁death	1028
▁value	1028
▁companies	1027
tion	1025
▁die	1025
sh	1025
▁myself	1025
▁grow	1017
▁keep	1012
▁Why	1011
▁given	1011
▁ocean	1010
▁simply	1010
▁ma	1008
▁speak	1008
tic	1005
▁gone	1005
pl	1003
▁red	1002
ty	998
▁weeks	997
▁clear	996
▁absolutely	994
▁key	992
▁earth	992
▁experiment	987
▁ex	986
vi	985
▁met	985
ial	985
▁blue	985
bi	979
ating	978
▁behavior	977
▁complex	976
▁numbers	974
ling	974
▁quickly	972
▁blood	970
com	970
ke	968
▁United	966
▁feeling	964
▁sea	963
▁morning	962
is	961
▁parts	960
▁film	956
▁humans	955
ho	954
he	951
▁color	950
▁terms	949
▁special	948
▁theory	947
▁issue	947
▁K	945
▁feet	943
▁girl	943
[	943
▁attention	942
]	942
▁innovation	941
▁growth	941
ie	935
▁books	934
ary	933
▁perfect	932
▁economy	932
▁until	930
▁ground	928
▁animal	921
▁known	919
fi	919
▁name	919
▁truth	919
▁africa	918
P	916
op	915
▁realized	914
▁economic	913
▁friend	913
▁cut	912
▁chance	912
di	911
▁sun	911
ow	909
▁brought	908
ut	906
▁solution	905
▁mo	904
▁became	903
▁low	900
▁robot	899
▁shows	899
▁Internet	898
▁god	898
▁areas	897
▁though	896
▁wrote	896
ize	896
▁baby	895
the	893
▁O	892
ally	892
▁spend	892
▁access	891
▁Do	889
▁America	887
▁dream	886
▁movement	886
▁support	886
▁map	883
▁field	883
▁network	882
’	881
▁States	879
▁must	879
▁wish	879
▁average	878
▁Or	877
▁explain	876
▁political	876
▁kid	875
ies	875
▁sex	875
▁since	874
▁stand	873
▁climate	872
▁risk	871
▁meet	871
▁third	869
▁based	869
▁force	868
▁sitting	868
▁anybody	868
▁wait	868
v	867
▁material	867
▁fly	866
▁impact	866
▁patients	865
▁trust	864
▁dead	862
▁To	862
ance	862
old	862
▁front	861
▁stay	861
de	858
▁talked	858
▁structure	853
▁itself	852
▁running	852
▁bigger	851
no	850
and	850
▁knowledge	849
▁ready	849
▁lab	849
▁cars	848
▁result	847
son	846
T	846
▁worth	846
▁dark	845
▁growing	841
▁images	840
▁telling	839
▁J	839
▁writing	837
▁examples	836
▁sit	834
▁eye	834
▁individual	834
▁focus	834
▁reasons	834
am	833
▁ourselves	831
▁choice	831
▁along	830
▁themselves	830
▁against	830
▁sometimes	829
▁journey	828
▁code	828
▁solve	826
▁ability	825
▁table	825
▁vision	824
mp	822
▁normal	821
▁break	820
▁TED	819
cy	819
▁personal	818
▁India	814
▁fast	813
▁pick	811
▁starting	811
▁tools	810
▁center	809
▁son	808
▁OK	807
at	807
▁gives	805
▁pro	803
▁street	801
▁deep	801
▁forward	800
▁asking	800
▁spent	799
um	799
▁zero	797
▁w	796
▁issues	796
▁similar	796
▁God	795
▁door	795
▁rather	794
▁ice	791
▁understanding	791
▁technologies	789
▁approach	789
▁listen	789
der	788
nt	787
O	787
▁others	785
▁changing	785
ted	785
▁physical	784
▁office	784
▁scientists	783
uc	783
▁object	782
▁least	782
▁miles	782
▁class	781
▁situation	780
▁Then	780
▁haven	780
▁obviously	780
▁measure	778
▁literally	778
ach	776
▁sp	774
▁favorite	774
▁save	774
▁realize	774
ish	773
▁produce	773
B	773
—	773
▁girls	772
▁aren	771
▁patient	770
▁wind	769
▁everyone	769
▁screen	768
ig	766
sa	766
▁begin	766
me	764
▁generation	764
con	763
▁exciting	763
▁shape	761
▁list	761
▁law	760
▁teach	760
▁box	758
▁totally	757
▁add	755
▁At	754
▁showed	754
▁ted	754
▁evidence	754
▁...	753
▁present	753
▁response	753
▁hundreds	751
▁pictures	751
▁follow	748
▁basic	748
▁wants	747
▁effect	747
log	747
▁certainly	747
▁full	746
▁giving	746
▁wall	745
The	745
▁incredibly	745
▁industry	742
▁product	741
▁bar	741
▁plan	740
mo	739
ful	739
hi	738
ence	737
▁sounds	737
▁boy	737
▁h	737
▁computers	736
▁solar	736
▁millions	735
▁China	735
▁designed	734
ver	732
pi	732
▁resources	732
▁crazy	732
▁sleep	731
▁type	731
▁rules	730
▁American	730
land	730
▁relationship	730
ton	729
▁message	729
▁touch	727
▁Be	727
▁available	727
L	727
ster	726
▁playing	725
▁online	724
▁carbon	722
▁developed	722
▁fine	722
▁win	721
▁k	720
line	720
▁plant	718
▁revolution	717
▁development	716
▁drive	716
min	715
ca	714
E	713
do	713
▁device	713
▁star	713
R	711
▁schools	710
▁fight	710
▁success	710
▁groups	709
▁Okay	708
▁send	706
be	706
▁soon	701
▁national	701
▁smart	700
▁N	699
▁moved	698
▁teachers	697
em	697
▁extremely	697
▁supposed	695
▁walking	695
▁discovered	694
▁tiny	693
▁compassion	693
▁action	692
▁drugs	692
▁lived	692
▁wonder	692
▁worse	690
▁choose	689
▁village	688
▁Some	688
during	688
▁skin	686
▁tend	686
▁speed	686
va	685
ization	685
year	685
▁behind	684
▁path	684
per	683
▁yourself	683
▁camera	682
▁starts	682
▁perhaps	682
▁York	682
▁waste	681
▁j	681
▁died	680
▁rate	680
▁W	680
▁results	680
▁medical	677
ard	677
▁arm	677
ical	676
▁period	675
▁hour	675
▁involved	674
▁month	674
wi	674
ble	673
▁secret	673
▁violence	673
▁slow	672
▁non	671
▁shot	671
▁tool	669
▁robots	669
▁modern	667
▁develop	667
▁clean	665
ists	664
▁evolution	664
▁pattern	664
N	664
▁eight	664
▁meaning	663
ge	663
▁cannot	663
▁treatment	662
▁hospital	662
▁ran	662
▁context	662
▁major	661
▁drug	661
▁mass	660
▁price	659
▁hot	659
▁hit	659
bu	658
♪	658
▁ha	657
▁role	656
▁notice	655
▁tree	655
▁impossible	654
▁digital	654
▁allow	653
▁strong	653
▁em	653
ga	652
que	651
▁american	651
ag	650
▁kill	649
▁visual	649
▁security	648
▁cause	648
▁complicated	648
▁extraordinary	648
▁recently	647
▁concept	647
▁medicine	644
▁wife	643
▁states	643
▁watching	642
▁grew	642
ip	642
▁mom	642
▁goal	640
▁sent	640
▁sub	639
wa	637
▁safe	636
▁creating	636
▁teacher	635
▁position	634
▁spread	634
▁connected	633
▁whatever	633
ex	633
▁likely	633
▁trees	632
mer	632
▁v	630
▁Just	629
▁lose	628
ab	628
▁tells	627
▁excited	626
▁plants	626
▁expect	624
▁check	624
▁amount	623
▁alive	623
▁super	623
▁minute	623
▁rights	622
▁late	622
▁happiness	621
▁fall	621
▁track	621
▁drop	620
▁potential	620
ten	620
▁recognize	620
▁la	619
▁movie	619
▁creative	617
ron	617
▁road	617
ni	617
▁software	616
▁biggest	616
▁leaders	616
▁student	615
▁suddenly	615
▁memory	614
ak	614
▁People	613
▁internet	612
▁dangerous	611
▁cr	610
▁led	610
▁genes	610
▁version	610
▁thanks	609
▁Re	608
▁square	608
▁reach	607
▁cases	606
▁count	605
tra	605
▁St	605
▁jobs	605
▁forest	605
▁developing	603
ure	603
▁taught	602
os	601
▁progress	601
▁gas	600
▁thousand	600
go	599
▁strange	599
▁L	599
fe	598
▁faster	598
che	597
▁college	597
▁materials	597
▁CA	595
▁Mo	595
▁scientific	595
ping	593
ill	593
▁perspective	592
▁pain	592
▁anymore	591
▁store	591
▁quality	590
▁doctor	590
▁treat	590
▁stars	589
▁showing	589
▁police	588
▁critical	587
▁higher	587
▁either	587
▁travel	587
▁projects	587
▁fit	587
▁train	586
▁allowed	585
▁crisis	584
gen	584
▁lead	584
▁search	584
▁moral	584
▁games	583
▁micro	583
G	582
▁largest	581
▁protect	581
▁sell	580
mon	579
▁loved	579
Well	579
▁connect	579
▁fantastic	579
▁sky	578
▁Can	578
▁Our	578
▁record	578
▁Not	578
▁kept	578
▁positive	577
▁consider	577
▁DNA	576
▁fire	576
▁brains	575
▁song	575
▁models	575
▁smaller	574
▁successful	574
▁democracy	573
▁On	573
▁sorry	573
ud	571
▁families	571
▁ended	571
▁inter	571
we	570
▁general	570
K	570
▁objects	570
▁board	570
▁communities	569
▁main	569
▁content	567
nd	567
▁web	567
▁Right	567
▁conversation	566
▁pull	565
vo	564
▁especially	563
▁poverty	563
▁bunch	563
▁quick	562
dy	562
▁math	561
▁killed	561
▁eventually	561
izing	560
ite	560
▁exist	559
▁meant	559
ran	558
▁bed	558
▁bottom	557
Z	557
▁clearly	557
▁particularly	557
▁finding	556
▁india	556
▁weren	555
▁plastic	555
▁individuals	555
▁fundamental	555
▁continue	554
▁training	552
▁source	552
▁term	552
▁truly	552
▁rich	551
▁specific	551
▁website	551
▁standing	551
ator	550
oc	550
▁cold	550
▁subject	550
▁solutions	549
▁familiar	549
▁fuel	549
▁page	548
▁decision	548
▁dog	547
▁forget	547
▁Le	547
▁putting	546
▁magic	545
ub	545
▁peace	545
▁stick	543
▁address	542
om	540
▁activity	540
▁worry	539
▁remarkable	539
▁floor	538
▁reading	537
▁america	537
▁foot	537
▁named	536
▁conditions	536
▁buildings	536
▁pieces	535
les	535
▁genetic	535
You	535
▁older	534
▁organization	534
▁hair	534
ap	533
▁Ro	533
side	533
▁lower	533
▁electricity	533
▁park	532
▁expensive	532
▁report	532
▁unique	532
▁products	532
ps	532
ny	532
▁legs	531
ug	531
▁decide	531
▁seconds	531
▁larger	531
▁terrible	530
ber	530
▁flow	530
."	529
ious	529
time	528
▁workers	528
▁po	527
▁freedom	527
▁written	526
▁essentially	525
▁shift	525
▁trouble	524
▁rise	523
way	523
▁alone	523
ot	523
▁machines	523
▁aid	522
▁listening	522
▁prison	522
▁respect	521
ding	521
▁slide	521
▁career	520
▁weight	519
▁survive	519
▁affect	518
sta	517
▁biology	517
eg	517
▁World	516
▁lines	515
▁ahead	515
▁useful	515
▁obvious	514
▁trade	513
What	513
▁waiting	513
▁bio	512
▁text	512
▁seems	511
▁nuclear	511
▁purpose	509
▁usually	509
▁sign	509
▁provide	508
▁return	508
▁De	508
▁passion	507
▁international	507
au	506
cor	506
ities	505
▁patterns	505
▁Ba	505
red	505
▁photo	505
▁decisions	504
▁service	504
▁anyone	504
▁practice	504
▁mental	504
▁famous	503
▁draw	502
▁military	502
▁final	502
▁temperature	501
▁female	501
▁raise	500
▁sat	500
▁architecture	500
▁cover	500
▁physics	500
▁dance	499
▁town	499
▁site	498
▁feed	498
▁allows	498
▁traditional	498
▁near	497
▁river	497
▁South	497
▁beauty	497
▁mission	496
F	495
▁virus	495
▁post	495
▁massive	495
▁Yeah	494
▁stopped	494
▁account	494
▁bacteria	493
▁respond	493
▁Go	492
ring	491
▁series	490
▁china	490
▁costs	488
▁shown	487
▁skills	487
ger	487
▁forms	487
▁studies	486
▁rule	485
▁willing	484
ery	484
▁choices	484
▁rain	483
qui	483
▁demand	482
▁photograph	482
io	482
ative	482
ice	482
▁region	481
▁An	481
▁sorts	481
ee	481
cal	480
iv	480
▁afraid	480
▁English	480
▁walked	480
ris	480
▁predict	480
▁direction	479
out	478
▁Europe	478
▁capital	478
vis	477
H	477
▁agree	477
▁By	476
▁neurons	476
▁pressure	476
▁effective	476
▁minds	476
▁answers	475
▁increase	475
▁sick	475
▁doctors	475
▁Co	474
▁aware	474
▁values	474
▁smell	474
▁current	472
▁popular	472
▁African	472
▁legal	472
▁points	471
▁app	470
▁dad	469
by	469
▁mine	468
▁worst	468
▁radio	467
▁gene	467
▁failure	466
▁actual	466
▁responsibility	465
▁beings	465
▁range	465
ki	464
▁complete	464
▁task	464
▁attack	464
led	464
▁seem	464
▁broken	463
▁infrastructure	463
▁afford	462
▁bridge	462
▁york	462
▁financial	462
▁babies	461
▁challenges	461
▁da	461
▁fix	461
▁teaching	460
▁push	460
▁Google	460
▁connection	460
▁religion	460
▁prevent	459
▁race	459
den	458
▁immediately	458
▁boat	458
▁function	458
▁wealth	457
▁paid	457
▁ball	456
▁funny	456
▁camp	455
▁engine	454
men	454
▁private	453
▁Ca	453
ey	453
▁sand	452
▁types	452
lt	452
▁Yes	451
▁match	450
▁nine	450
▁throw	450
▁intelligence	449
▁stress	449
fa	449
▁join	449
▁meters	449
▁rock	448
▁conflict	448
ib	448
▁flu	448
▁vote	448
▁email	448
▁slightly	447
▁enormous	447
▁heat	447
▁surprise	446
▁straight	446
▁apply	445
ward	445
Q	445
ang	445
▁unfortunately	444
lin	444
▁bodies	444
ad	443
▁relationships	443
▁politics	443
▁driving	443
▁Oh	443
▁healthy	442
▁speech	442
▁opposite	442
mi	442
▁decade	442
▁character	442
▁extra	441
▁closer	441
ren	440
▁Of	439
▁performance	439
▁mobile	439
▁daughter	439
▁meeting	439
▁matters	438
▁lucky	438
▁invented	438
▁humanity	437
▁communicate	436
▁towards	435
▁summer	435
des	435
▁experiments	435
▁pop	434
▁apart	434
▁income	434
ions	433
▁including	433
▁laws	433
one	433
▁Chinese	432
▁becomes	432
▁blind	432
▁policy	432
▁planets	432
▁charge	432
▁jump	431
av	431
▁anti	431
oo	431
▁beyond	429
▁First	429
▁several	429
▁rid	429
▁Me	429
▁bought	428
▁played	428
▁stuck	428
▁central	428
ever	427
▁missing	427
▁distance	427
▁cross	426
▁tissue	426
▁spot	426
ah	426
▁shared	426
▁window	426
▁block	424
▁roll	423
▁dreams	422
▁standard	422
▁governments	422
▁hundred	422
▁landscape	422
▁atmosphere	422
▁puzzle	422
▁yellow	421
▁greater	421
▁balance	421
▁press	421
▁instance	421
▁Every	421
▁greatest	420
▁condition	419
▁earlier	419
▁diseases	419
▁mu	419
▁edge	419
▁understood	418
▁proud	418
▁speaking	418
▁professional	417
▁oxygen	417
▁nation	417
▁dying	416
▁cycle	416
▁cultural	416
▁catch	416
▁improve	415
▁television	415
▁conference	413
▁helped	413
▁production	413
▁uses	413
▁onto	412
▁After	412
end	412
▁With	412
▁total	412
▁ship	412
▁Maybe	411
▁artist	411
▁differences	411
▁cap	411
▁male	411
▁La	410
▁brand	410
ner	410
ier	409
▁campaign	409
▁possibly	409
▁surgery	409
▁tough	408
▁target	408
▁further	408
▁dna	408
▁fair	408
▁biological	407
▁sustainable	407
▁definition	407
▁differently	407
val	407
ui	406
▁university	406
▁forth	406
da	406
▁mis	405
hy	405
▁sequence	404
▁br	404
▁flying	403
ped	403
gg	403
▁significant	403
▁Chris	402
▁pass	402
▁south	401
ue	401
▁worried	401
▁corner	401
▁visit	401
▁weird	401
▁decades	400
▁War	400
▁birth	400
ability	399
▁institutions	399
▁communication	399
▁united	399
▁engineering	397
▁date	397
if	397
▁airplane	397
▁sharing	396
▁genome	396
▁Ha	396
▁Y	396
▁effects	396
▁feels	396
▁mountain	396
▁capacity	395
▁event	395
har	395
▁noticed	394
▁moon	394
▁Ka	394
▁Who	394
▁enjoy	394
▁levels	394
▁lo	394
▁Ho	394
▁North	393
▁environmental	392
▁crime	392
▁twice	391
▁tail	390
▁degrees	390
▁chris	390
▁card	390
▁original	390
▁argument	390
▁urban	390
▁gr	390
▁supply	389
chi	389
▁streets	389
ging	389
▁hole	389
ja	388
▁interview	388
▁noise	388
▁investment	388
▁colleagues	388
han	388
▁birds	388
▁programs	387
▁nobody	387
▁boys	387
▁wear	387
▁hate	387
▁complexity	386
▁emotional	386
▁among	385
▁gold	385
▁threat	385
▁avoid	385
ors	385
▁accept	384
▁brother	384
▁reward	384
fer	384
▁museum	384
▁reaction	383
▁party	383
▁easier	383
▁citizens	382
ler	382
▁causes	382
▁invest	382
▁gap	382
▁benefit	382
▁trip	381
q	381
▁creativity	381
▁wild	381
▁carry	381
▁sector	381
▁Da	381
▁article	381
▁active	380
▁hell	380
▁networks	380
ff	379
ible	379
like	378
▁beat	378
▁bottle	378
▁everywhere	377
▁coffee	377
ld	377
▁Dr	377
ified	377
▁lack	377
▁reduce	376
▁brings	376
▁influence	376
▁scene	376
▁leg	376
▁inspired	376
▁north	375
▁alternative	375
sis	375
▁Most	374
▁core	374
day	374
▁failed	374
▁farm	374
▁Al	373
ng	373
Oh	373
▁trial	373
ning	373
gram	372
▁consciousness	372
ham	372
▁societies	372
▁competition	371
▁click	371
car	371
▁Even	371
▁identity	370
▁achieve	370
▁scientist	370
▁accident	369
▁serious	369
ob	369
▁explore	369
ther	368
ose	368
▁easily	368
▁hi	368
ick	368
▁opportunities	368
▁leadership	368
▁bomb	368
▁devices	367
▁forever	367
▁cat	367
cra	367
▁H	366
▁glass	366
ou	366
▁bread	366
▁lights	365
▁continent	365
▁crowd	365
▁hurt	365
▁argue	364
▁phenomenon	364
med	364
▁notion	364
X	364
pro	364
▁services	364
W	363
▁highly	363
▁desire	363
▁Bo	362
▁sad	362
▁following	362
▁negative	362
▁Sa	360
▁shouldn	360
▁brilliant	360
hu	360
▁painting	360
▁metaphor	360
▁faces	360
▁quote	359
▁imagination	359
▁bees	359
▁climb	359
▁justice	359
▁lesson	359
▁struggle	359
ise	359
No	358
▁sold	358
▁background	358
▁tape	358
▁creates	358
▁joy	358
▁mouth	357
▁smile	357
▁discover	357
▁published	357
▁husband	357
pec	357
▁helping	357
▁knowing	357
▁depend	356
▁bag	356
▁eating	356
▁curve	356
▁organizations	356
▁civilization	355
▁multi	355
ify	355
▁interact	355
▁ph	354
▁graph	354
▁chain	354
▁above	354
▁various	354
▁cl	353
▁lunch	353
▁horse	353
dimensional	353
▁flag	353
▁ancient	353
▁Don	353
▁switch	352
▁president	352
▁sister	352
▁commercial	352
▁evolved	351
▁strength	351
light	351
▁equal	351
▁West	350
▁grand	350
▁extreme	350
▁diversity	350
ign	350
▁virtual	350
ka	349
▁separate	349
▁forces	349
▁imp	349
▁seriously	349
si	349
▁tremendous	349
▁civil	349
▁random	348
▁Man	348
▁turning	348
▁structures	348
▁criminal	347
par	347
▁fascinating	347
▁letter	347
▁traffic	347
▁somewhere	346
▁para	346
tor	346
▁bird	346
▁hearing	346
▁experiences	346
▁disappear	346
▁chemical	345
▁industrial	345
rt	345
▁Li	345
▁molecules	345
ile	345
▁finish	345
▁lie	344
▁desert	344
rus	344
▁Where	343
▁trick	343
port	343
▁steps	342
▁cloud	342
▁gift	342
▁bank	342
▁restaurant	342
▁foundation	342
▁efficient	341
▁raised	341
▁circle	340
▁Today	340
▁moments	340
▁artists	340
▁english	340
▁effort	339
▁manage	339
▁paint	339
ably	339
▁strategy	338
hol	338
▁express	338
▁remind	338
▁correct	338
▁names	338
ze	338
▁cheap	337
lan	337
We	336
▁saving	336
▁recent	336
▁necessary	336
▁plane	336
ink	336
▁mess	336
▁directly	336
▁emotions	336
▁advantage	335
▁fairly	335
▁leads	335
▁responsible	335
▁professor	335
▁transform	335
▁motion	335
▁designers	335
▁transformation	335
▁fail	335
▁faith	335
▁Mi	334
▁ultimately	334
▁HI	334
▁bone	334
▁walls	334
▁Those	334
▁cow	334
▁wheel	334
▁blow	334
ack	334
let	334
▁insects	334
▁focused	333
▁giant	333
▁grade	333
▁dry	332
▁indeed	332
▁motor	332
▁Look	332
▁enable	332
▁universal	332
▁adults	332
▁Are	331
▁island	330
▁Hu	330
▁patent	330
▁topic	330
▁creation	330
ology	330
▁breast	330
king	330
▁nearly	330
▁fighting	330
ft	330
▁dollar	329
▁taste	329
▁represent	329
▁offer	329
▁passed	329
▁invisible	329
ight	328
▁engage	328
▁produced	328
▁nervous	328
▁suffering	327
▁Con	327
▁contact	327
▁mars	327
▁base	327
wo	327
▁theater	327
▁coast	326
▁interest	326
▁bear	326
▁importantly	326
▁magazine	326
▁exercise	326
▁studied	326
▁tradition	325
▁basis	325
▁flight	325
▁odd	325
▁fan	325
▁caught	324
▁ju	324
▁mouse	324
▁markets	324
my	324
▁fold	324
▁ecosystem	323
▁wood	323
▁signal	323
▁se	323
▁spending	323
▁vast	323
▁pen	323
▁spaces	323
ium	323
▁ka	323
ship	323
▁creatures	323
▁belong	322
▁expression	322
ition	322
▁East	321
▁stem	321
sha	321
▁attempt	321
▁opinion	321
▁blog	321
▁sing	321
▁wearing	320
▁benefits	320
▁mistake	320
▁awesome	320
▁believed	320
▁Na	319
▁labor	319
▁phones	319
▁hasn	319
▁typical	319
▁west	318
rse	318
▁studying	318
▁San	318
bl	318
▁possibility	318
ade	318
▁deliver	317
▁fund	317
▁suit	317
▁layer	317
▁stupid	317
▁surprised	317
▁upon	316
ook	316
pp	316
▁Like	316
▁welcome	316
▁somehow	316
▁clip	316
▁ideal	315
▁net	315
▁damage	315
▁claim	315
▁joke	315
▁soil	314
▁budget	314
▁finished	314
over	314
▁Su	314
▁interface	314
▁flat	313
▁silence	313
▁double	313
▁king	313
▁disaster	313
▁Po	312
▁mil	312
▁mark	312
▁calls	312
ically	312
fo	312
▁fossil	312
▁members	311
▁safety	311
▁broke	311
▁leader	311
▁ants	311
▁mechanism	310
▁exists	310
▁detect	310
▁becoming	310
▁entirely	310
▁prove	310
▁billions	309
▁profound	309
▁gain	309
▁related	309
▁harder	309
▁Di	308
▁serve	308
tter	308
▁surprising	308
▁lies	308
bringing	308
▁row	308
▁coral	307
▁gotten	307
▁ring	307
▁limited	307
▁consequences	307
mate	307
▁figured	307
▁stone	306
▁oceans	306
▁Americans	306
▁rocket	306
hr	306
▁gay	306
▁ah	306
▁pages	306
▁deeply	306
▁concerned	305
▁stream	305
art	305
▁anywhere	305
▁platform	304
▁elements	304
▁necessarily	304
▁gun	304
▁wide	304
▁cure	304
▁begins	304
▁wondering	304
▁watched	304
▁collect	304
▁describe	304
▁religious	303
▁married	303
▁gender	303
▁managed	303
▁honest	303
▁wave	302
▁fat	302
▁diet	302
▁fashion	301
▁grandmother	301
▁trillion	301
▁facts	301
▁please	301
▁google	301
▁trained	301
▁du	301
▁held	300
▁debate	300
▁location	300
▁tr	300
▁bus	300
▁molecule	300
▁holding	300
▁band	300
hinese	299
▁closed	299
▁shoes	299
▁opened	299
use	299
▁seat	299
▁drink	299
▁moves	299
▁quiet	299
▁promise	299
▁statistics	298
▁apple	298
▁hidden	298
je	298
▁curious	298
▁zone	298
▁arrived	297
▁epidemic	297
▁dinner	297
▁frame	297
▁organisms	297
▁Jo	296
▁electric	296
▁copy	296
cent	296
cla	296
▁bright	296
▁toilet	296
▁breath	296
▁chip	295
▁particles	295
bs	295
▁court	295
▁remote	295
▁shoulder	295
▁throughout	294
▁note	294
▁hey	294
▁mirror	294
▁prototype	294
▁liked	294
uff	294
▁shall	294
▁adult	293
▁discussion	293
▁battle	293
▁Which	293
▁adapt	293
lam	292
▁cameras	292
▁invention	292
▁shop	292
▁Another	292
ley	292
▁mentioned	292
▁childhood	291
▁yesterday	291
▁photos	291
▁grown	291
▁cards	291
▁Imagine	291
kin	290
▁farmers	290
▁collective	290
▁dynamic	290
▁degree	290
▁depression	290
▁discovery	290
▁University	290
▁journalist	290
▁himself	290
▁marriage	290
▁chair	290
▁fell	289
▁fully	289
istic	289
▁quantum	289
▁spoke	289
ay	288
▁calling	288
▁loss	288
▁link	288
▁doubt	288
▁colors	287
▁fl	287
▁Indian	287
▁channel	287
▁mathematics	287
▁waves	287
▁peer	287
▁wow	287
▁perfectly	286
▁Lo	286
▁accurate	286
▁John	286
▁Mars	286
▁helps	286
▁independent	286
▁judge	286
▁mothers	285
▁designer	285
▁City	285
▁crack	285
▁finger	285
▁victims	285
▁neighborhood	284
/	284
▁expected	284
▁deeper	284
▁mid	284
▁pounds	283
▁mix	283
▁collection	283
▁videos	283
▁release	283
▁heads	283
▁organic	282
off	282
▁sentence	282
▁losing	281
▁zoom	281
▁belief	281
▁wake	281
▁therefore	281
▁slowly	281
▁shame	281
▁despite	281
▁existence	281
▁limb	280
▁chart	280
▁sl	280
▁except	280
▁artificial	280
▁chicken	280
▁era	280
▁versus	280
sum	280
ctor	280
▁ab	280
▁principle	280
▁treated	280
▁reform	280
olu	279
meter	279
▁normally	279
▁engineers	279
▁teeth	279
▁weather	279
▁clock	279
▁sweet	278
▁laptop	278
▁equation	278
▁soldiers	278
▁bl	278
zz	278
▁anyway	278
▁parent	278
▁poetry	278
▁ride	278
▁hang	278
▁lady	277
▁perception	277
▁comfortable	277
▁member	277
▁malaria	277
▁shapes	277
all	277
▁galaxy	277
▁crash	277
▁interaction	277
▁classroom	277
▁inspiration	276
▁galaxies	276
▁invited	276
▁Cha	276
▁bra	276
▁generations	275
▁autism	275
▁soul	275
▁Many	275
del	275
▁signals	275
▁clever	275
▁tons	275
ray	275
ks	275
▁introduce	275
rm	275
▁agriculture	275
cha	275
pen	274
▁wisdom	274
mar	274
▁laugh	274
▁battery	274
▁distribution	274
▁concern	274
▁coal	274
▁lay	273
▁cave	273
▁constantly	273
▁gentlemen	273
▁awful	273
▁risks	272
▁garden	272
▁Pro	272
▁prize	272
▁spider	272
▁events	272
▁Ta	272
▁principles	272
▁comment	272
▁pocket	272
▁unit	272
▁host	271
▁arms	271
net	271
▁healthcare	271
▁received	270
▁identify	270
▁followed	270
▁transport	270
for	270
▁miss	270
▁Two	270
mber	270
▁telescope	270
▁roof	270
▁fourth	269
▁survival	269
lie	269
▁statement	269
work	269
▁round	269
?"	269
▁tip	269
▁bias	269
▁definitely	269
rg	269
▁exchange	268
▁profit	268
▁method	268
▁resource	268
▁suppose	268
▁multiple	268
ya	268
▁tens	268
▁testing	268
dge	268
▁circuit	268
▁drawing	268
▁everyday	268
▁kick	268
▁although	267
▁scared	267
▁cook	267
▁hopefully	267
▁London	267
▁counter	267
▁meat	267
▁san	267
▁sexual	267
U	267
cho	267
▁title	267
set	267
▁ja	267
▁Ph	266
ik	266
▁Western	266
▁load	266
jo	266
▁carefully	266
▁operating	266
▁print	266
▁button	266
▁saved	265
▁technical	265
▁honor	265
▁spirit	265
J	265
▁leaving	265
▁fake	265
▁considered	265
▁feedback	265
▁spring	265
▁instrument	264
▁folks	264
▁appear	264
lon	264
▁maps	264
▁cup	264
nna	264
▁kilometers	264
▁direct	264
▁sample	263
▁movies	263
▁sudden	263
▁languages	263
▁mostly	263
▁qu	263
▁majority	263
▁letters	263
▁balloon	263
▁tall	263
▁define	263
▁cognitive	263
▁Your	262
▁occur	262
▁opening	262
▁experts	262
▁african	262
▁react	262
▁participate	262
maker	262
▁goals	262
▁transition	261
▁limit	261
ek	261
▁im	260
▁exception	260
▁trans	260
▁empathy	260
▁leaves	260
▁hadn	260
▁killing	260
az	260
ual	260
▁connections	260
▁signs	260
▁master	260
▁poem	260
▁weak	260
▁warm	259
é	259
book	259
▁unusual	259
ned	259
▁season	259
▁equipment	259
▁economics	259
▁enter	259
▁command	259
▁hotel	259
▁capable	259
▁succeed	259
▁mad	259
▁whose	258
▁rational	258
▁partner	258
▁shoot	258
▁factory	258
▁string	258
▁insight	258
▁launch	258
▁pleasure	257
▁below	257
▁compare	257
▁launched	257
▁studio	257
ties	257
▁plate	257
▁breathe	257
▁businesses	257
▁credit	257
▁lifetime	257
▁tag	257
▁nations	256
▁foreign	256
▁From	256
form	256
ries	256
▁California	256
▁hide	256
▁warming	256
▁heavy	256
▁evil	256
▁possibilities	255
▁experienced	255
▁shut	255
▁myth	255
▁narrative	255
▁filter	255
▁surgeon	255
ko	255
▁protein	255
term	254
▁suggest	254
▁Com	254
▁His	254
▁consumption	253
▁underneath	253
▁relative	253
▁importance	253
▁relate	253
▁weapons	253
▁compared	253
▁Afghanistan	253
▁Instead	253
▁homes	253
▁factor	252
▁arts	252
▁valuable	252
▁metal	252
▁exact	252
▁described	252
▁leading	251
▁player	251
org	251
▁tech	251
▁prime	251
▁newspaper	251
▁symbol	251
▁dinosaurs	251
vin	251
▁celebrate	251
ima	250
▁fresh	250
▁vehicle	250
▁explanation	250
▁clinic	250
▁depends	250
▁clinical	250
▁burn	250
rd	250
▁users	249
▁cutting	249
▁bubble	249
▁stock	249
▁rare	249
▁vaccine	249
▁options	249
▁church	249
▁winter	248
▁nose	248
▁conclusion	248
▁messages	248
▁pitch	248
▁Car	248
ana	248
▁properties	248
▁bat	248
rate	248
▁Bu	247
▁operate	247
▁ten	247
▁handle	247
▁su	247
▁etc	247
▁dealing	247
▁medium	247
▁engineer	247
ular	246
▁designing	246
▁associated	246
▁user	246
▁peak	246
▁height	246
▁equivalent	246
▁Ex	246
▁quarter	246
▁origin	245
▁Think	245
▁protection	245
▁keeps	245
▁grateful	245
▁tea	245
▁grid	245
▁essential	245
▁driver	245
▁planning	245
▁skill	245
▁paying	245
▁holes	245
▁dimensions	245
▁tv	245
▁ladies	245
▁sight	244
▁snow	244
▁spectrum	244
▁east	244
▁absolute	244
▁mathematical	244
▁outcome	244
▁option	244
▁chemistry	244
▁factors	243
▁script	243
▁hall	243
▁display	243
▁illusion	243
▁flies	243
▁kitchen	243
▁Ne	243
▁trend	243
▁gang	243
▁mistakes	242
▁extract	242
▁consumer	242
▁unless	242
▁sculpture	242
bar	242
▁ski	242
▁Facebook	242
gy	242
▁prefer	242
▁weigh	242
▁highest	241
▁dots	241
▁harm	241
tim	241
▁vulnerable	241
▁fiction	241
▁stood	241
▁released	241
▁tomorrow	241
▁lu	241
▁property	241
▁emotion	241
▁voices	240
▁generate	240
▁survey	240
▁National	240
▁recorded	240
▁microbes	240
▁Iraq	240
▁danger	240
▁pet	240
▁intelligent	240
▁advance	240
▁conscious	240
ari	239
▁mosquito	239
▁swim	239
▁scan	239
ral	238
▁convinced	238
ese	238
▁muscle	238
▁inequality	238
▁mile	238
▁fellow	238
▁pure	238
▁bike	238
▁europe	238
▁feelings	237
ua	237
▁passionate	237
▁construction	237
▁selling	237
▁practical	237
tory	237
▁plus	237
▁remain	237
▁researchers	237
▁radical	236
▁habit	236
▁solid	236
▁operation	236
▁sharks	236
▁movements	236
▁atoms	236
▁writer	235
▁characters	235
▁reverse	235
▁appreciate	235
hen	235
▁picked	235
▁forced	235
▁covered	235
▁beach	234
▁corruption	234
ake	234
▁players	234
bal	234
room	234
ean	233
▁gravity	233
▁bill	233
ama	233
▁volume	233
▁soft	233
▁currently	233
top	233
▁status	233
▁tu	233
ulation	233
▁encourage	233
▁acting	232
ification	232
Hey	232
▁angry	232
▁element	232
▁graduate	232
▁fill	232
▁Great	232
▁knee	232
yn	231
▁pin	231
▁sugar	231
▁underwater	231
gar	231
▁visible	231
▁chose	230
▁demo	230
▁wash	230
▁Over	230
▁challenging	230
▁robotic	230
▁fields	230
van	230
▁author	230
hop	230
▁agreed	229
▁seemed	229
▁clue	229
▁Mar	229
▁split	229
▁appropriate	229
▁components	229
▁document	229
▁staff	229
ily	229
▁abuse	229
$	229
▁department	229
▁translate	229
▁stayed	229
▁dr	228
▁runs	228
▁driven	228
▁affected	228
▁symptoms	228
How	228
▁ordinary	228
▁advice	227
▁regular	227
▁humor	227
▁stronger	227
▁Am	227
▁tube	227
▁pump	227
▁details	226
▁milk	226
▁march	226
▁keeping	226
▁attitude	226
▁daily	226
▁framework	226
▁trials	226
ong	226
▁sir	226
▁fewer	225
▁Wi	225
pal	225
▁chapter	225
▁harvest	225
board	225
▁Take	225
▁root	225
▁European	225
▁bug	225
▁alien	225
▁maintain	225
▁represents	225
own	224
▁invent	224
uro	224
▁lying	224
▁shadow	224
▁arc	224
▁pan	224
▁academic	224
▁combination	224
▁Australia	223
zi	223
ending	223
hel	223
lly	223
▁sum	223
▁hero	223
▁solved	223
▁senses	223
▁organized	223
▁prepared	223
▁satellite	222
▁length	222
▁cluster	222
▁younger	222
ica	222
▁ultimate	222
hand	222
▁protest	222
▁added	222
▁Again	222
ain	222
her	222
▁according	222
Why	222
▁lessons	222
▁predator	222
▁bare	222
▁inner	221
cep	221
▁silk	221
▁requires	221
▁thumb	221
▁station	221
▁swimming	221
▁mountains	221
▁intellectual	221
▁variation	220
▁comfort	220
▁lake	220
▁poll	220
▁shake	220
▁determine	220
▁houses	220
▁buying	220
▁portrait	220
▁score	220
▁tumor	220
▁wars	220
▁due	219
▁cultures	219
▁rapidly	219
▁emissions	219
▁increasing	219
▁caused	219
▁loan	219
▁mystery	219
▁van	219
▁wondered	219
rin	219
▁official	218
▁lawyer	218
▁require	218
▁marketing	218
▁dogs	218
▁boring	218
▁bond	218
▁poet	218
▁assume	218
▁false	218
▁pack	218
▁viruses	218
▁illegal	218
▁Se	217
▁forests	217
▁abstract	217
▁sides	217
▁polar	217
▁tested	217
▁advanced	217
▁mention	217
af	217
▁shark	217
▁rural	217
▁aging	217
▁pu	216
▁Sha	216
▁queen	216
bot	216
▁addition	216
▁john	216
▁capture	216
▁novel	216
▁none	216
▁boom	216
▁fruit	216
▁sw	215
▁sites	215
ney	215
▁See	215
py	215
▁However	214
▁organs	214
▁setting	214
▁presentation	214
▁Muslim	214
▁obsessed	214
▁unbelievable	214
▁deserve	214
▁memories	213
▁applications	213
It	213
mail	213
▁replace	213
ani	213
▁typically	213
▁David	213
▁gate	213
▁symmetry	213
▁feature	212
▁lecture	212
▁complain	212
▁analysis	212
za	212
ina	211
▁apartment	211
▁conservation	211
▁loop	211
▁pill	211
based	211
fish	211
cus	211
▁neuro	211
ase	211
▁actions	211
▁curiosity	211
right	211
▁busy	211
▁relatively	210
▁western	210
▁Brazil	210
▁wine	210
▁variety	210
▁physician	210
▁fishing	210
▁reflect	210
▁collaboration	209
rk	209
▁arguments	209
▁Actually	209
▁physically	209
▁notes	209
▁Her	209
▁interests	209
▁facing	209
▁sending	209
▁orbit	209
aries	209
▁worldwide	209
▁sophisticated	209
▁awareness	209
▁singing	209
▁efficiency	208
dia	208
▁Ju	208
▁suck	208
▁tri	208
▁contrast	208
▁finance	208
▁rhythm	208
ati	208
▁cartoon	208
▁conversations	208
▁Second	208
▁electro	208
▁More	208
▁angle	208
▁scary	207
▁infinite	207
▁meaningful	207
digit	207
ide	207
▁Twitter	207
▁repeat	207
head	207
▁hill	207
▁theme	207
▁management	207
▁nerve	207
▁liquid	207
▁wound	207
aw	207
of	207
▁phase	207
▁terrorism	207
▁sphere	206
▁youth	206
▁sources	206
▁admit	206
▁contract	206
▁grab	206
▁emerging	206
▁filled	206
bed	206
▁hits	206
▁army	206
▁carrying	206
▁tank	206
▁excuse	206
▁flip	205
▁evolutionary	205
▁grandfather	205
▁electrical	205
▁habitat	205
▁violent	205
▁perform	205
▁wire	205
▁Once	205
▁miracle	205
▁Bill	205
▁pilot	205
▁personally	205
▁director	205
▁photographs	205
▁flash	205
▁steel	205
▁desk	205
▁phrase	205
▁sheet	204
▁Japan	204
▁drill	204
▁needle	204
▁ray	204
▁Middle	204
▁illness	204
▁Sometimes	204
▁Hi	204
▁storm	204
▁lock	204
▁paradigm	204
▁cooking	204
▁careful	204
▁library	204
▁election	203
▁Asia	203
▁continued	203
▁funding	203
▁prop	203
▁clouds	203
▁plot	203
▁scar	203
▁struck	203
▁horrible	202
▁improvement	202
▁border	202
▁japan	202
▁sensitive	202
▁suffer	202
▁blame	202
▁features	202
▁axis	202
▁processes	202
cut	202
▁encounter	202
▁estimate	202
▁meal	202
▁limits	202
▁aspect	201
▁increased	201
▁volunteer	201
▁equally	201
▁mechanical	201
rb	201
▁roughly	201
▁section	201
ker	201
▁motivation	201
▁convince	201
▁algorithms	201
graph	201
low	200
▁pair	200
▁effectively	200
▁unexpected	200
▁reveal	200
▁jail	200
▁signed	200
▁secure	200
▁agent	200
▁sports	200
ung	200
▁eggs	200
▁tax	200
▁escape	199
▁Web	199
▁sustain	199
▁intervention	199
▁firm	199
▁whale	199
▁innovative	199
▁environments	199
iness	199
chan	199
▁productive	199
bro	199
trove	199
▁increasingly	198
▁chemicals	198
▁situations	198
▁monitor	198
▁privacy	198
▁missed	198
▁centers	198
▁selection	198
▁smoke	198
▁tonight	198
▁barrier	198
▁worker	198
▁nor	198
▁monkey	198
cies	197
▁cents	197
▁tests	197
▁Sh	197
▁organize	197
▁regions	197
▁literature	197
▁verb	197
▁clothes	197
▁dramatic	197
▁strip	197
▁aim	197
ome	197
▁rocks	196
▁vaccines	196
▁attacks	196
▁implications	196
▁French	196
▁hearts	196
▁neighbors	196
▁flower	196
▁expand	196
▁internal	196
▁collapse	196
▁techniques	196
▁microscope	196
▁pig	196
anderson	196
▁toxic	196
arian	196
▁upset	196
▁partners	195
▁mortality	195
▁Mr	195
▁pollen	195
▁attract	195
▁Good	195
▁infected	195
▁CO	195
▁molecular	195
▁acid	195
bg	195
▁introduced	195
▁mice	195
▁cast	195
▁drives	195
▁authority	195
▁sustainability	195
▁wireless	195
▁poster	194
▁airport	194
▁lit	194
▁truck	194
▁achieved	194
▁pot	194
▁decline	194
▁dress	194
ock	194
▁vehicles	194
▁ear	194
▁hiv	194
hood	194
▁monkeys	194
▁infection	194
▁cute	194
▁Did	194
▁computing	194
▁plug	193
▁activities	193
▁tour	193
▁shock	193
▁convert	193
▁organ	193
▁recording	193
▁films	193
▁Si	193
▁plenty	193
▁Washington	193
▁talent	193
box	193
▁pat	192
win	192
▁Have	192
▁employees	192
▁engaged	192
▁radiation	192
▁painful	192
▁politicians	192
▁tune	192
▁technological	192
▁boxes	192
▁anger	192
▁transparency	192
▁grain	192
▁manufacturing	191
fully	191
▁error	191
▁refer	191
▁rates	191
▁afternoon	191
▁commitment	191
▁Kenya	191
▁Nigeria	191
▁constant	191
▁combine	191
▁reference	191
▁chocolate	191
▁plans	190
▁Mu	190
▁formed	190
▁broad	190
▁Ad	190
▁remove	190
▁hospitals	190
▁valley	190
▁creature	190
▁relevant	189
▁British	189
tain	189
cess	189
▁flew	189
▁permanent	189
▁divide	189
ov	189
▁previous	189
hor	189
▁pollution	189
▁brown	189
▁naturally	189
▁dust	189
▁file	189
▁exhibition	189
▁spin	189
▁exploration	188
▁evening	188
▁review	188
ero	188
press	188
ene	188
▁tired	188
▁somewhat	187
▁psychological	187
▁reserve	187
▁whom	187
▁printing	187
This	187
▁fingers	187
▁repair	187
▁demographic	187
▁grass	187
▁intense	187
▁seal	186
▁loud	186
▁explained	186
▁diagram	186
▁spiritual	186
▁animation	186
▁ought	186
▁applied	186
▁otherwise	186
▁controlled	186
▁license	186
▁capitalism	185
▁jam	185
▁drone	185
▁blocks	185
Pa	185
cap	185
matic	185
metric	185
j	185
▁fiber	185
▁songs	185
▁defined	185
▁nest	184
▁style	184
▁required	184
▁destruction	184
▁specifically	184
▁windows	184
▁equality	184
▁mode	184
▁figures	184
▁primary	184
▁bones	184
▁parallel	184
ura	184
▁Ja	184
▁session	183
▁breathing	183
▁circumstances	183
lia	183
▁proteins	183
▁include	183
▁institution	183
uk	183
▁favor	183
▁privilege	183
▁falls	183
tz	183
▁behave	183
▁severe	182
▁diver	182
▁Sun	182
▁grows	182
▁transportation	182
▁adventure	182
▁pregnant	182
▁George	182
▁dancing	182
▁behaviors	182
clu	182
▁Life	182
▁pushing	182
▁golf	182
▁database	182
▁elephant	182
▁transformed	182
▁ears	181
▁seek	181
▁borders	181
▁contribute	181
▁traveling	181
▁telephone	181
▁organism	181
▁processing	181
▁Big	181
well	181
▁closely	181
▁collected	181
▁hungry	181
▁application	181
▁Paul	181
▁confront	181
▁bother	180
▁owner	180
▁evolve	180
ough	180
▁polio	180
▁luck	180
▁sunlight	180
▁classes	180
▁mate	180
phy	180
ridge	180
▁route	180
▁bang	180
▁scenario	180
▁Gra	180
▁lifestyle	180
▁heroes	180
▁democratic	180
▁marine	180
▁optimistic	179
▁pray	179
▁pulled	179
▁Ar	179
▁bicycle	179
▁producing	179
▁classic	179
▁gut	179
▁apparently	179
▁invite	179
▁ignore	179
▁cop	179
dp	179
▁pole	179
house	178
▁dropped	178
▁ancestors	178
▁dense	178
▁generally	178
▁concrete	178
rum	178
▁Mc	178
▁brothers	178
▁crucial	178
▁solving	178
▁therapy	178
▁input	178
▁pile	178
▁fascinated	178
▁hormone	178
▁carried	178
▁penguins	178
▁remains	178
▁hoping	177
gel	177
▁trigger	177
▁component	177
▁linked	177
▁nano	177
▁sensors	177
▁tap	177
▁records	177
▁papers	177
▁logic	177
▁confidence	177
▁fixed	177
▁faced	177
ets	177
▁wrap	176
▁transplant	176
ju	176
ami	176
▁psychology	176
▁unknown	176
▁observation	176
aking	176
fghanistan	176
▁resistance	176
▁percentage	176
▁sisters	176
▁auto	176
▁largely	176
▁chaos	176
▁birthday	176
▁reached	175
part	175
▁detail	175
▁fabric	175
▁proof	175
▁inspire	175
▁pretend	175
▁simplicity	175
▁Th	175
▁hip	175
▁Tu	175
▁Har	175
▁granted	174
▁Everybody	174
▁killer	174
▁Richard	174
▁lens	174
▁pm	174
▁activist	174
▁extend	174
▁May	174
▁distributed	174
▁enemy	174
▁photographer	174
▁defend	173
▁relax	173
▁joined	173
▁genius	173
▁laughing	173
▁raw	173
teen	173
▁frog	173
▁suspect	173
▁preserve	173
▁tuna	173
▁tricks	173
▁dive	172
▁renewable	172
▁Mexico	172
▁sweat	172
scale	172
atur	172
▁disappeared	172
▁sail	172
back	172
▁fundamentally	172
▁laboratory	172
▁expert	172
tech	172
▁discuss	172
▁stands	172
▁entrepreneurs	171
▁receive	171
▁recover	171
▁sandwich	171
▁actor	171
▁measured	171
▁Does	171
▁Bi	171
▁Dan	171
▁fed	171
▁hello	171
▁functional	171
▁mega	171
▁rescue	171
▁answered	171
▁guide	171
▁functions	171
▁steal	171
▁depth	170
▁GDP	170
▁existing	170
▁lovely	170
▁policies	170
▁simulation	170
▁cyber	170
▁correspond	170
▁electronic	170
▁trace	170
▁objective	170
▁earn	170
▁behavioral	170
pad	170
▁officer	170
our	170
▁discipline	170
▁scratch	170
▁silent	170
▁embrace	170
▁males	170
▁customers	169
▁technique	169
▁architect	169
▁vent	169
▁hydrogen	169
▁floating	169
▁wired	169
▁collecting	169
▁wise	169
▁emerge	169
▁agenda	169
▁usual	169
▁bell	169
▁liver	169
▁download	169
▁fluid	169
▁uncomfortable	169
▁cart	169
▁consume	169
▁column	169
nding	168
▁tracking	168
▁footprint	168
▁ticket	168
▁England	168
▁intuitive	168
▁wing	168
▁subjects	168
▁flowers	168
▁weapon	168
▁deaths	168
▁slum	168
▁vessels	168
▁whales	168
▁courage	168
▁burning	168
▁backwards	168
▁bee	167
▁transfer	167
▁cortex	167
▁offered	167
▁recognition	167
xi	167
▁shell	167
▁existed	167
▁Thanks	167
▁Three	167
▁protected	167
▁precisely	167
▁mushroom	167
▁salt	167
▁neighbor	167
▁hat	167
▁flood	167
▁sales	167
▁touched	167
cher	167
▁brave	166
▁rely	166
▁capita	166
rick	166
▁Would	166
▁vital	166
▁extinct	166
ez	166
▁comic	166
▁bears	166
ult	166
▁engaging	166
▁geo	165
▁romantic	165
▁Island	165
▁amounts	165
▁economists	165
▁rap	165
▁presence	165
▁rush	165
▁dig	165
ush	165
▁volunteers	165
▁quit	165
▁chest	165
▁destroyed	164
▁suicide	164
▁revenue	164
ola	164
▁leak	164
lock	164
▁proportion	164
▁intuition	164
ological	164
▁german	164
oid	164
▁knock	164
▁instruments	164
▁pool	164
▁vertical	164
▁empty	163
▁villages	163
▁insurance	163
▁Their	163
If	163
▁destroy	163
▁corals	163
▁survivor	163
▁presented	163
▁conventional	163
▁inspiring	163
▁cooperation	163
tell	163
▁darkness	163
▁appeal	163
▁lift	163
▁laughter	163
nny	163
▁El	163
▁hire	163
▁heaven	163
▁whistle	163
▁conservative	162
aving	162
rie	162
▁falling	162
▁sheep	162
▁gods	162
▁occurred	162
▁Germany	162
▁achievement	162
▁crying	162
▁Per	162
▁ceiling	162
▁request	162
▁mentor	162
nar	162
▁Ch	162
▁anonymous	162
▁seeds	162
▁pace	162
▁regret	161
▁connecting	161
▁edi	161
▁MIT	161
▁lung	161
▁surrounded	161
racy	161
▁toward	161
▁chosen	161
▁corn	161
▁samples	161
▁Everything	161
▁Times	161
▁Darwin	161
▁defense	161
▁combined	161
▁globe	161
▁piano	161
▁norm	161
ken	161
▁housing	161
pped	161
▁centuries	161
▁minister	161
▁tent	161
iff	161
dor	161
▁murder	161
▁fin	160
▁beer	160
▁providing	160
▁Iran	160
▁smooth	160
▁AIDS	160
▁potentially	160
▁pose	160
dependent	160
▁identical	160
▁label	160
allowing	159
▁overall	159
▁Audience	159
▁tele	159
▁disorders	159
▁shrimp	159
▁rough	159
pur	159
▁Einstein	159
arry	159
▁mall	159
▁Che	159
▁tower	159
▁printer	159
▁ignorance	159
▁gray	159
▁expectations	158
unclear	158
mark	158
▁shooting	158
▁icon	158
▁standards	158
▁architects	158
▁strategies	158
▁antibiotics	158
ear	158
▁disorder	158
▁units	158
awa	157
▁President	157
▁indian	157
▁immune	157
▁thrown	157
▁warning	157
Yes	157
▁wings	157
▁aside	157
aging	157
▁symbols	157
▁magnetic	157
▁contain	157
▁domestic	157
▁rebuild	157
▁baseball	157
die	157
▁textbook	157
▁cash	157
▁transparent	157
▁promote	157
▁colony	156
▁arrive	156
▁neck	156
▁automatically	156
▁slides	156
▁personality	156
ump	156
▁boss	156
▁electron	156
▁cousin	156
Do	156
▁fur	156
▁mal	156
▁banks	156
▁islands	156
▁meetings	156
▁brazil	156
▁household	156
▁dh	156
▁fool	155
▁consistent	155
▁rio	155
▁elect	155
▁medication	155
▁underground	155
▁paintings	155
▁parking	155
▁advertising	155
▁profile	155
▁cheaper	155
▁external	155
▁partnership	155
▁shelter	155
▁ridiculous	155
▁grave	154
▁uncle	154
▁cable	154
▁represented	154
▁roots	154
▁Center	154
▁breakthrough	154
▁spreading	154
▁unlike	154
▁illustrate	154
▁dignity	154
▁lamp	154
bit	154
hoo	154
▁strangers	154
▁cord	154
erry	154
▁frankly	154
▁sticks	154
▁Gu	154
nk	154
▁philosophy	154
▁conclude	153
▁soldier	153
▁toys	153
▁coin	153
▁universities	153
▁shocked	153
▁cartoons	153
▁orange	153
▁witness	153
▁coach	153
▁Human	153
▁feeding	153
▁mr	153
▁Han	152
source	152
▁rising	152
▁furniture	152
▁interactions	152
are	152
▁compound	152
▁Au	152
▁emergency	152
▁aspects	152
ory	152
▁strike	152
Fi	152
▁refugee	152
▁dirty	152
▁consumers	152
▁resolution	152
▁beliefs	152
▁tragedy	152
▁pyramid	152
▁judgment	152
▁diverse	152
aly	152
▁divided	151
▁legacy	151
▁savings	151
▁bush	151
▁tears	151
osco	151
▁tribes	151
▁engagement	151
▁drove	151
▁appeared	151
▁Lu	151
▁educational	151
▁stack	151
▁wheelchair	151
▁fifth	151
▁wipe	150
▁Street	150
▁Pakistan	150
▁Japanese	150
▁upper	150
▁Arab	150
aged	150
▁alarm	150
▁hyper	150
ivity	150
▁psychologist	150
▁meter	150
▁demonstration	150
▁causing	150
▁depressed	150
▁ugly	150
▁measuring	150
▁neuron	150
▁Amazon	150
▁oxytocin	150
▁soap	150
▁mammals	150
▁rainforest	150
▁vagina	150
▁custom	149
▁attached	149
uri	149
bert	149
▁extent	149
▁Britain	149
▁dinosaur	149
▁Last	149
pound	149
▁Los	149
▁rod	149
but	149
▁acknowledge	149
▁melt	149
▁thin	149
▁algorithm	149
▁bound	149
▁controlling	149
▁craft	149
▁rope	149
▁pushed	149
▁historical	148
▁pink	148
▁debt	148
▁concert	148
▁nurse	148
▁stretch	148
▁thick	148
▁interactive	148
▁recognized	148
▁NASA	148
▁Harvard	148
▁laser	148
▁Art	148
▁School	148
▁greenhouse	148
▁committed	148
▁astonishing	148
▁mainly	148
round	148
▁origami	148
▁leap	148
▁leverage	148
▁subtle	148
uch	148
▁citizen	147
gin	147
▁roads	147
▁compete	147
▁performing	147
▁productivity	147
▁instant	147
▁provided	147
▁elite	147
▁Ke	147
▁implant	147
▁printed	147
▁skeleton	147
▁wage	147
▁absorb	147
▁attend	147
▁incentives	147
gotta	147
▁philosopher	147
zo	147
▁freak	147
▁bats	147
▁traveled	147
▁Congress	146
▁dramatically	146
▁virtually	146
▁Un	146
▁globalization	146
gh	146
▁chimpanzees	146
▁overcome	146
▁placed	146
▁former	146
▁northern	146
▁Could	146
▁meme	146
▁brief	146
▁algae	146
▁Francisco	145
▁robust	145
▁sketch	145
ologists	145
ography	145
▁honey	145
▁hunger	145
▁pit	145
▁musical	145
▁mit	145
▁senior	145
▁ban	145
▁grandchildren	145
▁regime	145
▁replicate	145
Please	145
ala	145
▁muscles	145
▁raising	145
▁sacred	145
▁bubbles	145
▁spectacular	145
gal	145
▁orchestra	145
▁spell	145
▁increases	145
▁guard	145
▁tries	145
▁essence	144
▁glad	144
▁charity	144
▁asteroid	144
▁yield	144
long	144
down	144
▁magnet	144
▁searching	144
▁directions	144
▁activate	144
▁frozen	144
▁dish	144
▁density	144
▁resist	144
tube	144
rand	144
▁neat	144
▁till	144
▁attractive	144
▁protecting	144
▁isolated	144
▁diamond	143
▁practices	143
▁recruit	143
▁dan	143
▁chief	143
▁focusing	143
▁sleeping	143
▁bullet	143
stream	143
▁linear	143
▁fortune	143
water	142
alley	142
▁Canada	142
▁reaching	142
▁intention	142
▁Since	142
▁rarely	142
▁poorest	142
iest	142
▁disgust	142
▁glacier	142
▁silly	142
▁pie	142
▁tick	142
▁headline	142
▁marker	142
▁narrow	142
▁twist	142
▁tragic	142
Wow	142
▁reduction	142
▁victim	142
▁confident	142
▁upside	142
▁liberal	141
▁profession	141
▁calculation	141
▁France	141
▁bin	141
arrow	141
▁twitter	141
▁kiss	141
▁camel	141
▁borrow	141
▁lighting	141
▁comparison	141
▁boundaries	141
▁ethical	141
▁calculate	141
▁Pat	141
▁confirm	141
▁adjust	141
▁coat	141
That	141
▁laid	141
▁additional	141
▁Anderson	141
▁jet	141
ibility	141
▁translation	141
▁links	141
▁gather	140
▁accepted	140
▁trends	140
▁drinking	140
▁educated	140
▁shirt	140
▁skull	140
▁variable	140
ony	140
▁description	140
▁sharp	140
▁exploring	140
▁drawn	140
▁stations	140
▁londo	140
▁earthquake	140
▁economies	139
▁terror	139
▁outcomes	139
In	139
▁suggests	139
▁smarter	139
▁damn	139
▁tear	139
▁Air	139
▁funded	139
▁palm	139
▁richer	139
▁Yet	139
▁locked	139
▁cats	139
▁theories	139
▁demonstrate	139
lash	139
▁helicopter	139
▁football	139
▁virgin	139
▁tongue	139
▁guarantee	138
▁dear	138
▁bow	138
▁hydro	138
▁Israel	138
▁whatsoever	138
dra	138
▁domain	138
▁farmer	138
▁opera	138
▁regulation	138
▁oldest	138
▁continues	138
▁tasks	138
▁James	138
war	138
▁bump	138
▁projection	138
▁bulb	138
▁southern	138
▁particle	138
▁experimental	138
▁Chicago	138
stone	137
▁removed	137
▁struggling	137
▁appears	137
▁embedded	137
▁formula	137
▁representation	137
erial	137
▁pulling	137
▁Come	137
▁BG	137
▁unlikely	137
▁Anyway	137
ria	137
▁recovery	137
▁surely	137
▁predicted	137
▁iron	137
▁permission	137
▁package	136
▁broadcast	136
▁candidate	136
▁realm	136
▁balls	136
▁fabulous	136
▁iran	136
put	136
state	136
▁hypothesis	136
▁stra	136
▁layers	136
▁inevitable	136
▁stake	136
▁capability	136
▁exploit	136
▁approaches	136
▁aids	136
▁tight	136
hrew	136
▁facial	136
resistant	136
▁magical	136
▁refugees	136
▁fortunately	136
▁shaped	136
▁boil	136
▁documents	135
▁naked	135
▁Bank	135
▁separated	135
▁Bar	135
▁teenagers	135
▁transmit	135
▁photography	135
▁involves	135
▁Boston	135
▁glamour	135
rail	135
▁gesture	135
▁editor	135
▁diabetes	135
▁urge	135
▁hardware	135
▁daughters	135
▁dare	135
▁spinal	135
▁hanging	135
▁dozen	135
aa	135
▁disagree	135
▁confused	135
▁affordable	135
▁mono	135
▁investing	134
▁contribution	134
▁Ni	134
▁Institute	134
▁commit	134
▁bombs	134
▁mood	134
▁arab	134
▁consequence	134
▁sacrifice	134
▁psycho	134
▁interacting	134
▁david	134
imme	134
▁terrorists	134
ix	134
adding	134
lace	134
▁convey	134
▁parachute	134
▁discoveries	134
cellular	134
▁interpret	134
▁triangle	134
▁breaking	134
bf	134
▁competitive	133
▁dedicated	133
▁however	133
▁interestingly	133
▁burned	133
▁computation	133
ugh	133
▁clients	133
Star	133
▁excellent	133
▁colleague	133
▁recipe	133
play	133
▁pipe	133
ew	133
▁properly	133
▁injury	133
rated	133
▁difficulty	133
▁forgot	133
▁proper	133
▁secondly	133
▁suggestion	133
▁cheat	133
▁hook	133
▁club	133
▁fought	133
▁Tom	132
▁Frank	132
▁German	132
▁rat	132
▁Women	132
▁anxiety	132
▁announced	132
▁marry	132
some	132
Y	132
spiration	132
▁dictionary	132
▁Other	132
▁Green	132
read	132
air	132
city	132
▁tied	132
▁bored	132
▁beetle	132
▁sauce	132
foot	132
▁wider	132
▁passwords	132
▁spark	132
▁cake	132
▁rev	131
▁installation	131
▁entered	131
▁Mon	131
▁lungs	131
rl	131
▁latest	131
▁imagined	131
▁pursue	131
▁bite	131
▁Ben	131
▁conflicts	131
▁pizza	131
▁corporate	131
▁Park	131
▁reef	131
▁chimpanzee	131
gua	131
▁drum	131
▁guns	131
▁forgotten	131
▁whi	131
▁resolve	131
▁tunnel	131
▁combat	130
▁painted	130
▁generated	130
▁reconstruct	130
bel	130
▁Christian	130
▁compassionate	130
▁procedure	130
▁autonomous	130
▁Ge	130
▁Four	130
▁crops	130
▁communications	130
▁indicate	130
▁shit	130
▁predictions	130
law	130
▁elephants	130
▁winner	130
▁Steve	130
▁YouTube	130
▁Islam	130
▁glamorous	130
▁slavery	130
▁tribe	130
▁agencies	130
▁mutation	130
lk	130
▁gentleman	130
▁buried	130
▁instructions	130
▁ingredients	129
▁highlight	129
▁signature	129
▁vulnerability	129
ulu	129
▁neighborhoods	129
▁dimension	129
▁Day	129
▁characteristics	129
▁keyboard	129
making	129
▁expanding	129
▁spray	129
▁deter	129
▁boo	129
ark	129
▁jew	129
▁opt	129
▁wrist	129
▁district	129
▁condom	129
▁mold	128
▁iPhone	128
▁beaten	128
▁cheese	128
▁musicians	128
▁inventor	128
▁Michael	128
▁array	128
burg	128
▁artistic	128
osh	128
▁badly	128
▁captured	128
▁distant	128
▁efforts	128
▁smoking	128
▁stroke	128
▁friendly	128
▁lane	128
▁plain	128
roa	128
▁Pri	127
away	127
▁duck	127
▁qualities	127
▁surveillance	127
oh	127
▁crossing	127
diagnosed	127
▁sentences	127
▁entertainment	127
▁tumors	127
▁Any	127
▁clay	127
▁Part	127
▁dancer	127
get	127
▁threshold	127
▁programming	127
▁tweet	127
▁Russia	127
▁elections	127
▁sensory	127
▁US	127
▁pour	127
▁static	127
▁parties	127
▁translated	127
▁angel	126
▁mimic	126
▁seats	126
▁washing	126
▁visited	126
▁decrease	126
▁Sam	126
▁quest	126
▁kidding	126
▁occasion	126
▁governance	126
▁Sea	126
▁recommend	126
▁smallpox	126
▁dial	126
▁chairs	126
▁straightforward	126
▁happier	126
treating	126
▁optimism	126
▁shopping	126
▁slip	125
xico	125
Get	125
ada	125
▁accessible	125
▁aircraft	125
▁sink	125
▁While	125
▁enhance	125
▁analyze	125
▁ethic	125
▁horizon	125
plan	125
▁caring	125
▁surrounding	125
▁State	125
▁spill	125
▁uh	125
▁twin	125
▁returned	125
▁Charles	125
▁served	125
▁reputation	125
▁dynamics	125
point	125
▁investors	125
▁nurses	125
▁yo	125
▁partly	125
▁hackers	125
▁gear	124
▁federal	124
▁vacuum	124
class	124
born	124
organizing	124
▁nets	124
▁winning	124
rill	124
▁passive	124
▁publish	124
▁primate	124
▁instinct	124
unk	124
life	124
▁prediction	124
▁eva	124
▁terrified	124
▁navigate	124
▁Will	124
▁circles	124
▁explode	124
▁supported	124
▁dialogue	124
▁stable	123
▁backyard	123
▁quad	123
▁Nobody	123
▁routine	123
▁client	123
mart	123
▁repeated	123
take	123
▁King	123
▁destiny	123
▁passing	123
▁surprisingly	123
▁originally	123
▁Also	123
▁homeless	123
▁identified	123
▁invested	123
▁actors	123
▁frustrated	123
▁paradox	123
▁spoken	123
▁structural	123
▁trash	123
▁audio	123
▁Perhaps	123
ette	123
▁accidents	123
▁sensation	123
▁poison	123
▁Science	123
▁merc	123
▁gli	123
▁safer	123
hington	123
▁PM	122
▁informed	122
▁obesity	122
ison	122
▁delivered	122
▁Red	122
▁drivers	122
▁panel	122
▁speakers	122
▁globally	122
▁mask	122
▁imagery	122
▁pigeon	122
▁impression	122
▁cry	122
▁supermarket	122
▁deck	122
▁phantom	122
▁mysterious	122
▁failing	122
▁manipulate	122
▁french	122
▁weekend	122
▁passenger	122
▁crap	121
▁poly	121
print	121
▁reefs	121
▁branch	121
cker	121
roll	121
ened	121
▁integrated	121
▁biologists	121
▁forgive	121
▁tackle	121
▁Talk	121
▁logo	121
oma	121
▁dioxide	121
▁contains	121
▁speaker	121
▁rob	121
▁rating	121
▁briefly	121
▁barrel	121
▁steve	121
▁probability	121
▁mum	121
▁reactor	121
▁nerd	121
▁uncertainty	121
▁Project	121
▁trauma	121
▁selfish	121
gro	120
trapped	120
▁Paris	120
▁abilities	120
▁caves	120
▁dolphin	120
▁expedition	120
▁methods	120
▁assignment	120
▁climbing	120
▁reduced	120
▁concentration	120
▁terrifying	120
▁defeat	120
▁blend	120
▁sport	120
▁membrane	120
▁morality	120
▁slice	120
▁neuroscience	120
▁mild	120
▁includes	120
▁dominant	120
▁customer	120
▁trap	120
▁constructed	120
▁proposition	120
▁shout	120
▁monster	120
▁devil	120
▁spike	120
▁rituals	120
▁goat	120
▁bull	119
▁rose	119
▁reinvent	119
second	119
▁pencil	119
▁CEO	119
cum	119
being	119
▁methane	119
▁neutral	119
▁arrested	119
▁Latin	119
▁newspapers	119
▁electronics	119
▁footage	119
▁relation	119
▁pause	119
▁retire	119
▁fraction	119
▁gradually	119
▁silver	119
▁alcohol	119
▁survived	119
▁farming	119
▁smartphone	119
▁tale	118
▁strand	118
assemble	118
He	118
▁output	118
▁reported	118
▁pathway	118
▁dolphins	118
▁suggested	118
▁woke	118
place	118
▁analogy	118
▁nowhere	118
▁bathroom	118
▁agency	118
▁hemisphere	118
▁admire	118
▁garage	118
▁imaging	118
▁conduct	118
▁experiencing	118
▁fate	118
▁bud	118
▁addict	118
▁tension	118
▁Five	118
▁visualize	118
▁assumptions	118
▁ruin	118
▁native	117
▁panels	117
▁bust	117
▁GPS	117
▁rub	117
▁determined	117
▁fortunate	117
▁analog	117
▁brutal	117
gras	117
▁extended	117
▁kb	117
▁picking	117
▁journal	117
▁September	117
▁Unfortunately	117
▁Lab	117
▁classrooms	117
▁dozens	117
▁hardest	117
▁mixed	117
▁openness	117
▁ec	117
▁healthier	117
▁watt	117
▁useless	117
▁trucks	116
▁infant	116
▁simulate	116
▁shrink	116
▁primitive	116
▁proposed	116
▁interpretation	116
▁observe	116
▁suggesting	116
▁Min	116
▁bath	116
▁nutrition	116
▁exposed	116
▁chromosome	116
▁frontier	116
▁grad	116
▁manual	116
▁Only	116
▁iraq	116
▁rapid	116
▁transmission	116
▁ratio	116
bble	116
▁Health	116
▁format	116
▁zoo	116
▁advocate	116
▁mayor	115
▁Wal	115
▁physicist	115
▁mindset	115
▁synthetic	115
▁Number	115
▁aunt	115
▁explosion	115
▁pride	115
▁catching	115
▁terribly	115
▁aggressive	115
▁egg	115
▁Wikipedia	115
▁hired	115
word	115
▁listened	115
ball	115
▁poems	115
▁summit	115
▁dopamine	115
▁counting	114
▁mathematicians	114
▁Pal	114
lick	114
▁restore	114
▁dose	114
▁attribute	114
▁Adam	114
▁accus	114
▁california	114
Go	114
▁graphic	114
▁biodiversity	114
▁fault	114
▁errors	114
▁category	114
▁Cor	114
▁tie	114
▁soup	114
▁compelling	114
▁wires	114
▁agricultural	114
▁burst	114
▁insect	114
oice	114
▁logical	114
▁snake	114
▁stranger	114
▁tendency	114
▁suffered	114
▁excitement	114
▁suburb	114
▁landed	114
▁copyright	114
generating	114
▁matrix	114
▁aesthetic	113
▁remembered	113
load	113
atomic	113
▁arise	113
▁serving	113
▁completed	113
▁geek	113
▁drawings	113
▁cube	113
▁obstacles	113
▁automobile	113
▁sensor	113
▁civic	113
▁merely	113
▁disconnect	113
▁sexy	113
▁Egypt	113
▁psychopath	113
▁kidney	113
blowing	113
▁calm	113
▁glasses	113
▁rice	113
▁satellites	113
▁nuts	113
▁House	113
▁begun	113
▁substance	113
▁blah	113
mine	112
▁Obama	112
▁grasp	112
▁shipping	112
▁binary	112
▁Something	112
run	112
▁drift	112
▁Angeles	112
Look	112
▁influenced	112
▁beam	112
▁inform	112
▁inches	112
▁dump	112
▁pigs	112
▁heal	112
▁bend	112
▁promot	112
▁Before	112
lee	112
▁rotate	112
▁geographic	112
▁lean	112
▁headed	112
▁antenna	112
▁regard	111
▁scores	111
▁Global	111
▁dawn	111
▁phenomenal	111
▁Abou	111
▁congress	111
▁overwhelming	111
▁negotiate	111
▁gases	111
▁succeeded	111
▁Act	111
▁flexible	111
▁operations	111
▁valid	111
▁bay	111
▁ethnic	111
▁loving	111
lay	111
▁staying	111
▁screw	111
▁paralyzed	111
ji	111
onica	111
American	111
wan	110
centimeter	110
▁Apple	110
ville	110
▁dumb	110
▁wildlife	110
▁goodbye	110
lev	110
▁Du	110
▁Mark	110
▁champion	110
▁Museum	110
▁crystal	110
▁terrorist	110
▁participation	110
▁initiative	110
▁iphone	110
▁impressive	110
▁eliminate	110
▁scanner	110
▁viewer	110
▁approaching	110
▁tar	110
▁bowl	110
▁prisoners	110
▁workplace	110
▁compromise	110
▁mobility	110
▁opposed	110
▁relations	110
▁shy	110
▁password	110
▁punishment	110
not	110
▁immediate	110
▁wishes	110
▁generous	109
▁Pacific	109
▁creator	109
▁assure	109
▁precise	109
▁unhappy	109
▁Congo	109
ideo	109
▁export	109
tail	109
▁torture	109
▁flaw	109
▁exhibit	109
▁authorities	109
▁pairs	109
▁Christmas	109
grade	109
▁register	109
▁ooh	109
▁resilience	109
active	109
▁anticipate	109
▁extraordinar	109
▁storyteller	109
▁chase	109
hhh	109
▁extinction	109
▁highway	109
▁momentum	109
▁attach	108
▁margin	108
▁institutional	108
▁intimate	108
▁ensure	108
▁bizarre	108
▁insane	108
▁Thomas	108
▁peaceful	108
▁bold	108
▁facility	108
▁participants	108
▁bedroom	108
▁makers	108
▁Robert	108
lish	108
▁Mary	108
▁gathering	108
▁initial	108
lab	108
▁traits	108
▁industries	108
▁rats	108
▁initially	108
▁patch	108
▁chamber	108
▁neural	108
▁construct	108
▁australia	108
ollywood	108
▁tattoo	108
▁Everyone	108
▁graphics	108
▁temple	108
▁trivial	108
▁award	107
▁syndrome	107
▁June	107
▁kilo	107
▁architectural	107
▁wedding	107
▁Basically	107
▁chat	107
▁mechanics	107
▁portion	107
▁awake	107
▁unconscious	107
▁sin	107
▁hub	107
▁challenged	107
▁wealthy	107
▁hiding	107
▁cotton	107
▁pri	107
▁successfully	107
▁Remember	107
▁girlfriend	107
▁Ten	107
▁acquire	107
▁burden	107
▁lib	107
▁jack	107
▁amazon	107
called	107
cam	107
▁elegant	107
▁immense	107
▁formal	106
▁pulse	106
▁cheer	106
▁heading	106
▁Martin	106
▁hug	106
▁Boy	106
using	106
▁crew	106
▁assistance	106
space	106
▁stunt	106
▁tiger	106
▁assets	106
▁underlying	106
▁consist	106
▁authentic	106
▁hunt	106
▁pandemic	106
▁bamboo	106
▁diagnosis	106
▁virtue	106
lp	106
▁dating	106
▁addiction	105
omb	105
pharmaceutical	105
▁joint	105
▁entering	105
▁profoundly	105
▁jun	105
▁bonus	105
▁Jim	105
yard	105
▁connectivity	105
▁Finally	105
MA	105
▁manager	105
▁foi	105
▁establish	105
angle	105
▁classical	105
▁owned	105
▁Par	105
▁intersection	105
▁personalized	105
▁render	105
▁agreement	105
▁union	105
▁ignored	105
▁miserable	105
▁fragile	105
▁formation	105
▁perceive	104
▁dung	104
▁Ab	104
▁colonies	104
▁exhaust	104
▁shower	104
▁collaborator	104
▁remained	104
▁fraud	104
▁cruel	104
hour	104
eastern	104
▁absence	104
▁observed	104
▁incident	104
▁landing	104
▁hum	104
▁risky	104
▁contradiction	104
▁golden	104
level	104
▁unprecedented	104
▁fragment	104
▁mining	104
▁friendship	104
▁encouraging	104
▁update	104
Sahara	104
▁server	104
realistic	104
▁wherever	104
▁slave	104
▁breed	104
▁theoretical	103
▁photographed	103
▁Was	103
▁detector	103
▁archive	103
▁reject	103
▁choosing	103
▁reminded	103
▁deploy	103
▁chop	103
▁employ	103
▁canopy	103
▁ambition	103
▁dilemma	103
ographic	102
▁Black	102
▁capabilities	102
▁pirate	102
▁ecological	102
▁distinct	102
▁richard	102
▁endless	102
▁radically	102
▁nutrients	102
▁empire	102
▁govern	102
▁purchase	102
▁implement	102
Yeah	102
▁panic	102
▁gorgeous	102
▁Korea	102
▁worms	102
▁White	102
▁lions	102
▁Union	102
▁educate	102
weden	102
▁widely	102
▁cliff	102
▁apologize	102
▁currency	102
▁persist	102
▁spine	102
▁einstein	102
▁yell	102
▁worrying	102
▁neither	102
▁puppet	101
ok	101
worth	101
▁crush	101
▁substantial	101
thermal	101
▁devot	101
▁workforce	101
rna	101
▁kit	101
▁pursuit	101
▁cricket	101
uous	101
▁garbage	101
▁Gene	101
▁appearance	101
▁included	101
▁prepare	101
▁banana	101
lethal	101
▁fastest	101
▁pale	101
▁memes	101
▁administration	101
▁predictable	101
tories	101
▁blindness	101
▁adapted	101
▁expansion	101
▁thrilled	101
▁calories	101
▁compress	101
▁steppe	101
▁owe	101
▁grandparents	101
▁settle	101
▁expecting	101
▁producer	101
▁subway	101
▁mammal	101
▁clubs	101
▁blank	101
▁Greek	100
▁campus	100
▁Dur	100
▁fancy	100
▁closing	100
▁clothing	100
▁fee	100
▁stimulate	100
▁sew	100
▁throwing	100
▁deaf	100
▁River	100
made	100
▁mc	100
ini	100
▁musician	100
▁adopt	100
▁storytelling	100
▁Ghana	100
▁knife	100
ulsi	100
▁rent	100
▁adopted	100
▁Never	100
▁hunting	100
▁Sweden	100
▁innocent	100
▁helpful	100
▁January	100
▁measurements	100
▁improved	100
▁fence	100
▁branches	100
▁select	100
▁stair	99
▁retirement	99
etic	99
▁minimum	99
▁uniform	99
▁embarrassing	99
▁explaining	99
▁surround	99
yr	99
nie	99
▁shine	99
▁mineral	99
My	99
▁Gulf	99
▁homework	99
▁managers	99
▁representative	99
▁genocide	99
▁Sch	99
▁Give	99
▁limitations	99
pper	99
▁adam	99
▁crawl	99
▁utterly	99
▁physicists	99
▁punch	99
▁cockroach	99
▁beating	99
ula	99
▁awkward	99
▁Microsoft	98
▁banker	98
▁Central	98
ime	98
▁recall	98
▁korea	98
▁microphone	98
▁visualization	98
oston	98
▁scream	98
▁enterprise	98
▁israel	98
▁despair	98
▁propose	98
▁upward	98
▁emerged	98
▁rethink	98
▁cigarette	98
▁involve	98
▁intended	98
assembly	98
▁align	98
▁artwork	98
▁resident	98
▁facilities	98
▁instantly	98
ench	98
▁coordinate	98
▁consciously	98
▁millennia	98
▁frightening	98
▁guilty	98
▁proved	98
▁institute	98
▁seeking	98
▁scheme	98
▁canvas	97
▁container	97
▁filmmaker	97
▁curriculum	97
▁Next	97
▁interrupt	97
▁bucks	97
▁strongly	97
▁Bur	97
▁supporting	97
▁realizing	97
▁Bush	97
▁contrary	97
▁naive	97
▁someday	97
▁delight	97
▁hated	97
▁loose	97
▁Syria	97
▁luxury	97
▁Foundation	97
▁cookie	97
▁drought	97
▁parasite	97
▁fulfill	97
▁Space	97
▁cue	97
▁gained	97
▁shifting	97
▁accumulate	97
▁banking	97
▁mapping	97
▁ego	96
▁frank	96
power	96
▁sufficient	96
▁hitting	96
▁advise	96
▁distinguish	96
▁Higgs	96
▁altitude	96
▁beautifully	96
Okay	96
AT	96
add	96
▁incentive	96
▁warrior	96
▁Six	96
▁reflection	96
▁pond	96
▁Pole	96
▁deadly	96
▁candy	96
▁Gold	96
▁stu	96
▁vegetables	96
▁Haiti	96
▁pioneer	96
wen	96
▁darwin	96
▁continuing	96
▁symmetries	96
▁explicit	96
▁hybrid	95
▁packed	95
▁entrepreneur	95
▁founded	95
▁categories	95
▁Nations	95
▁zip	95
▁glue	95
itz	95
▁flee	95
▁stomach	95
▁cooperate	95
▁lg	95
▁germ	95
▁healing	95
▁phosphorus	95
▁blink	95
▁remaining	95
▁workshop	95
▁bind	95
▁Sen	95
▁items	95
▁reproduce	95
▁Revolution	95
▁protocell	95
▁NGO	95
▁asia	95
▁smiling	95
▁diameter	95
▁stereotype	95
▁rubber	95
▁prayer	95
▁Manhattan	95
▁inject	95
ictoria	95
▁terrific	95
▁improving	95
▁Cal	94
▁lap	94
▁flourish	94
▁Indeed	94
century	94
▁voting	94
▁swing	94
▁Super	94
▁leaf	94
▁safely	94
▁Mac	94
▁unable	94
▁entropy	94
▁alter	94
berg	94
▁requirement	94
▁Ethiopia	94
▁jumped	94
▁Rwanda	94
▁taxes	94
▁artifact	94
▁honestly	94
▁gallon	94
▁strategic	94
▁worthy	94
▁shoe	94
▁collaborative	94
▁sponsor	94
▁delicious	94
▁reasonable	93
▁joe	93
human	93
▁vessel	93
▁herself	93
▁fired	93
▁temporary	93
▁kingdom	93
▁International	93
▁christian	93
odi	93
▁Texas	93
▁extrem	93
▁overnight	93
▁venture	93
▁perceived	93
▁denial	93
▁Russian	93
▁prior	93
▁luckily	93
▁Grand	93
▁nonprofit	93
▁shore	93
▁Stanford	93
▁interior	93
But	93
▁critic	93
▁nodes	93
▁disrupt	93
▁huh	93
▁eaten	93
▁primarily	93
▁remarkably	93
synthesize	93
▁arrest	93
▁disability	93
▁promised	93
▁diarrhea	93
▁approached	93
▁breeding	93
▁investigation	93
▁bribe	93
▁humanitarian	93
▁hopeful	93
▁elsewhere	93
▁accuracy	93
▁significantly	93
▁ashamed	93
▁advertise	93
▁connectome	93
▁intent	93
▁magnitude	93
ku	92
▁mount	92
▁reliable	92
▁schedule	92
▁deception	92
▁dome	92
▁Peter	92
▁elevat	92
▁Jack	92
▁genuine	92
town	92
changing	92
▁elderly	92
▁whisper	92
▁economist	92
▁beneath	92
▁carpet	92
▁encouraged	92
▁unlock	92
▁stigma	92
Don	92
▁prosperity	92
▁Islamic	92
shot	92
▁chemist	92
▁descend	92
cast	92
▁trailer	92
▁flame	92
▁sake	92
osi	92
▁occasionally	92
▁jim	92
▁bur	92
▁fuck	92
▁receptor	92
▁graduated	91
▁independence	91
ancy	91
▁adaptation	91
▁motivated	91
▁High	91
view	91
▁span	91
▁deforestation	91
related	91
▁redesign	91
▁specialist	91
▁texture	91
▁flap	91
▁transformative	91
▁Bay	91
▁tsunami	91
▁closest	91
▁youngest	91
▁warn	91
version	91
▁schizophrenia	91
▁amazingly	91
▁rolling	91
▁chronic	91
▁Nobel	91
▁steer	91
▁summ	91
▁acoustic	91
▁investigate	91
▁Law	91
▁proven	91
▁Hollywood	91
▁swallow	91
▁empowered	91
▁dip	91
▁diving	91
▁wal	91
▁amazed	90
▁penguin	90
▁towel	90
under	90
▁Department	90
▁tutor	90
▁precious	90
▁kenya	90
▁sixth	90
type	90
▁menu	90
vy	90
▁indigenous	90
▁factories	90
▁interviewed	90
dollar	90
▁William	90
▁corporations	90
▁muslim	90
▁rape	90
▁deni	90
▁candle	90
▁extension	90
▁nigeria	90
▁kite	90
▁evolving	90
▁exclusive	89
▁entertain	89
▁authenticity	89
▁marketplace	89
í	89
▁technically	89
▁empower	89
ote	89
▁humble	89
▁cope	89
▁teenager	89
▁scaffold	89
▁harness	89
▁amateur	89
▁Inter	89
▁george	89
▁approved	89
▁glow	89
▁troops	89
stick	89
▁enforcement	89
▁regulate	89
▁constraints	89
▁hierarchy	89
Let	89
▁Bang	89
▁Pe	89
▁dough	89
▁worship	89
▁nightmare	89
▁criticize	89
▁jihad	89
void	89
person	88
▁decent	88
▁restrict	88
▁trajectory	88
▁detection	88
▁rebel	88
▁Really	88
▁holiday	88
▁mutual	88
inal	88
▁satisfy	88
▁ambitious	88
▁ownership	88
▁helium	88
▁quo	88
▁freeze	88
▁remix	88
▁tide	88
▁reinforce	88
▁ironic	88
▁arguing	88
▁prisoner	88
▁compar	88
▁probe	88
▁hunter	88
▁contemporary	88
▁genetically	88
▁fertilizer	88
▁expertise	88
▁charles	88
▁desperately	88
▁unfold	88
▁stopping	88
eith	88
▁cocaine	88
▁drag	88
▁prescription	88
how	88
▁emphasize	88
▁annual	88
▁priest	88
▁utter	88
▁jellyfish	88
▁detailed	88
▁socially	88
ealand	88
▁chunk	88
▁gallery	88
▁Atlantic	87
▁figuring	87
▁satisfied	87
step	87
▁engineered	87
▁assign	87
▁astronomer	87
▁ongoing	87
▁breakfast	87
▁concentrated	87
can	87
▁elevator	87
▁researcher	87
▁relief	87
▁distort	87
▁striking	87
▁manner	87
▁lobby	87
▁DH	87
▁General	87
▁crossed	87
▁explorer	87
▁grace	87
▁continu	87
▁chimps	87
▁diagnostic	87
▁punish	87
▁michael	87
▁sperm	87
▁Woman	86
locate	86
▁Rio	86
▁minus	86
▁Olympic	86
▁expectancy	86
▁communicating	86
▁continuous	86
▁recycling	86
▁worm	86
▁established	86
▁Back	86
▁copied	86
▁wore	86
ambi	86
▁refine	86
▁retreat	86
ella	86
olar	86
▁publishing	86
▁european	86
▁Pan	86
▁employer	86
▁cheating	86
flow	86
▁Age	86
▁wheat	86
▁reducing	86
▁downtown	86
▁Nothing	86
▁ev	86
▁wasted	86
▁gig	86
horn	86
▁vitamin	86
▁overhead	86
▁stolen	86
▁overwhelmed	86
▁toast	86
ikipedia	86
▁threatened	85
▁interconnected	85
▁association	85
▁calculus	85
new	85
▁collectively	85
▁Turn	85
▁sale	85
▁microbial	85
▁squeeze	85
▁locally	85
▁counsel	85
▁historic	85
zero	85
▁sculpt	85
▁simpler	85
free	85
▁convicted	85
▁covering	85
▁raped	85
fuel	85
▁texting	85
▁storage	85
▁targeted	85
▁cattle	85
▁transcend	85
umbling	85
▁armed	85
▁stored	85
▁drew	85
▁geometry	85
▁ubiquitous	85
▁entry	85
bran	85
▁messy	85
▁rip	85
▁phenomena	85
▁nearby	84
▁Smith	84
▁prevention	84
▁tourist	84
▁rig	84
frontal	84
▁clone	84
iza	84
▁constrain	84
▁Narrator	84
face	84
▁proposal	84
▁belt	84
▁Bible	84
▁liar	84
▁upload	84
▁flowing	84
▁delivery	84
▁laughed	84
▁nitrogen	84
▁philanthropy	84
▁enemies	84
▁configuration	84
ebra	84
▁diplomat	84
▁amongst	84
▁invitation	84
▁collaborate	84
▁tiles	84
▁October	84
▁consumed	84
▁staring	84
▁defining	84
▁endangered	84
▁alphabet	84
▁cream	84
turing	84
▁Far	83
▁jar	83
▁collision	83
enjoying	83
▁hind	83
▁corrupt	83
▁conducted	83
▁timing	83
▁hint	83
▁subjective	83
▁unto	83
▁flavor	83
▁illustration	83
▁augment	83
▁dictator	83
▁eradicate	83
▁accomplished	83
▁Spi	83
▁reflected	83
▁athletes	83
▁purple	83
▁brick	83
▁proceed	83
▁ethiopia	83
▁Things	83
ata	83
▁prospect	83
▁suppress	83
▁fisheries	83
▁Joe	82
▁legislation	82
ritish	82
▁obese	82
▁exposure	82
▁transit	82
▁float	82
▁sooner	82
▁cosmic	82
▁marathon	82
▁attacked	82
turn	82
▁impos	82
▁mentally	82
engineer	82
▁engl	82
▁boots	82
▁priority	82
▁dressed	82
▁taxi	82
▁None	82
▁behalf	82
▁mesh	82
▁neo	82
▁fatal	82
▁exam	82
▁unfair	82
logy	82
▁demonstrated	82
▁leather	82
▁accelerate	82
▁distinction	82
▁devastating	82
▁tomato	82
▁lifted	82
▁ritual	82
▁alert	82
▁chef	82
▁wrapped	82
▁Ko	82
▁batteries	82
▁frustration	82
▁lion	82
▁confine	82
▁mic	82
▁commodity	82
▁insulin	82
▁christmas	82
▁biosphere	82
▁brush	81
▁Research	81
▁accent	81
So	81
▁bounce	81
▁divorce	81
▁vibration	81
▁regularly	81
▁hopeless	81
star	81
▁Alzheimer	81
▁peculiar	81
▁feminist	81
▁thread	81
▁motivate	81
▁stability	81
▁smallest	81
▁viral	81
▁sync	81
▁Antarctica	81
▁suspended	81
▁Bob	81
▁Ocean	81
▁steam	81
▁boundary	81
▁Wall	81
▁crop	81
▁deliberate	81
▁convention	81
▁glucose	81
▁inhabit	81
▁holy	81
▁tricky	81
▁convenient	81
▁circular	81
found	81
▁envelope	81
▁scrap	81
▁mite	81
▁switched	81
▁receiving	81
▁jh	81
▁Matt	80
▁scaling	80
▁Third	80
▁principal	80
▁transforming	80
▁mini	80
ritain	80
▁crab	80
fold	80
▁exotic	80
▁install	80
▁assumption	80
▁biologist	80
▁segment	80
▁invade	80
▁mud	80
▁elaborate	80
▁staircase	80
▁magnificent	80
▁heritage	80
▁practicing	80
▁offering	80
▁performed	80
▁deposit	80
▁constitution	80
▁estate	80
▁blast	80
script	80
▁slower	80
▁territory	80
▁horror	80
▁consensus	80
▁nasa	80
▁Jewish	80
▁preparing	80
▁homo	80
▁selected	80
▁drunk	80
▁junk	80
Hello	80
▁hostile	80
▁Arch	80
▁spinning	80
▁preach	80
▁spacecraft	80
▁cylinder	80
▁fever	80
▁Mother	80
▁veteran	80
programmed	80
▁recession	80
▁warehouse	80
▁index	80
▁russia	80
▁assistant	80
▁excess	80
▁celebration	80
▁screaming	79
▁silicon	79
▁executive	79
efficient	79
▁asleep	79
▁translator	79
▁Blue	79
▁indoor	79
▁shocking	79
▁delay	79
skeletal	79
▁thrive	79
▁selves	79
▁infectious	79
▁simplest	79
▁contest	79
hether	79
▁MRI	79
▁bon	79
▁spiral	79
▁Soviet	79
▁bless	79
▁regardless	79
▁adoption	79
▁journalism	79
scape	79
▁belly	79
▁operator	79
▁inflation	79
▁Italy	79
▁specialized	79
▁ecology	79
bury	79
▁scientifically	79
▁titan	79
▁transistor	79
▁basketball	79
▁correctly	79
▁informal	79
▁Uganda	79
▁enzyme	79
alai	79
▁innovate	79
vascular	79
▁scare	79
▁Egyptian	78
▁discovering	78
▁guest	78
▁correlation	78
▁hump	78
▁lever	78
▁rabbi	78
▁contributed	78
ggle	78
▁possess	78
▁bench	78
▁sanitation	78
▁retina	78
▁discrimination	78
▁eh	78
▁harsh	78
▁romance	78
▁occupy	78
▁kindergarten	78
▁inherently	78
▁Child	78
▁Pen	78
▁jaw	78
eat	78
▁gathered	78
▁aggregate	78
▁enjoyed	78
chasing	78
▁dirt	78
▁rejected	78
▁grip	78
▁glimpse	78
▁migration	78
▁peel	78
▁cardboard	78
▁nasty	78
▁nowadays	78
▁pillar	78
▁yards	78
▁favela	77
▁earliest	77
▁Nature	77
▁sequencing	77
▁processor	77
▁doubled	77
▁teaches	77
▁gross	77
▁overlap	77
▁Eastern	77
▁Prize	77
▁selective	77
▁geography	77
▁generator	77
▁hometown	77
school	77
third	77
▁surf	77
▁typing	77
▁realization	77
lux	77
▁merit	77
▁cage	77
▁collapsed	77
▁comedy	77
▁scanning	77
▁leban	77
▁biomass	77
▁spare	77
▁playful	77
▁injured	77
▁horizontal	77
▁located	77
▁woo	77
▁hut	77
▁abandoned	77
▁destination	77
▁simultaneously	76
▁Israeli	76
▁explored	76
▁boost	76
▁blew	76
▁therapist	76
▁supplies	76
▁Tri	76
body	76
▁taboo	76
▁strain	76
aeda	76
▁album	76
▁intervene	76
▁eco	76
▁concentrate	76
▁Obviously	76
▁composition	76
▁Rob	76
▁merge	76
▁grabb	76
uthern	76
▁onstage	76
▁Oxford	76
wood	76
▁bible	76
▁improvise	76
▁vary	76
▁manufacturer	76
▁famine	76
▁freezing	76
▁harmful	76
▁slept	76
anthrop	76
▁rescued	76
child	76
▁acres	76
▁Long	76
▁contributing	76
▁coincidence	76
▁statue	76
▁nick	76
fg	76
▁Through	75
clock	75
▁hamburger	75
ueen	75
▁discussing	75
▁Time	75
▁Gates	75
▁semi	75
▁pipeline	75
▁passage	75
▁December	75
▁maneuver	75
▁irrational	75
▁modest	75
▁assumed	75
▁Up	75
▁cult	75
▁introduction	75
▁intriguing	75
▁flesh	75
▁kilogram	75
viv	75
▁Hy	75
break	75
▁headache	75
▁lonely	75
▁abundance	75
▁inclusive	75
▁dictionaries	75
▁vacation	75
▁fractal	75
▁Girl	75
brew	75
▁refused	75
▁calculated	75
▁significance	75
oriented	75
▁baseline	75
▁redefine	75
payment	75
▁haiti	75
▁diplomacy	75
▁previously	75
▁Design	75
▁sticker	75
▁abandon	75
▁congestion	75
▁helpless	75
▁mary	75
▁stabilize	75
▁yeast	75
▁tapir	75
▁lawn	74
▁vaccinate	74
▁lottery	74
▁equity	74
▁narrator	74
friend	74
ripped	74
▁melting	74
▁mob	74
▁insist	74
▁eternal	74
fulness	74
▁Florida	74
▁Children	74
▁revolutionary	74
▁desperate	74
▁KB	74
▁distract	74
▁juice	74
▁Men	74
tropical	74
▁Mom	74
▁outdoor	74
▁obsession	74
▁captain	74
▁exponentially	74
▁Out	74
▁toxin	74
▁posted	74
▁council	74
▁lifespan	74
▁summarize	74
▁provider	74
▁upgrade	74
▁longevity	74
▁triumph	74
▁applause	74
Miss	74
▁irrelevant	74
▁crows	73
▁lowest	73
▁blur	73
▁civilian	73
▁competing	73
▁polite	73
▁slime	73
wash	73
▁elementary	73
▁obtain	73
erence	73
▁threaten	73
▁conquer	73
cause	73
▁astronaut	73
ibera	73
▁August	73
▁installed	73
wandering	73
ode	73
▁ultra	73
▁staggering	73
▁strict	73
▁mainstream	73
▁accelerating	73
▁ceremony	73
▁nonsense	73
▁empowering	73
Isn	73
▁piss	73
▁envision	73
▁planned	73
▁jazz	73
▁ambulance	73
▁believing	73
threatening	73
▁responded	73
▁sweep	73
erek	73
▁calendar	73
▁cafe	73
▁honeybee	73
▁replacement	73
▁wooden	73
▁multiply	73
imo	73
▁sadly	73
▁impulse	73
▁dominated	73
▁randomly	73
▁successes	73
▁compute	73
▁victory	73
▁contagious	73
manda	73
▁magician	73
▁pleasant	72
▁regenerate	72
▁inmates	72
▁pedestrian	72
▁expanded	72
▁friction	72
▁Yorker	72
▁replaced	72
▁enlighten	72
▁autonomy	72
▁consent	72
▁underestimate	72
▁Shi	72
▁monitoring	72
▁optical	72
half	72
▁steep	72
▁disappoint	72
Can	72
▁terrain	72
▁utility	72
▁evaluat	72
Where	72
▁therapies	72
▁neuroscientist	72
▁consult	72
▁politically	72
▁basement	72
▁endeavor	72
▁Square	72
▁monument	72
▁digest	72
▁obsolete	72
▁pleased	72
▁visiting	72
▁psychiatrist	72
▁stamp	72
▁migrant	72
▁labeled	72
▁catastrophe	72
activat	72
▁passes	72
▁trafficking	72
▁minor	72
▁trading	72
▁intrigue	72
▁laboratories	72
▁slogan	72
▁refrigerator	72
á	72
▁exit	72
▁minority	72
▁fluorescent	72
▁execut	72
▁shatter	72
▁monarch	72
▁iceberg	72
▁accomplish	72
▁gp	72
▁accountability	71
▁Rock	71
▁warmer	71
▁tagged	71
▁applies	71
▁destroying	71
▁compose	71
▁cinema	71
▁Rome	71
▁observer	71
▁systematically	71
When	71
interest	71
▁chess	71
▁disabled	71
▁disappointed	71
▁pants	71
▁swarm	71
lapse	71
▁Home	71
▁Sunday	71
utu	71
▁Democrat	71
▁harbor	71
▁division	71
▁episode	71
▁frequently	71
▁charged	71
self	71
▁Court	71
▁premise	71
▁embracing	71
▁alright	71
▁offspring	71
▁Put	71
▁welfare	71
▁lego	71
▁chap	71
▁Port	71
▁competitor	71
▁precision	71
▁Hill	71
ER	71
▁atom	71
▁talented	71
▁reache	71
▁wallet	71
▁argued	71
▁blade	71
▁folding	71
▁swamp	71
▁privileged	70
▁profitable	70
▁prioritize	70
▁outbreak	70
▁penis	70
▁intimacy	70
▁retail	70
▁absurd	70
▁Tim	70
▁Turkey	70
▁odor	70
▁realities	70
▁morph	70
▁corporation	70
▁attracted	70
▁Mill	70
▁halfway	70
▁prince	70
▁noisy	70
▁synapse	70
▁loo	70
▁corridor	70
▁Cambridge	70
▁sneakers	70
▁separation	70
▁jungle	70
▁grant	70
▁bacterial	70
▁trait	70
▁compil	70
▁vocabulary	70
▁voyage	70
▁copies	70
▁passport	70
▁baker	70
kar	70
▁democrat	70
▁beef	70
stein	70
field	70
▁Seven	70
▁biases	70
documented	69
▁pacific	69
▁Pop	69
▁symbolic	69
▁associate	69
▁exquisite	69
▁Brown	69
▁farther	69
▁Norway	69
▁Spanish	69
▁caregiver	69
▁autistic	69
▁scott	69
▁irony	69
▁inhibit	69
▁shortcut	69
▁browser	69
▁analyzed	69
▁Arabic	69
▁skip	69
▁intentional	69
wk	69
▁bionic	69
▁reporter	69
▁legitimate	69
▁contained	69
▁negotiation	69
uan	69
anger	69
▁Italian	69
▁prostitution	69
▁witnessed	69
▁guitar	69
▁shepherd	69
▁Asian	69
amma	69
▁prey	69
▁chord	69
▁insult	69
▁refuse	69
▁genomic	69
▁dragonflies	69
▁blob	69
▁frustrating	69
▁historian	69
▁coordination	69
▁neocortex	69
▁systematic	68
▁February	68
▁persuade	68
▁basket	68
▁assessment	68
▁couch	68
▁arrange	68
▁hacker	68
▁dam	68
▁memorial	68
▁vivid	68
▁priorities	68
▁nonetheless	68
▁solemn	68
▁fallen	68
▁broader	68
▁mathematician	68
▁harmony	68
▁entrance	68
▁prosthetic	68
▁oven	68
▁democracies	68
proof	68
▁surrender	68
▁Jesus	68
▁surgeries	68
▁ghost	68
▁conceptual	68
▁March	68
▁progressive	68
bound	68
▁idiot	68
varian	68
▁mac	68
▁cried	68
Professor	68
▁monsoon	68
▁politician	68
▁celebrity	68
▁resilient	68
▁hmm	68
▁arrangement	68
▁pakistan	68
▁dune	68
▁unfortunate	68
Free	67
▁shaking	67
▁sidewalk	67
▁Ebola	67
controller	67
▁crude	67
▁problematic	67
▁Medic	67
volving	67
▁revealed	67
▁TEDTalk	67
position	67
▁hacking	67
▁propaganda	67
▁Secondly	67
▁describing	67
▁turtle	67
▁masterpiece	67
▁hooked	67
▁scholar	67
hole	67
▁Chile	67
▁earning	67
▁liberty	67
▁weakness	67
eptember	67
RB	67
▁Without	67
pressed	67
▁chew	67
▁manifest	67
▁Church	67
▁Lego	67
▁banned	67
▁skeptical	67
▁Play	67
itude	67
▁introvert	67
▁grandma	67
▁confession	67
▁desktop	67
▁scroll	67
▁faint	67
▁recycled	67
▁prostate	67
▁triple	67
▁violin	67
▁Poli	67
▁yemen	67
▁crank	66
▁retain	66
▁rehabilitation	66
▁teenage	66
▁swap	66
▁grim	66
▁peter	66
▁carrot	66
aire	66
een	66
▁headquarters	66
▁Mountain	66
▁juvenile	66
▁nail	66
▁marijuana	66
▁pup	66
▁masses	66
▁settlement	66
▁criteria	66
▁symmetrical	66
▁bitter	66
generation	66
▁emotionally	66
linda	66
craft	66
▁gadget	66
▁congo	66
nfl	66
▁managing	66
▁paradise	66
▁mastery	66
▁humility	66
▁Somebody	66
▁disk	66
▁broccoli	66
▁tolerance	66
▁differ	66
▁superpower	66
force	66
▁governor	66
▁abstraction	66
▁cloth	66
▁indication	66
▁cardio	66
▁cosmolog	66
▁causal	66
▁ideology	66
▁loser	66
▁wreck	66
▁glove	66
surfing	66
AR	65
var	65
OK	65
▁besides	65
▁node	65
▁protective	65
▁mosque	65
▁stimulation	65
▁transaction	65
▁drain	65
world	65
onnecticut	65
▁Bangladesh	65
▁mythology	65
▁shining	65
product	65
▁cardiac	65
▁Moore	65
▁FBI	65
▁scarce	65
▁implemented	65
▁Republican	65
▁reply	65
▁sexually	65
▁Albert	65
▁assault	65
▁duty	65
known	65
fulfilling	65
▁mammoth	65
▁empowerment	65
▁patience	65
▁opposition	65
▁dysfunction	65
▁jeff	65
iger	65
pouring	65
▁Northern	65
▁greet	65
▁flick	65
▁orientation	65
▁cosmos	65
▁lightning	65
▁inevitably	65
▁isolation	65
▁billboard	65
▁volcano	65
▁honored	65
Wait	65
▁stain	65
ruce	65
▁intend	65
▁hive	65
▁thylacine	65
▁beep	65
▁tremendously	65
▁imagining	65
▁festival	64
▁seventh	64
▁documentary	64
▁Titan	64
▁gym	64
▁assist	64
▁Bell	64
▁seemingly	64
▁Silicon	64
▁opponent	64
rue	64
ounce	64
▁daylight	64
▁Scott	64
nurture	64
▁upright	64
▁echo	64
▁generic	64
sea	64
▁foster	64
▁exceed	64
▁forbid	64
iggs	64
agan	64
▁LED	64
▁enormously	64
▁losses	64
Listen	64
▁blessed	64
▁prohibit	64
▁actively	64
▁dishes	64
▁Derek	64
Who	64
▁embraced	64
▁philosophical	64
▁rug	64
▁mating	64
▁Arctic	64
▁trail	64
▁disturbing	64
articulate	64
▁straw	64
▁imperative	64
▁innovator	64
▁injection	64
▁happily	64
▁chaotic	64
▁obligation	64
▁settled	64
▁pixel	64
▁iconic	64
▁octopus	64
ntarctica	64
▁manufacture	63
▁Spain	63
▁tire	63
▁educator	63
▁multinational	63
▁AB	63
▁extensive	63
▁consideration	63
▁commission	63
eanwhile	63
▁Saturn	63
▁obama	63
four	63
▁characteristic	63
LT	63
▁forecast	63
▁technician	63
▁transmitted	63
▁bucket	63
▁olympic	63
iussani	63
▁Friday	63
▁asthma	63
▁wrestle	63
▁casual	63
▁heavily	63
▁steady	63
▁stumble	63
▁Eric	63
▁blessing	63
▁instruction	63
▁Trans	63
▁intact	63
▁Hall	63
▁province	63
▁mankind	63
▁buses	63
cost	63
▁mandate	63
▁blueprint	63
▁Although	63
▁July	63
carbon	63
▁fame	63
▁surgical	63
▁fade	63
▁gravitational	63
▁Santa	63
hicago	63
▁tribal	63
▁authoritarian	63
▁recovered	63
▁utopia	63
▁indicator	63
▁shred	62
▁capitalist	62
count	62
▁Steven	62
aiwan	62
▁adolescent	62
▁richest	62
kilometer	62
▁frightened	62
▁specimen	62
▁Brazilian	62
▁achieving	62
▁Taliban	62
▁submit	62
▁maximum	62
▁cocktail	62
▁inexpensive	62
▁indirect	62
looking	62
▁unstable	62
▁potatoes	62
▁multiverse	62
▁aluminum	62
▁carries	62
▁coverage	62
▁fishermen	62
▁parliament	62
▁handful	62
▁encode	62
▁accountable	62
▁dim	62
▁distribute	62
▁intensity	62
▁composer	62
▁cement	62
▁feather	62
▁emergence	62
▁liberate	62
▁injuries	62
▁integrity	62
▁integration	62
▁Ku	62
▁historically	62
▁Sir	62
▁Open	62
▁choir	62
▁textile	62
▁ii	62
▁controversy	62
▁asset	62
▁sadness	62
bone	62
▁trunk	62
▁estimated	62
▁avatar	62
▁metabolism	62
▁depict	62
▁Minister	62
▁livestock	62
▁embarrassed	62
▁integrate	62
▁penetrate	62
▁Beijing	62
▁Under	62
▁practically	62
mediate	62
▁charm	62
▁Until	61
▁sovereign	61
range	61
▁deficit	61
▁manipulation	61
▁stadium	61
▁deepest	61
▁vice	61
▁cybercriminal	61
panish	61
▁martin	61
▁verge	61
▁dragon	61
▁Both	61
▁deployed	61
▁Sorry	61
Work	61
▁Mike	61
▁brun	61
▁dismiss	61
Mart	61
▁snail	61
▁manuscript	61
▁frequencies	61
▁insert	61
▁impressed	61
▁collide	61
▁rhetoric	61
▁protocol	61
▁rag	61
▁default	61
▁sensitivity	61
▁invasion	61
▁greed	61
▁calcium	61
▁logging	61
▁assembled	61
▁inherited	61
▁altogether	61
▁macro	61
▁machinery	61
homas	61
▁scholarship	61
▁analyzing	61
phobic	61
▁identities	61
ustria	61
▁collar	61
▁visitors	61
▁ambassador	61
▁honesty	61
▁mature	60
▁drama	60
▁erect	60
▁snapshot	60
▁ingredient	60
▁Ray	60
imb	60
▁rival	60
▁derive	60
ylvia	60
lateral	60
▁spouse	60
uz	60
▁ease	60
▁grocery	60
▁banjo	60
▁Saudi	60
▁wives	60
▁pul	60
Little	60
▁firing	60
▁cabinet	60
▁polish	60
▁escalat	60
▁prosper	60
▁wavelength	60
▁Ken	60
▁imitate	60
▁ladder	60
▁voters	60
▁via	60
▁CD	60
▁gasoline	60
▁Ladies	60
▁calculator	60
▁cartoonist	60
▁squid	60
▁Tanzania	60
▁improvisation	60
▁plea	60
athlete	60
▁sali	60
▁louder	60
▁airline	60
▁colorful	60
▁Council	60
▁jesu	60
▁dual	60
▁preferences	60
▁rigid	60
▁violate	60
▁polymer	60
▁mantra	60
▁peek	60
▁unacceptable	60
▁meantime	60
▁angiogenesis	60
▁stereo	60
▁legend	60
▁digitize	60
agnostic	59
▁spite	59
▁fantasy	59
▁Homo	59
▁Nelson	59
▁affection	59
▁anesthesia	59
▁Moon	59
▁conductor	59
▁yourselves	59
▁Gandhi	59
▁appreciation	59
▁valve	59
▁thermo	59
▁breakdown	59
▁astronomy	59
▁turkey	59
▁progression	59
▁grammar	59
▁altered	59
▁jf	59
▁tilt	59
▁oyster	59
▁daddy	59
▁Whereas	59
▁expectation	59
▁undergraduate	59
▁restrictions	59
▁Palestinian	59
▁numb	59
▁memorize	59
▁whip	59
▁accelerated	59
▁immortal	59
▁Gi	59
▁spaceship	59
▁hallucinations	59
▁adaptive	59
▁delete	59
▁smash	59
▁pricing	59
▁fog	59
▁Social	59
minute	59
▁Alexander	59
▁siblings	59
▁celebrating	59
▁Walk	59
▁treasure	59
▁mike	59
▁fungi	59
▁tangible	59
▁Korean	59
midst	59
▁Nico	59
▁erase	59
▁luc	59
▁paul	59
▁abortion	59
▁simplistic	59
▁rented	59
▁execution	59
▁resort	59
▁Media	59
▁widespread	59
▁physiology	59
▁superhero	59
▁conviction	59
rabic	59
▁bombsight	59
front	59
▁pac	59
responsibilities	59
▁regulator	59
▁Iranian	59
▁copper	59
▁planner	59
▁Howard	59
▁reflex	59
▁urgent	59
▁greek	59
▁lester	59
▁altruism	58
▁Afghan	58
aribbean	58
▁Lake	58
▁Almost	58
▁Jeff	58
▁curl	58
▁regional	58
cultural	58
▁Eight	58
▁ultraviolet	58
▁conception	58
▁revelation	58
▁reuse	58
▁Bronx	58
▁dude	58
▁spontaneously	58
▁compliment	58
▁Indonesia	58
▁likelihood	58
lose	58
▁incremental	58
▁rectangle	58
▁mama	58
▁essay	58
▁inherent	58
▁publisher	58
▁anxious	58
▁hypothetical	58
radiat	58
▁County	58
▁Dutch	58
▁navigat	58
style	58
▁antidepressant	58
▁gentle	58
▁firsthand	58
aria	58
▁stir	58
▁france	58
▁confusion	58
▁salmon	58
▁lord	58
▁prosecut	58
▁bacterium	58
▁preparation	58
▁loneliness	58
▁anniversary	58
▁shelves	58
▁pickle	58
berry	58
▁lump	58
▁prosecutor	58
▁enthusiast	58
▁Army	58
▁clap	58
▁chill	58
▁mixture	58
▁employment	58
▁abroad	58
rained	58
▁Whatever	57
atic	57
▁beneficial	57
▁inspect	57
▁Except	57
▁insisted	57
▁satisfaction	57
▁symphony	57
▁anthropologist	57
▁secondary	57
▁guilt	57
▁thro	57
▁computational	57
▁Wa	57
▁depressing	57
ietnam	57
▁unseen	57
▁Brian	57
▁Rand	57
▁charter	57
▁Newton	57
▁unintended	57
▁delighted	57
▁committee	57
abby	57
▁libraries	57
▁reflective	57
▁disabilities	57
▁shade	57
osphere	57
▁seafood	57
▁lazy	57
▁followers	57
attle	57
▁larvae	57
arvard	57
▁elbow	57
▁worldview	57
▁powder	57
▁acute	57
▁affairs	57
▁easiest	57
▁pessimist	57
▁iPod	57
▁coup	57
▁adore	57
▁midnight	57
▁flock	57
ó	56
▁milo	56
▁carrier	56
▁Carolina	56
▁Shanghai	56
▁Delhi	56
▁manipulat	56
▁Year	56
▁lamb	56
▁numerous	56
▁Twenty	56
▁velocity	56
▁urbanization	56
▁transferred	56
▁System	56
▁neurogenesis	56
▁bolt	56
driven	56
▁Anybody	56
▁recreate	56
▁Mandela	56
▁chemotherapy	56
▁digging	56
▁Peace	56
▁accomplishment	56
▁locomotion	56
▁gulf	56
▁singular	56
▁participating	56
Ha	56
▁buck	56
▁AK	56
▁vegetable	56
▁hung	56
▁ramp	56
appreciated	56
▁crocodile	56
▁hatred	56
▁Henry	56
▁economically	56
▁mutant	56
▁racing	56
▁slope	56
iribati	56
rthur	56
▁deciding	56
▁ceo	56
counterintuitive	56
▁expense	56
▁antibiotic	56
▁distress	56
▁incomplete	56
▁spear	56
itten	56
▁nonviolen	56
▁statistically	56
ike	56
▁infect	55
▁Johnson	55
▁venue	55
▁degraded	55
▁coma	55
▁minimal	55
▁acceptance	55
▁lobe	55
▁kitten	55
jc	55
▁recycle	55
▁benign	55
▁republic	55
▁Came	55
▁Roman	55
communica	55
▁orphan	55
▁ancestor	55
▁hurricane	55
▁sneak	55
▁Technology	55
▁boyfriend	55
▁sensing	55
▁Koran	55
▁fuzzy	55
▁wax	55
▁francisc	55
▁overseas	55
▁heroin	55
▁Lord	55
▁potent	55
▁bass	55
▁savanna	55
▁conserv	55
▁distraction	55
▁assess	55
Tech	55
▁mustard	55
▁delusion	55
▁correlate	55
▁acceptable	55
▁unpredictable	55
▁viewpoint	55
effective	55
▁nuclei	55
heated	55
▁thrust	55
▁replica	55
▁badge	55
arnegie	55
▁fireflies	55
▁Seattle	55
▁encrypt	55
▁pesticide	55
arcus	55
▁cooperative	55
▁hammer	55
gill	55
▁scoop	55
▁Jordan	54
centric	54
uinea	54
▁obstacle	54
▁anecdote	54
▁crashes	54
▁Jane	54
▁manifestation	54
▁mycelium	54
▁Andrew	54
▁statistic	54
▁abnormal	54
▁clarity	54
msterdam	54
▁College	54
▁constructive	54
▁promising	54
▁giraffe	54
▁Julia	54
▁Bruno	54
▁cholera	54
▁royal	54
dinburgh	54
▁Rather	54
Stop	54
▁grape	54
▁combin	54
osaurus	54
write	54
stitution	54
▁personalities	54
▁relie	54
▁displace	54
▁November	54
▁janitor	54
▁supreme	54
▁flush	54
▁prescribe	54
▁trek	54
▁eighth	54
▁resonance	54
▁genital	54
▁performer	54
traumatic	54
▁Neanderthal	54
▁soccer	54
▁drowning	54
▁impose	54
▁annoying	54
▁receiver	54
▁Way	54
▁temper	54
▁displaced	54
▁landfill	54
▁censor	54
▁imperfect	54
▁billionaire	54
▁plankton	54
politi	53
case	53
▁flex	53
▁diagnose	53
▁Someone	53
▁encyclopedia	53
▁Gabby	53
▁ethanol	53
▁Accord	53
▁timber	53
▁Cuba	53
▁backpack	53
▁enrich	53
apping	53
▁happiest	53
yota	53
▁Brooklyn	53
▁diminish	53
directed	53
▁choreograph	53
▁affirm	53
▁entitled	53
▁consultant	53
pathy	53
▁Watch	53
▁wander	53
▁bonobo	53
▁blogger	53
▁Carl	53
▁replicator	53
▁Tony	53
wide	53
▁optimize	53
▁migraine	53
▁occurring	53
▁sulfide	53
▁Industrial	53
▁uplift	53
▁literacy	53
▁mustache	53
▁brainstorm	53
▁pivot	53
lead	53
olomon	53
▁offshore	53
▁Government	53
▁paris	53
klahoma	53
▁pier	53
giving	53
illa	53
▁qualified	53
▁characterize	53
governmental	53
▁chalk	53
section	53
▁cellphone	53
▁clarify	53
▁import	53
▁torn	53
▁guerrilla	53
▁clich	53
▁generosity	53
▁modified	53
▁Suddenly	53
▁synchronize	53
▁helmet	52
▁continuously	52
AIDS	52
▁Half	52
deci	52
▁flexibility	52
▁summary	52
▁bask	52
▁railway	52
▁typeface	52
shirt	52
▁randomness	52
▁MK	52
▁Ti	52
▁Redwood	52
▁posture	52
▁pearl	52
▁Brother	52
▁examine	52
▁leopard	52
▁epic	52
flat	52
▁resonate	52
▁Swiss	52
▁Catholic	52
▁reproduction	52
▁shuffle	52
▁dug	52
▁gait	52
▁puberty	52
▁jacket	52
▁alliance	52
▁acceleration	52
▁continuum	52
▁railroad	52
▁unleash	52
▁spaghetti	52
▁immigrant	52
▁salary	52
▁Ireland	52
▁measurement	52
▁apparent	52
▁Lincoln	52
▁disadvantage	52
glass	52
▁pepper	52
▁marvelous	52
▁occupation	52
▁approximately	52
▁epiphany	52
▁throat	52
▁petals	52
powered	52
▁reconcile	52
▁Hawaii	52
▁nomad	52
▁catalog	51
nike	51
▁thunder	51
▁Show	51
▁Abraham	51
▁meadow	51
▁battlefield	51
▁blindfold	51
▁Kevin	51
income	51
▁beans	51
▁Anyone	51
▁metabolic	51
▁entities	51
kyo	51
▁unsustainable	51
▁perpetrator	51
▁Telescope	51
▁lenses	51
▁forehead	51
▁evaporate	51
quat	51
▁notebook	51
▁Yemen	51
▁shipped	51
▁sensible	51
▁intrinsic	51
▁nickname	51
▁occupie	51
▁Stone	51
▁penalty	51
▁incorporat	51
eynman	51
operated	51
▁pursuing	51
▁sentiment	51
▁resemble	51
▁differentiate	51
▁Nick	51
▁missile	51
▁hatch	51
▁Leonardo	51
▁william	51
▁remov	51
▁slaughter	51
▁hobby	51
temporal	51
▁lesbian	51
▁minimize	51
▁novelty	51
▁viable	51
▁folk	51
atlantic	51
▁whistling	51
▁olive	51
risk	51
▁reproductive	51
▁pension	51
▁migrate	51
▁keen	51
▁juggle	51
▁technologist	51
▁noticing	51
▁lend	51
▁delicate	51
▁egypt	51
▁referred	51
▁Nike	51
▁bob	51
▁medic	51
▁measurabl	51
▁stunning	51
▁TEDster	51
▁relieved	51
▁shaping	51
▁Organization	50
▁lettuce	50
▁advent	50
▁PMS	50
▁funeral	50
▁quiz	50
screen	50
▁Detroit	50
▁neglect	50
▁observing	50
▁grassroots	50
▁versa	50
▁wetland	50
▁Switzerland	50
▁liberation	50
▁limestone	50
▁recognizing	50
▁jury	50
▁ingenuity	50
▁circulation	50
▁motto	50
▁waterfall	50
▁cultivate	50
▁collector	50
▁conspiracy	50
profit	50
▁Turk	50
▁Louis	50
▁playground	50
▁servant	50
▁prevail	50
▁anatomy	50
▁maintenance	50
▁superstar	50
▁stall	50
▁SW	50
▁administrator	50
arfur	50
other	50
▁heroic	50
▁ebola	50
▁testosterone	50
▁calculating	50
▁checklist	50
▁peanut	50
▁Mexican	50
▁thirty	50
▁aviation	50
▁auditorium	50
Hol	50
conceived	50
▁Hong	50
▁princess	50
track	50
▁excite	50
▁stratosphere	50
▁phoenix	50
▁wolves	50
▁secretary	50
centered	50
▁visceral	50
▁surviving	50
▁bj	50
▁surplus	50
▁Alex	50
▁USA	50
▁petition	50
▁mobilize	50
▁cathedral	50
abbage	50
▁variability	50
▁spawn	50
▁uganda	50
▁existential	50
▁withdraw	50
▁puff	50
▁virtuous	50
▁remittance	50
scribe	49
▁motorcycle	49
▁Argentina	49
▁Development	49
▁hurdle	49
▁portray	49
▁Singapore	49
▁substitute	49
▁undercover	49
▁Still	49
▁admitted	49
▁outrageous	49
▁cease	49
▁compact	49
▁uncertain	49
▁enthusiasm	49
▁orgasm	49
pelled	49
▁shuttle	49
▁redwood	49
▁Coast	49
▁flute	49
▁Pretty	49
▁Jupiter	49
ethoven	49
▁cartilage	49
▁Coke	49
▁Shakespeare	49
▁unnatural	49
chrom	49
ebruary	49
▁sexuality	49
▁bark	49
angalore	49
▁Indus	49
▁Together	49
putnik	49
tti	49
▁Probably	49
▁stewar	49
▁suitcase	49
▁dwell	49
▁Saturday	49
▁fundraising	49
▁eradication	49
▁equilibrium	49
▁clapping	49
▁gratitude	49
▁democratize	49
▁mapped	49
▁teapot	49
▁generalize	49
omics	49
stepping	49
▁Berlin	49
▁vocal	49
bladder	49
▁snap	49
gree	49
cientific	49
▁partially	49
▁curse	49
▁lawsuit	49
▁vacan	49
▁syringe	49
▁creep	49
▁prevalence	49
▁relativity	49
▁curtain	49
▁submersible	49
alapagos	49
▁creepy	49
lamic	49
▁expose	49
▁poker	49
▁nicole	49
▁Stephen	48
▁glory	48
enezuela	48
▁Iceland	48
▁rage	48
▁supernova	48
▁Watson	48
▁nut	48
contacted	48
▁certificate	48
▁applaud	48
▁activism	48
▁aquatic	48
▁dispute	48
▁approval	48
▁Daniel	48
▁reclaim	48
▁bandwidth	48
▁glu	48
▁exclude	48
▁galleries	48
▁ghana	48
▁wool	48
▁personnel	48
▁algebra	48
▁dentist	48
▁deceive	48
▁apprentice	48
▁payoff	48
▁outrage	48
▁Geographic	48
▁Jones	48
▁Monterey	48
▁wetsuit	48
▁obey	48
▁grief	48
▁nurturing	48
▁uber	48
▁emergent	48
▁PR	48
▁haunt	48
▁Pu	48
▁ballet	48
Absolutely	48
▁deplet	48
▁dissolve	48
▁evaluate	48
▁fountain	48
▁pregnancy	48
▁recommendation	48
▁submitted	48
sourcing	48
▁competent	48
▁unveil	48
ijing	48
▁worthwhile	48
▁announcement	48
▁knot	48
cotland	48
ctober	48
▁symptom	48
▁exoplanet	48
▁tipping	47
▁Philip	47
▁adolescence	47
nathan	47
▁cumulative	47
▁paralysis	47
▁destructive	47
bbing	47
▁eager	47
▁rainbow	47
▁Atlanta	47
▁queue	47
ubai	47
▁Clinton	47
▁Spring	47
akota	47
▁quantitative	47
▁shove	47
▁jelly	47
speed	47
▁entity	47
▁Security	47
▁mundane	47
▁Parkinson	47
corps	47
▁defect	47
aldives	47
▁poppe	47
▁chick	47
▁Feynman	47
▁Supreme	47
▁astronomical	47
▁IBM	47
▁bluefin	47
▁revolutionize	47
▁contractor	47
▁fatigue	47
vocation	47
▁gaze	47
genesis	47
▁oppos	47
▁censorship	47
enabling	47
walk	47
▁envy	47
▁Stage	47
▁Cape	47
▁texa	47
▁submarine	47
▁penicillin	47
▁thriving	47
▁replied	47
▁equator	47
degree	47
▁proton	47
▁distinctive	47
▁rainfall	47
entrepreneurship	47
▁spectra	47
▁cafeteria	47
▁northeast	47
▁foreground	47
▁hollow	47
▁pervasive	47
▁incarcerated	47
▁recipient	47
▁inviting	47
▁regain	47
ocratic	47
▁rude	47
▁cradle	47
▁weave	47
▁coward	47
▁oops	47
▁radar	47
▁Copenhagen	46
▁ox	46
shift	46
▁Trade	46
▁Rick	46
master	46
▁Society	46
▁contaminat	46
▁hawk	46
▁adequate	46
▁tedtalk	46
▁introduc	46
▁nuance	46
▁orphanage	46
▁Greece	46
▁JF	46
▁ingenious	46
▁April	46
ranging	46
▁synthesis	46
▁quantity	46
▁bronze	46
▁altruist	46
▁convenience	46
induced	46
▁windmill	46
Prince	46
▁Business	46
▁automatic	46
▁thus	46
cottish	46
▁stole	46
▁psychiatri	46
▁rome	46
▁gossip	46
imposed	46
categoriz	46
▁homosexual	46
culture	46
▁irrigation	46
posi	46
built	46
▁Kong	46
▁microsoft	46
▁warfare	46
▁literal	46
Know	46
espite	46
▁deny	46
▁employee	46
▁discrete	46
▁scope	46
▁bloom	46
▁hurry	46
▁volcanoes	46
▁Jews	46
▁blanket	46
argaret	46
▁underpin	46
▁stink	46
▁disruptive	46
▁alpha	46
ittsburgh	46
incoln	46
▁astrolabe	46
▁violation	46
▁chuck	45
▁humankind	45
▁maze	45
▁quantities	45
▁niece	45
▁analytical	45
irginia	45
▁thrill	45
▁astounding	45
quality	45
▁constitu	45
▁automated	45
▁LG	45
rizon	45
▁roost	45
▁linguistic	45
▁Music	45
▁Arabia	45
▁vow	45
▁unfinished	45
harlie	45
▁supercomputer	45
▁laundry	45
▁erotic	45
tolerant	45
▁meditation	45
▁sought	45
▁ambiguity	45
colonial	45
▁curator	45
▁stab	45
▁crater	45
▁toughest	45
▁seawater	45
▁expressive	45
▁fierce	45
▁Water	45
biotic	45
▁eyebrow	45
▁Civil	45
▁urine	45
▁scuba	45
▁pheromone	45
assachusetts	45
▁pharma	45
anuary	45
▁unemployment	45
▁suspicious	45
▁persistent	45
scatter	45
▁crust	45
▁courageous	45
▁Arthur	45
▁internship	45
▁rotating	45
▁latin	45
▁gigantic	45
▁owl	45
▁statistical	45
▁Teach	45
▁horrific	45
▁optimist	45
▁ideological	45
▁incidentally	45
osetta	45
▁intricate	45
▁parameters	45
▁capacities	44
▁afghan	44
▁devastated	44
▁compass	44
▁divine	44
▁History	44
amuel	44
▁Aristotle	44
▁yogurt	44
▁harass	44
▁optimal	44
▁statistician	44
▁restoration	44
▁unequal	44
▁microscopic	44
▁temptation	44
▁portable	44
▁neurological	44
▁flop	44
▁declining	44
ummy	44
▁FDA	44
▁lightweight	44
▁Journal	44
esteem	44
▁ancestry	44
▁Disney	44
▁beloved	44
▁bulk	44
▁tourism	44
▁distill	44
▁arctic	44
assuming	44
▁handsome	44
▁buzz	44
▁swam	44
▁Berkeley	44
▁innate	44
▁foragers	44
▁circulat	44
▁hypotheses	44
▁permit	44
▁hallway	44
▁behaving	44
▁league	44
pril	44
▁cubicle	44
▁Education	44
▁Benjamin	44
phin	44
▁detach	44
▁duration	44
▁drip	44
▁Mumbai	44
credit	44
▁tennis	44
bearing	44
▁Read	44
▁misuse	44
▁snapp	44
▁teddy	44
nanometer	44
▁vegetation	44
▁implication	44
▁superior	44
▁undermine	44
▁geometric	44
▁melody	44
▁uncover	44
enberg	44
phone	44
▁thorough	44
▁bunk	44
▁coding	44
▁complication	44
▁nectar	44
▁conscience	44
mmm	44
three	44
▁imaginary	44
▁iteration	44
▁daunting	44
▁estrogen	44
▁standpoint	44
▁Jerusalem	43
▁nitr	43
▁marrow	43
cycle	43
▁Office	43
▁Apollo	43
▁excerpt	43
ennessee	43
▁improbable	43
▁Mount	43
▁announce	43
▁mortgage	43
▁Bhutan	43
▁Brit	43
▁invasive	43
▁reservation	43
▁fox	43
▁dragge	43
▁accompanie	43
▁dreadful	43
▁seize	43
▁pollute	43
structure	43
▁immigration	43
▁inertia	43
▁SETI	43
▁Natural	43
▁Columbia	43
▁commodities	43
color	43
▁nucleus	43
▁grind	43
▁franc	43
▁blunt	43
▁cough	43
▁Bern	43
▁toddler	43
▁potato	43
▁terminal	43
onnie	43
▁electromagnetic	43
wept	43
tanford	43
▁embark	43
▁pronounce	43
▁comparable	43
▁embryo	43
▁subconscious	43
▁Public	43
▁mysteries	43
▁policing	43
rogue	43
▁societ	43
▁criticism	43
▁unemployed	43
▁supplement	43
▁republican	43
▁terrestrial	43
▁deprive	43
xford	43
spiring	43
▁hyena	43
▁synesthesia	43
▁canyon	43
▁malnutrition	43
▁biotech	43
aliban	43
anhattan	43
▁tadpole	43
▁juggling	42
▁dependence	42
▁thou	42
▁Canadian	42
▁Chang	42
▁epidemiolog	42
▁guardian	42
Having	42
▁injustice	42
▁perceptual	42
▁remark	42
▁McDonald	42
stretched	42
▁Harry	42
▁oblivio	42
▁rejection	42
▁Academy	42
▁modify	42
▁edited	42
▁unthinkable	42
▁chemo	42
▁companion	42
▁entrepreneurial	42
▁optim	42
tarbucks	42
▁reconnect	42
leanor	42
▁revenge	42
▁stubborn	42
▁zoning	42
▁erupt	42
ambridge	42
evident	42
▁vase	42
▁hover	42
▁grassland	42
▁imaginative	42
▁excellence	42
▁similarities	42
sensitive	42
▁kev	42
▁instructor	42
▁prevalent	42
▁Edward	42
▁Light	42
▁implicit	42
▁egyptian	42
▁citizenship	42
▁beast	42
ietnamese	42
▁beaver	42
▁compatible	42
▁humiliation	42
▁Milk	42
▁ipod	42
▁arteries	42
▁graffiti	42
▁buddy	42
▁florid	42
▁italian	42
▁shield	42
▁paintbrush	42
▁hazard	42
▁confusing	42
▁joking	42
▁clash	41
▁motivator	41
▁replacing	41
▁tolerate	41
▁glorious	41
▁urgency	41
▁cyclist	41
▁doubling	41
▁Philadelphia	41
▁slot	41
▁skate	41
storing	41
▁widow	41
▁simplify	41
shaped	41
▁negotiating	41
▁Kids	41
▁Republic	41
▁weep	41
▁Craig	41
▁infrared	41
▁hike	41
▁catastrophic	41
▁Hospital	41
▁interfere	41
percent	41
▁Greenland	41
▁Netherlands	41
▁crises	41
▁psychic	41
reviewed	41
▁relevance	41
▁Joseph	41
▁NSA	41
▁insecure	41
▁swear	41
▁Computer	41
▁jewelry	41
▁Lebanon	41
▁attendance	41
▁prophet	41
▁theorem	41
▁Fortunately	41
▁rover	41
urgeon	41
uatemala	41
▁starving	41
▁porn	41
anbanisha	41
▁vietnam	41
▁shoreline	41
▁skepticism	41
▁aspire	41
▁uprising	41
disturbed	41
▁deprivation	41
▁Wright	41
▁incubator	41
▁stiff	41
commissioned	41
▁attorney	41
▁Jersey	41
▁disparate	41
▁misery	41
▁underwear	41
▁tweak	41
▁prompt	41
▁portal	41
figure	41
▁rigorous	41
agged	41
▁doodle	41
preserv	41
▁retrofit	41
▁charities	41
▁arithmetic	41
emission	40
Elizabeth	40
smith	40
minded	40
▁Cyrus	40
▁intangible	40
▁constitute	40
▁unaware	40
▁sponge	40
▁Opera	40
▁spontaneous	40
▁memorable	40
Thank	40
▁burial	40
▁sediment	40
▁cabin	40
▁miraculous	40
▁Nepal	40
▁arriving	40
▁Library	40
▁Monday	40
▁disseminat	40
▁foam	40
▁sunset	40
▁automotive	40
▁conceive	40
▁Sarah	40
▁comprehensive	40
▁auction	40
▁Eventually	40
▁pluck	40
▁radius	40
▁browse	40
▁Marine	40
▁horrified	40
ennifer	40
▁superconductor	40
kansas	40
controlled	40
ogi	40
upiter	40
▁ecologist	40
▁census	40
▁carolin	40
▁pantheon	40
ahmoud	40
▁Sound	40
▁rooftop	40
▁Tokyo	40
▁hippie	40
▁decode	40
▁converge	40
▁tempt	40
▁Fund	40
▁guidance	40
Student	40
replicating	40
▁brute	40
▁narciss	40
guided	40
▁psyche	40
▁turbine	40
▁Luther	40
▁Montana	40
▁racism	40
Find	40
▁fluctuations	40
▁gorilla	40
▁nico	40
▁Pennsylvania	40
nceladus	40
contaminated	40
▁treadmill	40
▁frequent	40
▁ambiguous	40
▁tether	40
avail	40
▁worries	40
imming	39
species	39
V/	39
▁refresh	39
▁tobacco	39
▁RNA	39
▁fringe	39
▁discriminate	39
▁debris	39
▁turbo	39
▁Charlie	39
▁Sierra	39
fashioned	39
▁convincing	39
▁loyalty	39
▁waist	39
▁clinton	39
▁cooper	39
▁inflate	39
watch	39
▁naught	39
transformational	39
▁millennium	39
▁elizabeth	39
▁periphery	39
▁Thailand	39
▁tuberculosis	39
▁Kennedy	39
▁Suppose	39
▁butterfly	39
▁crisp	39
▁marginalized	39
▁Medicine	39
▁bypass	39
▁ipad	39
material	39
▁basi	39
▁Alaska	39
▁Alice	39
▁Christopher	39
▁hygiene	39
▁Goals	39
▁maximize	39
▁fisc	39
▁nanotechnology	39
▁Jefferson	39
▁mourn	39
▁resurrection	39
▁rabbits	39
▁southwest	39
▁embodied	39
▁assert	39
▁literary	39
▁revolt	39
▁pathetic	39
▁puncture	39
▁hunch	39
▁feat	39
▁casualties	39
▁paragraph	39
▁agile	39
▁Hubble	39
▁congratulations	39
▁biomaterial	39
▁gamble	39
ristotle	39
▁sympathy	39
è	39
▁impaired	39
▁semina	39
▁sapiens	39
piece	39
▁reckless	39
▁strive	39
▁Simon	39
▁saint	39
▁efficacy	39
▁empirical	39
▁apparatus	39
▁decipher	39
▁spoil	39
regulating	39
▁integral	39
▁marshmallow	39
▁intrinsically	39
▁contributor	39
▁reptile	39
▁intellect	39
▁eliminating	39
▁accelerator	39
archie	39
▁tactics	39
▁zap	39
legged	38
▁utilitarian	38
▁educating	38
▁aerodynamic	38
high	38
braham	38
olorado	38
▁Sudan	38
▁asylum	38
▁charcoal	38
▁Association	38
▁PowerPoint	38
▁zodiac	38
▁Laden	38
▁proposing	38
million	38
▁varieties	38
aternal	38
handed	38
▁knitting	38
▁audition	38
▁vicious	38
▁decentralized	38
▁Everest	38
▁taxpayer	38
▁arose	38
▁pragmatic	38
model	38
hakespeare	38
▁fond	38
▁Tower	38
writing	38
▁simulator	38
▁municipal	38
▁tiniest	38
▁Pete	38
▁acronym	38
▁Therefore	38
frame	38
▁confuse	38
▁Phoenix	38
▁blush	38
▁gecko	38
▁verify	38
▁redemption	38
▁courtyard	38
ã	38
social	38
▁infinity	38
▁appetite	38
▁rediscover	38
▁Norden	38
▁socio	38
▁Bosnia	38
▁Treat	38
▁arrogant	38
▁avenue	38
▁packet	38
▁knob	38
▁mammogram	38
▁tropics	38
▁initiate	38
▁tease	38
▁accommodate	38
▁presumably	38
ebastian	38
hanghai	38
freaking	38
▁embarrassment	38
▁sterile	38
angladesh	38
ajmuddin	38
ingapore	38
▁kidnap	37
▁carcinogen	37
▁Buddha	37
▁Linux	37
imitri	37
▁Crea	37
▁draft	37
▁webcam	37
▁hummingbird	37
▁praise	37
proving	37
▁Learn	37
▁methodology	37
▁unnecessary	37
adagascar	37
▁Building	37
▁overlooked	37
▁puppy	37
▁temporarily	37
▁bioluminescence	37
▁CRISPR	37
wrestling	37
▁toothbrush	37
▁Liberia	37
▁Canyon	37
▁Somalia	37
▁microprocessor	37
▁wilderness	37
▁Interestingly	37
▁neurologist	37
▁foremost	37
▁tectonic	37
▁fungus	37
▁Tunisia	37
▁astonished	37
▁Georgia	37
▁respiratory	37
▁forensic	37
▁geological	37
▁catalyst	37
▁smuggle	37
▁moderate	37
▁anomaly	37
▁barbershop	37
▁pneumonia	37
▁Consider	37
▁syria	37
▁scalable	37
▁preservation	37
brain	37
▁Kingdom	37
▁humiliate	37
▁Libya	37
decisive	37
▁tanzania	37
▁discharge	37
▁orangutan	37
▁cruise	37
Hmm	37
▁shack	37
▁shaman	37
▁mangrove	37
▁secular	37
▁facilitate	37
▁geese	37
▁ruthless	37
▁subsidiz	37
▁paleontologist	37
▁shrunk	37
roadmoor	37
▁admission	37
▁Garden	36
▁Stewart	36
▁mutate	36
▁Defense	36
▁encryption	36
rushed	36
▁Joshua	36
▁iPad	36
▁arbitrary	36
▁degradation	36
▁energetic	36
▁Michigan	36
▁metropolitan	36
▁template	36
▁skeptic	36
dragging	36
▁albert	36
▁Tibet	36
Africa	36
▁packaging	36
▁Thirty	36
▁sensual	36
▁volcani	36
▁pollinate	36
▁physiological	36
▁sociologist	36
▁disperse	36
▁dyslexic	36
▁Mozart	36
▁communal	36
▁Fifty	36
▁inherit	36
▁residu	36
▁napkin	36
▁troubling	36
▁measles	36
▁gently	36
▁instability	36
▁excel	36
▁ozone	36
▁athletic	36
▁sniff	36
▁mismatch	36
▁decoration	36
▁holistic	36
▁residential	36
▁desirable	36
▁enlist	36
prehensi	36
#	36
▁provoke	36
amiflu	36
▁miniaturization	36
▁shiny	36
▁Nairobi	36
▁Swedish	36
▁liking	36
▁staple	36
▁puzzling	36
▁fingerprint	36
▁falcon	36
▁anthropology	36
▁venus	36
▁orient	36
onterey	36
▁indulge	36
▁biography	36
▁snob	36
ibonacci	36
▁tenderness	36
▁chile	36
▁Clearly	35
▁pristine	35
▁amaze	35
▁ballast	35
environmentalist	35
▁retrospect	35
▁visualiz	35
▁uranium	35
▁Cambodia	35
troop	35
▁Himalaya	35
▁balcony	35
▁amplify	35
▁filament	35
▁anticipation	35
▁solitary	35
▁jealous	35
▁coincide	35
▁crochet	35
funded	35
▁robert	35
▁CMU	35
imbabwe	35
▁restrain	35
▁disbelief	35
▁subtract	35
aisuddin	35
burn	35
▁Environment	35
▁resign	35
▁dining	35
ecember	35
▁Movement	35
▁ridicule	35
▁engulf	35
▁prejudice	35
▁plague	35
▁dutch	35
▁Tesla	35
▁pennies	35
security	35
▁hallucinat	35
▁Similarly	35
▁unpleasant	35
▁Namibia	35
▁deceased	35
disciplinary	35
▁bumblebee	35
▁Country	35
▁centigrade	35
▁subscribe	35
▁Step	35
▁abalone	35
▁fax	35
tius	35
▁thermostat	35
ancouver	35
▁pediatric	35
▁anonymity	35
▁christoph	35
▁pollinators	35
▁glance	35
▁erosion	35
adulter	35
▁disturb	35
▁absent	35
▁rifle	35
▁judging	34
▁subsequent	34
▁mainframe	34
▁repertoire	34
etween	34
ortuguese	34
ö	34
cule	34
▁comedian	34
▁fission	34
▁vegetarian	34
▁biodegrad	34
▁Empire	34
▁eBay	34
▁releas	34
ngeles	34
▁lithium	34
▁sulfur	34
▁Large	34
▁complement	34
▁broadband	34
▁untie	34
▁Climate	34
▁heartbeat	34
Wonder	34
▁width	34
▁comprised	34
instruct	34
▁goggles	34
▁mortal	34
▁cerebral	34
▁hardwired	34
▁enact	34
▁Food	34
▁nudge	34
composite	34
▁Portugal	34
▁annoyed	34
▁apollo	34
njamin	34
▁drank	34
▁varied	34
▁certified	34
▁jerk	34
▁dividing	34
▁obscure	34
▁unlimited	34
▁ignite	34
lzheimer	34
▁inadequate	34
▁upstairs	34
▁damaging	34
▁vibrating	34
▁sophistication	34
▁recyclable	34
▁auditory	34
▁Colombia	34
▁dried	34
▁sermon	34
▁circumstance	34
▁racist	34
▁solidarity	34
▁ambien	34
▁Norwegian	34
▁balancing	34
▁exhilarating	34
lvetica	34
▁mammography	34
▁begging	34
▁inhale	34
▁underdog	34
▁divergence	34
▁compartment	34
▁discourse	34
▁embassy	34
▁adjacent	34
▁cosmetic	34
▁disclose	34
▁OECD	34
▁tactile	34
▁regenerative	34
rmeer	34
▁sequel	33
▁ninth	33
▁salamander	33
oxide	33
▁cockpit	33
▁Secretary	33
▁Siberia	33
▁competence	33
ississippi	33
▁dominate	33
▁unfamiliar	33
▁ministry	33
▁biotechnology	33
▁contradict	33
▁marvel	33
▁ceramic	33
▁appointment	33
▁blaming	33
▁advancing	33
▁swollen	33
▁tibet	33
▁vaccinat	33
▁innocence	33
▁wiring	33
▁aisle	33
▁Small	33
rgentina	33
▁Princeton	33
▁unhealthy	33
▁yep	33
▁invisibility	33
▁nevertheless	33
alactic	33
▁helix	33
▁Word	33
▁salad	33
▁crux	33
▁Univers	33
▁Kepler	33
▁Usually	33
▁dictate	33
▁cobra	33
▁cheetah	33
Good	33
▁Royal	33
▁capsule	33
▁seamless	33
nthony	33
▁legitimacy	33
▁deflect	33
▁scandal	33
▁inorganic	33
disproportionate	33
▁illustrat	33
▁Lagos	33
axis	33
▁Buddhist	33
▁drowned	33
▁sprawl	33
▁hydrant	33
market	33
▁seizure	33
+	33
▁primal	33
▁horrifying	33
▁pajama	33
▁prototyping	33
▁imitation	33
▁Orleans	33
▁fertility	33
▁adversity	33
▁diffuse	33
▁marrie	33
▁prostitute	33
▁Yellow	33
▁freshwater	33
Would	33
▁lyric	33
▁sweetheart	33
▁relauncher	33
▁facade	33
▁vocaliz	33
▁ultrasound	33
▁bargain	33
▁liberating	33
hiladelphia	33
▁resume	33
▁framing	33
▁scribble	33
▁pavilion	33
▁resurrect	33
▁oppression	32
▁avian	32
▁provision	32
▁SMS	32
▁hominid	32
▁bipolar	32
▁elastic	32
▁acquisition	32
▁plunge	32
▁frown	32
▁proxy	32
Every	32
▁schema	32
▁cavit	32
▁wingspan	32
▁loyal	32
Dead	32
▁misunderstood	32
▁maggots	32
▁stakeholder	32
▁determining	32
appropriate	32
▁propeller	32
▁detriment	32
▁lexicon	32
▁fascination	32
▁cyborg	32
▁scissors	32
▁radiologist	32
▁leonard	32
▁communist	32
lexander	32
▁kidnapped	32
▁ALS	32
▁gandhi	32
people	32
▁nominat	32
▁bedrock	32
▁elusive	32
▁Merc	32
▁vague	32
▁hectares	32
▁modification	32
rchimedes	32
▁stunned	32
▁illiterate	32
▁Grow	32
▁supplier	32
▁animated	32
▁quadruple	32
▁skyscraper	32
▁Tele	32
▁impatient	32
▁irregular	32
▁semester	32
▁Diego	32
▁vapor	32
▁Nathan	32
▁veterinarian	32
▁Service	32
▁dialect	32
▁squirrel	32
educated	32
▁enslave	32
▁Recently	32
▁Cultur	32
▁seductive	32
triplet	32
▁monopoly	32
▁chariot	32
▁disposal	32
ozart	32
▁diabetic	32
▁intestine	32
▁migrat	32
▁constellation	32
▁costume	32
▁solvable	32
▁squeak	32
▁browsing	32
▁savor	32
▁motive	31
▁LGBT	31
▁Kosovo	31
▁Hindu	31
▁Jamaica	31
▁stride	31
▁communism	31
▁dwarf	31
▁anchor	31
▁Muhammad	31
▁artisan	31
▁carpenter	31
▁Arizona	31
▁Information	31
▁unbelievably	31
▁nursing	31
▁unravel	31
▁peacekeep	31
▁desalination	31
nature	31
▁revisit	31
▁brigade	31
▁lymph	31
lude	31
▁Radio	31
▁whiskey	31
▁Denmark	31
▁rwanda	31
▁Michelangelo	31
▁consequent	31
▁guidelines	31
▁renaissance	31
▁stockpile	31
▁scramble	31
▁bullying	31
▁mexican	31
▁desperation	31
▁tinker	31
lhambra	31
▁demonstrat	31
▁cubic	31
▁rearrange	31
▁Chuck	31
▁Susan	31
▁plasma	31
sound	31
entucky	31
resolution	31
▁reimagine	31
▁exoskeleton	31
▁detergent	31
▁wrinkles	31
▁mound	31
▁dispense	31
Welcome	31
▁xeno	31
dnesday	31
▁vibrant	31
▁Fast	31
▁bookstore	31
▁Leader	31
lexandria	31
▁atrazine	31
▁antibodies	31
▁Freedom	31
▁bankrupt	31
▁scrub	31
▁withstand	31
▁disposable	31
▁descent	31
▁converse	31
▁Commission	31
▁sampling	31
▁philanthropist	31
▁insignificant	31
▁trajectories	31
compliance	30
▁latitude	30
▁Teszler	30
▁kosov	30
positive	30
▁jeep	30
performing	30
▁deconstruct	30
lecommunications	30
▁electora	30
▁drastic	30
▁Luckily	30
learn	30
Bird	30
▁accumulation	30
▁august	30
▁guru	30
▁twenty	30
▁provocative	30
▁reservoir	30
▁peripheral	30
▁buffer	30
▁faculty	30
▁celebrities	30
▁typewriter	30
▁swirl	30
▁exaggeration	30
▁Natasha	30
▁relat	30
▁burglar	30
▁doodling	30
▁plural	30
▁premature	30
▁bhutan	30
▁abusive	30
▁defy	30
▁starvation	30
fitted	30
▁wield	30
▁secrecy	30
▁immoral	30
examined	30
axter	30
▁Company	30
▁overweight	30
▁wondrous	30
control	30
▁arrival	30
▁churn	30
▁spores	30
▁whack	30
ozambique	30
▁dedicate	30
▁livelihood	30
▁northwest	30
averse	30
▁investigating	30
▁repetition	30
▁Emily	30
▁examining	30
▁salute	30
▁participatory	30
▁availability	30
▁misconception	30
▁susceptible	30
▁sushi	30
▁perpetual	30
▁Desert	30
▁striving	30
▁Parliament	30
▁wizard	30
▁immunity	30
megawatt	30
▁ensu	30
▁zambia	30
▁Kansas	30
▁notorious	30
▁surpass	30
▁pornography	30
ç	30
▁heterosexual	30
▁disclosure	30
▁influential	30
▁downhill	30
▁bullshit	30
▁reshape	30
bureaucratic	30
▁canadian	30
▁Babylon	30
▁derivative	30
▁vibrate	30
▁mockingbird	30
ampshire	30
▁tidy	29
▁coherent	29
▁squatter	29
▁illumination	29
▁mutilate	29
▁magnify	29
tlanta	29
▁convergence	29
arrett	29
▁UCLA	29
specific	29
▁plaster	29
▁hypertension	29
▁inference	29
▁offense	29
hailand	29
▁ankle	29
▁curb	29
▁Rich	29
▁Lewis	29
solving	29
▁influenza	29
▁Point	29
▁overdose	29
▁feminine	29
▁offensive	29
Excuse	29
estament	29
▁subsidies	29
▁bioluminescent	29
▁reception	29
iguel	29
▁Francis	29
▁repetitive	29
▁messenger	29
▁reassuring	29
▁bastard	29
▁daydream	29
▁curate	29
▁Finland	29
▁LHC	29
▁intimidating	29
▁portfolio	29
▁fracture	29
▁knives	29
▁cereal	29
▁pledge	29
▁durable	29
▁decorate	29
▁vertebrate	29
▁logistics	29
▁zimbabwe	29
▁Ultimately	29
▁Exactly	29
destruct	29
orbital	29
▁precipitat	29
▁policymakers	29
▁pardon	29
▁nonverbal	29
▁Skype	29
▁speculative	29
hilippines	29
Brain	29
▁quantify	29
▁thyroid	29
▁separating	29
▁analyst	29
▁homicide	29
▁evolutionarily	29
etflix	29
eorgia	29
▁modular	29
▁multiplied	29
▁malware	29
▁postcards	29
▁arousal	29
▁parrot	29
ilbao	29
▁rejuvenat	29
extraterrestrial	29
▁fiddle	29
▁hawaii	29
▁cognition	29
tanbul	29
▁stewardship	29
ontana	29
▁cauliflower	29
▁horribly	29
migrated	28
teacher	28
▁Economic	28
▁credibility	28
▁Baltimore	28
▁aquaculture	28
▁biomedical	28
▁circus	28
▁Full	28
▁proximity	28
▁porch	28
▁ripple	28
▁exaggerate	28
rhythm	28
▁Copernic	28
▁interdependenc	28
▁beehive	28
firefly	28
placing	28
▁hippocampus	28
▁contemplate	28
▁vanished	28
▁primordial	28
▁caution	28
▁hijack	28
▁sanctuary	28
▁collaborat	28
▁charging	28
mobile	28
eymah	28
▁academy	28
▁destined	28
▁Sydney	28
rthodox	28
▁patrol	28
▁motel	28
nutrient	28
function	28
▁questionnaire	28
▁pancreatic	28
▁skydiving	28
▁tempo	28
ompanies	28
▁Certainly	28
Barack	28
openhagen	28
▁vendor	28
▁antidote	28
▁Mediterranean	28
concentrat	28
▁dominance	28
▁serotonin	28
▁succumb	28
possum	28
▁relentless	28
▁domination	28
▁Yale	28
growing	28
lcro	28
▁multitasking	28
▁squirt	28
▁Especially	28
▁smack	28
▁malignant	28
▁compell	28
▁advocacy	28
▁propulsion	28
wahili	28
▁pinnacle	28
▁Rule	28
▁Stein	28
▁fragrance	28
amantha	28
▁bundle	28
▁plywood	28
▁denominator	28
eviathan	28
▁discomfort	28
haired	28
▁unambiguous	28
▁magnesium	28
▁emulate	28
▁hypertext	28
oderator	28
▁mistrust	28
▁frack	28
▁porridge	28
▁whitopia	28
▁socioeconomic	28
▁submissi	28
▁tasmania	28
▁articulat	28
▁repel	28
flipping	28
▁sahara	28
▁thursday	28
▁amphibi	28
▁preliminary	28
▁redefining	27
iagra	27
▁instinctively	27
transcendence	27
▁Cooper	27
▁appalling	27
▁Kyoto	27
▁orthopedic	27
▁gaming	27
▁Wilson	27
▁grappl	27
▁oasis	27
irtual	27
gatherer	27
▁leisure	27
▁fertilize	27
▁submerge	27
▁proliferation	27
▁incarceration	27
▁miniature	27
▁plaza	27
enhancing	27
▁saudi	27
▁utilize	27
▁implies	27
▁prominent	27
▁sabbatical	27
conflict	27
▁illuminating	27
▁caterpillar	27
▁spectroscopy	27
Cloud	27
▁Network	27
▁motivating	27
lgium	27
▁DARPA	27
▁lousy	27
▁autopsy	27
alenti	27
▁logged	27
▁reassure	27
patient	27
ochrane	27
ilwaukee	27
▁bruise	27
▁Alpha	27
▁friday	27
▁laureate	27
▁soybean	27
▁Kim	27
▁electromagnet	27
▁tumble	27
▁doctrine	27
▁Ushahidi	27
▁volatile	27
▁surrogate	27
▁amputation	27
▁unexplored	27
guil	27
▁illuminate	27
▁moisture	27
▁plummet	27
▁socket	27
▁ruling	27
▁thirst	27
▁massacre	27
▁unpack	27
▁Whitopia	27
▁colombia	27
Field	27
▁rehearse	27
▁bloop	27
▁Hawking	27
▁biomimicry	27
▁spreadsheet	27
punched	27
▁suffocat	27
▁buttermilk	27
▁khal	27
▁Already	26
▁leukemia	26
▁Perfect	26
▁Renaissance	26
▁cursor	26
▁snatch	26
▁bottleneck	26
▁Glass	26
▁syllabus	26
▁Toronto	26
▁audacious	26
▁SARS	26
▁eloquent	26
▁ribbon	26
▁translating	26
llinois	26
▁Agency	26
▁Group	26
manufactured	26
▁incision	26
▁superintendent	26
▁credible	26
▁Several	26
▁dashboard	26
assembling	26
tempted	26
▁yuck	26
▁embryonic	26
▁obsessive	26
▁cholesterol	26
▁rebreather	26
▁Game	26
▁meditate	26
▁conduc	26
girl	26
▁Jazeera	26
▁pavement	26
▁disguise	26
Safe	26
▁breathtaking	26
▁imprisoned	26
▁imaginable	26
▁patriarch	26
▁embodiment	26
▁rubbish	26
▁discourage	26
▁carcass	26
▁jurisdiction	26
arahumara	26
▁EDI	26
▁nanopatch	26
▁emphasis	26
▁League	26
▁Ministry	26
▁Speak	26
▁Ninety	26
▁integrating	26
▁tyranny	26
▁nutshell	26
▁Amazing	26
▁simplified	26
▁enclosure	26
▁jitney	26
▁identification	26
▁welcoming	26
▁Language	26
▁remorse	26
▁vigorous	26
▁granny	26
▁energies	26
▁champagne	26
▁handicap	26
▁infamous	26
▁legislators	26
▁catholic	26
▁synonymous	26
▁endemic	26
course	26
▁substrate	26
Happy	26
▁scooter	26
▁concussion	26
▁sneakerhead	26
luck	26
▁rhinovirus	26
▁hilarious	26
▁squash	26
▁kettle	26
▁revolve	26
▁diaspora	26
▁necessity	26
▁sinister	26
▁stimuli	26
▁outweigh	26
▁feminism	26
▁persuasive	26
▁atmospher	26
▁defensive	26
▁rejoice	26
▁gloom	26
▁bathtub	26
▁sculptural	26
▁unsafe	26
▁Marshall	25
illennium	25
▁humidity	25
▁pianist	25
▁feasible	25
▁Pepsi	25
▁imbalance	25
▁bailout	25
▁rhyme	25
▁metadata	25
▁skyrocket	25
▁asphalt	25
quarters	25
%	25
▁gratification	25
▁paycheck	25
▁mcdonald	25
▁frugal	25
▁Lawrence	25
▁Hopefully	25
▁trawl	25
▁headwind	25
=	25
▁taxonom	25
▁hyperbolic	25
▁redundancy	25
▁Pantheon	25
▁indifferent	25
▁liberia	25
▁barbaria	25
▁adverse	25
▁plausibl	25
▁persuasion	25
pocalypse	25
▁occurrence	25
▁alternate	25
▁indonesia	25
▁animator	25
▁typography	25
▁RISD	25
Great	25
identifie	25
▁Depression	25
▁arguably	25
▁headphones	25
▁litigation	25
▁proscenium	25
▁flirt	25
nspired	25
▁junior	25
▁balconies	25
▁nourish	25
isconsin	25
▁perimeter	25
▁coumarin	25
▁groove	25
▁recharge	25
▁purchasing	25
▁squish	25
▁stimulating	25
harlotte	25
▁coarse	25
▁soviet	25
▁acromegaly	25
▁Simple	25
▁Murray	25
▁impairment	25
white	25
▁arthritis	25
▁inflection	25
Psycho	25
▁Incredible	25
▁excruciating	25
▁qualifications	25
▁precursor	25
▁Oregon	25
▁dilute	25
▁Differen	25
▁quotation	25
▁reorganize	25
▁reusable	25
▁appointed	25
▁breeze	25
▁reintroduce	25
▁ominous	25
▁dementia	25
▁perseverance	25
▁densities	25
riceratops	25
▁imminent	25
▁hustle	25
▁supermassive	25
escartes	25
▁undergrad	25
trawberry	25
▁kangaroo	25
anthropomorphize	25
▁charitable	25
Friend	24
Uncle	24
▁advert	24
▁magnifie	24
▁glori	24
▁Holocaust	24
▁offenders	24
▁Armstrong	24
▁Otherwise	24
▁graduation	24
▁unicorn	24
▁AIMS	24
▁sequester	24
▁annihilat	24
▁retrac	24
▁biblical	24
▁chimney	24
▁oblige	24
▁stereotypical	24
▁numerical	24
▁Energy	24
▁reckon	24
▁heavier	24
▁approximation	24
▁suspend	24
Jeopardy	24
▁Magazine	24
▁bioenergy	24
▁ludicrous	24
▁interference	24
▁evocative	24
discriminat	24
▁vodka	24
▁Dylan	24
▁equate	24
▁Fox	24
▁fluctuat	24
▁miserably	24
▁Democracy	24
▁probabilities	24
▁tunisia	24
polluting	24
▁administrative	24
▁Windows	24
driving	24
▁Everglades	24
▁nutritious	24
▁butterflies	24
▁petroleum	24
▁degrading	24
▁Oakland	24
▁plaque	24
▁ethos	24
yderabad	24
▁centrifuge	24
▁dismantle	24
▁Scratch	24
▁accumulating	24
fidelity	24
▁qatar	24
▁Economist	24
▁detained	24
▁cycling	24
▁downstairs	24
▁darling	24
▁academia	24
▁pigmentation	24
▁Behind	24
▁audacity	24
▁diffusion	24
▁assassinated	24
eureka	24
▁namibia	24
confidence	24
defined	24
▁Compassion	24
▁prehistoric	24
▁tragedies	24
▁contraception	24
boriginal	24
▁kickstart	24
▁biopsy	24
▁Avenue	24
▁examination	24
▁sneeze	24
▁Pixar	24
sanitary	24
▁bulgaria	24
▁compost	24
▁unheard	24
▁synagogue	24
▁laparoscopic	24
impson	24
▁crevasse	24
russians	24
▁valentine	24
▁irresponsible	24
ennsylvania	24
▁leapfrog	24
▁necrophilia	24
Picture	24
▁seatbelt	23
▁unconditional	23
▁appreciat	23
▁steadi	23
▁Agnes	23
▁Guardian	23
▁brilliance	23
present	23
▁bilingual	23
▁compliant	23
▁Nevada	23
▁enigma	23
▁cryptic	23
Huh	23
witzerland	23
▁anomalies	23
▁aquarium	23
▁antiangiogenic	23
▁Wolfram	23
readnoughtus	23
▁airbag	23
▁uncommon	23
generated	23
▁definitive	23
▁Russell	23
▁CNN	23
▁astrophysicist	23
▁culprit	23
Fantastic	23
normal	23
▁intertwined	23
▁menstruation	23
▁umbrella	23
▁hockey	23
▁Personal	23
▁epilepsy	23
▁Fortune	23
▁Conference	23
▁Fahrenheit	23
▁negativity	23
▁Algeria	23
▁childbirth	23
▁sympathetic	23
▁wholesale	23
▁Progress	23
▁implicated	23
insurgency	23
misunderstanding	23
nterviewer	23
▁untouchable	23
▁muffin	23
inflated	23
▁twentie	23
growth	23
▁combustion	23
▁eagle	23
industrial	23
▁Pentagon	23
▁collagen	23
global	23
▁encompass	23
▁pronunciation	23
▁qualitative	22
▁Corporation	22
▁advocating	22
▁Discover	22
▁accord	22
▁StoryCorps	22
▁Federal	22
▁contempt	22
▁abdomen	22
▁conjecture	22
▁acquir	22
ugging	22
olumbia	22
▁dispose	22
▁archiv	22
▁Circle	21
)	21
speech	21
“	21
egroponte	21
ductive	20
written	20
uestion	19
”	18
@	17
!]	15
ü	14
ù	14
ñ	13
–	12
ï	12
ā	12
________	11
à	10
ø	8
[#	8
(	7
^	7
ë	6
‘	6
ê	6
ī	6
[@	5
ì	5
ū	5
apanese	4
อร	4
[V	3
*	3
Á	3
♫	3
É	3
ZX	3
V!	3
â	3
£	3
VV	3
â	3
_	3
	2
อร่อย	2
!!!	2
ô	2
ä	2
ć	2
QQ	2
æ	2
!!!!!	2
!!	2
XX	2
Vá	1
Zé	1
̊	1
¡	1
++	1
——	1
/V	1
]!	1
ě	1
Å	1
!”	1
Ç	1
Č	1
ò	1
€	1
’”	1
XXX	1
送你葱	1
Vé	1
#@	1
çã	1
ZZ	1
ē	1
][	1
(V	1
Q!	1
_V	1
[$	1
¢	1
à!	1
