<unk>	0
<s>	0
</s>	0
__SEP__	0
▁	-2.52211
,	-3.24311
.	-3.44367
s	-3.58473
▁the	-3.68824
▁to	-4.13855
'	-4.16451
▁of	-4.23762
▁a	-4.24919
▁and	-4.30263
▁that	-4.484
▁I	-4.55292
▁in	-4.63964
▁is	-4.82945
▁it	-4.85389
▁you	-4.85408
▁we	-4.95444
0	-5.19508
▁And	-5.22191
t	-5.24952
▁this	-5.25937
▁was	-5.54874
▁for	-5.60958
▁like	-5.61851
▁people	-5.62221
▁are	-5.66738
▁have	-5.67053
re	-5.67454
▁they	-5.71751
▁on	-5.73804
ing	-5.74422
▁just	-5.77134
▁--	-5.77768
▁with	-5.7845
▁know	-5.8065
▁can	-5.81255
d	-5.83801
-	-5.8605
▁So	-5.86636
?	-5.87661
▁going	-5.891
▁be	-5.89693
▁what	-5.89931
ed	-5.90928
▁about	-5.93077
▁think	-5.95081
1	-5.95819
▁do	-6.0746
▁not	-6.07859
▁at	-6.08121
▁all	-6.08962
▁really	-6.10735
m	-6.15708
▁world	-6.18588
▁don	-6.18793
▁one	-6.1931
▁so	-6.19416
▁there	-6.19463
▁my	-6.19867
▁as	-6.21996
▁time	-6.22058
▁"	-6.23613
▁from	-6.24819
▁It	-6.25476
▁want	-6.25881
▁way	-6.28761
▁but	-6.30009
▁an	-6.33579
:	-6.34385
▁our	-6.36661
▁actually	-6.37247
▁things	-6.37537
▁years	-6.38536
▁or	-6.38878
ve	-6.39159
2	-6.4014
▁said	-6.40418
▁We	-6.41459
▁me	-6.42118
▁right	-6.43061
▁out	-6.43508
▁But	-6.44529
▁if	-6.45953
▁these	-6.46006
▁very	-6.50596
▁make	-6.50665
▁The	-6.52592
▁by	-6.53263
▁up	-6.53576
▁them	-6.55475
▁he	-6.56686
ly	-6.56868
▁when	-6.57415
▁because	-6.58931
▁thing	-6.59295
▁more	-6.59353
▁had	-6.59692
▁see	-6.61443
▁look	-6.62352
▁work	-6.63786
▁who	-6.66108
e	-6.67115
▁their	-6.67802
▁were	-6.68138
▁which	-6.68313
▁got	-6.69356
▁your	-6.69359
▁need	-6.6949
▁say	-6.69669
▁would	-6.70698
▁how	-6.71
▁did	-6.71002
▁get	-6.71123
n	-6.75995
▁little	-6.76902
▁us	-6.78877
5	-6.79841
▁life	-6.80419
▁good	-6.81357
y	-6.81576
▁here	-6.84319
▁has	-6.85298
▁let	-6.85549
er	-6.85956
▁lot	-6.86821
▁then	-6.87062
▁new	-6.88106
▁This	-6.88183
▁some	-6.89516
▁into	-6.89669
▁You	-6.90142
▁different	-6.90685
9	-6.91695
▁kind	-6.93246
▁go	-6.94112
▁will	-6.94869
▁where	-6.95835
▁ve	-6.96972
▁other	-6.97326
▁now	-6.98335
▁Now	-7.00643
▁come	-7.01024
▁could	-7.01512
ll	-7.03772
▁They	-7.0496
▁been	-7.05272
▁use	-7.08165
▁doing	-7.0877
r	-7.12871
3	-7.12913
▁year	-7.13189
▁tell	-7.13883
▁no	-7.13926
▁day	-7.14134
▁something	-7.16773
▁talk	-7.17924
▁didn	-7.19398
▁than	-7.19593
▁those	-7.19997
▁change	-7.20349
▁two	-7.20883
▁called	-7.20929
▁over	-7.21033
▁first	-7.22266
▁back	-7.23173
al	-7.23197
▁percent	-7.24609
▁also	-7.24752
▁great	-7.25852
▁thought	-7.27354
▁much	-7.2815
▁problem	-7.28418
es	-7.30013
▁In	-7.31735
▁idea	-7.31781
▁today	-7.31927
▁big	-7.32081
▁she	-7.32181
4	-7.3306
▁went	-7.3336
▁That	-7.33524
▁human	-7.33901
▁story	-7.3453
▁started	-7.346
▁does	-7.34662
▁only	-7.35861
▁course	-7.36384
▁his	-7.36727
▁most	-7.37222
▁better	-7.38202
▁even	-7.39309
c	-7.39954
▁question	-7.40069
▁important	-7.4007
▁take	-7.40548
▁start	-7.41564
8	-7.41888
o	-7.4191
▁fact	-7.42042
▁many	-7.42623
▁mean	-7.43193
▁water	-7.45693
▁love	-7.48361
▁thank	-7.48532
▁brain	-7.49026
▁around	-7.49236
▁♫	-7.51117
▁bit	-7.51604
▁What	-7.52742
6	-7.52812
▁down	-7.53066
▁place	-7.5332
▁A	-7.53694
a	-7.5403
▁her	-7.54581
▁data	-7.55071
▁There	-7.55129
▁came	-7.56636
▁He	-7.56677
in	-7.56881
▁example	-7.58412
▁through	-7.58557
7	-7.58592
▁wanted	-7.58717
▁women	-7.58757
▁point	-7.59678
▁same	-7.59923
▁every	-7.60303
▁technology	-7.61776
▁end	-7.6241
p	-7.62694
▁put	-7.62816
▁doesn	-7.63366
▁used	-7.63869
▁understand	-7.6394
▁being	-7.64703
▁long	-7.64835
▁able	-7.66244
▁believe	-7.66416
;	-7.66677
▁looking	-7.67325
th	-7.67681
▁three	-7.69734
▁real	-7.70576
ic	-7.71027
▁If	-7.71231
▁feel	-7.72045
l	-7.72887
▁maybe	-7.73392
▁ago	-7.7351
▁school	-7.73656
▁well	-7.74418
▁live	-7.74686
▁any	-7.74917
▁try	-7.75085
▁working	-7.75401
▁children	-7.75511
g	-7.76595
▁power	-7.77398
▁find	-7.77584
▁person	-7.77591
i	-7.7792
▁ll	-7.78815
▁made	-7.79616
u	-7.79654
▁sort	-7.79754
▁trying	-7.80312
▁happened	-7.80826
▁help	-7.8127
▁number	-7.81937
▁Well	-7.82792
▁million	-7.84047
▁why	-7.84265
or	-7.84277
▁away	-7.84415
▁money	-7.85338
▁ask	-7.86059
▁man	-7.86391
▁design	-7.86717
▁thinking	-7.87229
▁hard	-7.87624
▁country	-7.87745
▁after	-7.87816
le	-7.87913
▁second	-7.87916
ers	-7.88889
"	-7.88964
▁light	-7.89182
▁information	-7.89942
▁own	-7.9002
▁kids	-7.90057
▁old	-7.90295
▁last	-7.90366
▁home	-7.90913
▁space	-7.91756
an	-7.92314
▁talking	-7.92394
▁took	-7.92396
▁play	-7.92901
▁S	-7.93712
▁pretty	-7.94253
▁happen	-7.94609
▁interesting	-7.95066
▁quite	-7.95092
▁left	-7.95202
▁future	-7.9608
▁simple	-7.96484
▁give	-7.96584
▁part	-7.96602
▁stuff	-7.96723
▁answer	-7.96782
▁might	-7.96806
▁car	-7.96894
▁should	-7.96937
▁food	-7.97168
▁means	-7.97395
▁best	-7.9781
▁told	-7.98029
▁before	-7.98268
▁wrong	-7.98842
▁picture	-7.98886
▁moment	-7.99425
▁system	-7.99775
▁sense	-7.9984
▁create	-7.99979
▁another	-8.00007
▁using	-8.00112
ation	-8.00112
en	-8.00208
▁small	-8.00212
▁off	-8.00416
▁hand	-8.00428
▁building	-8.00429
ra	-8.01056
li	-8.01132
able	-8.01424
▁never	-8.01771
▁high	-8.02396
▁getting	-8.02482
▁still	-8.02578
ro	-8.02699
▁yes	-8.02811
▁body	-8.03384
on	-8.0385
▁science	-8.03869
▁together	-8.04346
▁show	-8.0439
▁room	-8.04715
it	-8.0499
▁him	-8.05122
▁bad	-8.05252
▁comes	-8.05515
▁energy	-8.05529
▁care	-8.06466
▁build	-8.06897
▁case	-8.07076
▁learn	-8.07419
▁happens	-8.07673
S	-8.07675
▁probably	-8.07891
▁countries	-8.07937
▁next	-8.07981
▁social	-8.07989
▁true	-8.08572
▁coming	-8.08625
▁okay	-8.08708
▁asked	-8.0877
▁T	-8.09372
I	-8.09412
h	-8.09491
▁goes	-8.09847
▁reason	-8.09858
ri	-8.09945
ion	-8.10825
▁few	-8.11136
▁making	-8.11351
▁experience	-8.11381
▁saw	-8.11828
▁again	-8.11949
el	-8.12119
▁young	-8.12769
ity	-8.12988
▁When	-8.13466
▁found	-8.14268
▁each	-8.14368
▁between	-8.14461
f	-8.14533
▁project	-8.14824
▁E	-8.15666
▁hope	-8.15751
▁open	-8.15893
▁mind	-8.1607
▁amazing	-8.16511
ch	-8.16859
▁city	-8.17013
▁men	-8.17125
▁family	-8.17145
▁dollars	-8.17809
▁computer	-8.18002
▁half	-8.18294
us	-8.18294
▁too	-8.18458
▁wasn	-8.1862
▁seen	-8.18803
▁matter	-8.19007
▁remember	-8.19179
▁billion	-8.19489
▁B	-8.19639
▁C	-8.19717
▁stop	-8.20119
▁un	-8.20333
▁process	-8.20339
▁set	-8.20417
▁book	-8.20791
▁imagine	-8.20891
▁word	-8.21066
▁far	-8.21236
▁guy	-8.21394
▁times	-8.21669
b	-8.22323
▁call	-8.22501
,"	-8.2258
▁says	-8.22857
▁read	-8.23129
▁business	-8.23404
▁lives	-8.23868
▁war	-8.23872
▁face	-8.24035
▁yeah	-8.24748
▁Because	-8.24802
▁done	-8.25044
▁isn	-8.25918
▁sure	-8.25942
▁video	-8.2599
▁whole	-8.26063
▁living	-8.26145
ness	-8.26419
▁ever	-8.26497
▁possible	-8.26797
▁planet	-8.27245
▁turn	-8.28033
▁beautiful	-8.28139
▁later	-8.28174
▁problems	-8.29034
▁looked	-8.29075
▁everybody	-8.2917
▁happening	-8.29224
▁makes	-8.29373
▁cancer	-8.29392
▁works	-8.29615
▁words	-8.29626
▁basically	-8.29957
▁four	-8.29989
k	-8.30069
▁control	-8.30082
ur	-8.30151
▁de	-8.3034
▁model	-8.3078
▁job	-8.3086
▁community	-8.31026
▁bring	-8.31196
▁ways	-8.31379
▁always	-8.31539
▁inside	-8.31732
▁single	-8.31832
▁saying	-8.32282
ar	-8.32391
▁child	-8.32491
▁may	-8.32624
il	-8.32939
▁days	-8.32971
▁global	-8.33122
▁woman	-8.33209
ne	-8.34343
▁cells	-8.346
▁music	-8.347
▁health	-8.34856
▁heard	-8.35052
st	-8.35198
▁ideas	-8.35335
▁couple	-8.36459
▁looks	-8.37154
▁knew	-8.37179
▁having	-8.37543
▁public	-8.37968
▁line	-8.38116
▁c	-8.38125
▁history	-8.38892
▁head	-8.39328
▁language	-8.39335
▁universe	-8.39936
▁age	-8.40209
▁months	-8.40394
▁group	-8.40586
A	-8.40616
▁How	-8.40751
▁built	-8.40808
▁run	-8.40892
▁become	-8.40982
w	-8.40986
▁piece	-8.41579
▁exactly	-8.41841
▁stories	-8.42212
▁education	-8.42543
▁self	-8.42595
▁five	-8.42605
▁happy	-8.42644
▁share	-8.42934
▁walk	-8.42978
▁hear	-8.42982
▁completely	-8.43007
▁form	-8.43502
ate	-8.4359
▁sound	-8.43602
▁won	-8.43703
▁For	-8.43978
▁worked	-8.44062
▁everything	-8.44318
▁mother	-8.44413
▁order	-8.44466
▁night	-8.44515
▁decided	-8.44745
▁nature	-8.45142
ment	-8.45247
▁F	-8.45493
▁species	-8.46176
▁One	-8.46414
▁huge	-8.46758
▁couldn	-8.4677
ent	-8.46923
▁learned	-8.47281
to	-8.47282
▁P	-8.4769
▁changed	-8.47783
▁government	-8.48254
▁enough	-8.48426
▁art	-8.48637
▁heart	-8.48783
▁U	-8.48963
▁My	-8.49053
▁research	-8.49439
▁state	-8.4955
▁friends	-8.4965
est	-8.49707
▁She	-8.50227
▁free	-8.50379
▁study	-8.50781
man	-8.50844
C	-8.51031
▁turns	-8.51138
▁animals	-8.51822
▁easy	-8.52006
ist	-8.52044
▁somebody	-8.52082
▁game	-8.52819
▁R	-8.53159
x	-8.5325
▁questions	-8.53334
▁These	-8.53445
la	-8.53636
ter	-8.54064
▁level	-8.54115
▁wonderful	-8.54828
▁difference	-8.54874
▁under	-8.55476
▁close	-8.55608
ive	-8.56229
▁without	-8.56493
▁house	-8.56497
▁air	-8.5663
▁society	-8.56673
▁places	-8.57205
▁guys	-8.57474
▁machine	-8.57559
▁black	-8.58001
▁past	-8.58327
▁view	-8.58455
▁students	-8.58633
▁leave	-8.58741
▁G	-8.58801
▁audience	-8.58898
ting	-8.59024
▁less	-8.59396
ce	-8.59511
▁minutes	-8.59803
▁company	-8.59879
▁scale	-8.60139
▁oh	-8.60141
▁eyes	-8.60244
▁disease	-8.6028
▁cell	-8.60643
ta	-8.61027
ant	-8.61092
▁news	-8.61226
▁side	-8.61236
lo	-8.61285
▁such	-8.61442
▁hours	-8.61582
▁team	-8.61765
▁anything	-8.61871
▁Here	-8.62256
te	-8.62262
▁test	-8.62613
▁across	-8.6343
▁M	-8.63453
▁figure	-8.63473
▁common	-8.63667
▁ok	-8.63739
▁environment	-8.63763
▁created	-8.63823
▁difficult	-8.63952
▁oil	-8.64158
▁am	-8.64202
▁taking	-8.64384
▁deal	-8.64405
un	-8.64886
▁seven	-8.64888
▁As	-8.64907
▁large	-8.65156
▁beginning	-8.65178
▁father	-8.65416
age	-8.65629
▁reality	-8.65732
▁b	-8.65805
▁move	-8.65856
▁learning	-8.65984
▁natural	-8.65999
▁cost	-8.66044
▁lots	-8.66062
▁Let	-8.66094
▁per	-8.66389
▁step	-8.66421
▁f	-8.66842
▁No	-8.66854
D	-8.66914
▁cities	-8.67368
up	-8.67493
▁paper	-8.67536
as	-8.67561
▁finally	-8.67581
▁Africa	-8.68043
▁gave	-8.68103
▁else	-8.68178
▁New	-8.68669
▁tried	-8.68787
▁taken	-8.68918
▁turned	-8.69077
▁image	-8.69091
▁market	-8.69283
▁All	-8.69436
▁land	-8.69558
na	-8.6965
▁thousands	-8.69759
▁g	-8.7006
▁area	-8.70136
▁watch	-8.703
▁powerful	-8.70512
▁outside	-8.70588
▁gets	-8.70746
▁fish	-8.70958
ian	-8.7097
▁early	-8.71044
▁culture	-8.71356
▁con	-8.71369
ia	-8.71481
▁challenge	-8.71761
less	-8.71772
▁population	-8.71787
▁needed	-8.72007
id	-8.72153
▁began	-8.72214
M	-8.72405
▁instead	-8.72644
▁middle	-8.72816
▁short	-8.72987
▁buy	-8.73369
ac	-8.73622
▁pay	-8.73696
po	-8.73784
▁week	-8.73797
▁wouldn	-8.74202
▁phone	-8.74267
▁cool	-8.74309
▁write	-8.74591
▁ca	-8.75105
▁felt	-8.75175
▁D	-8.7523
▁moving	-8.75351
▁almost	-8.75528
▁fear	-8.75533
ha	-8.75757
▁while	-8.75888
ul	-8.76109
▁surface	-8.76509
▁nice	-8.76693
▁Thank	-8.76714
bo	-8.76919
▁already	-8.76958
▁incredible	-8.77048
▁Earth	-8.77318
▁seeing	-8.77443
▁century	-8.7771
▁kinds	-8.77866
▁fun	-8.77935
▁media	-8.77983
▁particular	-8.78085
▁nothing	-8.78136
▁yet	-8.78317
▁certain	-8.78359
ry	-8.78389
▁hands	-8.78389
▁co	-8.78489
▁white	-8.78624
▁top	-8.78681
▁act	-8.78959
▁both	-8.79109
▁six	-8.79399
▁poor	-8.79416
▁interested	-8.79686
▁voice	-8.79758
▁size	-8.79772
ma	-8.79776
▁entire	-8.79832
▁eat	-8.80026
▁program	-8.802
▁born	-8.80227
▁whether	-8.80437
▁death	-8.80438
▁keep	-8.80483
▁grow	-8.80507
▁guess	-8.80529
▁once	-8.80562
▁value	-8.80699
▁rest	-8.8096
▁green	-8.80995
▁longer	-8.81051
▁someone	-8.81135
▁lost	-8.81573
▁often	-8.81614
▁parents	-8.81748
▁opportunity	-8.81843
ized	-8.82011
▁local	-8.82179
▁hold	-8.82208
▁ocean	-8.82449
▁die	-8.82888
▁companies	-8.82889
▁experiment	-8.82893
▁systems	-8.82929
co	-8.82996
▁stage	-8.83181
▁within	-8.83293
ism	-8.83563
pe	-8.83824
▁myself	-8.83863
▁ones	-8.84303
▁simply	-8.84621
▁speak	-8.84939
▁gone	-8.85081
▁behavior	-8.85116
▁given	-8.85425
is	-8.85677
rs	-8.85685
▁clear	-8.86147
ct	-8.86529
▁Why	-8.86833
ol	-8.86861
▁key	-8.86989
▁absolutely	-8.87114
▁earth	-8.87289
▁p	-8.879
▁film	-8.88007
▁feeling	-8.8806
▁blue	-8.8808
▁complex	-8.88252
▁color	-8.88254
v	-8.88541
at	-8.88685
ty	-8.88718
▁weeks	-8.88828
▁issue	-8.88903
▁quickly	-8.89071
▁girl	-8.89118
ba	-8.89293
▁morning	-8.896
▁blood	-8.89702
▁United	-8.89804
ine	-8.9012
sh	-8.9017
▁special	-8.90437
old	-8.90755
▁K	-8.90789
▁sea	-8.90879
▁growth	-8.91191
▁animal	-8.91208
▁theory	-8.91274
▁name	-8.91459
▁economic	-8.91551
▁attention	-8.91559
▁takes	-8.9157
▁dis	-8.91605
▁feet	-8.91927
▁friend	-8.92055
ie	-8.9235
▁perfect	-8.92465
z	-8.92608
▁innovation	-8.92711
▁red	-8.92798
▁economy	-8.92816
▁until	-8.93027
▁solution	-8.93045
▁Ma	-8.93501
▁terms	-8.93641
▁truth	-8.93983
▁ground	-8.93985
▁realized	-8.94387
▁map	-8.9448
▁robot	-8.9463
▁sun	-8.94742
▁dream	-8.94829
▁africa	-8.94829
ling	-8.95022
▁movement	-8.95062
▁chance	-8.95165
▁network	-8.95247
▁brought	-8.95271
▁met	-8.95556
▁cut	-8.95834
ck	-8.95864
▁god	-8.96068
▁became	-8.96139
▁numbers	-8.9627
▁changes	-8.96331
▁kid	-8.96358
fi	-8.96384
ir	-8.96406
▁baby	-8.96467
▁field	-8.96483
▁spend	-8.96591
▁stand	-8.96699
▁though	-8.96707
▁parts	-8.96778
▁Internet	-8.96795
▁support	-8.96868
▁risk	-8.96964
T	-8.97039
▁known	-8.97152
▁America	-8.9743
▁wrote	-8.97566
▁material	-8.9765
▁force	-8.97705
▁access	-8.97784
▁books	-8.98025
di	-8.98288
de	-8.98304
am	-8.98328
▁low	-8.98329
▁average	-8.98343
ke	-8.98454
▁wish	-8.98616
▁explain	-8.9865
▁must	-8.98722
▁wait	-8.98809
▁political	-8.98873
ci	-8.98895
▁climate	-8.98902
▁Do	-8.99128
▁meet	-8.99226
▁pre	-8.99364
▁structure	-8.99407
▁sex	-8.99409
▁since	-8.99578
P	-8.99658
ary	-8.99667
▁fly	-8.99847
▁States	-8.9986
▁result	-8.99899
▁impact	-8.99915
▁anybody	-9.00033
ally	-9.00062
▁sitting	-9.00161
▁stay	-9.00243
vi	-9.00343
▁areas	-9.0039
▁bigger	-9.00514
op	-9.00516
▁dead	-9.00588
▁needs	-9.00691
▁individual	-9.00718
ies	-9.00729
no	-9.00749
ated	-9.00832
▁front	-9.01025
▁third	-9.01146
▁eye	-9.01521
▁choice	-9.01662
um	-9.0178
▁itself	-9.01815
▁based	-9.01908
▁To	-9.01949
▁Or	-9.01992
▁knowledge	-9.02437
▁running	-9.02447
▁talked	-9.02502
▁dark	-9.02765
▁patients	-9.02902
▁trust	-9.02903
▁center	-9.0316
▁ready	-9.03262
▁worth	-9.03317
▁shows	-9.03423
▁ma	-9.03648
▁journey	-9.03722
▁ourselves	-9.03839
▁writing	-9.03871
▁growing	-9.04051
▁humans	-9.04057
▁sit	-9.04074
▁focus	-9.04079
▁against	-9.04289
ted	-9.04322
pa	-9.04406
▁themselves	-9.0443
ous	-9.04461
▁code	-9.04672
▁along	-9.0481
▁solve	-9.04972
▁normal	-9.05141
▁sometimes	-9.05145
▁table	-9.05262
▁telling	-9.05263
▁vision	-9.05383
▁street	-9.0542
▁break	-9.05622
▁India	-9.05942
▁pick	-9.05958
▁lab	-9.06078
ial	-9.06088
▁fast	-9.06219
▁personal	-9.06296
pl	-9.06474
ge	-9.06626
▁object	-9.07125
▁images	-9.07172
▁J	-9.07413
The	-9.07445
▁deep	-9.0766
com	-9.07706
▁spent	-9.08187
▁situation	-9.08284
▁listen	-9.08354
▁forward	-9.08379
▁OK	-9.08389
▁TED	-9.08407
and	-9.08442
▁starting	-9.08758
▁ex	-9.08827
▁asking	-9.08877
he	-9.08909
▁ability	-9.08945
▁similar	-9.09028
▁God	-9.09122
▁rather	-9.09159
▁tools	-9.09188
▁approach	-9.09246
▁zero	-9.0934
B	-9.09494
▁patient	-9.0957
▁physical	-9.09641
▁technologies	-9.09656
▁shape	-9.09769
bi	-9.09858
▁cars	-9.09863
▁office	-9.10057
▁law	-9.10089
▁door	-9.10131
ho	-9.10219
son	-9.10367
▁obviously	-9.10373
▁begin	-9.10496
▁understanding	-9.10524
▁O	-9.10531
▁least	-9.10659
▁literally	-9.10793
▁generation	-9.10795
▁measure	-9.1085
▁favorite	-9.10913
▁realize	-9.10915
▁scientists	-9.11114
▁save	-9.11141
▁changing	-9.11193
▁effect	-9.11204
▁plan	-9.11216
▁add	-9.11247
▁produce	-9.11274
▁miles	-9.113
▁reasons	-9.11303
▁everyone	-9.11448
▁Then	-9.12193
O	-9.12252
▁wall	-9.12379
▁class	-9.12396
▁issues	-9.12434
ow	-9.12624
land	-9.12792
▁teach	-9.12818
▁exciting	-9.12825
nt	-9.12925
▁screen	-9.13128
▁list	-9.13209
mo	-9.13223
▁product	-9.13482
▁ice	-9.13526
▁haven	-9.13718
▁evidence	-9.1373
▁present	-9.13956
▁boy	-9.14009
▁basic	-9.14112
▁totally	-9.14206
▁follow	-9.14277
▁message	-9.1428
▁son	-9.14359
▁response	-9.14382
▁relationship	-9.144
ut	-9.14552
▁type	-9.1471
▁girls	-9.14769
▁showed	-9.14924
▁full	-9.14949
▁wind	-9.14964
▁certainly	-9.14977
line	-9.15012
year	-9.15349
▁hundreds	-9.15442
▁box	-9.15503
▁incredibly	-9.15699
▁industry	-9.15699
▁sleep	-9.15911
do	-9.1601
▁examples	-9.16033
tic	-9.1611
▁solar	-9.16123
ance	-9.1627
▁giving	-9.16319
▁American	-9.16523
me	-9.16535
ize	-9.16558
▁device	-9.16576
▁crazy	-9.16631
▁gives	-9.16697
▁China	-9.16899
▁...	-9.16916
▁drive	-9.16931
▁star	-9.17169
L	-9.17276
the	-9.17296
▁revolution	-9.17369
▁aren	-9.17408
▁carbon	-9.17772
▁touch	-9.17962
▁available	-9.17978
▁designed	-9.18023
ach	-9.18094
▁At	-9.18481
▁resources	-9.18481
▁plant	-9.18556
▁playing	-9.1896
▁development	-9.19088
em	-9.19106
▁online	-9.19132
▁fight	-9.19308
▁rules	-9.19344
R	-9.1943
▁success	-9.19534
▁action	-9.19844
▁fine	-9.19916
▁developed	-9.19932
▁win	-9.20092
▁village	-9.20514
▁mo	-9.20572
▁j	-9.20756
▁send	-9.21095
▁smart	-9.21218
▁camera	-9.21389
▁national	-9.21423
▁extremely	-9.21497
▁Okay	-9.21932
▁wonder	-9.22034
der	-9.22188
▁month	-9.22228
▁moved	-9.2236
▁arm	-9.22388
▁soon	-9.22408
▁discovered	-9.2241
▁compassion	-9.22536
▁sounds	-9.22543
▁worse	-9.22555
▁allow	-9.22769
▁walking	-9.22836
▁N	-9.22851
▁supposed	-9.22954
E	-9.2306
▁rate	-9.23077
hi	-9.23279
▁yourself	-9.23282
ful	-9.23309
▁Some	-9.23527
▁Be	-9.23551
▁choose	-9.23554
▁skin	-9.23674
▁lived	-9.23695
▁behind	-9.23697
▁tiny	-9.23841
▁hour	-9.23997
▁York	-9.24086
▁pictures	-9.2412
▁hospital	-9.24149
▁died	-9.2417
▁perhaps	-9.24273
▁speed	-9.24282
▁drug	-9.24284
ating	-9.24299
▁ted	-9.24452
ish	-9.24482
mp	-9.24561
during	-9.24626
▁period	-9.24708
▁pattern	-9.24731
▁tend	-9.24738
▁teachers	-9.24781
▁computers	-9.24795
▁sp	-9.24816
▁waste	-9.24889
ton	-9.24979
▁medical	-9.25305
▁involved	-9.25332
▁tree	-9.25335
▁slow	-9.25407
▁develop	-9.25559
▁bar	-9.25617
▁path	-9.25714
▁secret	-9.25862
▁clean	-9.25876
▁violence	-9.26022
▁hit	-9.2609
ga	-9.26233
▁drugs	-9.26307
ca	-9.26338
▁tool	-9.26461
ig	-9.26649
▁eight	-9.26733
▁groups	-9.26844
▁evolution	-9.26863
▁modern	-9.26907
▁millions	-9.26975
▁cause	-9.27006
▁visual	-9.2702
▁treatment	-9.27075
▁major	-9.27174
▁impossible	-9.27204
▁non	-9.27282
▁cannot	-9.27406
▁notice	-9.27509
▁mass	-9.27517
▁shot	-9.27658
▁hot	-9.27683
▁w	-9.27756
▁context	-9.27949
▁price	-9.27953
go	-9.27964
▁pro	-9.2808
sa	-9.28149
ble	-9.28317
▁role	-9.28418
▁goal	-9.28527
▁results	-9.28573
ni	-9.28691
▁teacher	-9.28704
▁kill	-9.28712
per	-9.28758
▁strong	-9.2876
ver	-9.28847
▁meaning	-9.28963
▁complicated	-9.29004
tion	-9.29185
▁american	-9.29251
▁digital	-9.29323
▁recently	-9.2938
▁extraordinary	-9.2963
▁robots	-9.29686
N	-9.29842
▁h	-9.29853
▁concept	-9.3002
▁spread	-9.3006
▁grew	-9.30071
▁security	-9.30071
ex	-9.30157
▁fall	-9.30174
▁minute	-9.30282
pi	-9.30337
▁wife	-9.30377
▁mom	-9.30452
▁medicine	-9.30531
▁amount	-9.30579
▁creating	-9.30684
▁movie	-9.30729
▁watching	-9.30805
be	-9.31
▁expect	-9.31144
▁connected	-9.31173
▁whatever	-9.31812
▁Just	-9.32091
▁lose	-9.32123
▁road	-9.32139
▁reach	-9.32418
▁late	-9.3242
▁student	-9.32476
▁recognize	-9.3257
▁excited	-9.32572
▁alive	-9.32728
Well	-9.32751
▁k	-9.3276
▁schools	-9.32992
▁position	-9.3315
▁biggest	-9.33178
▁happiness	-9.33336
ard	-9.33476
▁check	-9.33813
▁potential	-9.33832
▁ran	-9.33836
▁safe	-9.33896
▁drop	-9.3397
▁track	-9.34068
▁treat	-9.34122
G	-9.34127
▁internet	-9.34132
ten	-9.34161
▁creative	-9.34289
▁memory	-9.34449
▁sent	-9.34486
uc	-9.34489
▁software	-9.34769
▁forest	-9.34818
▁thousand	-9.34923
▁leaders	-9.35114
▁suddenly	-9.3515
▁People	-9.35204
▁dangerous	-9.35256
▁trees	-9.35371
▁states	-9.35762
▁plants	-9.35909
▁W	-9.36038
▁Re	-9.36046
▁square	-9.36163
▁others	-9.36265
▁L	-9.36304
▁gas	-9.36313
▁doctor	-9.36353
▁pain	-9.3638
cy	-9.36527
▁count	-9.36532
ping	-9.36536
▁developing	-9.36577
▁strange	-9.36618
▁college	-9.36713
▁taught	-9.36713
K	-9.36771
▁record	-9.36847
▁progress	-9.36986
▁lead	-9.3706
▁version	-9.37136
▁genes	-9.37341
▁faster	-9.37347
▁likely	-9.37526
ill	-9.37694
▁scientific	-9.37869
▁perspective	-9.3803
ists	-9.38145
ization	-9.38206
▁anymore	-9.38362
▁either	-9.38529
▁song	-9.38571
▁search	-9.3871
▁fit	-9.38782
▁critical	-9.38852
▁sub	-9.38873
▁store	-9.38907
que	-9.38929
wi	-9.39121
▁police	-9.39196
▁Our	-9.39231
▁train	-9.39287
▁quality	-9.39345
mer	-9.39378
▁higher	-9.39439
▁travel	-9.39455
▁moral	-9.39508
▁allowed	-9.39512
▁protect	-9.3956
You	-9.39628
▁democracy	-9.39701
▁connect	-9.39739
▁successful	-9.3991
▁showing	-9.39915
▁sell	-9.3994
▁general	-9.40051
min	-9.40153
▁crisis	-9.40207
▁consider	-9.40414
▁conversation	-9.4054
▁fantastic	-9.40547
we	-9.40551
▁largest	-9.40627
▁sky	-9.40888
way	-9.40922
nd	-9.40932
▁continue	-9.40969
▁exist	-9.41009
▁main	-9.41078
▁materials	-9.41191
▁CA	-9.41233
▁DNA	-9.414
▁kept	-9.414
▁Not	-9.41466
▁fire	-9.41494
▁positive	-9.41498
▁On	-9.41551
▁sorry	-9.41744
▁pull	-9.41877
wa	-9.42199
time	-9.42221
▁starts	-9.42249
▁families	-9.4226
▁content	-9.42261
▁led	-9.42282
▁especially	-9.42433
▁quick	-9.42475
▁loved	-9.42556
▁smaller	-9.42693
▁eventually	-9.4278
▁Right	-9.42793
▁decision	-9.42827
▁communities	-9.42954
▁subject	-9.42999
va	-9.43041
▁bunch	-9.43303
▁ended	-9.43377
▁page	-9.43419
ring	-9.43438
▁poverty	-9.43478
▁super	-9.43538
▁stars	-9.43746
▁jobs	-9.4382
▁math	-9.43842
▁dog	-9.43909
▁killed	-9.43964
ab	-9.44034
What	-9.44082
▁St	-9.4414
▁india	-9.44328
ad	-9.44433
▁source	-9.4447
▁bottom	-9.44533
che	-9.44571
▁clearly	-9.44607
▁fundamental	-9.44747
▁particularly	-9.44805
▁stick	-9.44892
▁magic	-9.44966
▁Can	-9.44995
▁cold	-9.45127
▁plastic	-9.45243
▁specific	-9.45333
▁organization	-9.45367
ag	-9.4546
▁rich	-9.45492
▁Mo	-9.45518
▁standing	-9.45581
▁familiar	-9.456
▁truly	-9.456
▁website	-9.456
▁objects	-9.45847
▁web	-9.4585
mon	-9.46004
▁forget	-9.46045
▁putting	-9.46086
▁training	-9.46118
▁worry	-9.46359
▁term	-9.46466
▁board	-9.46652
ud	-9.4678
▁cases	-9.4701
▁slide	-9.47034
▁hair	-9.47079
▁activity	-9.47226
▁finding	-9.4732
▁games	-9.47321
side	-9.47375
▁address	-9.47404
fe	-9.47443
▁america	-9.47472
ure	-9.47733
izing	-9.4788
▁fuel	-9.47899
▁floor	-9.47951
▁report	-9.48041
▁genetic	-9.48131
▁weren	-9.48188
▁named	-9.48281
▁expensive	-9.48317
▁remarkable	-9.4832
▁lower	-9.48515
ster	-9.48739
ot	-9.48839
▁electricity	-9.48886
▁projects	-9.48909
▁individuals	-9.49043
▁ha	-9.49047
▁larger	-9.49055
bu	-9.49139
▁terrible	-9.49425
▁unique	-9.49425
▁sign	-9.49461
▁meant	-9.49475
▁decide	-9.49506
▁reading	-9.49626
▁older	-9.49772
ran	-9.49786
▁freedom	-9.49798
▁written	-9.49807
▁peace	-9.501
mi	-9.50164
▁flow	-9.50234
▁rise	-9.50338
▁trouble	-9.50358
▁models	-9.50369
om	-9.50479
▁foot	-9.50489
▁respect	-9.50646
▁shift	-9.50794
▁photo	-9.50831
▁practice	-9.50837
▁listening	-9.50843
▁prison	-9.5097
▁sat	-9.50975
▁essentially	-9.50988
▁legs	-9.51
▁service	-9.51019
▁alone	-9.51118
▁conditions	-9.51478
▁survive	-9.51576
▁biology	-9.51681
▁trade	-9.51716
ip	-9.51777
ak	-9.51949
▁aid	-9.51964
▁solutions	-9.52028
▁usually	-9.52105
▁workers	-9.52112
by	-9.52242
▁weight	-9.5227
▁Ro	-9.52401
▁site	-9.52431
▁products	-9.5248
▁park	-9.52486
▁text	-9.52681
▁obvious	-9.52685
▁passion	-9.52842
▁career	-9.5285
▁World	-9.53018
▁waiting	-9.53179
▁purpose	-9.5321
▁useful	-9.53259
▁ahead	-9.53277
▁provide	-9.53356
ence	-9.53461
▁affect	-9.53526
ron	-9.53706
▁draw	-9.53747
▁nuclear	-9.5391
▁return	-9.53913
▁cover	-9.54001
▁photograph	-9.54045
dy	-9.541
▁international	-9.54179
▁rule	-9.54181
▁region	-9.54271
▁respond	-9.54301
▁famous	-9.54374
ap	-9.54414
▁final	-9.54458
▁dance	-9.54471
▁raise	-9.54671
out	-9.54732
▁temperature	-9.54765
▁thanks	-9.54776
▁Le	-9.54941
▁female	-9.54961
▁military	-9.54961
▁physics	-9.54961
▁anyone	-9.55001
▁mental	-9.55037
gen	-9.55306
▁post	-9.55348
▁traditional	-9.55408
▁feed	-9.55551
ny	-9.55669
▁seems	-9.55818
ee	-9.55902
▁massive	-9.55973
▁direction	-9.56016
▁architecture	-9.56149
▁mission	-9.56172
▁Ba	-9.56273
▁town	-9.56365
▁river	-9.56547
▁stopped	-9.56566
▁near	-9.5663
▁cr	-9.56743
▁beauty	-9.56743
log	-9.56969
▁pieces	-9.56976
▁v	-9.57394
▁virus	-9.57475
▁china	-9.57548
▁series	-9.57549
led	-9.57751
▁rain	-9.57801
▁bacteria	-9.57905
▁increase	-9.57969
▁De	-9.58106
▁bed	-9.58115
▁decisions	-9.583
▁machines	-9.58303
▁Yeah	-9.58379
ah	-9.58509
den	-9.58533
▁demand	-9.58558
▁English	-9.58762
▁pressure	-9.58769
▁agree	-9.58795
▁predict	-9.58834
▁shown	-9.58885
▁patterns	-9.58933
▁afraid	-9.58966
F	-9.59247
▁studies	-9.59375
▁allows	-9.59412
▁skills	-9.59503
▁capital	-9.59547
▁account	-9.5979
▁task	-9.59951
vo	-9.59963
▁tells	-9.59969
▁po	-9.60135
▁South	-9.6016
▁Europe	-9.60163
▁aware	-9.60186
men	-9.60221
▁walked	-9.60238
▁lines	-9.60299
▁attack	-9.6034
▁gene	-9.60343
▁popular	-9.60409
tra	-9.60546
▁sick	-9.60554
▁connection	-9.60831
▁current	-9.6089
▁An	-9.60897
▁em	-9.60901
▁effective	-9.60905
▁worst	-9.6103
▁dad	-9.61123
▁brains	-9.61164
▁buildings	-9.61224
▁function	-9.61248
lin	-9.61275
▁responsibility	-9.61448
▁smell	-9.61449
▁radio	-9.61481
▁neurons	-9.61499
▁actual	-9.61525
▁By	-9.61766
▁complete	-9.61856
▁failure	-9.61873
▁la	-9.61898
▁Go	-9.61964
▁legal	-9.62014
▁African	-9.62251
ug	-9.62479
▁financial	-9.625
▁bridge	-9.62508
▁choices	-9.62649
ward	-9.62871
▁push	-9.62989
▁broken	-9.63001
▁seconds	-9.63039
da	-9.63067
▁ball	-9.6318
qui	-9.63218
▁conflict	-9.63245
▁fix	-9.63304
▁afford	-9.63318
▁infrastructure	-9.63351
▁range	-9.63384
les	-9.63386
▁engine	-9.63423
▁willing	-9.63506
▁prevent	-9.63534
ever	-9.63559
▁babies	-9.63564
▁york	-9.63565
▁seem	-9.63759
▁wealth	-9.63888
▁Google	-9.63993
▁doctors	-9.64164
▁religion	-9.64208
▁boat	-9.64213
▁race	-9.64217
▁immediately	-9.64241
▁teaching	-9.64309
▁stress	-9.64424
iv	-9.64464
one	-9.64491
▁rock	-9.64537
oc	-9.64625
▁intelligence	-9.64639
▁bio	-9.6474
▁paid	-9.64858
▁vote	-9.64959
▁mine	-9.65073
▁funny	-9.6509
▁decade	-9.65164
▁private	-9.6529
▁enormous	-9.65368
▁costs	-9.65497
des	-9.65512
▁throw	-9.65515
▁join	-9.65586
▁match	-9.65728
▁sand	-9.65966
▁meeting	-9.66014
▁daughter	-9.66072
ious	-9.66108
▁apply	-9.66289
▁camp	-9.6635
▁nine	-9.66407
cor	-9.66453
▁surprise	-9.66533
red	-9.66589
."	-9.66707
▁character	-9.66784
▁politics	-9.66825
▁slightly	-9.66826
▁micro	-9.66919
▁speech	-9.67019
ber	-9.67047
▁bodies	-9.67047
▁opposite	-9.67047
▁email	-9.67051
▁values	-9.67089
sta	-9.67135
ice	-9.6743
▁straight	-9.67492
▁healthy	-9.67678
▁meters	-9.67914
▁policy	-9.67936
▁Co	-9.6796
ey	-9.67986
▁forms	-9.68162
▁unfortunately	-9.68182
▁lucky	-9.68205
cal	-9.6827
▁performance	-9.68342
▁communicate	-9.68387
▁closer	-9.68407
au	-9.68427
▁mobile	-9.68475
▁blind	-9.68582
▁driving	-9.68621
▁pop	-9.68627
▁inter	-9.68665
H	-9.6884
▁standard	-9.68851
▁types	-9.68927
▁invented	-9.68971
▁Of	-9.6908
▁humanity	-9.69143
▁heat	-9.69185
▁apart	-9.69225
▁income	-9.69405
▁hundred	-9.69499
▁window	-9.69526
▁summer	-9.69548
ical	-9.69552
▁including	-9.69968
▁cross	-9.70066
ite	-9.70158
▁condition	-9.70277
▁charge	-9.70362
▁beyond	-9.70425
▁Chinese	-9.70446
ities	-9.70611
▁bought	-9.70655
▁central	-9.70655
▁stuck	-9.70657
▁towards	-9.70796
▁jump	-9.71087
▁missing	-9.7109
▁several	-9.71115
▁artist	-9.71173
▁challenges	-9.71318
▁First	-9.71346
▁nation	-9.71446
lt	-9.71635
con	-9.71809
▁distance	-9.7181
▁spot	-9.71827
▁atmosphere	-9.71829
▁improve	-9.7196
▁relationships	-9.72012
▁landscape	-9.72045
▁played	-9.72256
▁balance	-9.72276
▁instance	-9.72276
▁yellow	-9.72278
▁shared	-9.72406
▁puzzle	-9.72509
▁tissue	-9.72509
▁proud	-9.72521
oo	-9.72652
▁male	-9.72662
▁rid	-9.72749
▁minds	-9.72815
fa	-9.72831
▁Yes	-9.72859
▁understood	-9.72978
▁greatest	-9.72987
▁catch	-9.72996
▁edge	-9.73027
▁speaking	-9.73039
▁block	-9.73139
▁earlier	-9.73213
▁dying	-9.73246
▁da	-9.73254
▁production	-9.73269
▁greater	-9.73272
ery	-9.73394
▁oxygen	-9.73449
▁enjoy	-9.73623
▁television	-9.73685
▁Al	-9.73846
▁professional	-9.7389
▁brand	-9.73974
▁extra	-9.74153
▁conference	-9.7416
▁sorts	-9.74222
io	-9.7438
▁After	-9.74398
▁With	-9.74419
▁Oh	-9.74539
like	-9.74585
▁cycle	-9.74597
▁sustainable	-9.74891
▁press	-9.75083
▁target	-9.75088
▁further	-9.75117
▁laws	-9.75154
ub	-9.75189
▁communication	-9.75274
▁cultural	-9.75303
▁campaign	-9.75356
▁university	-9.75356
▁fair	-9.75483
▁helped	-9.7553
▁total	-9.75569
Oh	-9.75581
▁surgery	-9.75597
▁dna	-9.75661
ger	-9.75671
▁answers	-9.75825
vis	-9.75836
▁possibly	-9.75838
▁Chris	-9.75841
▁Maybe	-9.76039
ng	-9.76142
▁mountain	-9.76226
▁onto	-9.76389
▁wants	-9.76469
▁definition	-9.76473
▁pass	-9.76562
▁biological	-9.76567
▁tough	-9.7659
▁experiments	-9.76635
▁corner	-9.76705
▁visit	-9.76707
▁sequence	-9.7681
▁significant	-9.76915
▁Every	-9.76986
▁birth	-9.7705
W	-9.77391
▁united	-9.77494
▁flying	-9.77502
▁weird	-9.77557
▁roll	-9.77758
▁Me	-9.7777
▁argument	-9.77772
▁dreams	-9.77817
ier	-9.77888
val	-9.77921
if	-9.78027
▁brother	-9.78028
ren	-9.78107
▁anti	-9.78169
▁worried	-9.78287
▁becomes	-9.78351
▁differently	-9.78527
▁airplane	-9.78535
ding	-9.78552
▁moon	-9.78597
▁War	-9.78779
ped	-9.78924
▁engineering	-9.78991
▁capacity	-9.79033
▁benefit	-9.79045
▁forth	-9.79076
▁app	-9.79185
▁genome	-9.79283
king	-9.79326
ability	-9.79339
▁hole	-9.79508
▁North	-9.79534
▁mu	-9.79612
▁Who	-9.79692
▁sharing	-9.79786
▁institutions	-9.79845
▁complexity	-9.79858
▁Ha	-9.80023
▁supply	-9.80037
▁twice	-9.80037
▁crime	-9.80038
▁chris	-9.80039
ative	-9.80155
▁environmental	-9.80254
▁urban	-9.80281
▁investment	-9.80309
ib	-9.80431
▁original	-9.80448
▁hate	-9.80475
▁event	-9.80488
▁date	-9.80506
▁threat	-9.80507
▁noticed	-9.80538
▁card	-9.807
▁museum	-9.80796
▁governments	-9.80853
▁decades	-9.80944
▁interview	-9.81056
▁flu	-9.8115
▁ship	-9.81188
▁diseases	-9.81234
▁tail	-9.81235
▁among	-9.8128
▁H	-9.81308
ki	-9.81329
▁emotional	-9.81468
▁colleagues	-9.81529
▁easier	-9.81561
▁avoid	-9.81592
▁noise	-9.81632
▁planets	-9.81717
▁matters	-9.81753
▁south	-9.81824
▁gap	-9.81864
▁wild	-9.82074
▁nobody	-9.82092
▁reward	-9.82108
▁accept	-9.82278
▁La	-9.82294
▁article	-9.82333
▁sector	-9.82336
▁scientist	-9.82436
end	-9.82449
▁trial	-9.82476
▁trip	-9.82624
gg	-9.82637
▁reaction	-9.82641
▁degrees	-9.82652
▁beat	-9.82678
▁accident	-9.82773
▁party	-9.82774
▁differences	-9.83027
▁creativity	-9.8311
▁carry	-9.83162
▁wear	-9.83207
light	-9.83295
▁reduce	-9.83338
▁bottle	-9.8337
os	-9.83378
▁bomb	-9.8338
▁Bo	-9.83408
▁coffee	-9.83631
▁lack	-9.83654
▁active	-9.838
▁influence	-9.83826
▁achieve	-9.83841
▁birds	-9.83871
▁scene	-9.83893
▁citizens	-9.83942
▁points	-9.84067
▁hell	-9.84089
▁failed	-9.84135
▁alternative	-9.84156
ris	-9.84223
▁inspired	-9.84292
▁beings	-9.8438
▁everywhere	-9.84419
ging	-9.84419
▁Most	-9.84488
▁core	-9.84497
▁competition	-9.84683
▁north	-9.84747
▁gold	-9.84798
▁effects	-9.84824
▁Y	-9.84948
▁boys	-9.85198
▁lesson	-9.85256
▁Dr	-9.8528
▁explore	-9.85398
▁easily	-9.85478
▁opportunities	-9.85478
We	-9.85479
▁societies	-9.8548
▁consciousness	-9.85495
▁farm	-9.85589
ack	-9.8561
▁streets	-9.8566
▁leadership	-9.85749
car	-9.85801
▁Even	-9.86014
▁click	-9.86023
No	-9.86046
ner	-9.86083
▁serious	-9.86141
▁desire	-9.86281
▁hurt	-9.86281
▁trick	-9.86362
ator	-9.86366
av	-9.8648
▁identity	-9.86549
▁bread	-9.86557
ning	-9.86755
▁negative	-9.86819
▁painting	-9.86824
▁forever	-9.87012
▁argue	-9.87067
▁crowd	-9.87089
▁phenomenon	-9.87089
ang	-9.87299
▁invest	-9.87308
▁glass	-9.8739
▁causes	-9.87529
▁continent	-9.87632
▁struggle	-9.87632
▁highly	-9.87707
▁sister	-9.87903
▁imagination	-9.87904
▁levels	-9.87964
▁br	-9.88027
▁justice	-9.88279
▁notion	-9.88356
▁climb	-9.88408
▁brilliant	-9.88451
▁metaphor	-9.88451
▁bank	-9.88537
▁discover	-9.88567
▁bird	-9.8875
▁following	-9.88845
day	-9.88955
▁bear	-9.88964
▁husband	-9.89002
▁joy	-9.89008
▁quote	-9.89113
▁eating	-9.89148
hu	-9.89224
▁shouldn	-9.89228
▁extreme	-9.89248
▁programs	-9.89264
▁smile	-9.8928
▁Da	-9.89383
▁interact	-9.8946
tor	-9.89547
▁background	-9.89555
▁ancient	-9.89555
▁bag	-9.89565
▁chemical	-9.89596
▁published	-9.8965
▁services	-9.89689
▁virtual	-9.89693
▁mouth	-9.89833
ou	-9.89834
▁letter	-9.9001
▁sold	-9.9008
▁cap	-9.90109
▁various	-9.90111
▁chain	-9.90117
▁civilization	-9.9012
▁helping	-9.90155
▁cloud	-9.9017
▁networks	-9.90175
har	-9.90207
▁Po	-9.90285
▁lunch	-9.90391
▁curve	-9.90391
▁saving	-9.9056
▁separate	-9.90659
▁commercial	-9.90671
▁diversity	-9.90671
▁horse	-9.90673
▁switch	-9.90682
▁sad	-9.90784
▁seriously	-9.90817
▁evolved	-9.90821
▁Ka	-9.90834
dimensional	-9.90873
▁above	-9.90959
▁flag	-9.90959
▁circle	-9.90988
▁effort	-9.91037
ld	-9.9108
▁fascinating	-9.91233
▁somewhere	-9.91233
▁West	-9.9125
▁equal	-9.91346
▁president	-9.91516
▁strength	-9.91516
▁finish	-9.91535
▁tremendous	-9.91658
▁graph	-9.9168
▁depend	-9.91712
▁bees	-9.91714
▁Sa	-9.91845
ja	-9.91895
▁civil	-9.92058
▁devices	-9.92199
▁random	-9.92202
▁turning	-9.923
▁traffic	-9.92362
▁disappear	-9.92385
▁blow	-9.92463
ham	-9.9247
▁criminal	-9.92654
▁gift	-9.92654
rus	-9.92806
▁desert	-9.92941
▁directly	-9.93052
▁foundation	-9.9314
▁Today	-9.9324
▁industrial	-9.93251
pro	-9.9326
▁raised	-9.93369
ue	-9.93441
ler	-9.93521
▁express	-9.93591
▁organizations	-9.93609
ps	-9.93703
▁hearing	-9.93795
▁transformation	-9.93797
▁manage	-9.93806
ify	-9.93941
▁cheap	-9.93991
▁island	-9.94002
ight	-9.94248
▁leg	-9.94276
▁fail	-9.94375
▁advantage	-9.94385
▁strategy	-9.94385
▁Those	-9.94387
▁correct	-9.94536
▁necessary	-9.94677
▁professor	-9.94677
▁restaurant	-9.94677
▁english	-9.94679
gram	-9.94733
▁Where	-9.9478
▁recent	-9.94851
▁bone	-9.94915
▁faith	-9.94969
▁giant	-9.9497
▁remind	-9.94994
▁contact	-9.9503
ship	-9.95045
mate	-9.95098
▁represent	-9.95158
▁mis	-9.95189
▁transform	-9.95225
▁responsible	-9.95263
▁wheel	-9.95263
▁cow	-9.95291
my	-9.95306
▁focused	-9.95637
▁dry	-9.95711
▁molecules	-9.95725
▁nearly	-9.95763
▁Don	-9.95774
▁mistake	-9.95775
▁multi	-9.95837
▁indeed	-9.95859
▁efficient	-9.95868
▁motion	-9.95875
▁signal	-9.95888
▁ultimately	-9.95946
▁universal	-9.96148
ka	-9.96182
▁fairly	-9.9632
▁plane	-9.96335
ors	-9.96433
▁creation	-9.96445
▁enable	-9.96463
▁topic	-9.96552
▁interest	-9.96723
ise	-9.96733
▁HI	-9.96781
▁dollar	-9.96902
▁rights	-9.96964
▁emotions	-9.97033
▁exercise	-9.9704
▁invisible	-9.9704
▁taste	-9.97083
▁insects	-9.97117
▁brings	-9.97166
ign	-9.97208
▁tradition	-9.97259
▁nervous	-9.9734
▁motor	-9.97352
▁patent	-9.97352
lan	-9.97598
▁mess	-9.976
▁breast	-9.9764
▁coast	-9.97641
▁designers	-9.97726
▁structures	-9.97731
▁suffering	-9.97836
▁Ca	-9.97874
▁engage	-9.97929
▁mouse	-9.97951
▁passed	-9.97972
▁theater	-9.97972
▁fighting	-9.98036
port	-9.98094
▁base	-9.98233
▁artists	-9.98239
▁odd	-9.98244
▁basis	-9.98291
▁layer	-9.9833
▁paint	-9.98341
▁Man	-9.98405
▁flight	-9.98572
▁produced	-9.98637
▁adults	-9.98664
▁leads	-9.98777
▁forces	-9.98828
▁caught	-9.9885
▁studied	-9.9885
ified	-9.98876
▁typical	-9.99015
▁magazine	-9.99155
▁opinion	-9.99155
▁stupid	-9.99155
▁vast	-9.99167
▁belong	-9.99286
▁ecosystem	-9.99461
▁blog	-9.99486
▁Look	-9.99524
▁expression	-9.99534
▁spending	-9.99743
▁awesome	-9.99768
▁East	-9.99772
▁importantly	-9.99797
med	-9.99819
▁leader	-9.99987
▁offer	-10
let	-10.0002
ob	-10.0006
▁Like	-10.0009
▁walls	-10.0016
▁grand	-10.0017
▁creatures	-10.0021
▁possibility	-10.0038
▁somehow	-10.0041
▁damage	-10.0041
▁wearing	-10.0047
▁labor	-10.0049
▁wood	-10.005
ay	-10.005
▁attempt	-10.0066
ake	-10.0068
▁budget	-10.0069
▁stem	-10.007
▁names	-10.0075
▁joke	-10.0101
▁surprised	-10.0111
▁fold	-10.0112
▁suit	-10.0117
▁Li	-10.0122
▁disaster	-10.0132
▁deliver	-10.0156
ions	-10.0163
▁double	-10.0165
▁coral	-10.0173
▁studying	-10.0181
▁finished	-10.0193
▁welcome	-10.0194
▁claim	-10.0195
▁clip	-10.0195
▁safety	-10.0197
wo	-10.0201
hy	-10.0212
▁cat	-10.0213
▁detect	-10.0213
eg	-10.0213
▁feels	-10.0227
▁gain	-10.0233
fer	-10.0236
▁wave	-10.0239
▁broke	-10.0246
▁Ho	-10.025
▁drink	-10.0257
▁silence	-10.0257
▁Are	-10.026
▁lie	-10.0269
▁upon	-10.0269
▁Di	-10.0269
▁tr	-10.0281
▁believed	-10.0281
▁fossil	-10.0289
▁mechanism	-10.0289
▁necessarily	-10.0289
▁becoming	-10.0289
▁fund	-10.029
▁Mi	-10.0291
▁serve	-10.0301
▁cl	-10.0303
▁soil	-10.0304
▁surprising	-10.0307
▁hasn	-10.0308
▁ants	-10.0319
▁interface	-10.0321
▁row	-10.0329
▁entirely	-10.0337
▁bus	-10.0338
ain	-10.0344
ft	-10.0346
▁rocket	-10.0354
▁molecule	-10.0366
tter	-10.0367
▁profound	-10.0371
q	-10.0374
▁benefits	-10.0383
▁honest	-10.0391
▁flat	-10.04
▁concerned	-10.0408
▁grandmother	-10.0416
▁prove	-10.0422
▁steps	-10.0438
▁gotten	-10.044
▁harder	-10.0443
▁please	-10.0452
▁faces	-10.0455
▁fat	-10.0459
▁fashion	-10.0459
▁mark	-10.0461
▁collect	-10.0468
▁limited	-10.0472
art	-10.0473
▁mars	-10.0474
▁anywhere	-10.0481
▁gay	-10.0485
▁deeply	-10.0485
▁watched	-10.0487
▁sl	-10.0488
▁seat	-10.0498
ley	-10.0511
▁adult	-10.0512
▁religious	-10.0513
▁gender	-10.0513
ui	-10.0517
▁grade	-10.0519
ick	-10.0523
▁holding	-10.0525
▁hi	-10.0531
▁trained	-10.0533
▁consequences	-10.054
chi	-10.0541
▁curious	-10.0546
▁platform	-10.0546
▁promise	-10.0549
▁cure	-10.0553
▁wondering	-10.0554
▁ideal	-10.0556
▁link	-10.0575
▁se	-10.0578
▁describe	-10.0582
▁tape	-10.06
▁members	-10.061
▁managed	-10.0613
▁married	-10.0614
▁fan	-10.0614
▁fl	-10.0625
▁arrived	-10.0626
cha	-10.0627
▁held	-10.0629
▁related	-10.0638
▁San	-10.064
▁dinner	-10.0644
▁trillion	-10.0644
ile	-10.066
▁figured	-10.0667
▁chair	-10.0669
▁google	-10.0677
▁location	-10.0677
▁discussion	-10.068
▁wide	-10.0681
ose	-10.069
▁du	-10.07
hinese	-10.0707
▁hidden	-10.071
▁quiet	-10.071
▁debate	-10.071
▁bright	-10.0712
▁apple	-10.0723
▁lies	-10.0725
▁elements	-10.0731
▁west	-10.0732
▁electric	-10.0733
▁band	-10.0734
▁dynamic	-10.0735
▁shoes	-10.0735
▁shall	-10.0744
▁toilet	-10.0744
▁markets	-10.0765
▁finger	-10.077
▁prototype	-10.0776
▁remote	-10.0776
▁copy	-10.0783
▁stone	-10.0799
rt	-10.08
▁epidemic	-10.0809
▁zone	-10.081
▁chip	-10.0817
work	-10.0824
ze	-10.0826
▁statistics	-10.0826
▁creates	-10.0829
▁neighborhood	-10.0837
▁battle	-10.0843
▁grown	-10.0857
▁lights	-10.0857
▁designer	-10.0864
▁diet	-10.087
▁court	-10.0876
▁Another	-10.0876
▁closed	-10.0877
▁throughout	-10.0885
bl	-10.0894
▁sentence	-10.0908
▁Which	-10.091
▁degree	-10.0911
▁childhood	-10.0912
▁opened	-10.0926
▁collective	-10.0932
▁gun	-10.0938
▁depression	-10.0944
▁mirror	-10.0944
▁crack	-10.0945
▁unit	-10.0947
▁invention	-10.0949
▁breath	-10.0954
▁frame	-10.0956
off	-10.0959
▁stream	-10.0961
▁particles	-10.0974
▁classroom	-10.0977
▁Imagine	-10.0978
▁marriage	-10.0978
▁yesterday	-10.0978
▁adapt	-10.0979
▁mil	-10.0982
▁mentioned	-10.0998
set	-10.0998
▁knowing	-10.1006
▁belief	-10.1011
▁parent	-10.1012
▁himself	-10.1013
▁exists	-10.1014
▁organisms	-10.1018
▁spoke	-10.1034
sha	-10.1037
▁fell	-10.1039
▁John	-10.1045
▁mathematics	-10.1046
▁farmers	-10.1048
▁Lo	-10.1059
▁discovery	-10.1059
▁member	-10.106
▁pages	-10.1067
U	-10.1071
all	-10.1076
▁quantum	-10.108
▁phones	-10.1085
▁independent	-10.1099
▁net	-10.11
book	-10.1103
▁begins	-10.1103
▁Americans	-10.1104
▁experiences	-10.1105
▁journalist	-10.1107
mar	-10.1111
▁University	-10.1115
▁principle	-10.1116
▁loss	-10.1117
▁calling	-10.1117
▁wow	-10.1118
▁release	-10.1125
▁mid	-10.1134
▁pen	-10.1136
ade	-10.1148
▁artificial	-10.1149
▁doubt	-10.1149
▁victims	-10.1149
rse	-10.1155
▁pounds	-10.1161
▁era	-10.1162
▁City	-10.117
ably	-10.1176
▁teeth	-10.1183
▁hey	-10.1184
▁chicken	-10.1184
▁ride	-10.12
▁except	-10.1209
ology	-10.121
▁deeper	-10.1213
han	-10.1216
▁accurate	-10.1218
▁judge	-10.1218
▁cards	-10.1219
cla	-10.1224
ff	-10.1229
▁perfectly	-10.123
▁Indian	-10.1234
▁peer	-10.1234
▁therefore	-10.1253
▁collection	-10.1259
▁mix	-10.1262
▁interaction	-10.1263
▁zoom	-10.1267
▁hang	-10.1277
▁sweet	-10.1288
▁losing	-10.1289
▁shame	-10.1289
▁laugh	-10.1298
pp	-10.1298
ther	-10.1303
▁shoulder	-10.1319
▁equation	-10.1323
▁galaxies	-10.1323
▁galaxy	-10.1323
▁limb	-10.1324
▁reform	-10.1325
lon	-10.1339
▁treated	-10.1347
▁expected	-10.1349
▁king	-10.135
cra	-10.1359
▁existence	-10.136
▁note	-10.1361
▁invited	-10.1377
▁oceans	-10.138
▁chart	-10.1381
▁Mars	-10.1383
▁crash	-10.1387
▁pocket	-10.1394
▁versus	-10.1394
▁weather	-10.1394
▁autism	-10.1394
▁despite	-10.1394
▁wake	-10.1395
for	-10.1405
▁waves	-10.1418
▁drawing	-10.1425
▁slowly	-10.1428
par	-10.1428
▁malaria	-10.1429
▁poetry	-10.143
▁normally	-10.1436
▁resource	-10.1441
▁organic	-10.1446
▁shop	-10.1447
J	-10.145
▁concern	-10.1474
▁direct	-10.1476
use	-10.1476
▁method	-10.1476
istic	-10.1477
▁clock	-10.1494
▁perception	-10.15
▁wisdom	-10.15
▁lady	-10.1502
▁anyway	-10.1509
▁soul	-10.151
▁inspiration	-10.1511
▁appear	-10.1522
▁moments	-10.1533
▁roof	-10.1536
▁agriculture	-10.1536
▁battery	-10.1536
▁laptop	-10.1536
▁distribution	-10.1536
▁host	-10.1537
▁Su	-10.1547
▁introduce	-10.1566
▁transport	-10.1569
▁telescope	-10.1572
▁clever	-10.1573
▁comfortable	-10.1575
▁sing	-10.1575
over	-10.1582
▁cave	-10.1595
▁channel	-10.1608
▁garden	-10.1608
▁gentlemen	-10.1608
▁Many	-10.161
▁awful	-10.1611
▁constantly	-10.1618
▁instrument	-10.1624
▁coal	-10.1639
▁definitely	-10.1645
▁multiple	-10.1645
▁Western	-10.1645
▁Jo	-10.1645
▁Two	-10.1648
▁statement	-10.1656
▁soldiers	-10.1657
▁sample	-10.1662
▁received	-10.1663
▁healthcare	-10.1681
▁spider	-10.1681
▁prize	-10.1681
▁comment	-10.1681
▁everyday	-10.1687
▁suppose	-10.1688
▁button	-10.1691
▁cameras	-10.1698
ook	-10.1701
▁fully	-10.1709
▁scared	-10.1711
▁fourth	-10.1711
▁although	-10.1717
▁title	-10.1718
▁followed	-10.1719
▁engineers	-10.1731
▁bias	-10.1748
▁cook	-10.1748
▁identify	-10.1754
aw	-10.1754
ically	-10.1754
nna	-10.1775
▁technical	-10.1777
ium	-10.178
▁moves	-10.1781
▁survival	-10.1791
▁operating	-10.1792
▁signals	-10.1801
▁protein	-10.1812
▁Hu	-10.1815
fo	-10.1818
▁limit	-10.1825
▁London	-10.1828
▁leaving	-10.1828
▁fake	-10.1831
her	-10.1836
cent	-10.1844
▁sexual	-10.1849
▁lay	-10.185
▁meat	-10.1851
▁poem	-10.1853
▁breathe	-10.1856
▁principles	-10.1863
▁circuit	-10.1865
▁exchange	-10.1865
▁feedback	-10.1865
▁tons	-10.1868
▁hopefully	-10.1872
▁tip	-10.1873
▁miss	-10.1884
ray	-10.1887
▁spirit	-10.1902
▁balloon	-10.1902
▁spring	-10.1904
▁kick	-10.1904
▁kilometers	-10.1907
▁cup	-10.1915
▁carefully	-10.1915
?"	-10.1922
▁partner	-10.1931
▁print	-10.1934
▁colors	-10.1935
▁suggest	-10.1935
▁shoot	-10.1945
▁majority	-10.1947
▁saved	-10.1951
▁events	-10.1956
rg	-10.1964
▁ring	-10.1976
▁participate	-10.1977
▁testing	-10.1979
▁exception	-10.1986
ik	-10.1993
▁photos	-10.1994
▁tall	-10.1996
▁considered	-10.1998
▁enter	-10.201
▁cognitive	-10.2014
▁string	-10.2015
▁african	-10.2018
▁season	-10.2019
▁honor	-10.2025
▁launch	-10.2025
▁Ta	-10.2027
▁profit	-10.203
▁Na	-10.2032
▁sudden	-10.2038
▁san	-10.2049
▁occur	-10.205
▁equipment	-10.2052
hr	-10.2052
▁transition	-10.2054
▁factor	-10.2054
▁define	-10.2061
▁folks	-10.2069
▁calls	-10.2077
▁round	-10.2078
▁command	-10.209
jo	-10.2091
▁bubble	-10.2121
▁letters	-10.2123
▁trend	-10.2124
▁narrative	-10.2128
▁unusual	-10.2128
▁insight	-10.2131
term	-10.2132
▁tens	-10.2132
▁succeed	-10.2139
▁tag	-10.214
si	-10.2141
▁factory	-10.2143
hol	-10.2145
rm	-10.2153
zz	-10.216
▁experts	-10.2162
▁possibilities	-10.2166
▁rational	-10.2166
▁businesses	-10.218
▁warm	-10.2183
▁relate	-10.2183
▁player	-10.2184
ible	-10.2191
▁lifetime	-10.2191
▁whose	-10.2194
▁ju	-10.2194
▁master	-10.2196
▁newspaper	-10.2199
▁California	-10.2204
▁empathy	-10.2205
▁evil	-10.2205
▁uses	-10.2208
▁hide	-10.2209
▁qu	-10.2214
net	-10.2228
▁exact	-10.2229
▁mad	-10.2232
▁shapes	-10.2235
ya	-10.2242
▁underneath	-10.2243
▁pleasure	-10.2243
▁heavy	-10.2243
▁From	-10.2243
▁shut	-10.2244
▁plate	-10.2244
▁killing	-10.2247
▁capable	-10.2247
▁clinic	-10.2256
▁compare	-10.226
▁opening	-10.2262
▁below	-10.2264
▁launched	-10.227
▁warming	-10.2275
▁vehicle	-10.2278
▁importance	-10.2282
▁spaces	-10.2289
▁hotel	-10.2289
▁billions	-10.229
sum	-10.2297
▁ph	-10.23
▁His	-10.2302
▁load	-10.2311
▁symbol	-10.2312
▁weak	-10.2314
▁counter	-10.2315
▁compared	-10.232
▁church	-10.232
▁filter	-10.232
▁studio	-10.232
▁foreign	-10.232
ko	-10.2323
▁Afghanistan	-10.2324
▁mostly	-10.233
▁gr	-10.2332
▁driver	-10.2342
▁Your	-10.2346
▁operate	-10.2348
ctor	-10.235
▁bat	-10.2353
▁vaccine	-10.2358
lie	-10.2362
▁surgeon	-10.2363
room	-10.2366
▁metal	-10.2369
▁para	-10.237
▁credit	-10.239
bringing	-10.2392
▁leading	-10.2396
▁consumption	-10.2398
▁explanation	-10.2398
▁valuable	-10.2398
▁react	-10.2399
▁tea	-10.2405
bs	-10.2411
▁arms	-10.2416
▁relative	-10.2424
▁generations	-10.2427
▁emotion	-10.243
vin	-10.2431
▁prefer	-10.2439
▁burn	-10.2442
▁prime	-10.2452
▁myth	-10.2464
▁described	-10.2473
▁Instead	-10.2477
▁hadn	-10.2479
▁outcome	-10.2479
▁option	-10.2481
pec	-10.2486
▁skill	-10.25
▁signs	-10.2505
▁properties	-10.2516
▁stock	-10.2517
▁Con	-10.2519
ima	-10.2524
▁consumer	-10.2526
▁rare	-10.2529
▁engineer	-10.2535
How	-10.255
sis	-10.2556
▁fresh	-10.2556
▁ladies	-10.2556
j	-10.256
▁cutting	-10.2564
▁associated	-10.2564
▁etc	-10.2568
▁essential	-10.2582
▁celebrate	-10.2596
▁equivalent	-10.2596
▁spectrum	-10.2596
▁planning	-10.2598
▁operation	-10.2607
▁tv	-10.2612
ink	-10.2614
ek	-10.2618
▁clinical	-10.2622
▁weapons	-10.2625
ama	-10.2627
▁origin	-10.2627
▁nations	-10.2628
▁risks	-10.263
▁conclusion	-10.2636
▁medium	-10.2636
▁experienced	-10.2645
▁Wi	-10.2653
▁movies	-10.2664
▁remain	-10.2665
▁ka	-10.2668
kin	-10.2673
▁Facebook	-10.2676
▁grateful	-10.2676
▁snow	-10.2676
▁property	-10.2677
▁winter	-10.2682
▁connections	-10.2682
▁lo	-10.2683
▁protection	-10.2685
▁weigh	-10.2689
ina	-10.2695
▁depends	-10.2702
▁absolute	-10.2702
▁sight	-10.2706
▁kitchen	-10.2716
▁nose	-10.2716
▁Think	-10.2716
▁sculpture	-10.2717
▁chemistry	-10.2717
▁display	-10.2717
ned	-10.2719
board	-10.2724
▁dinosaurs	-10.2725
ide	-10.2727
▁user	-10.2731
▁fiction	-10.2757
▁illusion	-10.2757
▁mathematical	-10.2757
▁east	-10.2757
▁inequality	-10.2757
▁peak	-10.2757
▁grid	-10.2758
▁goals	-10.2767
▁muscle	-10.2767
▁document	-10.2775
▁hall	-10.2779
▁mothers	-10.278
▁survey	-10.2797
▁dealing	-10.2798
▁advance	-10.2809
▁ski	-10.2817
▁height	-10.2817
▁appreciate	-10.2819
▁radical	-10.2824
▁dimensions	-10.2827
▁danger	-10.2838
▁vulnerable	-10.2838
▁flies	-10.284
▁extract	-10.2841
▁unless	-10.2852
▁conscious	-10.2863
▁paying	-10.2865
▁script	-10.287
▁released	-10.2877
▁intelligent	-10.2879
▁tomorrow	-10.2879
▁Iraq	-10.2879
▁pure	-10.2884
▁scan	-10.2889
▁element	-10.2892
▁tech	-10.2898
Why	-10.2901
form	-10.2916
▁options	-10.2918
▁stood	-10.292
▁microbes	-10.292
▁swim	-10.2921
▁heads	-10.2922
▁gang	-10.2924
▁generate	-10.2933
▁mile	-10.2944
uff	-10.2951
hand	-10.2952
▁europe	-10.2958
▁mosquito	-10.2962
▁National	-10.2962
▁solid	-10.2962
▁construction	-10.2964
own	-10.2972
▁maps	-10.2979
▁highest	-10.2982
▁videos	-10.2998
▁fellow	-10.3005
▁plus	-10.3005
▁harm	-10.301
▁users	-10.301
ana	-10.3015
▁encourage	-10.3016
▁handle	-10.3016
▁dots	-10.302
▁factors	-10.3024
▁designing	-10.3032
▁Ph	-10.3047
▁imp	-10.3048
▁dr	-10.3049
▁bike	-10.3049
▁passionate	-10.305
▁graduate	-10.3057
▁bill	-10.3061
▁robotic	-10.3065
▁convinced	-10.307
pen	-10.3072
▁practical	-10.3073
▁holes	-10.309
▁economics	-10.3092
▁bl	-10.3102
▁covered	-10.3103
▁fill	-10.311
▁recorded	-10.3113
▁status	-10.3129
▁habit	-10.3132
▁mistakes	-10.314
bar	-10.3142
▁Ne	-10.3142
meter	-10.3144
▁sugar	-10.3171
▁corruption	-10.3172
▁researchers	-10.3173
▁picked	-10.3181
▁translate	-10.3184
▁Great	-10.3184
▁Mar	-10.3195
▁pitch	-10.3201
▁soft	-10.3206
▁selling	-10.3208
▁reverse	-10.3214
▁Over	-10.3217
▁writer	-10.3225
fish	-10.3245
▁author	-10.3252
▁challenging	-10.3256
▁department	-10.3256
▁gravity	-10.3256
▁angry	-10.3256
▁underwater	-10.3257
▁Car	-10.3278
▁Pro	-10.328
▁root	-10.3282
head	-10.3285
▁forced	-10.3286
▁chose	-10.3287
▁ordinary	-10.3299
▁knee	-10.3299
▁atoms	-10.3301
▁beach	-10.3301
▁abuse	-10.3301
▁sharks	-10.3306
lam	-10.3312
▁affected	-10.3315
▁sw	-10.3315
▁acting	-10.3322
ean	-10.3323
ual	-10.3323
▁currently	-10.3327
▁split	-10.3342
▁volume	-10.3345
▁clue	-10.3346
ries	-10.3352
ock	-10.3358
▁lu	-10.3362
▁satellite	-10.337
maker	-10.3371
▁visible	-10.3385
▁maintain	-10.3385
▁alien	-10.3385
▁combination	-10.3385
▁humor	-10.3386
▁players	-10.3394
▁keeping	-10.3402
rd	-10.3412
▁regular	-10.3414
▁score	-10.3417
▁attitude	-10.3428
▁stayed	-10.3444
based	-10.3446
▁agreed	-10.3447
▁messages	-10.3464
▁appropriate	-10.3464
ral	-10.3467
▁advice	-10.3471
▁framework	-10.3472
▁daily	-10.3472
▁chapter	-10.3472
▁ah	-10.3484
af	-10.3492
▁station	-10.3507
▁staff	-10.3515
▁silk	-10.3515
▁pump	-10.3517
▁European	-10.3523
hop	-10.3525
mber	-10.3529
▁symptoms	-10.353
bed	-10.3539
▁ultimate	-10.3545
▁stronger	-10.3545
▁seemed	-10.3549
▁tumor	-10.3549
▁harvest	-10.3559
▁thumb	-10.3559
▁variation	-10.3559
▁march	-10.356
▁according	-10.3562
▁leaves	-10.3563
▁components	-10.3564
▁milk	-10.3564
▁organized	-10.3586
▁languages	-10.359
of	-10.3592
▁academic	-10.3603
▁intellectual	-10.3603
▁require	-10.3607
zi	-10.3611
It	-10.3613
▁invent	-10.3615
▁characters	-10.3618
▁driven	-10.3634
py	-10.3636
▁shark	-10.3639
▁tu	-10.3647
▁predator	-10.3647
▁protest	-10.3647
▁quarter	-10.3656
▁Take	-10.3657
▁bare	-10.3661
▁poll	-10.3676
▁comfort	-10.3688
▁details	-10.369
▁Australia	-10.3692
▁official	-10.3692
▁mystery	-10.3692
▁added	-10.3698
▁sir	-10.3708
▁solved	-10.3712
▁lying	-10.3716
▁Bu	-10.3719
je	-10.3734
bal	-10.3735
▁fruit	-10.3736
▁portrait	-10.3736
▁shadow	-10.3736
▁cluster	-10.3736
▁queen	-10.3737
▁shake	-10.3739
▁pet	-10.3739
rk	-10.3746
▁fewer	-10.3747
▁im	-10.3749
▁prepared	-10.375
▁assume	-10.3752
lly	-10.3755
▁Ex	-10.3755
top	-10.376
▁mention	-10.3765
Hey	-10.3766
▁bug	-10.3769
▁wondered	-10.3777
▁illegal	-10.3781
▁length	-10.3781
▁Again	-10.3781
▁swimming	-10.3781
▁emissions	-10.3785
▁pack	-10.379
▁represents	-10.3795
▁capture	-10.3797
▁hero	-10.3798
▁liked	-10.3799
az	-10.3805
▁tube	-10.3806
▁buying	-10.3811
▁false	-10.3826
▁lawyer	-10.3826
▁addition	-10.3827
▁lake	-10.383
▁younger	-10.3836
▁voices	-10.3841
▁determine	-10.3842
▁cartoon	-10.3858
▁inner	-10.3859
▁novel	-10.387
▁boring	-10.3872
gar	-10.388
dge	-10.3888
▁ja	-10.39
▁increasing	-10.3903
▁advanced	-10.3904
▁boom	-10.3906
▁abstract	-10.391
za	-10.3915
gy	-10.3915
▁caused	-10.3916
▁feature	-10.3917
▁rural	-10.3917
▁loan	-10.3923
▁rapidly	-10.3924
▁bond	-10.3938
▁bra	-10.394
fully	-10.3949
▁none	-10.3959
▁Muslim	-10.3963
▁unbelievable	-10.3963
▁requires	-10.3972
▁lessons	-10.3976
▁viruses	-10.3979
▁tested	-10.3982
ily	-10.3997
▁obsessed	-10.4008
▁variety	-10.4008
▁polar	-10.4009
▁keeps	-10.4013
▁pill	-10.4014
ese	-10.4014
▁setting	-10.4027
▁typically	-10.403
▁See	-10.4043
▁marketing	-10.4046
▁john	-10.4055
ica	-10.4055
ition	-10.4056
▁due	-10.4064
▁trials	-10.4081
▁pin	-10.4084
▁complain	-10.4101
▁memories	-10.4101
▁deserve	-10.4101
▁However	-10.4106
▁movements	-10.411
▁Cha	-10.4113
▁replace	-10.4117
▁mountains	-10.412
rate	-10.412
▁poet	-10.4125
▁ab	-10.4139
▁analysis	-10.4147
▁David	-10.4147
▁finance	-10.4148
▁terrorism	-10.4148
▁sum	-10.4156
▁symmetry	-10.4156
▁loop	-10.4158
ear	-10.4162
▁busy	-10.4163
▁organ	-10.4166
van	-10.4168
ome	-10.4168
▁wire	-10.4178
▁arts	-10.4181
▁trans	-10.4188
▁Twitter	-10.4194
▁helps	-10.4195
▁apartment	-10.4199
▁applications	-10.4206
▁presentation	-10.4206
▁relatively	-10.4211
ties	-10.4211
▁repeat	-10.4214
▁More	-10.4236
▁Brazil	-10.4239
▁curiosity	-10.4241
▁lecture	-10.4241
▁physician	-10.4241
▁sophisticated	-10.4241
▁western	-10.4241
▁collaboration	-10.4242
▁Com	-10.4243
▁management	-10.4244
▁suck	-10.4245
▁awareness	-10.4247
▁reflect	-10.4255
▁feelings	-10.4255
cho	-10.4267
▁efficiency	-10.428
cus	-10.4284
ks	-10.4285
graph	-10.4288
▁liquid	-10.4288
▁tank	-10.4288
▁phase	-10.4289
▁orbit	-10.4289
▁nerve	-10.4291
▁worldwide	-10.4294
mail	-10.4297
▁grab	-10.4297
▁border	-10.4298
▁volunteer	-10.4298
▁wine	-10.4299
▁election	-10.43
▁Asia	-10.4311
▁habitat	-10.4333
▁Actually	-10.4336
▁contrast	-10.4336
▁fields	-10.4336
▁desk	-10.4337
▁physically	-10.4341
▁monkey	-10.4347
▁perform	-10.4348
▁rhythm	-10.4355
▁scar	-10.4366
▁filled	-10.4366
nk	-10.4368
▁Second	-10.4369
▁fishing	-10.4374
▁organs	-10.4377
▁pan	-10.4378
digit	-10.4382
▁emerging	-10.4383
▁infinite	-10.4383
▁phrase	-10.4383
▁facing	-10.4383
▁flash	-10.4384
▁singing	-10.4387
▁evolutionary	-10.4387
▁hill	-10.4402
low	-10.4406
▁tap	-10.4409
▁wash	-10.4412
▁meaningful	-10.4417
our	-10.4417
▁grandfather	-10.4431
▁miracle	-10.4431
▁paradigm	-10.4431
▁struck	-10.4431
▁wound	-10.4431
▁excuse	-10.4431
▁illness	-10.4432
▁roughly	-10.4442
▁aspect	-10.4445
▁Se	-10.4452
▁sending	-10.4461
ong	-10.447
▁careful	-10.4476
▁steel	-10.4479
▁Sometimes	-10.4479
▁plot	-10.4479
ani	-10.448
▁drill	-10.4481
▁carrying	-10.449
▁scary	-10.449
▁director	-10.4493
▁whale	-10.4495
▁pair	-10.4497
This	-10.4498
▁theme	-10.4501
right	-10.4501
▁army	-10.4517
▁flip	-10.452
▁cooking	-10.4521
▁sites	-10.4522
▁admit	-10.4526
▁library	-10.4527
▁sphere	-10.4527
▁storm	-10.4528
▁blame	-10.4528
▁angle	-10.4529
▁eggs	-10.454
▁personally	-10.4553
▁dogs	-10.4558
▁effectively	-10.456
▁Bill	-10.4571
▁continued	-10.4573
▁Japan	-10.4576
▁pilot	-10.4576
▁violent	-10.4576
ney	-10.4577
▁Once	-10.4581
▁needle	-10.4583
▁sheet	-10.4593
▁electrical	-10.4595
▁estimate	-10.4595
▁increased	-10.4597
▁pig	-10.4604
ulation	-10.4611
del	-10.4612
▁suffer	-10.4615
▁Middle	-10.4625
▁escape	-10.4625
hel	-10.4634
press	-10.4639
▁processes	-10.4644
▁convince	-10.4644
▁truck	-10.4645
▁reveal	-10.4647
▁expand	-10.4664
▁encounter	-10.4674
▁horrible	-10.4674
▁motivation	-10.4674
▁secure	-10.4674
▁smoke	-10.4674
▁selection	-10.4675
▁airport	-10.4677
▁funding	-10.4677
▁forests	-10.4681
▁monitor	-10.4691
tim	-10.4698
▁sensitive	-10.4709
▁tax	-10.4709
▁ten	-10.4718
▁innovative	-10.4723
▁plenty	-10.4723
▁barrier	-10.4723
olu	-10.4724
▁arguments	-10.4727
▁Her	-10.473
▁agent	-10.4739
▁interests	-10.474
▁contract	-10.4741
▁signed	-10.4745
▁sports	-10.4746
▁error	-10.4746
▁equally	-10.4748
▁Am	-10.4755
▁axis	-10.4768
▁decline	-10.4773
▁privacy	-10.4773
▁features	-10.4773
trove	-10.4774
▁jail	-10.4775
▁Si	-10.4777
▁improvement	-10.4777
▁pu	-10.4798
ular	-10.4809
▁missed	-10.481
ene	-10.4811
▁dramatic	-10.4821
▁aging	-10.4821
▁intervention	-10.4822
ker	-10.4822
▁mechanical	-10.4823
▁grain	-10.4825
▁authority	-10.4826
▁productive	-10.483
▁CO	-10.4834
▁algorithms	-10.4834
▁increasingly	-10.4838
▁limits	-10.4839
▁organize	-10.4844
▁flower	-10.4845
▁Web	-10.4861
▁hiv	-10.4863
▁unexpected	-10.4872
▁firm	-10.4872
▁tonight	-10.4873
▁clothes	-10.4875
▁collapse	-10.4893
▁upset	-10.4893
▁dress	-10.4896
▁cents	-10.4903
well	-10.4903
▁toxic	-10.4913
▁sustain	-10.4919
▁French	-10.4923
▁literature	-10.4923
▁microscope	-10.4923
▁mortality	-10.4923
▁infected	-10.493
▁mice	-10.4944
▁facts	-10.4946
▁Sh	-10.4949
▁creature	-10.4952
▁electro	-10.4952
▁sustainability	-10.4974
▁wireless	-10.4975
▁worker	-10.4975
house	-10.498
▁verb	-10.4981
▁divide	-10.4994
▁attract	-10.4995
▁pat	-10.4996
▁talent	-10.4998
▁section	-10.5001
▁painful	-10.5008
▁shock	-10.5016
hood	-10.5021
▁introduced	-10.5021
▁manufacturing	-10.5024
▁molecular	-10.5024
▁transparency	-10.5024
▁Washington	-10.5024
▁internal	-10.5024
▁pollen	-10.5028
ung	-10.5029
▁cute	-10.5035
anderson	-10.5038
▁employees	-10.504
▁tune	-10.504
ua	-10.5045
yn	-10.5049
▁meal	-10.5058
▁conservation	-10.5064
▁Mr	-10.5064
▁Did	-10.5065
▁techniques	-10.5071
▁plug	-10.5073
▁engaged	-10.5073
▁chocolate	-10.5075
▁computing	-10.5075
▁radiation	-10.5075
▁convert	-10.5075
▁commitment	-10.5076
aries	-10.5077
▁infection	-10.5077
▁implications	-10.5086
rie	-10.5087
ification	-10.5087
ati	-10.5087
▁hits	-10.5106
▁neighbors	-10.5112
▁Good	-10.5121
uk	-10.5123
▁van	-10.5125
▁psychological	-10.5126
▁technological	-10.5126
▁Nigeria	-10.5126
▁reference	-10.5127
▁British	-10.5127
▁acid	-10.5129
box	-10.5134
▁constant	-10.5164
▁clouds	-10.5167
▁Kenya	-10.5178
▁refer	-10.5181
▁achieved	-10.5184
▁include	-10.5185
▁notes	-10.5196
▁demo	-10.5199
▁boxes	-10.5206
▁poster	-10.5206
▁spin	-10.5208
▁combine	-10.5209
▁remove	-10.521
▁previous	-10.5215
▁sources	-10.5219
▁lock	-10.5221
▁chemicals	-10.5222
▁politicians	-10.5226
▁recording	-10.5226
▁activities	-10.5229
▁pollution	-10.5229
▁afternoon	-10.5229
▁valley	-10.523
▁photographs	-10.523
▁conversations	-10.5232
▁equality	-10.5235
▁tired	-10.5239
▁Have	-10.5243
bg	-10.5245
▁Bi	-10.5257
▁application	-10.5268
▁actions	-10.5269
▁broad	-10.527
win	-10.5274
scale	-10.5275
▁printing	-10.5276
▁exploration	-10.5282
▁flew	-10.5282
▁review	-10.5283
▁vaccines	-10.5283
org	-10.5288
pal	-10.5305
▁institution	-10.5321
▁monkeys	-10.5321
ura	-10.5333
▁parallel	-10.5334
▁permanent	-10.5334
▁relevant	-10.5334
▁demographic	-10.5334
▁applied	-10.5334
▁destruction	-10.5334
▁ray	-10.5334
▁brown	-10.5335
▁exhibition	-10.5337
▁grass	-10.5347
▁partners	-10.5351
▁Ju	-10.5359
▁organism	-10.5378
▁cultures	-10.5384
▁somewhat	-10.5387
▁diagram	-10.5387
▁fiber	-10.5387
▁spiritual	-10.5387
▁anger	-10.5389
▁ought	-10.539
▁specifically	-10.539
▁vehicles	-10.5391
▁dust	-10.5398
▁privilege	-10.541
▁file	-10.5418
▁gate	-10.542
▁naturally	-10.5425
▁elephant	-10.543
▁favor	-10.5439
▁intense	-10.5439
▁attacks	-10.5441
▁runs	-10.5442
back	-10.5457
▁ear	-10.5471
▁strip	-10.5474
▁otherwise	-10.5493
▁repair	-10.5493
▁reserve	-10.5493
▁session	-10.5493
▁cast	-10.5515
▁nor	-10.5523
▁formed	-10.5524
hen	-10.5532
▁component	-10.554
▁animation	-10.5546
▁pregnant	-10.5546
▁dancing	-10.5546
▁drone	-10.5547
cut	-10.5552
▁gut	-10.5555
▁lit	-10.5568
▁pushing	-10.5573
▁required	-10.5582
▁Sha	-10.5586
▁sides	-10.5588
▁traveling	-10.5594
▁regions	-10.56
▁polio	-10.56
▁capitalism	-10.5604
▁transportation	-10.5605
▁Big	-10.5605
▁explained	-10.5621
▁rocks	-10.5625
▁aim	-10.5628
▁mode	-10.5642
▁homes	-10.5645
▁breathing	-10.5651
▁circumstances	-10.5651
ari	-10.5653
▁primary	-10.5654
▁producing	-10.5654
▁scenario	-10.5654
▁telephone	-10.5654
▁behave	-10.5654
▁route	-10.5654
▁pray	-10.5655
▁golf	-10.5655
▁Life	-10.5655
▁severe	-10.5656
▁Paul	-10.5656
▁nest	-10.5666
▁houses	-10.5666
▁jam	-10.568
rum	-10.5693
▁youth	-10.5693
▁adventure	-10.5709
▁confront	-10.5709
▁style	-10.572
▁ignore	-10.5734
▁evolve	-10.5734
▁invite	-10.5734
▁Ja	-10.5738
▁logic	-10.5755
▁Mu	-10.5756
▁transformed	-10.5758
▁George	-10.5763
▁concrete	-10.5763
▁hungry	-10.5763
▁lifestyle	-10.5767
▁luck	-10.5771
▁heroes	-10.5772
▁database	-10.5773
▁fingers	-10.5774
▁drives	-10.5777
▁contribute	-10.5788
▁seal	-10.579
▁classes	-10.5794
▁controlled	-10.5795
▁Sun	-10.5797
▁linked	-10.5808
▁defined	-10.5813
▁closely	-10.5814
▁crucial	-10.5818
▁transplant	-10.5818
▁marine	-10.5818
▁dropped	-10.582
▁fascinated	-10.5821
▁apparently	-10.5822
▁classic	-10.5822
▁confidence	-10.5826
▁pile	-10.583
ridge	-10.5832
▁dense	-10.5835
ola	-10.5845
▁detail	-10.585
▁democratic	-10.5855
▁borders	-10.5861
▁observation	-10.5873
▁bicycle	-10.5873
▁chaos	-10.5873
▁therapy	-10.5873
▁sweat	-10.5874
▁sunlight	-10.5876
▁guide	-10.5882
cher	-10.5883
▁blocks	-10.5893
▁seek	-10.5893
▁bang	-10.5908
uro	-10.5908
▁prop	-10.591
rb	-10.5915
▁generally	-10.5919
▁collected	-10.5919
▁genius	-10.5929
▁simplicity	-10.5929
▁carried	-10.5929
▁birthday	-10.593
▁optimistic	-10.593
▁unknown	-10.593
▁hoping	-10.5932
▁technique	-10.5933
▁diver	-10.5938
If	-10.594
▁hello	-10.5942
▁fixed	-10.5943
▁bother	-10.5951
▁pole	-10.5959
▁pulled	-10.596
▁ancestors	-10.5965
fghanistan	-10.5979
▁geo	-10.5984
▁hormone	-10.5985
▁trigger	-10.5985
▁frog	-10.5985
▁defend	-10.5985
▁psychology	-10.5985
▁wrap	-10.5985
▁actor	-10.5987
▁expert	-10.599
▁input	-10.5995
teen	-10.6013
▁largely	-10.6027
▁percentage	-10.6033
▁reached	-10.6034
▁laboratory	-10.6041
▁Everybody	-10.6041
▁resistance	-10.6042
▁windows	-10.6042
▁architect	-10.6048
▁centers	-10.605
▁distributed	-10.6054
▁sensors	-10.6055
▁inspire	-10.6068
▁solving	-10.6068
pad	-10.6069
▁dive	-10.607
▁extend	-10.6071
▁bones	-10.6072
▁ears	-10.6078
▁hip	-10.6082
▁remains	-10.6086
▁loud	-10.6088
▁Ar	-10.6088
▁relax	-10.6097
▁suspect	-10.6097
▁enemy	-10.6097
▁steal	-10.6097
▁pretend	-10.6098
▁raw	-10.61
▁situations	-10.6101
▁granted	-10.6108
▁processing	-10.6109
tory	-10.6117
▁proteins	-10.6121
▁faced	-10.6126
▁penguins	-10.6132
chan	-10.6135
▁fundamentally	-10.6142
metric	-10.615
▁electronic	-10.6152
▁GDP	-10.6154
▁silent	-10.6154
▁Gra	-10.616
uch	-10.6178
▁emerge	-10.6181
▁wars	-10.6184
▁bee	-10.6188
▁photographer	-10.6197
▁lens	-10.6204
▁evening	-10.6205
▁preserve	-10.6205
▁laughing	-10.6206
▁El	-10.6211
▁renewable	-10.6211
▁sandwich	-10.6211
▁activist	-10.6211
▁Mexico	-10.6212
▁backwards	-10.6212
▁trace	-10.6212
▁sail	-10.6212
▁tuna	-10.6214
▁fluid	-10.6215
▁proof	-10.6217
▁joined	-10.6224
air	-10.6235
mark	-10.6236
hor	-10.625
lia	-10.626
▁disappeared	-10.6265
ase	-10.6265
▁wing	-10.6269
▁discipline	-10.6269
▁uncomfortable	-10.6269
▁flood	-10.6269
▁depth	-10.6269
▁Richard	-10.6269
▁receive	-10.6274
part	-10.6277
▁Ad	-10.6278
Pa	-10.6283
▁discuss	-10.6288
▁recover	-10.6288
ov	-10.6299
▁existed	-10.6301
▁vessels	-10.6304
▁su	-10.6317
▁hospitals	-10.6318
▁intuitive	-10.6326
▁objective	-10.6336
▁neighbor	-10.6342
▁weapon	-10.6343
are	-10.6344
▁wise	-10.6345
▁songs	-10.635
▁embrace	-10.6355
▁whom	-10.636
dia	-10.6361
▁rates	-10.6364
▁pm	-10.6369
▁fed	-10.6381
▁correspond	-10.6385
▁scratch	-10.6385
▁footprint	-10.6385
▁killer	-10.6394
dp	-10.6394
▁consume	-10.6403
▁rescue	-10.6414
tz	-10.6416
▁Does	-10.6422
rick	-10.6432
▁japan	-10.6433
▁rush	-10.644
▁column	-10.6443
▁policies	-10.6443
▁recognition	-10.6443
▁heaven	-10.6443
▁sisters	-10.6444
▁measured	-10.6461
▁plans	-10.6471
▁customers	-10.6473
▁functional	-10.6475
▁May	-10.649
▁existing	-10.6494
▁capita	-10.6497
▁courage	-10.6501
▁touched	-10.6501
▁England	-10.6502
▁cortex	-10.6502
▁intuition	-10.6502
▁simulation	-10.6502
▁agenda	-10.6502
▁vertical	-10.6502
▁hydrogen	-10.6502
▁german	-10.6504
▁brothers	-10.6505
▁download	-10.6506
▁falls	-10.6509
iness	-10.6513
▁Har	-10.6515
▁environments	-10.6516
▁floating	-10.6518
ero	-10.652
▁slum	-10.6522
ken	-10.6526
▁lovely	-10.6537
▁wired	-10.6539
aking	-10.654
▁fin	-10.6544
▁earn	-10.6547
▁entrepreneurs	-10.6548
▁owner	-10.6548
▁burning	-10.6551
▁fabric	-10.6552
▁extinct	-10.6555
▁offered	-10.6555
▁officer	-10.6558
▁collecting	-10.656
▁transfer	-10.6561
▁engaging	-10.6561
▁mushroom	-10.6561
▁revenue	-10.6561
▁presence	-10.6561
▁ticket	-10.6563
▁usual	-10.6563
▁quit	-10.6565
ju	-10.6571
▁liver	-10.6576
▁license	-10.6576
▁lung	-10.6586
▁protected	-10.6596
▁films	-10.6602
bot	-10.661
▁Would	-10.6611
▁tour	-10.6614
▁knock	-10.6621
▁Three	-10.6621
▁vital	-10.6621
▁destroy	-10.6621
▁chest	-10.6624
▁precisely	-10.663
▁salt	-10.6632
▁behavioral	-10.6633
▁crying	-10.6644
source	-10.6652
▁corn	-10.6653
▁flowers	-10.6663
▁rap	-10.6666
▁seeds	-10.6668
▁comic	-10.6677
▁insurance	-10.668
▁Their	-10.6699
▁sales	-10.6704
▁Ge	-10.6706
▁tests	-10.6706
▁destroyed	-10.6708
▁lift	-10.6714
▁rely	-10.6725
ami	-10.6733
matic	-10.6734
nny	-10.6737
▁centuries	-10.6741
▁empty	-10.6741
▁proportion	-10.6741
▁romantic	-10.6741
▁whistle	-10.6741
▁tracking	-10.6741
aving	-10.6741
▁laughter	-10.6744
▁pool	-10.6746
▁contain	-10.6747
▁Germany	-10.6749
▁overall	-10.6754
▁Island	-10.6754
Do	-10.6755
▁mate	-10.6762
▁inspiring	-10.6767
▁disorder	-10.677
▁answered	-10.6777
▁records	-10.6778
▁Gu	-10.6778
Yes	-10.6794
▁anonymous	-10.6801
▁globe	-10.6801
▁survivor	-10.6801
▁appeal	-10.6801
▁Everything	-10.6801
cess	-10.6807
tech	-10.6811
tain	-10.6811
▁darkness	-10.6815
unclear	-10.6816
rin	-10.6817
▁chosen	-10.6818
▁conventional	-10.6818
▁Ch	-10.6838
▁whales	-10.6842
ory	-10.6842
▁hire	-10.6847
▁dig	-10.6851
▁nano	-10.686
▁Audience	-10.6862
▁Darwin	-10.6862
▁ceiling	-10.6862
▁regret	-10.6862
▁suicide	-10.6862
▁cooperation	-10.6863
▁presented	-10.6866
▁pose	-10.6867
▁Tu	-10.6867
▁achievement	-10.6867
▁brave	-10.687
pped	-10.6872
▁leak	-10.6873
▁economists	-10.6903
▁pit	-10.6915
▁murder	-10.6924
▁Einstein	-10.6924
▁identical	-10.6924
▁request	-10.6924
▁piano	-10.6924
▁sheep	-10.6924
▁conservative	-10.6924
▁minister	-10.6924
▁occurred	-10.6925
▁shell	-10.6935
▁Times	-10.6936
hoo	-10.6938
▁mentor	-10.6939
▁combined	-10.6968
▁label	-10.6975
▁connecting	-10.6978
▁pace	-10.6979
▁senses	-10.698
▁MIT	-10.6985
▁defense	-10.6985
▁providing	-10.6985
▁smooth	-10.6985
▁housing	-10.6985
dependent	-10.6991
ok	-10.6997
ush	-10.7011
▁mr	-10.7015
▁volunteers	-10.7034
▁males	-10.7036
▁potentially	-10.704
▁Hi	-10.7043
▁printer	-10.7047
▁President	-10.7047
▁ignorance	-10.7047
▁shrimp	-10.7047
▁domestic	-10.7048
▁grave	-10.7048
▁consistent	-10.7049
▁gray	-10.7052
▁falling	-10.7052
▁tower	-10.7058
▁surrounded	-10.7064
ria	-10.7069
gin	-10.7073
▁electron	-10.7074
▁shocked	-10.708
▁instruments	-10.7082
down	-10.7096
▁rough	-10.7097
▁shooting	-10.7101
▁indian	-10.7106
▁functions	-10.7106
▁fool	-10.711
▁Che	-10.7121
▁warning	-10.7134
▁dh	-10.7135
ew	-10.7139
▁arrive	-10.7144
▁refugee	-10.715
tube	-10.7151
▁parking	-10.7151
▁soldier	-10.7152
▁behaviors	-10.7155
▁hat	-10.7156
▁toward	-10.7156
▁uncle	-10.7157
▁profile	-10.7173
▁strategies	-10.7173
▁strike	-10.7173
▁transparent	-10.7173
▁household	-10.7173
▁cousin	-10.7173
▁automatically	-10.7173
▁textbook	-10.7174
▁icon	-10.7175
▁boss	-10.7177
ez	-10.7179
▁pot	-10.7184
▁cash	-10.7185
▁personality	-10.7188
That	-10.7193
nding	-10.7197
▁AIDS	-10.7205
▁thrown	-10.7206
▁samples	-10.7206
▁antibiotics	-10.721
▁expectations	-10.7214
▁furniture	-10.7236
▁immune	-10.7236
▁rebuild	-10.7236
▁ridiculous	-10.7236
▁cyber	-10.7236
▁baseball	-10.7237
▁partnership	-10.7237
▁neck	-10.7241
▁bears	-10.7241
▁mall	-10.7243
dor	-10.7269
long	-10.7275
cap	-10.7281
▁Per	-10.7283
▁cable	-10.7286
▁hearts	-10.7288
▁neuro	-10.7289
water	-10.7294
▁external	-10.73
▁measuring	-10.73
▁universities	-10.73
▁compound	-10.73
▁medication	-10.7301
▁freak	-10.7303
pur	-10.7309
▁edi	-10.7316
▁tent	-10.732
▁cheaper	-10.7323
ony	-10.7328
stream	-10.733
▁disorders	-10.7333
▁coin	-10.7341
▁corals	-10.7347
oh	-10.7351
xi	-10.7353
▁architects	-10.7355
▁unlike	-10.7358
▁advertising	-10.7364
▁brazil	-10.7364
▁colony	-10.7364
▁judgment	-10.7364
▁philosophy	-10.7364
▁Center	-10.7364
▁shelter	-10.7364
▁depressed	-10.7365
▁greenhouse	-10.7366
▁Dan	-10.7366
▁Human	-10.7368
▁frankly	-10.7373
▁rio	-10.7381
▁auto	-10.7384
▁orange	-10.7395
pound	-10.7407
▁nurse	-10.7413
▁algorithm	-10.7413
▁neuron	-10.7424
▁magnetic	-10.7426
▁breakthrough	-10.7428
▁conclude	-10.7428
▁psychologist	-10.7428
▁pyramid	-10.7428
▁underground	-10.7428
▁dignity	-10.7428
▁causing	-10.743
ivity	-10.7435
▁lamp	-10.7436
▁coach	-10.7436
▁cord	-10.7439
▁controlling	-10.7444
ending	-10.7445
▁tricks	-10.7454
▁Un	-10.7464
▁witness	-10.7466
▁promote	-10.7467
▁subjects	-10.747
gal	-10.7472
▁Iran	-10.7473
▁dinosaur	-10.7479
▁wings	-10.7486
▁represented	-10.7488
▁Amazon	-10.7493
▁fifth	-10.7493
▁legacy	-10.7493
▁units	-10.7493
▁drove	-10.7493
▁demonstration	-10.7495
▁laser	-10.7497
▁ugly	-10.7497
▁stretch	-10.7501
▁strangers	-10.7512
▁cop	-10.7515
▁illustrate	-10.7517
▁norm	-10.7522
▁feeding	-10.7534
▁bush	-10.7535
▁citizen	-10.7546
▁iron	-10.7556
▁grows	-10.7557
▁oxytocin	-10.7559
▁wheelchair	-10.7559
▁alarm	-10.7559
▁Harvard	-10.7559
▁stack	-10.756
▁bell	-10.7564
▁spreading	-10.7564
▁dirty	-10.7564
▁rising	-10.7566
▁Arab	-10.7576
▁pushed	-10.7576
▁attached	-10.7578
▁figures	-10.758
▁beer	-10.7592
▁divided	-10.7597
▁incentives	-10.7606
▁thin	-10.7613
▁upper	-10.7624
▁Street	-10.7625
▁acknowledge	-10.7625
▁emergency	-10.7625
▁rainforest	-10.7625
▁tragedy	-10.7625
▁extent	-10.7625
▁Japanese	-10.7625
▁diverse	-10.7625
▁thick	-10.7625
▁leap	-10.7626
▁symbols	-10.7628
▁engagement	-10.7629
▁hunger	-10.7631
▁Last	-10.7634
▁attend	-10.7636
▁cart	-10.765
arry	-10.7652
▁replicate	-10.7654
▁traveled	-10.7664
ets	-10.7675
▁custom	-10.7676
▁mainly	-10.7679
lock	-10.769
▁wipe	-10.7691
▁absorb	-10.7691
▁NASA	-10.7691
▁Pakistan	-10.7691
▁origami	-10.7691
▁philosopher	-10.7691
▁raising	-10.7691
▁vagina	-10.7691
▁standards	-10.7691
▁Britain	-10.7692
▁soap	-10.7696
▁interactive	-10.7696
▁aside	-10.7718
▁toys	-10.7718
▁educational	-10.773
▁amounts	-10.7736
▁appeared	-10.7741
▁resolution	-10.7741
stone	-10.7742
▁historical	-10.7747
▁consumers	-10.7753
oid	-10.7754
▁guard	-10.7756
▁School	-10.7757
▁astonishing	-10.7757
▁orchestra	-10.7757
▁senior	-10.7757
▁honey	-10.7758
▁elite	-10.7758
▁productivity	-10.7759
▁cartoons	-10.7761
▁rope	-10.7767
▁melt	-10.7775
aging	-10.7784
▁roots	-10.7785
▁meme	-10.7796
▁wage	-10.7797
▁tribes	-10.7809
▁Mc	-10.7813
city	-10.7816
▁mammals	-10.7817
▁stands	-10.7819
zo	-10.7824
▁sketch	-10.7825
▁implant	-10.7825
▁debt	-10.7825
▁subtle	-10.7825
ough	-10.7826
▁committed	-10.7826
▁leverage	-10.7828
▁musical	-10.7842
play	-10.7845
▁pink	-10.785
▁virtually	-10.7859
▁provided	-10.7859
▁islands	-10.7865
▁aspects	-10.7872
▁printed	-10.7875
▁brief	-10.7878
▁tears	-10.7891
▁compete	-10.7891
▁disgust	-10.7892
Please	-10.7892
▁Congress	-10.7892
▁Could	-10.7892
▁grandchildren	-10.7892
▁essence	-10.7892
▁glad	-10.7892
▁Francisco	-10.7892
▁overcome	-10.7894
▁dramatically	-10.7894
▁neat	-10.7894
▁tele	-10.7896
▁mega	-10.79
▁southern	-10.7903
▁tries	-10.7908
▁banks	-10.7916
▁villages	-10.7928
▁meetings	-10.7928
ula	-10.7943
▁gather	-10.795
▁victim	-10.7959
▁diamond	-10.796
▁skeleton	-10.796
▁density	-10.796
▁northern	-10.796
▁magnet	-10.7963
▁accepted	-10.7963
bel	-10.7968
▁globalization	-10.797
foot	-10.7975
Fi	-10.7981
▁papers	-10.8016
▁Art	-10.8017
▁recognized	-10.8019
▁searching	-10.8022
▁algae	-10.8029
▁charity	-10.8029
▁earthquake	-10.8029
▁exploring	-10.8029
▁regime	-10.8029
▁yield	-10.8029
▁robust	-10.8029
▁twist	-10.8029
▁isolated	-10.8029
▁comparison	-10.8029
▁Han	-10.8029
▁beliefs	-10.8031
phy	-10.8038
▁paintings	-10.8039
▁performing	-10.8052
▁rod	-10.8052
Y	-10.8053
rail	-10.8072
▁bound	-10.8072
▁resist	-10.808
▁concert	-10.8083
▁interactions	-10.8087
▁ban	-10.8097
▁craft	-10.8097
▁chief	-10.8098
▁frozen	-10.8098
▁spectacular	-10.8098
▁whatsoever	-10.8098
▁sacred	-10.8098
▁asteroid	-10.8098
▁theories	-10.8098
▁attractive	-10.81
▁slides	-10.8101
▁till	-10.8116
▁sleeping	-10.8125
▁linear	-10.8126
state	-10.8128
law	-10.8143
▁chimpanzees	-10.8149
▁savings	-10.8151
▁former	-10.8154
▁Israel	-10.8158
▁protecting	-10.8159
▁Los	-10.8161
alley	-10.8162
▁adjust	-10.8167
▁confident	-10.8167
▁description	-10.8167
▁economies	-10.8167
▁recruit	-10.8167
▁twitter	-10.8167
▁fortune	-10.8167
▁liberal	-10.8167
▁tragic	-10.8167
▁silly	-10.8168
▁football	-10.8168
▁Canada	-10.8168
▁sharp	-10.8168
▁kiss	-10.8169
away	-10.8173
▁dish	-10.8174
▁headline	-10.8179
▁poorest	-10.8183
▁tear	-10.8189
▁tick	-10.8196
Wow	-10.8198
▁formula	-10.8205
▁locked	-10.8206
▁calculate	-10.8208
▁drawn	-10.8208
▁farmer	-10.821
▁intention	-10.8222
▁bin	-10.8223
▁upside	-10.8224
▁bats	-10.823
▁confirm	-10.8237
▁exploit	-10.8237
▁borrow	-10.8237
▁glacier	-10.8237
▁reduction	-10.8237
▁Since	-10.8237
▁boundaries	-10.8237
▁Anderson	-10.8238
▁additional	-10.8238
▁narrow	-10.8238
▁bullet	-10.8239
▁palm	-10.8241
▁activate	-10.8243
▁spell	-10.8243
▁particle	-10.8244
▁profession	-10.8249
▁jet	-10.8252
In	-10.8253
▁sticks	-10.826
▁rarely	-10.8262
round	-10.8267
▁pie	-10.8274
▁focusing	-10.8286
▁muscles	-10.8289
▁smarter	-10.829
iff	-10.8299
arrow	-10.8307
▁calculation	-10.8307
▁guarantee	-10.8307
▁translation	-10.8307
▁variable	-10.8307
▁drinking	-10.8308
▁reaching	-10.8309
▁bump	-10.831
making	-10.8311
tell	-10.8312
▁dozen	-10.8316
▁colleague	-10.8316
▁recovery	-10.8321
▁laid	-10.8321
read	-10.8343
▁richer	-10.8349
▁terror	-10.8374
▁interpret	-10.8375
▁deaths	-10.8377
▁ethical	-10.8377
▁diabetes	-10.8378
▁helicopter	-10.8378
▁France	-10.8378
▁skull	-10.8378
▁rev	-10.838
▁marker	-10.8385
▁representation	-10.8386
▁damn	-10.839
▁unlikely	-10.8394
▁Lu	-10.8421
ix	-10.8421
cies	-10.8422
▁demonstrate	-10.8429
▁bow	-10.844
▁embedded	-10.845
▁regulation	-10.845
▁bulb	-10.845
▁tongue	-10.845
▁James	-10.845
▁Yet	-10.845
▁Anyway	-10.845
▁Chicago	-10.8451
▁londo	-10.8452
▁educated	-10.8454
▁Thanks	-10.8461
▁BG	-10.8462
▁consequence	-10.8463
▁rat	-10.8469
arian	-10.8471
▁package	-10.8475
lash	-10.8487
▁photography	-10.849
▁oldest	-10.849
▁shirt	-10.8492
▁camel	-10.8495
▁Bar	-10.8512
▁hydro	-10.8521
▁fabulous	-10.8522
▁glamour	-10.8522
▁permission	-10.8522
▁struggling	-10.8522
▁domain	-10.8522
erial	-10.8523
class	-10.8523
▁Come	-10.8526
▁affordable	-10.8533
▁fortunately	-10.8534
▁properly	-10.8535
▁bubbles	-10.8535
▁stake	-10.8543
He	-10.8544
born	-10.8554
▁dear	-10.8558
▁involves	-10.8575
▁mal	-10.8576
▁Th	-10.8592
▁disagree	-10.8594
▁facial	-10.8594
▁naked	-10.8594
▁Bank	-10.8595
▁capability	-10.8596
▁boil	-10.8596
▁iran	-10.8597
point	-10.86
▁projection	-10.8612
▁tribe	-10.8612
resistant	-10.8613
uri	-10.8615
▁predicted	-10.8617
▁opera	-10.8618
▁gods	-10.8623
hrew	-10.8628
ala	-10.8631
▁club	-10.8634
▁approaches	-10.8636
▁removed	-10.8646
▁directions	-10.8649
▁pulling	-10.8657
▁funded	-10.8657
▁transmit	-10.8666
▁Green	-10.8666
▁Institute	-10.8667
▁excellent	-10.8667
▁gesture	-10.8667
▁hypothesis	-10.8667
▁recipe	-10.8667
▁david	-10.8667
▁sauce	-10.8667
▁broadcast	-10.8667
▁spark	-10.8668
▁separated	-10.867
▁interacting	-10.8678
gel	-10.8679
▁pipe	-10.8682
▁chimpanzee	-10.8686
▁reef	-10.8687
▁fur	-10.8692
▁dan	-10.8702
▁surely	-10.871
▁roads	-10.8716
▁breaking	-10.8716
▁entered	-10.872
bro	-10.872
▁hanging	-10.8734
erry	-10.8739
▁candidate	-10.8741
▁dictionary	-10.8741
▁inevitable	-10.8741
▁stroke	-10.8741
▁fought	-10.8741
▁Frank	-10.8741
▁hardware	-10.8741
▁convey	-10.8741
▁mood	-10.8741
▁forgot	-10.8741
▁urge	-10.8741
▁editor	-10.8741
▁Boston	-10.8743
▁confused	-10.8749
ada	-10.8751
▁tight	-10.8751
allowing	-10.8752
▁cake	-10.8759
▁sacrifice	-10.8766
run	-10.8774
▁dimension	-10.8782
▁meter	-10.8793
▁computation	-10.8794
▁outcomes	-10.881
▁commit	-10.8811
▁Au	-10.8813
▁anxiety	-10.8815
▁competitive	-10.8815
▁corporate	-10.8815
▁parachute	-10.8815
▁distant	-10.8815
▁triangle	-10.8815
▁Other	-10.8817
▁placed	-10.8821
▁spinal	-10.8826
▁suggestion	-10.8832
▁wider	-10.8834
▁stations	-10.8834
cellular	-10.8836
▁suggests	-10.8838
▁cheat	-10.8841
▁virgin	-10.8842
▁links	-10.8842
▁tie	-10.8846
iest	-10.8847
▁pour	-10.8852
▁lighting	-10.8856
▁teenagers	-10.8857
▁however	-10.8857
▁experimental	-10.8865
▁burned	-10.8867
▁hook	-10.8867
spiration	-10.8867
gh	-10.8874
▁elect	-10.8875
▁angel	-10.8881
▁Women	-10.8889
▁YouTube	-10.8889
▁contribution	-10.8889
▁indicate	-10.8889
▁mutation	-10.8889
▁bored	-10.889
▁Islam	-10.889
▁installation	-10.8891
▁dare	-10.8892
▁proper	-10.8893
▁discoveries	-10.8893
bf	-10.8893
▁dedicated	-10.8896
▁terrorists	-10.8901
▁crops	-10.891
▁refugees	-10.8916
▁difficulty	-10.8918
▁crossing	-10.8919
ography	-10.8921
▁tri	-10.8921
▁trends	-10.8922
▁increases	-10.8924
atur	-10.8928
▁Park	-10.8928
▁German	-10.8954
▁realm	-10.8957
▁autonomous	-10.8965
▁pizza	-10.8965
▁tunnel	-10.8965
▁signature	-10.8965
▁buried	-10.8965
▁injury	-10.8965
▁condom	-10.8965
▁beetle	-10.8965
▁gentleman	-10.8965
▁spray	-10.8967
▁marry	-10.8967
▁jew	-10.8968
▁investing	-10.8978
▁latest	-10.8983
▁practices	-10.8999
▁interestingly	-10.9004
life	-10.9008
second	-10.9011
▁expanding	-10.9014
▁generated	-10.9017
▁instant	-10.9027
▁painted	-10.9038
▁district	-10.904
▁glamorous	-10.904
▁procedure	-10.904
▁pursue	-10.904
▁resolve	-10.904
▁straightforward	-10.904
▁combat	-10.904
▁array	-10.9041
▁forgotten	-10.9041
▁slavery	-10.9042
▁duck	-10.9043
but	-10.9044
▁Four	-10.9044
▁drum	-10.9046
▁passwords	-10.9047
▁shit	-10.9048
▁announced	-10.905
▁compassionate	-10.9052
▁coat	-10.9062
▁tied	-10.907
lace	-10.9073
▁clients	-10.9077
▁predictions	-10.9083
▁Ben	-10.9085
gro	-10.9103
▁instructions	-10.9103
▁cats	-10.9103
▁arab	-10.9115
▁reconstruct	-10.9117
▁agencies	-10.9117
▁Christian	-10.9117
▁wrist	-10.9117
▁winner	-10.912
print	-10.9128
▁elephants	-10.913
▁mold	-10.9133
▁Pat	-10.9139
▁friendly	-10.9143
lk	-10.9145
some	-10.9149
being	-10.9149
▁magical	-10.9152
dra	-10.9168
▁characteristics	-10.9182
▁Steve	-10.9182
▁shaped	-10.9191
▁Michael	-10.9194
▁iPhone	-10.9194
▁reputation	-10.9194
▁smoking	-10.9194
▁vulnerability	-10.9195
▁layers	-10.9202
▁highlight	-10.9203
xico	-10.9205
etic	-10.9207
ult	-10.9212
▁artistic	-10.9213
Star	-10.9214
▁vent	-10.9215
▁washing	-10.9232
▁bend	-10.9236
▁prediction	-10.924
▁analyze	-10.9242
▁appears	-10.9242
▁captured	-10.9244
▁dancer	-10.9249
▁secondly	-10.9254
▁sink	-10.9262
▁horizon	-10.927
▁surveillance	-10.9271
▁tweet	-10.9271
▁inventor	-10.9271
▁programming	-10.9272
▁entertainment	-10.9273
▁keyboard	-10.9274
▁kidding	-10.9276
▁clay	-10.9276
▁passive	-10.9277
▁twin	-10.9278
▁US	-10.9291
▁parties	-10.9296
▁surrounding	-10.9296
▁Day	-10.9304
▁lungs	-10.9319
▁State	-10.9319
▁imagined	-10.9324
▁translated	-10.9325
▁documents	-10.9326
▁Any	-10.9332
▁Charles	-10.9349
▁decrease	-10.9349
▁qualities	-10.9349
▁threshold	-10.9349
▁vacuum	-10.9349
▁mimic	-10.9349
▁cheese	-10.9349
▁plain	-10.9349
▁optimism	-10.935
gotta	-10.935
▁ethic	-10.9351
▁quest	-10.9351
▁backyard	-10.9356
word	-10.9359
▁beaten	-10.936
▁boo	-10.9361
ball	-10.9366
get	-10.9367
ini	-10.9368
▁publish	-10.9372
clu	-10.9384
▁client	-10.939
▁lane	-10.9394
omb	-10.9397
▁ingredients	-10.9407
Look	-10.9416
▁Russia	-10.9417
▁musicians	-10.942
▁served	-10.9422
▁invested	-10.9427
war	-10.9428
▁Perhaps	-10.9428
▁While	-10.9428
▁explode	-10.9428
▁frustrated	-10.9428
▁happier	-10.9428
▁obesity	-10.9428
▁sensation	-10.9428
▁smallpox	-10.9428
▁static	-10.9429
▁governance	-10.9429
▁shopping	-10.943
▁accessible	-10.9431
▁spill	-10.9433
diagnosed	-10.9435
oma	-10.9435
▁failing	-10.9435
▁sensory	-10.9438
▁whi	-10.9441
▁badly	-10.9442
roll	-10.9454
▁Air	-10.9469
▁slip	-10.947
▁customer	-10.9484
ump	-10.9494
▁recommend	-10.9504
▁balls	-10.9504
▁occasion	-10.9506
▁instinct	-10.9507
▁paradox	-10.9507
▁audio	-10.9507
▁federal	-10.9507
▁primate	-10.9508
▁gear	-10.9512
▁uh	-10.9513
▁stable	-10.9515
▁visited	-10.9515
load	-10.9518
▁tasks	-10.9524
▁sport	-10.953
▁constructed	-10.9531
▁returned	-10.9538
▁surprisingly	-10.9543
▁dolphin	-10.9553
bert	-10.9554
▁originally	-10.9554
aged	-10.9555
▁speaker	-10.9557
▁panel	-10.9558
▁dial	-10.9565
▁guns	-10.9577
▁hackers	-10.9579
▁Science	-10.9587
▁destiny	-10.9587
▁enhance	-10.9587
▁neuroscience	-10.9587
▁terrified	-10.9587
▁mysterious	-10.9587
▁supermarket	-10.9588
▁pause	-10.9588
▁identified	-10.9588
▁uncertainty	-10.9588
▁aircraft	-10.9588
▁assignment	-10.9589
▁investors	-10.9589
▁winning	-10.9591
▁yo	-10.9595
▁sentences	-10.9596
▁crap	-10.9598
ugh	-10.9598
organizing	-10.96
▁King	-10.9606
▁deck	-10.9606
put	-10.9608
▁informed	-10.9612
▁passing	-10.9612
▁spoken	-10.9614
▁homeless	-10.9622
bit	-10.9631
▁Will	-10.9633
▁trauma	-10.9647
eat	-10.9649
▁elections	-10.9651
▁mum	-10.9655
▁rob	-10.9661
▁continues	-10.9667
▁alcohol	-10.9668
▁dialogue	-10.9668
▁fraction	-10.9668
▁french	-10.9668
▁passenger	-10.9668
▁dioxide	-10.9668
▁trash	-10.9668
▁Also	-10.9669
▁poison	-10.9669
▁Nobody	-10.9669
▁mask	-10.9673
▁bombs	-10.9682
▁imagery	-10.9683
▁supported	-10.9704
▁safer	-10.9709
▁rating	-10.9711
▁survived	-10.9712
▁mit	-10.972
oice	-10.9735
▁branch	-10.9742
▁Ni	-10.9748
▁abilities	-10.9749
▁probability	-10.9749
▁routine	-10.9749
▁structural	-10.9749
▁pigeon	-10.9749
▁silver	-10.9749
▁tackle	-10.9749
▁shout	-10.975
▁Paris	-10.9751
take	-10.9751
burg	-10.9753
▁weekend	-10.9755
▁selfish	-10.9762
▁neighborhoods	-10.9763
gras	-10.9763
▁briefly	-10.9766
hington	-10.9766
▁PM	-10.9766
▁nurses	-10.9769
grade	-10.9775
▁globally	-10.9783
▁daughters	-10.9784
▁partly	-10.9788
▁repeated	-10.9796
▁nerd	-10.9805
▁relation	-10.9807
▁poly	-10.9813
rl	-10.9821
▁addict	-10.9827
▁CEO	-10.9831
▁impression	-10.9831
▁neutral	-10.9831
▁phantom	-10.9831
▁devil	-10.9831
▁dominant	-10.9831
▁defeat	-10.9831
▁garage	-10.9832
▁barrel	-10.9832
▁proposition	-10.9832
▁Talk	-10.9832
▁spike	-10.9832
▁actors	-10.9838
▁rose	-10.9841
▁integrated	-10.9846
▁logo	-10.9848
▁opt	-10.9849
▁biologists	-10.9851
▁arrested	-10.9852
▁rituals	-10.9858
▁communications	-10.9859
trapped	-10.9866
▁fate	-10.9866
▁cry	-10.9869
tail	-10.9884
ark	-10.9886
rand	-10.9886
▁aids	-10.99
▁trap	-10.9902
▁delivered	-10.9902
▁Part	-10.9908
▁Project	-10.9914
▁expedition	-10.9914
▁ruin	-10.9914
▁agency	-10.9914
▁forgive	-10.9914
▁monster	-10.9914
▁bathroom	-10.9914
▁smartphone	-10.9914
▁steve	-10.9914
▁slice	-10.9917
▁woke	-10.9921
▁footage	-10.9922
▁gli	-10.9925
▁morality	-10.9928
▁journal	-10.993
▁reactor	-10.9933
▁tumors	-10.9933
▁assumptions	-10.9939
▁chairs	-10.9939
American	-10.9942
▁blend	-10.9943
▁dolphins	-10.9949
Get	-10.9955
▁seats	-10.9964
▁reefs	-10.9975
▁conflicts	-10.9984
▁retire	-10.9995
▁experiencing	-10.9997
▁explosion	-10.9997
▁gradually	-10.9997
▁iraq	-10.9997
▁membrane	-10.9997
▁methane	-10.9997
▁shrink	-10.9997
▁terrifying	-10.9997
▁concentration	-10.9997
▁imaging	-10.9998
▁copyright	-10.9998
▁mild	-10.9999
aly	-11
▁native	-11
▁pathway	-11.0002
▁tale	-11.0007
▁analogy	-11.0008
cep	-11.0012
▁tension	-11.0014
▁farming	-11.0015
▁kb	-11.0017
▁ratio	-11.002
▁bull	-11.0021
▁goat	-11.0022
▁promot	-11.0032
ened	-11.0036
▁reported	-11.0036
▁observe	-11.0036
▁Ke	-11.0036
▁conduct	-11.0039
▁openness	-11.0042
▁sensor	-11.0048
▁physicist	-11.0059
▁insect	-11.006
▁navigate	-11.0061
▁egg	-11.0063
▁Tom	-11.0067
▁fortunate	-11.0067
▁suggesting	-11.0069
▁Pri	-11.0071
▁caring	-11.0077
assemble	-11.0079
▁reinvent	-11.0081
▁advocate	-11.0081
▁hemisphere	-11.0081
▁pencil	-11.0081
▁simulate	-11.0081
▁admire	-11.0081
▁watt	-11.0081
▁nowhere	-11.0082
▁Latin	-11.0082
mart	-11.0083
▁manipulate	-11.0083
▁summit	-11.0083
▁manual	-11.0091
▁reduced	-11.0092
▁exposed	-11.0094
▁climbing	-11.0095
▁output	-11.0098
▁Wal	-11.0113
▁aunt	-11.0117
▁zoo	-11.0117
▁contains	-11.0126
▁hardest	-11.0129
▁determined	-11.0136
▁methods	-11.0137
▁efforts	-11.014
▁Sam	-11.0141
▁suggested	-11.0142
active	-11.0143
▁mixed	-11.0146
▁arc	-11.0148
called	-11.015
▁speakers	-11.0153
▁rapid	-11.0154
▁analog	-11.0155
▁GPS	-11.0166
▁Unfortunately	-11.0166
▁agricultural	-11.0166
▁attribute	-11.0166
▁california	-11.0166
▁chromosome	-11.0166
▁nutrition	-11.0166
▁fault	-11.0166
▁Health	-11.0166
▁pride	-11.0167
▁September	-11.0168
▁frontier	-11.017
▁stra	-11.0173
▁healthier	-11.0174
▁mindset	-11.0177
▁drivers	-11.0179
▁rub	-11.0187
▁includes	-11.0191
▁Five	-11.0194
▁format	-11.0197
▁nets	-11.022
▁picking	-11.0221
▁Only	-11.0236
▁visualize	-11.0238
ological	-11.0244
space	-11.025
ibility	-11.0251
▁Number	-11.0251
▁aggressive	-11.0251
▁biodiversity	-11.0251
▁dopamine	-11.0251
▁primitive	-11.0251
▁useless	-11.0251
▁brutal	-11.0252
▁snake	-11.0252
▁flexible	-11.0252
▁infant	-11.0252
▁House	-11.0253
▁psychopath	-11.0254
▁synthetic	-11.0255
▁interpretation	-11.0256
bble	-11.0266
▁dynamics	-11.0273
▁stranger	-11.0276
▁catching	-11.0282
▁mono	-11.0284
▁panels	-11.0288
▁extended	-11.0292
▁hired	-11.0295
awa	-11.0295
▁Red	-11.0308
▁electronics	-11.0323
▁mayor	-11.0329
hour	-11.0333
▁aesthetic	-11.0338
▁category	-11.0338
▁negotiate	-11.0338
▁substance	-11.0338
▁tendency	-11.0338
▁terribly	-11.0338
▁transmission	-11.0338
▁suburb	-11.0338
▁loving	-11.0338
▁civic	-11.0338
▁excitement	-11.0339
▁Adam	-11.034
▁merc	-11.0354
▁proposed	-11.0363
▁dumb	-11.0365
▁nuts	-11.037
angle	-11.0378
▁suffered	-11.0385
▁circles	-11.04
▁Sea	-11.0404
▁dozens	-11.0414
▁terrorist	-11.0414
▁burst	-11.0419
▁serving	-11.0425
▁geographic	-11.0425
▁begun	-11.0425
▁geek	-11.0425
▁accus	-11.0425
▁valid	-11.0425
▁Wikipedia	-11.0425
▁blah	-11.0426
▁kidney	-11.0427
▁rice	-11.043
▁newspapers	-11.0436
▁inches	-11.0439
using	-11.044
▁listened	-11.0441
▁glasses	-11.0448
ata	-11.0453
▁caves	-11.0481
▁precise	-11.0498
Yeah	-11.0502
▁mathematicians	-11.0504
lee	-11.0507
▁sexy	-11.051
▁Egypt	-11.0511
▁champion	-11.0512
▁matrix	-11.0512
generating	-11.0512
▁cube	-11.0513
▁rotate	-11.0513
▁scanner	-11.0514
▁Angeles	-11.0514
▁binary	-11.0514
▁shipping	-11.0516
▁grasp	-11.0516
▁merely	-11.0517
▁overwhelming	-11.0518
▁restore	-11.0519
▁compelling	-11.052
▁Mon	-11.0524
nar	-11.0525
▁Du	-11.0525
▁phenomenal	-11.053
▁arise	-11.0536
▁accidents	-11.0539
▁completed	-11.0547
▁disconnect	-11.0548
▁gases	-11.0551
cum	-11.0552
▁obstacles	-11.0558
▁trucks	-11.0564
unk	-11.0565
level	-11.0574
▁succeeded	-11.0575
▁Act	-11.0582
▁graphic	-11.0591
▁password	-11.0594
▁exhibit	-11.0595
ji	-11.0597
atomic	-11.0597
▁Global	-11.0601
▁impressive	-11.0601
▁screw	-11.0601
▁tattoo	-11.0601
▁Before	-11.0601
▁antenna	-11.0601
▁drift	-11.0601
▁automobile	-11.0601
▁dawn	-11.0601
▁Something	-11.0601
▁assistance	-11.0601
▁quad	-11.0603
▁assure	-11.0607
▁dump	-11.0607
▁influenced	-11.0616
▁calm	-11.0619
▁momentum	-11.0627
▁landed	-11.0633
▁soup	-11.0645
roa	-11.0661
▁staying	-11.0672
aa	-11.0674
die	-11.0678
▁counting	-11.0687
▁regard	-11.0689
▁Pacific	-11.069
▁ethnic	-11.069
▁initiative	-11.069
▁paralyzed	-11.069
▁Obama	-11.069
▁creator	-11.069
▁iphone	-11.069
▁hyper	-11.069
▁insane	-11.069
▁punishment	-11.0692
▁export	-11.0694
▁opposed	-11.0702
▁Pe	-11.0704
▁highway	-11.0707
▁dose	-11.0713
adding	-11.0715
▁beam	-11.0722
▁lean	-11.0723
▁grad	-11.0723
▁logical	-11.0724
▁inform	-11.0724
▁wealthy	-11.0736
not	-11.075
▁bite	-11.0755
▁shy	-11.0762
▁immediate	-11.0766
made	-11.0767
▁bust	-11.0773
centimeter	-11.078
▁Museum	-11.078
▁anticipate	-11.078
▁congress	-11.078
▁eliminate	-11.078
▁generous	-11.078
▁mechanics	-11.078
▁mobility	-11.078
▁participation	-11.078
▁Apple	-11.078
▁goodbye	-11.078
▁torture	-11.078
▁wildlife	-11.0781
▁crew	-11.0781
▁trivial	-11.0781
▁ooh	-11.0782
▁portion	-11.0782
▁flaw	-11.0784
▁extinction	-11.079
▁chase	-11.0792
▁workplace	-11.0793
▁bay	-11.0794
▁bath	-11.0796
▁bold	-11.0798
place	-11.0804
wan	-11.0806
▁Abou	-11.0823
▁participants	-11.0825
treating	-11.0827
▁wishes	-11.0838
yard	-11.0841
▁attach	-11.0845
▁drawings	-11.0848
▁initial	-11.0857
▁wires	-11.0858
▁extraordinar	-11.0861
▁Cor	-11.0863
▁bizarre	-11.0871
▁unconscious	-11.0871
▁australia	-11.0871
▁compromise	-11.0871
▁industries	-11.0871
▁pandemic	-11.0871
▁register	-11.0871
▁temple	-11.0871
▁unhappy	-11.0871
▁storyteller	-11.0871
▁intimate	-11.0871
▁chamber	-11.0871
can	-11.0871
▁burden	-11.0872
▁girlfriend	-11.0872
▁stunt	-11.0872
▁Robert	-11.0872
▁classrooms	-11.0876
▁ensure	-11.0884
▁Mark	-11.0884
▁bowl	-11.0899
▁satellites	-11.0903
▁peaceful	-11.0906
▁gathering	-11.0914
▁strand	-11.0919
▁ignored	-11.092
inal	-11.0927
▁prisoners	-11.0936
▁hunt	-11.0947
▁authentic	-11.096
ollywood	-11.0963
▁Christmas	-11.0963
▁amazon	-11.0963
▁architectural	-11.0963
▁facility	-11.0963
▁resilience	-11.0963
▁syndrome	-11.0963
▁authorities	-11.0964
▁Congo	-11.0965
▁traits	-11.0967
mine	-11.097
▁tar	-11.0972
▁patch	-11.0981
▁makers	-11.0984
▁headed	-11.0996
My	-11.1005
▁errors	-11.1012
▁institutional	-11.1013
▁approaching	-11.1015
ulu	-11.1017
▁construct	-11.1022
onica	-11.1044
ideo	-11.1053
▁risky	-11.1055
▁Remember	-11.1055
▁bamboo	-11.1055
▁immense	-11.1055
▁unprecedented	-11.1055
▁cruel	-11.1055
▁miserable	-11.1055
▁neural	-11.1055
lab	-11.1056
▁Basically	-11.1056
▁margin	-11.1056
▁cliff	-11.1056
▁wedding	-11.1056
▁Thomas	-11.1057
▁bedroom	-11.1057
▁Everyone	-11.1058
▁pulse	-11.1058
▁June	-11.106
▁friendship	-11.106
▁awake	-11.106
▁jack	-11.1061
▁personalized	-11.1067
▁initially	-11.107
▁hub	-11.1074
▁remembered	-11.1082
▁relations	-11.1083
▁poems	-11.1091
▁manager	-11.1093
Okay	-11.1093
▁Mary	-11.1109
▁deter	-11.1115
▁viewer	-11.1116
▁pairs	-11.1118
▁perceive	-11.112
add	-11.1134
▁successfully	-11.1135
▁Ten	-11.1147
▁incident	-11.1148
▁dilemma	-11.1149
▁elegant	-11.1149
▁exhaust	-11.1149
▁fragile	-11.1149
▁Finally	-11.1149
▁cotton	-11.1149
▁absence	-11.1149
▁Jim	-11.1149
▁underlying	-11.115
▁connectivity	-11.115
▁heal	-11.1151
▁hiding	-11.1151
▁tiger	-11.1152
▁Martin	-11.1156
▁chat	-11.1158
▁golden	-11.1161
eastern	-11.1164
▁dating	-11.1173
power	-11.1176
▁Min	-11.1178
▁scores	-11.1179
MA	-11.1184
▁cheer	-11.1186
▁profoundly	-11.119
▁bud	-11.1199
▁pigs	-11.1203
▁wherever	-11.1208
▁breed	-11.1213
ison	-11.1215
▁establish	-11.1216
▁server	-11.1219
▁Boy	-11.1225
▁pale	-11.1233
▁slave	-11.1242
▁White	-11.1243
▁calories	-11.1243
▁capabilities	-11.1243
▁diagnosis	-11.1243
▁encouraging	-11.1243
▁virtue	-11.1243
▁empire	-11.1243
▁intersection	-11.1245
▁Union	-11.1248
▁addiction	-11.1248
▁dung	-11.125
▁agreement	-11.1253
▁mammal	-11.1253
plan	-11.1257
▁Par	-11.126
▁musician	-11.128
osh	-11.1293
realistic	-11.1293
version	-11.1303
▁remained	-11.1307
▁reject	-11.1308
▁adopt	-11.1309
▁educate	-11.1309
▁assets	-11.1318
▁punch	-11.1322
▁rats	-11.1324
▁Ab	-11.1328
▁distinct	-11.1332
pharmaceutical	-11.1339
▁colonies	-11.1339
▁currency	-11.1339
▁fraud	-11.1339
▁neither	-11.1339
▁theoretical	-11.1339
▁ambition	-11.1339
▁render	-11.1339
▁crystal	-11.1339
▁banana	-11.1339
▁January	-11.1339
▁bonus	-11.1343
▁adam	-11.1347
▁graphics	-11.1349
▁homework	-11.1349
▁employ	-11.1349
▁mining	-11.1353
▁detector	-11.1366
▁union	-11.137
▁observed	-11.1372
lp	-11.1375
▁widely	-11.138
ku	-11.1382
blowing	-11.1394
▁endless	-11.1395
▁formation	-11.1398
century	-11.1403
▁deploy	-11.1408
▁operations	-11.141
▁worrying	-11.1412
changing	-11.1413
▁chop	-11.1415
▁classical	-11.1419
▁entering	-11.142
ime	-11.1421
▁Korea	-11.1423
▁psycho	-11.1432
osco	-11.1434
▁apologize	-11.1435
▁choosing	-11.1435
▁einstein	-11.1435
▁fragment	-11.1435
▁gorgeous	-11.1435
▁substantial	-11.1435
▁ecological	-11.1435
Sahara	-11.1435
▁canopy	-11.1435
▁persist	-11.1435
Go	-11.1436
▁contradiction	-11.1437
▁collaborator	-11.1439
pper	-11.144
▁frightening	-11.1441
▁mineral	-11.1443
▁workforce	-11.1444
▁thrilled	-11.1446
▁predictable	-11.145
▁radically	-11.1468
▁challenged	-11.1474
▁update	-11.1475
▁joint	-11.1476
▁Pal	-11.1497
▁prepare	-11.1503
▁fulfill	-11.1504
▁foi	-11.1512
But	-11.1517
▁govern	-11.1522
▁reminded	-11.1525
▁blank	-11.153
▁yell	-11.1531
▁enterprise	-11.1532
▁expansion	-11.1532
▁purchase	-11.1532
▁Greek	-11.1532
▁devot	-11.1533
▁shine	-11.1533
▁richard	-11.1537
▁deaf	-11.1538
▁pirate	-11.1539
▁fence	-11.1541
weden	-11.1543
▁blindness	-11.1543
▁helpful	-11.1545
▁mc	-11.1547
▁campus	-11.1554
rill	-11.1556
▁photographed	-11.1569
▁ev	-11.159
rated	-11.1597
shot	-11.16
▁settle	-11.1602
cker	-11.1602
▁implement	-11.1603
▁adapted	-11.1609
Let	-11.1616
▁bur	-11.1624
▁involve	-11.1626
▁cigarette	-11.163
▁cricket	-11.163
▁embarrassing	-11.163
▁genocide	-11.163
▁knife	-11.163
▁puppet	-11.163
▁scheme	-11.163
▁crawl	-11.163
▁landing	-11.163
▁kit	-11.1631
▁stair	-11.1631
▁naive	-11.1632
▁appearance	-11.1633
▁grandparents	-11.1633
▁Sweden	-11.1634
▁subway	-11.1635
▁nutrients	-11.1636
gua	-11.1643
▁entrepreneur	-11.1644
▁fastest	-11.1647
▁heading	-11.1647
▁instantly	-11.1648
▁clothing	-11.1651
▁archive	-11.1654
uous	-11.1664
thermal	-11.1666
▁sin	-11.1668
▁lions	-11.1669
ench	-11.1679
▁award	-11.1681
▁included	-11.1686
lish	-11.1689
▁propose	-11.17
▁Black	-11.1729
▁Central	-11.1729
▁Ghana	-11.1729
▁administration	-11.1729
▁garbage	-11.1729
▁pursuit	-11.1729
▁stimulate	-11.1729
▁Gulf	-11.1729
▁israel	-11.173
▁korea	-11.173
▁retirement	-11.1731
▁visualization	-11.1735
lethal	-11.1737
▁compress	-11.1741
▁banking	-11.1745
▁intended	-11.1747
▁adopted	-11.1757
▁consciously	-11.1763
▁hunting	-11.1763
▁surround	-11.177
▁panic	-11.1783
▁fee	-11.1794
▁scream	-11.1797
▁upward	-11.1797
ode	-11.181
▁producer	-11.1812
▁crush	-11.182
related	-11.182
▁strongly	-11.1822
assembly	-11.1829
▁Foundation	-11.1829
▁cockroach	-11.1829
▁coordinate	-11.1829
▁facilities	-11.1829
▁luxury	-11.1829
▁millennia	-11.1829
▁awkward	-11.1829
▁closing	-11.1829
▁innocent	-11.1829
▁storytelling	-11.1829
▁Next	-11.1829
▁limitations	-11.1829
▁River	-11.1829
▁acquire	-11.1829
▁representative	-11.1831
▁fancy	-11.1833
▁expecting	-11.1835
▁Never	-11.1836
▁branches	-11.1838
imme	-11.1839
▁spine	-11.184
▁owned	-11.184
▁seeking	-11.184
▁utterly	-11.1841
▁Gene	-11.1846
▁improved	-11.1855
▁incentive	-11.1857
▁Was	-11.186
▁hug	-11.1861
Don	-11.1862
▁critic	-11.1869
▁rent	-11.1869
▁Give	-11.1871
▁sew	-11.1875
▁worms	-11.1876
▁measurements	-11.1878
▁emerged	-11.188
town	-11.1909
▁resident	-11.1929
▁interrupt	-11.193
▁Microsoft	-11.193
▁accumulate	-11.193
▁despair	-11.193
▁drought	-11.193
▁institute	-11.193
▁minimum	-11.193
▁rethink	-11.193
▁uniform	-11.193
▁parasite	-11.193
▁microphone	-11.193
▁align	-11.1932
view	-11.1933
▁guilty	-11.1936
▁artwork	-11.1936
dollar	-11.1937
▁memes	-11.1938
▁lg	-11.194
▁beating	-11.1941
▁Mac	-11.1945
▁loose	-11.1946
rna	-11.1955
▁Lab	-11.1963
een	-11.1964
tories	-11.1965
▁Bur	-11.1967
▁bucks	-11.1968
▁honestly	-11.1974
▁throwing	-11.1977
▁owe	-11.2004
▁clubs	-11.2007
▁recall	-11.2008
▁hated	-11.2008
▁delight	-11.2015
▁gained	-11.2017
▁lap	-11.2017
AT	-11.202
▁proved	-11.2023
▁sponsor	-11.2032
▁artifact	-11.2032
▁contrary	-11.2032
▁curriculum	-11.2032
▁entropy	-11.2032
▁explicit	-11.2032
▁stomach	-11.2032
▁Space	-11.2032
▁Revolution	-11.2032
▁rubber	-11.2033
▁blink	-11.2033
▁prayer	-11.2035
▁flee	-11.2037
▁mapping	-11.2041
▁hitting	-11.2046
▁cue	-11.2047
▁ego	-11.2047
person	-11.2051
oston	-11.2055
▁banker	-11.2055
▁realizing	-11.2057
▁shoe	-11.2058
▁economist	-11.2066
▁someday	-11.2069
under	-11.2076
stick	-11.2082
▁significantly	-11.2091
racy	-11.2092
▁packed	-11.2093
how	-11.2118
▁frank	-11.2121
▁germ	-11.2127
▁acoustic	-11.2135
▁darwin	-11.2135
▁hybrid	-11.2135
▁protocell	-11.2135
▁symmetries	-11.2135
▁terrific	-11.2135
▁altitude	-11.2135
▁pioneer	-11.2135
▁diameter	-11.2135
▁stereotype	-11.2135
▁Syria	-11.2135
▁bribe	-11.2135
▁Higgs	-11.2135
▁nonprofit	-11.2136
▁Nations	-11.2136
▁advise	-11.2137
▁filmmaker	-11.2138
▁canvas	-11.214
▁Bush	-11.2143
▁reflection	-11.2144
▁Six	-11.2145
cast	-11.2148
▁items	-11.2151
▁Pole	-11.2154
▁continuing	-11.2164
▁zip	-11.2165
▁perceived	-11.2167
▁cookie	-11.2176
▁beautifully	-11.219
▁vegetables	-11.2203
▁graduated	-11.2208
▁shower	-11.2214
▁remaining	-11.2217
▁explaining	-11.2223
▁container	-11.2233
▁managers	-11.2239
▁sufficient	-11.2239
▁Ethiopia	-11.2239
▁NGO	-11.2239
▁reproduce	-11.2239
▁interior	-11.2239
▁christian	-11.2239
▁warrior	-11.2239
▁improving	-11.2239
▁Haiti	-11.224
▁phosphorus	-11.224
▁voting	-11.224
▁Manhattan	-11.224
▁huh	-11.224
▁intent	-11.2241
▁shore	-11.2241
▁connectome	-11.2241
▁requirement	-11.2244
▁pond	-11.2246
▁Peter	-11.2251
▁deadly	-11.2263
▁physicists	-11.2266
▁Super	-11.2267
▁Rob	-11.2273
▁penguin	-11.228
▁vessel	-11.228
▁cope	-11.2284
▁Cal	-11.2299
▁candy	-11.2305
▁unable	-11.2311
ancy	-11.2312
▁shifting	-11.2313
▁arrest	-11.2317
▁supporting	-11.2333
▁worthy	-11.2338
▁disrupt	-11.2342
▁International	-11.2344
▁beneath	-11.2344
▁categories	-11.2344
▁delicious	-11.2344
▁elderly	-11.2344
▁genuine	-11.2344
▁strategic	-11.2344
▁Texas	-11.2344
▁deception	-11.2344
▁mount	-11.2344
▁smiling	-11.2344
▁gallon	-11.2344
▁carpet	-11.2345
▁collaborative	-11.2345
▁flame	-11.2345
▁venture	-11.2346
▁prior	-11.2346
▁cooperate	-11.235
▁disability	-11.235
▁workshop	-11.2351
▁denial	-11.2352
▁Jack	-11.2352
ote	-11.2358
▁taxes	-11.236
step	-11.2361
▁approached	-11.2361
▁jumped	-11.2362
▁swallow	-11.2369
fuel	-11.2375
▁breeding	-11.238
▁healing	-11.2383
▁closest	-11.24
flow	-11.2401
ictoria	-11.2403
free	-11.2405
▁asia	-11.242
logy	-11.2427
▁alter	-11.2435
▁safely	-11.2438
▁elevat	-11.2444
▁flourish	-11.2451
▁Rwanda	-11.2451
▁accuracy	-11.2451
▁diarrhea	-11.2451
▁investigation	-11.2451
▁magnitude	-11.2451
▁primarily	-11.2451
▁temporary	-11.2451
▁kingdom	-11.2451
▁reliable	-11.2451
▁overnight	-11.2451
▁Indeed	-11.2451
▁remarkably	-11.2451
▁High	-11.2451
▁advertise	-11.2451
▁leaf	-11.2452
▁prosperity	-11.2453
▁Islamic	-11.2459
▁Russian	-11.2466
▁trailer	-11.247
▁motivated	-11.2477
ette	-11.2489
▁eaten	-11.249
▁dome	-11.2492
▁teenager	-11.2504
lev	-11.2505
worth	-11.2506
▁hopeful	-11.2508
vy	-11.251
▁joe	-11.2513
▁formal	-11.252
zero	-11.2521
nie	-11.2523
▁swing	-11.2535
▁bind	-11.2541
▁distinguish	-11.2549
▁chemist	-11.2557
synthesize	-11.2558
▁humanitarian	-11.2558
▁descend	-11.2558
▁elsewhere	-11.2558
▁independence	-11.2558
▁regulate	-11.2558
▁schedule	-11.2558
▁schizophrenia	-11.2558
▁stigma	-11.2558
▁investigate	-11.2558
▁chronic	-11.2558
▁ashamed	-11.2559
▁steer	-11.2559
▁luckily	-11.2559
▁Stanford	-11.256
▁marketplace	-11.256
▁pri	-11.2562
▁factories	-11.2562
▁Grand	-11.2563
▁herself	-11.2563
▁nodes	-11.2582
▁youngest	-11.2606
▁sixth	-11.2613
▁founded	-11.2619
▁specialist	-11.2633
▁encouraged	-11.2635
▁fired	-11.2635
▁reasonable	-11.2636
▁promised	-11.2656
▁deni	-11.2665
▁Department	-11.2667
▁contemporary	-11.2667
▁deforestation	-11.2667
▁extension	-11.2667
▁figuring	-11.2667
▁jihad	-11.2667
▁precious	-11.2667
▁receptor	-11.2667
▁diving	-11.2667
▁whisper	-11.2667
▁mutual	-11.2667
▁kenya	-11.2667
▁fuck	-11.2667
▁Hollywood	-11.2668
▁evolving	-11.2668
▁harness	-11.2668
▁tutor	-11.2668
▁occasionally	-11.2669
▁jim	-11.2669
▁authenticity	-11.267
▁glow	-11.2672
▁unlock	-11.2672
▁texture	-11.2672
▁candle	-11.2675
▁adaptation	-11.2678
▁freeze	-11.2679
▁rape	-11.2702
▁proven	-11.2706
▁empower	-11.2716
▁detailed	-11.272
So	-11.2731
▁span	-11.2737
▁sake	-11.2749
face	-11.2753
▁wal	-11.2757
▁redesign	-11.2777
▁William	-11.2777
▁ambitious	-11.2777
▁charles	-11.2777
▁george	-11.2777
▁muslim	-11.2777
▁tsunami	-11.2777
▁vitamin	-11.2777
▁worship	-11.2777
ville	-11.2777
▁nightmare	-11.2777
▁transformative	-11.2779
▁corporations	-11.2779
▁Sch	-11.2779
▁towel	-11.2779
▁Nobel	-11.278
▁prisoner	-11.2783
lick	-11.2784
▁elevator	-11.2784
▁amazed	-11.2788
▁Law	-11.2789
▁Bang	-11.2792
▁empowered	-11.2805
▁technically	-11.2819
yr	-11.2823
▁Inter	-11.2831
▁hum	-11.2832
▁worm	-11.2836
▁glue	-11.2839
▁utter	-11.2876
ambi	-11.2879
▁Bay	-11.2879
▁arguing	-11.2888
▁astronomer	-11.2888
▁gallery	-11.2888
▁indigenous	-11.2888
▁michael	-11.2888
▁satisfied	-11.2888
▁satisfy	-11.2888
▁scaffold	-11.2888
▁nigeria	-11.2888
▁grace	-11.2888
▁Nothing	-11.2888
▁ownership	-11.2889
▁constraints	-11.2889
▁researcher	-11.2892
▁interviewed	-11.2894
▁tide	-11.29
▁rolling	-11.2925
wen	-11.2935
lay	-11.2963
▁engineered	-11.2967
▁Dur	-11.2974
▁hunter	-11.2981
▁drag	-11.2984
▁transcend	-11.2993
▁entertain	-11.2999
▁Atlantic	-11.3
▁Olympic	-11.3
▁approved	-11.3
▁cocaine	-11.3
▁enforcement	-11.3
▁exclusive	-11.3
▁hierarchy	-11.3
▁holiday	-11.3
▁prescription	-11.3
▁striking	-11.3
▁wheat	-11.3
▁chimps	-11.3
▁amateur	-11.3
▁helium	-11.3
▁assign	-11.3001
▁General	-11.3001
▁sperm	-11.3001
▁humble	-11.3001
▁relief	-11.3002
▁unfold	-11.3003
▁downtown	-11.3006
▁genetically	-11.3008
▁decent	-11.3008
▁fertilizer	-11.3009
▁troops	-11.3009
▁desperately	-11.3012
▁stopping	-11.302
▁explorer	-11.3023
▁concentrated	-11.3027
engineer	-11.3031
▁established	-11.3033
▁continu	-11.3034
▁dough	-11.3038
▁compar	-11.3061
fold	-11.3064
▁phenomena	-11.3091
▁amazingly	-11.3096
▁continuous	-11.3101
▁kilo	-11.3111
▁constrain	-11.3113
ikipedia	-11.3113
▁restrict	-11.3113
▁calculus	-11.3114
▁defining	-11.3114
▁emphasize	-11.3114
▁recycling	-11.3114
▁reinforce	-11.3114
▁trajectory	-11.3114
▁microbial	-11.3114
▁remix	-11.3114
▁Woman	-11.3114
▁annual	-11.3114
▁copied	-11.3114
▁jellyfish	-11.3114
▁refine	-11.3114
▁chunk	-11.3114
▁drew	-11.3115
▁expertise	-11.3115
▁minus	-11.3116
▁priest	-11.3116
▁timing	-11.312
▁DH	-11.3123
▁quo	-11.3123
▁Really	-11.3123
▁Rio	-11.3124
ealand	-11.3125
▁rebel	-11.3125
▁detection	-11.3127
▁probe	-11.3131
▁overhead	-11.3134
▁threatened	-11.3138
▁Gold	-11.3143
▁cheating	-11.3164
▁extrem	-11.3183
▁flap	-11.3188
▁menu	-11.3188
▁criticize	-11.3188
▁sale	-11.3189
▁raped	-11.3198
▁retreat	-11.3199
▁lion	-11.3202
efficient	-11.3222
new	-11.3227
▁punish	-11.3227
▁sculpt	-11.3228
▁breakfast	-11.3229
▁geometry	-11.3229
▁lobby	-11.3229
▁ubiquitous	-11.3229
▁reducing	-11.3229
▁diagnostic	-11.3229
▁communicating	-11.3229
▁Turn	-11.3229
▁tiles	-11.3229
▁distort	-11.323
▁ongoing	-11.323
▁expectancy	-11.323
▁cattle	-11.3231
▁entry	-11.3231
▁consist	-11.3235
▁wore	-11.3239
▁european	-11.3239
▁socially	-11.324
▁manner	-11.3247
▁Back	-11.3249
▁diplomat	-11.3257
▁messy	-11.3272
▁Far	-11.3273
▁publishing	-11.3276
▁Joe	-11.3326
▁Research	-11.3345
▁alphabet	-11.3345
▁counsel	-11.3345
▁endangered	-11.3345
▁ethiopia	-11.3345
▁invitation	-11.3345
▁nitrogen	-11.3345
▁storage	-11.3345
▁wrapped	-11.3346
▁nearby	-11.335
▁stolen	-11.3352
▁alert	-11.3352
▁overwhelmed	-11.3352
wood	-11.3355
▁hind	-11.3356
▁lib	-11.3357
▁holy	-11.3358
▁crossed	-11.3366
▁upload	-11.3366
▁belt	-11.3373
itz	-11.3374
▁Age	-11.3377
horn	-11.3378
powered	-11.3379
berg	-11.3379
▁Ko	-11.3387
olar	-11.3392
▁smallest	-11.3403
▁ritual	-11.3424
ella	-11.3426
atic	-11.3427
▁flowing	-11.343
▁float	-11.3431
▁accelerate	-11.3433
imo	-11.3435
▁employer	-11.3446
▁Bob	-11.345
▁armed	-11.3452
▁historic	-11.3454
▁Narrator	-11.3463
▁batteries	-11.3463
▁configuration	-11.3463
▁convicted	-11.3463
▁enemies	-11.3463
▁philanthropy	-11.3463
▁purple	-11.3463
▁squeeze	-11.3463
▁Smith	-11.3463
▁Ocean	-11.3463
▁proceed	-11.3463
▁cream	-11.3463
▁association	-11.3463
umbling	-11.3467
body	-11.3468
▁Antarctica	-11.3468
▁liar	-11.3474
turing	-11.3475
▁athletes	-11.3479
▁amongst	-11.3481
third	-11.3486
▁fatal	-11.349
▁warn	-11.3494
ggle	-11.3496
▁conducted	-11.3501
▁toast	-11.3502
clock	-11.3504
▁delivery	-11.3504
▁impos	-11.3509
▁collectively	-11.3512
school	-11.3518
▁locally	-11.352
▁consumed	-11.3522
▁mesh	-11.3523
▁dressed	-11.3527
▁covering	-11.3539
▁texting	-11.3542
▁assumption	-11.3546
▁sooner	-11.3552
▁stored	-11.3552
▁Ti	-11.3552
▁laughed	-11.3554
▁Spi	-11.3563
▁corrupt	-11.3579
▁russia	-11.3581
▁simpler	-11.3581
▁Uganda	-11.3582
▁commodity	-11.3582
▁eradicate	-11.3582
▁exposure	-11.3582
▁flavor	-11.3582
▁glucose	-11.3582
▁proposal	-11.3582
▁unfair	-11.3582
▁inhabit	-11.3582
▁insulin	-11.3582
▁steam	-11.3582
▁confine	-11.3582
▁augment	-11.3582
▁October	-11.3583
▁Things	-11.3583
▁illustration	-11.3585
ritish	-11.3585
▁transit	-11.3586
▁scrap	-11.3586
▁brick	-11.3588
▁hint	-11.3589
▁offering	-11.359
ritain	-11.359
▁exam	-11.3592
▁Bible	-11.3593
▁clone	-11.3595
▁subjective	-11.3595
▁targeted	-11.3596
▁prevention	-11.3599
▁accomplished	-11.3606
▁behalf	-11.3608
▁staring	-11.3626
▁tourist	-11.3639
▁reflected	-11.3651
▁motivate	-11.3673
▁select	-11.3675
▁crop	-11.368
▁woo	-11.3687
▁Jewish	-11.3702
▁circular	-11.3702
▁collision	-11.3702
▁consensus	-11.3702
▁devastating	-11.3702
▁dictator	-11.3702
▁divorce	-11.3702
▁frustration	-11.3702
▁leather	-11.3702
▁marathon	-11.3702
▁receiving	-11.3702
▁vibration	-11.3702
▁fisheries	-11.3702
▁biosphere	-11.3702
▁obese	-11.3702
▁suppress	-11.3703
▁tomato	-11.3703
▁legislation	-11.3703
▁accent	-11.3703
▁stability	-11.3704
▁chef	-11.3704
▁boots	-11.3705
▁boundary	-11.3705
▁Alzheimer	-11.3705
▁steppe	-11.3707
▁distinction	-11.3708
▁fever	-11.3714
▁preach	-11.3714
break	-11.3727
▁selected	-11.3729
▁grip	-11.3731
▁taxi	-11.3732
▁screaming	-11.3741
▁None	-11.3745
▁prospect	-11.3748
▁tricky	-11.3751
frontal	-11.3756
▁lifted	-11.3757
▁performed	-11.3771
▁wasted	-11.3786
▁mentally	-11.3791
▁biologist	-11.3794
▁convenient	-11.3824
▁celebration	-11.3824
▁christmas	-11.3824
▁cosmic	-11.3824
▁deliberate	-11.3824
▁envelope	-11.3824
▁feminist	-11.3824
▁glimpse	-11.3824
▁horror	-11.3824
▁innovate	-11.3824
▁nowadays	-11.3824
▁peculiar	-11.3824
▁principal	-11.3824
▁territory	-11.3824
▁transistor	-11.3824
▁romance	-11.3824
▁warehouse	-11.3824
▁veteran	-11.3824
▁viral	-11.3825
▁spinning	-11.3826
▁assistant	-11.3826
▁bounce	-11.3826
▁excess	-11.3827
hether	-11.3827
▁priority	-11.3828
▁Mother	-11.3828
▁lever	-11.3828
▁suspended	-11.3832
▁engl	-11.3838
▁brush	-11.3845
▁refused	-11.385
▁rig	-11.3853
ographic	-11.3859
▁attacked	-11.386
▁demonstrated	-11.3885
▁jar	-11.3889
▁stu	-11.3898
ologists	-11.3905
▁slower	-11.3913
▁convention	-11.3914
▁install	-11.3918
Can	-11.3921
▁kite	-11.3925
▁jh	-11.3927
hhh	-11.3932
bury	-11.3939
▁switched	-11.3943
▁cylinder	-11.3948
▁elaborate	-11.3948
▁practicing	-11.3948
▁silicon	-11.3948
▁translator	-11.3948
▁Third	-11.3948
▁asleep	-11.3948
▁segment	-11.3948
▁staircase	-11.3948
▁scaling	-11.3948
▁drunk	-11.3948
▁blast	-11.3948
▁thread	-11.3948
▁cardboard	-11.395
Hello	-11.395
▁spacecraft	-11.3951
▁peel	-11.3951
▁adoption	-11.3952
▁estate	-11.3953
▁invade	-11.3953
▁junk	-11.3954
▁Pan	-11.3954
▁pillar	-11.3954
▁jaw	-11.3958
▁Wall	-11.3965
▁regularly	-11.3988
▁hopeless	-11.399
▁gathered	-11.3997
Where	-11.402
cause	-11.4021
▁mite	-11.4021
▁rip	-11.4023
programmed	-11.4024
▁bless	-11.4049
human	-11.4051
friend	-11.4053
▁dirt	-11.4062
skeletal	-11.4073
vascular	-11.4073
▁correlation	-11.4073
▁generator	-11.4073
▁magnificent	-11.4073
▁possess	-11.4073
▁recession	-11.4073
▁sanitation	-11.4073
▁statue	-11.4073
▁exotic	-11.4073
▁Blue	-11.4073
▁inflation	-11.4073
▁preparing	-11.4073
▁Soviet	-11.4073
▁heritage	-11.4073
▁selves	-11.4073
▁titan	-11.4073
▁nasty	-11.4073
▁ecology	-11.4073
▁operator	-11.4074
▁hostile	-11.4074
▁constitution	-11.4075
▁horizontal	-11.4075
▁regardless	-11.4075
▁Egyptian	-11.4075
▁index	-11.4075
▁delay	-11.4076
chasing	-11.4076
▁bench	-11.4077
▁crab	-11.408
▁scientifically	-11.4082
▁inherently	-11.4083
▁transforming	-11.4084
▁surf	-11.4086
self	-11.4086
▁specialized	-11.4091
▁mini	-11.4103
▁Gi	-11.4104
▁unto	-11.4105
▁Italy	-11.4109
▁contributed	-11.414
▁playful	-11.4143
iza	-11.4152
▁summ	-11.4152
▁shocking	-11.4152
eith	-11.4166
▁informal	-11.417
▁concentrate	-11.417
scape	-11.417
▁collaborate	-11.4172
▁nasa	-11.4185
▁simplest	-11.4193
▁rabbi	-11.4198
▁Child	-11.4199
▁dictionaries	-11.4199
▁earliest	-11.4199
▁enzyme	-11.4199
▁kindergarten	-11.4199
▁maneuver	-11.4199
▁occupy	-11.4199
▁destination	-11.4199
▁therapist	-11.4199
▁MRI	-11.4199
▁lonely	-11.4199
▁spiral	-11.4199
▁thrive	-11.4199
▁basketball	-11.42
▁geography	-11.42
▁contest	-11.42
▁onstage	-11.42
▁infectious	-11.42
▁indoor	-11.4201
▁executive	-11.4201
▁acres	-11.4201
▁selective	-11.4201
▁journalism	-11.4202
uthern	-11.4205
▁merit	-11.4205
▁vary	-11.421
▁discovering	-11.422
▁manufacturer	-11.4228
▁Up	-11.4233
▁mac	-11.4235
▁rejected	-11.4235
void	-11.4249
▁correctly	-11.4261
▁comedy	-11.4262
half	-11.4267
handed	-11.4267
▁teaches	-11.427
▁inject	-11.4277
▁deposit	-11.4278
alai	-11.4278
▁mud	-11.4283
▁bon	-11.4284
▁Time	-11.4291
When	-11.4299
uan	-11.4299
▁belly	-11.4312
▁ironic	-11.4317
▁yards	-11.4323
▁coincidence	-11.4328
▁contributing	-11.4328
▁hamburger	-11.4328
▁improvise	-11.4328
▁slept	-11.4328
▁yeast	-11.4328
▁biomass	-11.4328
▁injured	-11.4328
▁guest	-11.4328
▁Eastern	-11.4328
▁flesh	-11.4328
▁discrimination	-11.4328
▁Girl	-11.4328
▁diplomacy	-11.4328
▁harsh	-11.4328
▁scanning	-11.4329
▁pipeline	-11.4329
▁migration	-11.433
▁blew	-11.433
▁simultaneously	-11.433
▁tapir	-11.4331
▁baseline	-11.4332
▁retina	-11.4338
▁hump	-11.4342
▁strain	-11.4345
▁enjoyed	-11.4345
▁abandoned	-11.4354
▁boost	-11.4356
▁jun	-11.4367
▁Hy	-11.4397
▁collapsed	-11.4403
▁merge	-11.4408
▁eh	-11.4418
interest	-11.4434
▁grabb	-11.4435
▁doubled	-11.4449
tropical	-11.4457
▁Obviously	-11.4457
▁Through	-11.4457
▁congestion	-11.4457
▁eternal	-11.4457
▁favela	-11.4457
▁fluorescent	-11.4457
▁fractal	-11.4457
▁inclusive	-11.4457
▁sequencing	-11.4457
▁Nature	-11.4457
▁leban	-11.4457
▁summarize	-11.4457
▁sweep	-11.4457
▁famine	-11.4458
▁freezing	-11.4458
▁Design	-11.4458
▁intervene	-11.4458
▁Prize	-11.4458
▁Oxford	-11.4458
▁typing	-11.4458
field	-11.4459
▁gross	-11.4459
▁located	-11.4459
▁toxin	-11.4459
▁hometown	-11.4462
▁Long	-11.4463
▁bible	-11.4465
▁overlap	-11.4466
▁passage	-11.4467
brew	-11.4468
▁revolutionary	-11.447
▁scare	-11.4475
▁spare	-11.4475
▁realization	-11.4493
uz	-11.4502
aeda	-11.4516
▁stabilize	-11.4519
▁skip	-11.452
bran	-11.4522
▁threaten	-11.4523
▁hut	-11.454
▁cage	-11.4541
▁insist	-11.4554
▁abandon	-11.4562
▁processor	-11.4571
▁desperate	-11.4575
▁distract	-11.458
proof	-11.4581
▁Florida	-11.4589
▁abundance	-11.4589
▁album	-11.4589
▁exponentially	-11.4589
▁impulse	-11.4589
▁lifespan	-11.4589
▁precision	-11.4589
▁significance	-11.4589
▁strict	-11.4589
▁supplies	-11.4589
▁taboo	-11.4589
▁composition	-11.4589
▁lottery	-11.459
▁Gates	-11.459
▁jazz	-11.459
▁neo	-11.4595
▁nick	-11.4596
ueen	-11.4597
▁aggregate	-11.4606
▁cult	-11.4609
▁symbolic	-11.4611
ulsi	-11.4618
▁mary	-11.4632
▁calculated	-11.4645
▁harmful	-11.4652
▁rescued	-11.4656
▁Mom	-11.4665
▁assumed	-11.4676
▁Wa	-11.4677
▁accomplish	-11.4693
rue	-11.4702
▁trait	-11.4718
▁consult	-11.4721
craft	-11.4722
▁accelerating	-11.4722
▁ambulance	-11.4722
▁astronaut	-11.4722
▁calendar	-11.4722
▁ceremony	-11.4722
▁contagious	-11.4722
▁council	-11.4722
▁equity	-11.4722
▁intriguing	-11.4722
▁irrational	-11.4722
▁narrator	-11.4722
▁nonsense	-11.4722
▁obsession	-11.4722
▁polite	-11.4722
▁refrigerator	-11.4722
▁separation	-11.4722
▁triumph	-11.4722
▁vacation	-11.4722
▁honeybee	-11.4722
▁outdoor	-11.4723
▁crows	-11.4723
▁conquer	-11.4723
▁headache	-11.4723
▁haiti	-11.4723
▁kilogram	-11.4723
▁stamp	-11.4723
▁introduction	-11.4723
▁Children	-11.4723
▁December	-11.4723
▁psychiatrist	-11.4725
▁elementary	-11.4726
▁juice	-11.4727
▁cafe	-11.4735
▁explored	-11.4736
▁modest	-11.474
▁lowest	-11.4748
▁installed	-11.4752
activat	-11.4753
▁previously	-11.4759
▁empowering	-11.4761
bound	-11.4768
▁helpless	-11.4787
▁melting	-11.4787
▁sadly	-11.479
wandering	-11.4791
▁discussing	-11.4797
Miss	-11.4801
▁sticker	-11.4802
▁mic	-11.4812
oriented	-11.4816
▁redefine	-11.4842
▁lawn	-11.4847
▁compute	-11.4848
manda	-11.4855
▁corporation	-11.4855
▁applause	-11.4857
▁autonomy	-11.4857
▁believing	-11.4857
▁irrelevant	-11.4857
▁longevity	-11.4857
▁neuroscientist	-11.4857
▁obsolete	-11.4857
▁staggering	-11.4857
▁utility	-11.4857
▁victory	-11.4857
▁obtain	-11.4858
▁minor	-11.4858
▁slime	-11.4858
▁captain	-11.4859
▁baker	-11.4859
▁blade	-11.4859
▁alright	-11.4859
▁passport	-11.486
▁Spanish	-11.4861
▁planned	-11.4862
▁digest	-11.4863
▁replacement	-11.4864
▁civilian	-11.4865
▁blur	-11.4866
▁inmates	-11.487
▁magician	-11.487
▁Out	-11.487
▁dominated	-11.4871
▁Rome	-11.4871
force	-11.4871
▁KB	-11.4873
world	-11.4873
▁wooden	-11.4873
known	-11.4874
▁Israeli	-11.4876
▁Scott	-11.4876
▁swamp	-11.4881
▁upgrade	-11.4882
▁atom	-11.4898
▁optical	-11.4911
▁labeled	-11.4917
▁randomly	-11.4925
▁beef	-11.4931
▁replaced	-11.4944
▁compose	-11.4966
▁disappoint	-11.4967
▁execut	-11.4987
▁August	-11.4994
▁envision	-11.4994
▁competing	-11.4994
▁corridor	-11.4994
▁episode	-11.4994
▁harbor	-11.4994
▁intrigue	-11.4994
▁monsoon	-11.4994
▁offspring	-11.4994
▁terrain	-11.4994
▁multiply	-11.4995
▁steep	-11.4995
▁slogan	-11.4995
▁shatter	-11.4995
▁trading	-11.4995
▁Democrat	-11.4995
▁consent	-11.4995
▁ultra	-11.4996
▁mainstream	-11.4996
▁tagged	-11.4997
▁pants	-11.5
▁piss	-11.5001
▁basement	-11.5004
▁Port	-11.5005
hole	-11.5017
generation	-11.502
▁biases	-11.5021
▁politically	-11.5029
payment	-11.5035
▁passes	-11.5035
▁visiting	-11.5037
▁posted	-11.5045
▁responded	-11.5047
erence	-11.5052
▁scott	-11.5061
▁eco	-11.5063
▁successes	-11.5066
▁talented	-11.5068
▁expanded	-11.507
fulness	-11.5077
▁provider	-11.5096
stein	-11.5102
▁democrat	-11.5104
▁refuse	-11.5104
▁Tri	-11.5111
▁grant	-11.5113
▁enlighten	-11.5133
▁Square	-11.5133
▁absurd	-11.5133
▁catastrophe	-11.5133
▁division	-11.5133
▁embracing	-11.5133
▁endeavor	-11.5133
▁friction	-11.5133
▁guitar	-11.5133
▁laboratories	-11.5133
▁migrant	-11.5133
▁monument	-11.5133
▁pedestrian	-11.5133
▁shepherd	-11.5133
▁therapies	-11.5133
▁underestimate	-11.5133
▁welfare	-11.5133
▁premise	-11.5133
▁pleasant	-11.5133
▁applies	-11.5133
▁monarch	-11.5133
▁swarm	-11.5133
▁Court	-11.5133
▁disabled	-11.5133
▁compil	-11.5134
▁Italian	-11.5134
▁cinema	-11.5134
▁prostitution	-11.5134
▁iceberg	-11.5135
▁dam	-11.5136
▁trafficking	-11.5136
▁minority	-11.5136
▁folding	-11.5139
▁frequently	-11.5142
▁dune	-11.5145
▁argued	-11.5145
kar	-11.5146
▁Rock	-11.5151
▁outbreak	-11.5152
▁Shi	-11.5155
▁regenerate	-11.5155
▁irony	-11.5157
sea	-11.5158
▁Hill	-11.5159
▁observer	-11.516
▁disappointed	-11.5161
▁bacterial	-11.5164
▁exit	-11.5171
▁chap	-11.5181
OK	-11.5183
threatening	-11.5193
viv	-11.5193
▁warmer	-11.5201
▁lego	-11.5205
bone	-11.522
▁monitoring	-11.5225
Who	-11.5235
▁eva	-11.5238
▁Pen	-11.5256
▁Put	-11.5257
▁pleased	-11.5262
articulate	-11.5264
▁TEDTalk	-11.5274
▁caregiver	-11.5274
▁competitor	-11.5274
▁synapse	-11.5274
▁vocabulary	-11.5274
▁voyage	-11.5274
▁Norway	-11.5274
▁inhibit	-11.5274
▁bionic	-11.5274
▁noisy	-11.5274
▁causal	-11.5274
▁Turkey	-11.5275
▁oven	-11.5275
▁systematically	-11.5275
▁Sunday	-11.5275
▁copies	-11.5277
▁accountability	-11.5278
▁retail	-11.5279
▁chess	-11.528
▁insult	-11.528
▁politician	-11.5284
▁triple	-11.5287
▁Arabic	-11.5288
▁hacker	-11.529
▁penis	-11.529
▁wallet	-11.5291
▁mob	-11.5295
▁lightning	-11.5296
▁halfway	-11.5297
▁realities	-11.5302
illa	-11.5312
▁hmm	-11.532
ripped	-11.5321
wash	-11.5323
▁destroying	-11.535
lapse	-11.5351
▁dip	-11.5379
▁associate	-11.5388
cost	-11.5391
▁prince	-11.5409
cam	-11.5413
▁violin	-11.5417
▁dragonflies	-11.5417
▁exquisite	-11.5417
▁intimacy	-11.5417
▁jungle	-11.5417
▁morph	-11.5417
▁negotiation	-11.5417
▁neocortex	-11.5417
▁nonetheless	-11.5417
▁pacific	-11.5417
▁surgeries	-11.5417
▁Brown	-11.5417
▁prioritize	-11.5417
▁Seven	-11.5417
▁chord	-11.5417
fg	-11.5417
▁priorities	-11.5418
▁Somebody	-11.5418
▁odor	-11.5418
▁February	-11.5419
▁assessment	-11.5419
▁Cambridge	-11.5419
▁blob	-11.5419
▁sneakers	-11.542
▁conceptual	-11.5421
▁homo	-11.5421
▁couch	-11.5421
▁shortcut	-11.5421
▁farther	-11.5428
▁profitable	-11.543
▁mathematician	-11.543
▁Men	-11.5435
▁recycled	-11.544
▁broader	-11.5446
▁charged	-11.5457
▁Yorker	-11.546
▁Mill	-11.5467
▁analyzed	-11.5472
▁witnessed	-11.5477
▁gp	-11.5481
looking	-11.5485
▁attracted	-11.5494
▁privileged	-11.5497
▁unfortunate	-11.5548
▁manifest	-11.5559
▁arrange	-11.556
Professor	-11.5562
▁LED	-11.5562
▁celebrity	-11.5562
▁coordination	-11.5562
▁describing	-11.5562
▁entrance	-11.5562
▁frustrating	-11.5562
▁humility	-11.5562
▁legitimate	-11.5562
▁liberty	-11.5562
▁pakistan	-11.5562
▁persuade	-11.5562
▁prosthetic	-11.5562
▁resilient	-11.5562
▁solemn	-11.5562
▁Ebola	-11.5562
▁ghost	-11.5562
▁historian	-11.5562
▁Jesus	-11.5562
▁idiot	-11.5562
▁hacking	-11.5562
▁autistic	-11.5562
▁ideology	-11.5562
▁vivid	-11.5562
▁crude	-11.5562
▁cried	-11.5562
▁shaking	-11.5563
▁banned	-11.5563
▁harmony	-11.5563
▁genomic	-11.5563
▁prostate	-11.5564
▁arrangement	-11.5564
▁Without	-11.5566
▁browser	-11.5567
▁progressive	-11.5579
enjoying	-11.5581
▁abstraction	-11.5584
▁ec	-11.5589
▁fallen	-11.5594
▁Medic	-11.5606
▁Sen	-11.5617
var	-11.5626
▁contained	-11.5627
▁tremendously	-11.5635
carbon	-11.5638
four	-11.5662
▁loo	-11.5673
surfing	-11.5696
▁teenage	-11.57
▁Asian	-11.5703
▁prey	-11.5705
▁differ	-11.5706
▁Church	-11.5709
▁confession	-11.5709
▁democracies	-11.5709
▁festival	-11.5709
▁marijuana	-11.5709
▁memorial	-11.5709
▁propaganda	-11.5709
▁surrender	-11.5709
▁transaction	-11.5709
▁introvert	-11.5709
▁Northern	-11.5709
▁tolerance	-11.5709
▁masterpiece	-11.5709
▁Mountain	-11.5709
▁faint	-11.5709
▁desktop	-11.571
▁superpower	-11.571
▁basket	-11.571
▁sidewalk	-11.5711
▁chew	-11.5711
▁Republican	-11.5711
▁Play	-11.5712
▁systematic	-11.5712
▁Tim	-11.5715
▁retain	-11.5716
▁problematic	-11.5719
▁weakness	-11.5719
▁iconic	-11.572
▁Pu	-11.5734
▁characteristic	-11.5734
▁intend	-11.5734
▁evaluat	-11.5734
▁March	-11.5745
▁skeptical	-11.5746
▁Home	-11.5748
aire	-11.575
▁disk	-11.576
▁hooked	-11.5763
varian	-11.5785
▁revealed	-11.5791
minute	-11.5801
▁cloth	-11.5819
front	-11.5825
controller	-11.5841
▁node	-11.5846
amma	-11.5854
eptember	-11.5854
volving	-11.5857
▁scholar	-11.5858
▁broccoli	-11.5858
▁criteria	-11.5858
▁gadget	-11.5858
▁imagining	-11.5858
▁juvenile	-11.5858
▁turtle	-11.5858
▁yemen	-11.5858
▁scroll	-11.5858
▁glove	-11.5858
▁collar	-11.5858
▁crank	-11.5858
▁carrot	-11.5859
▁cosmolog	-11.5859
▁Chile	-11.5859
▁forbid	-11.586
ounce	-11.5862
▁nail	-11.5862
linda	-11.5863
▁besides	-11.5865
▁Lego	-11.5866
onnecticut	-11.5868
▁governor	-11.587
▁dishes	-11.5874
▁congo	-11.5876
▁instruction	-11.5885
▁interconnected	-11.59
▁Secondly	-11.5903
▁stain	-11.5918
▁peter	-11.593
wk	-11.5932
▁earning	-11.5941
▁Poli	-11.5952
▁manufacture	-11.5975
star	-11.601
▁Arctic	-11.601
▁Silicon	-11.601
▁dysfunction	-11.601
▁happily	-11.601
▁inevitably	-11.601
▁mammoth	-11.601
▁philosophical	-11.601
▁stimulation	-11.601
▁symmetrical	-11.601
▁educator	-11.601
▁indication	-11.601
▁thylacine	-11.601
▁paradise	-11.601
eanwhile	-11.601
▁wreck	-11.601
▁obama	-11.601
▁mosque	-11.601
▁foster	-11.601
▁opposition	-11.601
▁rehabilitation	-11.6011
▁generic	-11.6011
▁billboard	-11.6011
▁Bangladesh	-11.6011
▁headquarters	-11.6012
▁blueprint	-11.6013
▁settlement	-11.6013
▁cement	-11.6013
found	-11.6015
▁gym	-11.6016
▁Arch	-11.6017
itude	-11.6017
▁managing	-11.6019
▁fame	-11.6021
▁swap	-11.6026
▁greet	-11.6031
▁commission	-11.6033
Wait	-11.6041
▁losses	-11.6042
▁buses	-11.6045
▁handful	-11.6046
odi	-11.605
▁implemented	-11.6052
▁mastery	-11.6054
▁settled	-11.6056
▁sexually	-11.6068
range	-11.6073
▁grim	-11.6078
▁masses	-11.6083
▁emotionally	-11.6099
pressed	-11.611
▁honored	-11.612
▁bitter	-11.6129
style	-11.613
anger	-11.6131
▁drain	-11.6137
▁intentional	-11.6145
kilometer	-11.6146
▁Ku	-11.6152
▁pup	-11.6155
▁manipulat	-11.6156
▁volcano	-11.6156
ntarctica	-11.6158
▁indirect	-11.6164
nurture	-11.6164
▁Although	-11.6164
▁adolescent	-11.6164
▁heavily	-11.6164
▁innovator	-11.6164
▁obligation	-11.6164
▁octopus	-11.6164
▁patience	-11.6164
iussani	-11.6164
▁FBI	-11.6164
▁assault	-11.6164
▁chaotic	-11.6164
▁cosmos	-11.6164
▁opponent	-11.6164
▁cardiac	-11.6164
▁shining	-11.6164
▁Titan	-11.6164
▁forecast	-11.6164
▁jeff	-11.6164
▁reply	-11.6164
▁Moore	-11.6164
▁choir	-11.6164
▁seemingly	-11.6164
▁Saturn	-11.6164
▁isolation	-11.6164
▁Beijing	-11.6164
▁mythology	-11.6165
▁Albert	-11.6165
▁Derek	-11.6165
▁orientation	-11.6166
▁bucket	-11.6166
▁Under	-11.6166
▁empowerment	-11.6167
▁flick	-11.6169
▁duty	-11.6171
▁injection	-11.6171
▁scarce	-11.6171
▁Hall	-11.6175
▁disturbing	-11.6181
▁protective	-11.6181
▁reporter	-11.6185
▁mandate	-11.6187
ruce	-11.6192
▁echo	-11.6199
▁blessing	-11.6203
▁mating	-11.6212
RB	-11.6212
▁practically	-11.6216
iger	-11.6231
▁AB	-11.6233
lose	-11.6235
▁embraced	-11.6242
▁actively	-11.625
▁seventh	-11.6255
▁Eric	-11.6257
▁enormously	-11.6264
▁tire	-11.6292
documented	-11.6292
▁trail	-11.6303
▁asset	-11.6306
▁prohibit	-11.632
▁Minister	-11.632
▁aluminum	-11.632
▁embarrassed	-11.632
▁extensive	-11.632
▁imperative	-11.632
▁integrity	-11.632
▁maximum	-11.632
▁olympic	-11.632
▁parliament	-11.632
▁pixel	-11.632
▁province	-11.632
▁rhetoric	-11.632
▁steady	-11.632
▁fishermen	-11.632
▁gravitational	-11.632
▁indicator	-11.632
▁surgical	-11.632
▁Spain	-11.632
▁unstable	-11.632
▁mankind	-11.632
▁exceed	-11.632
▁tribal	-11.6321
Listen	-11.6321
▁loser	-11.6323
▁transmitted	-11.6323
▁potatoes	-11.6325
▁documentary	-11.6325
▁frightened	-11.6329
▁hive	-11.6331
▁coverage	-11.6334
▁Sir	-11.6334
▁sadness	-11.6335
▁fade	-11.6339
▁Both	-11.6348
▁assist	-11.635
▁consideration	-11.6351
▁composer	-11.6352
▁machinery	-11.6353
▁blessed	-11.6354
▁asthma	-11.6358
▁navigat	-11.6359
▁cartoonist	-11.6361
▁ingredient	-11.6361
▁July	-11.6362
▁via	-11.6362
▁deployed	-11.6364
▁daylight	-11.6367
▁upright	-11.6368
mediate	-11.6372
AR	-11.6387
turn	-11.639
▁semi	-11.6435
ike	-11.6443
▁integrate	-11.6449
▁distribute	-11.647
hicago	-11.6476
▁casual	-11.6479
▁Friday	-11.6479
▁avatar	-11.6479
▁cocktail	-11.6479
▁controversy	-11.6479
▁default	-11.6479
▁deficit	-11.6479
▁improvisation	-11.6479
▁manuscript	-11.6479
▁metabolism	-11.6479
▁multinational	-11.6479
▁penetrate	-11.6479
▁stadium	-11.6479
▁stumble	-11.6479
▁technician	-11.6479
▁cybercriminal	-11.6479
▁intensity	-11.6479
▁protocol	-11.6479
▁specimen	-11.6479
▁wrestle	-11.6479
▁injuries	-11.6479
▁Until	-11.6479
▁livestock	-11.6479
▁utopia	-11.6479
▁charm	-11.6479
▁feather	-11.6479
▁intact	-11.6479
▁Sorry	-11.6479
▁scholarship	-11.6479
aiwan	-11.6479
▁Trans	-11.6479
▁trunk	-11.6479
▁banjo	-11.648
▁Taliban	-11.6481
▁textile	-11.6482
▁manipulation	-11.6483
▁Open	-11.6483
▁Brazilian	-11.6484
▁rug	-11.6485
▁vice	-11.6487
▁insert	-11.6489
▁Santa	-11.6489
▁carries	-11.6492
▁Steven	-11.6502
count	-11.6504
▁deepest	-11.6506
cultural	-11.6514
fulfilling	-11.6524
lux	-11.6529
locate	-11.655
▁recovered	-11.6554
▁pul	-11.6583
▁beep	-11.6586
pouring	-11.6592
▁submit	-11.6639
LT	-11.664
▁depict	-11.664
▁inexpensive	-11.664
▁sovereign	-11.664
▁achieving	-11.664
▁altogether	-11.664
▁analyzing	-11.664
▁calcium	-11.664
▁calculator	-11.664
▁immortal	-11.664
▁integration	-11.664
▁multiverse	-11.664
▁sensitivity	-11.664
▁turkey	-11.664
▁dismiss	-11.664
▁emergence	-11.664
▁encode	-11.664
▁invasion	-11.664
▁liberate	-11.664
▁mature	-11.664
▁drama	-11.6641
▁verge	-11.6641
▁shred	-11.6641
▁rival	-11.6642
▁derive	-11.6642
Work	-11.6644
▁visitors	-11.6644
▁Iranian	-11.6644
▁Mike	-11.6648
▁adaptive	-11.6649
effective	-11.6651
▁richest	-11.6659
▁accountable	-11.6666
▁greed	-11.6667
▁mantra	-11.6673
▁historically	-11.6676
▁paul	-11.6678
agan	-11.6685
▁dual	-11.6686
homas	-11.669
▁honesty	-11.6696
master	-11.6701
▁estimated	-11.6738
▁Walk	-11.6772
ebra	-11.6782
athlete	-11.6792
▁prosper	-11.6801
▁Palestinian	-11.6804
▁Tanzania	-11.6804
▁altruism	-11.6804
▁ambassador	-11.6804
▁conviction	-11.6804
▁fantasy	-11.6804
▁frequencies	-11.6804
▁identities	-11.6804
▁revelation	-11.6804
▁siblings	-11.6804
▁wavelength	-11.6804
Little	-11.6804
▁Saudi	-11.6804
▁collide	-11.6804
▁resort	-11.6804
▁violate	-11.6804
▁erect	-11.6804
▁essay	-11.6804
▁snail	-11.6804
phobic	-11.6804
▁imitate	-11.6804
▁spouse	-11.6804
▁impressed	-11.6804
▁logging	-11.6804
▁escalat	-11.6804
▁restrictions	-11.6805
ustria	-11.6805
▁wives	-11.6805
▁firing	-11.6805
▁cabinet	-11.6805
▁jesu	-11.6806
▁Alexander	-11.6807
▁breakdown	-11.6807
▁ease	-11.6807
▁lester	-11.6808
▁assembled	-11.6809
▁dragon	-11.6809
▁macro	-11.681
▁execution	-11.681
▁thermo	-11.6812
▁Ray	-11.6815
▁voters	-11.6817
▁inherited	-11.682
▁fog	-11.6823
▁spaceship	-11.6825
driven	-11.6829
▁worldview	-11.6837
▁martin	-11.6838
type	-11.6854
▁vegetable	-11.6861
▁ancestor	-11.6862
▁CD	-11.6864
▁brun	-11.687
▁digitize	-11.6871
▁expectation	-11.6898
▁buck	-11.6906
▁lump	-11.6918
▁grandma	-11.6929
aria	-11.693
▁Pop	-11.6947
▁numb	-11.6956
▁dim	-11.696
Ha	-11.6964
▁publisher	-11.6965
osphere	-11.697
agnostic	-11.697
responsibilities	-11.6971
ylvia	-11.6971
▁Afghan	-11.6971
▁Council	-11.6971
▁Gandhi	-11.6971
▁anesthesia	-11.6971
▁angiogenesis	-11.6971
▁bacterium	-11.6971
▁enthusiast	-11.6971
▁grocery	-11.6971
▁physiology	-11.6971
▁rectangle	-11.6971
▁regulator	-11.6971
▁superhero	-11.6971
▁tangible	-11.6971
▁unacceptable	-11.6971
▁undergraduate	-11.6971
▁widespread	-11.6971
▁yourselves	-11.6971
▁Bronx	-11.6971
▁gasoline	-11.6971
▁ladder	-11.6971
▁memorize	-11.6971
▁Ladies	-11.6971
▁preferences	-11.6971
▁Bell	-11.6971
▁snapshot	-11.6971
▁salmon	-11.6971
▁greek	-11.6971
▁squid	-11.6971
▁peek	-11.6971
▁polish	-11.6972
▁stereo	-11.6972
▁polymer	-11.6972
▁rigid	-11.6973
▁legend	-11.6974
▁delete	-11.6978
▁planner	-11.6979
radiat	-11.698
▁Whereas	-11.6982
▁conductor	-11.6983
▁colorful	-11.6987
▁dude	-11.6991
▁airline	-11.6997
▁france	-11.6998
▁capitalist	-11.6999
▁Moon	-11.7001
▁firsthand	-11.7001
▁louder	-11.7002
▁jf	-11.7007
ibera	-11.701
▁accelerated	-11.7013
iggs	-11.7015
child	-11.7015
▁conception	-11.7021
▁meantime	-11.7029
erek	-11.7055
▁plea	-11.7058
▁vocal	-11.708
position	-11.709
▁gentle	-11.7138
ietnam	-11.7139
▁abortion	-11.714
▁astronomy	-11.714
▁celebrating	-11.714
▁hypothetical	-11.714
▁incremental	-11.714
▁libraries	-11.714
▁reflex	-11.714
▁satisfaction	-11.714
▁seafood	-11.714
▁simplistic	-11.714
▁treasure	-11.714
▁Jeff	-11.714
▁Nelson	-11.714
▁oyster	-11.714
▁lazy	-11.714
▁depressing	-11.714
▁pricing	-11.714
▁abroad	-11.714
▁likelihood	-11.714
▁Dutch	-11.714
▁smash	-11.714
▁Henry	-11.714
▁unseen	-11.714
▁grammar	-11.714
▁Brian	-11.714
▁hallucinations	-11.714
▁bombsight	-11.7141
▁appreciation	-11.7141
▁Social	-11.7141
▁Army	-11.7142
midst	-11.7142
▁lord	-11.7142
▁Media	-11.7142
▁urgent	-11.7143
▁tilt	-11.7143
▁mike	-11.7143
▁employment	-11.7144
▁fungi	-11.7145
▁copper	-11.7145
▁Nico	-11.7145
▁Homo	-11.7146
▁daddy	-11.7146
▁pac	-11.7147
▁spite	-11.7147
abby	-11.7149
▁valve	-11.7149
▁spontaneously	-11.7151
▁Lake	-11.7153
▁Eight	-11.7157
product	-11.7159
▁Newton	-11.716
▁Korean	-11.716
▁erase	-11.7165
▁Howard	-11.7168
▁mama	-11.7171
▁affection	-11.7174
▁insisted	-11.7175
▁progression	-11.7177
▁altered	-11.7183
▁rented	-11.7187
▁ii	-11.7189
giving	-11.7197
write	-11.7203
▁antibiotic	-11.721
lead	-11.7235
rained	-11.7244
▁inherent	-11.7298
▁prosecut	-11.73
panish	-11.7306
berry	-11.7308
aribbean	-11.7312
▁Almost	-11.7312
▁County	-11.7312
▁Except	-11.7312
▁Indonesia	-11.7312
▁Twenty	-11.7312
▁affairs	-11.7312
▁anniversary	-11.7312
▁antidepressant	-11.7312
▁chemotherapy	-11.7312
▁compliment	-11.7312
▁confusion	-11.7312
▁crocodile	-11.7312
▁iPod	-11.7312
▁incomplete	-11.7312
▁larvae	-11.7312
▁loneliness	-11.7312
▁midnight	-11.7312
▁preparation	-11.7312
▁ultraviolet	-11.7312
▁unintended	-11.7312
▁Delhi	-11.7312
▁expense	-11.7312
▁mixture	-11.7312
▁shelves	-11.7312
▁anxious	-11.7312
▁scoop	-11.7312
▁neurogenesis	-11.7313
arvard	-11.7314
▁wax	-11.7314
▁singular	-11.7314
▁transferred	-11.7315
▁shade	-11.7317
▁stir	-11.7317
▁urbanization	-11.7318
▁Johnson	-11.7318
▁flock	-11.7319
▁reflective	-11.732
▁acceptance	-11.732
▁distraction	-11.7325
▁statistically	-11.7325
▁prosecutor	-11.7325
▁curl	-11.7329
▁economically	-11.7334
▁reuse	-11.7336
▁coup	-11.734
▁chill	-11.7343
▁thro	-11.7344
▁delighted	-11.7358
▁followers	-11.7368
▁AK	-11.7372
▁secondary	-11.7372
▁charter	-11.7376
shirt	-11.7383
section	-11.739
▁clap	-11.7391
wide	-11.7392
▁paris	-11.7394
▁hung	-11.7473
▁guilt	-11.7479
communica	-11.7486
▁orphan	-11.7486
▁Carolina	-11.7488
▁Mandela	-11.7488
▁Peace	-11.7488
▁Technology	-11.7488
▁beneficial	-11.7488
▁delusion	-11.7488
▁disabilities	-11.7488
▁distress	-11.7488
▁easiest	-11.7488
▁elbow	-11.7488
▁fireflies	-11.7488
▁participating	-11.7488
▁pessimist	-11.7488
▁powder	-11.7488
▁symphony	-11.7488
▁gulf	-11.7488
▁committee	-11.7488
▁deciding	-11.7488
▁mutant	-11.7488
▁nonviolen	-11.7488
▁anthropologist	-11.7488
▁racing	-11.7488
▁minimal	-11.7488
▁acute	-11.7488
▁locomotion	-11.7489
▁boyfriend	-11.7489
▁bolt	-11.749
▁hatred	-11.749
rthur	-11.749
▁inspect	-11.749
▁Shanghai	-11.749
▁constructive	-11.7492
▁impose	-11.7492
▁bass	-11.75
▁mustard	-11.7502
▁correlate	-11.7505
▁Roman	-11.7509
▁sali	-11.7516
▁displaced	-11.7516
▁rag	-11.7522
▁pier	-11.7523
▁Rand	-11.7524
▁crashes	-11.7524
▁Whatever	-11.7533
flat	-11.7534
▁computational	-11.7537
case	-11.7538
track	-11.7573
▁wander	-11.7576
AIDS	-11.7576
income	-11.7578
▁adore	-11.7602
glass	-11.7603
▁combin	-11.761
▁infect	-11.763
utu	-11.765
▁milo	-11.7655
▁sneak	-11.7663
▁assess	-11.7666
counterintuitive	-11.7666
iribati	-11.7666
▁Neanderthal	-11.7666
▁Suddenly	-11.7666
▁System	-11.7666
▁annoying	-11.7666
▁fuzzy	-11.7666
▁mycelium	-11.7666
▁numerous	-11.7666
▁pesticide	-11.7666
▁supreme	-11.7666
▁unpredictable	-11.7666
arnegie	-11.7666
▁recreate	-11.7666
▁velocity	-11.7666
▁degraded	-11.7666
▁venue	-11.7667
▁chalk	-11.7667
▁abnormal	-11.7667
▁Anybody	-11.7667
▁francisc	-11.7667
▁cooperative	-11.7667
▁slope	-11.7667
▁hammer	-11.7667
▁carrier	-11.7668
▁prescribe	-11.7668
▁Koran	-11.7668
▁digging	-11.7668
▁lamb	-11.7668
Tech	-11.7668
▁Year	-11.7669
▁consultant	-11.7669
▁kitten	-11.7669
▁accomplishment	-11.7669
▁ramp	-11.767
▁spear	-11.767
▁viewpoint	-11.7671
▁potent	-11.7672
▁Andrew	-11.7672
▁lobe	-11.7673
▁personalities	-11.7676
▁reache	-11.7691
▁ceo	-11.7699
▁vaccinat	-11.7699
traumatic	-11.7714
gill	-11.7725
▁torn	-11.7733
▁statistic	-11.7745
stitution	-11.7747
▁obstacle	-11.7755
uinea	-11.7759
▁regional	-11.7763
rabic	-11.7791
▁gig	-11.7821
▁recycle	-11.7821
▁heroic	-11.783
▁Ken	-11.783
▁diagnose	-11.7833
▁apparent	-11.7834
▁republic	-11.7845
▁encrypt	-11.7845
▁conserv	-11.7847
▁affirm	-11.7848
dinburgh	-11.7848
▁Brother	-11.7848
▁Bruno	-11.7848
▁anecdote	-11.7848
▁hurricane	-11.7848
▁migraine	-11.7848
▁nuclei	-11.7848
▁savanna	-11.7848
▁Rather	-11.7848
▁offshore	-11.7848
▁genital	-11.7848
▁thrust	-11.7848
▁Watch	-11.7848
▁sensing	-11.7848
▁benign	-11.7848
▁encyclopedia	-11.7848
▁overseas	-11.7849
▁Seattle	-11.7849
▁cellphone	-11.785
centric	-11.785
▁Lord	-11.7851
▁gait	-11.7851
▁billionaire	-11.7852
▁manifestation	-11.7853
▁Julia	-11.7853
▁heroin	-11.7861
▁flush	-11.7862
itten	-11.7867
▁Way	-11.7869
▁acceptable	-11.7872
▁eighth	-11.7887
Stop	-11.7887
risk	-11.7889
imb	-11.7894
▁coma	-11.7904
▁receiver	-11.7922
▁glu	-11.793
▁Came	-11.7934
profit	-11.7939
▁badge	-11.794
screen	-11.7968
▁measurement	-11.7975
Isn	-11.7977
▁displace	-11.8007
▁censor	-11.8033
▁import	-11.8033
msterdam	-11.8033
▁College	-11.8033
▁Government	-11.8033
▁Industrial	-11.8033
▁Jordan	-11.8033
▁approximately	-11.8033
▁bonobo	-11.8033
▁cholera	-11.8033
▁diminish	-11.8033
▁disadvantage	-11.8033
▁generosity	-11.8033
▁giraffe	-11.8033
▁guerrilla	-11.8033
▁immigrant	-11.8033
▁imperfect	-11.8033
▁janitor	-11.8033
▁metabolic	-11.8033
▁occupation	-11.8033
▁plankton	-11.8033
▁promising	-11.8033
▁qualified	-11.8033
▁resonance	-11.8033
▁soccer	-11.8033
▁spaghetti	-11.8033
▁sulfide	-11.8033
klahoma	-11.8033
▁November	-11.8033
▁clarity	-11.8033
▁drowning	-11.8033
▁pivot	-11.8033
▁temper	-11.8033
▁modified	-11.8033
▁synchronize	-11.8033
▁brainstorm	-11.8033
▁landfill	-11.8033
▁royal	-11.8033
▁choreograph	-11.8034
▁grape	-11.8034
▁backpack	-11.8034
▁timber	-11.8034
▁salary	-11.8034
▁william	-11.8034
▁battlefield	-11.8034
▁Lincoln	-11.8034
▁petals	-11.8034
▁Brooklyn	-11.8034
▁blindfold	-11.8035
▁throat	-11.8035
▁summary	-11.8035
▁trek	-11.8036
▁Cuba	-11.8036
▁blogger	-11.8037
▁shipped	-11.8038
yota	-11.8038
▁Ireland	-11.8039
▁Someone	-11.8042
▁Nick	-11.8043
▁puff	-11.8043
▁Coke	-11.8044
▁relie	-11.8071
Mart	-11.8075
Free	-11.8076
▁luc	-11.808
olomon	-11.8083
▁pickle	-11.8106
pelled	-11.811
▁optimize	-11.8116
apping	-11.8121
▁performer	-11.8131
▁folk	-11.8136
▁examine	-11.8137
▁whip	-11.8152
▁remov	-11.8159
walk	-11.8173
degree	-11.8176
▁evaluate	-11.819
pathy	-11.8218
▁egypt	-11.822
kyo	-11.8222
▁Accord	-11.8222
▁hobby	-11.8222
▁Catholic	-11.8222
▁Leonardo	-11.8222
▁clarify	-11.8222
▁enrich	-11.8222
▁entitled	-11.8222
▁ethanol	-11.8222
▁happiest	-11.8222
▁literacy	-11.8222
▁penalty	-11.8222
▁puberty	-11.8222
▁reproductive	-11.8222
▁surviving	-11.8222
▁measurabl	-11.8222
▁Swiss	-11.8222
▁minimize	-11.8222
▁uplift	-11.8222
▁mustache	-11.8222
atlantic	-11.8222
▁flexibility	-11.8222
▁pepper	-11.8222
▁replicator	-11.8223
▁resonate	-11.8223
▁marvelous	-11.8223
▁pearl	-11.8223
▁continuum	-11.8224
▁Gabby	-11.8224
▁jacket	-11.8225
▁occurring	-11.8226
▁clich	-11.8227
▁flex	-11.8227
▁posture	-11.823
▁Stone	-11.823
▁bj	-11.8231
▁Tony	-11.8247
politi	-11.8252
▁dug	-11.827
osi	-11.8292
▁rage	-11.8294
▁medic	-11.83
▁migrate	-11.8301
▁hatch	-11.8307
▁vaccinate	-11.8379
scribe	-11.8402
eynman	-11.8413
▁intrinsic	-11.8413
▁Hawaii	-11.8414
▁acceleration	-11.8414
▁administrator	-11.8414
▁delicate	-11.8414
▁ebola	-11.8414
▁epiphany	-11.8414
▁existential	-11.8414
▁helmet	-11.8414
▁incorporat	-11.8414
▁ingenuity	-11.8414
▁leopard	-11.8414
▁lesbian	-11.8414
▁peanut	-11.8414
▁perpetrator	-11.8414
▁pursuing	-11.8414
▁railroad	-11.8414
▁recognizing	-11.8414
▁remittance	-11.8414
▁resemble	-11.8414
▁sensible	-11.8414
▁stunning	-11.8414
▁supernova	-11.8414
▁unleash	-11.8414
▁whistling	-11.8414
▁wolves	-11.8414
▁nickname	-11.8414
▁reproduction	-11.8414
▁shuffle	-11.8414
▁meadow	-11.8414
▁Half	-11.8414
▁funeral	-11.8415
▁railway	-11.8415
▁forehead	-11.8415
angalore	-11.8415
▁alliance	-11.8415
▁Redwood	-11.8415
▁epic	-11.8415
▁Turk	-11.8415
▁motorcycle	-11.8415
▁nomad	-11.8415
▁pension	-11.8415
▁petition	-11.8416
▁Anyone	-11.8416
▁typeface	-11.8416
▁emergent	-11.8418
▁Nike	-11.8419
▁noticing	-11.8419
▁admitted	-11.842
▁viable	-11.842
▁bask	-11.842
quat	-11.8422
▁Show	-11.8426
▁randomness	-11.8432
▁reconcile	-11.8433
▁flute	-11.8434
▁MK	-11.8437
▁continuously	-11.8438
tti	-11.8447
▁snap	-11.8457
▁bob	-11.8544
▁expose	-11.8581
▁advent	-11.861
▁slaughter	-11.8611
▁Telescope	-11.8611
▁Together	-11.8611
▁activism	-11.8611
▁auditorium	-11.8611
▁calculating	-11.8611
▁cathedral	-11.8611
▁curtain	-11.8611
▁enthusiasm	-11.8611
▁evaporate	-11.8611
▁fundraising	-11.8611
▁observing	-11.8611
▁occupie	-11.8611
▁phoenix	-11.8611
▁playground	-11.8611
▁servant	-11.8611
▁stratosphere	-11.8611
▁substitute	-11.8611
▁surplus	-11.8611
▁testosterone	-11.8611
▁unsustainable	-11.8611
▁variability	-11.8611
▁visceral	-11.8611
▁Yemen	-11.8611
▁catalog	-11.8611
▁lettuce	-11.8611
▁liberation	-11.8611
▁technologist	-11.8611
▁withdraw	-11.8611
▁Berlin	-11.8611
▁mobilize	-11.8611
▁relieved	-11.8611
▁motto	-11.8611
▁shaping	-11.8611
▁suitcase	-11.8611
▁juggle	-11.8611
▁thunder	-11.8611
▁Kevin	-11.8611
▁entities	-11.8612
▁clapping	-11.8612
▁Switzerland	-11.8612
temporal	-11.8613
▁missile	-11.8613
▁notebook	-11.8613
▁referred	-11.8613
▁olive	-11.8615
▁Abraham	-11.8615
▁wetland	-11.8616
▁Hong	-11.8617
▁novelty	-11.8617
▁Alex	-11.8619
▁differentiate	-11.862
▁creepy	-11.8621
▁versa	-11.8622
speed	-11.8622
▁keen	-11.8624
▁TEDster	-11.8624
▁secretary	-11.8627
▁Stage	-11.863
lamic	-11.8631
culture	-11.8634
▁lenses	-11.8635
jc	-11.8642
▁beans	-11.8649
omics	-11.865
deci	-11.8659
attle	-11.8723
▁contaminat	-11.8737
irginia	-11.8738
▁nut	-11.875
▁Carl	-11.8765
▁lend	-11.8766
▁excite	-11.8779
▁oppos	-11.8783
▁authoritarian	-11.8792
directed	-11.8793
shift	-11.8807
ebruary	-11.8808
▁uncertain	-11.8809
ijing	-11.881
▁neglect	-11.8811
abbage	-11.8811
putnik	-11.8811
▁Clinton	-11.8811
▁Detroit	-11.8811
▁Mexican	-11.8811
▁Organization	-11.8811
▁Probably	-11.8811
▁Saturday	-11.8811
▁algebra	-11.8811
▁anatomy	-11.8811
▁applaud	-11.8811
▁conspiracy	-11.8811
▁galleries	-11.8811
▁grassroots	-11.8811
▁limestone	-11.8811
▁maintenance	-11.8811
▁meditation	-11.8811
▁pregnancy	-11.8811
▁prevalence	-11.8811
▁submersible	-11.8811
▁thirty	-11.8811
▁unnatural	-11.8811
▁virtuous	-11.8811
▁cultivate	-11.8811
▁prevail	-11.8811
▁uganda	-11.8811
osaurus	-11.8811
▁compact	-11.8811
▁orgasm	-11.8811
▁checklist	-11.8811
▁waterfall	-11.8811
▁scope	-11.8811
▁spawn	-11.8811
▁Coast	-11.8811
▁ghana	-11.8811
▁partially	-11.8811
▁Louis	-11.8811
arfur	-11.8811
▁dispute	-11.8811
▁aviation	-11.8811
ctober	-11.8811
▁Jupiter	-11.8811
▁superstar	-11.8812
▁Indus	-11.8812
▁outrageous	-11.8812
▁poker	-11.8814
▁outrage	-11.8814
▁circulation	-11.8815
built	-11.8817
▁PMS	-11.8818
▁recommendation	-11.8819
▁jury	-11.8819
▁stall	-11.882
▁stewar	-11.882
▁dwell	-11.882
▁Still	-11.8821
▁princess	-11.8821
▁proton	-11.8824
▁sexuality	-11.8827
▁SW	-11.8842
▁PR	-11.8842
▁USA	-11.8854
▁collector	-11.8883
Hol	-11.8905
▁symptom	-11.8945
conceived	-11.8952
other	-11.8962
▁northeast	-11.8983
cientific	-11.8993
▁creep	-11.9004
alapagos	-11.9015
ethoven	-11.9015
ittsburgh	-11.9015
sourcing	-11.9015
▁Development	-11.9015
▁Pretty	-11.9015
▁bandwidth	-11.9015
▁cartilage	-11.9015
▁deceive	-11.9015
▁equilibrium	-11.9015
▁eradication	-11.9015
▁exclude	-11.9015
▁fatigue	-11.9015
▁fountain	-11.9015
▁gratitude	-11.9015
▁hurdle	-11.9015
▁incarcerated	-11.9015
▁replied	-11.9015
▁syringe	-11.9015
▁tedtalk	-11.9015
▁thriving	-11.9015
enabling	-11.9015
▁Daniel	-11.9015
▁Watson	-11.9015
▁deplet	-11.9015
▁glory	-11.9015
▁undercover	-11.9015
▁Spring	-11.9015
▁lawsuit	-11.9015
▁regain	-11.9015
bladder	-11.9015
▁teapot	-11.9015
▁dentist	-11.9015
▁relativity	-11.9015
▁shuttle	-11.9015
▁Stephen	-11.9015
▁unveil	-11.9015
▁portray	-11.9015
▁censorship	-11.9015
▁curse	-11.9015
▁Jones	-11.9015
▁cease	-11.9016
▁Monterey	-11.9016
▁vacan	-11.9017
▁redwood	-11.9017
▁sync	-11.9017
▁knot	-11.9017
▁Singapore	-11.9018
▁Shakespeare	-11.9018
▁nicole	-11.9018
▁Atlanta	-11.9018
▁competent	-11.9018
▁Argentina	-11.9018
▁distinctive	-11.9019
▁payoff	-11.9024
gree	-11.9027
▁mapped	-11.903
quality	-11.9037
cycle	-11.9046
▁Matt	-11.9049
▁cardio	-11.905
▁deny	-11.9051
▁vietnam	-11.9052
▁introduc	-11.9064
bbing	-11.9073
▁quiz	-11.9076
▁ballet	-11.9076
chrom	-11.9079
ER	-11.9103
▁wool	-11.9114
▁democratize	-11.9126
▁employee	-11.9159
quarters	-11.918
▁straw	-11.92
▁literal	-11.9209
▁stole	-11.9212
▁jelly	-11.9223
Absolutely	-11.9223
enezuela	-11.9223
▁Security	-11.9223
▁Supreme	-11.9223
▁apprentice	-11.9223
▁approval	-11.9223
▁cafeteria	-11.9223
▁certificate	-11.9223
▁cumulative	-11.9223
▁dissolve	-11.9223
▁equator	-11.9223
▁exoplanet	-11.9223
▁foreground	-11.9223
▁grief	-11.9223
▁irrigation	-11.9223
▁mundane	-11.9223
▁nurturing	-11.9223
▁pervasive	-11.9223
▁quantities	-11.9223
▁rainbow	-11.9223
▁recipient	-11.9223
▁reclaim	-11.9223
▁submarine	-11.9223
▁violation	-11.9223
▁wetsuit	-11.9223
▁worthwhile	-11.9223
▁internship	-11.9223
▁cradle	-11.9223
▁Business	-11.9223
▁alpha	-11.9223
▁bluefin	-11.9223
▁aquatic	-11.9223
▁destructive	-11.9223
cotland	-11.9223
▁personnel	-11.9223
▁Iceland	-11.9223
Know	-11.9223
▁latin	-11.9223
▁obey	-11.9223
▁Geographic	-11.9223
▁gaze	-11.9223
▁envy	-11.9223
▁queue	-11.9224
▁haunt	-11.9224
▁Parkinson	-11.9224
▁submitted	-11.9225
▁announcement	-11.9225
▁texa	-11.9225
▁Feynman	-11.9225
▁disruptive	-11.9227
▁blanket	-11.9228
▁Aristotle	-11.9228
assuming	-11.9228
akota	-11.9231
▁uber	-11.9233
entrepreneurship	-11.9236
ubai	-11.9237
▁coward	-11.9245
appreciated	-11.9257
color	-11.9258
phone	-11.9261
structure	-11.9264
credit	-11.9265
three	-11.927
stepping	-11.9289
governmental	-11.9295
nathan	-11.9308
genesis	-11.9327
minded	-11.934
▁chick	-11.9434
incoln	-11.9435
categoriz	-11.9436
▁Society	-11.9436
▁adequate	-11.9436
▁adolescence	-11.9436
▁altruist	-11.9436
▁ancestry	-11.9436
▁astrolabe	-11.9436
▁astronomical	-11.9436
▁chuck	-11.9436
▁convenience	-11.9436
▁discrete	-11.9436
▁paralysis	-11.9436
▁penicillin	-11.9436
▁quantitative	-11.9436
▁synthesis	-11.9436
▁Civil	-11.9436
▁automated	-11.9436
▁rainfall	-11.9436
▁nuance	-11.9436
▁behaving	-11.9436
▁defect	-11.9436
▁radar	-11.9436
▁eager	-11.9436
▁windmill	-11.9436
▁ingenious	-11.9436
▁underpin	-11.9436
▁hollow	-11.9436
anthrop	-11.9436
vocation	-11.9436
▁IBM	-11.9436
▁niece	-11.9436
▁rude	-11.9436
▁inviting	-11.9436
▁oops	-11.9436
▁shove	-11.9437
▁crater	-11.9437
▁orphanage	-11.9438
Prince	-11.9438
aldives	-11.9438
▁incidentally	-11.9439
▁criticism	-11.9439
▁drip	-11.944
▁tipping	-11.9441
▁April	-11.9441
corps	-11.9442
▁entity	-11.9443
▁misuse	-11.9446
▁Cape	-11.9446
▁Rick	-11.945
biotic	-11.9453
▁handsome	-11.9453
▁thus	-11.9453
▁toughest	-11.9454
nike	-11.9471
▁contractor	-11.9485
script	-11.9485
ranging	-11.9492
sensitive	-11.9497
▁bark	-11.9545
▁statistical	-11.9648
pril	-11.9648
▁ox	-11.9649
▁psychiatri	-11.9649
anuary	-11.9652
▁automatic	-11.9653
espite	-11.9653
assachusetts	-11.9653
▁Greece	-11.9653
▁ambiguity	-11.9653
▁analytical	-11.9653
▁bronze	-11.9653
▁confusing	-11.9653
▁gigantic	-11.9653
▁homosexual	-11.9653
▁hypotheses	-11.9653
▁laundry	-11.9653
▁microsoft	-11.9653
▁quantity	-11.9653
▁suspicious	-11.9653
▁unfinished	-11.9653
▁yogurt	-11.9653
colonial	-11.9653
▁horrific	-11.9653
▁hurry	-11.9653
▁bloom	-11.9653
▁Trade	-11.9653
▁superior	-11.9653
induced	-11.9653
▁warfare	-11.9653
▁gossip	-11.9653
▁humankind	-11.9653
▁Jews	-11.9653
scatter	-11.9653
▁blunt	-11.9653
argaret	-11.9653
▁sought	-11.9654
▁History	-11.9655
▁hawk	-11.9655
▁optimist	-11.9655
▁roost	-11.9655
▁Copenhagen	-11.9655
▁stink	-11.9655
tolerant	-11.9655
rizon	-11.9655
▁temptation	-11.9656
▁hallway	-11.9657
▁courageous	-11.9658
▁seawater	-11.9658
▁persistent	-11.9658
▁marrow	-11.9658
▁owl	-11.9659
▁rome	-11.966
▁Kong	-11.9661
▁rejection	-11.9662
▁hover	-11.9662
▁clash	-11.9663
▁flop	-11.9663
▁volcanoes	-11.9663
▁maze	-11.9664
▁JF	-11.9666
▁Music	-11.9668
▁vow	-11.9669
▁coding	-11.967
▁weave	-11.9678
shaped	-11.9728
mmm	-11.9761
wept	-11.9763
▁Arabia	-11.9805
▁constitu	-11.9817
▁implication	-11.9824
posi	-11.9842
▁franc	-11.9846
▁thrill	-11.9849
▁circulat	-11.9871
anhattan	-11.9873
▁Academy	-11.9875
▁Berkeley	-11.9875
▁Jerusalem	-11.9875
▁Journal	-11.9875
▁astounding	-11.9875
▁beloved	-11.9875
▁catastrophic	-11.9875
▁daunting	-11.9875
▁declining	-11.9875
▁eyebrow	-11.9875
▁imaginary	-11.9875
▁intricate	-11.9875
▁lightweight	-11.9875
▁mortgage	-11.9875
▁nectar	-11.9875
▁pheromone	-11.9875
▁scuba	-11.9875
▁synesthesia	-11.9875
▁unemployed	-11.9875
▁unemployment	-11.9875
▁Office	-11.9875
▁curator	-11.9875
▁fierce	-11.9875
▁pharma	-11.9875
▁vegetation	-11.9875
▁rotating	-11.9875
▁uncover	-11.9875
▁duration	-11.9875
▁parameters	-11.9875
▁Disney	-11.9875
▁ideological	-11.9875
▁Teach	-11.9875
▁distill	-11.9875
▁bulk	-11.9876
▁detach	-11.9876
▁erotic	-11.9876
▁supercomputer	-11.9876
▁Benjamin	-11.9876
▁geometric	-11.9876
▁crust	-11.9876
▁beaver	-11.9877
▁citizenship	-11.9877
▁portable	-11.9877
harlie	-11.9878
▁Water	-11.9879
▁standpoint	-11.9879
▁urine	-11.988
▁comparable	-11.9882
▁Arthur	-11.9882
▁similarities	-11.9886
nanometer	-11.9888
▁LG	-11.9888
▁teddy	-11.9889
▁expressive	-11.989
▁linguistic	-11.9934
▁optimal	-11.9955
material	-11.9979
percent	-11.9987
spiring	-12.0006
enberg	-12.0028
▁snapp	-12.0058
osetta	-12.0065
▁spontaneous	-12.0088
▁societ	-12.009
▁compass	-12.01
aliban	-12.01
▁afghan	-12.0103
▁Education	-12.0103
▁Mumbai	-12.0103
▁SETI	-12.0103
▁accompanie	-12.0103
▁capacities	-12.0103
▁compatible	-12.0103
▁complication	-12.0103
▁conscience	-12.0103
▁deprive	-12.0103
▁devastated	-12.0103
▁estrogen	-12.0103
▁improbable	-12.0103
▁league	-12.0103
▁malnutrition	-12.0103
▁microscopic	-12.0103
▁policing	-12.0103
▁pronounce	-12.0103
▁reservation	-12.0103
▁shield	-12.0103
▁simplify	-12.0103
▁stubborn	-12.0103
▁tadpole	-12.0103
▁terrestrial	-12.0103
▁thorough	-12.0103
▁unequal	-12.0103
▁Computer	-12.0103
▁FDA	-12.0103
▁NSA	-12.0103
▁doodle	-12.0103
▁dreadful	-12.0103
▁hyena	-12.0103
▁invasive	-12.0103
▁neurological	-12.0103
▁toddler	-12.0103
▁mysteries	-12.0103
▁melody	-12.0103
▁harass	-12.0103
▁divine	-12.0103
▁Edward	-12.0103
esteem	-12.0103
▁tennis	-12.0103
▁prophet	-12.0103
▁permit	-12.0103
▁foragers	-12.0103
▁buzz	-12.0103
▁interfere	-12.0103
▁fox	-12.0104
▁restoration	-12.0104
▁canyon	-12.0104
▁statistician	-12.0105
▁erupt	-12.0105
▁electromagnetic	-12.0105
▁thou	-12.0106
▁arctic	-12.0106
▁innate	-12.0107
▁iteration	-12.0107
▁cubicle	-12.0108
amuel	-12.0109
▁bunk	-12.0109
▁tourism	-12.0109
▁undermine	-12.0111
ocratic	-12.0114
▁cough	-12.0117
▁Read	-12.0119
preserv	-12.0125
xford	-12.0125
▁generalize	-12.0128
▁optim	-12.0143
imposed	-12.0212
operated	-12.0213
Thank	-12.0229
watch	-12.0229
▁dragge	-12.0229
controlled	-12.023
contacted	-12.0287
▁announce	-12.0304
emission	-12.0313
▁potato	-12.0328
tanford	-12.0331
▁Mount	-12.0335
▁embryo	-12.0335
▁Apollo	-12.0335
▁Bhutan	-12.0335
▁Eventually	-12.0335
▁McDonald	-12.0335
▁Public	-12.0335
▁census	-12.0335
▁commodities	-12.0335
▁companion	-12.0335
▁excerpt	-12.0335
▁hazard	-12.0335
▁imaginative	-12.0335
▁immigration	-12.0335
▁implicit	-12.0335
▁injustice	-12.0335
▁motivator	-12.0335
▁nucleus	-12.0335
▁paintbrush	-12.0335
▁perceptual	-12.0335
▁subconscious	-12.0335
▁supplement	-12.0335
rogue	-12.0335
▁embark	-12.0335
▁Natural	-12.0335
▁ipod	-12.0335
▁tweak	-12.0335
▁inertia	-12.0336
▁grind	-12.0336
▁stiff	-12.0336
▁skepticism	-12.0336
▁Columbia	-12.0337
▁Milk	-12.0337
▁italian	-12.0337
▁replacing	-12.0337
ennessee	-12.0337
▁biotech	-12.0338
▁terminal	-12.0338
▁pollute	-12.0338
leanor	-12.0339
▁portal	-12.034
▁republican	-12.034
▁grassland	-12.034
▁beast	-12.034
▁dependence	-12.0341
▁nitr	-12.0341
▁remark	-12.0343
▁Light	-12.0343
ummy	-12.0343
▁rover	-12.0344
▁Chang	-12.0345
▁reconnect	-12.0346
phin	-12.0352
Having	-12.0364
▁Jane	-12.0374
▁characterize	-12.042
heated	-12.0442
piece	-12.0485
million	-12.0486
frame	-12.0486
species	-12.0488
▁basi	-12.0558
▁frequent	-12.0559
arcus	-12.0568
▁Republic	-12.057
ambridge	-12.057
▁cabin	-12.0571
Elizabeth	-12.0573
anbanisha	-12.0573
▁Canadian	-12.0573
▁Fortunately	-12.0573
▁Hospital	-12.0573
▁Lebanon	-12.0573
▁arithmetic	-12.0573
▁automotive	-12.0573
▁epidemiolog	-12.0573
▁excellence	-12.0573
▁florid	-12.0573
▁graffiti	-12.0573
▁humiliation	-12.0573
▁infrared	-12.0573
▁jewelry	-12.0573
▁juggling	-12.0573
▁maximize	-12.0573
▁negotiating	-12.0573
▁oblivio	-12.0573
▁prevalent	-12.0573
▁relevance	-12.0573
▁revenge	-12.0573
▁sediment	-12.0573
▁unthinkable	-12.0573
▁urgency	-12.0573
evident	-12.0573
tarbucks	-12.0573
▁attorney	-12.0573
▁underwear	-12.0573
▁Craig	-12.0573
▁modify	-12.0573
▁arteries	-12.0573
kansas	-12.0573
▁zoning	-12.0573
▁instructor	-12.0574
▁joking	-12.0574
▁fluctuations	-12.0574
▁Netherlands	-12.0574
▁glorious	-12.0574
▁Kids	-12.0574
▁Fund	-12.0575
▁chemo	-12.0575
▁Philadelphia	-12.0575
▁buddy	-12.0575
▁egyptian	-12.0575
▁shoreline	-12.0576
▁entrepreneurial	-12.0576
▁Wright	-12.0578
▁misery	-12.0578
▁edited	-12.0579
▁vase	-12.0579
▁guardian	-12.0579
▁Laden	-12.058
▁skate	-12.058
▁Harry	-12.0582
▁Marine	-12.0583
▁tolerate	-12.0587
▁swam	-12.061
▁hike	-12.061
▁weep	-12.0729
writing	-12.0751
social	-12.0751
model	-12.0755
high	-12.0756
▁replica	-12.0769
▁tempt	-12.0779
▁stab	-12.0793
urgeon	-12.0797
ristotle	-12.0812
ahmoud	-12.0817
▁Christopher	-12.0817
▁Joseph	-12.0817
▁Library	-12.0817
▁arriving	-12.0817
▁charities	-12.0817
▁contributor	-12.0817
▁cyclist	-12.0817
▁deprivation	-12.0817
▁disparate	-12.0817
▁embodied	-12.0817
▁incubator	-12.0817
▁insecure	-12.0817
▁intangible	-12.0817
▁psychic	-12.0817
▁retrofit	-12.0817
▁rigorous	-12.0817
▁superconductor	-12.0817
▁sympathy	-12.0817
▁worries	-12.0817
▁Jersey	-12.0817
▁literary	-12.0817
▁widow	-12.0817
uatemala	-12.0817
▁Sarah	-12.0817
▁doubling	-12.0817
▁sponge	-12.0817
▁starving	-12.0817
▁gorilla	-12.0817
▁crises	-12.0817
▁auction	-12.0817
▁bypass	-12.0817
archie	-12.0817
▁prompt	-12.0817
▁uprising	-12.0818
▁foam	-12.0818
▁biomaterial	-12.0818
▁tether	-12.0818
▁loyalty	-12.0818
▁pluck	-12.0818
▁Luther	-12.0819
▁Mozart	-12.0819
▁swear	-12.0819
▁theorem	-12.0819
▁decode	-12.0819
agged	-12.0819
▁aspire	-12.0819
▁Medicine	-12.082
▁Goals	-12.082
▁Sound	-12.082
▁Charlie	-12.082
▁Greenland	-12.0821
▁attendance	-12.0821
▁porn	-12.0823
upiter	-12.0828
replicating	-12.0837
▁inflate	-12.084
▁Opera	-12.0848
apanese	-12.0858
▁conceive	-12.0893
▁slot	-12.0903
ogi	-12.0974
Africa	-12.1021
▁browse	-12.1058
disturbed	-12.1063
ebastian	-12.1067
ennifer	-12.1067
ibonacci	-12.1067
▁Alaska	-12.1067
▁Kennedy	-12.1067
▁Suppose	-12.1067
▁accelerator	-12.1067
▁accommodate	-12.1067
▁ambiguous	-12.1067
▁apparatus	-12.1067
▁comprehensive	-12.1067
▁eliminating	-12.1067
▁guidance	-12.1067
▁horrified	-12.1067
▁memorable	-12.1067
▁miraculous	-12.1067
▁pantheon	-12.1067
▁radius	-12.1067
▁sapiens	-12.1067
▁tobacco	-12.1067
▁treadmill	-12.1067
▁turbine	-12.1067
▁zodiac	-12.1067
nceladus	-12.1067
▁disseminat	-12.1067
▁gamble	-12.1067
▁narciss	-12.1067
▁psyche	-12.1067
▁racism	-12.1067
▁reckless	-12.1067
▁brute	-12.1067
Student	-12.1067
▁Cyrus	-12.1067
▁Sierra	-12.1067
▁converge	-12.1067
▁unaware	-12.1067
▁strive	-12.1067
▁turbo	-12.1067
▁audition	-12.1067
▁hippie	-12.1067
▁initiate	-12.1067
▁nanotechnology	-12.1067
▁nico	-12.1068
▁fringe	-12.1068
▁sterile	-12.1068
legged	-12.1068
▁millennium	-12.1068
▁Pennsylvania	-12.1068
▁Montana	-12.1069
▁Monday	-12.1069
▁ecologist	-12.1069
▁Tokyo	-12.1069
▁intrinsically	-12.1069
▁crisp	-12.1069
▁Nepal	-12.1069
▁rooftop	-12.1069
▁Thailand	-12.107
avail	-12.107
▁burial	-12.107
▁pathetic	-12.107
▁waist	-12.107
roadmoor	-12.1074
▁Alice	-12.1074
smith	-12.1076
▁sunset	-12.1078
▁carolin	-12.108
▁packet	-12.1089
▁constitute	-12.1133
▁seize	-12.1135
Find	-12.1178
▁semina	-12.1191
storing	-12.1204
onnie	-12.1263
commissioned	-12.1284
▁confuse	-12.1294
▁Pete	-12.1305
▁Philip	-12.1308
▁cooper	-12.1313
hakespeare	-12.132
▁intellect	-12.1323
▁refresh	-12.1324
▁ruthless	-12.1324
ajmuddin	-12.1324
regulating	-12.1324
▁Jefferson	-12.1324
▁aerodynamic	-12.1324
▁arrogant	-12.1324
▁butterfly	-12.1324
▁congratulations	-12.1324
▁convincing	-12.1324
▁cruise	-12.1324
▁decipher	-12.1324
▁educating	-12.1324
▁efficacy	-12.1324
▁elizabeth	-12.1324
▁embarrassment	-12.1324
▁empirical	-12.1324
▁facilitate	-12.1324
▁hygiene	-12.1324
▁impaired	-12.1324
▁infinity	-12.1324
▁integral	-12.1324
▁knitting	-12.1324
▁marginalized	-12.1324
▁marshmallow	-12.1324
▁pediatric	-12.1324
▁periphery	-12.1324
▁presumably	-12.1324
▁puncture	-12.1324
▁reptile	-12.1324
▁tactics	-12.1324
▁toothbrush	-12.1324
▁tuberculosis	-12.1324
▁RNA	-12.1324
▁Tunisia	-12.1324
▁clinton	-12.1324
▁debris	-12.1324
▁shrunk	-12.1324
▁tectonic	-12.1324
▁knob	-12.1324
▁naught	-12.1324
▁hunch	-12.1324
▁southwest	-12.1324
▁Bosnia	-12.1324
▁Therefore	-12.1324
▁spoil	-12.1324
▁revolt	-12.1324
▁geological	-12.1324
▁casualties	-12.1324
▁mourn	-12.1324
▁verify	-12.1324
▁agile	-12.1325
▁saint	-12.1325
▁Hubble	-12.1325
▁Georgia	-12.1325
▁blush	-12.1325
▁paragraph	-12.1325
▁resurrection	-12.1326
▁ipad	-12.1326
▁rabbits	-12.1327
▁Simon	-12.1329
▁assert	-12.1331
olorado	-12.1359
contaminated	-12.1419
▁revolutionize	-12.143
▁zap	-12.1434
▁discriminate	-12.1438
▁fisc	-12.1496
▁feat	-12.1496
brain	-12.1512
stretched	-12.1554
braham	-12.1581
hanghai	-12.1583
ingapore	-12.1583
funded	-12.1583
angladesh	-12.1584
security	-12.1584
burn	-12.1585
wrestling	-12.1587
▁Association	-12.1587
▁Phoenix	-12.1587
▁PowerPoint	-12.1587
▁acronym	-12.1587
▁appetite	-12.1587
▁astonished	-12.1587
▁asylum	-12.1587
▁avenue	-12.1587
▁barbershop	-12.1587
▁carcinogen	-12.1587
▁charcoal	-12.1587
▁decentralized	-12.1587
▁gecko	-12.1587
▁mammogram	-12.1587
▁municipal	-12.1587
▁neurologist	-12.1587
▁ozone	-12.1587
▁pragmatic	-12.1587
▁provoke	-12.1587
▁redemption	-12.1587
▁rediscover	-12.1587
▁respiratory	-12.1587
▁secular	-12.1587
▁simulator	-12.1587
▁tanzania	-12.1587
▁taxpayer	-12.1587
▁tropics	-12.1587
▁unnecessary	-12.1587
▁utilitarian	-12.1587
▁varieties	-12.1587
▁volcani	-12.1587
▁Everest	-12.1587
▁praise	-12.1587
▁proposing	-12.1587
▁tiniest	-12.1587
▁vicious	-12.1587
▁Kingdom	-12.1587
▁Tibet	-12.1587
▁Norden	-12.1587
▁fungus	-12.1587
▁Somalia	-12.1587
▁Sudan	-12.1587
▁Liberia	-12.1587
▁Libya	-12.1587
▁metropolitan	-12.1587
▁Learn	-12.1587
▁Tower	-12.1587
▁disperse	-12.1587
▁courtyard	-12.1588
▁fond	-12.1588
▁packaging	-12.1588
▁shaman	-12.1588
reviewed	-12.1588
▁shack	-12.1589
▁arose	-12.159
▁methodology	-12.159
imitri	-12.1591
▁kidnap	-12.1601
▁Treat	-12.1615
▁orient	-12.1666
fashioned	-12.1771
Hmm	-12.1836
etween	-12.1855
▁Fifty	-12.1857
adagascar	-12.1857
amiflu	-12.1857
disciplinary	-12.1857
▁Buddha	-12.1857
▁Building	-12.1857
▁CRISPR	-12.1857
▁Cambodia	-12.1857
▁Consider	-12.1857
▁Interestingly	-12.1857
▁Joshua	-12.1857
▁Linux	-12.1857
▁Nairobi	-12.1857
▁Similarly	-12.1857
▁Swedish	-12.1857
▁Thirty	-12.1857
▁admission	-12.1857
▁athletic	-12.1857
▁bioluminescence	-12.1857
▁catalyst	-12.1857
▁crochet	-12.1857
▁degradation	-12.1857
▁discharge	-12.1857
▁energetic	-12.1857
▁foremost	-12.1857
▁humiliate	-12.1857
▁hummingbird	-12.1857
▁jealous	-12.1857
▁microprocessor	-12.1857
▁napkin	-12.1857
▁orangutan	-12.1857
▁overlooked	-12.1857
▁paleontologist	-12.1857
▁physiological	-12.1857
▁pneumonia	-12.1857
▁smuggle	-12.1857
▁temporarily	-12.1857
▁troubling	-12.1857
▁subtract	-12.1857
▁falcon	-12.1857
▁mangrove	-12.1857
▁forensic	-12.1857
▁wilderness	-12.1857
▁shiny	-12.1857
▁measles	-12.1857
▁Canyon	-12.1857
▁tenderness	-12.1857
decisive	-12.1857
▁scalable	-12.1857
▁anomaly	-12.1857
▁sociologist	-12.1857
▁gently	-12.1857
▁draft	-12.1857
▁preservation	-12.1857
▁biography	-12.1857
▁instability	-12.1857
▁geese	-12.1858
▁puppy	-12.1858
▁venus	-12.1858
proving	-12.1858
▁excel	-12.1858
▁discourse	-12.1858
▁fingerprint	-12.1859
▁webcam	-12.1859
prehensi	-12.1859
▁albert	-12.186
▁syria	-12.1861
▁encryption	-12.1861
▁chile	-12.1862
ecember	-12.1868
▁moderate	-12.1872
▁Bern	-12.1874
imming	-12.1875
▁tease	-12.2013
▁poppe	-12.206
▁skeptic	-12.2063
▁sentiment	-12.2064
ietnamese	-12.2086
guided	-12.2089
▁amaze	-12.2106
▁disturb	-12.2107
▁inherit	-12.2108
troop	-12.2115
lzheimer	-12.2129
▁Univers	-12.2132
onterey	-12.2134
▁sensual	-12.2135
aisuddin	-12.2135
lvetica	-12.2135
▁Clearly	-12.2135
▁Defense	-12.2135
▁Empire	-12.2135
▁Michigan	-12.2135
▁Namibia	-12.2135
▁Step	-12.2135
▁Stewart	-12.2135
▁anonymity	-12.2135
▁arbitrary	-12.2135
▁balancing	-12.2135
▁balcony	-12.2135
▁bumblebee	-12.2135
▁communal	-12.2135
▁desirable	-12.2135
▁dyslexic	-12.2135
▁filament	-12.2135
▁mammography	-12.2135
▁miniaturization	-12.2135
▁mismatch	-12.2135
▁plague	-12.2135
▁puzzling	-12.2135
▁relauncher	-12.2135
▁solidarity	-12.2135
▁subsequent	-12.2135
▁template	-12.2135
▁vibrating	-12.2135
▁decoration	-12.2135
▁enlist	-12.2135
▁iPad	-12.2135
▁Garden	-12.2135
▁anthropology	-12.2135
▁Movement	-12.2135
▁pennies	-12.2135
▁residu	-12.2135
▁sniff	-12.2135
▁pollinate	-12.2135
▁holistic	-12.2135
▁sermon	-12.2135
▁staple	-12.2135
▁snob	-12.2135
▁dried	-12.2135
▁resign	-12.2135
▁indulge	-12.2136
▁subscribe	-12.2136
▁robert	-12.2136
▁fax	-12.2137
▁liking	-12.2138
▁residential	-12.2138
▁mutate	-12.2141
dragging	-12.2151
▁socio	-12.2158
transformational	-12.2175
Would	-12.2179
Good	-12.218
appropriate	-12.218
market	-12.2186
sound	-12.2188
axis	-12.2208
▁restrain	-12.2218
▁illustrat	-12.2307
centered	-12.2321
▁contradict	-12.2412
▁hallucinat	-12.242
imbabwe	-12.242
▁engulf	-12.242
ancouver	-12.242
▁Buddhist	-12.242
▁CMU	-12.242
▁Colombia	-12.242
▁Environment	-12.242
▁Kepler	-12.242
▁amplify	-12.242
▁anticipation	-12.242
▁centigrade	-12.242
▁cerebral	-12.242
▁comprised	-12.242
▁cosmetic	-12.242
▁deceased	-12.242
▁disbelief	-12.242
▁eBay	-12.242
▁exhilarating	-12.242
▁hardwired	-12.242
▁pollinators	-12.242
▁prejudice	-12.242
▁pristine	-12.242
▁ridicule	-12.242
▁solitary	-12.242
▁sweetheart	-12.242
▁tactile	-12.242
▁unpleasant	-12.242
▁uranium	-12.242
▁vegetarian	-12.242
▁Climate	-12.242
▁Country	-12.242
▁heartbeat	-12.242
▁retrospect	-12.242
▁thermostat	-12.242
▁rifle	-12.242
▁underdog	-12.242
▁erosion	-12.2421
▁glance	-12.2421
▁width	-12.2421
ugging	-12.2421
▁ninth	-12.2421
Wonder	-12.2421
▁abalone	-12.2421
▁biodegrad	-12.2421
▁Tesla	-12.2421
▁christoph	-12.2421
▁dutch	-12.2421
▁Small	-12.2421
▁ballast	-12.2421
▁Lagos	-12.2421
▁biotechnology	-12.2421
▁absent	-12.2421
▁mainframe	-12.2421
▁ignite	-12.2422
▁Large	-12.2422
▁dining	-12.2422
▁Himalaya	-12.243
tius	-12.2434
▁circumstance	-12.2436
resolution	-12.2491
educated	-12.2491
Every	-12.2493
people	-12.2494
▁inhale	-12.2495
nfl	-12.2503
cottish	-12.2532
bearing	-12.254
adulter	-12.2616
▁releas	-12.2643
▁marrie	-12.2694
freaking	-12.2702
▁mortal	-12.2712
▁acquir	-12.2713
njamin	-12.2714
▁Yellow	-12.2715
▁complement	-12.2715
composite	-12.2715
ississippi	-12.2715
ortuguese	-12.2715
▁Norwegian	-12.2715
▁OECD	-12.2715
▁Portugal	-12.2715
▁Usually	-12.2715
▁adjacent	-12.2715
▁annoyed	-12.2715
▁auditory	-12.2715
▁broadband	-12.2715
▁ceramic	-12.2715
▁certified	-12.2715
▁deflect	-12.2715
▁disclose	-12.2715
▁divergence	-12.2715
▁dividing	-12.2715
▁embassy	-12.2715
▁fertility	-12.2715
▁horrifying	-12.2715
▁hydrant	-12.2715
▁inadequate	-12.2715
▁inorganic	-12.2715
▁leonard	-12.2715
▁lexicon	-12.2715
▁liberating	-12.2715
▁lithium	-12.2715
▁nudge	-12.2715
▁obscure	-12.2715
▁recyclable	-12.2715
▁regenerative	-12.2715
▁repertoire	-12.2715
▁seizure	-12.2715
▁sophistication	-12.2715
▁sprawl	-12.2715
▁sulfur	-12.2715
▁tibet	-12.2715
▁unhealthy	-12.2715
▁unlimited	-12.2715
▁upstairs	-12.2715
▁competence	-12.2715
▁fission	-12.2715
▁imitation	-12.2715
▁judging	-12.2715
▁vapor	-12.2715
▁invisibility	-12.2715
▁lymph	-12.2715
▁racist	-12.2715
▁varied	-12.2715
▁ALS	-12.2715
▁primal	-12.2715
▁apollo	-12.2715
▁Food	-12.2715
▁seamless	-12.2715
▁Princeton	-12.2715
▁drank	-12.2715
▁enact	-12.2715
▁Grow	-12.2715
▁jerk	-12.2715
▁damaging	-12.2715
▁goggles	-12.2715
▁comedian	-12.2716
▁begging	-12.2716
▁freshwater	-12.2716
▁lyric	-12.2717
nthony	-12.2718
▁avian	-12.2718
▁resume	-12.272
rushed	-12.2721
▁untie	-12.2735
▁collaborat	-12.276
▁Crea	-12.2764
cule	-12.2789
rmeer	-12.2807
performing	-12.2814
nature	-12.2888
lateral	-12.2903
▁ambien	-12.2904
▁dominate	-12.2988
▁migrat	-12.2999
rgentina	-12.3012
lexander	-12.3012
▁resurrect	-12.3015
hiladelphia	-12.3015
▁marvel	-12.3017
▁Secretary	-12.3018
disproportionate	-12.3018
▁Jamaica	-12.3018
▁Kansas	-12.3018
▁Orleans	-12.3018
▁advancing	-12.3018
▁adversity	-12.3018
▁appointment	-12.3018
▁bargain	-12.3018
▁bipolar	-12.3018
▁browsing	-12.3018
▁capsule	-12.3018
▁chariot	-12.3018
▁cheetah	-12.3018
▁cockpit	-12.3018
▁constellation	-12.3018
▁cyborg	-12.3018
▁diffuse	-12.3018
▁facade	-12.3018
▁fascination	-12.3018
▁framing	-12.3018
▁illiterate	-12.3018
▁innocence	-12.3018
▁irregular	-12.3018
▁legitimacy	-12.3018
▁maggots	-12.3018
▁ministry	-12.3018
▁pajama	-12.3018
▁pavilion	-12.3018
▁propeller	-12.3018
▁prostitute	-12.3018
▁prototyping	-12.3018
▁quadruple	-12.3018
▁salamander	-12.3018
▁sampling	-12.3018
▁scissors	-12.3018
▁scribble	-12.3018
▁semester	-12.3018
▁sequel	-12.3018
▁skyscraper	-12.3018
▁stunned	-12.3018
▁swollen	-12.3018
▁unbelievably	-12.3018
▁unfamiliar	-12.3018
▁vague	-12.3018
▁carpenter	-12.3018
▁crux	-12.3018
▁dialect	-12.3018
▁drowned	-12.3018
▁gandhi	-12.3018
▁nevertheless	-12.3018
▁revisit	-12.3018
rchimedes	-12.3018
▁animated	-12.3018
▁cobra	-12.3018
▁blaming	-12.3018
▁dictate	-12.3018
▁ultrasound	-12.3018
▁yep	-12.3018
▁Royal	-12.3018
▁Siberia	-12.3018
▁scandal	-12.3018
▁Word	-12.3018
▁helix	-12.3018
▁Tele	-12.3018
▁salad	-12.3018
▁squeak	-12.3018
alactic	-12.3019
▁wiring	-12.3019
▁aisle	-12.3022
▁Brit	-12.3022
oxide	-12.3026
Dead	-12.3136
figure	-12.3148
specific	-12.3149
positive	-12.315
learn	-12.315
control	-12.3156
▁loyal	-12.3329
▁Kosovo	-12.333
▁Service	-12.333
▁acquisition	-12.333
▁communism	-12.333
▁communist	-12.333
▁desperation	-12.333
▁detriment	-12.333
▁diabetic	-12.333
▁disposal	-12.333
▁elastic	-12.333
▁elusive	-12.333
▁enslave	-12.333
▁frown	-12.333
▁hectares	-12.333
▁hominid	-12.333
▁immunity	-12.333
▁insignificant	-12.333
▁intestine	-12.333
▁investigating	-12.333
▁misunderstood	-12.333
▁nursing	-12.333
▁oppression	-12.333
▁perpetual	-12.333
▁plasma	-12.333
▁provision	-12.333
▁reimagine	-12.333
▁scrub	-12.333
▁solvable	-12.333
▁squirrel	-12.333
▁stakeholder	-12.333
▁supplier	-12.333
▁trajectories	-12.333
▁veterinarian	-12.333
▁vibrant	-12.333
▁wizard	-12.333
▁Chuck	-12.333
▁Denmark	-12.333
▁Recently	-12.333
▁deconstruct	-12.333
▁determining	-12.333
▁kosov	-12.333
▁monopoly	-12.333
▁Diego	-12.333
▁bedrock	-12.333
▁modification	-12.333
▁wingspan	-12.333
▁radiologist	-12.333
▁whack	-12.333
▁artisan	-12.333
▁SMS	-12.333
▁proxy	-12.333
▁stockpile	-12.333
▁availability	-12.333
▁guidelines	-12.333
▁Cultur	-12.333
▁plunge	-12.333
▁impatient	-12.333
▁seductive	-12.333
▁sushi	-12.3331
▁Nathan	-12.3331
▁costume	-12.3331
▁kidnapped	-12.3331
▁anchor	-12.3332
▁savor	-12.3332
▁Fast	-12.3333
ozart	-12.3339
▁cavit	-12.3352
▁schema	-12.337
▁nominat	-12.3375
▁Merc	-12.3408
function	-12.3478
solving	-12.3493
▁relat	-12.3562
▁demonstrat	-12.3579
▁ensu	-12.3616
▁cubic	-12.3645
tlanta	-12.3651
▁Francis	-12.3651
▁bankrupt	-12.3653
▁brigade	-12.3653
▁consequent	-12.3653
▁plural	-12.3653
▁twenty	-12.3653
Welcome	-12.3653
compliance	-12.3653
dnesday	-12.3653
entucky	-12.3653
extraterrestrial	-12.3653
lhambra	-12.3653
▁Arizona	-12.3653
▁Commission	-12.3653
▁Freedom	-12.3653
▁LGBT	-12.3653
▁Michelangelo	-12.3653
▁Muhammad	-12.3653
▁Parliament	-12.3653
▁accumulation	-12.3653
▁antibodies	-12.3653
▁atrazine	-12.3653
▁bhutan	-12.3653
▁desalination	-12.3653
▁disclosure	-12.3653
▁disposable	-12.3653
▁dwarf	-12.3653
▁exaggeration	-12.3653
▁exoskeleton	-12.3653
▁mexican	-12.3653
▁misconception	-12.3653
▁nonverbal	-12.3653
▁offensive	-12.3653
▁peacekeep	-12.3653
▁philanthropist	-12.3653
▁provocative	-12.3653
▁rearrange	-12.3653
▁renaissance	-12.3653
▁reservoir	-12.3653
▁rwanda	-12.3653
▁salute	-12.3653
▁scramble	-12.3653
▁typewriter	-12.3653
▁whiskey	-12.3653
▁wrinkles	-12.3653
▁Hindu	-12.3653
▁detergent	-12.3653
▁latitude	-12.3653
▁livelihood	-12.3653
▁starvation	-12.3653
▁unravel	-12.3653
▁Information	-12.3653
▁abusive	-12.3653
▁converse	-12.3653
▁jeep	-12.3653
▁wield	-12.3653
▁dominance	-12.3653
▁tinker	-12.3653
lexandria	-12.3653
▁Leader	-12.3653
▁buffer	-12.3653
▁canadian	-12.3653
▁churn	-12.3653
lecommunications	-12.3653
▁northwest	-12.3653
▁bullying	-12.3653
▁downhill	-12.3653
▁inference	-12.3653
▁mound	-12.3653
▁swirl	-12.3653
▁pornography	-12.3653
▁motive	-12.3653
▁bookstore	-12.3653
▁guru	-12.3653
▁withstand	-12.3653
▁dispense	-12.3653
▁descent	-12.3654
▁stride	-12.3654
▁Radio	-12.3656
▁xeno	-12.3656
▁Susan	-12.3681
teacher	-12.385
rhythm	-12.385
mobile	-12.3851
growing	-12.3852
▁kev	-12.3867
bureaucratic	-12.3913
▁dedicate	-12.3957
hailand	-12.3983
placing	-12.3983
ampshire	-12.3986
megawatt	-12.3986
ozambique	-12.3986
▁Company	-12.3986
▁Luckily	-12.3986
▁Skype	-12.3986
▁Sydney	-12.3986
▁arrival	-12.3986
▁august	-12.3986
▁bastard	-12.3986
▁cauliflower	-12.3986
▁celebrities	-12.3986
▁daydream	-12.3986
▁derivative	-12.3986
▁doodling	-12.3986
▁faculty	-12.3986
▁heterosexual	-12.3986
▁immoral	-12.3986
▁influential	-12.3986
▁intimidating	-12.3986
▁knives	-12.3986
▁magnify	-12.3986
▁mockingbird	-12.3986
▁pancreatic	-12.3986
▁participatory	-12.3986
▁peripheral	-12.3986
▁portfolio	-12.3986
▁postcards	-12.3986
▁precipitat	-12.3986
▁premature	-12.3986
▁rejuvenat	-12.3986
▁repetition	-12.3986
▁secrecy	-12.3986
▁serotonin	-12.3986
▁striving	-12.3986
▁surpass	-12.3986
▁susceptible	-12.3986
▁thyroid	-12.3986
▁wondrous	-12.3986
▁Babylon	-12.3986
▁Natasha	-12.3986
▁Teszler	-12.3986
▁antidote	-12.3986
▁arousal	-12.3986
▁bullshit	-12.3986
▁fiddle	-12.3986
▁overweight	-12.3986
▁vibrate	-12.3986
▁zambia	-12.3986
▁burglar	-12.3986
▁logistics	-12.3986
▁pardon	-12.3986
▁Desert	-12.3986
▁analyst	-12.3986
▁examining	-12.3986
Excuse	-12.3986
▁durable	-12.3986
▁cereal	-12.3986
▁Emily	-12.3986
▁policymakers	-12.3986
▁notorious	-12.3986
hilippines	-12.3986
▁Yale	-12.3986
▁spores	-12.3986
▁tidy	-12.3986
▁defy	-12.3986
▁drastic	-12.3986
▁Lewis	-12.3986
eorgia	-12.3986
▁ripple	-12.3986
▁smack	-12.3987
amantha	-12.3987
possum	-12.3988
arrett	-12.3994
axter	-12.3999
oderator	-12.4008
ontana	-12.4009
averse	-12.4011
Bird	-12.4016
▁electora	-12.4017
lude	-12.4064
▁repel	-12.4119
fitted	-12.4167
conflict	-12.4219
patient	-12.422
Great	-12.4221
luck	-12.4287
▁fertilize	-12.4305
openhagen	-12.4328
destruct	-12.433
rthodox	-12.4331
tanbul	-12.4331
▁Economic	-12.4331
▁Exactly	-12.4331
▁LHC	-12.4331
▁UCLA	-12.4331
▁Ultimately	-12.4331
▁academy	-12.4331
▁advocacy	-12.4331
▁bioluminescent	-12.4331
▁biomimicry	-12.4331
▁cognition	-12.4331
▁coherent	-12.4331
▁convergence	-12.4331
▁feminine	-12.4331
▁fracture	-12.4331
▁hawaii	-12.4331
▁homicide	-12.4331
▁horribly	-12.4331
▁hypertension	-12.4331
▁illuminating	-12.4331
▁illumination	-12.4331
▁influenza	-12.4331
▁interdependenc	-12.4331
▁magnesium	-12.4331
▁messenger	-12.4331
▁multiplied	-12.4331
▁mutilate	-12.4331
▁nutshell	-12.4331
▁pinnacle	-12.4331
▁plummet	-12.4331
▁quantify	-12.4331
▁reassuring	-12.4331
▁reception	-12.4331
▁rehearse	-12.4331
▁repetitive	-12.4331
▁rhyme	-12.4331
▁separating	-12.4331
▁skydiving	-12.4331
▁speculative	-12.4331
▁stewardship	-12.4331
▁subsidies	-12.4331
▁succumb	-12.4331
▁vertebrate	-12.4331
▁whitopia	-12.4331
etflix	-12.4331
▁Alpha	-12.4331
▁Copernic	-12.4331
▁beehive	-12.4331
▁evolutionarily	-12.4331
▁malware	-12.4331
▁parrot	-12.4331
▁plaster	-12.4331
▁dementia	-12.4331
▁modular	-12.4331
▁squatter	-12.4331
▁thirst	-12.4331
▁Finland	-12.4331
▁offense	-12.4331
▁lousy	-12.4331
▁pledge	-12.4331
iguel	-12.4331
ilbao	-12.4331
▁zimbabwe	-12.4331
▁porch	-12.4331
▁curb	-12.4331
▁overdose	-12.4331
▁vendor	-12.4331
▁Rich	-12.4331
▁motel	-12.4331
▁Rule	-12.4331
aternal	-12.4332
Brain	-12.4332
▁decorate	-12.4332
▁Point	-12.4333
▁ankle	-12.4333
▁curate	-12.4335
▁reshape	-12.4346
lcro	-12.4386
flipping	-12.4408
estament	-12.4445
examined	-12.4496
ngeles	-12.4502
environmentalist	-12.457
course	-12.4606
girl	-12.4611
▁atmospher	-12.4658
nutrient	-12.4666
▁tempo	-12.4684
concentrat	-12.4684
ompanies	-12.4685
enhancing	-12.4688
eviathan	-12.4688
wahili	-12.4688
▁Baltimore	-12.4688
▁Certainly	-12.4688
▁Especially	-12.4688
▁Language	-12.4688
▁Mediterranean	-12.4688
▁Whitopia	-12.4688
▁amphibi	-12.4688
▁aquaculture	-12.4688
▁biomedical	-12.4688
▁bundle	-12.4688
▁charging	-12.4688
▁circus	-12.4688
▁contemplate	-12.4688
▁denominator	-12.4688
▁destined	-12.4688
▁discomfort	-12.4688
▁emphasis	-12.4688
▁exaggerate	-12.4688
▁fragrance	-12.4688
▁hijack	-12.4688
▁hippocampus	-12.4688
▁hypertext	-12.4688
▁incarceration	-12.4688
▁malignant	-12.4688
▁mistrust	-12.4688
▁multitasking	-12.4688
▁oasis	-12.4688
▁preliminary	-12.4688
▁primordial	-12.4688
▁propulsion	-12.4688
▁proximity	-12.4688
▁redefining	-12.4688
▁relentless	-12.4688
▁sanctuary	-12.4688
▁soybean	-12.4688
▁thursday	-12.4688
▁unambiguous	-12.4688
▁volatile	-12.4688
▁plywood	-12.4688
▁Wilson	-12.4688
▁credibility	-12.4688
▁porridge	-12.4688
▁questionnaire	-12.4688
▁squirt	-12.4688
▁tasmania	-12.4688
▁vanished	-12.4688
▁appalling	-12.4688
▁socioeconomic	-12.4688
▁caution	-12.4688
▁frack	-12.4688
▁submissi	-12.4688
▁saudi	-12.4688
Cloud	-12.4688
▁bruise	-12.4688
Field	-12.4688
▁ruling	-12.4688
▁headphones	-12.4688
▁implies	-12.4688
▁meditate	-12.4688
▁domination	-12.4688
▁socket	-12.4688
▁sahara	-12.4688
▁emulate	-12.4688
▁massacre	-12.4688
firefly	-12.4689
▁Full	-12.4702
eymah	-12.4714
Barack	-12.4723
▁compell	-12.4725
triplet	-12.4758
orbital	-12.4773
tempted	-12.4778
▁Stein	-12.4781
▁patrol	-12.4828
▁Kim	-12.4997
confidence	-12.5005
white	-12.5007
defined	-12.5049
▁conduc	-12.505
▁electromagnet	-12.5054
guil	-12.5057
irtual	-12.5058
arahumara	-12.5058
ilwaukee	-12.5058
▁Already	-12.5058
▁DARPA	-12.5058
▁Hawking	-12.5058
▁Kyoto	-12.5058
▁Ministry	-12.5058
▁Perfect	-12.5058
▁Renaissance	-12.5058
▁SARS	-12.5058
▁amputation	-12.5058
▁autopsy	-12.5058
▁balconies	-12.5058
▁buttermilk	-12.5058
▁caterpillar	-12.5058
▁catholic	-12.5058
▁colombia	-12.5058
▁dashboard	-12.5058
▁discourage	-12.5058
▁disguise	-12.5058
▁doctrine	-12.5058
▁enclosure	-12.5058
▁energies	-12.5058
▁grappl	-12.5058
▁identification	-12.5058
▁illuminate	-12.5058
▁imprisoned	-12.5058
▁laureate	-12.5058
▁leisure	-12.5058
▁leukemia	-12.5058
▁miniature	-12.5058
▁moisture	-12.5058
▁motivating	-12.5058
▁orthopedic	-12.5058
▁perseverance	-12.5058
▁plaza	-12.5058
▁proliferation	-12.5058
▁prominent	-12.5058
▁proscenium	-12.5058
▁reassure	-12.5058
▁rebreather	-12.5058
▁sabbatical	-12.5058
▁skyrocket	-12.5058
▁spectroscopy	-12.5058
▁spreadsheet	-12.5058
▁stimuli	-12.5058
▁submerge	-12.5058
▁surrogate	-12.5058
▁translating	-12.5058
▁unconditional	-12.5058
▁unexplored	-12.5058
▁bathtub	-12.5058
▁friday	-12.5058
▁gloom	-12.5058
▁nanopatch	-12.5058
▁rejoice	-12.5058
▁suffocat	-12.5058
▁instinctively	-12.5058
▁Cooper	-12.5058
▁Network	-12.5058
▁bloop	-12.5058
▁credible	-12.5058
▁unpack	-12.5058
▁reckon	-12.5058
▁tumble	-12.5058
lgium	-12.5058
▁EDI	-12.5058
▁Ushahidi	-12.5058
▁logged	-12.5058
▁utilize	-12.5058
ochrane	-12.5058
▁Fox	-12.5058
▁incision	-12.5058
▁alternate	-12.5059
▁gaming	-12.5059
▁Game	-12.5059
▁Speak	-12.5059
▁khal	-12.506
transcendence	-12.5084
iagra	-12.51
▁visualiz	-12.5185
▁spectra	-12.5392
industrial	-12.5411
present	-12.542
global	-12.5422
normal	-12.5423
driving	-12.5423
written	-12.5423
assembling	-12.5443
▁Depression	-12.5443
▁Jazeera	-12.5443
▁Lawrence	-12.5443
▁League	-12.5443
▁Otherwise	-12.5443
▁Pantheon	-12.5443
▁Pixar	-12.5443
▁approximation	-12.5443
▁arguably	-12.5443
▁audacious	-12.5443
▁bailout	-12.5443
▁bottleneck	-12.5443
▁champagne	-12.5443
▁charitable	-12.5443
▁cholesterol	-12.5443
▁concussion	-12.5443
▁crevasse	-12.5443
▁cursor	-12.5443
▁defensive	-12.5443
▁diaspora	-12.5443
▁eloquent	-12.5443
▁embodiment	-12.5443
▁excruciating	-12.5443
▁feasible	-12.5443
▁feminism	-12.5443
▁frugal	-12.5443
▁hilarious	-12.5443
▁humidity	-12.5443
▁hyperbolic	-12.5443
▁imaginable	-12.5443
▁imminent	-12.5443
▁impairment	-12.5443
▁infamous	-12.5443
▁inflection	-12.5443
▁integrating	-12.5443
▁jitney	-12.5443
▁jurisdiction	-12.5443
▁kettle	-12.5443
▁legislators	-12.5443
▁metadata	-12.5443
▁necessity	-12.5443
▁obsessive	-12.5443
▁outweigh	-12.5443
▁patriarch	-12.5443
▁persuasive	-12.5443
▁precursor	-12.5443
▁recharge	-12.5443
▁remorse	-12.5443
▁reorganize	-12.5443
▁rhinovirus	-12.5443
▁ribbon	-12.5443
▁rubbish	-12.5443
▁scooter	-12.5443
▁sequester	-12.5443
▁simplified	-12.5443
▁snatch	-12.5443
▁sneakerhead	-12.5443
▁squash	-12.5443
▁substrate	-12.5443
▁superintendent	-12.5443
▁supermassive	-12.5443
▁syllabus	-12.5443
▁synagogue	-12.5443
▁synonymous	-12.5443
▁tyranny	-12.5443
▁vigorous	-12.5443
▁welcoming	-12.5443
isconsin	-12.5443
llinois	-12.5443
▁Agency	-12.5443
▁Amazing	-12.5443
▁embryonic	-12.5443
▁junior	-12.5443
▁pavement	-12.5443
▁perimeter	-12.5443
▁revolve	-12.5443
▁Marshall	-12.5443
▁Ninety	-12.5443
▁Toronto	-12.5443
▁breathtaking	-12.5443
▁granny	-12.5443
▁sinister	-12.5443
▁yuck	-12.5443
▁Group	-12.5443
▁densities	-12.5443
▁unsafe	-12.5443
▁sculptural	-12.5443
▁Several	-12.5443
▁purchasing	-12.5443
▁Glass	-12.5443
Happy	-12.5443
▁carcass	-12.5443
▁liberia	-12.5444
▁endemic	-12.5445
▁handicap	-12.545
▁articulat	-12.5477
Psycho	-12.5491
Safe	-12.5527
gatherer	-12.5556
uestion	-12.5595
migrated	-12.5694
instruct	-12.5716
▁glori	-12.5759
generated	-12.5786
illennium	-12.5841
identifie	-12.5841
▁fluctuat	-12.5842
▁steadi	-12.5843
anthropomorphize	-12.5843
harlotte	-12.5843
pocalypse	-12.5843
riceratops	-12.5843
yderabad	-12.5843
▁Avenue	-12.5843
▁Democracy	-12.5843
▁Hopefully	-12.5843
▁Incredible	-12.5843
▁RISD	-12.5843
▁Simple	-12.5843
▁Wolfram	-12.5843
▁acromegaly	-12.5843
▁administrative	-12.5843
▁annihilat	-12.5843
▁antiangiogenic	-12.5843
▁appointed	-12.5843
▁arthritis	-12.5843
▁bioenergy	-12.5843
▁breeze	-12.5843
▁bulgaria	-12.5843
▁coumarin	-12.5843
▁downstairs	-12.5843
▁gratification	-12.5843
▁imbalance	-12.5843
▁indifferent	-12.5843
▁interference	-12.5843
▁kangaroo	-12.5843
▁litigation	-12.5843
▁mcdonald	-12.5843
▁namibia	-12.5843
▁ominous	-12.5843
▁paycheck	-12.5843
▁persuasion	-12.5843
▁plausibl	-12.5843
▁prehistoric	-12.5843
▁qualifications	-12.5843
▁redundancy	-12.5843
▁reintroduce	-12.5843
▁stimulating	-12.5843
▁sympathetic	-12.5843
▁taxonom	-12.5843
▁typography	-12.5843
▁undergrad	-12.5843
▁Murray	-12.5843
▁Oregon	-12.5843
▁Pepsi	-12.5843
▁adverse	-12.5843
▁asphalt	-12.5843
▁biblical	-12.5843
▁dilute	-12.5843
▁indonesia	-12.5843
▁unheard	-12.5843
▁animator	-12.5843
▁groove	-12.5843
▁muffin	-12.5843
▁occurrence	-12.5843
▁Dylan	-12.5843
▁hustle	-12.5843
▁soviet	-12.5843
escartes	-12.5843
sanitary	-12.5843
▁pianist	-12.5843
▁detained	-12.5843
▁headwind	-12.5843
▁nourish	-12.5843
▁quotation	-12.5843
▁reusable	-12.5843
▁trawl	-12.5843
▁Differen	-12.5843
▁squish	-12.5843
polluting	-12.5843
▁Algeria	-12.5844
▁barbaria	-12.5844
▁flirt	-12.5844
▁coarse	-12.5844
impson	-12.5844
growth	-12.5858
▁coincide	-12.5875
nspired	-12.5878
trawberry	-12.5898
alenti	-12.6047
discriminat	-12.6074
Huh	-12.608
haired	-12.6196
▁suspend	-12.6233
ennsylvania	-12.6257
▁compartment	-12.6257
▁advert	-12.6258
▁numerical	-12.626
▁petroleum	-12.626
▁qualitative	-12.626
Jeopardy	-12.626
Picture	-12.626
boriginal	-12.626
fidelity	-12.626
▁AIMS	-12.626
▁Armstrong	-12.626
▁Behind	-12.626
▁Compassion	-12.626
▁Corporation	-12.626
▁Economist	-12.626
▁Energy	-12.626
▁Everglades	-12.626
▁Holocaust	-12.626
▁Magazine	-12.626
▁Oakland	-12.626
▁Scratch	-12.626
▁Windows	-12.626
▁academia	-12.626
▁accumulating	-12.626
▁assassinated	-12.626
▁audacity	-12.626
▁butterflies	-12.626
▁centrifuge	-12.626
▁chimney	-12.626
▁combustion	-12.626
▁compost	-12.626
▁contraception	-12.626
▁cryptic	-12.626
▁cycling	-12.626
▁definitive	-12.626
▁degrading	-12.626
▁diffusion	-12.626
▁epilepsy	-12.626
▁evocative	-12.626
▁hockey	-12.626
▁implicated	-12.626
▁intertwined	-12.626
▁irresponsible	-12.626
▁laparoscopic	-12.626
▁leapfrog	-12.626
▁ludicrous	-12.626
▁magnifie	-12.626
▁menstruation	-12.626
▁necrophilia	-12.626
▁negativity	-12.626
▁nutritious	-12.626
▁oblige	-12.626
▁probabilities	-12.626
▁pronunciation	-12.626
▁sneeze	-12.626
▁stereotypical	-12.626
▁tragedies	-12.626
▁umbrella	-12.626
▁unicorn	-12.626
▁untouchable	-12.626
▁valentine	-12.626
▁vodka	-12.626
▁CNN	-12.626
▁biopsy	-12.626
▁dismantle	-12.626
▁encompass	-12.626
▁examination	-12.626
▁graduation	-12.626
▁heavier	-12.626
▁miserably	-12.626
▁pigmentation	-12.626
▁plaque	-12.626
▁tunisia	-12.626
▁twentie	-12.626
▁uncommon	-12.626
eureka	-12.626
▁ethos	-12.626
▁offenders	-12.626
▁seatbelt	-12.626
▁eagle	-12.626
▁darling	-12.626
▁wholesale	-12.626
▁airbag	-12.626
▁kickstart	-12.626
▁qatar	-12.626
Uncle	-12.626
▁enigma	-12.626
▁Personal	-12.626
▁dispose	-12.626
▁equate	-12.626
Friend	-12.6261
manufactured	-12.6262
▁retrac	-12.6263
russians	-12.6273
speech	-12.6312
punched	-12.6335
▁appreciat	-12.6391
ductive	-12.6392
▁vocaliz	-12.6411
▁archiv	-12.6588
▁subsidiz	-12.6635
inflated	-12.6659
▁accord	-12.6663
nterviewer	-12.6664
witzerland	-12.6691
olumbia	-12.6691
Fantastic	-12.6694
egroponte	-12.6694
insurgency	-12.6694
misunderstanding	-12.6694
readnoughtus	-12.6694
▁Agnes	-12.6694
▁Circle	-12.6694
▁Conference	-12.6694
▁Discover	-12.6694
▁Fahrenheit	-12.6694
▁Federal	-12.6694
▁Fortune	-12.6694
▁Guardian	-12.6694
▁Nevada	-12.6694
▁Pentagon	-12.6694
▁Progress	-12.6694
▁Russell	-12.6694
▁StoryCorps	-12.6694
▁abdomen	-12.6694
▁advocating	-12.6694
▁anomalies	-12.6694
▁aquarium	-12.6694
▁astrophysicist	-12.6694
▁bilingual	-12.6694
▁brilliance	-12.6694
▁childbirth	-12.6694
▁collagen	-12.6694
▁compliant	-12.6694
▁conjecture	-12.6694
▁contempt	-12.6694
▁culprit	-12.6694
♫	-14.7772
