<unk>	0
<s>	0
</s>	0
__SEP__	0
,	-2.93925
.	-3.14
▁the	-3.38398
s	-3.55893
▁to	-3.83885
'	-3.86075
▁of	-3.93385
▁a	-3.96189
▁and	-3.99935
▁that	-4.1803
▁I	-4.24921
▁in	-4.34322
▁is	-4.52826
▁it	-4.54939
▁you	-4.55089
▁	-4.58439
▁we	-4.65093
▁And	-4.91792
▁this	-4.95561
t	-5.07109
▁was	-5.25033
0	-5.28906
▁for	-5.31385
▁are	-5.36606
▁have	-5.367
▁they	-5.41311
▁on	-5.43005
▁--	-5.47375
▁with	-5.48131
▁can	-5.51802
re	-5.55573
-	-5.55712
▁So	-5.56292
?	-5.57274
▁what	-5.59642
▁be	-5.6222
▁about	-5.62701
ing	-5.77742
▁not	-5.77745
▁at	-5.78211
▁do	-5.78916
▁all	-5.79179
d	-5.88255
▁one	-5.88633
▁there	-5.89822
▁my	-5.8995
▁people	-5.9004
▁like	-5.90883
▁so	-5.91273
▁"	-5.91896
▁as	-5.92607
▁from	-5.94444
▁It	-5.95532
m	-5.98452
ed	-6.00108
▁but	-6.00233
▁an	-6.02533
:	-6.0401
1	-6.04034
▁our	-6.06177
▁or	-6.07735
▁just	-6.08096
▁We	-6.10966
▁But	-6.1409
▁me	-6.14382
▁out	-6.14699
▁if	-6.15347
▁these	-6.1596
▁know	-6.18005
▁very	-6.20209
▁The	-6.21841
▁up	-6.2316
▁by	-6.23772
▁going	-6.25222
ve	-6.25228
▁them	-6.25901
▁when	-6.2704
▁he	-6.27608
▁because	-6.28555
▁more	-6.29008
▁had	-6.29514
▁see	-6.32706
▁think	-6.32907
▁who	-6.34763
▁their	-6.37575
▁were	-6.38039
▁which	-6.38061
▁your	-6.38917
▁would	-6.40348
▁get	-6.40593
▁how	-6.4116
▁really	-6.41537
2	-6.47443
▁us	-6.48545
▁time	-6.5009
▁world	-6.52448
▁here	-6.54239
▁has	-6.55417
▁then	-6.56094
▁This	-6.57608
▁some	-6.59068
▁into	-6.59598
▁You	-6.59856
▁don	-6.59973
▁way	-6.6038
▁actually	-6.61016
▁will	-6.65499
▁where	-6.65605
▁go	-6.66014
▁years	-6.66339
ly	-6.66454
▁other	-6.67008
▁want	-6.67037
▁now	-6.67968
▁things	-6.68922
▁Now	-6.70539
▁could	-6.71162
▁make	-6.71967
▁They	-6.7457
▁been	-6.7484
▁said	-6.81532
5	-6.84885
▁right	-6.8614
▁something	-6.86415
▁no	-6.86627
ll	-6.89222
▁than	-6.89281
▁those	-6.89621
▁two	-6.90648
y	-6.90998
▁first	-6.9155
▁over	-6.93328
▁also	-6.94376
▁thing	-6.94513
▁back	-6.95467
▁got	-6.96101
▁look	-6.96818
▁much	-6.97772
▁little	-6.97934
▁say	-6.98412
▁work	-6.99304
er	-7.00882
n	-7.01617
▁That	-7.02909
▁need	-7.04001
▁In	-7.04141
9	-7.04406
e	-7.05347
▁only	-7.0542
▁she	-7.06217
▁life	-7.06439
▁his	-7.06517
▁most	-7.06883
▁even	-7.08954
▁take	-7.10433
▁lot	-7.12224
▁kind	-7.12322
▁many	-7.12322
▁new	-7.14905
▁did	-7.17546
▁good	-7.18218
3	-7.18386
▁around	-7.18812
▁different	-7.20736
▁♫	-7.20736
▁What	-7.21329
▁down	-7.24305
▁There	-7.24898
▁her	-7.25513
r	-7.25812
▁through	-7.28237
▁He	-7.28912
▁come	-7.29225
▁same	-7.29857
▁every	-7.29925
▁use	-7.30191
▁A	-7.3228
al	-7.33305
▁being	-7.33852
▁put	-7.34708
;	-7.36302
▁day	-7.37189
▁doing	-7.38471
▁three	-7.39348
p	-7.3936
▁If	-7.40289
4	-7.40386
es	-7.44165
▁any	-7.4516
▁well	-7.45346
▁percent	-7.45556
▁called	-7.45714
▁human	-7.47949
▁find	-7.48753
▁made	-7.49021
▁fact	-7.49697
8	-7.49875
▁tell	-7.50276
▁Well	-7.50905
▁year	-7.52305
▁talk	-7.52729
▁change	-7.52781
▁why	-7.53888
a	-7.55849
▁didn	-7.57425
▁own	-7.57792
c	-7.5816
▁great	-7.58194
▁idea	-7.58507
▁should	-7.59127
▁today	-7.59638
▁started	-7.60129
▁thought	-7.6073
▁let	-7.61439
▁after	-7.6166
▁last	-7.62474
6	-7.62588
"	-7.63594
l	-7.64155
▁give	-7.66376
▁went	-7.66464
▁better	-7.6651
in	-7.66645
7	-7.66954
▁might	-7.67198
▁big	-7.67242
▁before	-7.67892
▁part	-7.67982
▁problem	-7.68401
▁important	-7.69255
th	-7.69602
▁another	-7.69627
▁course	-7.69677
▁off	-7.70319
▁start	-7.70319
▁system	-7.70805
▁never	-7.71393
u	-7.71663
▁bit	-7.72034
▁able	-7.72184
▁still	-7.72546
▁together	-7.74102
g	-7.74529
▁show	-7.74707
▁place	-7.75357
▁him	-7.75417
▁brain	-7.759
▁water	-7.75968
▁ago	-7.76158
o	-7.77196
▁next	-7.77741
▁story	-7.77852
▁end	-7.78167
▁came	-7.78719
▁long	-7.79885
▁few	-7.80774
▁mean	-7.81375
▁again	-7.81594
▁When	-7.82829
▁does	-7.83459
▁question	-7.83907
▁each	-7.83991
▁between	-7.84085
▁used	-7.84266
▁found	-7.84899
▁data	-7.86022
▁technology	-7.86286
▁point	-7.87322
▁too	-7.88517
▁women	-7.88717
▁example	-7.89144
▁love	-7.89205
▁understand	-7.90446
▁looking	-7.91007
S	-7.91906
▁call	-7.92922
,"	-7.9379
▁doesn	-7.93886
▁done	-7.93927
▁wanted	-7.94023
▁Because	-7.94441
▁live	-7.94629
ic	-7.94846
▁sort	-7.94974
▁ever	-7.9591
▁whole	-7.962
▁real	-7.96428
▁million	-7.96458
I	-7.9657
▁believe	-7.9779
▁school	-7.98156
▁re	-7.98783
ers	-7.9892
▁four	-7.99908
▁feel	-8.00141
▁power	-8.00635
▁trying	-8.00787
▁person	-8.00901
▁always	-8.01163
▁try	-8.012
▁children	-8.01337
▁help	-8.01862
▁S	-8.02009
or	-8.02358
▁away	-8.02456
▁working	-8.03063
▁may	-8.0337
▁E	-8.03504
i	-8.0359
▁country	-8.03829
▁design	-8.08527
▁create	-8.09008
le	-8.09024
▁How	-8.09262
▁space	-8.09785
▁using	-8.09988
▁become	-8.105
▁took	-8.10552
ation	-8.10683
▁home	-8.10762
▁high	-8.10902
▁money	-8.10938
▁information	-8.11128
▁number	-8.11147
▁thinking	-8.11509
▁maybe	-8.11517
el	-8.11736
▁means	-8.12356
▁five	-8.12382
b	-8.12977
▁sense	-8.13618
▁man	-8.13822
▁small	-8.13833
▁everything	-8.13943
ion	-8.14042
▁light	-8.14383
▁un	-8.14493
▁kids	-8.15323
▁One	-8.16038
▁old	-8.16194
▁second	-8.16997
▁hard	-8.17336
▁left	-8.17511
▁enough	-8.18051
▁best	-8.18092
▁future	-8.18118
▁My	-8.18306
▁For	-8.18781
▁getting	-8.18976
able	-8.19381
▁She	-8.19879
▁C	-8.20083
▁social	-8.20203
ro	-8.2063
▁quite	-8.21007
▁food	-8.21072
ur	-8.21267
▁making	-8.22422
▁energy	-8.22494
▁play	-8.22639
▁side	-8.22711
▁ask	-8.2277
▁hand	-8.22871
▁These	-8.23223
▁U	-8.23401
▁happened	-8.23416
▁building	-8.23531
▁less	-8.23584
▁talking	-8.23883
▁car	-8.23974
▁told	-8.24345
▁probably	-8.24403
▁body	-8.25314
▁build	-8.25326
▁countries	-8.25564
▁B	-8.25601
▁room	-8.25808
▁interesting	-8.25877
▁science	-8.2609
▁without	-8.26113
▁stuff	-8.26738
▁moment	-8.27872
ter	-8.28036
▁comes	-8.28329
▁dollars	-8.29398
▁happen	-8.29773
▁men	-8.30274
▁coming	-8.3088
▁pretty	-8.31032
▁such	-8.31036
▁T	-8.31233
▁anything	-8.31496
▁saw	-8.31812
▁Here	-8.32008
▁de	-8.32687
▁bring	-8.32937
▁across	-8.33088
▁lives	-8.3375
▁care	-8.33974
▁open	-8.34062
▁reason	-8.34086
▁under	-8.34246
▁family	-8.34719
▁half	-8.35011
▁Let	-8.35097
▁learn	-8.35147
▁set	-8.35235
▁experience	-8.35404
▁later	-8.35811
A	-8.36074
▁case	-8.36724
▁seen	-8.36853
▁asked	-8.37267
▁Africa	-8.37464
▁move	-8.37562
▁else	-8.37803
▁living	-8.37803
▁New	-8.38294
ness	-8.3884
▁far	-8.38842
▁times	-8.38882
▁am	-8.39034
▁having	-8.39047
▁project	-8.39112
▁process	-8.3917
an	-8.39204
▁simple	-8.39627
▁goes	-8.39726
▁picture	-8.39749
▁computer	-8.4003
▁bad	-8.40103
▁young	-8.40758
▁As	-8.40786
▁mind	-8.41439
ch	-8.41767
ity	-8.41848
▁No	-8.42282
▁All	-8.42659
▁F	-8.43271
it	-8.43404
▁single	-8.43573
▁city	-8.43645
▁happens	-8.43933
▁planet	-8.44478
f	-8.44512
h	-8.44888
on	-8.45137
▁almost	-8.45153
▁health	-8.45226
▁global	-8.45285
▁book	-8.45318
▁while	-8.45511
▁billion	-8.45557
se	-8.45669
▁public	-8.45802
▁Thank	-8.45948
▁inside	-8.46002
▁already	-8.46582
▁community	-8.46582
▁saying	-8.46769
▁control	-8.46777
▁answer	-8.46856
▁Earth	-8.46945
ment	-8.46967
▁hope	-8.46999
C	-8.4737
ar	-8.47403
▁matter	-8.47671
▁says	-8.47821
la	-8.47966
▁yet	-8.48216
▁business	-8.48337
ra	-8.48391
▁head	-8.48596
▁both	-8.48806
▁days	-8.48911
▁possible	-8.49503
ri	-8.49547
▁looked	-8.49616
▁remember	-8.49627
▁nothing	-8.49783
▁six	-8.49831
▁order	-8.49872
▁keep	-8.50018
▁whether	-8.50061
▁once	-8.50208
▁read	-8.50215
il	-8.5027
li	-8.5028
▁guy	-8.5042
▁war	-8.5042
▁problems	-8.50582
▁someone	-8.50749
▁top	-8.50864
▁often	-8.51424
▁age	-8.51686
▁per	-8.51945
▁basically	-8.52518
D	-8.52541
▁within	-8.52823
▁wrong	-8.52895
▁makes	-8.53088
▁history	-8.53279
ce	-8.53437
▁myself	-8.53487
▁job	-8.5424
▁true	-8.54635
▁face	-8.54755
▁Why	-8.54764
ent	-8.5482
▁group	-8.55371
▁months	-8.55477
▁child	-8.55548
▁imagine	-8.5563
▁couple	-8.5601
▁sure	-8.56129
▁turn	-8.56948
▁model	-8.57544
▁heard	-8.57563
▁amazing	-8.57878
▁government	-8.58146
▁heart	-8.58192
▁ways	-8.58381
▁ideas	-8.59089
▁United	-8.59429
▁run	-8.59605
est	-8.59836
▁cancer	-8.59841
▁beautiful	-8.60329
▁cells	-8.60458
▁line	-8.60633
▁built	-8.60915
▁night	-8.61132
▁research	-8.61267
▁stop	-8.61599
▁piece	-8.62176
▁wasn	-8.62184
▁form	-8.62244
▁until	-8.62652
▁words	-8.62792
up	-8.62941
to	-8.63068
▁share	-8.63327
k	-8.6352
▁self	-8.64199
▁word	-8.6441
▁language	-8.64555
▁video	-8.64562
▁music	-8.65056
▁everybody	-8.65659
us	-8.65703
▁became	-8.65763
▁knew	-8.65873
▁must	-8.65982
▁decided	-8.6608
▁species	-8.66116
▁though	-8.6623
▁Internet	-8.6642
▁past	-8.66646
▁completely	-8.66897
▁America	-8.67077
▁education	-8.67205
▁name	-8.67286
▁hear	-8.67394
▁universe	-8.6819
▁study	-8.68329
▁state	-8.68584
▁looks	-8.69051
▁learned	-8.69208
▁friends	-8.69248
▁States	-8.69498
ist	-8.69911
▁happening	-8.69999
▁since	-8.70109
▁large	-8.70119
ul	-8.70202
▁stories	-8.70451
▁exactly	-8.70473
en	-8.70475
▁woman	-8.70564
▁huge	-8.70684
▁somebody	-8.70801
▁level	-8.70821
▁taking	-8.70908
ting	-8.71079
▁nature	-8.71252
▁G	-8.71262
age	-8.71268
▁itself	-8.71438
lo	-8.71524
▁students	-8.71727
▁society	-8.71833
ma	-8.71884
▁front	-8.72012
▁isn	-8.72112
▁sound	-8.72506
▁Or	-8.72533
▁animals	-8.72949
▁places	-8.7299
de	-8.73169
▁ourselves	-8.73464
▁against	-8.73862
▁themselves	-8.74054
▁disease	-8.74316
M	-8.74534
ive	-8.74615
▁sometimes	-8.74769
▁To	-8.75542
▁mother	-8.75587
▁India	-8.75795
▁environment	-8.76024
▁company	-8.76209
w	-8.76508
▁team	-8.76627
▁art	-8.767
▁created	-8.76756
▁along	-8.76987
ne	-8.77129
▁hours	-8.77339
▁OK	-8.77394
▁figure	-8.7754
▁game	-8.77672
▁minutes	-8.7802
▁couldn	-8.78127
▁view	-8.78537
▁walk	-8.78646
▁God	-8.78742
▁rather	-8.78784
▁worked	-8.78896
▁house	-8.78963
▁particular	-8.79028
▁D	-8.79264
▁TED	-8.79529
▁Do	-8.80057
▁least	-8.80283
▁population	-8.80284
▁air	-8.80501
▁land	-8.80608
▁entire	-8.80915
▁questions	-8.81007
▁third	-8.81017
▁close	-8.81054
▁everyone	-8.81065
▁black	-8.81169
T	-8.81187
▁won	-8.81297
▁early	-8.81315
x	-8.81357
▁Then	-8.81474
▁works	-8.81575
▁outside	-8.81668
▁co	-8.82128
▁cell	-8.82189
▁turns	-8.82234
old	-8.8236
ta	-8.82384
▁thousands	-8.82525
ac	-8.82936
▁instead	-8.83225
P	-8.83329
ate	-8.83531
▁grow	-8.83568
▁free	-8.83612
▁paper	-8.83615
▁gave	-8.83746
▁seven	-8.83876
▁difference	-8.83928
▁natural	-8.84141
▁happy	-8.84268
man	-8.84312
▁...	-8.84483
▁market	-8.84726
ry	-8.84798
▁American	-8.84886
ol	-8.8541
▁taken	-8.85436
▁deal	-8.85789
▁full	-8.86022
▁common	-8.86122
▁China	-8.86524
▁scale	-8.86611
▁short	-8.86927
▁leave	-8.86933
▁machine	-8.87081
▁guys	-8.87229
▁changed	-8.87727
▁learning	-8.88809
▁P	-8.8882
▁area	-8.88845
▁At	-8.88908
▁middle	-8.88967
id	-8.8927
▁local	-8.89668
▁c	-8.89991
▁cost	-8.90283
▁M	-8.90325
▁father	-8.90352
▁century	-8.90489
▁Okay	-8.90493
▁cities	-8.90917
▁kinds	-8.91253
▁pay	-8.91429
▁given	-8.91986
▁turned	-8.92104
▁eyes	-8.9212
ie	-8.92139
▁beginning	-8.92468
ha	-8.92472
▁culture	-8.92537
▁difficult	-8.92649
ized	-8.92754
▁yourself	-8.92906
▁behind	-8.93322
year	-8.93333
▁size	-8.9341
as	-8.93418
▁finally	-8.93665
▁test	-8.9374
▁York	-8.93751
▁R	-8.93826
▁perhaps	-8.93898
▁began	-8.94333
▁oil	-8.94364
▁powerful	-8.94508
▁easy	-8.94623
▁certain	-8.94786
▁systems	-8.94895
The	-8.95007
▁wonderful	-8.95105
▁rest	-8.95271
ies	-8.95481
te	-8.95741
ci	-8.95801
▁surface	-8.9594
▁moving	-8.96091
during	-8.96122
▁image	-8.96205
ant	-8.96467
un	-8.96554
▁needed	-8.96585
▁realized	-8.9666
▁companies	-8.9668
▁fish	-8.96705
▁week	-8.96869
▁media	-8.96874
ling	-8.96961
▁cannot	-8.97023
▁poor	-8.97271
▁economic	-8.97432
ism	-8.9752
▁longer	-8.97567
▁terms	-8.97644
less	-8.97719
▁simply	-8.97725
ty	-8.97954
▁phone	-8.98132
ad	-8.98232
ck	-8.98419
▁seeing	-8.99093
▁spend	-8.9954
▁news	-8.99626
▁program	-8.9977
▁Some	-8.99873
▁K	-8.99957
▁amount	-9.00099
▁reality	-9.00376
▁buy	-9.00772
L	-9.0086
▁death	-9.00893
▁p	-9.01218
▁felt	-9.01237
▁lots	-9.01344
▁whatever	-9.01428
▁tried	-9.01429
▁eight	-9.01531
B	-9.01541
▁parents	-9.01881
um	-9.02089
▁hands	-9.02241
▁produce	-9.02382
at	-9.02648
▁ocean	-9.02657
z	-9.03173
▁quickly	-9.03811
▁fear	-9.0424
▁spent	-9.04401
▁People	-9.04587
▁value	-9.04628
▁gets	-9.04679
▁ground	-9.04716
▁blood	-9.0491
▁red	-9.04967
▁growth	-9.0497
▁low	-9.05121
▁behavior	-9.05593
▁friend	-9.05698
▁field	-9.05705
▁die	-9.0575
▁interested	-9.05822
▁Ma	-9.05996
▁opportunity	-9.06011
▁individual	-9.0612
ge	-9.06143
▁gone	-9.06184
▁sea	-9.06508
ally	-9.06548
▁political	-9.06701
▁Just	-9.06702
▁speak	-9.06888
O	-9.07031
co	-9.07062
▁others	-9.07172
ine	-9.07256
▁J	-9.07333
▁write	-9.07468
▁complex	-9.07964
na	-9.08006
▁challenge	-9.08039
▁either	-9.08153
E	-9.08286
ted	-9.08307
▁blue	-9.08485
▁parts	-9.08614
rs	-9.08739
▁step	-9.08807
▁Our	-9.08847
▁sitting	-9.09172
▁hold	-9.09183
▁green	-9.09366
▁known	-9.09386
▁ability	-9.09401
▁weeks	-9.09503
▁O	-9.09534
▁st	-9.09609
am	-9.09655
▁economy	-9.09663
▁climate	-9.09665
Well	-9.09715
▁impact	-9.0985
▁access	-9.09997
▁stage	-9.10018
▁lost	-9.10176
▁CA	-9.10376
▁animal	-9.10407
▁structure	-9.10467
▁white	-9.10584
pe	-9.10755
ut	-9.10957
▁DNA	-9.11024
nt	-9.11082
▁key	-9.11186
▁chance	-9.11196
▁On	-9.11201
▁eat	-9.11228
▁support	-9.11309
▁nice	-9.11368
▁Re	-9.11415
▁risk	-9.11446
▁realize	-9.11462
ia	-9.11505
▁feeling	-9.11701
▁cool	-9.12077
▁W	-9.121
em	-9.12116
ous	-9.12289
tic	-9.12292
▁incredible	-9.12405
▁Right	-9.12412
▁feet	-9.12489
▁average	-9.12753
ti	-9.1276
▁met	-9.12914
▁Can	-9.13031
▁measure	-9.13173
▁experiment	-9.13284
▁kid	-9.13434
▁morning	-9.13629
ard	-9.13925
ver	-9.13949
▁result	-9.13977
▁network	-9.1398
▁physical	-9.14207
▁material	-9.14435
▁takes	-9.14458
▁cut	-9.14475
vi	-9.1475
▁film	-9.14893
▁issue	-9.15089
▁clear	-9.15097
ated	-9.15137
ig	-9.15153
▁watch	-9.15385
▁color	-9.1551
▁bottom	-9.15582
▁allow	-9.15704
▁fire	-9.15779
▁based	-9.15895
▁wouldn	-9.15899
▁innovation	-9.15942
▁audience	-9.16122
▁growing	-9.16421
▁born	-9.16515
You	-9.16579
▁patients	-9.16729
▁brought	-9.17028
▁areas	-9.17083
tion	-9.17098
▁scientists	-9.17545
▁understanding	-9.17763
mo	-9.17807
▁literally	-9.17949
▁map	-9.17956
▁Not	-9.17957
▁needs	-9.18051
N	-9.18102
▁wrote	-9.18126
▁girl	-9.18273
▁development	-9.18513
▁non	-9.18612
R	-9.1869
▁attention	-9.18864
▁knowledge	-9.19072
▁special	-9.19648
▁humans	-9.19767
▁pick	-9.19805
▁personal	-9.19839
▁technologies	-9.19983
be	-9.20485
▁forward	-9.20699
▁alone	-9.20738
is	-9.20894
K	-9.20905
▁center	-9.20937
▁movement	-9.20984
What	-9.2104
▁dark	-9.21093
▁fun	-9.21186
▁con	-9.21266
▁shows	-9.21536
▁hundreds	-9.2158
▁lab	-9.21669
▁giving	-9.21762
▁running	-9.21886
▁miles	-9.22108
▁developed	-9.22323
▁guess	-9.22642
▁World	-9.22675
▁force	-9.22805
▁pre	-9.22973
▁changes	-9.23007
▁fly	-9.2306
▁act	-9.23173
▁deep	-9.23178
▁N	-9.23462
op	-9.23704
and	-9.23904
▁break	-9.23996
▁numbers	-9.24138
▁tools	-9.24226
no	-9.24496
▁anyone	-9.24616
▁starting	-9.24668
▁solve	-9.24703
▁sun	-9.24782
bo	-9.25271
▁solution	-9.25313
▁theory	-9.25365
▁sit	-9.25449
▁voice	-9.25518
▁seems	-9.25534
▁present	-9.25539
v	-9.25564
▁telling	-9.25567
▁meet	-9.2558
▁focus	-9.25645
ary	-9.2577
▁explain	-9.25809
▁type	-9.26155
▁Yeah	-9.26384
▁thank	-9.26389
▁f	-9.26464
the	-9.26501
▁rate	-9.26713
ba	-9.26721
▁sub	-9.2715
ir	-9.27166
ber	-9.2719
▁b	-9.27192
ian	-9.27333
▁books	-9.27353
▁absolutely	-9.2741
▁stay	-9.27629
▁Be	-9.27689
▁talked	-9.27774
ize	-9.27849
hi	-9.27858
▁sex	-9.279
▁period	-9.27979
▁develop	-9.28012
▁English	-9.28386
▁showed	-9.2851
▁normal	-9.2853
▁similar	-9.28584
▁dream	-9.28623
▁save	-9.2879
▁send	-9.28916
▁stand	-9.2894
per	-9.28981
▁South	-9.28983
line	-9.29021
▁robot	-9.29356
▁law	-9.29386
▁table	-9.2943
▁situation	-9.29469
▁images	-9.29646
▁Europe	-9.29801
▁industry	-9.29824
▁online	-9.29854
▁discovered	-9.30152
▁issues	-9.30208
▁office	-9.30257
com	-9.30323
▁relationship	-9.30534
▁eye	-9.30541
▁fast	-9.3055
▁begin	-9.30603
▁product	-9.30912
▁journey	-9.31072
▁shape	-9.31107
uc	-9.31128
▁By	-9.3139
▁developing	-9.31391
▁resources	-9.31455
▁modern	-9.31492
▁baby	-9.31492
▁creating	-9.31492
▁girls	-9.31568
▁plant	-9.31612
▁recently	-9.31773
▁pro	-9.31976
▁perfect	-9.31997
▁drive	-9.32088
▁patient	-9.32291
▁dead	-9.32881
▁millions	-9.3292
▁truth	-9.32975
▁designed	-9.3319
▁screen	-9.33265
▁street	-9.33359
▁yes	-9.33418
▁V	-9.33485
▁follow	-9.33491
▁Google	-9.33617
ni	-9.33769
ance	-9.33848
me	-9.33991
▁seem	-9.34006
▁major	-9.34026
▁De	-9.34047
▁soon	-9.34191
ating	-9.34193
ach	-9.34219
▁available	-9.34264
▁evidence	-9.3448
▁especially	-9.34697
▁tiny	-9.34698
▁generation	-9.35031
▁dis	-9.35046
▁treat	-9.35085
time	-9.35253
▁continue	-9.3533
▁basic	-9.35339
▁add	-9.35384
ful	-9.35566
▁medical	-9.35574
▁tend	-9.3568
▁Yes	-9.35746
▁effect	-9.35798
▁asking	-9.35864
▁code	-9.359
▁cars	-9.36074
▁playing	-9.36089
▁response	-9.36229
▁message	-9.36274
▁door	-9.36313
▁incredibly	-9.3645
▁mass	-9.36458
▁choice	-9.36495
▁involved	-9.36496
G	-9.36694
▁ice	-9.36874
▁drug	-9.3695
▁digital	-9.37339
▁bigger	-9.37356
▁Oh	-9.37358
▁St	-9.3749
▁changing	-9.3772
▁son	-9.37828
▁approach	-9.37837
▁object	-9.37852
▁vision	-9.38009
▁carbon	-9.38077
▁month	-9.38204
mi	-9.38351
▁role	-9.38462
▁Le	-9.39096
▁lived	-9.39186
om	-9.39258
▁hundred	-9.39262
▁box	-9.39332
▁class	-9.39442
▁e	-9.3951
▁list	-9.3959
▁writing	-9.39657
▁L	-9.39929
▁Chinese	-9.4005
▁beyond	-9.4005
▁solar	-9.40053
▁putting	-9.40425
▁gives	-9.40446
▁towards	-9.4045
▁several	-9.4074
▁haven	-9.4093
▁First	-9.4097
▁hit	-9.41174
▁bar	-9.41376
▁device	-9.41391
ot	-9.41607
▁groups	-9.41612
▁national	-9.41754
▁reasons	-9.41795
▁reach	-9.41801
▁nine	-9.41901
▁mine	-9.42067
F	-9.42155
."	-9.42227
▁drugs	-9.42307
▁favorite	-9.42369
▁potential	-9.42474
▁lose	-9.42762
ect	-9.42856
▁died	-9.4293
nd	-9.43173
he	-9.43247
▁teach	-9.43299
▁clean	-9.43547
▁computers	-9.4367
▁fight	-9.4372
bu	-9.43744
▁communities	-9.43784
▁software	-9.43784
▁action	-9.43847
▁speed	-9.43889
▁ones	-9.43897
▁stick	-9.43907
▁camera	-9.43916
▁After	-9.44022
▁With	-9.44032
side	-9.44157
▁wind	-9.44447
▁worth	-9.44551
▁general	-9.44615
▁trust	-9.4498
▁position	-9.45096
▁pictures	-9.45125
▁strong	-9.45244
▁Ba	-9.45367
sh	-9.45367
▁Chris	-9.45464
▁Maybe	-9.45502
▁likely	-9.45514
ton	-9.45705
▁anybody	-9.45713
▁mo	-9.45716
▁success	-9.45875
we	-9.45989
▁Every	-9.46021
ped	-9.46058
▁provide	-9.46105
▁visual	-9.46165
▁wall	-9.46382
▁onto	-9.46489
▁Of	-9.46552
▁listen	-9.46634
▁fall	-9.46714
▁higher	-9.46784
▁quality	-9.46792
▁aren	-9.46823
▁expect	-9.46856
▁late	-9.47188
dy	-9.47199
▁particularly	-9.47423
▁hot	-9.47587
▁violence	-9.47663
▁rules	-9.47879
▁path	-9.4796
▁Who	-9.48072
▁spread	-9.48099
▁certainly	-9.48128
der	-9.48277
▁wait	-9.48355
▁becomes	-9.48397
▁biggest	-9.48408
fi	-9.48508
min	-9.48583
▁exciting	-9.48657
▁treatment	-9.48681
▁largest	-9.48696
▁skin	-9.4871
▁moved	-9.48757
▁wish	-9.48851
▁plan	-9.48902
▁cause	-9.48919
▁evolution	-9.4894
▁walking	-9.4903
▁lead	-9.49158
▁showing	-9.49165
▁hour	-9.49381
▁scientific	-9.494
▁further	-9.4941
ca	-9.49414
▁ma	-9.49492
▁obviously	-9.49496
▁medicine	-9.49661
▁okay	-9.49661
▁totally	-9.49766
▁An	-9.498
ab	-9.49912
▁creative	-9.49914
▁kill	-9.49926
▁village	-9.50124
▁star	-9.50447
▁leaders	-9.50492
▁student	-9.50646
▁among	-9.50921
▁finding	-9.51218
▁ex	-9.514
land	-9.51406
ke	-9.51448
▁waste	-9.51488
▁fit	-9.51637
▁nobody	-9.51714
▁road	-9.51847
▁protect	-9.51853
▁police	-9.51957
▁smart	-9.52124
va	-9.52486
Oh	-9.52524
▁African	-9.52621
▁sleep	-9.52684
▁hospital	-9.52766
▁safe	-9.52784
▁slow	-9.52785
▁Go	-9.5294
▁materials	-9.52988
▁choose	-9.52995
▁ready	-9.53014
▁watching	-9.53184
▁consider	-9.5324
▁teachers	-9.53304
▁plants	-9.53366
▁named	-9.53395
▁revolution	-9.53419
▁gas	-9.53553
ron	-9.53744
▁record	-9.53814
▁North	-9.53851
ho	-9.53868
▁g	-9.53894
son	-9.53923
▁travel	-9.54013
▁everywhere	-9.54043
▁secret	-9.54043
▁Most	-9.54068
▁meaning	-9.54096
▁extremely	-9.5412
▁sent	-9.54121
▁led	-9.54415
▁fundamental	-9.54444
▁eventually	-9.54572
▁sounds	-9.54632
▁tree	-9.54659
▁notice	-9.54706
ial	-9.54827
▁crazy	-9.54837
▁ball	-9.54974
▁version	-9.54994
▁main	-9.55025
▁connected	-9.55126
bi	-9.55177
▁security	-9.55187
H	-9.55321
▁context	-9.55366
▁results	-9.55376
▁thousand	-9.55479
▁goal	-9.5555
▁train	-9.55617
▁Even	-9.55638
go	-9.55754
▁arm	-9.55778
▁boy	-9.55841
▁moral	-9.55888
▁fine	-9.55953
▁pattern	-9.56031
ists	-9.56069
▁organization	-9.56079
▁Co	-9.56135
▁Me	-9.56252
▁allowed	-9.56272
by	-9.56359
▁schools	-9.56395
▁track	-9.56404
▁flow	-9.56432
▁grew	-9.56449
ga	-9.56468
▁touch	-9.56472
▁store	-9.56705
▁college	-9.56714
▁conflict	-9.5679
▁tool	-9.5685
▁movie	-9.56864
▁H	-9.56974
▁perspective	-9.56986
ward	-9.57001
▁pain	-9.57238
▁super	-9.57275
mer	-9.57281
▁War	-9.57304
▁supposed	-9.57345
▁individuals	-9.57347
con	-9.57463
▁search	-9.57491
▁fuel	-9.57529
▁source	-9.57554
▁shot	-9.57686
▁connect	-9.57746
▁cr	-9.57811
▁families	-9.58076
▁including	-9.58076
▁essentially	-9.58129
▁positive	-9.5816
▁forest	-9.58216
ow	-9.58522
▁shown	-9.58634
▁Ha	-9.58659
▁recognize	-9.58899
▁extraordinary	-9.58918
▁rich	-9.58939
out	-9.59001
▁traditional	-9.5907
oc	-9.59139
▁international	-9.59179
▁poverty	-9.59179
▁wife	-9.59179
▁worse	-9.5918
▁address	-9.5918
▁serious	-9.5933
▁decision	-9.59407
▁square	-9.59457
▁trees	-9.59646
▁memory	-9.59736
▁West	-9.59791
▁doctor	-9.60269
▁bunch	-9.60295
▁democracy	-9.60295
▁critical	-9.60337
di	-9.60405
▁taught	-9.60576
ee	-9.60602
▁Dr	-9.60731
▁objects	-9.60753
▁zero	-9.60775
▁robots	-9.60786
▁conversation	-9.60847
▁somewhere	-9.60858
▁faster	-9.60983
▁teacher	-9.6101
▁Al	-9.61034
▁above	-9.61146
way	-9.61151
▁killed	-9.61417
▁near	-9.61574
▁genetic	-9.61705
▁games	-9.61726
▁increase	-9.61727
▁affect	-9.61765
▁bio	-9.61824
▁lower	-9.61891
▁progress	-9.61938
▁career	-9.61972
▁larger	-9.6217
▁v	-9.62226
▁content	-9.62279
▁please	-9.62317
▁board	-9.62411
▁examples	-9.62436
No	-9.62529
▁crisis	-9.62565
▁activity	-9.62568
▁excited	-9.62586
▁meant	-9.62604
▁Where	-9.62768
▁projects	-9.62793
▁Today	-9.6286
▁happiness	-9.62898
▁suddenly	-9.62922
▁ended	-9.62974
▁minute	-9.63084
▁standing	-9.63107
▁models	-9.6318
▁exist	-9.63233
▁site	-9.63379
ence	-9.63397
We	-9.63402
▁plastic	-9.63429
▁song	-9.63457
▁post	-9.63471
▁compassion	-9.63707
ran	-9.63974
▁famous	-9.6401
▁Those	-9.64011
▁jobs	-9.6403
▁starts	-9.64298
▁female	-9.64301
▁truly	-9.64301
▁Don	-9.64307
▁cold	-9.64334
▁complicated	-9.64615
▁interest	-9.64633
▁sell	-9.64637
▁conditions	-9.64827
qui	-9.64859
▁check	-9.64887
tra	-9.65
do	-9.65037
▁specific	-9.65064
▁text	-9.65175
▁successful	-9.65359
▁pull	-9.65426
▁wonder	-9.65438
▁drop	-9.65464
▁indeed	-9.65484
▁rise	-9.65503
▁allows	-9.65678
pa	-9.65766
▁impossible	-9.65772
▁kept	-9.65773
▁service	-9.65908
▁la	-9.65949
▁region	-9.66061
▁website	-9.66069
▁older	-9.66177
ny	-9.66314
▁studies	-9.66366
▁Look	-9.66433
▁reading	-9.66759
▁price	-9.66827
▁count	-9.66947
▁freedom	-9.66967
▁floor	-9.66979
W	-9.67071
▁genes	-9.67091
▁feed	-9.67154
▁mental	-9.6718
ten	-9.67255
▁HIV	-9.67265
▁military	-9.67269
▁TV	-9.67285
izing	-9.67427
ight	-9.6749
▁subject	-9.67739
▁nuclear	-9.67913
▁return	-9.67927
ever	-9.68084
▁account	-9.68139
▁shift	-9.68276
▁cases	-9.6836
oo	-9.68377
▁massive	-9.68497
▁workers	-9.68523
▁financial	-9.6878
▁dangerous	-9.68785
▁prison	-9.6896
▁inter	-9.68997
▁private	-9.69086
▁purpose	-9.69086
ish	-9.69114
▁training	-9.69133
▁sign	-9.6932
ator	-9.69414
▁usually	-9.69428
ization	-9.69431
▁products	-9.69556
▁stars	-9.69626
▁unique	-9.697
▁Like	-9.69707
▁practice	-9.69957
▁temperature	-9.70009
▁pressure	-9.70009
▁series	-9.70011
▁somehow	-9.70028
▁function	-9.70051
▁range	-9.70082
▁East	-9.70273
▁daughter	-9.70318
▁alive	-9.70339
▁race	-9.70641
▁decide	-9.70662
▁page	-9.70772
▁strange	-9.70858
os	-9.71116
▁draw	-9.71166
▁prevent	-9.71224
ors	-9.7135
▁current	-9.71439
ex	-9.71505
like	-9.71537
▁anymore	-9.71567
▁smaller	-9.71688
▁Ro	-9.71806
▁peace	-9.71852
▁respect	-9.71939
▁upon	-9.71953
ring	-9.71966
vo	-9.72017
▁win	-9.72127
▁yeah	-9.72196
▁electricity	-9.72208
▁Are	-9.72313
▁buildings	-9.72381
▁mom	-9.72512
▁physics	-9.72513
▁becoming	-9.72515
ud	-9.72636
▁bacteria	-9.72781
▁micro	-9.72829
▁biology	-9.72833
▁Bo	-9.72855
if	-9.73129
▁policy	-9.73149
▁predict	-9.73158
▁press	-9.73165
▁rule	-9.73194
led	-9.73254
▁math	-9.73278
▁Ho	-9.73298
▁effective	-9.73504
▁healthy	-9.7351
▁decisions	-9.73526
▁actual	-9.73667
▁concept	-9.73788
▁enormous	-9.73789
▁trade	-9.73794
▁raise	-9.73831
▁written	-9.73837
▁Mo	-9.73902
▁capital	-9.73956
▁direction	-9.74259
gen	-9.74458
▁anywhere	-9.74492
▁ran	-9.74494
▁environmental	-9.745
▁Li	-9.74551
▁skills	-9.74569
ities	-9.74604
har	-9.74721
▁patterns	-9.74929
▁income	-9.74935
▁dog	-9.74965
▁charge	-9.75081
▁sky	-9.75097
▁w	-9.75184
▁attack	-9.75261
fa	-9.75293
▁explore	-9.75446
▁waiting	-9.75486
▁solutions	-9.75508
▁report	-9.75609
▁earlier	-9.75734
▁expensive	-9.75734
▁loved	-9.75902
▁forms	-9.75984
▁Sa	-9.75987
▁bodies	-9.76062
que	-9.76239
▁intelligence	-9.76391
▁instance	-9.76391
▁weren	-9.7643
▁target	-9.76721
▁heat	-9.76812
▁town	-9.76923
▁park	-9.77095
▁demand	-9.77384
▁Man	-9.7742
pi	-9.77443
▁visit	-9.77463
▁final	-9.77605
▁San	-9.77625
▁pieces	-9.77671
▁immediately	-9.77749
tor	-9.77824
▁clearly	-9.77956
▁extra	-9.78055
▁respond	-9.78139
▁institutions	-9.78236
▁decade	-9.78247
ill	-9.78332
▁Another	-9.78387
ble	-9.78394
▁doctors	-9.78419
▁throughout	-9.78472
▁po	-9.78552
▁bo	-9.78626
▁Y	-9.78642
▁machines	-9.78709
▁Which	-9.78724
▁stress	-9.78725
king	-9.78751
▁hair	-9.78802
▁foot	-9.78803
▁listening	-9.78815
▁cover	-9.78863
▁lines	-9.78865
che	-9.78885
▁term	-9.78896
▁familiar	-9.79062
▁teaching	-9.79166
ah	-9.79191
▁legal	-9.79211
▁greatest	-9.79234
▁Imagine	-9.79401
end	-9.79414
▁enjoy	-9.79492
ning	-9.79499
▁neurons	-9.79538
▁greater	-9.79543
▁himself	-9.79749
row	-9.79845
▁forth	-9.80012
▁citizens	-9.80019
▁Sh	-9.80112
▁performance	-9.80153
ical	-9.80272
▁web	-9.80289
▁apply	-9.80521
▁email	-9.80768
▁University	-9.80771
▁ho	-9.80781
ions	-9.80797
▁rain	-9.808
▁Americans	-9.8093
▁blind	-9.8109
▁religion	-9.81113
▁architecture	-9.81113
▁driving	-9.81197
▁corner	-9.81205
▁City	-9.81225
ug	-9.81271
▁Indian	-9.81288
▁Mi	-9.81436
▁fantastic	-9.81459
▁photo	-9.81474
▁brains	-9.81513
▁meeting	-9.8158
▁wealth	-9.81711
▁improve	-9.81852
▁survive	-9.81873
ative	-9.81976
ap	-9.82066
▁therefore	-9.82155
▁weight	-9.82195
▁production	-9.82207
▁costs	-9.82265
▁tells	-9.8233
▁bed	-9.82334
▁bomb	-9.82495
▁walked	-9.825
▁o	-9.82518
▁mobile	-9.82564
▁push	-9.82652
▁spot	-9.82681
▁humanity	-9.82736
▁except	-9.82767
▁Ca	-9.82779
▁photograph	-9.8313
▁communicate	-9.83208
▁cultural	-9.83344
▁join	-9.83389
▁Pa	-9.83496
▁urban	-9.83555
▁accident	-9.83561
▁biological	-9.83562
V	-9.83574
▁Mars	-9.83578
▁sorts	-9.83696
▁radio	-9.83697
▁sh	-9.83718
▁quick	-9.8379
▁terrible	-9.83915
▁connection	-9.83971
▁diseases	-9.84196
▁sat	-9.84301
▁reduce	-9.84347
▁da	-9.84519
▁gene	-9.84542
▁willing	-9.84603
▁politics	-9.84628
fu	-9.84709
▁cross	-9.84868
▁forget	-9.84994
▁boat	-9.85021
▁standard	-9.85045
men	-9.85061
▁male	-9.85152
▁legs	-9.85213
▁en	-9.85231
▁virus	-9.85427
▁engineering	-9.85531
▁Many	-9.85567
▁bear	-9.85688
let	-9.8572
▁mission	-9.85734
▁nation	-9.86015
▁babies	-9.8607
▁beauty	-9.8607
▁failure	-9.8607
▁Western	-9.86074
▁Two	-9.86078
▁seconds	-9.86102
ified	-9.86118
▁condition	-9.86144
▁fix	-9.86195
▁decades	-9.86228
▁services	-9.86267
▁useful	-9.86326
▁tissue	-9.86434
▁trouble	-9.86434
▁distance	-9.86434
▁river	-9.86434
▁dance	-9.86527
ea	-9.86578
▁professional	-9.86615
▁colleagues	-9.86773
▁although	-9.86798
▁popular	-9.86801
▁di	-9.86843
▁aid	-9.86939
ip	-9.8715
▁infrastructure	-9.87165
▁various	-9.87165
▁describe	-9.87257
▁block	-9.87274
▁following	-9.87327
▁obvious	-9.87405
▁governments	-9.87515
▁genome	-9.87532
▁remarkable	-9.87532
▁landscape	-9.87535
▁summer	-9.87537
▁atmosphere	-9.87549
▁complete	-9.87862
▁challenges	-9.879
▁London	-9.87901
▁speech	-9.87901
▁investment	-9.87918
▁helped	-9.88003
▁anyway	-9.88348
▁invented	-9.88401
▁rock	-9.88474
▁shared	-9.88506
term	-9.88538
▁birth	-9.8864
▁types	-9.88827
ff	-9.88838
▁slide	-9.88958
▁straight	-9.89017
▁television	-9.89017
▁worst	-9.89017
▁ahead	-9.8906
light	-9.89071
▁r	-9.89124
▁jump	-9.89145
▁anti	-9.89241
▁values	-9.89244
ping	-9.89378
▁understood	-9.89391
mon	-9.89429
▁flu	-9.89511
▁ca	-9.89513
▁artist	-9.89582
?"	-9.89659
▁conference	-9.89767
▁Mar	-9.89772
▁stopped	-9.89796
▁points	-9.89938
▁choices	-9.90068
med	-9.90133
▁supply	-9.90145
▁organizations	-9.90345
▁agree	-9.90602
▁flying	-9.90752
▁apart	-9.90755
one	-9.90848
▁magic	-9.90999
▁ship	-9.91017
▁task	-9.91122
▁levels	-9.91153
▁recent	-9.91201
▁total	-9.91249
▁La	-9.9128
▁cycle	-9.9139
wa	-9.91414
▁California	-9.91668
▁possibly	-9.91668
▁John	-9.92039
▁From	-9.92053
▁slightly	-9.92078
▁below	-9.92224
ious	-9.92371
ey	-9.92421
▁minds	-9.92428
▁central	-9.92439
▁sick	-9.9246
▁li	-9.92626
▁mostly	-9.92719
▁Your	-9.92745
▁aware	-9.92813
▁sector	-9.92827
▁Afghanistan	-9.92827
▁smell	-9.92827
▁effects	-9.93172
▁sequence	-9.93216
▁gr	-9.93252
▁passion	-9.93254
air	-9.93267
▁programs	-9.93394
▁original	-9.93526
▁rights	-9.93534
▁capacity	-9.93606
off	-9.93696
▁match	-9.93938
▁crime	-9.94001
hand	-9.94018
▁sand	-9.94062
▁event	-9.94265
▁Instead	-9.94392
▁paid	-9.94392
▁directly	-9.94497
U	-9.94556
▁cat	-9.94712
▁dad	-9.94753
▁interact	-9.94823
ak	-9.95053
▁character	-9.95116
ner	-9.9539
▁engine	-9.95458
▁laws	-9.9549
▁meters	-9.95523
▁roll	-9.95589
▁causes	-9.9571
▁bought	-9.95983
▁campaign	-9.95983
▁responsibility	-9.95983
▁avoid	-9.95983
▁sentence	-9.95993
▁vast	-9.96015
▁streets	-9.96064
▁sp	-9.96247
▁multi	-9.96289
▁Facebook	-9.96384
▁societies	-9.96386
▁achieve	-9.96485
▁threat	-9.9664
▁afford	-9.9676
▁creativity	-9.96788
▁tremendous	-9.96788
▁twice	-9.96788
▁Think	-9.96789
▁window	-9.96792
▁dying	-9.96793
▁pop	-9.96794
▁gun	-9.96874
lin	-9.96933
▁article	-9.97192
▁easily	-9.97192
▁brand	-9.97203
▁speaking	-9.97217
▁worry	-9.97287
▁rid	-9.97492
▁depend	-9.97591
▁bridge	-9.97604
▁chair	-9.9761
▁communication	-9.97614
▁sustainable	-9.97615
▁published	-9.97677
▁quote	-9.97724
▁chemical	-9.98037
ng	-9.9814
▁degrees	-9.98234
▁afraid	-9.98417
▁oxygen	-9.98417
▁funny	-9.98431
▁throw	-9.98433
▁noticed	-9.98447
j	-9.98634
▁wild	-9.98827
▁commercial	-9.98829
▁broken	-9.98887
▁deliver	-9.98893
▁significant	-9.99113
▁National	-9.99242
▁highly	-9.99252
▁scientist	-9.99311
▁closer	-9.99472
▁relationships	-9.99483
▁active	-9.99509
▁emotional	-9.9957
▁Ka	-9.99594
▁mountain	-9.99619
▁vote	-9.99676
io	-9.99774
▁evolved	-9.99802
▁played	-9.99857
ability	-9.99857
▁His	-9.99868
tri	-9.99892
▁random	-9.99946
▁balance	-10.0007
ving	-10.0008
▁lack	-10.0009
▁inspired	-10.0021
▁offer	-10.0021
ast	-10.0025
▁catch	-10.0029
▁efficient	-10.0034
▁Great	-10.0061
▁net	-10.0065
▁discover	-10.0066
▁core	-10.0067
vis	-10.0082
▁hole	-10.0083
▁plane	-10.0084
▁civil	-10.0085
ler	-10.009
▁differently	-10.009
▁notion	-10.0099
▁boys	-10.0114
▁drawing	-10.0133
▁influence	-10.0139
▁trip	-10.0144
da	-10.0146
▁etc	-10.0151
ology	-10.016
▁Over	-10.0179
▁experiments	-10.0181
▁glass	-10.0184
▁carry	-10.0196
ack	-10.0196
▁equal	-10.0203
log	-10.0205
▁camp	-10.0215
▁giant	-10.0218
▁helping	-10.0234
▁contact	-10.0241
How	-10.0246
▁oh	-10.0249
▁represent	-10.0249
▁produced	-10.0252
▁husband	-10.0261
▁identity	-10.0261
▁pass	-10.0276
▁missing	-10.0278
▁Lo	-10.0284
▁continent	-10.0304
▁classroom	-10.0304
▁earth	-10.0306
▁diversity	-10.0347
ite	-10.0354
▁devices	-10.0355
ain	-10.037
▁passed	-10.0372
▁hearing	-10.0382
▁basis	-10.039
▁crowd	-10.039
▁gap	-10.0392
▁reaction	-10.0396
ka	-10.042
▁Jo	-10.0429
den	-10.0431
▁struggle	-10.0434
▁surgery	-10.0434
▁tough	-10.0435
▁states	-10.0443
▁nearly	-10.0453
▁Po	-10.0466
ens	-10.0472
▁molecules	-10.0472
▁civilization	-10.0478
▁complexity	-10.0483
▁European	-10.0487
▁designers	-10.0497
▁gain	-10.0497
for	-10.0502
▁collect	-10.0502
▁members	-10.0506
▁detect	-10.0507
▁seemed	-10.0507
▁Da	-10.0508
▁extreme	-10.0509
▁fair	-10.051
▁flight	-10.0523
▁island	-10.053
▁gotten	-10.0535
ship	-10.0557
▁comp	-10.0561
▁satellite	-10.0565
▁networks	-10.0566
▁definition	-10.0574
▁Di	-10.0575
▁industrial	-10.0576
au	-10.0578
Why	-10.0596
▁studying	-10.0599
▁Hu	-10.0605
▁alternative	-10.061
▁Take	-10.0615
les	-10.0621
▁engage	-10.0624
▁ha	-10.063
▁forever	-10.0638
▁chain	-10.0654
▁spending	-10.0655
▁farm	-10.0681
▁eating	-10.0692
▁opposite	-10.0699
▁weird	-10.07
ray	-10.0708
▁remind	-10.0719
▁forces	-10.0736
▁graph	-10.0743
▁background	-10.0744
▁coffee	-10.0744
▁Again	-10.0744
▁labor	-10.0752
▁express	-10.0756
▁effort	-10.0775
▁raised	-10.0783
▁easier	-10.0789
▁imagination	-10.0789
▁negative	-10.0789
▁focused	-10.08
▁sold	-10.08
▁markets	-10.0809
port	-10.0813
▁birds	-10.082
▁trial	-10.0825
▁trick	-10.0827
▁fund	-10.0829
▁desire	-10.0834
▁fully	-10.0836
▁unit	-10.0847
▁interview	-10.0855
▁dreams	-10.0872
ide	-10.0872
▁scene	-10.088
▁Car	-10.0885
▁reward	-10.0886
▁none	-10.0886
▁app	-10.089
▁party	-10.09
▁benefit	-10.0921
▁airplane	-10.0925
▁museum	-10.0925
▁opportunities	-10.0925
▁signal	-10.0926
▁mid	-10.0927
▁justice	-10.0944
▁lucky	-10.0975
▁Se	-10.0975
▁beings	-10.0981
▁See	-10.0986
▁separate	-10.0989
ay	-10.1011
▁proud	-10.1018
set	-10.1021
▁answers	-10.1028
my	-10.1042
▁honest	-10.105
▁neighborhood	-10.1058
▁criminal	-10.1063
▁possibility	-10.1063
▁However	-10.1068
▁cave	-10.107
▁held	-10.1083
▁date	-10.1097
▁David	-10.111
▁despite	-10.111
▁planets	-10.1111
▁importantly	-10.1113
▁moon	-10.1114
▁card	-10.1119
aw	-10.112
▁differences	-10.1138
ging	-10.1142
▁virtual	-10.1144
▁transform	-10.1144
cent	-10.1145
ier	-10.1151
▁Twitter	-10.1156
▁platform	-10.1156
cy	-10.1159
▁stem	-10.116
▁More	-10.117
▁painting	-10.1187
▁th	-10.12
ren	-10.1201
▁Brazil	-10.1201
ther	-10.1202
▁competition	-10.1203
▁sharing	-10.1203
▁yellow	-10.1204
▁noise	-10.121
▁ultimately	-10.1211
▁tradition	-10.1222
▁surprise	-10.1223
based	-10.1235
▁advantage	-10.1251
▁bottle	-10.1251
▁identify	-10.1251
▁desert	-10.1251
▁argument	-10.1251
▁manage	-10.1252
▁Asia	-10.1276
dimensional	-10.1285
ible	-10.1292
▁magazine	-10.1298
▁mouth	-10.1298
▁stuck	-10.1298
▁brother	-10.1299
▁bag	-10.13
▁turning	-10.1302
▁Actually	-10.1303
▁fairly	-10.1312
▁argue	-10.1317
▁fill	-10.1327
▁Second	-10.1333
It	-10.1358
▁suffering	-10.1366
▁sad	-10.1373
▁wants	-10.1384
▁ancient	-10.1393
▁consciousness	-10.1395
▁Her	-10.1406
za	-10.1407
ile	-10.1415
▁switch	-10.1417
▁coast	-10.1418
▁bone	-10.1422
▁Iraq	-10.1428
▁bat	-10.143
▁fold	-10.1439
▁Sometimes	-10.1442
▁flag	-10.1442
▁Ki	-10.1449
▁due	-10.145
▁imp	-10.1455
▁direct	-10.1456
ai	-10.1473
▁invest	-10.1483
▁breast	-10.149
▁claim	-10.149
▁religious	-10.149
▁damage	-10.149
▁leadership	-10.149
▁motor	-10.1491
▁Bill	-10.1504
▁collective	-10.1527
▁necessary	-10.1538
▁phenomenon	-10.1538
▁Japan	-10.1539
▁entirely	-10.1539
▁crash	-10.1539
▁bank	-10.1539
▁pair	-10.154
▁Once	-10.1545
▁paint	-10.1553
▁base	-10.1556
▁double	-10.1559
▁finish	-10.1563
▁soil	-10.1582
▁Middle	-10.1587
▁motion	-10.1589
▁cloud	-10.1598
▁Ph	-10.1617
▁fashion	-10.1622
rt	-10.1624
ame	-10.1625
cal	-10.1627
▁necessarily	-10.1636
▁creation	-10.1636
▁Con	-10.1648
▁sorry	-10.165
▁emotions	-10.1658
▁attempt	-10.1659
ang	-10.1663
▁letter	-10.1681
▁faith	-10.1685
▁gender	-10.1685
▁grand	-10.1687
▁Ta	-10.1688
▁opened	-10.1691
▁figured	-10.1699
▁artists	-10.1715
▁Ne	-10.172
▁cheap	-10.1726
▁location	-10.1735
▁university	-10.1735
▁click	-10.1735
▁bright	-10.1736
▁climb	-10.1754
▁accept	-10.1756
ris	-10.1757
iv	-10.1762
▁studied	-10.1785
▁gift	-10.1785
▁debate	-10.1785
▁loss	-10.1785
▁du	-10.1789
▁Pro	-10.1791
▁CO	-10.1793
▁benefits	-10.1795
▁mis	-10.1799
▁hell	-10.1803
▁knowing	-10.181
▁structures	-10.1815
▁bubble	-10.1835
▁suit	-10.1851
▁failed	-10.1859
▁operate	-10.1865
▁pounds	-10.1872
ki	-10.1874
▁sc	-10.1874
▁leg	-10.1883
▁experiences	-10.1884
▁French	-10.1885
▁brilliant	-10.1885
▁restaurant	-10.1885
▁hurt	-10.1885
▁score	-10.1885
▁interface	-10.1885
work	-10.189
▁creatures	-10.189
▁wear	-10.19
▁beat	-10.1918
▁marriage	-10.1935
▁curve	-10.1936
▁master	-10.1936
ably	-10.1948
▁dollar	-10.1952
▁Good	-10.1953
▁feels	-10.1966
▁foundation	-10.1967
▁compared	-10.197
▁lesson	-10.1972
▁Bu	-10.1972
▁Mr	-10.1977
▁Washington	-10.1986
▁puzzle	-10.1986
▁smile	-10.1987
▁childhood	-10.1987
▁era	-10.1991
▁Did	-10.1994
▁leading	-10.1998
▁discovery	-10.1998
▁link	-10.2
▁bird	-10.2003
▁hate	-10.2004
▁sister	-10.2008
ob	-10.2009
▁farmers	-10.2011
▁release	-10.2016
▁elements	-10.2019
▁degree	-10.2035
▁strategy	-10.2037
▁mouse	-10.2038
▁foreign	-10.2046
▁grade	-10.2053
pro	-10.2054
ue	-10.2069
▁lay	-10.2079
▁holding	-10.208
▁fail	-10.2084
▁honor	-10.2089
▁professor	-10.2089
▁universal	-10.2089
▁British	-10.2089
all	-10.2089
▁stream	-10.2091
▁Web	-10.2095
▁drink	-10.2109
▁wood	-10.2115
▁edge	-10.2115
ned	-10.2116
▁cap	-10.2121
▁tumor	-10.214
▁fresh	-10.214
▁Kenya	-10.214
▁typical	-10.2141
▁poem	-10.2142
▁Ja	-10.2144
▁belong	-10.2164
▁managed	-10.2171
▁particles	-10.2173
▁Vi	-10.2176
ef	-10.2192
▁responsible	-10.2192
▁patent	-10.2193
This	-10.2194
▁majority	-10.2197
nce	-10.22
▁expression	-10.2208
▁Have	-10.2211
ose	-10.2213
▁deeply	-10.2226
▁events	-10.2243
▁newspaper	-10.2244
ake	-10.2249
▁adults	-10.2256
▁prove	-10.2259
form	-10.2267
▁sudden	-10.2284
ries	-10.2292
▁perform	-10.2294
▁caught	-10.2296
▁fascinating	-10.2296
▁bees	-10.2299
▁fighting	-10.2312
▁generate	-10.2321
▁im	-10.2321
▁organisms	-10.2322
▁walls	-10.2328
▁saving	-10.2331
▁businesses	-10.2331
▁phones	-10.2337
▁budget	-10.2349
▁leaving	-10.2349
▁serve	-10.2352
▁theater	-10.2354
▁Gr	-10.2365
▁watched	-10.2369
gg	-10.2371
▁Cha	-10.2373
▁independent	-10.2378
qua	-10.2386
▁interaction	-10.2387
▁se	-10.2388
▁horse	-10.2402
▁unfortunately	-10.2405
▁limited	-10.2422
▁wearing	-10.2437
ib	-10.2449
▁fossil	-10.2455
▁lunch	-10.2455
of	-10.2458
▁otherwise	-10.2459
lan	-10.246
uff	-10.2461
▁related	-10.2465
▁enable	-10.2485
ral	-10.249
▁engineers	-10.2497
▁layer	-10.2502
▁lie	-10.2506
▁president	-10.2508
▁dinner	-10.2509
▁exercise	-10.2509
▁display	-10.2509
▁enter	-10.2512
over	-10.2516
ick	-10.2525
▁tens	-10.2526
▁concerned	-10.2531
▁frame	-10.2534
▁Big	-10.2548
▁Su	-10.2557
▁occur	-10.2562
▁hidden	-10.2562
▁invisible	-10.2562
▁shop	-10.2565
▁believed	-10.2566
▁discussion	-10.2566
▁multiple	-10.2577
sis	-10.2578
▁finished	-10.259
▁ideal	-10.2594
▁adult	-10.2603
▁profound	-10.2604
ft	-10.2611
▁matters	-10.2614
▁bread	-10.2617
▁gay	-10.2617
▁capable	-10.2619
▁everyday	-10.2623
▁Life	-10.2626
▁closed	-10.2627
ps	-10.2653
▁clinical	-10.2661
▁traffic	-10.267
▁opinion	-10.2671
▁safety	-10.2673
▁Very	-10.2676
▁copy	-10.2676
▁constantly	-10.2679
▁trained	-10.268
▁appear	-10.2689
▁slowly	-10.2697
▁launch	-10.2701
▁sexual	-10.2711
▁parent	-10.2719
▁grown	-10.2721
▁bus	-10.2724
▁epidemic	-10.2725
▁George	-10.2725
▁novel	-10.2726
▁disaster	-10.2726
▁pig	-10.2729
▁followed	-10.2734
▁received	-10.2747
▁promise	-10.2752
▁strength	-10.2755
day	-10.2759
ically	-10.2768
▁topic	-10.277
▁tail	-10.2775
▁partner	-10.2778
▁married	-10.2783
▁leader	-10.2792
▁Ri	-10.2796
▁detail	-10.2805
▁flat	-10.2807
▁disappear	-10.2811
▁mix	-10.2811
▁described	-10.2822
▁breath	-10.283
▁El	-10.2833
▁artificial	-10.2836
▁row	-10.2836
▁exchange	-10.2837
▁host	-10.2842
▁bi	-10.2845
▁insects	-10.2847
▁invited	-10.2853
▁mentioned	-10.2856
▁currently	-10.2858
▁launched	-10.2861
▁graduate	-10.2863
▁fell	-10.2863
▁perfectly	-10.2869
sum	-10.2871
▁ten	-10.2887
▁metal	-10.2888
▁Ru	-10.2888
▁kilometers	-10.2891
▁mirror	-10.2891
▁garden	-10.2891
▁crack	-10.2892
▁collection	-10.2898
J	-10.2898
▁lights	-10.2898
▁clinic	-10.2901
▁transformation	-10.2905
top	-10.2916
dge	-10.292
▁dynamic	-10.2943
▁mathematics	-10.2947
▁dry	-10.2948
▁Mu	-10.2953
▁wide	-10.2957
▁wave	-10.2959
▁leads	-10.2962
▁odd	-10.2963
▁warm	-10.2976
▁ride	-10.2987
▁relative	-10.299
ice	-10.2999
▁protein	-10.3001
▁survival	-10.3003
▁Everybody	-10.3003
▁correct	-10.3009
▁folks	-10.301
▁mark	-10.301
ound	-10.3011
▁highest	-10.302
▁metaphor	-10.3021
▁cure	-10.3036
▁Sp	-10.3052
▁principles	-10.3057
▁spoke	-10.3058
▁spirit	-10.3059
▁contract	-10.306
▁wake	-10.3061
▁creates	-10.3082
▁circle	-10.309
▁Si	-10.3093
▁surprised	-10.3093
▁normally	-10.3096
▁transport	-10.3114
▁GDP	-10.3116
▁chart	-10.3117
ook	-10.3119
▁lu	-10.3121
tes	-10.3122
▁insight	-10.3123
▁band	-10.3137
▁journalist	-10.314
ome	-10.3142
▁seriously	-10.3143
▁define	-10.3146
▁joy	-10.3148
▁weapons	-10.3151
▁colors	-10.3153
▁sum	-10.3156
▁brings	-10.3164
▁Australia	-10.3165
▁oceans	-10.3169
▁roof	-10.3173
▁Mexico	-10.3174
▁channel	-10.3174
▁trillion	-10.3174
▁narrative	-10.3174
▁gold	-10.3176
▁principle	-10.3177
af	-10.3177
▁coral	-10.3181
▁factory	-10.3186
▁consequences	-10.3195
▁note	-10.3203
▁shoes	-10.3206
istic	-10.3211
ger	-10.3227
▁tons	-10.323
▁Richard	-10.3231
▁depression	-10.3231
▁versus	-10.3231
▁command	-10.3231
▁zone	-10.3231
▁comment	-10.3231
▁organic	-10.3231
▁feedback	-10.3232
▁fellow	-10.3232
▁blog	-10.3232
▁May	-10.3232
▁rec	-10.3233
▁seat	-10.3241
▁paying	-10.3242
fer	-10.3249
▁compare	-10.3269
▁cognitive	-10.3289
▁worried	-10.3289
▁existence	-10.329
▁invention	-10.3295
▁belief	-10.3295
▁molecule	-10.3296
▁ring	-10.3302
▁wheel	-10.3307
▁Bi	-10.332
▁considered	-10.3344
▁mathematical	-10.3347
▁nervous	-10.3347
▁stupid	-10.3347
▁healthcare	-10.3347
▁round	-10.3348
▁operating	-10.3348
▁signals	-10.3359
▁fan	-10.3366
ium	-10.3374
▁Does	-10.3375
▁Gu	-10.3377
▁billions	-10.3377
▁fat	-10.3377
▁designer	-10.3381
▁moments	-10.3386
▁remote	-10.3393
▁surprising	-10.3393
▁exists	-10.3395
▁load	-10.3397
ja	-10.3399
▁galaxies	-10.3406
▁quantum	-10.3406
▁planning	-10.3407
▁comfortable	-10.3408
▁Sun	-10.3409
▁print	-10.3413
▁testing	-10.3414
▁resource	-10.3419
▁Would	-10.3425
▁Ad	-10.3438
▁England	-10.3464
▁quiet	-10.3464
▁curious	-10.3464
▁associated	-10.3472
▁researchers	-10.3472
▁vehicle	-10.3476
▁unless	-10.3476
▁Ex	-10.348
▁harder	-10.3484
▁profit	-10.3491
▁advance	-10.3495
▁concern	-10.3499
▁capture	-10.35
ari	-10.3503
▁k	-10.3524
▁electric	-10.3531
▁treated	-10.3531
val	-10.3533
▁intelligent	-10.3535
▁hasn	-10.3564
▁wire	-10.3575
▁emissions	-10.3583
▁equivalent	-10.3583
▁official	-10.3583
▁wisdom	-10.3583
▁stood	-10.3583
▁Three	-10.3583
▁weather	-10.3583
▁clip	-10.3584
▁hopefully	-10.3588
▁circuit	-10.3588
▁uses	-10.359
▁experts	-10.3602
▁meat	-10.3606
▁forced	-10.3613
▁begins	-10.3618
ual	-10.3619
If	-10.3624
ky	-10.3625
▁Their	-10.3641
▁consumption	-10.3643
▁equipment	-10.3643
▁survey	-10.3643
▁autism	-10.3643
▁laptop	-10.3643
▁distribution	-10.3643
▁daily	-10.3643
▁reform	-10.3647
▁killing	-10.3656
▁method	-10.3659
▁lifetime	-10.3667
▁harm	-10.3675
▁letters	-10.3689
▁exact	-10.369
▁steps	-10.3694
▁telescope	-10.3703
▁hide	-10.3703
▁taste	-10.371
▁Germany	-10.3711
▁Island	-10.3713
▁soldiers	-10.3714
▁member	-10.3725
▁warming	-10.3737
▁ski	-10.3745
▁processes	-10.3747
▁ants	-10.3752
▁judge	-10.3764
▁joke	-10.3764
▁Everything	-10.3764
▁court	-10.3764
▁rural	-10.3764
▁combination	-10.3764
▁pages	-10.377
rus	-10.378
▁suggest	-10.378
▁engineer	-10.3783
▁whom	-10.3784
▁saved	-10.3786
▁op	-10.3799
▁technical	-10.3812
▁opening	-10.3818
▁Audience	-10.3825
▁participate	-10.3825
▁intellectual	-10.3825
▁grandmother	-10.3825
▁importance	-10.3825
▁expected	-10.3825
rk	-10.3829
head	-10.3831
lon	-10.3833
▁picked	-10.3844
▁dealing	-10.3845
▁reflect	-10.3851
▁names	-10.3853
chi	-10.3854
▁tape	-10.3856
▁arms	-10.3859
▁skill	-10.3871
▁cartoon	-10.3876
▁diet	-10.388
▁Einstein	-10.3886
▁analysis	-10.3886
▁galaxy	-10.3886
▁extract	-10.3887
▁season	-10.3889
▁according	-10.3889
ero	-10.3897
▁Times	-10.3902
▁credit	-10.3906
ern	-10.3907
▁mistake	-10.3911
ley	-10.3915
▁experienced	-10.3915
▁AIDS	-10.3919
▁determine	-10.392
▁blow	-10.3927
▁fourth	-10.3936
▁MIT	-10.3948
▁agriculture	-10.3948
▁limb	-10.3948
▁spaces	-10.395
▁selling	-10.3951
ima	-10.3955
▁increasingly	-10.3959
▁setting	-10.3962
▁arrived	-10.3964
▁soul	-10.3971
▁inner	-10.3971
▁instrument	-10.3974
▁statistics	-10.3976
scale	-10.3977
▁robotic	-10.3981
ew	-10.3989
▁covered	-10.3993
fe	-10.4002
press	-10.4003
her	-10.4006
ologist	-10.4009
▁stone	-10.4009
▁President	-10.401
▁plate	-10.4012
▁convinced	-10.4035
ui	-10.4038
Hey	-10.4038
car	-10.4038
▁filled	-10.4042
▁station	-10.405
▁driver	-10.4059
▁tall	-10.4061
▁Com	-10.4061
▁broke	-10.4064
▁error	-10.4072
▁ordinary	-10.4072
▁battle	-10.4073
▁keeping	-10.4109
▁remain	-10.4111
▁pocket	-10.4135
▁property	-10.4136
▁chicken	-10.4137
▁string	-10.4138
▁toward	-10.4144
hy	-10.4146
Yes	-10.4163
▁muscle	-10.4168
▁organized	-10.4174
▁faces	-10.419
use	-10.4191
▁volume	-10.4199
▁medium	-10.4199
▁construction	-10.4201
▁north	-10.4202
▁caused	-10.4206
▁limit	-10.4211
▁emotion	-10.4226
▁cow	-10.4226
▁operation	-10.4238
▁calling	-10.4254
gram	-10.4257
▁mess	-10.4262
▁equation	-10.4262
▁heavy	-10.4262
▁perception	-10.4262
▁peak	-10.4262
▁stock	-10.4263
▁awful	-10.4264
▁wondering	-10.4265
▁addition	-10.4292
▁qua	-10.4295
▁encourage	-10.4298
▁fo	-10.4303
▁helps	-10.4305
▁Hi	-10.4309
▁habit	-10.4315
▁malaria	-10.4318
▁generations	-10.4326
▁empty	-10.4326
▁evil	-10.4326
▁yesterday	-10.4326
▁maintain	-10.4326
▁Center	-10.4326
▁losing	-10.4327
▁toilet	-10.4329
▁Human	-10.4329
▁abuse	-10.4329
▁ra	-10.4336
ily	-10.4337
▁tip	-10.4348
▁hang	-10.4361
▁lo	-10.4364
right	-10.4365
▁sample	-10.4365
▁released	-10.4367
▁para	-10.4375
▁Iran	-10.4379
▁contain	-10.4382
ear	-10.439
▁prototype	-10.4391
▁underneath	-10.4391
▁title	-10.4391
▁transition	-10.4396
▁bill	-10.4399
hu	-10.44
▁factors	-10.4402
▁burn	-10.4416
▁Am	-10.4419
▁quarter	-10.4427
▁introduce	-10.4428
cut	-10.4441
▁sa	-10.4446
▁photos	-10.4452
▁connections	-10.4455
▁Amazon	-10.4456
▁rapidly	-10.4463
▁protection	-10.4468
▁author	-10.4468
▁lies	-10.4473
▁users	-10.4485
▁Ar	-10.4486
▁adapt	-10.4492
▁regular	-10.4508
▁Harvard	-10.4521
▁cutting	-10.4528
▁calls	-10.453
rate	-10.4536
▁require	-10.4537
▁tube	-10.454
▁victims	-10.4546
▁Arab	-10.4548
▁rare	-10.4552
▁coal	-10.4555
▁hadn	-10.4563
▁pen	-10.4564
▁Na	-10.4569
▁electrical	-10.4577
Do	-10.4577
▁Japanese	-10.4587
▁Street	-10.4587
▁battery	-10.4587
▁embrace	-10.4587
▁inequality	-10.4587
▁sugar	-10.4587
▁Last	-10.4592
▁te	-10.4598
▁document	-10.4608
▁dimensions	-10.461
nna	-10.4616
▁counter	-10.4617
▁deeper	-10.4618
▁sending	-10.4623
rew	-10.4629
han	-10.464
▁essential	-10.464
▁Paul	-10.4652
▁NASA	-10.4653
▁Pakistan	-10.4653
▁emerging	-10.4653
▁possibilities	-10.4653
▁Britain	-10.4653
▁properties	-10.4653
▁poetry	-10.4654
▁peer	-10.4655
▁button	-10.4656
▁south	-10.4656
▁react	-10.4658
ration	-10.4674
▁requires	-10.4675
▁tag	-10.4682
bra	-10.4686
▁nose	-10.4694
▁players	-10.47
▁finger	-10.4703
▁School	-10.472
▁filter	-10.472
▁variety	-10.472
▁facing	-10.472
▁balloon	-10.472
▁carefully	-10.4731
▁appropriate	-10.4738
▁fields	-10.4747
▁Wi	-10.4751
▁advanced	-10.4752
van	-10.4756
▁rat	-10.476
▁mention	-10.4772
▁leaves	-10.4784
▁doubt	-10.4787
▁encounter	-10.4787
▁surgeon	-10.4787
▁fiction	-10.4787
▁management	-10.479
▁moves	-10.4801
▁movies	-10.4817
▁mothers	-10.4818
▁shapes	-10.4821
gi	-10.4824
▁Mon	-10.4825
▁estimate	-10.4826
▁height	-10.4829
▁tap	-10.4844
▁economics	-10.4846
▁Congress	-10.4855
▁Could	-10.4855
▁illegal	-10.4855
▁sweet	-10.4855
▁tomorrow	-10.4855
▁microbes	-10.4855
▁Francisco	-10.4855
▁chemistry	-10.4855
▁gang	-10.4856
▁pump	-10.4856
▁rational	-10.4856
▁grid	-10.4857
▁specifically	-10.4858
▁player	-10.4858
bal	-10.4884
source	-10.4884
▁Pi	-10.4888
That	-10.4888
kin	-10.4891
▁represents	-10.4897
ification	-10.49
▁shoulder	-10.4906
▁absolute	-10.491
▁root	-10.4911
▁heads	-10.4921
▁inspiration	-10.4923
▁spring	-10.4924
▁rocket	-10.4925
▁waves	-10.4927
▁cards	-10.4936
▁tea	-10.4951
▁soft	-10.4964
▁relate	-10.4966
▁broad	-10.4982
▁Los	-10.499
▁physicist	-10.4991
▁technological	-10.4991
▁protest	-10.4991
▁gentlemen	-10.4991
▁designing	-10.4993
▁review	-10.4994
▁Art	-10.4994
ju	-10.5002
▁habitat	-10.5003
▁voices	-10.501
▁cook	-10.5011
▁pure	-10.5015
meter	-10.5022
▁required	-10.5023
▁cup	-10.5027
▁shoot	-10.5029
art	-10.5041
▁former	-10.5041
▁nations	-10.5047
▁increasing	-10.5047
▁Nigeria	-10.5051
▁celebrate	-10.506
▁length	-10.506
▁vulnerable	-10.506
▁conclusion	-10.506
▁laugh	-10.5071
▁auto	-10.5084
▁weak	-10.5086
ana	-10.509
▁convince	-10.5101
▁holes	-10.5113
▁cameras	-10.5122
▁Canada	-10.5129
▁church	-10.5129
▁sites	-10.5136
▁hotel	-10.5138
▁orbit	-10.5142
▁statement	-10.5143
ough	-10.5145
▁exception	-10.5147
▁trials	-10.5147
▁effectively	-10.5157
▁replace	-10.5171
▁funding	-10.5178
ular	-10.5184
▁Dan	-10.5192
▁movements	-10.5195
▁option	-10.5198
▁swim	-10.5199
▁fruit	-10.5199
▁studio	-10.5199
▁firm	-10.5199
▁Anderson	-10.52
▁Since	-10.52
▁lady	-10.5201
▁sight	-10.5206
▁characters	-10.5209
▁presentation	-10.521
▁relatively	-10.5215
▁mile	-10.5218
ory	-10.5219
▁Israel	-10.5219
▁j	-10.5233
▁include	-10.5239
▁reveal	-10.5245
rop	-10.5247
▁radical	-10.5257
▁ecosystem	-10.5268
▁vaccine	-10.5269
▁outcome	-10.5269
▁explanation	-10.527
▁pleasure	-10.527
▁status	-10.527
▁passionate	-10.5273
▁consumer	-10.5274
▁appreciate	-10.5275
▁Che	-10.5277
▁producing	-10.5279
▁details	-10.5279
gar	-10.5295
▁bare	-10.5302
▁invent	-10.5316
▁messages	-10.5328
▁dots	-10.5332
▁phrase	-10.5341
▁France	-10.5341
▁teeth	-10.5341
▁jail	-10.5341
▁roughly	-10.5349
▁politicians	-10.5356
▁rates	-10.5359
▁na	-10.5361
▁receive	-10.5367
▁risks	-10.5371
board	-10.5383
▁user	-10.54
ko	-10.5403
▁symbol	-10.5404
▁factor	-10.5409
▁danger	-10.5411
▁Chicago	-10.5412
▁academic	-10.5412
▁staff	-10.5412
▁James	-10.5412
▁Yet	-10.5412
▁valuable	-10.5413
▁Anyway	-10.5413
▁BG	-10.5421
▁scan	-10.5424
▁expand	-10.5428
▁director	-10.5434
▁handle	-10.5451
▁Come	-10.5468
ek	-10.5473
▁fewer	-10.5479
▁molecular	-10.5484
▁buying	-10.5484
▁decline	-10.5485
▁corruption	-10.5485
▁evolutionary	-10.5487
▁myth	-10.5489
▁winter	-10.549
▁cu	-10.5493
▁signs	-10.55
▁hall	-10.5501
▁meaningful	-10.5508
▁pal	-10.551
▁Thanks	-10.5519
▁monitor	-10.5525
water	-10.5529
▁king	-10.553
▁succeed	-10.5532
▁chemicals	-10.5551
▁sheet	-10.5552
▁kitchen	-10.5557
▁mosquito	-10.5557
▁steel	-10.5557
▁plot	-10.5557
▁shame	-10.5558
▁Bank	-10.5559
▁Ju	-10.5561
our	-10.5583
ency	-10.5594
▁feelings	-10.5596
▁lessons	-10.56
phi	-10.5603
▁Ben	-10.5606
▁remove	-10.5609
▁formed	-10.5618
▁trend	-10.5627
▁Institute	-10.563
▁sculpture	-10.563
▁graphic	-10.563
▁videos	-10.5636
▁bike	-10.5642
▁flip	-10.5655
▁assume	-10.5675
▁engaged	-10.5676
▁Tom	-10.5686
▁previous	-10.569
▁thin	-10.57
▁Darwin	-10.5701
▁infinite	-10.5703
▁definitely	-10.5703
▁manufacturing	-10.5703
▁spectrum	-10.5703
▁unusual	-10.5703
▁radiation	-10.5703
▁Boston	-10.5703
▁primary	-10.5703
▁split	-10.5704
▁internal	-10.5704
▁solid	-10.5704
▁worldwide	-10.5709
▁techniques	-10.5713
▁Muslim	-10.5715
▁pitch	-10.5716
▁grain	-10.5717
▁suffer	-10.5721
▁sing	-10.5727
▁beach	-10.5756
▁carrying	-10.5757
ank	-10.5758
ung	-10.576
▁pl	-10.5761
▁symptoms	-10.5773
▁depends	-10.5774
▁comfort	-10.5774
▁increased	-10.5776
▁department	-10.5777
▁silence	-10.5777
▁clever	-10.5777
▁alien	-10.5778
▁Other	-10.5779
▁flies	-10.5779
▁snow	-10.5779
▁tank	-10.5781
▁awareness	-10.5782
▁refer	-10.5782
▁productive	-10.5783
▁languages	-10.5788
▁fl	-10.5789
▁conscious	-10.579
▁feature	-10.5791
▁dinosaurs	-10.5795
▁arts	-10.5804
▁grab	-10.5806
▁introduced	-10.5809
▁forests	-10.5811
▁however	-10.5818
▁breathe	-10.5818
▁collapse	-10.5824
▁translate	-10.5824
▁pack	-10.5824
▁affected	-10.5842
▁Islam	-10.5848
▁Han	-10.585
▁fe	-10.5852
▁Women	-10.5852
▁YouTube	-10.5852
▁democratic	-10.5852
▁variation	-10.5852
▁violent	-10.5852
▁severe	-10.5852
▁fake	-10.5853
▁atoms	-10.5855
room	-10.5861
ery	-10.5861
▁applied	-10.5873
▁Park	-10.5885
▁homes	-10.5891
▁generally	-10.5892
▁potentially	-10.5893
▁tax	-10.5895
▁prime	-10.5899
▁German	-10.5917
▁input	-10.5925
▁attract	-10.5927
▁illusion	-10.5927
▁intervention	-10.5927
▁harvest	-10.5927
▁attitude	-10.5927
▁finance	-10.5927
▁conservation	-10.5928
▁collaboration	-10.593
▁loan	-10.593
▁reverse	-10.593
▁mechanism	-10.5945
▁typically	-10.5946
▁origin	-10.5954
ise	-10.5958
▁sources	-10.5958
▁sharks	-10.5975
▁organize	-10.5976
▁houses	-10.598
▁pulled	-10.599
▁sophisticated	-10.6003
▁hydrogen	-10.6003
▁compete	-10.6003
▁shut	-10.6005
▁Four	-10.6007
▁apartment	-10.6007
▁existing	-10.6008
▁mountains	-10.601
▁added	-10.6013
▁viruses	-10.6016
▁prepared	-10.6017
▁fundamentally	-10.604
▁recorded	-10.6074
▁liquid	-10.6079
▁Christian	-10.6079
▁route	-10.6079
▁nerve	-10.608
▁spider	-10.608
▁fiber	-10.608
oid	-10.608
ye	-10.6083
▁prop	-10.6085
▁intention	-10.6095
▁plus	-10.6104
ock	-10.6106
▁repeat	-10.6131
▁combine	-10.6134
▁physically	-10.6135
▁employees	-10.6141
▁recover	-10.6146
▁Steve	-10.6147
▁components	-10.6151
▁bias	-10.6152
▁Michael	-10.6156
▁empathy	-10.6156
▁iPhone	-10.6156
▁innovative	-10.6156
▁observation	-10.6156
▁physician	-10.6156
▁providing	-10.6156
▁false	-10.6156
▁sphere	-10.6156
▁prize	-10.6156
▁predator	-10.6156
▁framework	-10.6157
▁prefer	-10.6157
▁protected	-10.6167
▁reached	-10.6169
▁zoom	-10.617
▁earn	-10.6176
▁election	-10.6182
ulation	-10.6196
▁goals	-10.6212
▁Per	-10.6216
▁ultimate	-10.6221
▁personally	-10.6225
▁gravity	-10.6234
▁phase	-10.6234
▁pilot	-10.6234
▁pollution	-10.6234
▁relevant	-10.6234
▁awesome	-10.6234
▁loud	-10.6234
▁equality	-10.6238
▁loop	-10.6241
▁traveling	-10.6247
▁agent	-10.6251
ani	-10.6256
▁Day	-10.6258
bb	-10.626
▁element	-10.6261
▁border	-10.6262
▁shark	-10.6262
▁neighbors	-10.6267
▁State	-10.6268
▁su	-10.6292
▁poet	-10.6295
▁practical	-10.6299
▁toxic	-10.63
long	-10.6302
▁actions	-10.6306
▁sustain	-10.6308
▁naturally	-10.631
▁lecture	-10.6312
▁license	-10.6312
▁permanent	-10.6312
▁knee	-10.6312
▁Charles	-10.6312
well	-10.6322
▁organ	-10.6337
net	-10.6344
zz	-10.6346
mar	-10.6352
cus	-10.6355
▁blocks	-10.6368
mate	-10.637
▁Russia	-10.6381
ians	-10.6383
▁trans	-10.6384
▁escape	-10.6386
▁Perhaps	-10.639
▁While	-10.639
▁concrete	-10.639
▁destruction	-10.639
▁psychological	-10.639
▁computing	-10.639
▁milk	-10.639
▁silk	-10.639
▁reference	-10.6391
fully	-10.6393
▁eggs	-10.6395
▁fishing	-10.6397
▁suck	-10.6397
▁Air	-10.6418
▁solved	-10.6424
▁organs	-10.6439
▁divide	-10.6442
▁joined	-10.6446
▁hospitals	-10.646
down	-10.6467
▁activities	-10.647
▁complain	-10.647
▁efficiency	-10.647
▁privacy	-10.647
▁mechanical	-10.647
▁guide	-10.647
▁mortality	-10.647
▁ought	-10.6471
▁nest	-10.6471
▁hoping	-10.6471
▁dense	-10.6472
▁underwater	-10.6472
▁King	-10.6473
▁infection	-10.6474
sta	-10.6481
▁lying	-10.6487
▁stronger	-10.65
▁maps	-10.6502
▁collected	-10.6515
ane	-10.6516
▁evolve	-10.6522
foot	-10.6528
▁needle	-10.653
▁institution	-10.6531
phe	-10.6533
ridge	-10.6535
oli	-10.6536
▁constant	-10.6537
▁Th	-10.6543
▁dramatic	-10.6549
▁Science	-10.655
▁Valley	-10.655
▁policies	-10.655
▁repair	-10.655
▁housing	-10.655
▁pill	-10.6552
▁miss	-10.6555
▁ancestors	-10.6555
▁algorithms	-10.6563
▁Will	-10.6566
ker	-10.6567
▁section	-10.6581
▁regions	-10.6592
▁talent	-10.6606
▁angle	-10.6612
▁vehicles	-10.6614
▁cultures	-10.6615
grad	-10.6617
vin	-10.6618
▁bee	-10.662
▁dogs	-10.6625
▁centers	-10.6625
▁strip	-10.6629
▁activist	-10.663
▁afternoon	-10.663
▁microscope	-10.663
▁murder	-10.663
▁lens	-10.6631
▁Also	-10.6631
▁behave	-10.6631
▁polar	-10.6631
▁flash	-10.6631
▁Nobody	-10.6631
▁dropped	-10.6633
▁authority	-10.6633
▁bug	-10.6638
hop	-10.6639
low	-10.664
▁thanks	-10.6645
▁dec	-10.6648
matic	-10.6653
ham	-10.6657
▁scared	-10.666
▁Mc	-10.6661
ina	-10.6663
uring	-10.6665
▁printing	-10.6673
▁storm	-10.6676
ria	-10.6684
▁interests	-10.6686
▁processing	-10.6688
▁clock	-10.6696
▁cast	-10.6697
▁organism	-10.6697
back	-10.6706
▁illness	-10.6707
▁driven	-10.6711
▁drill	-10.6712
▁visible	-10.6712
▁swimming	-10.6712
▁sports	-10.6712
▁unknown	-10.6713
▁Paris	-10.6714
▁clothes	-10.6714
▁improvement	-10.6717
▁PM	-10.6718
▁surrounded	-10.6724
▁recording	-10.6726
In	-10.6735
▁musical	-10.6745
▁remains	-10.6753
▁manager	-10.676
▁attacks	-10.6768
▁features	-10.6778
▁admit	-10.6792
▁CEO	-10.6794
▁advice	-10.6794
▁challenging	-10.6794
▁literature	-10.6794
▁stretch	-10.6794
▁deserve	-10.6794
▁officer	-10.6794
ade	-10.6794
▁intense	-10.6794
▁Talk	-10.6794
▁grass	-10.6794
▁terrorism	-10.6794
▁wound	-10.6795
▁weigh	-10.6797
▁wine	-10.6799
▁aging	-10.68
▁explained	-10.6814
▁equally	-10.6818
▁singing	-10.683
▁percentage	-10.6835
▁neighbor	-10.684
xi	-10.6844
▁extend	-10.6852
▁situations	-10.6853
▁agreed	-10.6855
▁pour	-10.6862
▁chose	-10.6867
▁Project	-10.6876
▁club	-10.6876
▁cluster	-10.6876
▁psychology	-10.6876
▁drone	-10.6876
▁telephone	-10.6876
▁Tu	-10.6876
▁sunlight	-10.6878
▁sail	-10.6879
▁conversations	-10.6879
▁pile	-10.688
▁exhibition	-10.6881
▁Un	-10.6887
▁shock	-10.6904
▁script	-10.6906
▁drives	-10.6907
▁aspect	-10.6926
▁Any	-10.6927
▁tested	-10.6935
▁horrible	-10.696
▁memories	-10.696
▁shadow	-10.696
▁smoke	-10.696
▁occurred	-10.696
▁thick	-10.696
onic	-10.6962
▁transportation	-10.6964
▁younger	-10.6965
gy	-10.6967
▁largely	-10.697
▁partners	-10.6973
▁sensitive	-10.699
state	-10.7013
▁circumstances	-10.7015
▁contribute	-10.7016
▁kick	-10.702
▁Har	-10.7029
▁worker	-10.7032
▁contrast	-10.7044
▁cortex	-10.7044
▁exploration	-10.7044
▁paradigm	-10.7044
▁marine	-10.7044
▁nowhere	-10.7044
▁spiritual	-10.7044
▁Latin	-10.7045
▁greenhouse	-10.7045
▁selection	-10.7045
▁wireless	-10.7046
▁bond	-10.7046
▁download	-10.7049
▁cry	-10.7053
making	-10.7053
▁busy	-10.7059
▁Red	-10.706
▁infected	-10.7061
fish	-10.7062
▁II	-10.7064
▁electronic	-10.7067
▁pet	-10.707
cop	-10.7071
▁style	-10.7088
▁acting	-10.7095
ov	-10.7098
▁dress	-10.7104
▁wa	-10.7104
ump	-10.7106
Look	-10.7113
▁abstract	-10.712
▁GPS	-10.7128
▁September	-10.7128
▁Unfortunately	-10.7128
▁steal	-10.7129
▁Health	-10.7129
▁desk	-10.7129
▁flew	-10.7129
▁chapter	-10.7129
▁boring	-10.713
▁tonight	-10.7134
▁sensors	-10.7144
▁apple	-10.7145
▁Five	-10.7145
▁confidence	-10.7146
▁applications	-10.7148
▁fingers	-10.715
▁meal	-10.7157
▁Bar	-10.7165
being	-10.7167
▁spec	-10.7177
▁expert	-10.7187
▁Only	-10.7192
▁accurate	-10.7201
ou	-10.7201
▁functional	-10.7208
▁Number	-10.7214
▁revenue	-10.7214
▁secure	-10.7214
▁vertical	-10.7214
▁depth	-10.7214
▁presence	-10.7214
▁angry	-10.7214
▁rush	-10.7214
▁sustainability	-10.7214
▁resistance	-10.7215
▁House	-10.7215
▁commitment	-10.7215
▁photographs	-10.7217
▁tech	-10.7218
ong	-10.7222
▁conduct	-10.7223
▁attend	-10.7228
▁Du	-10.7231
▁stayed	-10.7233
▁flower	-10.7235
▁falling	-10.7237
cle	-10.7237
▁behaviors	-10.7248
▁combined	-10.7253
▁nor	-10.7257
▁file	-10.7262
▁mistakes	-10.7266
▁defined	-10.7271
▁suppose	-10.7272
ord	-10.7296
▁upper	-10.7298
assemble	-10.73
▁Adam	-10.7302
lock	-10.7302
▁capitalism	-10.7304
▁notes	-10.7306
tz	-10.7309
▁tracking	-10.7313
▁functions	-10.7313
cha	-10.7315
▁overall	-10.7317
▁hits	-10.7318
Fi	-10.7323
▁fabric	-10.7332
▁Wal	-10.7333
▁cord	-10.7335
▁borders	-10.7355
▁lift	-10.7363
▁entrepreneurs	-10.737
▁gut	-10.7374
▁parking	-10.7382
▁unlike	-10.7382
▁favor	-10.7387
▁Green	-10.7387
▁Wikipedia	-10.7387
▁motivation	-10.7387
▁parallel	-10.7387
▁somewhat	-10.7387
▁bicycle	-10.7387
▁hill	-10.7388
▁cents	-10.7393
ened	-10.7406
▁controlled	-10.7425
bar	-10.7426
teen	-10.7442
▁emerge	-10.7445
▁fixed	-10.7447
▁inspire	-10.7447
▁architect	-10.7454
▁application	-10.7455
▁chip	-10.7455
▁seek	-10.7467
▁Egypt	-10.747
▁flood	-10.7475
▁mice	-10.7475
▁closely	-10.7475
▁Angeles	-10.7476
▁boom	-10.7477
▁humor	-10.7477
▁proteins	-10.7478
▁options	-10.7479
▁grandfather	-10.7483
▁Sam	-10.7486
az	-10.7497
▁pool	-10.7505
▁marketing	-10.7506
▁ear	-10.7511
▁cooking	-10.7515
ura	-10.7523
app	-10.7531
▁par	-10.7544
rin	-10.7545
▁signed	-10.7546
house	-10.755
dding	-10.756
▁Before	-10.7563
▁Global	-10.7563
▁centuries	-10.7563
▁ritual	-10.7563
▁Something	-10.7563
▁laboratory	-10.7564
▁therapy	-10.7564
▁birthday	-10.7564
aking	-10.7566
▁logic	-10.7569
▁mad	-10.7569
▁Act	-10.757
▁provided	-10.7577
etic	-10.7579
▁solving	-10.7588
▁poll	-10.7588
▁burning	-10.7606
▁invite	-10.7625
▁promote	-10.7625
hen	-10.7631
ik	-10.7637
▁algorithm	-10.7637
American	-10.764
▁custom	-10.764
rum	-10.7642
▁Obama	-10.7653
▁Pacific	-10.7653
▁discipline	-10.7653
▁psychologist	-10.7653
▁struck	-10.7653
▁march	-10.7653
▁hero	-10.7664
▁database	-10.7671
mark	-10.7673
▁US	-10.768
▁measured	-10.7706
▁convert	-10.7718
▁Abou	-10.7727
▁wondered	-10.7728
▁truck	-10.7729
▁existed	-10.773
▁technique	-10.773
▁educational	-10.773
late	-10.7739
▁Museum	-10.7743
▁hormone	-10.7743
▁causing	-10.7743
▁ladies	-10.7743
▁Apple	-10.7744
▁lifestyle	-10.7747
▁acid	-10.7747
▁Sea	-10.7767
▁environments	-10.7772
▁destroy	-10.7778
called	-10.7781
life	-10.7782
▁evening	-10.7793
aving	-10.7803
▁customers	-10.7813
▁creature	-10.7824
▁diagram	-10.7834
▁domestic	-10.7834
▁emergency	-10.7834
▁piano	-10.7834
▁trigger	-10.7834
▁extent	-10.7834
▁Robert	-10.7834
▁transfer	-10.7834
▁cheat	-10.7838
hor	-10.7841
▁photographer	-10.7852
▁boxes	-10.7858
▁breathing	-10.7885
▁Gi	-10.7891
▁privilege	-10.7897
▁critic	-10.791
▁faced	-10.7913
▁bones	-10.7917
tract	-10.7923
▁narrow	-10.7925
▁unexpected	-10.7925
▁Christmas	-10.7925
▁scenario	-10.7925
▁transplant	-10.7925
▁barrier	-10.7925
▁hook	-10.7926
▁guard	-10.7926
▁feeding	-10.7928
▁wash	-10.793
▁pot	-10.7938
▁disc	-10.7943
▁floating	-10.7946
▁classes	-10.795
▁destroyed	-10.795
▁aim	-10.7968
▁mode	-10.7968
▁owner	-10.7968
▁poster	-10.7969
▁liked	-10.7971
▁rely	-10.7974
▁transformed	-10.7974
▁offered	-10.7981
rd	-10.8012
cla	-10.8016
▁courage	-10.8017
▁Frank	-10.8017
▁Remember	-10.8018
▁Thomas	-10.8018
▁animation	-10.8018
▁economies	-10.8018
▁engaging	-10.8018
▁globe	-10.8018
▁identical	-10.8018
▁library	-10.8018
▁welcome	-10.8018
▁Basically	-10.8018
▁outcomes	-10.802
▁Everyone	-10.802
▁June	-10.802
hour	-10.8021
▁fluid	-10.8021
▁raw	-10.8022
▁dive	-10.804
gh	-10.8044
▁amounts	-10.8052
▁army	-10.8053
ene	-10.8057
▁Mary	-10.8057
▁roads	-10.8058
▁theme	-10.806
cho	-10.8068
▁seal	-10.8071
▁economists	-10.8082
▁records	-10.8089
▁pushing	-10.81
view	-10.8101
▁pin	-10.8102
▁edit	-10.8103
▁disorder	-10.8109
▁monkey	-10.8109
▁Finally	-10.8111
▁corporate	-10.8111
▁judgment	-10.8111
▁correspond	-10.8111
▁reserve	-10.8111
▁conclude	-10.8111
▁carried	-10.8112
▁Jim	-10.8112
▁hyper	-10.8112
▁shall	-10.8112
▁regime	-10.8112
▁Martin	-10.8114
aster	-10.8114
▁diver	-10.8115
avi	-10.813
▁cable	-10.8132
▁Pe	-10.8133
▁Boy	-10.8141
grade	-10.8147
▁Ten	-10.8149
▁rocks	-10.8152
▁Get	-10.8162
verse	-10.8171
▁vessels	-10.8176
▁implications	-10.8176
▁wherever	-10.8181
▁ignore	-10.8183
lla	-10.8187
Yeah	-10.8198
hr	-10.8199
▁careful	-10.8203
box	-10.8205
▁White	-10.8206
▁frankly	-10.8206
▁genius	-10.8206
▁measuring	-10.8206
▁medication	-10.8206
▁renewable	-10.8206
▁session	-10.8206
▁minister	-10.8206
▁whale	-10.8206
▁compound	-10.8206
▁dramatically	-10.8207
▁Union	-10.8209
▁lion	-10.8216
▁dozen	-10.8216
▁meme	-10.8217
▁ears	-10.8228
▁continued	-10.8241
▁aspects	-10.8244
▁tie	-10.8253
▁represented	-10.8261
▁drinking	-10.8263
▁suggests	-10.8268
▁Ni	-10.8285
▁Star	-10.8286
▁January	-10.8301
▁absorb	-10.8301
▁defense	-10.8301
▁suspect	-10.8301
▁thumb	-10.8301
▁neither	-10.8301
▁proportion	-10.8301
▁grateful	-10.8301
▁defend	-10.8301
▁sweat	-10.8301
▁trace	-10.8301
▁footprint	-10.8301
ivity	-10.8303
class	-10.8304
hood	-10.8322
▁presented	-10.8325
▁Fe	-10.8329
▁samples	-10.8339
▁anger	-10.8344
▁runs	-10.8344
ological	-10.8351
▁songs	-10.8379
▁pan	-10.8381
▁Korea	-10.8388
stream	-10.8391
▁whales	-10.8397
▁automatically	-10.8397
▁recognition	-10.8397
▁clue	-10.8397
▁slum	-10.8397
▁Black	-10.8398
Sahara	-10.8398
▁engagement	-10.8402
▁component	-10.8403
▁colleague	-10.8404
▁lung	-10.8404
▁distributed	-10.8411
▁lock	-10.842
▁limits	-10.8437
▁flowers	-10.844
▁painful	-10.8449
▁dig	-10.8465
▁demo	-10.8476
▁figures	-10.8491
▁crucial	-10.8494
▁reduction	-10.8494
▁regret	-10.8494
▁strike	-10.8494
▁Greek	-10.8494
▁pace	-10.8494
▁vital	-10.8494
▁committed	-10.8495
▁overcome	-10.8495
▁tune	-10.8496
▁lake	-10.8497
▁precisely	-10.8503
▁keeps	-10.8508
▁portrait	-10.8509
▁spreading	-10.8518
aries	-10.8522
▁Please	-10.8539
▁linked	-10.8542
▁tests	-10.8547
▁standards	-10.8581
▁performing	-10.8582
lit	-10.8583
▁traveled	-10.8586
▁Sweden	-10.8592
▁dancing	-10.8592
▁heaven	-10.8592
▁obsessed	-10.8592
▁preserve	-10.8592
▁senior	-10.8592
▁drove	-10.8592
▁silent	-10.8592
▁agenda	-10.8592
▁ticket	-10.8594
▁salt	-10.8594
▁interactive	-10.8597
▁villages	-10.8609
▁behavioral	-10.861
▁conventional	-10.8616
▁subjects	-10.8629
▁classic	-10.8636
▁shooting	-10.8637
▁gather	-10.8649
▁achieved	-10.8661
▁rescue	-10.8663
▁empower	-10.8664
▁melt	-10.8669
My	-10.8672
▁spin	-10.8682
▁Central	-10.8691
▁Ghana	-10.8691
▁insurance	-10.8691
▁polio	-10.8691
▁pregnant	-10.8691
▁Gulf	-10.8691
▁shelter	-10.8691
▁elite	-10.8691
▁mate	-10.8693
▁pollen	-10.8693
▁laser	-10.8694
▁diverse	-10.8694
▁hunger	-10.8695
▁alter	-10.8696
▁dust	-10.87
▁scary	-10.8702
▁poorest	-10.8704
▁tired	-10.8705
▁deaths	-10.8713
▁architects	-10.8714
law	-10.8732
▁electron	-10.8734
▁appeared	-10.8736
▁entered	-10.8737
▁instruments	-10.8748
▁consume	-10.8754
▁mammals	-10.8759
pping	-10.8772
phy	-10.8776
▁males	-10.8785
Okay	-10.879
▁arguments	-10.8791
▁Foundation	-10.8791
▁Voice	-10.8791
▁colony	-10.8791
▁column	-10.8791
▁enemy	-10.8791
▁exploring	-10.8791
▁external	-10.8791
▁immune	-10.8791
▁philosopher	-10.8791
▁Next	-10.8791
▁plug	-10.8792
▁consistent	-10.8793
▁River	-10.8794
▁comic	-10.8798
▁objective	-10.8798
▁mentor	-10.8801
▁verb	-10.8801
▁activate	-10.8805
▁controlling	-10.8806
▁personality	-10.8806
▁citizen	-10.8809
▁plans	-10.8826
▁Give	-10.8827
maker	-10.883
▁br	-10.8842
ending	-10.8843
own	-10.8854
rry	-10.8867
Y	-10.8868
▁stands	-10.8871
▁illustrate	-10.8882
▁Microsoft	-10.8892
▁chocolate	-10.8892
▁earthquake	-10.8892
▁guarantee	-10.8892
▁miracle	-10.8892
▁strategies	-10.8892
▁knock	-10.8892
▁recommend	-10.8892
▁implant	-10.8892
▁leap	-10.8892
▁golf	-10.8894
▁gray	-10.8895
ney	-10.8895
▁spinal	-10.8899
▁Lab	-10.8914
tech	-10.8928
▁Gene	-10.8931
▁savings	-10.8932
rick	-10.8936
▁mainly	-10.8941
▁shell	-10.8956
▁collecting	-10.8964
▁liver	-10.8964
▁brief	-10.8981
ography	-10.8985
▁Space	-10.8994
▁philosophy	-10.8994
▁suicide	-10.8994
▁universities	-10.8994
▁embedded	-10.8994
▁mystery	-10.8994
▁blame	-10.8994
▁Revolution	-10.8995
par	-10.8995
▁shake	-10.8996
▁stack	-10.8997
gin	-10.8999
▁properly	-10.9006
▁connecting	-10.9008
▁fi	-10.9008
▁elephant	-10.9018
▁boss	-10.9021
ties	-10.9026
jo	-10.9035
▁Was	-10.9036
▁removed	-10.9042
▁accepted	-10.9045
▁Bur	-10.9046
▁falls	-10.9051
▁printer	-10.906
▁methods	-10.9068
▁brave	-10.9073
bit	-10.9073
▁films	-10.9082
▁cute	-10.9086
▁optimistic	-10.9097
▁romantic	-10.9097
▁Higgs	-10.9097
▁grave	-10.9097
▁adventure	-10.9097
▁hip	-10.9098
▁Nations	-10.9098
▁rising	-10.9098
▁household	-10.9099
century	-10.9099
▁vaccines	-10.9099
▁Bush	-10.9101
▁cash	-10.9102
▁Six	-10.9103
▁tries	-10.9105
now	-10.9108
▁darkness	-10.911
py	-10.9111
▁thrown	-10.912
gging	-10.9121
▁Pole	-10.9125
▁missed	-10.9131
▁crying	-10.9136
▁coin	-10.9139
▁medi	-10.9151
rap	-10.9152
▁writer	-10.9169
▁interacting	-10.9179
▁demonstrate	-10.9184
bling	-10.9189
▁brothers	-10.9199
▁Ethiopia	-10.9202
▁Manhattan	-10.9202
▁curiosity	-10.9202
▁procedure	-10.9202
▁recruit	-10.9202
▁frog	-10.9202
▁raising	-10.9202
▁asteroid	-10.9202
▁appeal	-10.9202
▁indicate	-10.9202
▁isolated	-10.9202
▁pretend	-10.9202
▁Haiti	-10.9202
▁orange	-10.9203
▁recognized	-10.9203
▁windows	-10.9204
▁till	-10.9204
▁disorders	-10.9204
▁Super	-10.9205
zo	-10.9206
▁Peter	-10.9209
But	-10.9212
ean	-10.9212
▁cheaper	-10.9221
▁gate	-10.9235
▁magnetic	-10.9243
▁pray	-10.9254
▁Par	-10.9258
▁seeds	-10.9282
▁Bra	-10.9283
▁clouds	-10.9284
▁imagined	-10.929
ash	-10.9294
▁antibiotics	-10.9296
▁International	-10.9307
▁Texas	-10.9307
▁description	-10.9307
▁facial	-10.9307
▁passenger	-10.9307
▁plenty	-10.9307
▁regulation	-10.9307
▁simulation	-10.9307
▁stroke	-10.9307
▁vegetable	-10.9307
▁cyber	-10.9307
▁federal	-10.9307
▁hardware	-10.9307
▁worm	-10.9307
▁debt	-10.9307
▁tuna	-10.9307
▁domain	-10.9307
▁hungry	-10.9307
▁productivity	-10.9308
Let	-10.9312
▁Jack	-10.9312
play	-10.9314
▁heroes	-10.9315
face	-10.9317
▁pit	-10.9319
▁tower	-10.9319
▁recovery	-10.9321
▁rhythm	-10.933
▁oldest	-10.9337
▁resolution	-10.9338
▁volunteer	-10.9341
▁placed	-10.9342
▁divided	-10.9344
▁wage	-10.9346
▁globally	-10.9353
▁captured	-10.9363
▁ban	-10.9384
▁dial	-10.9395
▁rough	-10.9401
▁rot	-10.9405
run	-10.9405
▁quit	-10.9407
▁increases	-10.9408
▁Rwanda	-10.9413
▁ceiling	-10.9413
▁density	-10.9413
▁district	-10.9413
▁request	-10.9413
▁scratch	-10.9413
▁Indeed	-10.9413
▁chest	-10.9414
▁wrap	-10.9414
▁High	-10.9414
▁partnership	-10.9414
▁leak	-10.9415
▁fascinated	-10.9416
▁Islamic	-10.9418
▁representation	-10.9421
▁latest	-10.9421
▁mail	-10.9422
▁involves	-10.9423
▁Russian	-10.9425
▁attached	-10.9428
▁appears	-10.9434
▁virtually	-10.9443
▁killer	-10.9443
▁efforts	-10.9444
key	-10.9445
▁Lu	-10.9446
▁reaching	-10.9448
▁particle	-10.9452
rand	-10.9457
▁sales	-10.9462
atur	-10.9472
▁wise	-10.9473
read	-10.9475
▁reported	-10.9494
▁Sch	-10.9504
▁tri	-10.9507
stone	-10.9513
▁label	-10.9514
▁Stanford	-10.9521
▁borrow	-10.9521
▁candidate	-10.9521
▁demographic	-10.9521
▁dioxide	-10.9521
▁elsewhere	-10.9521
▁liberal	-10.9521
▁brown	-10.9521
▁monkeys	-10.9524
▁consumers	-10.9524
▁Grand	-10.9524
▁apparently	-10.9525
▁herself	-10.9525
▁scar	-10.9526
▁stake	-10.9526
▁headline	-10.9532
▁searching	-10.9536
▁units	-10.9537
▁Ah	-10.9551
ett	-10.9557
▁penguins	-10.956
▁weapon	-10.9563
▁Min	-10.9569
▁laughing	-10.9569
Don	-10.9569
▁upset	-10.9571
▁muscles	-10.9573
▁volunteers	-10.9594
▁pur	-10.9596
▁pushed	-10.9597
▁arrive	-10.9601
▁crops	-10.9617
take	-10.9617
▁geo	-10.9619
▁corals	-10.9624
urge	-10.9629
▁Department	-10.9629
▁Hollywood	-10.9629
▁adjust	-10.9629
▁furniture	-10.9629
▁obesity	-10.9629
▁ridiculous	-10.9629
▁skull	-10.9629
▁distant	-10.9629
▁expectations	-10.963
▁textbook	-10.963
▁subtle	-10.963
▁entertainment	-10.963
▁Congo	-10.9631
▁accessible	-10.9632
▁gu	-10.9632
▁airport	-10.9633
dollar	-10.9636
▁usual	-10.9645
▁capita	-10.9646
▁corn	-10.9652
▁interactions	-10.967
▁tasks	-10.9676
rat	-10.9676
▁lovely	-10.9686
▁rebuild	-10.9687
▁Ge	-10.9695
▁Bl	-10.9695
path	-10.9706
▁Bay	-10.9709
▁hire	-10.9713
▁directions	-10.9717
▁log	-10.9724
▁historical	-10.9731
▁extinct	-10.9732
▁William	-10.9739
▁bulb	-10.9739
▁dignity	-10.9739
▁gesture	-10.9739
▁mushroom	-10.9739
▁mutation	-10.9739
▁sandwich	-10.9739
▁spectacular	-10.9739
▁underground	-10.9739
▁mimic	-10.9739
▁pursue	-10.9739
▁Nobel	-10.9741
▁package	-10.9742
▁Law	-10.9746
▁dedicated	-10.9746
▁Bang	-10.9747
▁opposed	-10.9748
oe	-10.9748
▁iron	-10.9755
▁bend	-10.9761
▁Inter	-10.9808
rie	-10.9817
ality	-10.9822
▁visited	-10.9822
▁banks	-10.9832
▁lit	-10.9833
place	-10.9838
▁charity	-10.985
▁frozen	-10.985
▁legacy	-10.985
▁surveillance	-10.985
▁chief	-10.985
▁cousin	-10.985
▁concert	-10.9851
▁Nothing	-10.9851
▁demonstration	-10.9852
▁dirty	-10.9856
▁settle	-10.9858
wo	-10.986
▁exposed	-10.9861
▁neighborhoods	-10.9864
cher	-10.9866
▁mono	-10.9875
▁locked	-10.9879
▁van	-10.9884
▁parties	-10.9887
▁rent	-10.9892
▁nurse	-10.9903
▁craft	-10.9903
▁stations	-10.9912
▁delivered	-10.9918
▁incentives	-10.9927
▁calculate	-10.9935
▁Mark	-10.994
▁ethical	-10.9946
▁Africans	-10.9955
▁Atlantic	-10.9963
▁Olympic	-10.9963
▁confident	-10.9963
▁disgust	-10.9963
▁orchestra	-10.9963
▁pyramid	-10.9963
▁skeleton	-10.9963
▁acknowledge	-10.9963
▁conservative	-10.9963
▁General	-10.9963
▁spill	-10.9971
level	-10.9976
▁Pol	-10.9977
▁norm	-10.9979
▁fifth	-10.9985
▁replicate	-10.9986
tail	-10.9988
▁collaborat	-10.999
▁cop	-11.0001
ink	-11.0003
▁spa	-11.0004
▁disappeared	-11.0014
▁refugee	-11.0019
▁breaking	-11.003
▁acts	-11.0031
▁aside	-11.0038
▁generated	-11.0051
▁establish	-11.0052
So	-11.0061
▁Pre	-11.0068
▁ill	-11.007
▁kilo	-11.0076
▁Woman	-11.0076
▁diabetes	-11.0076
▁intuitive	-11.0076
▁uncomfortable	-11.0076
▁yield	-11.0076
▁Joe	-11.0077
▁array	-11.0077
▁twin	-11.0077
▁governance	-11.0077
▁dump	-11.0078
▁proper	-11.0081
▁DH	-11.0083
▁paintings	-11.0084
▁Really	-11.0084
▁affordable	-11.0084
▁announced	-11.0084
▁chosen	-11.0089
▁Rio	-11.0089
▁editor	-11.009
free	-11.0092
▁tricks	-11.0096
▁protecting	-11.01
▁meetings	-11.0101
▁wings	-11.0105
▁meter	-11.0109
▁investing	-11.015
▁Ch	-11.015
q	-11.0156
▁bother	-11.0158
▁Far	-11.0169
▁Ed	-11.017
ole	-11.0171
▁icon	-11.0188
▁calculation	-11.0191
▁initiative	-11.0191
▁sketch	-11.0191
▁transparency	-11.0191
▁transparent	-11.0191
▁dominant	-11.0191
▁neck	-11.0191
▁Turn	-11.0192
▁sheep	-11.0192
▁ugly	-11.0192
▁football	-11.0192
▁synthetic	-11.0192
iness	-11.0192
▁backwards	-11.0193
▁mold	-11.0194
▁fool	-11.0195
▁restore	-11.0196
▁delight	-11.0199
▁Back	-11.0205
▁granted	-11.0205
▁integrated	-11.0208
▁spoken	-11.021
▁practices	-11.0211
▁pink	-11.0214
dor	-11.0216
▁surely	-11.0225
▁axis	-11.0237
▁drawn	-11.024
▁printed	-11.0241
▁prices	-11.0245
▁refugees	-11.025
some	-11.0252
▁focusing	-11.0257
lash	-11.0257
▁terrorist	-11.0257
▁Pat	-11.0266
▁donor	-11.0278
erial	-11.028
▁Pu	-11.0282
▁hat	-11.0283
can	-11.0284
atter	-11.0284
▁concepts	-11.0287
▁initial	-11.0295
▁Wa	-11.0304
▁Ke	-11.0304
▁transmit	-11.0306
▁regard	-11.0306
▁Research	-11.0308
▁agencies	-11.0308
▁chaos	-11.0308
▁combat	-11.0308
▁cooperation	-11.0308
▁helicopter	-11.0308
▁poison	-11.0308
▁profile	-11.0308
▁rainforest	-11.0308
▁reconstruct	-11.0308
▁freak	-11.0308
▁programming	-11.0308
▁spark	-11.0308
rid	-11.0309
▁pipe	-11.031
active	-11.0314
▁achievement	-11.0314
▁Never	-11.0314
▁ensure	-11.0317
▁Tell	-11.0318
▁Age	-11.0322
ya	-11.0324
▁surrounding	-11.033
▁whi	-11.0336
▁tears	-11.0345
▁inspiring	-11.0349
▁Bob	-11.0362
▁slides	-11.038
▁magical	-11.0388
▁neuron	-11.0393
▁analyze	-11.0397
▁confront	-11.04
▁Dur	-11.0405
▁farmer	-11.0411
▁rapid	-11.0414
▁uncle	-11.0415
▁touched	-11.0416
▁inventor	-11.0416
▁addict	-11.0421
▁interpret	-11.0422
▁dolphins	-11.0422
▁Narrator	-11.0425
▁Smith	-11.0425
▁accelerate	-11.0425
▁intuition	-11.0425
▁margin	-11.0425
▁naked	-11.0425
▁resolve	-11.0425
▁tragedy	-11.0425
▁Ocean	-11.0425
▁essence	-11.0425
▁alarm	-11.0425
▁neuroscience	-11.0425
▁boundaries	-11.0425
▁shore	-11.0426
▁northern	-11.0426
▁plain	-11.0426
▁Antarctica	-11.0427
▁gear	-11.0427
▁jet	-11.0428
▁pat	-11.0428
▁laughter	-11.043
▁characteristics	-11.043
▁rap	-11.0431
▁amongst	-11.0434
▁anxiety	-11.0436
▁lamp	-11.0443
▁Make	-11.0449
▁mega	-11.0454
▁ingredients	-11.0454
▁tied	-11.0462
▁flo	-11.0464
▁leverage	-11.0465
▁layers	-11.0469
▁cart	-11.0471
▁al	-11.0477
▁bound	-11.0486
ix	-11.0487
▁Te	-11.0495
▁lawyer	-11.0498
▁victim	-11.0499
▁consequence	-11.0499
ept	-11.0512
fold	-11.0531
▁beliefs	-11.0532
▁Wall	-11.0542
▁October	-11.0544
▁Uganda	-11.0544
▁breakthrough	-11.0544
▁decrease	-11.0544
▁enhance	-11.0544
▁instinct	-11.0544
▁simplicity	-11.0544
▁struggling	-11.0544
▁survivor	-11.0544
▁symmetry	-11.0544
▁tackle	-11.0544
▁twist	-11.0544
▁fortune	-11.0544
▁neural	-11.0544
▁Things	-11.0546
▁bump	-11.0546
▁discoveries	-11.0548
▁extinction	-11.0552
▁Bible	-11.0552
▁diagnosed	-11.0559
gle	-11.0561
▁output	-11.0564
▁speaker	-11.0564
▁stable	-11.0564
▁autonomous	-11.0571
▁projection	-11.0594
▁hanging	-11.0602
▁proof	-11.0604
▁served	-11.0608
▁additional	-11.0609
▁realm	-11.0622
▁passing	-11.0631
▁dish	-11.0633
▁reduced	-11.0639
plan	-11.064
▁experimental	-11.0644
▁Muslims	-11.0646
▁clients	-11.0648
▁dimension	-11.0656
▁pie	-11.0658
bro	-11.0661
▁commit	-11.0661
▁Alzheimer	-11.0665
▁Jewish	-11.0665
▁advertising	-11.0665
▁contribution	-11.0665
▁ethnic	-11.0665
▁explode	-11.0665
▁mechanics	-11.0665
▁permission	-11.0665
▁probability	-11.0665
▁reputation	-11.0665
▁shrimp	-11.0665
▁smooth	-11.0665
▁tragic	-11.0665
▁identified	-11.0665
▁mood	-11.0665
▁sharp	-11.0665
▁kiss	-11.0665
▁slavery	-11.0666
▁theories	-11.0666
org	-11.0671
▁laid	-11.0671
ulate	-11.069
▁None	-11.069
▁contains	-11.0702
▁richer	-11.0705
▁actors	-11.0705
▁bow	-11.0711
▁discuss	-11.0723
▁dependent	-11.0723
ggle	-11.0731
▁painted	-11.0732
▁drivers	-11.0738
▁relation	-11.0746
▁nano	-11.0768
▁Nor	-11.0778
▁hum	-11.0782
▁Mac	-11.0783
▁whistle	-11.0787
▁agricultural	-11.0787
▁comparison	-11.0787
▁concentration	-11.0787
▁explosion	-11.0787
▁participation	-11.0787
▁recipe	-11.0787
▁relax	-11.0787
▁civic	-11.0787
▁slice	-11.0787
▁spell	-11.0787
▁agency	-11.0787
▁queen	-11.0787
▁baseball	-11.0787
▁convey	-11.0787
▁aircraft	-11.0788
▁Ya	-11.0788
hether	-11.0788
▁Mother	-11.0788
▁tick	-11.0791
▁punch	-11.0792
lip	-11.0795
load	-11.0795
▁coach	-11.0795
unclear	-11.0802
▁coat	-11.0814
▁gases	-11.0815
▁dear	-11.082
war	-11.0829
win	-11.0829
▁educated	-11.0842
▁suggesting	-11.0849
▁nurses	-11.0852
▁failing	-11.0861
▁picking	-11.0868
yl	-11.0877
▁tear	-11.0885
▁returned	-11.0887
▁Cor	-11.089
itch	-11.0893
▁actor	-11.0895
▁luck	-11.0903
▁lungs	-11.0903
▁landed	-11.0906
cker	-11.0909
▁Third	-11.091
▁alcohol	-11.091
▁confirm	-11.091
▁glacier	-11.091
▁routine	-11.091
▁smoking	-11.091
▁substance	-11.091
▁broadcast	-11.091
▁capability	-11.0911
▁persist	-11.0912
▁east	-11.0913
▁attractive	-11.0913
▁marker	-11.0913
▁bull	-11.0914
▁strangers	-11.0916
▁sensory	-11.092
▁highlight	-11.092
▁highway	-11.0923
awa	-11.0924
▁briefly	-11.0926
aging	-11.093
▁informed	-11.0933
word	-11.0935
▁southern	-11.0936
ets	-11.0942
hoo	-11.095
▁relations	-11.0951
door	-11.0957
▁Ko	-11.0957
▁participants	-11.096
▁formula	-11.0972
▁rating	-11.0974
▁reminded	-11.0981
▁separated	-11.0986
▁insist	-11.1005
lish	-11.1007
bel	-11.1014
▁musicians	-11.1017
nal	-11.1023
▁opera	-11.1029
▁communications	-11.1031
▁occasion	-11.1034
▁dozens	-11.1035
▁biodiversity	-11.1035
▁fraction	-11.1035
▁happier	-11.1035
▁pandemic	-11.1035
▁sacred	-11.1035
▁tunnel	-11.1035
▁Soviet	-11.1035
▁injury	-11.1035
▁flexible	-11.1035
▁Blue	-11.1036
▁afterwards	-11.1036
▁wipe	-11.1037
▁bullet	-11.1037
▁winner	-11.1037
▁trends	-11.1039
▁Italy	-11.1039
▁Egyptian	-11.1042
▁merely	-11.1042
bed	-11.1043
▁rope	-11.1045
▁Ver	-11.1045
▁lane	-11.1046
▁artistic	-11.1051
▁tension	-11.1056
▁Tra	-11.1062
ino	-11.1077
▁Up	-11.1104
▁journal	-11.1108
▁chimpanzees	-11.1122
▁Cu	-11.1126
▁fulfill	-11.1128
▁mechanisms	-11.1131
▁dinosaur	-11.1132
▁assumptions	-11.1133
▁compar	-11.1143
▁crossing	-11.1145
iest	-11.1151
▁pointed	-11.1155
▁branch	-11.1156
▁Child	-11.1161
▁algae	-11.1162
▁facility	-11.1162
▁grandchildren	-11.1162
▁disagree	-11.1162
▁fragment	-11.1162
▁sensation	-11.1162
▁robust	-11.1162
▁glad	-11.1162
▁begun	-11.1162
▁ignorance	-11.1162
▁resist	-11.1162
▁consist	-11.1163
▁MRI	-11.1164
▁pathway	-11.1165
▁ratio	-11.1167
▁Part	-11.1168
▁warning	-11.117
▁trauma	-11.1177
▁roots	-11.1183
▁Kar	-11.1186
▁rarely	-11.1187
third	-11.1187
▁linear	-11.1188
▁sink	-11.1197
▁photography	-11.1198
▁originally	-11.1206
▁electronics	-11.1208
▁employ	-11.1214
▁terrorists	-11.1219
▁Time	-11.1235
uch	-11.1236
▁speakers	-11.1238
▁magnet	-11.1239
oon	-11.1247
▁predicted	-11.1261
▁soap	-11.1263
▁funded	-11.127
▁wing	-11.1271
away	-11.1273
▁insect	-11.1284
▁Girl	-11.129
▁transmission	-11.129
▁tweet	-11.129
▁excuse	-11.129
▁portion	-11.129
▁marry	-11.1291
▁Eastern	-11.1291
▁installation	-11.1292
▁publish	-11.1294
▁x	-11.1294
▁boil	-11.1298
▁dynamics	-11.1299
▁reefs	-11.1306
▁toys	-11.132
clock	-11.1328
▁suggested	-11.1343
▁Hy	-11.1343
lies	-11.1345
▁expanding	-11.1346
▁determined	-11.1349
zi	-11.1356
▁fed	-11.1371
▁biologists	-11.1371
▁observe	-11.1375
▁sensor	-11.1386
▁lighting	-11.1387
▁construct	-11.1388
▁elephants	-11.1389
▁adopt	-11.1392
▁computation	-11.1396
▁fee	-11.1397
ball	-11.1398
▁soldier	-11.1398
There	-11.1401
▁inject	-11.1413
▁predictions	-11.1415
▁exploit	-11.1417
▁psycho	-11.1417
▁pioneer	-11.142
▁Design	-11.142
▁Nature	-11.142
▁Obviously	-11.142
▁Oxford	-11.142
▁Prize	-11.142
▁Through	-11.142
▁aesthetic	-11.142
▁anonymous	-11.142
▁astonishing	-11.142
▁buried	-11.142
▁expedition	-11.142
▁fought	-11.142
▁inevitable	-11.142
▁origami	-11.142
▁signature	-11.142
▁simulate	-11.142
▁structural	-11.142
▁translation	-11.142
▁depressed	-11.142
▁pause	-11.142
▁neat	-11.142
▁bathroom	-11.142
▁gam	-11.1421
▁shopping	-11.1421
▁collaborative	-11.1422
▁Long	-11.1423
related	-11.1423
power	-11.1425
▁pulling	-11.1427
▁navigate	-11.1429
finite	-11.143
▁frequency	-11.1433
▁tribes	-11.144
▁radically	-11.1444
part	-11.1445
▁abilities	-11.1448
ime	-11.1454
▁safer	-11.1456
▁extended	-11.1459
gal	-11.1461
▁smarter	-11.1466
▁format	-11.147
▁pad	-11.1477
ez	-11.1491
▁sisters	-11.1494
ush	-11.1495
▁profession	-11.1496
▁quo	-11.1511
roll	-11.1514
▁Mom	-11.1516
▁interestingly	-11.1518
▁teenagers	-11.1522
▁implement	-11.1527
▁witness	-11.1527
hold	-11.1532
▁tribe	-11.1533
▁sacrifice	-11.1539
▁immediate	-11.1539
▁govern	-11.1539
▁electro	-11.1544
▁Florida	-11.1551
▁anticipate	-11.1551
▁chromosome	-11.1551
▁mysterious	-11.1551
▁neutral	-11.1551
▁primitive	-11.1551
▁purchase	-11.1551
▁variable	-11.1551
▁wheelchair	-11.1551
▁garage	-11.1551
▁render	-11.1552
▁dialogue	-11.1552
▁Gates	-11.1552
▁underlying	-11.1552
▁circles	-11.1552
▁strand	-11.1553
▁mask	-11.1554
▁export	-11.1554
▁ecosystems	-11.1554
▁seats	-11.1557
Can	-11.1557
▁agreement	-11.1559
▁globalization	-11.1561
ening	-11.1562
▁fastest	-11.1564
ueen	-11.1571
▁constructed	-11.1577
▁pole	-11.1584
Wow	-11.1585
▁helpful	-11.1588
▁significantly	-11.1593
lop	-11.1596
unk	-11.1599
▁tent	-11.1607
▁supported	-11.161
ching	-11.161
▁invested	-11.162
▁links	-11.1628
▁entering	-11.1628
▁passwords	-11.1631
▁elections	-11.1641
▁involve	-11.1645
He	-11.1652
▁peaceful	-11.1664
▁Israeli	-11.1665
uthern	-11.167
▁urge	-11.1677
▁reef	-11.1678
▁symbols	-11.1681
▁December	-11.1685
▁dictionary	-11.1685
▁experiencing	-11.1685
▁fabulous	-11.1685
▁figuring	-11.1685
▁nutrition	-11.1685
▁unbelievable	-11.1685
▁vacuum	-11.1685
▁vagina	-11.1685
▁infant	-11.1685
▁Children	-11.1685
▁smartphone	-11.1685
▁sauce	-11.1685
▁connectivity	-11.1686
▁flee	-11.1686
▁assignment	-11.1686
▁passive	-11.169
▁partly	-11.17
▁neuro	-11.1703
▁arrested	-11.1704
▁unlikely	-11.1705
▁arise	-11.1706
▁reactor	-11.1708
▁proposed	-11.171
Where	-11.1717
▁gathering	-11.1727
▁translated	-11.1735
llowing	-11.1752
▁edges	-11.1753
▁arch	-11.1756
dia	-11.1757
MA	-11.1762
▁kit	-11.1765
put	-11.1775
oop	-11.1782
▁throwing	-11.1787
made	-11.1789
▁reject	-11.1795
▁manipulate	-11.1796
▁Sal	-11.1799
bon	-11.181
▁terror	-11.1816
assembly	-11.182
▁Spanish	-11.182
▁category	-11.182
▁eliminate	-11.182
▁expansion	-11.182
▁fragile	-11.182
▁immense	-11.182
▁shrink	-11.182
▁forgotten	-11.182
▁scanner	-11.1821
▁investors	-11.1822
▁keyboard	-11.1822
▁Rome	-11.1827
▁Out	-11.1829
▁KB	-11.1831
▁sew	-11.1831
▁sleeping	-11.1846
▁Tri	-11.1851
▁Hey	-11.1858
▁shocked	-11.1861
book	-11.1861
▁mixed	-11.1881
▁prisoners	-11.1889
▁Ab	-11.1896
ica	-11.1916
▁joint	-11.1928
▁precise	-11.1944
ural	-11.1946
▁dose	-11.195
▁egg	-11.1951
half	-11.1956
▁drift	-11.1957
▁August	-11.1957
▁cliff	-11.1957
▁gradually	-11.1957
▁impression	-11.1957
▁industries	-11.1957
▁primarily	-11.1957
▁reinvent	-11.1957
▁smallpox	-11.1957
▁threshold	-11.1957
▁burst	-11.1957
▁crystal	-11.1957
▁intersection	-11.1957
▁imaging	-11.1957
generating	-11.1957
▁kidney	-11.1958
▁includes	-11.1962
▁Port	-11.1963
▁programmer	-11.1965
▁manual	-11.1965
▁vent	-11.1969
▁competitive	-11.1969
▁campus	-11.1969
bble	-11.1981
not	-11.1984
▁widely	-11.1989
When	-11.1994
▁approaches	-11.1995
▁documents	-11.1998
flu	-11.2009
▁poly	-11.2009
▁lawyers	-11.201
▁included	-11.2012
▁gods	-11.2016
▁Cal	-11.2033
▁hack	-11.2056
▁answered	-11.2059
▁dancer	-11.2063
▁shaped	-11.2064
▁slave	-11.2094
▁Video	-11.2096
▁aggressive	-11.2096
▁choosing	-11.2096
▁frustrated	-11.2096
▁pharmaceutical	-11.2096
▁Square	-11.2096
▁rabbi	-11.2096
▁annual	-11.2096
▁silly	-11.2096
▁Court	-11.2096
▁beetle	-11.2096
▁Italian	-11.2096
▁damn	-11.2096
▁native	-11.2096
▁nonprofit	-11.2097
▁copyright	-11.2097
▁screw	-11.2097
▁panels	-11.2097
Be	-11.2104
▁confused	-11.2105
▁mindset	-11.2106
▁analog	-11.2106
▁Hill	-11.2122
▁adopted	-11.2122
print	-11.213
een	-11.2135
▁caring	-11.2141
▁Mor	-11.2149
▁burned	-11.2149
▁operations	-11.215
ken	-11.216
▁wired	-11.2162
mus	-11.2165
vor	-11.2169
▁strongly	-11.217
▁Gen	-11.2174
▁drag	-11.2184
▁Put	-11.2185
▁Men	-11.2192
aph	-11.2193
▁difficulty	-11.2195
uk	-11.2197
▁bra	-11.2202
▁survived	-11.2209
▁attribute	-11.2214
▁inform	-11.2223
▁Fo	-11.2234
▁TEDTalk	-11.2237
▁colonies	-11.2237
▁compelling	-11.2237
▁ecological	-11.2237
▁elderly	-11.2237
▁whatsoever	-11.2237
▁ruin	-11.2237
▁valley	-11.2237
▁nuts	-11.2237
▁pride	-11.2237
▁Turkey	-11.2237
▁woke	-11.2237
▁arrow	-11.2237
▁Norway	-11.2237
▁Sunday	-11.2238
▁condom	-11.2238
▁spray	-11.2238
▁shout	-11.224
▁panel	-11.224
▁weekend	-11.2242
▁shine	-11.2242
▁slip	-11.2242
▁Arabic	-11.2244
nne	-11.2246
▁sport	-11.2246
▁cor	-11.2247
▁elected	-11.2247
▁bake	-11.2248
▁instantly	-11.2249
▁imagery	-11.2251
▁initially	-11.2252
ali	-11.2253
▁inches	-11.2254
▁Shi	-11.2256
▁ethic	-11.2257
▁surprisingly	-11.2268
▁stranger	-11.2268
▁bang	-11.2285
▁Tim	-11.2293
rated	-11.2306
▁Mill	-11.2311
▁rotate	-11.2313
▁explaining	-11.2317
blo	-11.2322
▁gli	-11.2324
▁climbing	-11.2326
arian	-11.2326
changing	-11.2335
iff	-11.2341
▁exhibit	-11.2372
▁distinct	-11.2372
▁quest	-11.2376
▁Cambridge	-11.238
▁February	-11.238
▁closing	-11.238
▁hypothesis	-11.238
▁qualities	-11.238
▁resilience	-11.238
▁audio	-11.238
▁Seven	-11.238
▁automobile	-11.238
▁leaf	-11.238
▁emit	-11.238
▁Brown	-11.238
▁grasp	-11.238
▁nutrients	-11.238
▁Somebody	-11.2381
▁authorities	-11.2381
▁marketplace	-11.2381
▁Yorker	-11.2382
▁pulse	-11.2382
▁dolphin	-11.2383
▁interpretation	-11.2383
▁crew	-11.2384
▁float	-11.2386
city	-11.2386
▁healthier	-11.2386
▁wider	-11.2398
▁chat	-11.2398
▁trucks	-11.2401
▁suggestion	-11.2403
▁perceived	-11.2407
▁hackers	-11.2409
▁pose	-11.2412
▁tar	-11.2412
▁chips	-11.2413
▁disconnect	-11.2423
zero	-11.2425
▁fur	-11.243
▁Rob	-11.2437
▁successfully	-11.2444
▁jumped	-11.2475
▁Pan	-11.248
▁perceive	-11.2496
▁conc	-11.2496
pper	-11.2508
▁fortunate	-11.2512
▁covering	-11.2513
▁horizon	-11.2523
▁diploma	-11.2524
▁LED	-11.2524
▁Should	-11.2524
▁burden	-11.2524
▁cheese	-11.2524
▁curriculum	-11.2524
▁drought	-11.2524
▁extension	-11.2524
▁genocide	-11.2524
▁minimum	-11.2524
▁oxytocin	-11.2524
▁Ebola	-11.2524
▁Jesus	-11.2524
▁microbial	-11.2524
▁serving	-11.2524
▁silver	-11.2524
▁parasite	-11.2524
▁reducing	-11.2524
▁innocent	-11.2524
▁crawl	-11.2524
▁brutal	-11.2525
▁architectural	-11.2525
▁supermarket	-11.2525
▁drum	-11.2525
▁reproduce	-11.2525
▁lean	-11.2525
▁rice	-11.2526
ark	-11.2527
▁Pen	-11.2528
▁Without	-11.2529
▁bored	-11.2529
▁cake	-11.2531
▁footage	-11.2532
▁selfish	-11.2533
▁founded	-11.2535
▁hitting	-11.2536
▁prediction	-11.2545
▁Medic	-11.2549
▁fate	-11.2558
don	-11.2558
▁wealthy	-11.2567
engineer	-11.2569
▁metric	-11.2569
▁emerged	-11.2571
▁instructions	-11.2578
person	-11.2584
▁logical	-11.2589
rian	-11.261
digit	-11.2622
▁Asian	-11.2635
▁prepare	-11.2644
▁Wow	-11.2644
▁upside	-11.2648
new	-11.2653
ote	-11.2655
▁instant	-11.2659
▁fraud	-11.2671
▁Church	-11.2672
▁advocate	-11.2672
▁bizarre	-11.2672
▁garbage	-11.2672
▁optimism	-11.2672
▁paralyzed	-11.2672
▁register	-11.2672
▁trajectory	-11.2672
▁pigeon	-11.2672
▁methane	-11.2672
▁blend	-11.2672
▁capabilities	-11.2672
▁improving	-11.2672
▁stunt	-11.2672
▁antenna	-11.2672
▁Mountain	-11.2672
▁barrel	-11.2672
▁honey	-11.2672
▁excitement	-11.2672
▁crush	-11.2672
▁Republican	-11.2673
▁Play	-11.2673
▁tendency	-11.2673
▁Northern	-11.2673
▁representative	-11.2673
▁mining	-11.2674
ographic	-11.2674
▁overwhelming	-11.2677
▁March	-11.2683
chu	-11.2694
▁Home	-11.2695
▁mall	-11.2703
lay	-11.2704
▁institutional	-11.2705
▁profoundly	-11.2707
ifying	-11.2719
▁suffered	-11.2721
heart	-11.2727
▁palm	-11.273
tories	-11.2734
▁unable	-11.2735
▁interviewed	-11.2753
▁mineral	-11.2783
atory	-11.2791
▁supporting	-11.2792
▁improved	-11.2792
▁writers	-11.2792
▁propose	-11.2793
▁socially	-11.2799
▁Love	-11.2805
fire	-11.2807
▁incident	-11.282
▁compromise	-11.2821
▁generous	-11.2821
▁regulate	-11.2821
▁creator	-11.2821
▁trash	-11.2821
▁dumb	-11.2821
▁microphone	-11.2821
▁expertise	-11.2821
▁binary	-11.2822
▁unconscious	-11.2822
▁appearance	-11.2823
▁factories	-11.2824
▁Chile	-11.2824
▁duck	-11.2824
▁mayor	-11.2825
▁Lego	-11.2825
▁genetically	-11.2827
▁besides	-11.2827
▁intended	-11.2834
▁forming	-11.2844
▁crop	-11.2846
▁homeless	-11.2852
▁bin	-11.2853
ok	-11.2854
cade	-11.2857
▁detector	-11.2858
▁Secondly	-11.2861
▁rank	-11.2862
▁washing	-11.2873
OK	-11.2879
▁detailed	-11.2888
Who	-11.2915
▁farming	-11.2927
▁bucks	-11.2929
▁via	-11.2934
▁select	-11.2943
▁exponential	-11.2959
burg	-11.2961
▁goat	-11.2968
▁hydro	-11.2972
▁Arctic	-11.2972
▁Bangladesh	-11.2972
▁Silicon	-11.2972
▁beneath	-11.2972
▁coordinate	-11.2972
▁enterprise	-11.2972
▁facilities	-11.2972
▁hemisphere	-11.2972
▁prosperity	-11.2972
▁strategic	-11.2972
▁unprecedented	-11.2972
▁devil	-11.2972
▁paradox	-11.2972
▁valid	-11.2972
▁triangle	-11.2972
▁gentleman	-11.2973
▁primate	-11.2973
▁clay	-11.2974
▁simultaneously	-11.2975
▁winning	-11.2975
▁assets	-11.2977
▁exam	-11.2977
▁fence	-11.2978
▁viewer	-11.298
▁homework	-11.2981
▁detection	-11.2986
▁realizing	-11.299
▁rape	-11.299
▁clothing	-11.2992
▁client	-11.2994
▁threatened	-11.2995
▁Chi	-11.301
▁collectively	-11.3013
ji	-11.3013
▁endless	-11.3016
known	-11.3021
CA	-11.3025
▁reasonable	-11.3026
▁formation	-11.3027
▁Sir	-11.3028
▁Hall	-11.3035
▁quad	-11.304
▁remaining	-11.3048
▁staying	-11.3054
▁completed	-11.3089
▁educate	-11.3098
▁corporations	-11.3101
▁Although	-11.3126
▁Beijing	-11.3126
▁diagnosis	-11.3126
▁precious	-11.3126
▁FBI	-11.3126
▁Titan	-11.3126
▁tongue	-11.3126
▁Derek	-11.3126
▁Moore	-11.3126
▁compress	-11.3126
▁contemporary	-11.3126
▁Saturn	-11.3126
▁forgive	-11.3127
▁Albert	-11.3127
▁ownership	-11.3127
▁forgot	-11.3127
▁rose	-11.3128
▁dung	-11.3129
▁rob	-11.313
▁golden	-11.3131
▁jar	-11.3131
▁subway	-11.3131
▁compassionate	-11.3134
▁tele	-11.3138
▁manner	-11.3138
▁crap	-11.3146
ional	-11.3162
▁beautifully	-11.3164
▁delivery	-11.3164
▁hired	-11.3166
▁musician	-11.3166
▁openness	-11.3171
▁mathematicians	-11.3174
Wait	-11.3184
▁remained	-11.3187
▁server	-11.3192
▁AB	-11.3192
▁shit	-11.3194
▁Eric	-11.3197
ancy	-11.3198
cost	-11.3203
▁shirt	-11.3205
▁mal	-11.3213
▁classical	-11.3217
▁remembered	-11.323
▁influenced	-11.3236
▁sin	-11.3241
▁bath	-11.3245
▁entrepreneur	-11.3269
▁continuous	-11.327
▁formal	-11.3282
▁sculpt	-11.3282
▁Minister	-11.3282
▁accumulate	-11.3282
▁humanitarian	-11.3282
▁luxury	-11.3282
▁membrane	-11.3282
▁striking	-11.3282
▁vaccinat	-11.3282
▁gallon	-11.3282
▁snake	-11.3282
▁bribe	-11.3282
▁uncertainty	-11.3283
▁wildlife	-11.3283
▁watt	-11.3283
▁Spain	-11.3284
▁awake	-11.3284
▁fancy	-11.3284
▁disability	-11.3286
▁friendship	-11.3287
▁beaten	-11.3288
Listen	-11.3289
▁located	-11.329
▁dating	-11.3293
▁camel	-11.3293
▁morality	-11.3295
▁friendly	-11.3302
▁reflection	-11.3304
▁glasses	-11.3305
▁Both	-11.3305
▁July	-11.331
▁items	-11.331
▁hunting	-11.3312
▁Scott	-11.3313
▁established	-11.3317
▁expecting	-11.3324
▁hardest	-11.3327
▁conducted	-11.3328
▁bind	-11.3329
efficient	-11.3338
interest	-11.3338
four	-11.3343
▁approaching	-11.3343
inal	-11.3345
▁distinguish	-11.3358
▁recall	-11.3358
▁safely	-11.336
▁Gore	-11.3363
▁badly	-11.3364
▁headed	-11.3391
▁challenged	-11.3391
▁photographed	-11.3394
▁install	-11.3414
▁armed	-11.343
▁prior	-11.3438
▁blank	-11.3439
▁retire	-11.3439
▁Friday	-11.3441
▁Taliban	-11.3441
▁aspiration	-11.3441
▁assistance	-11.3441
▁chamber	-11.3441
▁elegant	-11.3441
▁exposure	-11.3441
▁impressive	-11.3441
▁mobility	-11.3441
▁vulnerability	-11.3441
▁awkward	-11.3441
▁hiding	-11.3441
▁interior	-11.3441
▁workforce	-11.3441
▁Until	-11.3441
▁intimate	-11.3441
▁cotton	-11.3441
▁torture	-11.3441
▁defeat	-11.3441
▁expectancy	-11.3442
ville	-11.3442
▁calm	-11.3443
▁flaw	-11.3443
▁Open	-11.3444
ealand	-11.3444
▁listened	-11.3445
▁unfold	-11.3445
▁nearby	-11.3445
▁Santa	-11.3449
▁Brazilian	-11.3449
▁germ	-11.3451
▁researcher	-11.3453
▁analogy	-11.3453
▁bold	-11.3453
▁wedding	-11.3457
▁Steven	-11.346
▁civilian	-11.346
▁Gold	-11.3461
▁assumption	-11.3478
▁someday	-11.3482
▁teenager	-11.3484
▁beating	-11.3485
▁relie	-11.3495
minute	-11.3499
worth	-11.35
▁hunter	-11.3501
Re	-11.3501
▁Sorry	-11.3505
▁encouraged	-11.3512
dom	-11.3523
▁Pop	-11.354
▁surround	-11.3546
oh	-11.3547
▁specialist	-11.3558
▁Sure	-11.3565
racy	-11.3566
▁rolling	-11.3567
▁span	-11.3573
▁makers	-11.3585
▁tight	-11.3593
▁Dad	-11.3594
▁Pri	-11.3597
human	-11.36
▁restrict	-11.3602
▁acoustic	-11.3602
▁astronomer	-11.3602
▁categories	-11.3602
▁chronic	-11.3602
▁cigarette	-11.3602
▁commission	-11.3602
▁cosmic	-11.3602
▁diamond	-11.3602
▁leather	-11.3602
▁magnitude	-11.3602
▁matrix	-11.3602
▁sponsor	-11.3602
▁terribly	-11.3602
▁terrifying	-11.3602
▁theoretical	-11.3602
▁uniform	-11.3602
▁mild	-11.3602
▁reliable	-11.3602
▁investigate	-11.3602
▁harness	-11.3603
▁venture	-11.3603
▁limitations	-11.3603
▁kingdom	-11.3603
▁rubber	-11.3603
▁proposition	-11.3603
▁enforcement	-11.3603
▁redesign	-11.3604
▁archive	-11.3604
▁Iranian	-11.3613
▁logo	-11.3616
▁workplace	-11.3616
▁MT	-11.362
▁closest	-11.3625
▁upload	-11.3629
▁deck	-11.3632
ility	-11.3638
▁gathered	-11.3643
▁Mike	-11.3643
uous	-11.3644
▁ignored	-11.3659
▁customer	-11.3661
space	-11.3668
▁hunt	-11.3674
ati	-11.368
▁bite	-11.3694
▁soup	-11.3697
▁pound	-11.3718
▁Walk	-11.3734
▁surf	-11.3734
▁motivate	-11.3738
Ma	-11.3743
▁NGOs	-11.3764
osi	-11.3766
clusive	-11.3766
▁Alexander	-11.3766
▁Palestinian	-11.3766
▁Saudi	-11.3766
▁Tanzania	-11.3766
▁administration	-11.3766
▁collision	-11.3766
▁despair	-11.3766
▁genuine	-11.3766
▁glamorous	-11.3766
▁mutual	-11.3766
▁rethink	-11.3766
▁stimulate	-11.3766
▁substantial	-11.3766
▁temporary	-11.3766
▁tsunami	-11.3766
▁cruel	-11.3766
▁align	-11.3766
▁geek	-11.3766
▁viral	-11.3766
▁amateur	-11.3766
▁steer	-11.3767
▁entry	-11.3767
ibility	-11.3767
▁banana	-11.3767
▁girlfriend	-11.3767
▁static	-11.3767
▁chase	-11.3768
▁retirement	-11.3769
▁shipping	-11.3769
▁Ray	-11.3771
▁pond	-11.3772
▁ego	-11.3772
▁mapping	-11.3772
▁desperately	-11.3776
▁loose	-11.3776
▁obstacles	-11.3778
▁patch	-11.3781
▁continuing	-11.3786
▁traits	-11.3788
▁trap	-11.3798
▁beam	-11.3801
▁observed	-11.3802
▁CD	-11.3815
▁dressed	-11.3815
holder	-11.3822
▁graduated	-11.385
▁proved	-11.3856
▁Win	-11.386
expl	-11.3882
▁upward	-11.3887
▁offering	-11.3893
▁Bell	-11.3898
lick	-11.3899
▁assign	-11.3931
▁Afghan	-11.3933
▁Bronx	-11.3933
▁Council	-11.3933
▁Gandhi	-11.3933
▁blah	-11.3933
▁deforestation	-11.3933
▁diagnostic	-11.3933
▁dilemma	-11.3933
▁earliest	-11.3933
▁excellent	-11.3933
▁fault	-11.3933
▁indigenous	-11.3933
▁negotiate	-11.3933
▁residents	-11.3933
▁storytelling	-11.3933
▁yourselves	-11.3933
▁scheme	-11.3933
▁Ladies	-11.3933
▁excess	-11.3933
▁dawn	-11.3933
▁confine	-11.3933
▁inherit	-11.3933
▁voting	-11.3933
▁grandparents	-11.3933
▁ongoing	-11.3934
▁panic	-11.3934
▁mud	-11.3934
▁glow	-11.3935
chasing	-11.3935
▁estate	-11.3935
▁brick	-11.3935
▁stability	-11.3938
pan	-11.3939
▁addiction	-11.3941
▁Whereas	-11.3942
thermal	-11.3943
▁chop	-11.3944
▁nerd	-11.3945
▁Moon	-11.3946
▁fortunately	-11.3948
▁spi	-11.3951
berg	-11.3956
▁previously	-11.3962
▁Hello	-11.3969
▁Mad	-11.3973
▁Kh	-11.3974
▁Str	-11.3977
▁honestly	-11.398
eur	-11.3982
▁dare	-11.3984
▁chimpanzee	-11.3986
▁incentive	-11.3986
▁mammal	-11.3987
▁vessel	-11.3987
▁economist	-11.3987
▁update	-11.399
▁succeeded	-11.3991
▁bush	-11.3998
▁landing	-11.4012
step	-11.4014
▁arrest	-11.4078
▁pun	-11.4088
self	-11.409
▁historic	-11.4095
▁authentic	-11.41
▁punish	-11.4101
▁Jeff	-11.4102
▁Nelson	-11.4102
▁contrary	-11.4102
▁currency	-11.4102
▁pedestrian	-11.4102
▁principal	-11.4102
▁pursuit	-11.4102
▁supplies	-11.4102
▁tattoo	-11.4102
▁absence	-11.4102
▁flourish	-11.4102
▁straightforward	-11.4102
▁exhaust	-11.4102
▁miserable	-11.4102
▁storage	-11.4102
▁Dutch	-11.4103
▁Henry	-11.4103
▁refine	-11.4103
▁devote	-11.4103
▁legislation	-11.4103
▁tale	-11.4103
▁exclusive	-11.4103
▁Social	-11.4104
▁spike	-11.4104
▁Army	-11.4104
▁Media	-11.4104
▁occasionally	-11.4104
▁Brian	-11.4106
▁Homo	-11.4108
▁counting	-11.4109
▁Lake	-11.4109
▁frontier	-11.4109
▁visualize	-11.411
▁fertilizer	-11.411
▁downtown	-11.411
▁insane	-11.4111
▁specialized	-11.4115
▁hug	-11.4117
▁Korean	-11.4118
▁Newton	-11.4119
RB	-11.4121
▁lowest	-11.4123
▁sufficient	-11.413
▁motivated	-11.4132
▁proven	-11.4132
▁Howard	-11.4136
break	-11.4155
wan	-11.4174
▁monitoring	-11.4176
▁performed	-11.4184
▁SS	-11.4214
▁conv	-11.4223
▁transcend	-11.4224
▁bowl	-11.4224
version	-11.4225
▁discovering	-11.423
town	-11.4267
▁phenomena	-11.4269
▁Except	-11.4275
▁Indonesia	-11.4275
▁Twenty	-11.4275
▁altitude	-11.4275
▁ambitious	-11.4275
▁destiny	-11.4275
▁dopamine	-11.4275
▁encouraging	-11.4275
▁executive	-11.4275
▁geometry	-11.4275
▁iPod	-11.4275
▁interrupt	-11.4275
▁parachute	-11.4275
▁pizza	-11.4275
▁proposal	-11.4275
▁receptor	-11.4275
▁stomach	-11.4275
▁Delhi	-11.4275
▁admire	-11.4275
powered	-11.4275
▁foster	-11.4275
▁canopy	-11.4275
▁Almost	-11.4275
▁loving	-11.4276
▁constraints	-11.4277
▁punishment	-11.4277
▁Johnson	-11.4278
▁County	-11.4279
▁requirement	-11.4281
▁phenomenal	-11.4281
▁assure	-11.4282
▁overnight	-11.4283
under	-11.4289
▁Professor	-11.4294
▁flowing	-11.4301
▁manufacturer	-11.4304
▁strain	-11.4309
▁jam	-11.4309
▁aunt	-11.4322
▁rig	-11.4329
▁AK	-11.4336
▁biologist	-11.4341
lev	-11.4356
▁threaten	-11.4361
▁promised	-11.4364
▁Ken	-11.4404
cast	-11.4417
▁manufacture	-11.4421
▁teenage	-11.4442
▁singer	-11.4446
▁corrupt	-11.4447
▁Mandela	-11.445
▁Peace	-11.445
▁Shanghai	-11.445
▁Technology	-11.445
▁Vietnam	-11.445
▁cricket	-11.445
▁division	-11.445
▁endangered	-11.445
▁persuade	-11.445
▁phantom	-11.445
▁synthesize	-11.445
▁territory	-11.445
▁virtue	-11.445
▁millennia	-11.445
▁chunk	-11.445
▁hub	-11.445
▁backyard	-11.445
▁Carolina	-11.445
▁seemingly	-11.4451
▁texture	-11.4451
▁angel	-11.4451
▁filmmaker	-11.4452
▁elementary	-11.4453
▁delay	-11.4453
▁irre	-11.4454
▁guilty	-11.4456
▁artwork	-11.4456
▁Roman	-11.446
▁personalized	-11.4463
▁sir	-11.4478
LT	-11.4488
▁Whatever	-11.4494
ette	-11.4514
▁password	-11.4523
▁estimated	-11.4524
gua	-11.4524
driven	-11.4526
second	-11.4526
world	-11.4526
flow	-11.4531
▁sixth	-11.4538
Ha	-11.4541
▁enabled	-11.4544
lia	-11.456
▁glue	-11.4584
▁attach	-11.4604
▁seeking	-11.4611
▁Pal	-11.4616
▁freely	-11.4626
▁chemist	-11.4627
▁cue	-11.4628
tropical	-11.4629
▁Neanderthal	-11.4629
▁Suddenly	-11.4629
▁System	-11.4629
▁astronaut	-11.4629
▁counsel	-11.4629
▁entropy	-11.4629
▁knife	-11.4629
▁pencil	-11.4629
▁receiving	-11.4629
▁syndrome	-11.4629
▁temple	-11.4629
▁composition	-11.4629
▁lobby	-11.4629
▁occupy	-11.4629
▁preparing	-11.4629
▁suppress	-11.4629
▁steam	-11.4629
▁proceed	-11.4629
▁wrist	-11.4629
▁electrodes	-11.4629
▁retreat	-11.4629
▁riot	-11.4629
▁Anybody	-11.4629
▁junk	-11.4629
▁Koran	-11.463
▁Year	-11.463
▁relief	-11.4631
▁shifting	-11.4633
▁freeze	-11.4635
▁canvas	-11.4637
▁branches	-11.4638
▁stopping	-11.4638
wandering	-11.4638
▁Rock	-11.464
▁predictable	-11.4645
▁eaten	-11.4647
▁approached	-11.4648
▁millimeter	-11.4651
▁outbreak	-11.4651
▁intensive	-11.4654
▁selected	-11.4658
▁momentum	-11.4658
body	-11.4674
▁empowered	-11.4674
▁shower	-11.4685
▁Arch	-11.4689
▁contributed	-11.4689
uate	-11.469
ambi	-11.4691
▁collapsed	-11.4697
gras	-11.4697
▁cellular	-11.47
▁replaced	-11.4702
▁raped	-11.4703
▁shoe	-11.4709
▁epi	-11.4723
storm	-11.473
oma	-11.4734
▁worrying	-11.4768
looking	-11.4768
▁hated	-11.4774
▁Bio	-11.4787
▁extraordinar	-11.4802
▁Brother	-11.4811
▁Bruno	-11.4811
▁Rather	-11.4811
▁breakfast	-11.4811
▁chimp	-11.4811
▁devastating	-11.4811
▁diameter	-11.4811
▁ecology	-11.4811
▁enemies	-11.4811
▁enzyme	-11.4811
▁feminist	-11.4811
▁hybrid	-11.4811
▁magnificent	-11.4811
▁recycling	-11.4811
▁terrified	-11.4811
▁ubiquitous	-11.4811
▁wheat	-11.4811
▁ambition	-11.4811
▁contaminat	-11.4811
▁fusion	-11.4811
▁trivial	-11.4811
▁Watch	-11.4811
▁Seattle	-11.4811
▁Work	-11.4811
▁carpet	-11.4811
▁distort	-11.4811
▁blink	-11.4811
▁constrain	-11.4811
▁thread	-11.4812
▁mainstream	-11.4812
▁pipeline	-11.4812
▁bedroom	-11.4812
▁horizontal	-11.4813
▁prostate	-11.4813
▁regardless	-11.4813
▁diving	-11.4813
▁Lord	-11.4814
▁naive	-11.4815
▁visualization	-11.4816
▁cube	-11.4821
▁blindness	-11.4823
▁fallen	-11.4823
▁realistic	-11.4824
▁prevention	-11.4828
▁fatal	-11.4831
▁Way	-11.4831
cam	-11.4832
▁concentrated	-11.4833
▁Jane	-11.4833
▁Andrew	-11.4837
▁staring	-11.4851
▁smallest	-11.4865
▁packed	-11.4872
aeda	-11.4901
▁sexy	-11.4902
▁gained	-11.4915
▁employer	-11.4916
oney	-11.4917
▁risky	-11.4919
▁grip	-11.4925
▁grabb	-11.4927
▁banking	-11.493
▁crossed	-11.4939
▁catching	-11.4949
▁rip	-11.4951
shot	-11.4962
▁container	-11.4965
▁Syria	-11.4987
▁champion	-11.4995
▁Brooklyn	-11.4996
▁College	-11.4996
▁Government	-11.4996
▁Industrial	-11.4996
▁Jordan	-11.4996
▁Lincoln	-11.4996
▁Little	-11.4996
▁November	-11.4996
▁arguing	-11.4996
▁asleep	-11.4996
▁cocaine	-11.4996
▁convenient	-11.4996
▁divorce	-11.4996
▁emphasize	-11.4996
▁flavor	-11.4996
▁horror	-11.4996
▁investigation	-11.4996
▁negotiation	-11.4996
▁potato	-11.4996
▁purple	-11.4996
▁segment	-11.4996
▁sibling	-11.4996
▁strict	-11.4996
▁unhappy	-11.4996
▁satisfy	-11.4996
▁warrior	-11.4996
▁jellyfish	-11.4996
▁tiger	-11.4996
▁onstage	-11.4996
▁swing	-11.4996
▁minus	-11.4996
▁brush	-11.4996
▁sperm	-11.4997
▁drew	-11.4997
▁Cuba	-11.4998
▁sidewalk	-11.4998
▁spacecraft	-11.4999
▁Ireland	-11.5
▁workshop	-11.5
▁Coke	-11.5001
▁Nick	-11.5002
▁Someone	-11.5002
▁nodes	-11.5002
▁vary	-11.5002
▁invade	-11.5003
two	-11.5004
▁belt	-11.5008
▁controversial	-11.5011
vy	-11.5011
▁taxes	-11.5011
▁installed	-11.5025
▁readers	-11.5025
▁amazingly	-11.5047
▁Force	-11.5055
fulness	-11.506
▁optical	-11.5064
wise	-11.5072
wood	-11.5082
material	-11.5082
▁bust	-11.5102
▁collaborate	-11.5129
▁responded	-11.5135
▁attacked	-11.5139
▁politically	-11.5143
angle	-11.5147
▁breed	-11.5154
▁deposit	-11.5157
ndi	-11.5164
AR	-11.5174
scribe	-11.5181
▁Catholic	-11.5185
▁Gabby	-11.5185
▁Leonardo	-11.5185
▁Swiss	-11.5185
▁accuracy	-11.5185
▁advertise	-11.5185
▁approved	-11.5185
▁artifact	-11.5185
▁believing	-11.5185
▁calories	-11.5185
▁cooperate	-11.5185
▁describing	-11.5185
▁destination	-11.5185
▁diarrhea	-11.5185
▁embarrassing	-11.5185
▁empire	-11.5185
▁eradicate	-11.5185
▁frustration	-11.5185
▁inevitably	-11.5185
▁legitimate	-11.5185
▁monster	-11.5185
▁terrain	-11.5185
▁tutor	-11.5185
▁Accord	-11.5185
▁association	-11.5185
▁declare	-11.5185
▁summit	-11.5185
▁cream	-11.5185
▁infectious	-11.5185
▁spiral	-11.5185
atic	-11.5186
▁advise	-11.5187
▁migration	-11.5188
▁Stone	-11.5189
▁unlock	-11.5191
▁stored	-11.5192
▁distinction	-11.5192
▁candle	-11.5194
▁Tony	-11.5196
▁amazed	-11.5196
▁decent	-11.5199
▁processor	-11.5201
▁screaming	-11.5215
▁breeding	-11.5216
▁shelf	-11.5219
change	-11.522
▁correctly	-11.5228
▁publishing	-11.5231
▁impos	-11.5238
star	-11.5253
▁lap	-11.5257
▁earning	-11.5263
▁mentally	-11.5267
point	-11.5272
▁useless	-11.5273
AIDS	-11.5274
income	-11.5274
▁statistic	-11.5282
▁banker	-11.529
▁transforming	-11.5312
ku	-11.5342
▁posted	-11.535
Go	-11.5363
▁Ron	-11.5367
▁Hawaii	-11.5377
▁correlation	-11.5377
▁impulse	-11.5377
▁injured	-11.5377
▁schizophrenia	-11.5377
▁separation	-11.5377
▁smiling	-11.5377
▁veteran	-11.5377
▁approximate	-11.5377
▁drunk	-11.5377
▁innovate	-11.5377
▁jazz	-11.5377
▁jihad	-11.5377
▁slime	-11.5377
▁summarize	-11.5377
▁Doctor	-11.5377
▁communicating	-11.5377
▁lonely	-11.5377
▁Half	-11.5377
▁multiply	-11.5377
▁whisper	-11.5377
▁disabled	-11.5377
▁stereotype	-11.5377
▁tiles	-11.5377
▁Redwood	-11.5377
▁lifespan	-11.5377
▁Turk	-11.5377
▁evolving	-11.5378
▁bounce	-11.5378
▁Anyone	-11.5378
▁Nike	-11.5378
▁echo	-11.5379
▁slight	-11.5379
▁frequently	-11.5383
▁Show	-11.5384
▁insert	-11.5388
▁utterly	-11.5389
▁sake	-11.539
▁MK	-11.5391
▁halfway	-11.5393
▁rib	-11.5395
▁probe	-11.5396
▁abandoned	-11.5397
▁realization	-11.5399
▁Gar	-11.5401
▁messy	-11.541
▁consciously	-11.5411
▁outdoor	-11.5411
▁regularly	-11.5415
▁RS	-11.5427
▁behalf	-11.5428
▁arc	-11.5437
▁Ear	-11.5442
▁demonstrated	-11.5442
▁shy	-11.5442
▁atomic	-11.5443
▁revealed	-11.5446
frontal	-11.5452
▁worthy	-11.5459
generation	-11.547
style	-11.547
field	-11.5473
▁harmful	-11.5479
potent	-11.5483
▁sale	-11.5494
▁mini	-11.5502
rich	-11.5506
▁informal	-11.5516
▁enjoyed	-11.552
kill	-11.5522
All	-11.5522
▁Matt	-11.5538
▁scream	-11.5542
▁accomplish	-11.5546
▁locally	-11.5559
▁transit	-11.5563
▁dirt	-11.5565
▁Abraham	-11.5573
▁Switzerland	-11.5573
▁Telescope	-11.5573
▁Together	-11.5573
▁Yemen	-11.5573
▁centimeter	-11.5573
▁episode	-11.5573
▁equity	-11.5573
▁harbor	-11.5573
▁hierarchy	-11.5573
▁nowadays	-11.5573
▁obtain	-11.5573
▁peculiar	-11.5573
▁prescription	-11.5573
▁remarkably	-11.5573
▁sanitation	-11.5573
▁vacation	-11.5573
▁welfare	-11.5573
▁competing	-11.5573
▁juice	-11.5573
▁swallow	-11.5573
▁Berlin	-11.5573
▁priest	-11.5573
▁creep	-11.5573
▁boost	-11.5573
▁tolerance	-11.5573
▁ultra	-11.5573
▁contest	-11.5573
▁augment	-11.5573
▁Kevin	-11.5573
▁therapist	-11.5574
▁trapped	-11.5574
▁spinning	-11.5574
▁TEDster	-11.5574
▁snap	-11.5575
▁priority	-11.5576
▁tide	-11.5576
▁guest	-11.5576
▁dropping	-11.5577
▁Hong	-11.5578
▁Alex	-11.5578
syn	-11.5578
ounce	-11.5579
▁App	-11.5585
▁Stage	-11.5587
▁dominated	-11.5588
▁planetary	-11.5595
▁Carl	-11.5598
▁technically	-11.5615
▁wishes	-11.5622
▁consumed	-11.5629
▁randomly	-11.5634
▁destroying	-11.5641
▁adapted	-11.5649
▁engineered	-11.5655
wide	-11.5662
wash	-11.5683
▁doubled	-11.5688
▁steppe	-11.5739
▁integrate	-11.5745
▁explorer	-11.5749
▁tire	-11.575
▁spine	-11.5766
skeletal	-11.5773
▁Clinton	-11.5773
▁Detroit	-11.5773
▁Jupiter	-11.5773
▁Mexican	-11.5773
▁Organization	-11.5773
▁Probably	-11.5773
▁Saturday	-11.5773
▁corridor	-11.5773
▁exotic	-11.5773
▁glimpse	-11.5773
▁gorgeous	-11.5773
▁intrinsic	-11.5773
▁invitation	-11.5773
▁obese	-11.5773
▁phosphorus	-11.5773
▁drain	-11.5773
▁Louis	-11.5773
▁hint	-11.5773
▁psychopath	-11.5773
scape	-11.5773
▁Indus	-11.5774
▁intervene	-11.5774
▁pirate	-11.5774
▁kidding	-11.5774
▁mill	-11.5774
▁jaw	-11.5774
▁wrapped	-11.5775
▁Coast	-11.5777
▁hometown	-11.5777
▁healing	-11.5777
▁Still	-11.5778
▁retail	-11.578
▁deaf	-11.5782
▁PMS	-11.5782
▁PR	-11.5788
▁Op	-11.579
▁deepest	-11.5793
▁realities	-11.5795
▁SW	-11.5796
▁accomplished	-11.5798
▁Nigerian	-11.5799
▁broader	-11.58
▁Australian	-11.5805
▁namely	-11.5805
▁Try	-11.5811
▁USA	-11.5815
▁simplest	-11.5816
▁hacking	-11.5818
▁calculated	-11.5824
▁organizing	-11.5824
▁discussing	-11.5825
▁SP	-11.5825
▁teaches	-11.5826
▁cookie	-11.5833
▁Amy	-11.5836
▁migrate	-11.5842
▁expanded	-11.5843
▁slower	-11.5844
▁blown	-11.5844
▁shocking	-11.5849
mediate	-11.5853
night	-11.586
shirt	-11.5874
degree	-11.5874
▁cope	-11.5883
ago	-11.5884
bound	-11.5884
▁expressed	-11.5885
▁convention	-11.5927
▁ironic	-11.593
▁simpler	-11.5946
▁aggregate	-11.5956
▁prisoner	-11.5957
▁reporting	-11.5966
▁disrupt	-11.597
Man	-11.5973
▁squeeze	-11.5975
▁consult	-11.5976
▁scholar	-11.5977
▁Argentina	-11.5977
▁Atlanta	-11.5977
▁Monterey	-11.5977
▁Shakespeare	-11.5977
▁Singapore	-11.5977
▁abundance	-11.5977
▁batteries	-11.5977
▁ceremony	-11.5977
▁cylinder	-11.5977
▁default	-11.5977
▁elevator	-11.5977
▁frightening	-11.5977
▁glamour	-11.5977
▁glucose	-11.5977
▁import	-11.5977
▁independence	-11.5977
▁introduction	-11.5977
▁migrant	-11.5977
▁nitrogen	-11.5977
▁philosophical	-11.5977
▁puppet	-11.5977
▁translator	-11.5977
▁Daniel	-11.5977
▁Watson	-11.5977
▁discrimination	-11.5977
▁flesh	-11.5977
▁likelihood	-11.5977
▁scaffold	-11.5977
▁timing	-11.5977
▁Pretty	-11.5977
▁heritage	-11.5977
▁remix	-11.5977
▁insulin	-11.5977
▁blob	-11.5977
▁mount	-11.5977
▁typing	-11.5977
▁stamp	-11.5977
▁macro	-11.5977
▁Stephen	-11.5977
▁Jones	-11.5977
▁consent	-11.5978
▁Development	-11.5978
▁wore	-11.5978
▁boundary	-11.5979
▁Spring	-11.5979
▁digest	-11.5982
▁stolen	-11.5983
▁modest	-11.5986
▁machinery	-11.5999
▁handful	-11.6003
▁historically	-11.6003
▁helpless	-11.6023
▁warmer	-11.6036
▁privileged	-11.6041
lapping	-11.6041
▁prim	-11.6053
▁Luc	-11.6061
▁forbid	-11.6069
stick	-11.6073
uh	-11.6075
profit	-11.6081
frame	-11.6083
count	-11.6083
▁switched	-11.6084
▁prayer	-11.6086
volving	-11.6095
▁zoo	-11.6098
▁instruction	-11.6109
▁penguin	-11.611
eval	-11.6125
▁Char	-11.6129
▁intent	-11.6166
▁grant	-11.6168
▁utter	-11.6173
▁compute	-11.6178
itude	-11.618
▁stereo	-11.6185
▁descend	-11.6185
Absolutely	-11.6185
voluntary	-11.6185
▁Aristotle	-11.6185
▁DVD	-11.6185
▁Feynman	-11.6185
▁Parkinson	-11.6185
▁Security	-11.6185
▁Supreme	-11.6185
▁assault	-11.6185
▁cockroach	-11.6185
▁endeavor	-11.6185
▁envelope	-11.6185
▁fluorescent	-11.6185
▁maneuver	-11.6185
▁marathon	-11.6185
▁neuroscientist	-11.6185
▁offspring	-11.6185
▁precision	-11.6185
▁protocell	-11.6185
▁vibration	-11.6185
▁album	-11.6185
▁cosmos	-11.6185
▁harmony	-11.6185
▁warehouse	-11.6185
▁Business	-11.6185
▁geography	-11.6185
▁thrive	-11.6185
▁inhibit	-11.6185
▁mankind	-11.6185
▁cubic	-11.6185
▁scaling	-11.6186
▁grace	-11.6186
▁Iceland	-11.6186
▁Geographic	-11.6186
▁flame	-11.6187
▁hostile	-11.6187
▁planned	-11.6189
▁iconic	-11.6192
▁belly	-11.6193
▁rode	-11.6195
▁mum	-11.6196
▁Rand	-11.6203
▁Ram	-11.6209
▁buses	-11.6209
▁deployed	-11.621
▁trailer	-11.621
▁refused	-11.6214
▁PC	-11.6218
▁youngest	-11.6233
▁labeled	-11.6234
▁sexually	-11.6235
▁lifted	-11.6246
▁resistant	-11.625
▁lethal	-11.6251
▁Young	-11.6261
▁Brad	-11.6271
▁reflected	-11.6271
▁mesh	-11.628
nnie	-11.6284
five	-11.6284
phone	-11.6293
proof	-11.6296
touch	-11.6298
found	-11.6301
spot	-11.6308
position	-11.6327
wind	-11.6366
▁deploy	-11.6372
ER	-11.6383
▁wander	-11.6387
▁sneak	-11.6394
▁minor	-11.6396
vascular	-11.6398
▁April	-11.6398
▁Civil	-11.6398
▁Society	-11.6398
▁bamboo	-11.6398
▁convicted	-11.6398
▁elaborate	-11.6398
▁eternal	-11.6398
▁execution	-11.6398
▁expense	-11.6398
▁irrational	-11.6398
▁philanthropy	-11.6398
▁schedule	-11.6398
▁sovereign	-11.6398
▁reinforce	-11.6398
▁trading	-11.6398
▁transistor	-11.6398
▁fisheries	-11.6398
▁heavily	-11.6398
▁denial	-11.6398
▁therapies	-11.6398
▁nightmare	-11.6398
▁steep	-11.6398
▁IBM	-11.6398
▁dough	-11.6399
▁scrap	-11.6399
mile	-11.6399
▁operator	-11.6399
▁bleed	-11.64
▁scanning	-11.64
▁preference	-11.64
▁conceptual	-11.6401
▁documentary	-11.6401
▁pants	-11.6403
▁volcano	-11.6403
▁contradiction	-11.6403
▁Cape	-11.6405
▁overwhelmed	-11.6405
▁thus	-11.6408
▁adaptation	-11.6408
▁Rick	-11.6409
▁coverage	-11.6409
▁preach	-11.6409
▁thrilled	-11.641
▁semi	-11.6419
ssuming	-11.6427
▁bacterial	-11.6431
Prince	-11.6433
▁overhead	-11.6433
▁computational	-11.6437
▁provider	-11.6442
▁repeated	-11.6455
▁actively	-11.6465
lapse	-11.6468
▁laughed	-11.6476
▁spare	-11.6477
cause	-11.6479
▁Say	-11.6486
▁lawn	-11.6492
craft	-11.6509
ella	-11.6517
▁hopeful	-11.6518
▁argued	-11.6526
rious	-11.6548
▁mathematician	-11.6549
▁evaluat	-11.6569
▁prospect	-11.6574
Here	-11.6577
▁tan	-11.6585
▁refuse	-11.6587
risk	-11.6597
▁desperate	-11.6603
▁distract	-11.6607
▁entertain	-11.6613
▁yell	-11.6615
▁Copenhagen	-11.6616
▁Greece	-11.6616
▁adolescent	-11.6616
▁arrangement	-11.6616
▁blade	-11.6616
▁consensus	-11.6616
▁coordination	-11.6616
▁defining	-11.6616
▁democracies	-11.6616
▁happily	-11.6616
▁imagining	-11.6616
▁prosthetic	-11.6616
▁sequencing	-11.6616
▁staircase	-11.6616
▁sweep	-11.6616
▁transaction	-11.6616
▁vivid	-11.6616
▁intensity	-11.6616
▁biomass	-11.6616
▁blur	-11.6616
▁ideology	-11.6616
▁synap	-11.6616
▁smash	-11.6616
▁vocal	-11.6616
▁livestock	-11.6616
▁forecast	-11.6616
▁freezing	-11.6616
▁blast	-11.6616
▁intact	-11.6616
▁basketball	-11.6616
▁nasty	-11.6616
▁gross	-11.6616
▁chew	-11.6616
▁History	-11.6616
▁generic	-11.6616
▁delicious	-11.6616
▁odor	-11.6617
▁journalism	-11.6618
▁minority	-11.6618
▁selective	-11.6618
▁Trade	-11.6618
▁strap	-11.6619
▁Kong	-11.662
▁crab	-11.6622
▁suspended	-11.6623
▁Music	-11.6626
▁JF	-11.6627
▁subjective	-11.6627
▁progressive	-11.6628
▁stare	-11.6631
month	-11.6633
▁irony	-11.6636
▁recycled	-11.6636
▁hopeless	-11.6647
▁witnessed	-11.6657
ogue	-11.6659
▁masses	-11.6677
hole	-11.668
▁kicked	-11.6681
▁capitalist	-11.6723
▁prey	-11.6732
quality	-11.6734
Please	-11.6735
▁Arabia	-11.6736
▁whoever	-11.6745
▁owe	-11.6746
▁deadly	-11.6749
To	-11.6755
how	-11.6756
▁Van	-11.676
▁lever	-11.679
▁diagnose	-11.681
liter	-11.6817
▁impose	-11.6826
▁Academy	-11.6838
▁Benjamin	-11.6838
▁Berkeley	-11.6838
▁Jerusalem	-11.6838
▁Journal	-11.6838
▁accelerating	-11.6838
▁contributing	-11.6838
▁deficit	-11.6838
▁gallery	-11.6838
▁grocery	-11.6838
▁immortal	-11.6838
▁inflation	-11.6838
▁maximum	-11.6838
▁recognizing	-11.6838
▁taboo	-11.6838
▁tempo	-11.6838
▁Arthur	-11.6838
▁Office	-11.6838
▁swarm	-11.6838
▁converge	-11.6838
▁fluctuat	-11.6838
▁Disney	-11.6838
▁pleasant	-11.6838
▁Keep	-11.6838
▁helium	-11.6838
▁harsh	-11.6838
▁eastern	-11.6838
▁kilogram	-11.6838
▁Virginia	-11.6839
▁tomato	-11.6839
▁constitution	-11.6839
▁systematically	-11.6839
espite	-11.6839
▁bucket	-11.6839
▁Teach	-11.684
▁trafficking	-11.684
▁transformative	-11.684
▁cheer	-11.684
▁occurring	-11.684
▁couch	-11.6841
▁vice	-11.6841
▁wow	-11.6843
▁Water	-11.6843
▁managing	-11.6843
▁duty	-11.6844
▁fade	-11.6845
▁wooden	-11.6845
▁LG	-11.6847
▁basement	-11.6848
▁inmates	-11.6849
▁penis	-11.6849
▁rebel	-11.6852
▁tourist	-11.6859
page	-11.6862
▁losses	-11.6866
▁JA	-11.687
▁rejected	-11.6879
▁confronted	-11.6885
▁remotely	-11.6887
▁analyzed	-11.6892
▁interconnected	-11.6898
▁comedy	-11.6903
▁asthma	-11.691
▁regenerate	-11.6912
▁emotionally	-11.6912
▁assumed	-11.6925
▁Sur	-11.6928
iction	-11.6932
▁sooner	-11.6933
▁rear	-11.6934
▁neo	-11.696
three	-11.6964
story	-11.6973
itz	-11.6974
▁triple	-11.6989
▁Map	-11.6996
▁ingredient	-11.7009
▁plea	-11.7037
▁associate	-11.7037
▁acquire	-11.7045
▁navigat	-11.7049
▁unfortunate	-11.7052
▁Under	-11.7058
▁Education	-11.7065
▁Mumbai	-11.7065
▁SETI	-11.7065
▁anniversary	-11.7065
▁circular	-11.7065
▁festival	-11.7065
▁integration	-11.7065
▁jungle	-11.7065
▁juvenile	-11.7065
▁literacy	-11.7065
▁monument	-11.7065
▁obsession	-11.7065
▁optimize	-11.7065
▁recession	-11.7065
▁surgeries	-11.7065
▁underestimate	-11.7065
▁Computer	-11.7065
▁FDA	-11.7065
▁NSA	-11.7065
▁virgin	-11.7065
▁injuries	-11.7065
▁selves	-11.7065
▁historian	-11.7065
▁spouse	-11.7065
▁exceed	-11.7065
▁bonus	-11.7065
▁greet	-11.7065
▁chef	-11.7065
▁crude	-11.7065
▁lottery	-11.7065
▁Hawk	-11.7066
▁accent	-11.7066
▁cattle	-11.7066
▁depict	-11.7066
▁headquarters	-11.7066
▁Edward	-11.7067
▁acres	-11.7067
▁index	-11.7068
▁tapir	-11.7068
▁browser	-11.7069
▁replacement	-11.7072
▁rail	-11.7072
▁passage	-11.7074
▁fever	-11.7076
▁farther	-11.7076
▁stabilize	-11.7077
▁MR	-11.7079
▁economically	-11.7083
▁merge	-11.7085
▁sync	-11.7088
▁passes	-11.7098
▁payment	-11.71
▁promot	-11.7114
articulate	-11.7129
▁talented	-11.7136
▁melting	-11.7138
▁attracted	-11.7141
▁Free	-11.7148
natu	-11.7153
▁longest	-11.7161
▁documented	-11.7172
effective	-11.7195
God	-11.7229
speed	-11.7231
▁reporter	-11.7242
▁politician	-11.7248
▁concentrate	-11.7269
▁expo	-11.7293
▁Democrat	-11.7294
▁manifest	-11.7295
▁gentle	-11.7296
▁submit	-11.7296
▁Mount	-11.7297
▁Apollo	-11.7298
▁Bhutan	-11.7298
▁Eventually	-11.7298
▁McDonald	-11.7298
▁Public	-11.7298
▁achieving	-11.7298
▁alphabet	-11.7298
▁commodity	-11.7298
▁deception	-11.7298
▁guitar	-11.7298
▁immigrant	-11.7298
▁indicator	-11.7298
▁parliament	-11.7298
▁pesticide	-11.7298
▁practicing	-11.7298
▁protocol	-11.7298
▁resurrect	-11.7298
▁stadium	-11.7298
▁storyteller	-11.7298
▁stumble	-11.7298
▁trunk	-11.7298
▁undergraduate	-11.7298
▁worship	-11.7298
▁assistant	-11.7298
▁encode	-11.7298
▁cardiac	-11.7298
▁Natural	-11.7298
▁spatial	-11.7298
▁blew	-11.7298
▁mosque	-11.7298
▁slope	-11.7298
▁headache	-11.7298
invasive	-11.7298
▁opposition	-11.7298
▁refrigerator	-11.7298
▁ooh	-11.7299
▁superpower	-11.7299
▁psychiatrist	-11.7299
▁Milk	-11.7299
▁mite	-11.73
▁hut	-11.73
▁copies	-11.73
▁accountability	-11.7301
▁illustration	-11.7301
▁employment	-11.7302
▁lobe	-11.7302
▁settlement	-11.7302
▁systematic	-11.7302
▁adoption	-11.7303
▁towel	-11.7303
▁Light	-11.7304
▁nail	-11.7305
▁Plan	-11.7305
▁inherently	-11.7308
▁Syrian	-11.7309
▁carries	-11.731
▁curl	-11.7311
▁alert	-11.7311
▁playful	-11.7313
▁GG	-11.7315
▁airline	-11.7316
▁atheist	-11.7323
▁cage	-11.7334
▁implemented	-11.7342
▁converted	-11.7363
shaped	-11.7377
▁redefine	-11.7438
And	-11.7457
▁humble	-11.7493
▁disturb	-11.7504
▁hacker	-11.751
▁Republic	-11.7534
▁Canadian	-11.7536
▁Fortunately	-11.7536
▁Hospital	-11.7536
▁Lebanon	-11.7536
▁Netherlands	-11.7536
▁Philadelphia	-11.7536
▁apologize	-11.7536
▁calculus	-11.7536
▁caregiver	-11.7536
▁favela	-11.7536
▁improvise	-11.7536
▁inhabit	-11.7536
▁morph	-11.7536
▁orientation	-11.7536
▁prince	-11.7536
▁statue	-11.7536
▁Craig	-11.7536
▁elevate	-11.7536
▁racial	-11.7536
▁racing	-11.7536
▁entities	-11.7536
▁retain	-11.7536
▁faint	-11.7536
▁Fund	-11.7536
▁preced	-11.7536
▁minimal	-11.7536
▁assess	-11.7536
▁Camp	-11.7536
▁prostitution	-11.7537
▁shatter	-11.7537
▁Around	-11.7537
▁vend	-11.7537
▁cafe	-11.7538
▁digging	-11.7538
▁clone	-11.7538
▁transmitted	-11.7538
▁Laden	-11.7539
▁Wright	-11.754
▁differentiate	-11.754
▁Kids	-11.754
▁Harry	-11.7542
▁flock	-11.7542
▁stain	-11.7542
animate	-11.7542
dependent	-11.7543
▁dune	-11.7544
▁Marine	-11.7544
▁skip	-11.7546
▁dishes	-11.7548
▁richest	-11.7552
▁retina	-11.7553
▁continuously	-11.7555
▁disk	-11.7556
alai	-11.7564
▁Intel	-11.7567
▁progression	-11.7568
▁secondary	-11.757
bone	-11.7574
▁posed	-11.7588
▁fin	-11.7592
▁rescued	-11.7605
▁pul	-11.7626
stitution	-11.7646
▁regional	-11.7656
built	-11.7677
percent	-11.7682
ductive	-11.7682
corn	-11.7694
▁poke	-11.7696
type	-11.7702
▁scare	-11.7705
ranging	-11.7734
▁cloth	-11.7743
▁infect	-11.7743
▁abandon	-11.7755
▁distribute	-11.777
▁drama	-11.7778
▁Charlie	-11.778
▁Christopher	-11.778
▁Jersey	-11.778
▁Joseph	-11.778
▁Library	-11.778
▁Mozart	-11.778
▁analyzing	-11.778
▁celebration	-11.778
▁celebrity	-11.778
▁clarity	-11.778
▁cocktail	-11.778
▁configuration	-11.778
▁council	-11.778
▁criteria	-11.778
▁educator	-11.778
▁entrance	-11.778
▁fantasy	-11.778
▁gravitational	-11.778
▁holiday	-11.778
▁institute	-11.778
▁laboratories	-11.778
▁mobilize	-11.778
▁module	-11.778
▁multinational	-11.778
▁neocortex	-11.778
▁pixel	-11.778
▁preparation	-11.778
▁resilient	-11.778
▁satisfaction	-11.778
▁soccer	-11.778
▁stimulation	-11.778
▁terrific	-11.778
▁Sarah	-11.778
▁premise	-11.778
▁abroad	-11.778
▁sensing	-11.778
▁loyal	-11.778
▁isolation	-11.778
▁luckily	-11.778
▁chess	-11.778
▁peel	-11.778
▁Luther	-11.7781
▁emergence	-11.7781
▁piss	-11.7781
▁cardboard	-11.7781
▁Goals	-11.7781
▁Medicine	-11.7782
▁Greenland	-11.7782
▁authenticity	-11.7783
▁bench	-11.7783
▁Old	-11.7784
▁spite	-11.7784
▁revolutionary	-11.7789
▁scientifically	-11.7791
▁liar	-11.7794
▁protective	-11.7795
▁Sound	-11.7796
▁taxi	-11.7801
▁disturbing	-11.7812
▁Opera	-11.7814
you	-11.7817
▁practically	-11.782
osa	-11.7828
▁discussed	-11.783
Having	-11.7833
▁axe	-11.7835
pound	-11.7869
▁Ask	-11.7905
▁whip	-11.7922
Thank	-11.7927
held	-11.7927
giving	-11.7929
disc	-11.7931
minded	-11.7933
istan	-11.7952
▁confess	-11.7975
▁examine	-11.7977
imb	-11.7982
▁trait	-11.7997
▁folk	-11.7998
▁skeptic	-11.8
▁trail	-11.8
wall	-11.8006
▁differ	-11.8027
▁Alaska	-11.803
▁Kennedy	-11.803
▁Pennsylvania	-11.803
▁Suppose	-11.803
▁Thailand	-11.803
▁Tokyo	-11.803
▁authoritarian	-11.803
▁congestion	-11.803
▁embracing	-11.803
▁exquisite	-11.803
▁famine	-11.803
▁fractal	-11.803
▁integrity	-11.803
▁metabolism	-11.803
▁penalty	-11.803
▁sensitivity	-11.803
▁significance	-11.803
▁staggering	-11.803
▁surgical	-11.803
▁technician	-11.803
▁ultraviolet	-11.803
▁unfair	-11.803
▁Montana	-11.803
▁Sierra	-11.803
▁distress	-11.803
▁envision	-11.803
▁idiot	-11.803
▁improvisation	-11.803
▁Cyrus	-11.803
▁prohibit	-11.803
▁inspect	-11.803
▁conquer	-11.803
▁ancestr	-11.803
▁western	-11.803
▁feather	-11.803
▁Nepal	-11.803
▁scholarship	-11.803
▁acute	-11.803
▁tribal	-11.803
▁swap	-11.803
▁Monday	-11.8031
▁iceberg	-11.8031
▁shaking	-11.8031
▁firing	-11.8031
▁spear	-11.8031
▁rigid	-11.8032
▁connectome	-11.8033
▁Alice	-11.8033
▁manifestation	-11.8033
▁mandate	-11.8039
▁EM	-11.804
▁BJ	-11.8042
▁Milo	-11.8043
▁Dick	-11.8046
▁magician	-11.8047
▁exponentially	-11.8051
▁DR	-11.8051
▁mating	-11.8052
▁exit	-11.8052
▁lightning	-11.8053
▁RM	-11.8058
▁consideration	-11.8059
▁DP	-11.806
▁dip	-11.8061
▁acquired	-11.8069
▁Fat	-11.812
▁Ross	-11.8131
▁resemble	-11.8141
▁Nav	-11.8149
▁Lama	-11.8162
▁continu	-11.8179
million	-11.8183
▁Philip	-11.8195
olar	-11.8212
horn	-11.8223
virus	-11.8276
▁Pete	-11.8279
▁statistical	-11.8282
eanwhile	-11.8286
▁nonviolen	-11.8286
responsibilities	-11.8286
▁Georgia	-11.8286
▁Jefferson	-11.8286
▁RNA	-11.8286
▁Tunisia	-11.8286
▁altogether	-11.8286
▁avatar	-11.8286
▁catastrophe	-11.8286
▁chemotherapy	-11.8286
▁cholera	-11.8286
▁cooperative	-11.8286
▁genomic	-11.8286
▁ghost	-11.8286
▁longevity	-11.8286
▁metabolic	-11.8286
▁mixture	-11.8286
▁observing	-11.8286
▁participating	-11.8286
▁prosecutor	-11.8286
▁regulator	-11.8286
▁slogan	-11.8286
▁steady	-11.8286
▁turtle	-11.8286
▁violin	-11.8286
▁vitamin	-11.8286
▁vocabulary	-11.8286
▁Machine	-11.8286
▁captain	-11.8286
▁deciding	-11.8286
▁dismiss	-11.8286
▁invasion	-11.8286
▁ladder	-11.8286
▁portray	-11.8286
▁thrust	-11.8286
▁Therefore	-11.8286
▁copied	-11.8286
▁escalat	-11.8286
▁funeral	-11.8286
▁mustache	-11.8286
▁Bosnia	-11.8286
▁encyclopedia	-11.8286
▁fuck	-11.8286
▁tagged	-11.8286
▁cinema	-11.8286
▁wives	-11.8286
▁Hubble	-11.8287
▁applies	-11.8287
▁locomotion	-11.8287
▁priorities	-11.8287
▁Trans	-11.8287
▁prescribe	-11.8287
▁cellphone	-11.8288
▁logging	-11.8288
▁disruptive	-11.8288
▁internet	-11.8288
▁brake	-11.8288
▁Simon	-11.8289
▁digitize	-11.8289
▁empowerment	-11.8292
▁scarce	-11.8292
▁veil	-11.8292
▁devise	-11.8295
▁profitable	-11.8298
▁Phil	-11.83
▁governor	-11.8306
▁disappointed	-11.8308
genic	-11.8318
▁observer	-11.8319
▁accurately	-11.8325
▁Less	-11.8326
▁Post	-11.8326
▁Band	-11.8332
case	-11.8343
▁Abed	-11.8349
▁successes	-11.8352
▁Allen	-11.8363
xic	-11.8364
activat	-11.8386
kar	-11.8409
▁eco	-11.8432
▁heroin	-11.8434
school	-11.8445
cultural	-11.8446
child	-11.8447
high	-11.8461
▁Columbia	-11.8517
▁Bali	-11.8526
▁obstacle	-11.853
▁ancestor	-11.8531
Hi	-11.8535
▁circulat	-11.8546
▁dictator	-11.8549
communica	-11.8549
▁Tibet	-11.8549
▁Association	-11.8549
▁Phoenix	-11.8549
▁PowerPoint	-11.8549
▁ambulance	-11.8549
▁anthropologist	-11.8549
▁catastrophic	-11.8549
▁competitor	-11.8549
▁extensive	-11.8549
▁frequencies	-11.8549
▁gasoline	-11.8549
▁identities	-11.8549
▁imperative	-11.8549
▁inexpensive	-11.8549
▁memorial	-11.8549
▁nonetheless	-11.8549
▁nurture	-11.8549
▁obligation	-11.8549
▁obsolete	-11.8549
▁occupie	-11.8549
▁province	-11.8549
▁reproductive	-11.8549
▁revelation	-11.8549
▁silicon	-11.8549
▁slaughter	-11.8549
▁surviving	-11.8549
▁tangible	-11.8549
▁triumph	-11.8549
▁unleash	-11.8549
▁violate	-11.8549
▁Everest	-11.8549
▁curator	-11.8549
▁dysfunction	-11.8549
▁gaze	-11.8549
▁salmon	-11.8549
▁snail	-11.8549
▁composer	-11.8549
▁Somalia	-11.8549
▁polite	-11.8549
▁Power	-11.8549
▁squid	-11.8549
▁overseas	-11.8549
▁shining	-11.8549
▁conviction	-11.8549
▁liberate	-11.8549
enabling	-11.8549
▁noisy	-11.8549
▁Libya	-11.8549
▁humility	-11.8549
▁oven	-11.8549
▁Tower	-11.8549
▁Sudan	-11.8549
▁Kingdom	-11.855
▁Liberia	-11.855
centric	-11.855
▁diplomacy	-11.855
▁Norden	-11.855
▁singular	-11.855
▁ease	-11.8551
▁blueprint	-11.8551
▁assessment	-11.8552
▁admitted	-11.8553
▁Notice	-11.8554
▁planner	-11.8555
▁slam	-11.856
▁mapped	-11.8561
▁Peru	-11.8565
▁fog	-11.8566
▁Treat	-11.8566
▁Later	-11.8567
▁swamp	-11.8572
▁abstraction	-11.8575
Hmm	-11.8583
▁UK	-11.8587
▁symbolic	-11.8589
▁matches	-11.8591
▁Cold	-11.8608
▁touches	-11.8611
▁glu	-11.8617
ripped	-11.8617
var	-11.8633
section	-11.8635
▁kite	-11.8674
▁heroic	-11.868
stein	-11.8685
▁publisher	-11.8694
standing	-11.8703
conscious	-11.8713
walk	-11.8715
Africa	-11.8717
control	-11.872
write	-11.8722
post	-11.8753
▁combin	-11.8769
ither	-11.8771
▁characteristic	-11.8811
NG	-11.8813
etween	-11.8819
▁Buddha	-11.8819
▁Building	-11.8819
▁CRISPR	-11.8819
▁Cambodia	-11.8819
▁Consider	-11.8819
▁Fifty	-11.8819
▁Interestingly	-11.8819
▁Joshua	-11.8819
▁Linux	-11.8819
▁Nairobi	-11.8819
▁Similarly	-11.8819
▁Swedish	-11.8819
▁Thirty	-11.8819
▁Tuesday	-11.8819
▁absurd	-11.8819
▁abundant	-11.8819
▁angiogenesis	-11.8819
▁bacterium	-11.8819
▁beneficial	-11.8819
▁delicate	-11.8819
▁enthusiasm	-11.8819
▁friction	-11.8819
▁fuzzy	-11.8819
▁generator	-11.8819
▁gigantic	-11.8819
▁guerrilla	-11.8819
▁intimacy	-11.8819
▁intriguing	-11.8819
▁kindergarten	-11.8819
▁libraries	-11.8819
▁neglect	-11.8819
▁northeast	-11.8819
▁nuclei	-11.8819
▁numerous	-11.8819
▁occupation	-11.8819
▁petition	-11.8819
▁reclaim	-11.8819
▁relativity	-11.8819
▁reproduction	-11.8819
▁slept	-11.8819
▁diminish	-11.8819
▁perpetrat	-11.8819
▁honeybee	-11.8819
sourcing	-11.8819
▁Canyon	-11.8819
▁blessed	-11.8819
▁cease	-11.882
▁bulk	-11.882
▁unseen	-11.882
▁accuse	-11.882
▁referred	-11.882
▁cement	-11.882
▁enrich	-11.882
▁basket	-11.882
▁rehabilitation	-11.882
▁desktop	-11.8821
▁viable	-11.8821
▁vanish	-11.8821
▁crank	-11.8822
▁replacing	-11.8822
▁manipulation	-11.8824
▁merit	-11.8825
▁Beau	-11.8826
▁utility	-11.8826
▁delete	-11.8827
▁voters	-11.8829
▁fame	-11.8829
▁sexuality	-11.8831
▁sadness	-11.8833
▁Book	-11.8835
▁erase	-11.8835
▁zip	-11.8836
▁rays	-11.8839
▁Fish	-11.884
▁biases	-11.8841
▁Jean	-11.8844
▁Party	-11.8845
▁reache	-11.8849
▁eighth	-11.8858
▁Boo	-11.8858
▁vest	-11.8865
▁cartoonist	-11.8866
▁correlate	-11.8872
blowing	-11.8873
▁receiver	-11.8886
▁Maria	-11.8887
▁gig	-11.8894
oriented	-11.8903
▁Gius	-11.8906
▁intend	-11.8916
cellular	-11.8994
controlled	-11.8995
shift	-11.8995
zen	-11.8998
▁compil	-11.9024
note	-11.905
uite	-11.9057
▁Univers	-11.9095
▁orphan	-11.9096
▁conserv	-11.9097
▁Caribbean	-11.9097
▁Clearly	-11.9097
▁Defense	-11.9097
▁Empire	-11.9097
▁Michigan	-11.9097
▁Namibia	-11.9097
▁Stewart	-11.9097
▁Sylvia	-11.9097
▁Venus	-11.9097
▁autonomy	-11.9097
▁calculator	-11.9097
▁calendar	-11.9097
▁controversy	-11.9097
▁convincing	-11.9097
▁curtain	-11.9097
▁dictionaries	-11.9097
▁embarrassed	-11.9097
▁hamburger	-11.9097
▁iPad	-11.9097
▁ingenuity	-11.9097
▁liberty	-11.9097
▁maintenance	-11.9097
▁marijuana	-11.9097
▁pharma	-11.9097
▁pricing	-11.9097
▁reflex	-11.9097
▁shepherd	-11.9097
▁sulfide	-11.9097
▁symmetries	-11.9097
▁widespread	-11.9097
▁displaced	-11.9097
▁essay	-11.9097
▁committee	-11.9097
▁Movement	-11.9097
▁glove	-11.9097
▁hammer	-11.9097
▁symmetrical	-11.9097
▁resort	-11.9097
▁humankind	-11.9097
▁goodbye	-11.9097
▁mature	-11.9097
▁autistic	-11.9097
▁flexibility	-11.9097
▁dispute	-11.9097
▁ashamed	-11.9098
▁causal	-11.9098
▁Garden	-11.9098
▁greed	-11.9099
▁Larry	-11.9099
▁appreciation	-11.9099
▁Step	-11.9099
▁Lyn	-11.91
▁urgent	-11.91
▁textile	-11.9101
▁Robot	-11.9102
▁seawater	-11.9102
▁urbanization	-11.9102
▁baseline	-11.9103
▁Fire	-11.9103
▁pillar	-11.9105
▁bay	-11.9105
▁problematic	-11.9105
▁fungi	-11.9105
▁spontaneously	-11.9107
▁Beach	-11.911
▁injection	-11.9113
▁repeatedly	-11.9114
▁Rover	-11.9114
▁tightly	-11.912
▁accountable	-11.9123
▁Heart	-11.9127
▁skeptical	-11.9131
▁Fred	-11.9146
▁dorm	-11.9165
▁Clar	-11.9166
▁Iraqi	-11.9179
eign	-11.9199
▁rub	-11.9234
Cola	-11.9248
sensitive	-11.928
screen	-11.928
script	-11.928
▁optic	-11.9284
▁overlook	-11.9288
wire	-11.9297
threatening	-11.9304
▁disappoint	-11.9358
▁stigma	-11.9378
cientific	-11.938
▁psychiatri	-11.9381
imbabwe	-11.9383
▁Buddhist	-11.9383
▁CMU	-11.9383
▁Carnegie	-11.9383
▁Climate	-11.9383
▁Colombia	-11.9383
▁Environment	-11.9383
▁Himalaya	-11.9383
▁Kepler	-11.9383
▁chaotic	-11.9383
▁disadvantage	-11.9383
▁dissolve	-11.9383
▁eBay	-11.9383
▁enthusiast	-11.9383
▁frustrating	-11.9383
▁impressed	-11.9383
▁infrared	-11.9383
▁manuscript	-11.9383
▁pervasive	-11.9383
▁physiology	-11.9383
▁plankton	-11.9383
▁powder	-11.9383
▁prevalence	-11.9383
▁pursuing	-11.9383
▁quantities	-11.9383
▁rectangle	-11.9383
▁sediment	-11.9383
▁thorough	-11.9383
▁thylacine	-11.9383
▁affirm	-11.9383
▁destructive	-11.9383
▁fierce	-11.9383
▁fishermen	-11.9383
▁supernova	-11.9383
▁abnormal	-11.9383
▁anxious	-11.9383
▁marrow	-11.9383
▁salary	-11.9383
▁Dallas	-11.9383
▁memorize	-11.9383
▁Small	-11.9383
▁geometric	-11.9383
▁Lagos	-11.9383
▁Tesla	-11.9383
Wonder	-11.9383
▁hatred	-11.9383
▁Large	-11.9383
▁tilt	-11.9383
▁disabilities	-11.9383
▁lump	-11.9384
▁Country	-11.9384
▁blogger	-11.9385
▁insult	-11.9385
▁Unlike	-11.9385
▁Common	-11.9385
▁accomplishment	-11.9386
▁legend	-11.9386
▁dragon	-11.9387
▁NGO	-11.9388
▁sneakers	-11.9388
▁visitors	-11.9389
▁flush	-11.9391
▁Native	-11.9391
▁deliberately	-11.9391
▁lend	-11.9393
▁Data	-11.9393
▁loo	-11.9405
▁MO	-11.9408
▁supportive	-11.941
▁manipulat	-11.9429
▁evaluate	-11.9445
▁clap	-11.9463
MG	-11.9522
social	-11.9575
glass	-11.9577
One	-11.9602
▁inherent	-11.9664
most	-11.9665
▁semina	-11.9665
plex	-11.9672
clusion	-11.9676
▁censor	-11.9677
▁casual	-11.9677
▁Norwegian	-11.9677
▁OECD	-11.9677
▁Portugal	-11.9677
▁Usually	-11.9677
▁Venezuela	-11.9677
▁anatomy	-11.9677
▁applause	-11.9677
▁cabinet	-11.9677
▁cathedral	-11.9677
▁embodied	-11.9677
▁fireflies	-11.9677
▁gadget	-11.9677
▁generosity	-11.9677
▁grassroots	-11.9677
▁intrigue	-11.9677
▁janitor	-11.9677
▁leopard	-11.9677
▁microscopic	-11.9677
▁monarch	-11.9677
▁mycelium	-11.9677
▁opponent	-11.9677
▁patience	-11.9677
▁peanut	-11.9677
▁romance	-11.9677
▁submarine	-11.9677
▁timber	-11.9677
▁Princeton	-11.9677
▁Yellow	-11.9677
▁defect	-11.9677
▁grammar	-11.9677
▁hypo	-11.9677
▁indication	-11.9677
▁uncover	-11.9677
▁yeast	-11.9677
▁prioritize	-11.9677
▁ALS	-11.9677
▁Food	-11.9677
▁rival	-11.9677
▁bypass	-11.9677
▁posture	-11.9677
▁gait	-11.9677
induced	-11.9678
▁carrot	-11.9678
▁shove	-11.9678
▁banned	-11.9678
▁valve	-11.9678
▁citizenship	-11.9678
▁bionic	-11.9678
▁entrepreneurial	-11.9678
▁flex	-11.9679
▁hallway	-11.968
▁Golden	-11.968
▁Warren	-11.9682
▁acceptance	-11.9682
▁noticing	-11.9683
▁newborn	-11.9685
▁reflective	-11.9685
▁personalities	-11.9687
▁symptom	-11.9692
▁statistically	-11.9694
▁Hold	-11.9694
▁Paulo	-11.9696
▁sang	-11.9697
▁Line	-11.9709
radiat	-11.9712
▁lips	-11.9713
▁Ow	-11.9717
▁Grow	-11.9726
borne	-11.9734
mming	-11.9738
▁strengthen	-11.9815
piece	-11.9877
Good	-11.9877
Would	-11.9877
structure	-11.9877
Star	-11.9882
Come	-11.9888
friendly	-11.9889
turn	-11.9901
born	-11.9914
▁remov	-11.9926
traumatic	-11.9944
▁recycle	-11.9955
▁expose	-11.9956
▁societ	-11.9969
▁embryo	-11.998
▁Connecticut	-11.998
▁Jamaica	-11.998
▁Kansas	-11.998
▁Kiribati	-11.998
▁Oklahoma	-11.998
▁Orleans	-11.998
▁Pittsburgh	-11.998
▁Roosevelt	-11.998
▁Secretary	-11.998
▁adolescence	-11.998
▁aluminum	-11.998
▁appliance	-11.998
▁arbitrary	-11.998
▁biosphere	-11.998
▁calculating	-11.998
▁celebrating	-11.998
▁easiest	-11.998
▁elbow	-11.998
▁equilibrium	-11.998
▁galleries	-11.998
▁hobby	-11.998
▁indirect	-11.998
▁injustice	-11.998
▁internship	-11.998
▁lesbian	-11.998
▁mammoth	-11.998
▁nevertheless	-11.998
▁penetrate	-11.998
▁playground	-11.998
▁pregnancy	-11.998
▁propaganda	-11.998
▁quantity	-11.998
▁rhino	-11.998
▁spaghetti	-11.998
▁specimen	-11.998
▁subsequent	-11.998
▁victory	-11.998
▁voyage	-11.998
▁sentiment	-11.998
▁deplet	-11.998
▁scope	-11.998
▁shaping	-11.998
▁degraded	-11.998
▁doubling	-11.998
▁shelves	-11.998
▁Royal	-11.998
▁distill	-11.998
▁warfare	-11.998
▁chord	-11.998
▁Siberia	-11.998
▁erupt	-11.998
▁resonate	-11.998
▁transferred	-11.9981
▁modify	-11.9981
Keith	-11.9981
▁carrier	-11.9981
▁electromagnetic	-11.9981
hhh	-11.9981
▁dwell	-11.9981
▁billboard	-11.9981
▁gym	-11.9981
▁recreate	-11.9982
▁terminal	-11.9982
▁missile	-11.9982
▁Prime	-11.9982
▁polymer	-11.9982
▁Nazi	-11.9982
▁Brit	-11.9983
▁Danny	-11.9983
▁passport	-11.9983
▁flick	-11.9984
▁breakdown	-11.9984
▁Word	-11.9984
▁criticism	-11.9984
▁Johnny	-11.9985
▁thermo	-11.9986
▁puff	-11.9988
▁Often	-11.9988
▁Tele	-11.9989
▁Coca	-11.9989
▁weakness	-11.9991
▁colorful	-11.9995
▁fuse	-12
▁dragge	-12.0001
▁illnesses	-12.0003
▁deny	-12.0007
▁conception	-12.0031
▁incorporate	-12.015
▁overlap	-12.0154
▁Sub	-12.0159
axis	-12.0171
design	-12.0186
▁geographic	-12.0186
correct	-12.019
culture	-12.019
Every	-12.019
atomic	-12.019
▁releas	-12.0227
▁Side	-12.0253
▁oppos	-12.0268
▁numb	-12.028
▁chick	-12.0287
▁encrypt	-12.029
▁compass	-12.029
▁monk	-12.0292
▁bask	-12.0293
▁Chuck	-12.0293
▁Denmark	-12.0293
▁Galapagos	-12.0293
▁Kosovo	-12.0293
▁Recently	-12.0293
▁Service	-12.0293
▁Snowden	-12.0293
▁Taiwan	-12.0293
▁accompanie	-12.0293
▁adequate	-12.0293
▁benign	-12.0293
▁broccoli	-12.0293
▁comprehensive	-12.0293
▁confusion	-12.0293
▁eradication	-12.0293
▁evaporate	-12.0293
▁executed	-12.0293
▁existential	-12.0293
▁genital	-12.0293
▁helmet	-12.0293
▁horrific	-12.0293
▁introducing	-12.0293
▁mundane	-12.0293
▁niece	-12.0293
▁nonsense	-12.0293
▁nucleus	-12.0293
▁oyster	-12.0293
▁promising	-12.0293
▁satisfied	-12.0293
▁syringe	-12.0293
▁technologist	-12.0293
▁unemployment	-12.0293
▁velocity	-12.0293
▁visceral	-12.0293
▁Cultur	-12.0293
▁Diego	-12.0293
▁companion	-12.0293
▁rainfall	-12.0293
▁modified	-12.0293
▁SMS	-12.0293
▁harass	-12.0293
▁buzz	-12.0293
▁choir	-12.0293
▁parameters	-12.0293
▁wreck	-12.0293
▁imitate	-12.0293
▁backpack	-12.0293
▁shuttle	-12.0293
esteem	-12.0293
▁coincidence	-12.0293
▁Nathan	-12.0293
▁motorcycle	-12.0293
▁masterpiece	-12.0293
▁ramp	-12.0293
▁battlefield	-12.0293
▁crust	-12.0293
▁conscience	-12.0293
▁Jobs	-12.0293
▁entity	-12.0293
▁marvelous	-12.0293
partisan	-12.0294
▁Invest	-12.0294
▁skate	-12.0294
▁duration	-12.0294
▁submitted	-12.0294
▁Auto	-12.0295
▁Alright	-12.0296
▁Roger	-12.0296
▁shade	-12.0296
▁distinctive	-12.0296
▁courageous	-12.0296
▁Tasmanian	-12.0296
▁blanket	-12.0296
▁circulation	-12.0297
stepping	-12.0297
▁Down	-12.0298
▁copper	-12.0299
▁Leone	-12.03
▁adaptive	-12.03
▁explicitly	-12.0302
▁Slow	-12.0306
▁reasonably	-12.0308
▁meaningless	-12.0309
▁distraction	-12.0309
▁acceptable	-12.031
▁Mola	-12.0313
▁antibiotic	-12.0327
▁reuse	-12.0332
▁buck	-12.0382
▁incremental	-12.0449
▁flap	-12.045
link	-12.0496
friend	-12.0498
▁dye	-12.0508
government	-12.0512
security	-12.0512
credit	-12.0513
▁elect	-12.0578
▁apparent	-12.0602
▁possess	-12.0603
▁Fast	-12.0606
▁Angel	-12.0613
▁Francis	-12.0614
▁straw	-12.0615
▁equator	-12.0615
▁Amsterdam	-12.0615
▁Arizona	-12.0615
▁Commission	-12.0615
▁Edinburgh	-12.0615
▁Hindu	-12.0615
▁LGBT	-12.0615
▁Michelangelo	-12.0615
▁Muhammad	-12.0615
▁Parliament	-12.0615
▁abortion	-12.0615
▁activism	-12.0615
▁altruism	-12.0615
▁approval	-12.0615
▁athletic	-12.0615
▁calcium	-12.0615
▁commodities	-12.0615
▁commute	-12.0615
▁cybercriminal	-12.0615
▁hypotheses	-12.0615
▁intangible	-12.0615
▁maximize	-12.0615
▁migraine	-12.0615
▁mortgage	-12.0615
▁octopus	-12.0615
▁paralysis	-12.0615
▁pediatric	-12.0615
▁prejudice	-12.0615
▁puberty	-12.0615
▁quantitative	-12.0615
▁recipient	-12.0615
▁resonance	-12.0615
▁seafood	-12.0615
▁stratosphere	-12.0615
▁suburban	-12.0615
▁superhero	-12.0615
▁throat	-12.0615
▁vegetation	-12.0615
Welcome	-12.0615
▁prevail	-12.0615
▁superior	-12.0615
▁Information	-12.0615
▁Julie	-12.0615
▁Death	-12.0615
▁radar	-12.0615
▁geological	-12.0615
▁Leader	-12.0615
▁dentist	-12.0615
▁halve	-12.0615
▁jury	-12.0615
▁tennis	-12.0615
▁bombsight	-12.0615
▁Freedom	-12.0615
▁grape	-12.0615
▁compact	-12.0616
▁permit	-12.0616
▁prophet	-12.0616
▁hallucinations	-12.0616
▁Radio	-12.0616
▁midnight	-12.0616
▁nitr	-12.0616
▁drip	-12.0616
▁scroll	-12.0616
▁keen	-12.0616
▁Find	-12.0616
▁catalog	-12.0617
▁temptation	-12.0618
▁deployment	-12.0618
▁Norman	-12.0619
▁presidential	-12.062
▁undermine	-12.062
▁dependence	-12.0621
▁Tech	-12.0622
▁Justice	-12.0622
▁Lady	-12.0622
▁shipped	-12.0622
▁Jill	-12.0627
▁Susan	-12.0631
▁Land	-12.0638
Forget	-12.0642
▁promotion	-12.0648
bran	-12.0669
▁justify	-12.0696
▁geographical	-12.0726
▁hatch	-12.075
onomic	-12.0763
▁Rica	-12.0766
▁grim	-12.0797
lethal	-12.0845
performing	-12.0845
wheel	-12.0846
positive	-12.0846
specific	-12.0846
metric	-12.0859
▁cultivate	-12.0919
▁complicat	-12.0924
▁guilt	-12.0938
▁stole	-12.0943
▁enforce	-12.0946
▁Virgin	-12.0947
▁Arduino	-12.0948
▁Babylon	-12.0948
▁Bangalore	-12.0948
▁Company	-12.0948
▁Lewis	-12.0948
▁Luckily	-12.0948
▁Natasha	-12.0948
▁Skype	-12.0948
▁Sydney	-12.0948
▁Teszler	-12.0948
▁Victorian	-12.0948
▁anesthesia	-12.0948
▁auditorium	-12.0948
▁delusion	-12.0948
▁fingertips	-12.0948
▁gratitude	-12.0948
▁hectare	-12.0948
▁intricate	-12.0948
▁irrelevant	-12.0948
▁jacket	-12.0948
▁loneliness	-12.0948
▁obscure	-12.0948
▁optimal	-12.0948
▁pathogens	-12.0948
▁praise	-12.0948
▁shield	-12.0948
▁submersible	-12.0948
▁surplus	-12.0948
▁treasure	-12.0948
▁turbine	-12.0948
▁unacceptable	-12.0948
▁unintended	-12.0948
▁violation	-12.0948
▁wavelength	-12.0948
▁wolves	-12.0948
▁wrestle	-12.0948
▁attorney	-12.0948
▁chalk	-12.0948
▁choreograph	-12.0948
▁crocodile	-12.0948
▁declining	-12.0948
▁imperfect	-12.0948
▁offshore	-12.0948
▁rhetoric	-12.0948
▁royal	-12.0948
▁summary	-12.0949
▁Desert	-12.0949
▁collide	-12.0949
▁orgasm	-12.0949
▁depressing	-12.0949
▁regain	-12.0949
▁obey	-12.0949
▁Guinea	-12.0949
▁minimize	-12.0949
▁Emily	-12.0949
▁recurr	-12.0949
▁verge	-12.0949
Excuse	-12.0949
▁alliance	-12.0949
▁inviting	-12.0949
▁censorship	-12.0949
▁versa	-12.0949
▁jewelry	-12.095
▁multiverse	-12.095
▁orphanage	-12.095
▁coding	-12.0951
▁shallow	-12.0951
▁Nicole	-12.0951
▁grassland	-12.0952
▁Costa	-12.0952
▁Democratic	-12.0954
▁Solar	-12.0955
▁wax	-12.0955
▁comparable	-12.0956
▁Report	-12.0957
▁Yale	-12.0957
▁dude	-12.096
▁possession	-12.0961
tolerant	-12.0962
▁wallet	-12.0964
▁stir	-12.0968
▁rage	-12.0974
▁conceive	-12.0982
▁corporation	-12.1004
▁hollow	-12.1009
▁neurological	-12.1011
▁characterize	-12.1089
▁Carol	-12.1154
public	-12.1189
resistant	-12.119
funded	-12.119
resolution	-12.119
pool	-12.1192
▁Austria	-12.1199
▁literal	-12.1281
▁volcan	-12.1286
▁outrage	-12.1293
▁Copernic	-12.1293
▁Alabama	-12.1293
▁Economic	-12.1293
▁Exactly	-12.1293
▁Katrina	-12.1293
▁LHC	-12.1293
▁Massachusetts	-12.1293
▁UCLA	-12.1293
▁Ultimately	-12.1293
▁accommodate	-12.1293
▁annoying	-12.1293
▁cartilage	-12.1293
▁certificate	-12.1293
▁compliment	-12.1293
▁draft	-12.1293
▁dragonflies	-12.1293
▁entitled	-12.1293
▁ethanol	-12.1293
▁exclude	-12.1293
▁frightened	-12.1293
▁glorious	-12.1293
▁glory	-12.1293
▁grief	-12.1293
▁guidance	-12.1293
▁happiest	-12.1293
▁hypothetical	-12.1293
▁imaginary	-12.1293
▁limestone	-12.1293
▁monsoon	-12.1293
▁railroad	-12.1293
▁rediscover	-12.1293
▁replied	-12.1293
▁savanna	-12.1293
▁secular	-12.1293
▁sulfur	-12.1293
▁surrender	-12.1293
▁tuberculosis	-12.1293
▁unemployed	-12.1293
▁venue	-12.1293
▁wetsuit	-12.1293
▁Alpha	-12.1293
▁Finland	-12.1293
▁beloved	-12.1293
▁debris	-12.1293
▁impaired	-12.1293
▁vector	-12.1293
▁Cairo	-12.1293
▁ideological	-12.1293
▁Jerry	-12.1293
▁pepper	-12.1293
▁unstable	-12.1293
▁provision	-12.1293
▁Doaa	-12.1293
▁meditation	-12.1293
▁denied	-12.1293
▁lamb	-12.1293
▁divine	-12.1293
▁hind	-12.1293
▁snapshot	-12.1293
▁crater	-12.1294
▁haunt	-12.1294
▁supercomputer	-12.1294
▁reply	-12.1294
▁Help	-12.1294
▁chap	-12.1294
▁knot	-12.1294
▁railway	-12.1294
▁matern	-12.1294
▁chill	-12.1294
▁Though	-12.1295
▁restrictions	-12.1295
▁Point	-12.1295
▁standpoint	-12.1295
▁scanned	-12.1295
▁Nico	-12.1295
▁consultant	-12.1296
▁mythology	-12.1296
▁biotech	-12.1296
▁Ooh	-12.1296
▁pollute	-12.1296
▁stiff	-12.1296
▁emergent	-12.1298
▁exploitation	-12.1302
▁disruption	-12.1302
▁similarities	-12.1304
▁mash	-12.1333
▁Brea	-12.1362
▁employee	-12.1364
entrepreneurship	-12.1389
▁seize	-12.139
▁Astro	-12.1391
▁revolutionize	-12.1414
▁joyful	-12.145
lude	-12.1457
▁epic	-12.1481
aunch	-12.1504
▁fisc	-12.1507
▁migrat	-12.1522
storing	-12.1533
organism	-12.1547
group	-12.1548
writing	-12.1548
growing	-12.1548
Because	-12.1548
great	-12.1548
carbon	-12.1548
market	-12.1553
mother	-12.1553
▁Julian	-12.1595
▁hung	-12.1637
placing	-12.1648
▁jewel	-12.1649
ompanies	-12.1649
▁refrigera	-12.165
regulating	-12.165
▁Babbage	-12.165
▁Baltimore	-12.165
▁Believe	-12.165
▁Certainly	-12.165
▁Especially	-12.165
▁Language	-12.165
▁Mediterranean	-12.165
▁Vegas	-12.165
▁Whitopia	-12.165
▁acceleration	-12.165
▁algebra	-12.165
▁analytical	-12.165
▁arriving	-12.165
▁bandwidth	-12.165
▁burial	-12.165
▁census	-12.165
▁contagious	-12.165
▁excellence	-12.165
▁graffiti	-12.165
▁hurdle	-12.165
▁implicit	-12.165
▁improbable	-12.165
▁incarceration	-12.165
▁incomplete	-12.165
▁larvae	-12.165
▁malnutrition	-12.165
▁millisecond	-12.165
▁nectar	-12.165
▁negotiating	-12.165
▁ozone	-12.165
▁pivot	-12.165
▁policing	-12.165
▁pristine	-12.165
▁psyche	-12.165
▁relevance	-12.165
▁remittance	-12.165
▁responsive	-12.165
▁simulator	-12.165
▁solemn	-12.165
▁symphony	-12.165
▁synthesis	-12.165
▁thriving	-12.165
▁tropics	-12.165
▁unequal	-12.165
▁vapor	-12.165
▁worthwhile	-12.165
phobic	-12.165
▁abusive	-12.165
▁Wilson	-12.165
▁Change	-12.165
▁lawsuit	-12.165
▁bloom	-12.165
colonial	-12.1651
▁eager	-12.1651
▁queue	-12.1651
▁erotic	-12.1651
▁recreation	-12.1651
▁sought	-12.1651
▁Cross	-12.1651
▁nanotechnology	-12.1651
▁spawn	-12.1651
▁Kelly	-12.1651
▁aquatic	-12.1651
▁instability	-12.1651
▁portable	-12.1651
▁cried	-12.1651
▁Index	-12.1651
▁Scottish	-12.1652
▁continually	-12.1652
▁continuum	-12.1652
▁Franklin	-12.1652
▁Somehow	-12.1653
▁rooftop	-12.1653
▁Wild	-12.1653
▁methodology	-12.1653
▁incidentally	-12.1653
▁rotating	-12.1653
▁bunk	-12.1653
▁encryption	-12.1654
odd	-12.1654
▁innate	-12.1654
unshine	-12.1655
▁Pink	-12.1658
▁misuse	-12.1658
▁digits	-12.1658
▁Master	-12.1658
▁boson	-12.1659
▁Darwinian	-12.166
▁stall	-12.1661
▁bombard	-12.1662
▁Full	-12.1662
▁reconnect	-12.1684
nanometer	-12.1712
▁cardio	-12.1739
varian	-12.1768
derived	-12.1804
▁originate	-12.1837
Barack	-12.1839
spiring	-12.189
conflict	-12.1918
appropriate	-12.1918
Great	-12.1918
solving	-12.1918
with	-12.1919
color	-12.192
cycle	-12.1921
value	-12.1928
▁Cru	-12.1987
▁excite	-12.1991
▁dominate	-12.1993
▁inflate	-12.2002
▁spontaneous	-12.2008
▁mortal	-12.2019
ploy	-12.2019
▁Euro	-12.202
▁advent	-12.202
▁erect	-12.2021
▁altruist	-12.2021
▁Already	-12.2021
▁Beethoven	-12.2021
▁Bruce	-12.2021
▁DARPA	-12.2021
▁Kyoto	-12.2021
▁Ministry	-12.2021
▁Palestine	-12.2021
▁Renaissance	-12.2021
▁SARS	-12.2021
▁Sputnik	-12.2021
▁Ushahidi	-12.2021
▁Venice	-12.2021
▁adjacent	-12.2021
▁ambassador	-12.2021
▁anecdote	-12.2021
▁astronomical	-12.2021
▁cerebral	-12.2021
▁charities	-12.2021
▁condemn	-12.2021
▁embark	-12.2021
▁faculty	-12.2021
▁fracture	-12.2021
▁fundraising	-12.2021
▁investigating	-12.2021
▁laundry	-12.2021
▁mutant	-12.2021
▁nurturing	-12.2021
▁perceptual	-12.2021
▁prototyping	-12.2021
▁provoke	-12.2021
▁puncture	-12.2021
▁repertoire	-12.2021
▁servant	-12.2021
▁supplement	-12.2021
▁synchronize	-12.2021
▁unpredictable	-12.2021
▁varieties	-12.2021
▁vicious	-12.2021
▁Patient	-12.2021
▁Perfect	-12.2021
▁capsule	-12.2021
▁dictate	-12.2021
▁estrogen	-12.2021
▁hurricane	-12.2021
▁racism	-12.2021
▁Network	-12.2021
▁mysteries	-12.2021
▁swear	-12.2021
▁tinker	-12.2021
▁lazy	-12.2021
▁Cooper	-12.2021
▁cheek	-12.2021
▁meadow	-12.2021
▁unaware	-12.2021
▁EDI	-12.2021
▁wool	-12.2021
▁neurogenesis	-12.2021
▁underpin	-12.2021
▁forehead	-12.2021
▁meanwhile	-12.2021
▁Scotland	-12.2021
▁preferred	-12.2021
▁Speak	-12.2021
▁urine	-12.2021
▁packaging	-12.2022
▁petals	-12.2022
▁Students	-12.2022
▁decode	-12.2023
▁Irish	-12.2023
▁misery	-12.2023
▁raft	-12.2023
▁arose	-12.2024
▁Fox	-12.2025
▁attachment	-12.2025
▁constructive	-12.2026
▁dining	-12.2027
▁iteration	-12.2027
▁slot	-12.2044
▁feat	-12.2058
▁Julia	-12.2079
▁quiz	-12.209
enberg	-12.2114
▁linguistic	-12.2118
dragging	-12.213
quarters	-12.2188
▁tempt	-12.2257
educated	-12.2302
keeping	-12.2303
energy	-12.2303
typical	-12.2303
learn	-12.2305
proving	-12.2322
▁demonstrat	-12.2335
▁interconnect	-12.238
▁uncertain	-12.2404
symmetric	-12.2405
counterintuitive	-12.2405
disciplinary	-12.2405
▁Amazing	-12.2405
▁Depression	-12.2405
▁Engine	-12.2405
▁Guatemala	-12.2405
▁Jazeera	-12.2405
▁Learning	-12.2405
▁Margaret	-12.2405
▁Pantheon	-12.2405
▁Pixar	-12.2405
▁Toronto	-12.2405
▁Virtual	-12.2405
▁administrator	-12.2405
▁agnostic	-12.2405
▁antidepressant	-12.2405
▁cognition	-12.2405
▁convenience	-12.2405
▁empirical	-12.2405
▁facilitate	-12.2405
▁foreground	-12.2405
▁insecure	-12.2405
▁integrating	-12.2405
▁lightweight	-12.2405
▁livelihood	-12.2405
▁nickname	-12.2405
▁nuance	-12.2405
▁orangutan	-12.2405
▁pancreatic	-12.2405
▁paragraph	-12.2405
▁physiological	-12.2405
▁pronounce	-12.2405
▁radius	-12.2405
▁rainbow	-12.2405
▁reconcile	-12.2405
▁retrofit	-12.2405
▁rigorous	-12.2405
▁scuba	-12.2405
▁simplistic	-12.2405
▁substitute	-12.2405
▁suspicious	-12.2405
▁template	-12.2405
▁testosterone	-12.2405
▁vibrating	-12.2405
▁worries	-12.2405
▁BMW	-12.2405
▁Lawrence	-12.2405
▁Ninety	-12.2405
▁Samuel	-12.2405
▁communal	-12.2405
▁disseminat	-12.2405
▁homosexual	-12.2405
▁latitude	-12.2405
▁municipal	-12.2405
▁solitary	-12.2405
▁Agency	-12.2405
▁Group	-12.2405
▁Marshall	-12.2405
▁Modern	-12.2405
▁Spider	-12.2405
▁automated	-12.2405
▁checklist	-12.2405
▁racist	-12.2405
▁twenty	-12.2405
▁booth	-12.2405
▁landfill	-12.2405
▁bluefin	-12.2405
▁worn	-12.2405
▁Several	-12.2405
▁uplift	-12.2405
▁Glass	-12.2406
▁melody	-12.2406
▁mutate	-12.2406
▁metropolitan	-12.2406
▁peek	-12.2406
▁crises	-12.2406
▁gossip	-12.2406
▁Model	-12.2406
vocation	-12.2406
▁personnel	-12.2406
▁teddy	-12.2406
▁Emma	-12.2406
▁bury	-12.2406
▁Better	-12.2406
Happy	-12.2406
▁disperse	-12.2406
▁interfere	-12.2406
▁Otherwise	-12.2406
▁biotechnology	-12.2406
▁League	-12.2406
alactic	-12.2406
▁rubble	-12.2406
▁boyfriend	-12.2406
▁pension	-12.2406
▁cult	-12.2406
▁ignorant	-12.2407
▁pearl	-12.2407
▁aviation	-12.2407
▁Deep	-12.2407
▁nomad	-12.2407
▁MoMA	-12.2407
▁polish	-12.2407
▁erectus	-12.2407
▁announcement	-12.2408
▁Program	-12.2408
▁nun	-12.2408
▁bass	-12.2408
▁viewpoint	-12.2409
▁chemo	-12.2409
▁clash	-12.241
▁moderate	-12.2422
▁tolerate	-12.2423
chlor	-12.2428
▁Merc	-12.2465
surfing	-12.2484
fashioned	-12.2524
Psycho	-12.2539
▁Mov	-12.2553
▁humbl	-12.2593
trained	-12.2603
biotic	-12.2671
white	-12.2703
model	-12.2703
good	-12.2704
burn	-12.2704
green	-12.2707
▁announce	-12.2775
▁frequent	-12.2793
▁utilit	-12.2795
▁marvel	-12.2804
illennium	-12.2805
retroviral	-12.2805
▁Avenue	-12.2805
▁Darfur	-12.2805
▁Democracy	-12.2805
▁Hopefully	-12.2805
▁Incredible	-12.2805
▁Oregon	-12.2805
▁RISD	-12.2805
▁Simple	-12.2805
▁Taylor	-12.2805
▁Wolfram	-12.2805
▁ambiguity	-12.2805
▁catalyst	-12.2805
▁confusing	-12.2805
▁congress	-12.2805
▁devastated	-12.2805
▁educating	-12.2805
▁evident	-12.2805
▁excerpt	-12.2805
▁hippocampus	-12.2805
▁holistic	-12.2805
▁illiterate	-12.2805
▁inadequate	-12.2805
▁irrigation	-12.2805
▁liberation	-12.2805
▁mammogram	-12.2805
▁paradise	-12.2805
▁pneumonia	-12.2805
▁preservation	-12.2805
▁respiratory	-12.2805
▁seizure	-12.2805
▁sensible	-12.2805
▁unfinished	-12.2805
hypertension	-12.2805
▁Differen	-12.2805
▁Dylan	-12.2805
▁Murray	-12.2805
▁Pepsi	-12.2805
▁gecko	-12.2805
▁introvert	-12.2805
▁lymph	-12.2805
▁miraculous	-12.2805
▁pessimist	-12.2805
▁vibrate	-12.2805
▁Village	-12.2805
▁erosion	-12.2805
▁literary	-12.2805
▁offensive	-12.2805
▁resign	-12.2805
▁retrospect	-12.2805
▁scalable	-12.2805
▁sociologist	-12.2805
▁undercover	-12.2805
▁Grace	-12.2805
▁jeans	-12.2805
▁tuck	-12.2805
▁Type	-12.2806
▁unsustainable	-12.2806
▁ruling	-12.2806
▁behaving	-12.2806
▁Freud	-12.2806
▁strive	-12.2806
▁unveil	-12.2806
▁Algeria	-12.2806
▁Sadly	-12.2806
▁Neither	-12.2806
▁plunge	-12.2806
▁discourse	-12.2806
▁variant	-12.2806
▁speculate	-12.2806
▁thunder	-12.2807
▁outrageous	-12.2807
▁adulthood	-12.2807
▁Among	-12.2807
▁superstar	-12.2807
▁preschool	-12.2807
▁aspire	-12.2807
▁Prison	-12.2807
▁curse	-12.2808
▁veterinarian	-12.2808
▁blogging	-12.2809
▁packet	-12.2823
replicating	-12.2892
▁implication	-12.2934
attle	-12.2981
▁Ferr	-12.3012
▁slap	-12.3037
▁derive	-12.3046
▁metaphorical	-12.3092
wept	-12.3094
organizing	-12.3118
industrial	-12.3119
driving	-12.3119
fused	-12.3144
▁confuse	-12.3194
▁explicit	-12.3209
Jeopardy	-12.3222
Sweeney	-12.3222
▁AIMS	-12.3222
▁Armstrong	-12.3222
▁Behind	-12.3222
▁Colorado	-12.3222
▁Compassion	-12.3222
▁Corporation	-12.3222
▁Economist	-12.3222
▁Energy	-12.3222
▁Everglades	-12.3222
▁Holocaust	-12.3222
▁Magazine	-12.3222
▁Mississippi	-12.3222
▁Oakland	-12.3222
▁Reagan	-12.3222
▁Rosetta	-12.3222
▁Scratch	-12.3222
▁Starbucks	-12.3222
▁Tennessee	-12.3222
▁Truth	-12.3222
▁Vancouver	-12.3222
▁Windows	-12.3222
▁alpha	-12.3222
▁antibodies	-12.3222
▁auditory	-12.3222
▁bioluminescence	-12.3222
▁capacities	-12.3222
▁certified	-12.3222
▁coherent	-12.3222
▁conspiracy	-12.3222
▁constitute	-12.3222
▁cruise	-12.3222
▁damaging	-12.3222
▁decentralized	-12.3222
▁democratize	-12.3222
▁diffuse	-12.3222
▁discomfort	-12.3222
▁efficacy	-12.3222
▁embarrassment	-12.3222
▁emphasis	-12.3222
▁exoplanet	-12.3222
▁extremist	-12.3222
▁eyebrow	-12.3222
▁fertility	-12.3222
▁giraffe	-12.3222
▁homicide	-12.3222
▁humiliation	-12.3222
▁identification	-12.3222
▁immigration	-12.3222
▁instructor	-12.3222
▁juggling	-12.3222
▁mammography	-12.3222
▁pheromone	-12.3222
▁prosecute	-12.3222
▁prostitute	-12.3222
▁psychic	-12.3222
▁sapiens	-12.3222
▁semester	-12.3222
▁simplify	-12.3222
▁solidarity	-12.3222
▁stimulus	-12.3222
▁stunning	-12.3222
▁sympathy	-12.3222
▁taxpayer	-12.3222
▁tectonic	-12.3222
▁tiniest	-12.3222
▁wrinkle	-12.3222
▁CNN	-12.3222
▁Miami	-12.3222
▁asylum	-12.3222
▁hurry	-12.3222
▁narco	-12.3222
▁Vinci	-12.3222
▁discrete	-12.3222
▁sponge	-12.3222
▁restoration	-12.3222
▁pledge	-12.3222
▁ingenious	-12.3222
▁seamless	-12.3222
▁Idaho	-12.3222
▁hiring	-12.3222
▁socket	-12.3222
▁plague	-12.3222
▁embed	-12.3222
▁huh	-12.3222
▁motto	-12.3222
▁Personal	-12.3222
▁bookstore	-12.3222
▁Compare	-12.3222
▁detach	-12.3222
▁auction	-12.3223
▁pinpoint	-12.3223
▁Text	-12.3223
▁suitcase	-12.3223
▁Mahat	-12.3223
▁fingerprint	-12.3223
▁counterpart	-12.3223
▁notebook	-12.3223
▁plaster	-12.3223
▁hike	-12.3223
▁envy	-12.3223
▁scoop	-12.3223
▁lesion	-12.3223
▁pedal	-12.3224
▁nudge	-12.3224
▁enroll	-12.3224
▁porn	-12.3229
Uncle	-12.3294
▁circumstance	-12.3369
rried	-12.3369
generated	-12.3409
present	-12.355
author	-12.3554
plus	-12.3554
grown	-12.3554
growth	-12.3554
people	-12.3554
Get	-12.3557
conceived	-12.3613
organized	-12.3634
▁deliberate	-12.3644
▁Count	-12.3646
▁contradict	-12.3646
nterviewer	-12.3656
echanical	-12.3657
rthodox	-12.3657
▁Agnes	-12.3657
▁Bonobo	-12.3657
▁Bulgaria	-12.3657
▁Cameron	-12.3657
▁Circle	-12.3657
▁Club	-12.3657
▁Conference	-12.3657
▁Dubai	-12.3657
▁Edison	-12.3657
▁Fahrenheit	-12.3657
▁Federal	-12.3657
▁Fortune	-12.3657
▁Goliath	-12.3657
▁Guardian	-12.3657
▁Kibera	-12.3657
▁Madagascar	-12.3657
▁Nevada	-12.3657
▁Pentagon	-12.3657
▁Record	-12.3657
▁Russell	-12.3657
▁StoryCorps	-12.3657
▁Strange	-12.3657
▁Tahrir	-12.3657
▁Tamiflu	-12.3657
▁Tehran	-12.3657
▁accelerator	-12.3657
▁acronym	-12.3657
▁arithmetic	-12.3657
▁audition	-12.3657
▁balancing	-12.3657
▁bioluminescent	-12.3657
▁byproduct	-12.3657
▁cosmetic	-12.3657
▁cumulative	-12.3657
▁cyclist	-12.3657
▁degradation	-12.3657
▁disbelief	-12.3657
▁disparate	-12.3657
▁downstairs	-12.3657
▁hominid	-12.3657
▁horrified	-12.3657
▁imaginative	-12.3657
▁incubator	-12.3657
▁integral	-12.3657
▁jurisdiction	-12.3657
▁mangrove	-12.3657
▁memorable	-12.3657
▁misconception	-12.3657
▁moisture	-12.3657
▁oblivio	-12.3657
▁periphery	-12.3657
▁presumably	-12.3657
▁prevalent	-12.3657
▁propeller	-12.3657
▁ridicule	-12.3657
▁tadpole	-12.3657
▁translating	-12.3657
▁vibrant	-12.3657
▁virtuous	-12.3657
▁whistling	-12.3657
Fantastic	-12.3657
▁Discover	-12.3657
▁Progress	-12.3657
▁Tweet	-12.3657
▁applaud	-12.3657
▁astounding	-12.3657
▁coalition	-12.3657
▁fission	-12.3657
▁hijack	-12.3657
▁instinctively	-12.3657
▁modular	-12.3657
▁ninth	-12.3657
▁quantify	-12.3657
▁sprawl	-12.3657
▁swirl	-12.3657
▁BBC	-12.3657
▁Falcon	-12.3657
▁reckless	-12.3657
▁sniff	-12.3657
▁starvation	-12.3657
▁sterile	-12.3657
▁toddler	-12.3657
▁tweak	-12.3657
▁Hitler	-12.3657
▁dried	-12.3657
▁league	-12.3657
▁wiring	-12.3657
▁qualify	-12.3657
▁dominance	-12.3657
▁inhabitants	-12.3657
▁Isaac	-12.3657
▁Gaza	-12.3657
▁nud	-12.3657
▁scandal	-12.3657
▁Creative	-12.3657
▁classmates	-12.3657
▁guidelines	-12.3657
▁residu	-12.3657
▁animated	-12.3657
▁vague	-12.3657
▁Saint	-12.3658
▁uprising	-12.3658
▁dictatorship	-12.3658
▁Europa	-12.3658
▁banjo	-12.3658
▁championship	-12.3658
▁messaging	-12.3658
▁pub	-12.3658
▁Police	-12.3658
▁shave	-12.3658
▁bolt	-12.3659
▁Jenn	-12.3659
▁Moses	-12.3661
egan	-12.3662
▁Market	-12.3664
▁Self	-12.3666
simil	-12.3667
▁Diet	-12.3669
▁cancel	-12.3705
izzy	-12.3706
Contra	-12.3748
▁reviv	-12.3757
fulfilling	-12.3776
cross	-12.3828
Huh	-12.3907
uestion	-12.3948
rhythm	-12.4008
function	-12.4008
Just	-12.4009
gatherer	-12.4046
genesis	-12.4065
▁dedicate	-12.4083
▁amaze	-12.4083
▁thrill	-12.4087
▁browse	-12.4103
▁Antarctic	-12.4106
▁hallucinat	-12.4111
▁intellect	-12.4111
▁brute	-12.4111
disproportionate	-12.4111
▁Achilles	-12.4111
▁Beyond	-12.4111
▁CERN	-12.4111
▁Captain	-12.4111
▁Channel	-12.4111
▁Collider	-12.4111
▁Convention	-12.4111
▁Director	-12.4111
▁Essentially	-12.4111
▁Exxon	-12.4111
▁Flickr	-12.4111
▁Galileo	-12.4111
▁Gordon	-12.4111
▁Houston	-12.4111
▁Jonathan	-12.4111
▁Lakota	-12.4111
▁Nanopatch	-12.4111
▁Sebastian	-12.4111
▁Toyota	-12.4111
▁admission	-12.4111
▁aerodynamic	-12.4111
▁amplify	-12.4111
▁apparatus	-12.4111
▁arrival	-12.4111
▁blunt	-12.4111
▁browsing	-12.4111
▁butterflies	-12.4111
▁cafeteria	-12.4111
▁carpenter	-12.4111
▁centigrade	-12.4111
▁ceramic	-12.4111
▁constellation	-12.4111
▁contributor	-12.4111
▁daunting	-12.4111
▁deceased	-12.4111
▁desperation	-12.4111
▁destined	-12.4111
▁disposal	-12.4111
▁drank	-12.4111
▁drastic	-12.4111
▁eliminating	-12.4111
▁elusive	-12.4111
▁energetic	-12.4111
▁epiphany	-12.4111
▁hunch	-12.4111
▁ignite	-12.4111
▁junior	-12.4111
▁lettuce	-12.4111
▁lithium	-12.4111
▁napkin	-12.4111
▁nursing	-12.4111
▁participatory	-12.4111
▁penicillin	-12.4111
▁perpetual	-12.4111
▁propulsion	-12.4111
▁reception	-12.4111
▁reservation	-12.4111
▁residential	-12.4111
▁revenge	-12.4111
▁sequester	-12.4111
▁skyscraper	-12.4111
▁supplier	-12.4111
▁susceptible	-12.4111
▁tactics	-12.4111
▁transgender	-12.4111
▁unfamiliar	-12.4111
▁unlimited	-12.4111
▁unnatural	-12.4111
▁unnecessary	-12.4111
▁unpleasant	-12.4111
▁unthinkable	-12.4111
▁uranium	-12.4111
▁widow	-12.4111
▁yogurt	-12.4111
▁MBA	-12.4111
▁Oliver	-12.4111
▁Southeast	-12.4111
▁cereal	-12.4111
▁courtyard	-12.4111
▁excavat	-12.4111
▁gorilla	-12.4111
▁magnify	-12.4111
▁microwave	-12.4111
▁populated	-12.4111
▁precipitat	-12.4111
▁prompt	-12.4111
▁proposing	-12.4111
lecommunications	-12.4111
▁Vietnamese	-12.4111
▁bruise	-12.4111
▁facade	-12.4111
▁fungus	-12.4111
▁indulge	-12.4111
▁Jesse	-12.4111
▁Survey	-12.4111
▁maze	-12.4111
▁Venter	-12.4111
▁CIA	-12.4111
▁arteries	-12.4111
▁gently	-12.4111
▁shiny	-12.4112
▁Witness	-12.4112
▁Aaron	-12.4112
▁Trust	-12.4112
▁hydrocarbon	-12.4112
▁pollinate	-12.4112
▁casualties	-12.4112
▁Glenn	-12.4112
▁Lanka	-12.4112
▁enact	-12.4112
▁IMF	-12.4112
▁beaver	-12.4112
▁replicator	-12.4112
▁Caltech	-12.4112
▁brink	-12.4112
▁Wired	-12.4112
▁Malawi	-12.4112
▁hull	-12.4113
▁agile	-12.4113
▁clam	-12.4113
▁Theater	-12.4113
legged	-12.4113
▁halt	-12.4115
Solomon	-12.4117
▁Face	-12.4118
▁electora	-12.4118
▁Plato	-12.412
▁patrol	-12.4149
obbing	-12.418
▁valu	-12.4207
cule	-12.4299
▁foi	-12.436
▁resembl	-12.4376
Cause	-12.4399
▁ensu	-12.4438
abilities	-12.4483
computer	-12.4484
technology	-12.4484
Hello	-12.4484
science	-12.4485
machine	-12.4485
species	-12.4485
blood	-12.4485
imposed	-12.449
▁captur	-12.4533
▁ignor	-12.4534
▁swam	-12.4549
▁appreciat	-12.4552
stabiliz	-12.4562
▁fertilize	-12.4567
▁withdraw	-12.4571
nutrient	-12.4585
▁narrat	-12.4587
extrovert	-12.4588
megawatt	-12.4588
▁Anonymous	-12.4588
▁Bahamas	-12.4588
▁Cassini	-12.4588
▁Digital	-12.4588
▁Financial	-12.4588
▁Friedman	-12.4588
▁Hungarian	-12.4588
▁Innovation	-12.4588
▁Jennifer	-12.4588
▁Movember	-12.4588
▁Panbanisha	-12.4588
▁Photoshop	-12.4588
▁Raisuddin	-12.4588
▁WHO	-12.4588
▁accumulation	-12.4588
▁acquisition	-12.4588
▁advancing	-12.4588
▁adversity	-12.4588
▁appetite	-12.4588
▁apprentice	-12.4588
▁atrazine	-12.4588
▁availability	-12.4588
▁barbershop	-12.4588
▁bronze	-12.4588
▁cochlea	-12.4588
▁communist	-12.4588
▁compatible	-12.4588
▁cosmology	-12.4588
▁crochet	-12.4588
▁deflect	-12.4588
▁hazard	-12.4588
▁humidity	-12.4588
▁hummingbird	-12.4588
▁hyena	-12.4588
▁hygiene	-12.4588
▁imbalance	-12.4588
▁immoral	-12.4588
▁immunity	-12.4588
▁incarcerated	-12.4588
▁mismatch	-12.4588
▁mutilate	-12.4588
▁premature	-12.4588
▁primordial	-12.4588
▁proliferation	-12.4588
▁prosperous	-12.4588
▁reservoir	-12.4588
▁socioeconomic	-12.4588
▁subsidies	-12.4588
▁terrestrial	-12.4588
▁treadmill	-12.4588
▁tribute	-12.4588
▁urgency	-12.4588
▁variability	-12.4588
▁vegetarian	-12.4588
▁Bonica	-12.4588
▁Current	-12.4588
▁PDF	-12.4588
▁Rachel	-12.4588
▁aquaculture	-12.4588
▁comprised	-12.4588
▁decipher	-12.4588
▁heartbeat	-12.4588
▁spoil	-12.4588
▁width	-12.4588
▁Raise	-12.4588
▁Soldier	-12.4588
▁True	-12.4588
▁modification	-12.4588
▁pluck	-12.4588
▁ultrasound	-12.4588
▁cherish	-12.4588
▁deceive	-12.4588
▁durable	-12.4588
▁zoning	-12.4588
assembling	-12.4588
▁hippie	-12.4588
▁proxy	-12.4588
▁Control	-12.4588
▁utopia	-12.4588
▁Protect	-12.4588
▁enlist	-12.4588
▁ripple	-12.4588
▁Ryan	-12.4588
▁geologist	-12.4588
▁policymakers	-12.4588
▁salad	-12.4588
▁roost	-12.4588
▁notorious	-12.4588
▁condense	-12.4588
▁Potter	-12.4588
▁pornography	-12.4588
▁colonize	-12.4588
▁scripture	-12.4588
▁lemon	-12.4588
▁benchmark	-12.4588
▁interference	-12.4588
▁scarcity	-12.4588
▁rumor	-12.4588
▁bait	-12.4588
spective	-12.4589
▁comedian	-12.4589
▁verify	-12.459
▁allocate	-12.4594
▁restrain	-12.4606
▁Understand	-12.4609
▁vase	-12.4655
bureaucratic	-12.476
▁slid	-12.4857
blown	-12.4984
confidence	-12.4985
course	-12.4985
intelligent	-12.4985
Maybe	-12.4985
People	-12.4985
▁Scot	-12.4986
sanitary	-12.5088
nstrual	-12.5088
wrestling	-12.5088
▁Ecuador	-12.5088
▁Everywhere	-12.5088
▁Excellent	-12.5088
▁Hurricane	-12.5088
▁Lesterland	-12.5088
▁Maldives	-12.5088
▁Melinda	-12.5088
▁Midwest	-12.5088
▁Moscow	-12.5088
▁Papua	-12.5088
▁Philippines	-12.5088
▁Thousands	-12.5088
▁accumulating	-12.5088
▁advocacy	-12.5088
▁analyst	-12.5088
▁announcing	-12.5088
▁anonymity	-12.5088
▁appointment	-12.5088
▁arguably	-12.5088
▁automotive	-12.5088
▁charcoal	-12.5088
▁charging	-12.5088
▁clarify	-12.5088
▁desalination	-12.5088
▁discharge	-12.5088
▁doctrine	-12.5088
▁doodling	-12.5088
▁dreadful	-12.5088
▁dwarf	-12.5088
▁elastic	-12.5088
▁energies	-12.5088
▁enslave	-12.5088
▁exaggerate	-12.5088
▁exhilarating	-12.5088
▁fascination	-12.5088
▁fatigue	-12.5088
▁feminine	-12.5088
▁illuminate	-12.5088
▁inferior	-12.5088
▁infinity	-12.5088
▁influenza	-12.5088
▁interdependenc	-12.5088
▁jealous	-12.5088
▁knitting	-12.5088
▁monopoly	-12.5088
▁philanthropist	-12.5088
▁plasma	-12.5088
▁pollinators	-12.5088
▁pragmatic	-12.5088
▁prominent	-12.5088
▁rearrange	-12.5088
▁scissors	-12.5088
▁separating	-12.5088
▁serotonin	-12.5088
▁stunned	-12.5088
▁supermassive	-12.5088
▁toothbrush	-12.5088
▁unhealthy	-12.5088
▁Pearl	-12.5088
▁Traditional	-12.5088
▁amphibi	-12.5088
▁complement	-12.5088
▁embryonic	-12.5088
▁glance	-12.5088
▁unravel	-12.5088
▁utilize	-12.5088
▁Hebrew	-12.5088
▁credible	-12.5088
▁detriment	-12.5088
▁dispens	-12.5088
▁steak	-12.5088
▁stockpile	-12.5088
▁venom	-12.5088
▁Collect	-12.5088
▁Hudson	-12.5088
▁Titus	-12.5088
▁blaz	-12.5088
▁gyrus	-12.5088
▁wilderness	-12.5088
▁snack	-12.5088
▁Harlem	-12.5088
▁emulate	-12.5088
▁descendants	-12.5088
▁omni	-12.5088
▁forensic	-12.5088
▁premier	-12.5088
▁Oscar	-12.5088
▁impatient	-12.5088
▁motive	-12.5088
▁offense	-12.5088
▁millennium	-12.5088
identifie	-12.5088
▁lyric	-12.5088
▁grappl	-12.5088
▁Rosling	-12.5088
▁Planet	-12.5088
▁Film	-12.5089
▁inertia	-12.5089
▁vacan	-12.5091
▁flare	-12.5091
▁categorize	-12.5106
▁illustrat	-12.5129
replication	-12.5161
▁replica	-12.5316
▁increment	-12.5354
▁underlie	-12.5389
haired	-12.5498
fifth	-12.5511
definition	-12.5511
performance	-12.5511
teacher	-12.5511
capita	-12.5513
▁leverag	-12.5551
estament	-12.5588
discriminat	-12.5594
ustainable	-12.5611
▁jelly	-12.5614
▁epidemiologi	-12.5614
granddaughter	-12.5614
▁Botswana	-12.5614
▁Brilliant	-12.5614
▁Campaign	-12.5614
▁Dublin	-12.5614
▁Enceladus	-12.5614
▁Extreme	-12.5614
▁Fibonacci	-12.5614
▁Graham	-12.5614
▁Hopkins	-12.5614
▁Judaism	-12.5614
▁Kentucky	-12.5614
▁Matthew	-12.5614
▁Senegal	-12.5614
▁Sergio	-12.5614
▁Shortly	-12.5614
▁Special	-12.5614
▁Voyager	-12.5614
▁annoyed	-12.5614
▁anthropology	-12.5614
▁astonished	-12.5614
▁bankrupt	-12.5614
▁biomedical	-12.5614
▁blaming	-12.5614
▁bureaucracy	-12.5614
▁contemplate	-12.5614
▁dashboard	-12.5614
▁deprivation	-12.5614
▁derivative	-12.5614
▁desirable	-12.5614
▁diffusion	-12.5614
▁ecologist	-12.5614
▁engulf	-12.5614
▁entrenche	-12.5614
▁evoke	-12.5614
▁framing	-12.5614
▁frugal	-12.5614
▁geese	-12.5614
▁humiliate	-12.5614
▁hydrant	-12.5614
▁illumination	-12.5614
▁influential	-12.5614
▁irregular	-12.5614
▁laureate	-12.5614
▁legitimacy	-12.5614
▁leisure	-12.5614
▁liberating	-12.5614
▁menstruation	-12.5614
▁microRNA	-12.5614
▁nanotube	-12.5614
▁nephew	-12.5614
▁outweigh	-12.5614
▁pavilion	-12.5614
▁peripheral	-12.5614
▁photosynthesis	-12.5614
▁plutocrat	-12.5614
▁portfolio	-12.5614
▁postcards	-12.5614
▁puppy	-12.5614
▁puzzling	-12.5614
▁relentless	-12.5614
▁reprogram	-12.5614
▁seatbelt	-12.5614
▁sleeve	-12.5614
▁southwest	-12.5614
▁stubborn	-12.5614
▁synesthesia	-12.5614
▁teapot	-12.5614
▁temporarily	-12.5614
▁tornado	-12.5614
▁trustworthy	-12.5614
▁twentie	-12.5614
▁unbelievably	-12.5614
▁vertebrate	-12.5614
▁wondrous	-12.5614
▁Barbie	-12.5614
▁congratulat	-12.5614
▁decoration	-12.5614
▁encompass	-12.5614
▁imitation	-12.5614
▁intestine	-12.5614
▁plummet	-12.5614
▁pollination	-12.5614
▁rejuvenat	-12.5614
▁repositor	-12.5614
▁surpass	-12.5614
▁trawl	-12.5614
▁Amanda	-12.5614
▁Knowing	-12.5614
▁bargain	-12.5614
▁guiding	-12.5614
▁buffer	-12.5614
▁dairy	-12.5614
▁disclose	-12.5614
▁handbag	-12.5614
▁joking	-12.5614
▁embody	-12.5614
▁knob	-12.5614
▁spores	-12.5614
colonization	-12.5614
▁examining	-12.5614
▁logistics	-12.5614
▁measles	-12.5614
▁Birds	-12.5614
▁foremost	-12.5614
▁squeak	-12.5614
▁prestig	-12.5614
▁parrot	-12.5614
▁staple	-12.5614
▁plume	-12.5614
Sleep	-12.5614
▁niche	-12.5614
▁fringe	-12.5614
▁withstand	-12.5614
▁Dream	-12.5614
▁Origin	-12.5614
▁Tiger	-12.5614
▁crave	-12.5614
▁metasta	-12.5614
▁crisp	-12.5615
▁endemic	-12.5616
assisted	-12.5624
▁guru	-12.5632
nspired	-12.5633
▁discriminate	-12.5634
ague	-12.5634
▁dissect	-12.5782
Daddy	-12.5783
agged	-12.5815
connected	-12.5842
▁revolv	-12.5847
▁tub	-12.6011
▁articulat	-12.6021
shelf	-12.6066
protected	-12.6067
normal	-12.6067
speaking	-12.6067
grain	-12.6067
▁locate	-12.6141
▁atmospher	-12.6143
destruct	-12.6169
▁ADHD	-12.617
▁Acumen	-12.617
▁Alfred	-12.617
▁Baghdad	-12.617
▁Capital	-12.617
▁Chicken	-12.617
▁Conservation	-12.617
▁DIY	-12.617
▁Disease	-12.617
▁Embassy	-12.617
▁Evolution	-12.617
▁Festival	-12.617
▁Galois	-12.617
▁Helvetica	-12.617
▁Hispanic	-12.617
▁IDEO	-12.617
▁Illinois	-12.617
▁Kanzi	-12.617
▁Laboratory	-12.617
▁Laptop	-12.617
▁Mahmoud	-12.617
▁Malaysia	-12.617
▁Mathematica	-12.617
▁McGowan	-12.617
▁Missouri	-12.617
▁Mongolia	-12.617
▁Nicholas	-12.617
▁Nowadays	-12.617
▁Picasso	-12.617
▁Stirling	-12.617
▁Stockholm	-12.617
▁Studio	-12.617
▁Ukraine	-12.617
▁academia	-12.617
▁albeit	-12.617
▁ambiguous	-12.617
▁anticipation	-12.617
▁audacious	-12.617
▁avenue	-12.617
▁bipolar	-12.617
▁bonobo	-12.617
▁brilliance	-12.617
▁bumblebee	-12.617
▁bundle	-12.617
▁conceivabl	-12.617
▁divergence	-12.617
▁dividing	-12.617
▁elevation	-12.617
▁enclosure	-12.617
▁epilepsy	-12.617
▁exploding	-12.617
▁filament	-12.617
▁impairment	-12.617
▁imprisoned	-12.617
▁infamous	-12.617
▁inorganic	-12.617
▁intercept	-12.617
▁litigation	-12.617
▁medicinal	-12.617
▁messenger	-12.617
▁motivator	-12.617
▁oppression	-12.617
▁persuasive	-12.617
▁precursor	-12.617
▁privatiz	-12.617
▁provocative	-12.617
▁questionnaire	-12.617
▁reconciliation	-12.617
▁regenerative	-12.617
▁relocate	-12.617
▁repetitive	-12.617
▁sampling	-12.617
▁sanctuary	-12.617
▁schizophrenic	-12.617
▁secrecy	-12.617
▁sophistication	-12.617
▁squirrel	-12.617
▁synonymous	-12.617
▁thermostat	-12.617
▁transcript	-12.617
▁troubling	-12.617
▁umbrella	-12.617
▁upstairs	-12.617
▁Shoots	-12.617
▁evolutionarily	-12.617
▁fiddle	-12.617
▁gloom	-12.617
▁malware	-12.617
▁naught	-12.617
▁plywood	-12.617
▁skyrocket	-12.617
▁Bassem	-12.617
▁Rouge	-12.617
▁artisan	-12.617
▁dementia	-12.617
▁doodle	-12.617
▁lousy	-12.617
▁defecat	-12.617
▁cymatic	-12.617
▁Bueno	-12.617
▁Gwen	-12.617
▁Magic	-12.617
▁degrading	-12.617
▁marble	-12.617
▁sermon	-12.617
▁shrunk	-12.617
▁windmill	-12.617
▁trafficked	-12.617
▁abalone	-12.617
▁inference	-12.617
decisive	-12.617
▁anomaly	-12.617
▁absent	-12.617
▁alternate	-12.617
▁bleach	-12.617
▁spoof	-12.617
▁Batman	-12.617
▁husk	-12.617
▁perfume	-12.617
▁strawberr	-12.617
▁Morgan	-12.617
▁costume	-12.617
endurance	-12.6172
▁squeez	-12.6175
▁resume	-12.6178
Actor	-12.6182
helix	-12.6186
building	-12.6199
orbital	-12.6207
▁escap	-12.6207
▁reshape	-12.6303
transcendence	-12.6339
evolution	-12.6653
mobile	-12.6655
figure	-12.6655
organization	-12.6655
focus	-12.6655
World	-12.6655
▁requir	-12.672
nversely	-12.6753
▁precaution	-12.6758
▁pseudo	-12.6758
Citizen	-12.6758
ficiencies	-12.6758
▁Archimedes	-12.6758
▁Austin	-12.6758
▁Beatles	-12.6758
▁CAPTCHA	-12.6758
▁Celsius	-12.6758
▁Challenge	-12.6758
▁Congolese	-12.6758
▁Elephant	-12.6758
▁Hampshire	-12.6758
▁Hiroshima	-12.6758
▁IKEA	-12.6758
▁Jacques	-12.6758
▁Mandarin	-12.6758
▁Minnesota	-12.6758
▁Mitchell	-12.6758
▁Portuguese	-12.6758
▁Stanley	-12.6758
▁Thursday	-12.6758
▁USDA	-12.6758
▁Uruguay	-12.6758
▁administrative	-12.6758
▁amygdala	-12.6758
▁antiangiogenic	-12.6758
▁arrogant	-12.6758
▁asphalt	-12.6758
▁biomimicry	-12.6758
▁butterfly	-12.6758
▁circus	-12.6758
▁cockpit	-12.6758
▁coconut	-12.6758
▁diabetic	-12.6758
▁exoskeleton	-12.6758
▁fountain	-12.6758
▁gradient	-12.6758
▁gratification	-12.6758
▁heterosexual	-12.6758
▁incidence	-12.6758
▁legislators	-12.6758
▁leukemia	-12.6758
▁lexicon	-12.6758
▁lightbulb	-12.6758
▁misunderstood	-12.6758
▁motivating	-12.6758
▁ominous	-12.6758
▁paintbrush	-12.6758
▁petroleum	-12.6758
▁pinnacle	-12.6758
▁plausibl	-12.6758
▁preliminary	-12.6758
▁rhyme	-12.6758
▁sanction	-12.6758
▁slippery	-12.6758
▁squatter	-12.6758
▁stimulating	-12.6758
▁synagogue	-12.6758
▁unexplored	-12.6758
▁volatile	-12.6758
▁yoga	-12.6758
▁zodiac	-12.6758
▁Choir	-12.6758
▁NIH	-12.6758
▁antidote	-12.6758
▁crease	-12.6758
▁cursor	-12.6758
▁disengag	-12.6758
▁sensual	-12.6758
▁wield	-12.6758
▁Bureau	-12.6758
▁Fifth	-12.6758
▁Harbor	-12.6758
▁Kabul	-12.6758
▁Product	-12.6758
▁Reserve	-12.6758
▁culminat	-12.6758
▁discarded	-12.6758
▁hardwired	-12.6758
▁pennies	-12.6758
▁Delta	-12.6758
▁Plus	-12.6758
▁occurrence	-12.6758
▁compensate	-12.6758
▁conjure	-12.6758
▁palace	-12.6758
▁shaft	-12.6758
▁hawk	-12.6758
▁Ranger	-12.6758
▁advisor	-12.6758
▁reckon	-12.6758
▁Hunter	-12.6758
▁multimedia	-12.6758
▁activation	-12.6758
▁trance	-12.6758
▁curb	-12.6758
▁trek	-12.6758
▁Horse	-12.6758
▁incision	-12.6758
Awesome	-12.6758
▁paddle	-12.6758
▁marsh	-12.6758
Mobile	-12.6758
▁neurobiolog	-12.6758
▁jerk	-12.6758
▁saddle	-12.6758
▁Bowl	-12.6758
▁Needles	-12.6759
▁Erik	-12.676
enchant	-12.676
▁nominate	-12.6761
▁cofounde	-12.6762
▁Rag	-12.6762
▁wobbl	-12.6762
licious	-12.6763
▁Crime	-12.6764
▁expir	-12.6766
Leave	-12.6779
▁aggregat	-12.6819
defined	-12.6904
▁peacebuild	-12.6908
contacted	-12.7048
ncidentally	-12.7066
▁carcinogen	-12.7109
flipping	-12.7176
ubbed	-12.7223
sufficient	-12.7279
Life	-12.728
happiness	-12.728
girl	-12.7296
▁accord	-12.7352
graphers	-12.7352
▁militar	-12.7373
ynthetic	-12.738
▁Develop	-12.7381
▁Species	-12.7383
Vagina	-12.7383
boriginal	-12.7383
enhancing	-12.7383
extraterrestrial	-12.7383
▁Alexandria	-12.7383
▁Anthony	-12.7383
▁Arkansas	-12.7383
▁Asperger	-12.7383
▁Aurora	-12.7383
▁Balkans	-12.7383
▁Broadway	-12.7383
▁Cochrane	-12.7383
▁Correct	-12.7383
▁Dragon	-12.7383
▁FreeSpeech	-12.7383
▁Gallery	-12.7383
▁HeForShe	-12.7383
▁Intelligence	-12.7383
▁Langley	-12.7383
▁Madison	-12.7383
▁Morocco	-12.7383
▁Mubarak	-12.7383
▁NATO	-12.7383
▁Nollywood	-12.7383
▁OPEC	-12.7383
▁Orchestra	-12.7383
▁Rockefeller	-12.7383
▁Saddam	-12.7383
▁Sudhir	-12.7383
▁TEDGlobal	-12.7383
▁Vermeer	-12.7383
▁Vienna	-12.7383
▁Wednesday	-12.7383
▁advocating	-12.7383
▁arthritis	-12.7383
▁brothel	-12.7383
▁collapsing	-12.7383
▁communism	-12.7383
▁crammed	-12.7383
▁definitive	-12.7383
▁dengue	-12.7383
▁detergent	-12.7383
▁discourage	-12.7383
▁disguise	-12.7383
▁dismantle	-12.7383
▁embodiment	-12.7383
▁empathize	-12.7383
▁exaggeration	-12.7383
▁extremism	-12.7383
▁franchise	-12.7383
▁ghetto	-12.7383
▁graduation	-12.7383
▁hierarchical	-12.7383
▁hyperbolic	-12.7383
▁innocence	-12.7383
▁insignificant	-12.7383
▁instantaneous	-12.7383
▁investigator	-12.7383
▁judging	-12.7383
▁jumble	-12.7383
▁laparoscopic	-12.7383
▁miniature	-12.7383
▁necessity	-12.7383
▁neurologist	-12.7383
▁neutrino	-12.7383
▁numerical	-12.7383
▁opaque	-12.7383
▁philanthropic	-12.7383
▁phthalates	-12.7383
▁practitioner	-12.7383
▁proximity	-12.7383
▁rehearsal	-12.7383
▁ruthless	-12.7383
▁sabbatical	-12.7383
▁sequel	-12.7383
▁snippet	-12.7383
▁spreadsheet	-12.7383
▁sprinkle	-12.7383
▁substrate	-12.7383
▁surrogate	-12.7383
▁suspicion	-12.7383
▁swollen	-12.7383
▁terabyte	-12.7383
▁tobacco	-12.7383
▁tragedies	-12.7383
▁ventilation	-12.7383
▁welcoming	-12.7383
▁wiggle	-12.7383
▁EEG	-12.7383
▁Management	-12.7383
▁Nikola	-12.7383
▁administer	-12.7383
▁bedrock	-12.7383
▁burglar	-12.7383
▁credibility	-12.7383
▁daydream	-12.7383
▁examination	-12.7383
▁grazing	-12.7383
▁pigmentation	-12.7383
▁revisit	-12.7383
▁saturated	-12.7383
▁striving	-12.7383
▁beehive	-12.7383
▁crux	-12.7383
▁dispose	-12.7383
▁tramp	-12.7383
▁Gando	-12.7383
▁Serbia	-12.7383
▁Study	-12.7383
▁appalling	-12.7383
▁pianist	-12.7383
▁shaman	-12.7383
▁devour	-12.7383
▁retaliat	-12.7383
▁porch	-12.7383
▁choke	-12.7383
▁triangula	-12.7383
▁archetyp	-12.7383
▁Jacob	-12.7383
eminent	-12.7383
custome	-12.7383
▁cohesi	-12.7384
Search	-12.7391
▁ambien	-12.7404
▁visualiz	-12.7406
▁cultivat	-12.744
▁Northwest	-12.748
▁influenc	-12.7489
▁classify	-12.7664
▁coincide	-12.771
focal	-12.7743
▁bureaucrat	-12.7811
pplied	-12.7867
▁neurologic	-12.7923
portrait	-12.7946
factor	-12.7946
nuclear	-12.7947
written	-12.7947
▁marrie	-12.8023
▁Nixon	-12.8049
▁brigade	-12.8049
▁kilowatt	-12.8049
iquette	-12.8049
submission	-12.8049
▁Airbnb	-12.8049
▁Barbara	-12.8049
▁Cameroon	-12.8049
▁Chernobyl	-12.8049
▁Dimitri	-12.8049
▁Eleanor	-12.8049
▁Emmanuel	-12.8049
▁Gabriel	-12.8049
▁Gertrude	-12.8049
▁Hannah	-12.8049
▁Hussein	-12.8049
▁Initiative	-12.8049
▁Istanbul	-12.8049
▁Julius	-12.8049
▁Mauritius	-12.8049
▁Mermaid	-12.8049
▁Mouaz	-12.8049
▁Netflix	-12.8049
▁Neumann	-12.8049
▁Ottoman	-12.8049
▁PIPA	-12.8049
▁PISA	-12.8049
▁Poetry	-12.8049
▁SOPA	-12.8049
▁Seriously	-12.8049
▁Sioux	-12.8049
▁Symphony	-12.8049
▁Tarahumara	-12.8049
▁Terror	-12.8049
▁amputation	-12.8049
▁annihilat	-12.8049
▁appendage	-12.8049
▁aquarium	-12.8049
▁arsenal	-12.8049
▁atrocities	-12.8049
▁bottleneck	-12.8049
▁brochure	-12.8049
▁bulldoze	-12.8049
▁champagne	-12.8049
▁cholesterol	-12.8049
▁combustion	-12.8049
▁compliance	-12.8049
▁contemplating	-12.8049
▁cycling	-12.8049
▁defensive	-12.8049
▁disastrous	-12.8049
▁disparity	-12.8049
▁duplicate	-12.8049
▁emerald	-12.8049
▁eternity	-12.8049
▁exterior	-12.8049
▁fMRI	-12.8049
▁facilitator	-12.8049
▁feasible	-12.8049
▁fragility	-12.8049
▁hologram	-12.8049
▁immersive	-12.8049
▁indicating	-12.8049
▁indifferent	-12.8049
▁inflection	-12.8049
▁judicia	-12.8049
▁kettle	-12.8049
▁knives	-12.8049
▁latrine	-12.8049
▁liberties	-12.8049
▁maggots	-12.8049
▁merchant	-12.8049
▁metadata	-12.8049
▁monastery	-12.8049
▁multitasking	-12.8049
▁neutron	-12.8049
▁nugget	-12.8049
▁pajama	-12.8049
▁paycheck	-12.8049
▁pellets	-12.8049
▁perseverance	-12.8049
▁persuasion	-12.8049
▁progeria	-12.8049
▁protagonist	-12.8049
▁psychiatry	-12.8049
▁quadruple	-12.8049
▁qualitative	-12.8049
▁ravage	-12.8049
▁reassure	-12.8049
▁reassuring	-12.8049
▁redefining	-12.8049
▁rehearse	-12.8049
▁rudder	-12.8049
▁salamander	-12.8049
▁savage	-12.8049
▁simulating	-12.8049
▁suicidal	-12.8049
▁supreme	-12.8049
▁synchrony	-12.8049
▁tactile	-12.8049
▁turbulent	-12.8049
▁turnaround	-12.8049
▁wizard	-12.8049
▁woven	-12.8049
▁Connect	-12.8049
▁Douglas	-12.8049
▁Geiger	-12.8049
▁UFO	-12.8049
▁Viagra	-12.8049
▁comprehend	-12.8049
▁corpus	-12.8049
▁cowboy	-12.8049
▁leapfrog	-12.8049
▁patriarch	-12.8049
▁perimeter	-12.8049
▁plaque	-12.8049
▁rebellion	-12.8049
▁rifle	-12.8049
▁suffocat	-12.8049
▁typewriter	-12.8049
▁pilgrim	-12.8049
▁porridge	-12.8049
▁radiologist	-12.8049
▁razor	-12.8049
▁salaries	-12.8049
▁sentient	-12.8049
▁vigil	-12.8049
▁visibility	-12.8049
▁DDT	-12.8049
▁swine	-12.8049
▁Critic	-12.8049
♫	-14.5463
