<unk>	0
<s>	0
</s>	0
,	-2.92373
▁	-2.95
的	-3.36597
。	-3.41042
了	-4.87925
是	-4.97267
在	-4.98723
和	-5.22964
我	-5.25542
0	-5.35078
我们	-5.3619
▁我	-5.50514
?	-5.52334
▁我们	-5.61869
有	-5.63803
上	-5.72997
一个	-5.77947
你	-5.81684
中	-5.88072
:	-5.8813
1	-5.89507
人	-5.91518
不	-6.02248
到	-6.03095
他们	-6.05116
▁在	-6.08023
说	-6.09393
这个	-6.14214
”	-6.15289
这些	-6.16269
来	-6.16646
它	-6.20037
里	-6.2087
会	-6.21523
“	-6.22594
被	-6.24704
他	-6.2545
2	-6.25773
、	-6.28059
地	-6.29184
用	-6.30558
▁他们	-6.32204
这	-6.32403
去	-6.35248
时	-6.35272
▁这	-6.39028
一	-6.392
对	-6.41806
.	-6.42789
就	-6.47097
都	-6.4774
从	-6.5166
年	-6.54006
大	-6.54453
▁你	-6.56772
可以	-6.5681
5	-6.57907
▁但	-6.60071
▁所以	-6.61771
能	-6.63597
开始	-6.63602
着	-6.64226
要	-6.64519
也	-6.64825
▁但是	-6.65569
就是	-6.66575
为	-6.66912
很	-6.67053
▁他	-6.6824
▁它	-6.71885
的人	-6.72194
没有	-6.72788
一些	-6.75634
▁这是	-6.7742
做	-6.77728
性	-6.78354
与	-6.78724
的时候	-6.79132
▁而	-6.79517
将	-6.79945
——	-6.80505
出	-6.81703
把	-6.81978
想	-6.82249
那些	-6.82267
过	-6.82375
下	-6.82452
个	-6.8301
▁“	-6.84357
呢	-6.85766
她	-6.86964
▁因为	-6.86987
9	-6.8719
问题	-6.88033
非常	-6.88975
3	-6.90835
得	-6.91681
好	-6.94956
后	-6.95379
最	-6.96465
它们	-6.98168
看	-6.9871
--	-6.99293
你们	-6.99305
者	-6.99359
那	-7.00407
所	-7.01769
。”	-7.03123
小	-7.03359
而	-7.04
工作	-7.04029
自己	-7.04054
▁现在	-7.06324
更	-7.07195
子	-7.08436
多	-7.08547
▁然后	-7.1005
4	-7.10663
人们	-7.11214
一样	-7.11297
于	-7.12693
需要	-7.13712
这种	-7.16239
研究	-7.1699
使用	-7.18461
现在	-7.18778
世界	-7.19506
▁是	-7.20643
点	-7.20892
还	-7.22377
吗	-7.23251
什么	-7.23257
向	-7.23405
我的	-7.23815
水	-7.23924
比	-7.24131
·	-7.24578
不是	-7.24645
们	-7.24685
▁这些	-7.25225
前	-7.2541
8	-7.26197
已经	-7.27785
手	-7.27812
一种	-7.28148
看到	-7.28715
我们的	-7.29055
发现	-7.29295
▁这个	-7.29445
知道	-7.32107
6	-7.32319
以	-7.34135
又	-7.34882
给	-7.35172
斯	-7.35548
改变	-7.37367
这样	-7.37486
▁如果	-7.37961
或	-7.38179
进行	-7.39295
可	-7.40164
7	-7.40259
可能	-7.41015
高	-7.41313
像	-7.41599
人类	-7.41691
▁而且	-7.41992
让	-7.42252
时间	-7.42475
能够	-7.42542
家	-7.4299
长	-7.44911
▁和	-7.45651
新	-7.45798
▁她	-7.45947
无	-7.46257
很多	-7.46572
系统	-7.46644
头	-7.47434
设计	-7.4852
起	-7.49092
如何	-7.4933
▁并且	-7.49459
的东西	-7.50276
事	-7.5034
社会	-7.50836
▁它们	-7.50878
▁从	-7.53161
技术	-7.53863
都是	-7.53998
因为	-7.54079
)	-7.54786
你的	-7.54833
▁如果你	-7.55451
美国	-7.56022
成	-7.56071
%	-7.56553
通过	-7.57269
内	-7.57344
光	-7.5757
不同	-7.57836
拉	-7.57988
开	-7.58486
▁那	-7.58838
这是	-7.5893
所有	-7.59025
其他	-7.59202
是一个	-7.59299
尔	-7.59446
正	-7.5972
公司	-7.60022
心	-7.60979
这样的	-7.6139
认为	-7.61526
化	-7.616
力	-7.61661
之	-7.61687
!	-7.63041
车	-7.6314
的地方	-7.63374
决定	-7.63496
再	-7.63577
▁因此	-7.63746
那个	-7.64193
并	-7.64455
▁来	-7.64712
学	-7.64838
真的	-7.64897
国家	-7.6501
的是	-7.65619
当	-7.65646
发	-7.65655
▁那么	-7.65925
▁一个	-7.65959
▁我想	-7.66399
一下	-7.67026
完全	-7.67095
吧	-7.67144
天	-7.67178
▁并	-7.67354
不会	-7.67924
:“	-7.68009
生	-7.68577
任何	-7.68997
只	-7.69092
或者	-7.69138
特	-7.69336
选择	-7.69851
跟	-7.6996
不能	-7.70105
体	-7.70209
"	-7.70645
只是	-7.71016
关于	-7.71476
-	-7.71807
之后	-7.72458
问	-7.73432
信息	-7.73904
动	-7.74224
还是	-7.74237
东西	-7.7515
▁当	-7.75283
▁就是	-7.76249
数据	-7.76413
外	-7.76428
得到	-7.76629
孩子	-7.7695
来说	-7.77446
希望	-7.77561
两	-7.77847
面	-7.77869
成为	-7.77883
爱	-7.78672
▁或者	-7.78793
他们的	-7.79057
打	-7.798
科学	-7.80054
克	-7.80386
行	-7.80404
组织	-7.8106
了解	-7.81103
▁以及	-7.81228
分	-7.81421
三	-7.82121
的话	-7.82502
拥有	-7.82624
▁还有	-7.82792
政府	-7.83056
?”	-7.83937
之前	-7.84363
自己的	-7.8454
但	-7.84716
有一个	-7.85367
自	-7.8582
带	-7.85828
的问题	-7.8602
正在	-7.86035
没	-7.86573
应该	-7.86651
理解	-7.87863
起来	-7.88653
,“	-7.88887
讲	-7.88982
走	-7.89542
太	-7.90203
出来	-7.90543
不同的	-7.90871
叫	-7.90963
城市	-7.91073
一起	-7.91311
动物	-7.91686
中的	-7.91715
机	-7.91845
发展	-7.92154
▁有	-7.92183
帮助	-7.92287
重	-7.92623
事情	-7.92727
学习	-7.92734
却	-7.9296
我想	-7.93202
无法	-7.93377
教育	-7.93435
大家	-7.93617
还有	-7.94077
先	-7.94251
的事情	-7.94349
如果	-7.94538
数	-7.94813
图	-7.95716
发生	-7.95851
为什么	-7.95919
并不	-7.96081
才	-7.9617
生活	-7.96264
▁--	-7.96788
来自	-7.9716
网络	-7.97263
就会	-7.97544
▁当然	-7.97841
器	-7.97929
海	-7.97946
听	-7.98866
▁事实上	-7.99066
利	-7.99284
种	-7.99795
德	-8.00139
▁你们	-8.00155
的方式	-8.00245
真正	-8.00316
找到	-8.00406
e	-8.00628
影响	-8.00701
马	-8.00765
细胞	-8.00978
到了	-8.01213
度	-8.0129
写	-8.01424
思考	-8.01687
线	-8.0173
全球	-8.0188
电	-8.02168
是个	-8.02329
整个	-8.02622
量	-8.02849
名	-8.03087
▁这就是	-8.03411
方式	-8.03428
A	-8.03543
让我	-8.03956
想要	-8.04031
生命	-8.0447
花	-8.04632
一次	-8.04771
万	-8.05042
对于	-8.05206
然后	-8.05404
创造	-8.05839
作	-8.0647
这里	-8.06667
音乐	-8.06906
只有	-8.07006
方面	-8.07053
▁就	-8.07394
流	-8.07471
等	-8.07691
控制	-8.07858
回	-8.08084
那么	-8.08112
怎么	-8.08368
甚至	-8.08441
两个	-8.08506
变	-8.08764
▁对	-8.08871
画	-8.08886
经济	-8.094
钱	-8.0945
;	-8.09705
利用	-8.09755
上的	-8.0983
其	-8.0998
身	-8.10108
相信	-8.10291
今天	-8.1034
岁	-8.10374
安全	-8.104
一点	-8.1046
生物	-8.11115
了一个	-8.11126
入	-8.11266
也是	-8.11299
门	-8.11344
让我们	-8.11807
科技	-8.11823
放	-8.12382
电脑	-8.124
由	-8.12409
如此	-8.12532
日	-8.12556
间	-8.12598
提供	-8.12598
女性	-8.12823
以及	-8.12863
▁也	-8.12887
环境	-8.13255
每	-8.1337
一直	-8.13402
本	-8.13457
把它	-8.13504
如果你	-8.13956
这一	-8.13993
健康	-8.14402
吃	-8.14707
全	-8.14779
自然	-8.14806
新的	-8.14837
觉得	-8.14849
许多	-8.15054
故事	-8.15125
是什么	-8.15209
地球	-8.15314
使	-8.15687
真	-8.15697
感到	-8.15902
▁人们	-8.16132
处	-8.16407
解决	-8.16877
口	-8.16889
所有的	-8.16905
▁你可以	-8.16935
加	-8.16943
的故事	-8.16998
学校	-8.1769
a	-8.17823
大脑	-8.17879
▁这样	-8.17983
文化	-8.18057
o	-8.18364
次	-8.1842
场	-8.18515
月	-8.18584
感	-8.18802
进	-8.18984
物	-8.191
那里	-8.19183
条	-8.19255
受	-8.19316
法	-8.19357
相	-8.19368
喜欢	-8.1966
▁♫	-8.19839
▁就像	-8.20051
将会	-8.20231
运动	-8.20603
变得	-8.20988
▁比如	-8.2116
》	-8.21169
存在	-8.2118
地方	-8.21242
《	-8.21253
方	-8.2135
做的	-8.21383
美	-8.21532
活动	-8.2158
更多	-8.21606
感觉	-8.21689
实验	-8.218
最后	-8.21953
▁(	-8.2206
他的	-8.22119
计划	-8.23043
道	-8.23185
啊	-8.2321
是否	-8.23289
艺术	-8.23312
尝试	-8.23688
▁那些	-8.23759
继续	-8.23818
老	-8.23948
气	-8.2401
个人	-8.24238
必须	-8.243
过去	-8.24406
教	-8.24528
意	-8.24614
四	-8.24728
▁这种	-8.24753
年前	-8.2491
十	-8.25038
曾	-8.25082
看看	-8.25302
模式	-8.25397
世纪	-8.25914
格	-8.26103
机器人	-8.26268
布	-8.26306
合作	-8.26562
▁都	-8.26764
市场	-8.27017
医生	-8.27084
作为	-8.27104
一位	-8.27765
保护	-8.27814
重要	-8.27875
声	-8.27964
是在	-8.28002
▁不过	-8.28019
眼	-8.28031
展示	-8.28073
同	-8.28141
产生	-8.28275
定	-8.28301
听到	-8.28389
(	-8.28743
s	-8.28849
结果	-8.28946
i	-8.28983
书	-8.29027
取	-8.29182
转	-8.29449
大学	-8.29477
路	-8.29707
S	-8.29766
努力	-8.29799
方法	-8.30409
片	-8.30473
该	-8.30482
之一	-8.30519
制造	-8.30807
非	-8.311
快	-8.31223
率	-8.31633
但是	-8.31644
风	-8.31891
里面	-8.32042
不知道	-8.32082
▁如果我们	-8.32277
之间	-8.32304
令人	-8.32356
实现	-8.32457
项目	-8.3249
▁我认为	-8.32573
行为	-8.32761
印度	-8.32817
确实	-8.32881
远	-8.32898
朋友	-8.32929
死	-8.32999
米	-8.33038
进入	-8.3338
想象	-8.33536
在这里	-8.33595
事实	-8.33648
半	-8.33794
▁然而	-8.33834
▁所以我	-8.34098
五	-8.34175
各种	-8.3419
其实	-8.34458
就像	-8.34519
性的	-8.34588
尼	-8.34769
中心	-8.34912
政治	-8.34929
卡	-8.34942
已	-8.35081
空间	-8.35155
另一个	-8.3529
治疗	-8.35384
▁通过	-8.35467
解释	-8.35917
低	-8.36008
号	-8.36228
社区	-8.36292
有些	-8.36342
y	-8.3641
▁当我	-8.36456
信	-8.36544
关注	-8.36651
部分	-8.36885
讨论	-8.36944
宇宙	-8.36967
重新	-8.37122
地区	-8.37309
▁这是一个	-8.37407
极	-8.37507
语	-8.37598
意识到	-8.37617
C	-8.38024
接受	-8.38156
西	-8.38422
语言	-8.38492
M	-8.38509
疾病	-8.38534
▁所以我们	-8.38588
飞	-8.38588
▁而是	-8.38648
此	-8.38658
出现	-8.38715
及	-8.39075
TED	-8.3914
叫做	-8.3916
建筑	-8.39169
游戏	-8.3937
非洲	-8.39441
成功	-8.39562
基因	-8.39591
别	-8.39659
掉	-8.39684
学生	-8.39716
部	-8.39742
边	-8.39803
国	-8.39948
▁我们可以	-8.40165
变化	-8.40165
热	-8.40197
实际上	-8.4037
深	-8.40379
领域	-8.40406
的事	-8.40413
这么	-8.40825
儿	-8.40933
制	-8.41042
十分	-8.41166
的方法	-8.41244
做了	-8.41289
员	-8.41312
获得	-8.414
总是	-8.41514
关系	-8.4156
身体	-8.4157
电影	-8.41671
我们可以	-8.41808
少	-8.41841
几	-8.42038
完成	-8.42313
罗	-8.4232
更加	-8.4256
自由	-8.42685
近	-8.42824
总	-8.42895
球	-8.42978
鱼	-8.43124
原因	-8.43329
买	-8.4342
回到	-8.43825
怎样	-8.44643
也许	-8.44648
女	-8.44867
挑战	-8.44899
资源	-8.44963
的时间	-8.45118
提	-8.45164
理	-8.45429
位	-8.45441
想法	-8.4554
有关	-8.45625
制作	-8.45799
的工作	-8.45814
难	-8.45993
处理	-8.46381
更多的	-8.46554
♫	-8.46563
比较	-8.46568
别人	-8.46636
T	-8.46912
演讲	-8.47127
战争	-8.47346
类	-8.47376
家庭	-8.47394
达	-8.47507
层	-8.47648
汽车	-8.48065
视频	-8.48212
模型	-8.48227
如	-8.48339
那样	-8.48366
▁以	-8.48668
都有	-8.48844
身上	-8.48872
管	-8.48895
当时	-8.48966
都会	-8.48985
空	-8.49055
生产	-8.4908
下来	-8.49133
我要	-8.49244
支持	-8.49313
有人	-8.49401
观察	-8.49645
干	-8.49656
寻找	-8.49698
▁去	-8.49764
▁当你	-8.49943
▁于是	-8.49952
二	-8.50173
机器	-8.50177
R	-8.50328
就能	-8.50418
主	-8.5051
读	-8.50537
有很多	-8.50603
年代	-8.50703
未来	-8.50714
▁但我	-8.50821
解	-8.50908
做出	-8.50927
病	-8.50966
曾经	-8.51004
看起来	-8.51098
能力	-8.51193
联系	-8.51197
便	-8.51246
我在	-8.51326
美元	-8.51509
台	-8.52005
▁也许	-8.5214
它的	-8.52194
拿	-8.52251
指	-8.52263
自我	-8.52554
D	-8.52624
▁同时	-8.52694
她们	-8.52725
住	-8.5278
为了	-8.52789
就可以	-8.53077
B	-8.53156
活	-8.53249
食物	-8.53326
▁实际上	-8.53442
药	-8.5351
服务	-8.53527
▁让我们	-8.53682
在一起	-8.53999
死亡	-8.54005
u	-8.54006
期	-8.54085
分享	-8.54149
你可以	-8.54265
维	-8.54429
阿	-8.54445
▁对于	-8.54475
▁甚至	-8.54663
一切	-8.54759
式	-8.54773
山	-8.54815
当然	-8.54873
显示	-8.54923
强	-8.5501
▁最后	-8.55065
并不是	-8.55101
机构	-8.55335
权	-8.55785
并且	-8.55838
这个问题	-8.55901
波	-8.55919
板	-8.55981
请	-8.56155
最终	-8.56157
P	-8.56185
简单	-8.56306
有个	-8.56408
超过	-8.56556
其它	-8.56636
以前	-8.56705
巴	-8.56784
好的	-8.57071
越	-8.57125
照	-8.5764
变成	-8.57674
▁让	-8.57743
的一个	-8.57755
才能	-8.57908
▁可以	-8.57912
孩子们	-8.57955
达到	-8.57993
情况	-8.58022
同时	-8.58114
选	-8.58428
▁与	-8.58457
er	-8.58512
是一种	-8.59125
找	-8.5913
男人	-8.59439
特别	-8.59458
历史	-8.59513
一条	-8.59529
并没有	-8.59634
离	-8.59819
▁这里	-8.59869
产品	-8.59901
区	-8.60054
计算机	-8.60212
应	-8.60333
材料	-8.60439
参与	-8.60511
往	-8.60592
创新	-8.60708
目标	-8.60907
▁用	-8.60952
假	-8.61018
些	-8.61062
记录	-8.61194
谁	-8.61284
见	-8.61352
病人	-8.61353
落	-8.61488
的想法	-8.61582
数字	-8.61726
声音	-8.61786
的孩子	-8.61934
代表	-8.61972
▁当我们	-8.62099
行动	-8.62123
▁为什么	-8.62214
测试	-8.62252
每个	-8.62414
乐	-8.62416
海洋	-8.62504
女人	-8.62512
玩	-8.62514
想到	-8.62522
▁那是	-8.62599
神	-8.62921
有点	-8.62936
是如何	-8.62978
纳	-8.6328
区域	-8.63341
亿	-8.63485
装	-8.63506
纸	-8.63533
▁我们需要	-8.63688
其中	-8.638
▁那就是	-8.64117
倍	-8.64175
一只	-8.64196
文	-8.64211
形	-8.6439
州	-8.64428
经历	-8.64495
金	-8.64641
步	-8.64655
分子	-8.64692
因	-8.64752
六	-8.64792
树	-8.64882
传	-8.64891
实验室	-8.64973
安	-8.65111
不断	-8.65299
建立	-8.65422
女孩	-8.65425
结构	-8.65451
则	-8.65718
当你	-8.65777
能源	-8.65781
仍然	-8.65834
工具	-8.65934
移动	-8.66106
有着	-8.66118
考虑	-8.66169
一定	-8.6624
笑	-8.66414
第一次	-8.6646
她的	-8.66566
哈	-8.66616
给我	-8.66688
千	-8.66796
科	-8.67113
t	-8.67266
谈论	-8.67434
巨大的	-8.67535
也有	-8.67573
所以	-8.67628
火	-8.67869
通	-8.67874
反	-8.679
跑	-8.68211
回答	-8.68236
试图	-8.6841
观众	-8.68449
时代	-8.68563
病毒	-8.68668
一年	-8.69189
投资	-8.6953
增长	-8.69563
中国	-8.69567
让人	-8.69688
至	-8.69822
合	-8.69896
用来	-8.70005
词	-8.70027
p	-8.70029
网	-8.70056
▁把	-8.70259
科学家	-8.70303
而且	-8.70318
几个	-8.70322
这就是	-8.70391
设备	-8.70552
机会	-8.70607
数学	-8.70608
▁关于	-8.70628
手机	-8.70728
谈	-8.70861
现实	-8.70967
告诉	-8.7098
▁将	-8.71022
实	-8.71123
基本	-8.71199
面对	-8.712
冰	-8.71216
保持	-8.71387
▁他说	-8.71405
理论	-8.7149
是因为	-8.71521
▁没有	-8.71671
”。	-8.71694
商	-8.71732
▁为了	-8.71765
八	-8.71793
植物	-8.71882
相当	-8.71976
I	-8.72035
等等	-8.72144
直接	-8.72236
同样的	-8.72267
具有	-8.72335
质	-8.7247
倒	-8.72645
准备	-8.72662
进化	-8.72713
基	-8.729
话	-8.73062
坐在	-8.73278
几乎	-8.73278
也会	-8.73324
星	-8.7333
世界上	-8.73386
大部分	-8.73424
拍	-8.73453
很难	-8.73558
反应	-8.73564
多少	-8.7357
工	-8.7368
造	-8.73771
里的	-8.738
告诉我	-8.74006
E	-8.741
▁其实	-8.74108
白	-8.74237
七	-8.74334
那种	-8.74475
媒体	-8.74496
平	-8.7455
早	-8.74585
带来	-8.74654
我认为	-8.7467
单	-8.74773
物种	-8.74785
计算	-8.74788
民主	-8.74816
的世界	-8.74863
音	-8.74911
探索	-8.74933
作品	-8.74942
到底	-8.74956
人口	-8.75054
么	-8.75104
满	-8.75121
形成	-8.75169
周	-8.75464
建造	-8.75466
儿童	-8.75515
分钟	-8.75526
照片	-8.75627
亚	-8.75672
奇	-8.75745
上面	-8.75897
脑	-8.76005
交流	-8.76015
调	-8.76021
医疗	-8.76091
都在	-8.76265
连	-8.76325
品	-8.7634
大约	-8.76852
药物	-8.77007
一张	-8.77061
应用	-8.77306
很好	-8.77387
▁今天	-8.77393
奥	-8.77415
约	-8.7756
管理	-8.77734
跳	-8.77853
意义	-8.77878
认识	-8.7801
事物	-8.78011
愿意	-8.78117
癌症	-8.78311
答案	-8.78331
油	-8.78426
业	-8.78572
要求	-8.78633
本身	-8.78702
团队	-8.78765
意识	-8.78929
站	-8.79039
战	-8.79094
事件	-8.79432
▁我在	-8.79493
石	-8.79535
首	-8.79642
发明	-8.79724
神经	-8.79895
船	-8.79951
功能	-8.80007
一天	-8.80407
推	-8.80462
的生活	-8.80522
放在	-8.80554
精	-8.80623
尽	-8.8069
交	-8.80745
明	-8.80786
受到	-8.80829
▁首先	-8.8102
看着	-8.81112
危险	-8.81187
▁或	-8.8119
排	-8.81214
▁再	-8.81238
字	-8.81259
持续	-8.81275
局	-8.81462
不可能	-8.8161
收	-8.81614
双	-8.81626
同样	-8.81677
萨	-8.81803
食	-8.81853
情	-8.81946
包括	-8.81958
▁而不是	-8.81958
每一个	-8.82118
分析	-8.82119
复杂	-8.82304
错误	-8.82308
血	-8.82399
知识	-8.82401
的一部分	-8.82411
件	-8.82421
欧洲	-8.82425
连接	-8.82473
公	-8.82531
不需要	-8.82577
原	-8.82586
▁因为我们	-8.82681
是我们	-8.82916
节	-8.82943
最大的	-8.83066
真正的	-8.83261
这样做	-8.83294
切	-8.83297
电话	-8.83357
英国	-8.83431
市	-8.8348
只能	-8.83508
」	-8.83519
商业	-8.83694
给你	-8.83972
脚	-8.83992
不要	-8.84038
结束	-8.8406
我们需要	-8.84068
样	-8.84129
夫	-8.84147
过程	-8.84452
游	-8.84491
温	-8.84582
互联网	-8.84605
经常	-8.84638
块	-8.84763
立	-8.84858
百	-8.84994
当我	-8.85002
军	-8.851
不再	-8.85117
开发	-8.85144
古	-8.85223
离开	-8.85234
...	-8.85239
一个人	-8.85268
建	-8.85423
表	-8.8548
▁我们在	-8.85503
b	-8.85565
肯定	-8.85622
主要	-8.85657
人的	-8.85671
▁因为我	-8.85966
老师	-8.86016
也可以	-8.86186
的国家	-8.86199
▁我说	-8.86341
根	-8.86382
一项	-8.86464
k	-8.86464
大概	-8.86535
价值	-8.86544
象	-8.8657
的人们	-8.86604
第一个	-8.86657
▁要	-8.86725
最好的	-8.86876
弹	-8.86886
黑	-8.87023
an	-8.87074
表达	-8.87325
其他人	-8.87385
视	-8.87412
飞机	-8.87474
共同	-8.87481
张	-8.87736
有了	-8.87744
你知道	-8.87857
预测	-8.87865
可能会	-8.87874
DNA	-8.88025
型	-8.88085
现象	-8.88393
▁像	-8.8843
实际	-8.88506
的声音	-8.88621
全世界	-8.88631
▁虽然	-8.88716
en	-8.88721
事实上	-8.88821
室	-8.88877
G	-8.89046
会有	-8.89233
接	-8.8938
世	-8.89421
例子	-8.8945
一般	-8.89462
兰	-8.89515
狗	-8.89685
传统	-8.89904
有什么	-8.8996
明白	-8.90012
告诉你	-8.90037
在那里	-8.90063
这么做	-8.90077
换	-8.90314
另一	-8.90474
程度	-8.90515
我们在	-8.90608
看到的	-8.90681
色	-8.90704
r	-8.90865
上帝	-8.91033
一场	-8.91182
算	-8.91224
收入	-8.91236
称	-8.91284
源	-8.91342
每天	-8.9135
关键	-8.91453
精神	-8.91496
以后	-8.91568
常	-8.91581
快乐	-8.91636
增加	-8.91743
让你	-8.9176
n	-8.91788
超	-8.91789
草	-8.9187
论	-8.91939
▁你会	-8.9198
d	-8.91982
一段	-8.91989
▁我觉得	-8.92144
物质	-8.92161
的原因	-8.92234
电视	-8.92582
代	-8.92596
经过	-8.92661
拍摄	-8.92747
体验	-8.92947
发生在	-8.92956
的数据	-8.92995
组	-8.93078
迪	-8.93263
传播	-8.93269
▁也就是	-8.93319
不想	-8.9336
界	-8.93486
小时	-8.93533
红	-8.93771
▁尽管	-8.93845
来到	-8.93889
手术	-8.94159
表现	-8.94383
三个	-8.94443
的信息	-8.9452
石油	-8.94678
河	-8.94805
on	-8.94871
网站	-8.95095
更好的	-8.95097
▁最	-8.95201
英里	-8.95279
发生了	-8.95288
道德	-8.95447
如果我们	-8.95448
南	-8.95567
医院	-8.95726
未	-8.95763
核	-8.95822
▁但我们	-8.95948
法律	-8.95995
出了	-8.96119
您	-8.96256
费	-8.96383
院	-8.96431
派	-8.96446
刚刚	-8.96478
软件	-8.96619
提高	-8.96778
生活在	-8.96789
的确	-8.96814
改变了	-8.96831
▁直到	-8.96845
信号	-8.97017
知	-8.97025
牛	-8.97139
而言	-8.97237
暴力	-8.97337
某种	-8.97359
零	-8.97498
似乎	-8.97521
不仅	-8.976
做什么	-8.97664
某些	-8.9772
减少	-8.97734
描述	-8.97878
有一些	-8.9788
困难	-8.97909
in	-8.97989
这一点	-8.98016
伊	-8.98057
说明	-8.98084
试着	-8.98184
失	-8.98348
证明	-8.9839
夜	-8.98414
国际	-8.9843
很重要	-8.9846
的小	-8.98495
救	-8.98598
平均	-8.98617
卖	-8.98654
真是	-8.98703
调查	-8.98805
压	-8.98915
然	-8.98934
告诉我们	-8.99004
的研究	-8.99179
穿	-8.99242
言	-8.99251
▁会	-8.99353
皮	-8.99673
共	-8.99844
队	-8.99876
充满	-9.0002
作用	-9.00085
靠	-9.00188
O	-9.002
阶段	-9.00455
群	-9.00473
看见	-9.00545
的照片	-9.00625
收集	-9.00654
过来	-9.00694
我会	-9.00776
突然	-9.00801
ar	-9.00913
N	-9.0092
现代	-9.01214
是由	-9.01217
值	-9.01283
▁—	-9.01374
记	-9.01387
▁例如	-9.01429
坏	-9.01435
亲	-9.01464
试	-9.01477
▁♪	-9.01606
生存	-9.01611
就在	-9.01637
真实	-9.01647
产	-9.01694
▁B	-9.01696
标准	-9.01772
会说	-9.01788
值得	-9.02056
▁不	-9.02129
某个	-9.02244
全部	-9.02248
士	-9.02335
新闻	-9.02388
那是	-9.02451
很快	-9.02454
主义	-9.02584
▁我要	-9.02584
回来	-9.02687
毛	-9.02716
第一	-9.02717
电子	-9.02798
腿	-9.02907
担心	-9.02971
木	-9.03063
森林	-9.03107
结	-9.03221
当我们	-9.03403
送	-9.03455
级	-9.03646
训练	-9.03674
修	-9.03813
姆	-9.03865
力量	-9.03918
永远	-9.03928
程序	-9.0395
提出	-9.03965
地图	-9.04013
带着	-9.04021
课	-9.04043
退	-9.04055
发现了	-9.04082
完	-9.04145
对吧	-9.04185
▁我知道	-9.04363
差	-9.04408
▁大家	-9.04426
因素	-9.04459
圈	-9.04557
很多人	-9.0462
到达	-9.04662
▁它是	-9.04814
▁你知道	-9.04836
雷	-9.05005
塔	-9.05031
▁不是	-9.05036
专家	-9.05067
年的	-9.05208
失败	-9.05229
坐	-9.05231
每个人	-9.05383
下去	-9.05507
灯	-9.05564
太阳	-9.0557
水平	-9.05589
通常	-9.0562
虫	-9.0601
绿色	-9.06025
一家	-9.06034
表演	-9.06183
没有人	-9.06184
笔	-9.06207
妇女	-9.06213
各	-9.06423
打开	-9.06438
自身	-9.06467
查	-9.06491
之间的	-9.06507
重要的	-9.06665
成了	-9.06764
住在	-9.06812
断	-9.06834
站在	-9.06878
意味着	-9.07065
用于	-9.07111
按	-9.07181
K	-9.07191
第	-9.07342
根本	-9.07342
恐惧	-9.074
大的	-9.07454
房子	-9.07471
岛	-9.0749
▁所有	-9.07556
瓦	-9.076
政策	-9.07602
▁其中	-9.07734
形式	-9.08046
发生的	-9.08046
定义	-9.08097
公共	-9.08188
▁比	-9.08189
盘	-9.082
的能力	-9.08214
一半	-9.08218
关	-9.08228
时期	-9.08234
微	-9.08319
学家	-9.08326
轮	-9.08402
假设	-9.08411
图像	-9.08484
存	-9.08498
经	-9.08567
的影响	-9.08586
托	-9.08606
一件	-9.08644
导致	-9.08705
小孩	-9.08744
绝对	-9.08766
杀	-9.08778
记忆	-9.08809
看到了	-9.09134
类似	-9.09219
▁但是我	-9.0922
做到	-9.09226
不用	-9.09245
▁S	-9.09261
c	-9.09335
在这个	-9.09388
开放	-9.09553
方向	-9.09556
我就	-9.09556
沙	-9.09618
▁让我	-9.09622
▁然后我	-9.09627
视觉	-9.09632
▁结果	-9.09698
还要	-9.09726
我觉得	-9.09772
土地	-9.09815
运作	-9.09854
把它们	-9.09894
数量	-9.09982
林	-9.10002
的例子	-9.10035
运用	-9.10176
了很多	-9.10194
以为	-9.10216
宗教	-9.10245
或许	-9.10246
较	-9.10255
H	-9.10343
来看	-9.10398
表面	-9.10528
大量的	-9.10572
肉	-9.10622
▁接着	-9.10637
图片	-9.10649
个月	-9.10655
越来越	-9.10737
的情况	-9.10866
去做	-9.11081
▁即使	-9.11219
哪里	-9.11287
危机	-9.11486
足够	-9.11491
报	-9.11532
骨	-9.11563
座	-9.11626
东	-9.11666
占	-9.1167
待	-9.11792
时候	-9.11798
端	-9.11849
幸福	-9.11908
当地	-9.11965
普	-9.12059
▁或是	-9.12091
▁但这	-9.12102
求	-9.1223
化学	-9.12273
击	-9.12297
这次	-9.12303
的结果	-9.12321
养	-9.12335
集	-9.12398
人民	-9.12449
曼	-9.12514
丝	-9.12515
▁被	-9.12646
是不是	-9.12757
男性	-9.12833
会议	-9.12892
和我	-9.12896
妈妈	-9.12983
加入	-9.13125
的行为	-9.13148
我们要	-9.13159
举	-9.13205
可以看到	-9.13295
目前	-9.13348
▁在我	-9.13358
患者	-9.13468
母亲	-9.13577
▁我会	-9.13612
▁只有	-9.1362
空气	-9.13631
至少	-9.13688
▁-	-9.13748
恩	-9.13766
翻	-9.13791
对此	-9.13927
异	-9.13944
伤	-9.14085
鼓掌	-9.14167
在一个	-9.1423
参加	-9.14302
注意	-9.14311
企业	-9.14377
▁每	-9.14477
变成了	-9.14528
几年	-9.14571
你在	-9.14594
▁"	-9.14615
细菌	-9.14655
现	-9.14675
飞行	-9.14681
有可能	-9.14783
仍	-9.14843
距离	-9.14868
投	-9.14956
得到了	-9.15016
每个人都	-9.15105
能量	-9.15329
射	-9.15334
压力	-9.15354
弄	-9.15455
进步	-9.1561
它是	-9.15652
▁这是我	-9.15706
绝	-9.15743
周围	-9.15917
哪	-9.1593
也没有	-9.15955
不错	-9.16076
相互	-9.16089
出生	-9.16302
年轻	-9.16347
每年	-9.16368
顿	-9.1637
创作	-9.16523
冷	-9.16561
中间	-9.16643
标	-9.16658
权利	-9.16716
动作	-9.16722
的力量	-9.16832
聪明	-9.16873
想想	-9.16893
速度	-9.16921
遇到	-9.16946
▁还是	-9.16978
牌	-9.17025
我们所	-9.17122
感兴趣	-9.1734
给我们	-9.17387
九	-9.17468
比如	-9.17474
塞	-9.17482
当中	-9.17641
花了	-9.17691
症	-9.17735
套	-9.17794
仅仅	-9.17822
短	-9.17841
不到	-9.1785
▁但是我们	-9.17915
试验	-9.17937
某	-9.18306
百万	-9.18447
之中	-9.18455
艺术家	-9.18524
大量	-9.18541
▁能够	-9.18546
你会	-9.18739
藏	-9.18798
感染	-9.18825
最近	-9.18834
规则	-9.18867
基础	-9.18976
▁还	-9.18988
革命	-9.19033
颜色	-9.19042
还没有	-9.19059
简单的	-9.19062
角	-9.19083
出来的	-9.19267
晚	-9.19288
服	-9.19307
▁当时	-9.19353
例	-9.19373
在于	-9.19385
「	-9.19427
这是一个	-9.19536
▁然后我们	-9.19626
大多数	-9.19705
▁好	-9.19712
称之为	-9.19717
美国人	-9.1983
迷	-9.19849
种族	-9.19893
让他们	-9.19924
所做的	-9.20124
婴儿	-9.20171
F	-9.20277
从未	-9.20304
领	-9.20313
最重要的	-9.20336
境	-9.20348
华	-9.20397
智慧	-9.20397
监狱	-9.20398
投入	-9.20429
或是	-9.20555
花费	-9.20575
团	-9.20769
复杂的	-9.20831
兴奋	-9.20875
伦	-9.21059
清	-9.21114
▁如果我	-9.21117
这个世界	-9.21188
发出	-9.21238
搞	-9.21285
那时	-9.21387
其他的	-9.2139
并非	-9.21602
关心	-9.21618
h	-9.21632
父母	-9.2172
正常	-9.21871
这一切	-9.21888
证	-9.21914
l	-9.22048
运	-9.22067
年轻人	-9.22106
土	-9.22225
状况	-9.22236
效	-9.22343
预	-9.22358
英尺	-9.22375
成长	-9.2254
也不	-9.22666
我们能	-9.2269
建议	-9.22707
注意到	-9.2279
直	-9.22833
处于	-9.22876
▁因为他们	-9.22897
体系	-9.22922
装置	-9.22946
......	-9.22953
错	-9.2297
威胁	-9.23165
吉	-9.23165
内容	-9.23204
时刻	-9.23272
房	-9.23342
列	-9.23348
贴	-9.23399
彼此	-9.23401
谢谢	-9.23419
一份	-9.23594
艾	-9.2361
是关于	-9.23626
•	-9.23634
更好	-9.23677
▁请	-9.23729
鸟	-9.23849
洗	-9.23869
了这个	-9.24039
▁我们必须	-9.24158
L	-9.24257
警	-9.24332
责任	-9.24337
密	-9.24461
公民	-9.24593
▁她们	-9.24635
包	-9.24642
师	-9.24732
晚上	-9.24771
哦	-9.24796
毒	-9.24858
工程	-9.24943
▁更	-9.24965
北	-9.25041
墙	-9.25103
告诉你们	-9.25182
唯一	-9.25192
▁第一	-9.25213
酒	-9.25238
观	-9.25251
使得	-9.25256
百分之	-9.25267
纽约	-9.25508
▁却	-9.25527
情绪	-9.25535
第二	-9.25538
这儿	-9.25587
表示	-9.25597
和平	-9.25603
状态	-9.25645
吸引	-9.25729
保	-9.25885
诺	-9.26
给他们	-9.26046
相关	-9.26148
除	-9.26172
犯	-9.26173
可能是	-9.26209
人生	-9.26421
一块	-9.2648
降低	-9.26509
测量	-9.26515
我说	-9.26677
▁M	-9.26687
慢	-9.26713
痛苦	-9.26755
仅	-9.26948
洛	-9.2698
顶	-9.27052
改	-9.27075
是为了	-9.27101
总统	-9.27229
▁我也	-9.27419
森	-9.27456
勒	-9.27467
▁只要	-9.27581
贝	-9.27625
表明	-9.27803
思想	-9.27859
有效	-9.27931
盖	-9.2795
专业	-9.28014
记得	-9.28031
梦想	-9.28037
再次	-9.28053
容易	-9.28059
不得不	-9.28145
怎么样	-9.28179
乱	-9.28189
▁这是个	-9.28243
概念	-9.28301
内部	-9.28303
城	-9.28326
我们就	-9.28344
因此	-9.28489
具	-9.28493
▁作为	-9.28503
▁我希望	-9.28504
升	-9.28582
▁看看	-9.28695
挺	-9.28695
人员	-9.28783
刚	-9.28806
对话	-9.28815
在我	-9.28878
喝	-9.28943
其中的	-9.29003
还在	-9.29027
他人	-9.29077
一件事	-9.29084
背	-9.29088
行星	-9.29133
没有任何	-9.29192
塑料	-9.29192
▁于是我	-9.29221
好像	-9.29254
感谢	-9.2926
f	-9.29421
洞	-9.29423
差不多	-9.2944
相似	-9.29455
家伙	-9.29511
有趣	-9.29522
的观点	-9.29608
过的	-9.29632
下面	-9.29641
巨大	-9.29764
才是	-9.29887
互动	-9.29938
首先	-9.30019
男孩	-9.30027
▁正如	-9.30055
我自己	-9.30089
是我	-9.3009
成为了	-9.30098
▁我们也	-9.30121
大小	-9.30139
▁我们要	-9.30141
▁而我	-9.30175
旧	-9.30175
不仅仅是	-9.30178
不可	-9.3019
看上去	-9.30198
▁为	-9.30226
属于	-9.30229
各位	-9.30238
份	-9.3024
物体	-9.30305
儿子	-9.30394
民	-9.30488
讲述	-9.30534
去了	-9.30604
停	-9.30653
▁最终	-9.30683
冲突	-9.30696
确定	-9.30801
我也	-9.30805
这些人	-9.30852
见过	-9.30896
基本上	-9.30905
友	-9.30939
互相	-9.31063
范围	-9.31151
介绍	-9.31152
整	-9.31161
风险	-9.31268
资金	-9.31276
项	-9.31371
致	-9.31397
▁接下来	-9.31416
害怕	-9.31455
独立	-9.31462
只要	-9.31496
生长	-9.31594
清楚	-9.31685
长大	-9.31693
积极	-9.3172
见到	-9.31732
下降	-9.31863
我是	-9.31901
这件事	-9.31939
▁美国	-9.31964
都能	-9.32
富	-9.32013
设计师	-9.32047
快速	-9.32053
成本	-9.32139
右	-9.32187
这条	-9.32281
▁第二	-9.3241
初	-9.32418
or	-9.32507
底	-9.32527
▁后来	-9.32723
菜	-9.32731
圣	-9.32781
▁好吧	-9.32811
蓝色	-9.3309
这个项目	-9.33155
地球上	-9.33164
减	-9.33203
有一天	-9.33223
保证	-9.33258
▁能	-9.33348
而不是	-9.33408
架	-9.33466
糖	-9.33506
简	-9.33523
▁我们现在	-9.33545
破	-9.33653
是从	-9.33695
的社会	-9.33733
价格	-9.33743
父亲	-9.33748
面临	-9.33757
m	-9.33826
所在	-9.33862
伟大的	-9.33916
接触	-9.33999
来自于	-9.34006
收到	-9.34069
re	-9.34152
轻	-9.34207
▁J	-9.34251
且	-9.34255
▁在这个	-9.34277
奖	-9.34288
群体	-9.34338
十年	-9.34498
▁就在	-9.34522
停止	-9.34568
在这	-9.34576
早期	-9.34585
说过	-9.34591
了一些	-9.34625
枪	-9.34754
运行	-9.34799
状	-9.34802
发表	-9.34839
接近	-9.34846
找到了	-9.34856
我知道	-9.34911
集中	-9.34921
班	-9.34927
你能	-9.34986
▁可能	-9.35005
质量	-9.35057
J	-9.35092
在美国	-9.35104
阅读	-9.35352
太空	-9.35429
亮	-9.35447
赛	-9.3548
我们有	-9.35507
生活中	-9.35519
营	-9.35558
气候	-9.35594
操作	-9.35622
限制	-9.35696
索	-9.35752
的名字	-9.35873
适应	-9.35878
是怎么	-9.35902
效果	-9.35953
爬	-9.36135
一部分	-9.3614
相反	-9.36148
我所	-9.36277
味	-9.36295
西方	-9.36368
星球	-9.36376
杂志	-9.36405
▁而这	-9.36447
糟糕	-9.36448
这类	-9.36458
▁我们就	-9.36466
▁因为它	-9.36493
回家	-9.36545
何	-9.36547
规模	-9.36561
计	-9.36584
▁A	-9.36591
al	-9.36688
物理	-9.36811
这些东西	-9.36817
秒	-9.36874
职	-9.36897
警察	-9.3694
广告	-9.36942
严重	-9.36964
观点	-9.36967
世界的	-9.36997
很大	-9.37032
眼睛	-9.37162
足	-9.37167
太多	-9.37184
证据	-9.37212
▁我们有	-9.37243
允许	-9.37284
任务	-9.37355
根据	-9.37361
左	-9.37374
▁我可以	-9.37396
逐渐	-9.37476
邀请	-9.37477
神经元	-9.37487
的过程	-9.37527
莱	-9.37563
可以在	-9.37572
明显	-9.37614
出去	-9.37719
▁包括	-9.37747
行业	-9.3798
店	-9.3799
引起	-9.38232
是怎样	-9.38248
王	-9.38266
火星	-9.38321
工业	-9.38349
不一样	-9.38363
阻止	-9.38563
房间	-9.38575
剧	-9.38597
看待	-9.3879
叶	-9.38834
模拟	-9.38835
的感觉	-9.38837
复	-9.38871
说话	-9.39064
猎	-9.39108
四个	-9.39176
仅仅是	-9.39258
和其他	-9.3934
▁现在我们	-9.39341
后来	-9.39368
▁另外	-9.39455
害	-9.3948
命	-9.39483
是非常	-9.39523
蓝	-9.39551
价	-9.39601
偏	-9.39616
教授	-9.39662
背景	-9.39665
课程	-9.39668
红色	-9.3968
年龄	-9.39698
福	-9.39768
都可以	-9.39875
▁如何	-9.39906
剂	-9.39934
一名	-9.4003
我们现在	-9.40086
料	-9.40141
什么是	-9.40198
沉	-9.40204
云	-9.40211
▁有些	-9.40215
办公室	-9.4022
利益	-9.4023
人类的	-9.40237
破坏	-9.40264
思维	-9.40272
帮	-9.40331
接下来	-9.40407
我们必须	-9.4046
痛	-9.40467
猫	-9.40489
这位	-9.40541
诗	-9.40558
素	-9.40658
的新	-9.40662
医学	-9.40709
▁或许	-9.40725
理由	-9.40835
w	-9.40854
让它	-9.40994
紧	-9.41
基于	-9.41085
▁即	-9.41195
正确	-9.41315
竞争	-9.41327
登	-9.41381
有趣的	-9.41404
即使	-9.41411
是谁	-9.41482
转变	-9.41506
把这些	-9.41519
引	-9.41566
防	-9.41587
蜂	-9.41605
财富	-9.4161
呼吸	-9.41615
旅行	-9.41618
老鼠	-9.41623
▁这是我们	-9.41648
留	-9.41706
▁都是	-9.42014
没人	-9.42084
护	-9.42099
博物馆	-9.42172
导	-9.42315
配	-9.42373
置	-9.42385
成员	-9.424
拯救	-9.42455
的样子	-9.4253
角度	-9.42551
街	-9.42589
ra	-9.42605
心理	-9.42605
速	-9.4262
的大脑	-9.42729
弱	-9.42738
同意	-9.42742
相比	-9.42862
组成	-9.42863
款	-9.42954
额	-9.42982
认知	-9.43033
银行	-9.43126
造成	-9.43198
上了	-9.43231
▁而我们	-9.43233
鲁	-9.43284
负责	-9.43306
习惯	-9.43311
失去	-9.4335
温度	-9.43388
过程中	-9.43538
条件	-9.43538
环	-9.43556
疫苗	-9.43597
搜索	-9.43598
这张	-9.43703
最好	-9.43798
是很	-9.43867
结论	-9.43904
真实的	-9.43915
提到	-9.43935
我可以	-9.43982
任何人	-9.44082
▁从而	-9.44094
方案	-9.44163
恢复	-9.44172
另外	-9.4425
部门	-9.44257
的目标	-9.44314
自动	-9.44341
冲	-9.44398
X	-9.44461
仔细	-9.44463
犯罪	-9.44469
工程师	-9.44473
▁如今	-9.44499
面前	-9.44585
楼	-9.44632
另外一个	-9.44654
负	-9.44693
情感	-9.44725
录	-9.44886
能看到	-9.44905
留下	-9.44907
公开	-9.44961
响	-9.45016
平衡	-9.45061
好吧	-9.45089
放到	-9.45099
任	-9.45252
下一个	-9.45284
隔	-9.45309
▁一种	-9.4531
随着	-9.45314
蒂	-9.45333
针对	-9.45412
碳	-9.45467
是这样	-9.45475
家人	-9.45608
差异	-9.45642
▁谢谢	-9.45876
内心	-9.45899
身边	-9.46007
常常	-9.46035
相同的	-9.46107
▁人类	-9.46124
问题是	-9.46164
鼓励	-9.46213
▁已经	-9.46279
消失	-9.46347
就有	-9.46402
ri	-9.46443
散	-9.46449
这样一个	-9.46452
今年	-9.46524
的设计	-9.46544
非常重要	-9.46569
感受	-9.46569
享受	-9.46621
经验	-9.46652
一边	-9.46679
生命的	-9.46705
的机会	-9.46793
啦	-9.46804
放弃	-9.46817
报道	-9.46842
细	-9.46844
el	-9.46858
▁比如说	-9.46887
对我们	-9.46893
上升	-9.46901
会被	-9.46915
势	-9.47025
菌	-9.47078
改善	-9.47107
人群	-9.47153
文字	-9.47194
灵	-9.473
龙	-9.47396
z	-9.47398
也能	-9.47413
英语	-9.47426
像这样	-9.47542
它们的	-9.47575
大型	-9.47619
粉	-9.47653
圆	-9.47679
由于	-9.4769
付	-9.47727
▁我们会	-9.47838
所谓的	-9.47956
聚	-9.47966
固	-9.47971
其实是	-9.48049
星期	-9.48106
我们能够	-9.48122
我们自己	-9.48166
情况下	-9.48189
若	-9.48297
有多	-9.48326
结合	-9.48343
建设	-9.48351
权力	-9.48421
日本	-9.48424
▁这就	-9.48477
不太	-9.48515
未来的	-9.48557
演	-9.48558
给予	-9.4861
循环	-9.4862
在哪里	-9.48624
这项	-9.48627
果	-9.48734
一些人	-9.48738
你要	-9.48755
吸	-9.48799
▁P	-9.48881
星系	-9.48903
一个小	-9.4895
牙	-9.49201
文明	-9.49238
交通	-9.49267
公园	-9.49275
找出	-9.49321
觉	-9.49481
睡	-9.49498
V	-9.49507
即	-9.49508
诊断	-9.49511
而是	-9.49586
这段	-9.49622
他说	-9.4963
我们已经	-9.49632
歌	-9.49634
!”	-9.49678
正是	-9.49724
一群	-9.49733
噢	-9.49812
承认	-9.49813
编	-9.49847
打算	-9.49886
▁他们会	-9.4996
控	-9.50043
演奏	-9.5012
▁只是	-9.50123
▁也是	-9.50169
女儿	-9.50181
的学生	-9.50198
卫星	-9.50221
幸运	-9.50249
取得	-9.50308
一台	-9.50353
麦	-9.50392
妻子	-9.50431
原始	-9.50431
发生了什么	-9.50512
▁同样	-9.50598
一直在	-9.50644
的生命	-9.50664
告	-9.50701
同事	-9.50716
蚂蚁	-9.50732
谷歌	-9.50736
▁一些	-9.50749
成果	-9.50785
终于	-9.50811
来了	-9.50872
原子	-9.50898
我们对	-9.50973
做过	-9.51038
阿富汗	-9.51041
学院	-9.51047
所有人	-9.51234
领导	-9.51307
贫困	-9.51351
的技术	-9.51361
食品	-9.51382
设计的	-9.51491
亿美元	-9.51507
对待	-9.51567
急	-9.51644
作为一个	-9.51699
给你们	-9.51713
个体	-9.51734
化的	-9.51772
▁我相信	-9.51829
▁除了	-9.51941
贫穷	-9.51974
还能	-9.51979
显然	-9.52039
很有	-9.52074
客	-9.5213
别的	-9.52226
称为	-9.52243
易	-9.52254
熟悉	-9.52286
终	-9.52294
交易	-9.523
很容易	-9.52413
检测	-9.52486
一片	-9.52576
报告	-9.5261
在那	-9.52731
面包	-9.5276
先生	-9.52773
▁我们发现	-9.52781
成功的	-9.52873
▁每个	-9.5289
污染	-9.52914
母	-9.52981
▁我们知道	-9.53035
观念	-9.53059
▁我们已经	-9.53075
▁我们将	-9.53098
久	-9.5311
助	-9.53124
博士	-9.53239
是这样的	-9.53366
体内	-9.53383
必要	-9.53416
小的	-9.53474
重复	-9.53587
巴西	-9.53605
难以	-9.5361
比赛	-9.53633
各个	-9.53776
▁T	-9.53811
▁使	-9.53811
折	-9.53837
信任	-9.53891
谈谈	-9.539
具体	-9.5392
的作品	-9.53921
做的事情	-9.53926
把他们	-9.53929
像是	-9.5394
▁G	-9.54003
影	-9.54016
th	-9.54181
长期	-9.54338
大家都	-9.54339
衣	-9.5449
义	-9.54521
气候变化	-9.54527
不只是	-9.54579
过了	-9.54582
at	-9.54599
办法	-9.54607
专	-9.54618
原则	-9.54636
▁那个	-9.54648
▁无论	-9.5474
障碍	-9.54821
在我们	-9.54826
版	-9.54942
▁我们还	-9.55017
暴	-9.55053
巨	-9.55069
的所有	-9.55071
也就是	-9.55113
坚持	-9.55146
确保	-9.55147
创建	-9.5515
好处	-9.55193
直到	-9.55225
左右	-9.55237
▁这不是	-9.55248
▁我就	-9.55376
可以用	-9.5541
思	-9.55441
▁C	-9.55498
之外	-9.55529
唱	-9.55534
位置	-9.55547
创造了	-9.55565
这张照片	-9.5557
之所以	-9.55607
针	-9.55701
这两个	-9.55762
呼	-9.55764
矿	-9.55788
咖啡	-9.55788
给大家	-9.5583
段	-9.55833
一个问题	-9.55839
一步	-9.55891
的概念	-9.55897
不管	-9.55905
件事	-9.55996
第三	-9.56003
▁D	-9.56015
脸	-9.56053
杰	-9.56061
动力	-9.56123
的位置	-9.56151
究竟	-9.56185
闻	-9.56349
愿	-9.56366
宝	-9.56415
避免	-9.56431
消耗	-9.56442
一系列	-9.5647
这些问题	-9.56523
▁之后	-9.56538
▁目前	-9.5654
▁可是	-9.56616
使我们	-9.56626
重大	-9.56672
位于	-9.5668
怀	-9.56703
器官	-9.56787
制度	-9.56824
理想	-9.56828
曲	-9.56842
那儿	-9.56892
区别	-9.56948
完美	-9.56975
一代	-9.56976
增	-9.5698
后面	-9.57002
只需要	-9.57075
信仰	-9.57089
补	-9.57089
程	-9.5709
这个故事	-9.572
目	-9.57324
]	-9.57422
喷	-9.57422
元素	-9.5743
创意	-9.57438
的关系	-9.57442
最初	-9.57444
▁很多	-9.57448
不仅仅	-9.57461
工厂	-9.57469
一百	-9.57482
▁我不知道	-9.57586
很少	-9.5769
采用	-9.57694
的速度	-9.57805
▁尤其是	-9.57811
的发展	-9.57841
▁H	-9.57899
岁的	-9.58006
肿瘤	-9.58084
超级	-9.58107
▁那时	-9.58135
比例	-9.58195
所说的	-9.58207
的朋友	-9.58249
生活的	-9.58299
的变化	-9.58323
印	-9.58324
这个词	-9.5846
个小时	-9.58463
刻	-9.58514
复制	-9.58524
反对	-9.58552
▁我们都	-9.58568
望	-9.58659
把我	-9.58678
蒙	-9.58703
用户	-9.58718
归	-9.58718
有所	-9.58729
▁你可以看到	-9.58732
年里	-9.58734
而已	-9.5874
需求	-9.58816
那天	-9.58885
女士	-9.59049
呆	-9.59084
展现	-9.59097
正确的	-9.59186
的城市	-9.59229
我能	-9.5924
想知道	-9.59262
生物学	-9.59268
出现了	-9.59355
名字	-9.59356
▁由	-9.59365
意思	-9.59402
宽	-9.59419
援助	-9.59421
漫画	-9.59445
左边	-9.59447
令	-9.59578
去年	-9.59698
章	-9.59723
满足	-9.59776
▁或者是	-9.59788
创造力	-9.59859
不喜欢	-9.59888
脱	-9.59914
之处	-9.59952
产生的	-9.59979
对我	-9.60001
从事	-9.60046
记者	-9.60093
贡献	-9.60094
相对	-9.60099
农业	-9.60106
附近	-9.6011
细节	-9.6011
存在于	-9.60117
也不是	-9.60131
事业	-9.60191
早上	-9.60225
瓶	-9.60349
的项目	-9.60362
借	-9.60395
很简单	-9.60409
昆虫	-9.60434
it	-9.60456
走进	-9.60511
恶	-9.60641
元	-9.60688
香	-9.6077
es	-9.60802
往往	-9.60823
你自己	-9.60826
得多	-9.60874
得以	-9.60885
来的	-9.61005
人物	-9.6102
年后	-9.61104
英雄	-9.61116
变革	-9.6112
职业	-9.61132
在此	-9.61168
▁这意味着	-9.61296
居住	-9.6135
码	-9.61386
世界各地	-9.61434
卷	-9.61457
赶	-9.61457
准确	-9.6146
大多数人	-9.61508
成就	-9.61518
我不	-9.61555
le	-9.61581
联	-9.61619
供	-9.6166
猜	-9.61669
的未来	-9.617
贵	-9.61793
惊讶	-9.61795
怪	-9.61865
背后	-9.61933
我们都	-9.62009
让人们	-9.6202
潜	-9.62124
穿过	-9.6214
▁我开始	-9.62218
神奇	-9.62226
沟通	-9.62255
这么多	-9.62304
g	-9.62402
右边	-9.62432
如今	-9.62452
既	-9.62479
皮肤	-9.62492
约翰	-9.62492
获取	-9.62532
问我	-9.62596
德国	-9.62642
一开始	-9.62695
很好的	-9.62707
哪些	-9.62734
道路	-9.62744
生态	-9.62747
欧	-9.62834
伦敦	-9.6284
追求	-9.62844
文章	-9.62851
野	-9.63002
得出	-9.63047
高度	-9.63095
很明显	-9.6314
舞	-9.63143
联合国	-9.63205
钟	-9.63217
我们应该	-9.63224
把这个	-9.63308
我们如何	-9.63348
静	-9.63417
箱	-9.63433
平台	-9.63506
微生物	-9.63527
都不	-9.6353
资料	-9.63543
依然	-9.63544
如果我	-9.63565
还可以	-9.63604
几个月	-9.63645
刚才	-9.63692
另一种	-9.63811
不过	-9.63826
杂	-9.63875
攻击	-9.63892
密码	-9.63897
团体	-9.63957
戴	-9.63969
深入	-9.6399
目的	-9.64007
一部	-9.64091
普通	-9.64193
的身体	-9.64264
持	-9.64359
这只	-9.64441
我们会	-9.64548
ch	-9.6455
慢慢	-9.64607
伤害	-9.64612
学会	-9.64646
释放	-9.64682
▁于是我们	-9.64825
性别	-9.64886
居	-9.64888
备	-9.64907
滑	-9.64921
蛋白质	-9.64954
的部分	-9.64977
园	-9.65101
几年前	-9.65155
主意	-9.65246
▁第一个	-9.6529
玛	-9.65295
雪	-9.65297
耳	-9.65302
激励	-9.65303
恐龙	-9.65306
秘密	-9.65308
购买	-9.65328
范围内	-9.65376
嗯	-9.65415
ro	-9.65437
的经历	-9.65448
形状	-9.65487
就这样	-9.65528
雨	-9.65556
除了	-9.65584
▁现在我	-9.65627
够	-9.65657
x	-9.6566
普遍	-9.65669
兴趣	-9.65697
帮助我们	-9.65708
是最	-9.65878
就是这样	-9.65905
听起来	-9.65942
博	-9.65988
感觉到	-9.65997
你想	-9.66003
闪	-9.66019
检查	-9.66023
现场	-9.66035
有没有	-9.66207
床	-9.66304
最大	-9.66403
就开始	-9.66412
会在	-9.66438
触	-9.66495
有些人	-9.665
▁也就是说	-9.66502
这些数据	-9.66549
你就	-9.66588
有多少	-9.66597
好了	-9.66598
缩	-9.66618
广	-9.66662
记住	-9.66708
碎	-9.66715
省	-9.66725
▁正是	-9.66725
途径	-9.66741
彻底	-9.66742
谈到	-9.66789
都没有	-9.66872
这场	-9.6695
也不会	-9.66989
围	-9.67054
很有趣	-9.67077
迅速	-9.67103
培养	-9.67105
蜜蜂	-9.67105
灭绝	-9.67107
展	-9.67176
员工	-9.67231
▁那里	-9.67266
很小	-9.67275
治	-9.67322
▁其	-9.67358
▁不管	-9.67398
劳	-9.67415
丽	-9.67432
▁可	-9.6745
法国	-9.67473
▁在我们	-9.67494
两年	-9.67524
心脏	-9.6764
容	-9.67657
将其	-9.6766
基因组	-9.67709
载	-9.67717
模	-9.67764
灾难	-9.67841
说法	-9.67846
卫生	-9.6785
▁又	-9.67901
男	-9.67914
一切都	-9.68031
▁你就	-9.68141
没有什么	-9.68154
旁边	-9.68213
万人	-9.68219
特征	-9.68228
粒子	-9.68239
不好	-9.68267
原理	-9.68279
感受到	-9.68303
太阳能	-9.68324
因为我	-9.68396
千万	-9.68448
一致	-9.6846
暗	-9.68519
废	-9.68533
的一切	-9.68537
艾滋病	-9.68538
露	-9.68548
广泛	-9.68566
▁有人	-9.68577
我今天	-9.68587
前面	-9.68673
免费	-9.68674
是有	-9.68693
机制	-9.68808
伯	-9.68861
谱	-9.68882
埃	-9.68903
罪	-9.68907
烟	-9.68921
默	-9.68924
认识到	-9.68934
爸爸	-9.68934
旅程	-9.68936
这点	-9.6897
人体	-9.69051
办	-9.69225
移	-9.69235
学到	-9.69256
嘴	-9.69304
驾驶	-9.69304
趋势	-9.69306
示	-9.69425
所有人都	-9.69429
大众	-9.69477
库	-9.69509
镜	-9.69509
带到	-9.69522
的历史	-9.69538
▁我的意思是	-9.69546
强大	-9.69594
成为一个	-9.6963
侧	-9.69676
金融	-9.69683
▁大约	-9.69766
▁但在	-9.69802
技能	-9.69836
所有这些	-9.69949
混	-9.6995
的角度	-9.69964
政	-9.69971
▁但它	-9.6999
两种	-9.69995
得到的	-9.70004
效率	-9.70023
二氧化碳	-9.70049
燃料	-9.7005
许多人	-9.70233
▁如	-9.70258
呈现	-9.70258
懂	-9.70261
应对	-9.70267
黑人	-9.7036
的内容	-9.70413
股	-9.70418
成千上万	-9.70423
案例	-9.70433
提醒	-9.70438
将来	-9.705
节目	-9.70598
产生了	-9.7062
末	-9.70671
加上	-9.70678
▁嗯	-9.70682
▁另一个	-9.7069
平等	-9.70692
博客	-9.70807
用了	-9.70844
就要	-9.7089
系	-9.70896
我开始	-9.70986
▁看	-9.71065
最高	-9.71092
失去了	-9.71125
胡	-9.71177
辩论	-9.71182
公众	-9.7119
▁她说	-9.71212
类似的	-9.71313
也在	-9.71369
消息	-9.71442
羊	-9.71536
摩	-9.71553
▁有时	-9.71589
外面	-9.71628
我们知道	-9.71718
组合	-9.71808
U	-9.71935
掌握	-9.71938
机械	-9.71942
▁我发现	-9.72006
没什么	-9.72104
潮	-9.72149
随	-9.72153
▁假如	-9.72169
▁来自	-9.72208
分布	-9.72208
测	-9.72215
全国	-9.72227
▁特别是	-9.72278
捕	-9.72287
一座	-9.72288
孔	-9.72317
酸	-9.72317
为此	-9.7232
怀疑	-9.7232
错了	-9.72342
高中	-9.72442
第二个	-9.72475
的书	-9.72481
决	-9.72598
▁我现在	-9.72606
不应该	-9.72615
页	-9.72663
忙	-9.72692
兹	-9.727
浪费	-9.72708
刺激	-9.72791
小小的	-9.7294
我们将	-9.72964
的情况下	-9.73078
缺乏	-9.73087
拒绝	-9.73093
强烈	-9.73097
播放	-9.73143
态	-9.73155
美丽的	-9.73284
景	-9.7329
面积	-9.73352
则是	-9.73352
关联	-9.73372
富有	-9.73388
还会	-9.73391
念	-9.7345
衣服	-9.73483
误	-9.73508
极端	-9.73514
这个人	-9.73526
梦	-9.73606
稳定	-9.73627
说到	-9.73702
▁他是	-9.73723
的环境	-9.73766
弗	-9.73808
有能力	-9.73841
毁	-9.73855
‘	-9.73859
肺	-9.73859
简直	-9.73873
启发	-9.73878
▁非常	-9.73886
酷	-9.73892
解决方案	-9.73897
这是个	-9.73911
存在的	-9.73948
期间	-9.73958
▁谁	-9.73975
走到	-9.73987
做一个	-9.73988
国家的	-9.74064
为何	-9.74106
朝	-9.74112
等待	-9.74117
发展中国家	-9.74249
选举	-9.74282
患	-9.74283
进去	-9.74368
创造出	-9.74374
美丽	-9.74465
我们也	-9.74522
▁由于	-9.74578
些什么	-9.74637
改革	-9.7464
我对	-9.74706
玩具	-9.74715
能让	-9.74874
是如此	-9.74942
有机会	-9.74969
每次	-9.75021
伊拉克	-9.75031
惊	-9.75082
▁这也是	-9.75084
重点	-9.75096
聚集	-9.75108
在你	-9.75111
家里	-9.75126
卫	-9.75138
期待	-9.75142
适合	-9.75154
不了	-9.75177
的事物	-9.75184
你不能	-9.75226
透	-9.75235
抓	-9.75349
▁我还	-9.75354
胜	-9.75375
二十	-9.75386
帕	-9.75422
黑暗	-9.75439
部落	-9.75466
W	-9.75576
汇	-9.75588
的生物	-9.75614
有两个	-9.7568
爆炸	-9.75704
有时	-9.75705
出现在	-9.75755
在我的	-9.7578
对我来说	-9.75783
丹	-9.75808
摆	-9.75813
插	-9.75819
判断	-9.75829
从中	-9.75851
赞	-9.75913
应该是	-9.75978
可以通过	-9.76006
有一种	-9.7606
准	-9.76142
虽然	-9.76149
ur	-9.76183
/	-9.76216
输入	-9.76233
发挥	-9.76237
感知	-9.76277
毫无	-9.76338
作出	-9.76433
画面	-9.76509
教学	-9.76575
漫	-9.76581
馆	-9.76606
寄	-9.76615
望远镜	-9.76615
伊朗	-9.76621
奇妙	-9.76623
电池	-9.7663
进行了	-9.7667
般	-9.76748
的空间	-9.76808
就像是	-9.76848
写了	-9.76853
给了	-9.76882
以下	-9.76892
棒	-9.76913
遗	-9.76914
合理	-9.76915
冒	-9.77013
莫	-9.77015
按照	-9.77053
热情	-9.77073
无论	-9.77083
将要	-9.77083
的第一	-9.77092
的工具	-9.77123
拿到	-9.77128
▁有时候	-9.77336
is	-9.77375
袋	-9.77397
麻	-9.77411
马上	-9.7745
案	-9.77462
每一	-9.77464
▁我们能	-9.77486
来源	-9.77543
的作用	-9.77581
以上	-9.77585
▁基本上	-9.7762
一生	-9.77668
▁给	-9.777
要么	-9.77748
武器	-9.77816
取决于	-9.77819
同性恋	-9.7782
苹果	-9.7782
你是	-9.77824
便宜	-9.77826
海岸	-9.77841
注意力	-9.77913
在那儿	-9.77977
的演讲	-9.78043
相当于	-9.78062
那么多	-9.78075
接着	-9.7808
军队	-9.78101
驱动	-9.78108
苦	-9.78189
—	-9.78215
鸡	-9.7822
脆弱	-9.78226
传递	-9.78234
史	-9.78252
原来	-9.78259
走向	-9.78301
一个新的	-9.78328
独	-9.78383
要知道	-9.7845
校	-9.78472
看不到	-9.78566
货	-9.78601
一本	-9.78604
铁	-9.78623
拼	-9.78631
变得更	-9.78655
手段	-9.78718
扫描	-9.78757
电力	-9.7886
那时候	-9.78874
赢	-9.7894
据	-9.78942
另	-9.7898
范	-9.79028
希	-9.79032
麻烦	-9.79043
维持	-9.79062
报纸	-9.79074
那就是	-9.79078
没错	-9.7916
看来	-9.79168
出版	-9.79232
历	-9.79327
争	-9.79382
哪个	-9.79424
玻璃	-9.79449
疯狂	-9.79474
am	-9.79512
智	-9.79514
实在	-9.79557
▁这就是我们	-9.79681
强大的	-9.79687
什么时候	-9.7973
▁他们说	-9.79759
▁克里斯	-9.79828
▁这就是为什么	-9.79828
撞	-9.79846
烧	-9.79857
采取	-9.79864
式的	-9.79877
多么	-9.7989
还没	-9.79893
版本	-9.79898
寿命	-9.79924
识别	-9.7995
消费	-9.79964
极其	-9.79987
很大的	-9.80039
这不是	-9.80079
余	-9.80116
相同	-9.80138
跟我	-9.8014
乘	-9.80161
▁过去	-9.80196
自行车	-9.80274
以色列	-9.80274
期望	-9.80301
众	-9.80313
对象	-9.80341
怎么做	-9.80347
流行	-9.80483
▁我将	-9.80504
▁它会	-9.80606
以来	-9.80643
被称为	-9.80648
胶	-9.80688
轴	-9.80689
慈善	-9.80689
我想要	-9.80714
我将	-9.80721
执行	-9.8073
▁所有的	-9.80811
说服	-9.80811
▁好的	-9.80855
获	-9.80895
抗	-9.80948
即将	-9.80966
实际上是	-9.80968
降	-9.80969
地下	-9.8099
执	-9.81064
缺	-9.81067
奇怪的	-9.81069
居民	-9.81116
总结	-9.81123
路上	-9.81174
有许多	-9.81215
士兵	-9.81293
不久	-9.81328
做得	-9.81386
看过	-9.81394
什么呢	-9.81419
绿	-9.81494
这个想法	-9.81495
处在	-9.81536
超越	-9.81584
为我们	-9.81644
万美元	-9.81662
物品	-9.81765
年来	-9.81785
克斯	-9.81799
▁不要	-9.81909
拖	-9.81944
沙漠	-9.81948
篇	-9.8204
大规模	-9.82118
▁但他们	-9.82215
%。	-9.82226
丢	-9.82353
招	-9.82364
’	-9.82366
渴望	-9.82367
回去	-9.82374
的食物	-9.82419
相关的	-9.82423
的看法	-9.8243
大自然	-9.82437
曲线	-9.8245
能否	-9.82458
混合	-9.82467
一点点	-9.82471
潜水	-9.82495
的反应	-9.82625
航	-9.82673
提供了	-9.827
凯	-9.82789
穆斯林	-9.8279
解决问题	-9.8279
依赖	-9.82798
那样的	-9.82896
来做	-9.829
生态系统	-9.82972
资	-9.83018
▁至少	-9.8307
角色	-9.83164
偷	-9.83204
乔	-9.83209
丈夫	-9.83216
▁然后你	-9.83225
当今	-9.83359
▁你看	-9.83415
从来没有	-9.83482
推动	-9.83522
能在	-9.83549
▁我当时	-9.83616
岁的时候	-9.83622
党	-9.83629
自闭症	-9.83642
骑	-9.83642
隐藏	-9.8365
农民	-9.83651
不知	-9.83653
做的事	-9.83693
告诉他们	-9.83771
这本书	-9.83773
症状	-9.8378
名叫	-9.83834
字母	-9.83839
将它	-9.83861
理性	-9.84056
搭	-9.84057
逻辑	-9.84072
标志	-9.84079
我已经	-9.84082
想像	-9.8423
层面	-9.84358
封	-9.84359
去看	-9.84368
屏幕	-9.84374
伟大	-9.84378
威	-9.84424
---	-9.8443
严重的	-9.84481
可以让	-9.84486
非常好	-9.8453
设想	-9.84595
私人	-9.84791
美好	-9.8484
息	-9.84881
旗	-9.84913
忘记	-9.84945
评论	-9.84946
行走	-9.84995
了解到	-9.85031
参	-9.85052
的意义	-9.85063
的数量	-9.85104
一个非常	-9.85107
听说过	-9.85107
在这儿	-9.85158
幕	-9.85367
脂	-9.8537
估计	-9.85374
共享	-9.85377
看到的是	-9.8538
后果	-9.85416
la	-9.85437
一辆	-9.85439
▁通常	-9.85483
▁只	-9.85494
乐观	-9.8565
良	-9.85651
可怕的	-9.85696
▁这些是	-9.85725
黑猩猩	-9.85813
调整	-9.85834
我一直	-9.85857
更高	-9.85925
才会	-9.8605
惊人的	-9.86064
务	-9.86064
止	-9.86095
一千	-9.8612
农	-9.8619
餐	-9.86207
黄	-9.86214
瑞	-9.86229
哇	-9.86246
钻	-9.86246
技巧	-9.86247
毒品	-9.86305
死去	-9.86428
似	-9.86515
都很	-9.86583
沃	-9.86635
种类	-9.86655
逃	-9.86657
泰	-9.86663
一幅	-9.86681
'	-9.86686
税	-9.86686
菲	-9.86686
幼	-9.86686
挂	-9.86686
猪	-9.86686
霍	-9.86686
客户	-9.86691
启动	-9.86707
▁你能	-9.86718
角落	-9.86722
指出	-9.8673
特殊	-9.86776
▁这就是我	-9.86783
▁第三	-9.86786
会发生	-9.8681
了我的	-9.86827
有意思	-9.86842
▁我是	-9.86844
发布	-9.86923
统计	-9.8703
必须要	-9.87059
桌	-9.87066
的存在	-9.87074
他们在	-9.87124
策略	-9.8713
基金会	-9.87256
加州	-9.87343
完美的	-9.87351
开车	-9.87362
生意	-9.87486
都被	-9.87489
顺	-9.87514
堂	-9.87515
尖	-9.87527
对他们	-9.87532
薄	-9.87573
覆盖	-9.87575
边缘	-9.87595
个国家	-9.87603
固定	-9.87611
有一	-9.87614
探	-9.8765
在过去	-9.87659
支	-9.87706
一旦	-9.8772
▁我们把	-9.8788
指数	-9.879
公里	-9.87938
厂	-9.87957
实践	-9.88019
刀	-9.88019
演示	-9.88029
提升	-9.88058
交谈	-9.88067
之类的	-9.88129
没法	-9.88143
峰	-9.88252
有效的	-9.88337
认	-9.88382
守	-9.88458
珊瑚	-9.88467
阵	-9.88468
放大	-9.88556
族	-9.8867
历史上	-9.88744
同一个	-9.88776
善	-9.88801
洋	-9.88869
松	-9.8888
丁	-9.88885
▁因为你	-9.88906
磅	-9.88918
震惊	-9.88928
▁CA	-9.88972
因为我们	-9.89009
主义者	-9.89121
▁大概	-9.89183
五年	-9.892
▁几乎	-9.89206
鞋	-9.89265
▁我是说	-9.89316
哥	-9.89361
▁想象一下	-9.89378
▁好了	-9.89396
前进	-9.89448
标记	-9.8947
回应	-9.89484
都要	-9.89542
▁根据	-9.89579
流动	-9.89639
▁我对	-9.89655
很棒	-9.89728
述	-9.89769
走了	-9.89806
矛盾	-9.89825
ol	-9.89842
绕	-9.89842
代码	-9.89844
什么样的	-9.89864
▁我喜欢	-9.89968
▁并不是	-9.90038
可是	-9.90129
徒	-9.90176
斗争	-9.90286
依靠	-9.90293
透明	-9.903
你所	-9.9031
谈话	-9.90335
第三个	-9.90339
了吗	-9.90407
已经被	-9.90421
特定	-9.90434
序	-9.90468
我现在	-9.90497
斯特	-9.90504
完成了	-9.90565
人士	-9.90577
▁他们在	-9.90626
▁每个人都	-9.9063
▁仅仅	-9.90656
扔	-9.90657
图表	-9.90693
饭	-9.90709
附	-9.90719
席	-9.9072
猴子	-9.90764
地位	-9.90771
整体	-9.90823
副	-9.90857
改进	-9.90875
达成	-9.90878
一段时间	-9.90901
有趣的是	-9.90903
所能	-9.90937
一套	-9.91012
癌	-9.91158
合成	-9.91174
硬	-9.91185
走出	-9.91188
禁	-9.91193
扎	-9.91199
盒子	-9.91246
专利	-9.9125
教师	-9.91253
的家庭	-9.91254
不确定	-9.91371
对吗	-9.91379
是多么	-9.91444
种植	-9.915
穿着	-9.91509
他们会	-9.91521
v	-9.91557
施	-9.91563
看了	-9.91649
▁正在	-9.91651
厚	-9.91665
赋予	-9.91665
投票	-9.91674
象征	-9.91677
照顾	-9.91679
基础设施	-9.91693
的钱	-9.9174
的角色	-9.91748
▁我很	-9.91773
在想	-9.91947
合法	-9.91971
恒星	-9.92015
刺	-9.92019
伴	-9.92088
艰难	-9.92144
规划	-9.92147
街道	-9.92173
强调	-9.92192
州的	-9.92223
做成	-9.92256
商品	-9.92324
构成	-9.92325
是一名	-9.92386
样本	-9.92398
的经济	-9.92433
给他	-9.9247
屋	-9.92493
有点像	-9.92555
毕业	-9.92557
不起	-9.92589
摄影	-9.92591
幻灯片	-9.92597
婚姻	-9.92597
领袖	-9.92598
衡量	-9.9261
紧张	-9.9262
埃及	-9.92626
血管	-9.92659
真的很	-9.92665
▁在这	-9.92696
不够	-9.92752
我必须	-9.92797
几天	-9.92807
因为它	-9.92879
的公司	-9.9288
▁是因为	-9.92882
优	-9.92884
充满了	-9.929
▁E	-9.92956
在未来	-9.93014
残	-9.93054
教堂	-9.93066
措施	-9.93068
玩耍	-9.93071
文件	-9.93119
对我说	-9.93123
▁这一	-9.93187
▁一旦	-9.9325
世界上最	-9.93447
我父亲	-9.9345
地面	-9.93484
当作	-9.93485
抽	-9.93518
▁因此我们	-9.93527
可以把	-9.93531
吓	-9.93538
致力于	-9.93538
决策	-9.9354
活跃	-9.93546
这正是	-9.93577
私	-9.93651
▁对我来说	-9.93661
成立	-9.93685
真相	-9.937
本来	-9.93703
到处	-9.93715
消	-9.93761
▁F	-9.93787
遍	-9.93808
▁这里有	-9.9388
堆	-9.93959
域	-9.93961
裂	-9.93969
社交	-9.93972
横	-9.94007
呀	-9.94012
功	-9.94019
▁让他们	-9.94024
费用	-9.94042
演员	-9.94047
大陆	-9.94088
对你	-9.94153
工人	-9.94251
上学	-9.94305
坦	-9.9432
术	-9.94342
进一步	-9.94388
▁他们都	-9.94395
人数	-9.94408
?“	-9.94412
Y	-9.94487
▁这是一种	-9.94556
制定	-9.94564
对方	-9.94565
大脑的	-9.94589
动机	-9.94659
给你们看	-9.94733
句	-9.94758
意见	-9.94811
使我	-9.94816
青	-9.94817
包含	-9.94846
写的	-9.94898
▁作为一个	-9.94948
严肃	-9.94967
愤怒	-9.94967
诞生	-9.94974
明确	-9.94977
带来的	-9.94993
医	-9.95021
精确	-9.95034
是我的	-9.9504
▁下面	-9.95047
重建	-9.95075
录像	-9.95076
身份	-9.95154
▁我们应该	-9.95234
环境中	-9.95272
传统的	-9.95308
的第一个	-9.95346
五十	-9.9535
你就会	-9.95396
地点	-9.95401
狂	-9.95422
凡	-9.95427
寻求	-9.95451
邻居	-9.95452
更有	-9.95453
尊重	-9.9546
▁而这些	-9.955
在我们的	-9.95548
视角	-9.95569
▁他们是	-9.95654
▁N	-9.95692
▁你需要	-9.95717
做一些	-9.95728
唯一的	-9.95761
▁他在	-9.9578
认真	-9.95887
南非	-9.95899
珍	-9.95924
采	-9.95926
柱	-9.9593
奖励	-9.95931
肌肉	-9.95934
进展	-9.95967
的能量	-9.9597
集体	-9.95976
效应	-9.96013
▁当他们	-9.96022
▁因为他	-9.9606
跨	-9.96098
观看	-9.9621
拿着	-9.9621
改造	-9.96213
相机	-9.96284
在印度	-9.96296
付出	-9.96367
判	-9.96379
略	-9.96395
的基因	-9.96412
桥	-9.96414
穷人	-9.96415
安德森	-9.96416
滴	-9.96416
舞蹈	-9.96417
睡眠	-9.96419
轨道	-9.96425
高兴	-9.96453
积	-9.96484
把自己	-9.96494
地理	-9.96495
多年	-9.96514
▁需要	-9.96541
杯	-9.96619
▁W	-9.96632
的人口	-9.96834
耐	-9.96854
ne	-9.96865
灰	-9.9689
每天都	-9.96902
是不	-9.96936
ed	-9.9694
▁K	-9.97037
任何一个	-9.97077
设	-9.97149
特别的	-9.97184
地说	-9.97196
看一下	-9.97211
不像	-9.97253
消费者	-9.97284
尾	-9.97363
雅	-9.97389
金属	-9.97411
预防	-9.97411
阳光	-9.97435
名为	-9.97482
▁这也	-9.97626
益	-9.97666
都知道	-9.97682
▁每天	-9.97697
虚拟	-9.97759
兄弟	-9.97885
你可以看到	-9.97892
单词	-9.97944
存活	-9.98006
我不知道	-9.98077
却是	-9.98126
发明了	-9.98194
好奇	-9.98197
播	-9.98273
带来了	-9.98277
着手	-9.98356
缓	-9.98363
爱因斯坦	-9.98382
田	-9.98382
纹	-9.98382
血液	-9.98395
环保	-9.98398
灵感	-9.98426
就算	-9.98433
▁但是他们	-9.98436
所看到的	-9.9844
▁才能	-9.98548
一个例子	-9.9861
特性	-9.98634
我们还	-9.98667
尽管	-9.98674
刑	-9.98855
进来	-9.98878
村庄	-9.98881
肯尼亚	-9.98881
销售	-9.98881
国会	-9.98898
加速	-9.98906
片段	-9.98934
ing	-9.98968
死了	-9.98969
作家	-9.98978
要去	-9.98999
开心	-9.9902
干细胞	-9.99027
▁整个	-9.99124
兵	-9.99154
最多	-9.99269
特殊的	-9.99283
智能	-9.99295
的价值	-9.99321
培训	-9.99379
承诺	-9.99381
旋转	-9.99388
手指	-9.99433
▁这些都是	-9.99452
很高兴	-9.99468
的基础	-9.99493
领导者	-9.99602
打印	-9.99631
翻译	-9.99774
朋友们	-9.99807
▁随着	-9.99809
还有一个	-9.99852
虚	-9.99877
墨西哥	-9.99879
清晰	-9.99882
加拿大	-9.99882
符合	-9.99889
人工	-9.99915
我们想要	-9.99936
▁我们对	-9.99941
不幸的是	-9.99943
许	-9.99957
赢得	-10
算法	-10.0003
▁而且我	-10.0009
▁这些人	-10.0011
小组	-10.0014
展示了	-10.002
的女性	-10.0028
答	-10.0029
梅	-10.0039
直觉	-10.004
混乱	-10.004
的眼睛	-10.0047
放进	-10.0051
最佳	-10.0054
▁中国	-10.0054
便是	-10.0069
▁那么我们	-10.0077
网上	-10.0079
能做到	-10.008
▁使得	-10.0081
坚	-10.0082
岩	-10.0088
这么说	-10.0089
的时刻	-10.0094
获得了	-10.0099
死于	-10.0099
各种各样的	-10.0104
大卫	-10.0105
规	-10.0106
意外	-10.0114
做些什么	-10.0115
还有很多	-10.0115
这个国家	-10.0119
至今	-10.0134
戏	-10.0138
▁在美国	-10.0139
吹	-10.014
胸	-10.014
采访	-10.0141
优势	-10.0141
必	-10.0142
白色	-10.0145
随机	-10.0145
差别	-10.0147
典	-10.0148
的目的	-10.0153
填	-10.0154
在非洲	-10.0156
仪器	-10.0159
很可能	-10.0165
真的是	-10.0166
律师	-10.0167
说的是	-10.0174
其中一个	-10.0177
阿拉伯	-10.0189
as	-10.0191
邮件	-10.0191
湖	-10.0192
展览	-10.0192
损失	-10.0193
确实是	-10.0196
搬	-10.0197
抓住	-10.0202
主题	-10.0204
你需要	-10.0205
难民	-10.0221
我希望	-10.0227
▁每年	-10.0236
能找到	-10.0236
奇怪	-10.0239
鼠	-10.024
衰	-10.0241
忽略	-10.0243
愿望	-10.0244
供应	-10.0246
打破	-10.0251
特定的	-10.0252
话题	-10.0255
难道	-10.0256
年轻的	-10.0257
▁在这里	-10.0259
属	-10.027
展开	-10.027
不平等	-10.0282
非常非常	-10.029
狱	-10.0295
桶	-10.0295
祖先	-10.0297
现状	-10.0297
▁你要	-10.0299
充分	-10.0299
让他	-10.0301
情形	-10.0301
无限	-10.0302
额外	-10.0303
会发生什么	-10.0303
道理	-10.0308
▁最近	-10.0309
▁「	-10.031
远远	-10.031
发射	-10.0311
的可能性	-10.032
更大的	-10.0333
的需求	-10.0338
影片	-10.0338
保存	-10.0338
il	-10.0339
有限	-10.0345
应当	-10.0346
举个例子	-10.0347
貌	-10.0347
踏	-10.0347
图书馆	-10.0347
模仿	-10.0347
结婚	-10.0348
宣传	-10.0348
椅子	-10.035
之内	-10.0353
潜力	-10.0355
建筑师	-10.0355
▁你会发现	-10.0356
可爱	-10.0358
▁因为这	-10.0358
在做	-10.0359
金钱	-10.0359
材	-10.0364
为什么要	-10.0368
引发	-10.0371
图案	-10.0371
充	-10.0372
每一个人	-10.0382
宇宙中	-10.0387
耗	-10.0393
更为	-10.0393
旁	-10.0396
赫	-10.04
摆脱	-10.04
陷入	-10.0401
▁我们从	-10.0403
送到	-10.0408
提取	-10.0412
来讲	-10.0412
▁在那里	-10.0414
经历了	-10.0428
▁L	-10.0435
票	-10.0448
销	-10.0449
理念	-10.045
奇迹	-10.0453
争论	-10.0454
倾听	-10.0454
场景	-10.0456
开展	-10.046
企业家	-10.0467
限	-10.0473
尽可能	-10.0473
非常简单	-10.0477
不必	-10.0478
我们发现	-10.0478
来看看	-10.048
li	-10.049
官	-10.049
学生们	-10.0493
的结构	-10.0498
▁我们希望	-10.0502
佛	-10.0503
休	-10.0503
摇	-10.0505
疟疾	-10.0505
专门	-10.051
的知识	-10.0515
鼓	-10.0518
第四	-10.0518
▁我从	-10.0523
保留	-10.0527
热爱	-10.0527
全球化	-10.053
ck	-10.0535
▁我记得	-10.0546
▁你可能	-10.0551
氧	-10.0556
恋	-10.0558
受害者	-10.0558
牢	-10.0558
扮演	-10.0559
神秘	-10.056
蚊子	-10.056
修复	-10.0561
研发	-10.0569
做的是	-10.0569
彩	-10.0572
你必须	-10.0573
的梦想	-10.0575
▁或者说	-10.058
把这	-10.0583
排放	-10.0592
▁在过去的	-10.0596
▁因此我	-10.0596
的意思	-10.0596
▁所以这	-10.0603
征	-10.0605
穷	-10.0606
依	-10.0608
我相信	-10.0611
抱	-10.0611
企鹅	-10.0612
练习	-10.0612
海豚	-10.0612
标签	-10.0613
短信	-10.0615
的区域	-10.0621
拿出	-10.0623
告诉大家	-10.0626
的产品	-10.0633
划	-10.0637
幻	-10.0638
可以从	-10.0644
不可思议的	-10.0645
途	-10.0646
带给	-10.0647
洛杉矶	-10.0666
澳大利亚	-10.0666
反馈	-10.0666
稍微	-10.0667
黑客	-10.0668
这些事情	-10.0675
激动	-10.0695
的语言	-10.0696
的运动	-10.0696
塑造	-10.0697
价值观	-10.0707
也很	-10.0709
少数	-10.071
杀死	-10.0712
软	-10.0717
我还是	-10.0717
患有	-10.0719
幅	-10.0719
老人	-10.0719
尼日利亚	-10.072
著名的	-10.072
移民	-10.0721
促进	-10.0723
夏天	-10.0723
产业	-10.0723
小型	-10.0732
根本不	-10.0734
季	-10.0737
因为他们	-10.0738
厅	-10.0759
成分	-10.0763
的方向	-10.0764
液	-10.0767
神奇的	-10.0768
乎	-10.0769
评	-10.077
分离	-10.077
懂得	-10.0771
三十	-10.0772
引擎	-10.0774
豆	-10.0774
冒险	-10.0774
突破	-10.0775
以外	-10.0775
难题	-10.0776
氧气	-10.0777
▁然后他们	-10.0777
出发	-10.078
靠近	-10.0781
好消息	-10.0781
的建筑	-10.0782
ha	-10.0791
两者	-10.0792
在乎	-10.0792
做好	-10.0792
▁[	-10.0792
提到的	-10.0798
的任务	-10.0799
遗传	-10.0806
注	-10.0811
个孩子	-10.0814
就不会	-10.0817
窗	-10.0825
粘	-10.0829
订	-10.0829
精彩	-10.083
惊奇	-10.0831
中央	-10.0831
日子	-10.0833
预算	-10.0835
能不能	-10.0843
大脑中	-10.0849
et	-10.0854
正如	-10.086
题	-10.0862
一大	-10.0863
不断地	-10.0865
听过	-10.087
同情	-10.087
us	-10.0871
抵	-10.0871
一些东西	-10.0875
熟	-10.0878
不止	-10.0879
赚	-10.088
妈	-10.0883
汉	-10.0883
Google	-10.0883
争议	-10.0884
黄色	-10.0885
临	-10.0891
的过程中	-10.0894
有时候	-10.0896
▁然后他	-10.0899
遭受	-10.0902
它就	-10.0911
大楼	-10.0911
▁所以他们	-10.0919
激发	-10.0932
免	-10.0935
考	-10.0936
活着	-10.0936
乳	-10.0938
吨	-10.0939
符号	-10.094
实施	-10.0941
代价	-10.0941
会看到	-10.0942
北部	-10.0944
▁因为在	-10.0958
最后一个	-10.0959
进了	-10.0963
▁我们正在	-10.097
非洲的	-10.0976
▁但他	-10.0978
要做	-10.0981
三年	-10.0982
稍	-10.0992
欲	-10.0994
瑟	-10.0994
意大利	-10.0994
不去	-10.0997
生命中	-10.1003
ic	-10.1005
头脑	-10.1017
醒	-10.1024
想起	-10.1029
生成	-10.1033
点子	-10.1033
sh	-10.1038
十亿	-10.104
迈	-10.1046
苏	-10.1048
腐败	-10.105
扩大	-10.1051
建立了	-10.1051
禁止	-10.1051
造成的	-10.1051
反映	-10.1051
天空	-10.1052
由此	-10.1057
回报	-10.1059
有过	-10.106
手臂	-10.106
▁你必须	-10.1061
在纽约	-10.1065
需	-10.107
几百	-10.1071
层次	-10.1071
全新的	-10.1072
起了	-10.1079
五个	-10.108
穿越	-10.1097
它会	-10.1102
资本	-10.1104
奴隶	-10.1106
雕塑	-10.1106
袭击	-10.1106
火箭	-10.1107
古老的	-10.1107
发光	-10.1109
如同	-10.111
所需的	-10.1111
这幅	-10.1114
不是吗	-10.1115
教室	-10.1128
创	-10.1133
屋顶	-10.1134
可能性	-10.1143
组成的	-10.1145
鲜	-10.115
发电	-10.1154
谢谢你	-10.1154
批	-10.1155
礼	-10.1159
剩	-10.1161
壳	-10.1163
稀	-10.1163
规律	-10.1163
饮食	-10.1164
立刻	-10.1165
岁时	-10.1173
有多少人	-10.1176
之下	-10.1181
当地的	-10.1182
一定要	-10.1182
▁有些人	-10.1184
中东	-10.1185
度过	-10.1185
在座的	-10.1192
已经有	-10.1206
英	-10.1212
喜	-10.1214
隐	-10.1216
蛋	-10.1217
叠	-10.1219
辛	-10.1219
▁但如果	-10.1219
喊	-10.122
嘿	-10.122
希腊	-10.122
与此同时	-10.122
纤维	-10.122
支付	-10.1221
商店	-10.1223
影响力	-10.1224
也许会	-10.1224
▁而在	-10.1225
的问题是	-10.1241
这是我	-10.1257
的答案	-10.1258
我的工作	-10.1261
的时代	-10.1262
高效	-10.1262
♪	-10.1269
为你	-10.1275
熊	-10.1277
莉	-10.1277
逊	-10.1277
拆	-10.1277
一颗	-10.1277
擅长	-10.1277
信念	-10.128
ma	-10.1284
敏感	-10.1285
人性	-10.1286
▁但是在	-10.1289
空中	-10.129
经济学家	-10.1293
我喜欢	-10.1309
携带	-10.131
▁去年	-10.1313
所知	-10.1326
的那样	-10.1328
▁世界上	-10.1331
摸	-10.1334
哭	-10.1334
承担	-10.1334
同情心	-10.1339
深刻	-10.1349
世上	-10.1353
想让	-10.1361
▁我们用	-10.1374
的经验	-10.1379
恐怖	-10.1382
肯	-10.1388
闭	-10.139
在你的	-10.1392
追踪	-10.1392
激情	-10.1393
▁我们认为	-10.1394
掉了	-10.1395
死亡率	-10.1404
听说	-10.1407
还记得	-10.1416
是一位	-10.1421
移植	-10.1425
识	-10.1429
你会看到	-10.1436
体现	-10.1443
无数	-10.1444
壁	-10.1449
乌	-10.145
薪	-10.145
诱	-10.145
华盛顿	-10.145
俄罗斯	-10.145
亚洲	-10.1451
构建	-10.1451
书籍	-10.1452
印象	-10.1452
回顾	-10.1453
▁所以当	-10.1465
者们	-10.1469
很久	-10.1477
表情	-10.148
想象一下	-10.1481
▁我把	-10.1488
生物学家	-10.1488
而来	-10.1492
▁观众	-10.1493
着迷	-10.1497
顾	-10.1499
更大	-10.1501
有机	-10.1502
▁所以你	-10.1504
的核心	-10.1508
弦	-10.1509
沮丧	-10.1509
昨天	-10.1509
重视	-10.1511
紧密	-10.1511
跟踪	-10.1511
▁这里是	-10.1512
▁哦	-10.1514
论文	-10.1515
形象	-10.1515
回收	-10.152
联合	-10.1525
可怕	-10.1531
链	-10.1546
释	-10.155
生理	-10.1565
ad	-10.1567
凭	-10.1568
你知道吗	-10.1568
洞穴	-10.1568
运输	-10.1568
飞行器	-10.1577
平方	-10.1578
影像	-10.1581
核心	-10.1586
都没	-10.1587
一本书	-10.1589
不是一个	-10.159
运动员	-10.159
只是一个	-10.1598
志	-10.1599
的主要	-10.1601
谷	-10.1623
审	-10.1624
土壤	-10.1627
显著	-10.1627
三维	-10.1632
不少	-10.1634
同时也	-10.1634
正好	-10.1635
更快	-10.1637
感情	-10.1637
是一样的	-10.1643
把他	-10.1647
更重要的是	-10.1649
流感	-10.1649
白人	-10.1657
的关键	-10.166
兴	-10.1661
我最喜欢的	-10.1668
扬	-10.1686
甲	-10.1686
盛	-10.1686
娱乐	-10.1686
贸易	-10.1686
忽视	-10.1686
▁除非	-10.1687
小说	-10.1693
沿着	-10.1698
周围的	-10.1699
的图片	-10.1711
阿尔	-10.1712
亿人	-10.1712
气球	-10.1717
说道	-10.1718
光线	-10.1722
点击	-10.173
掌	-10.1742
▁所有这些	-10.1743
齐	-10.1746
编辑	-10.1746
膜	-10.1746
繁殖	-10.1746
毕竟	-10.1746
评估	-10.1746
成绩	-10.1748
推广	-10.1749
我想说	-10.1749
品牌	-10.175
临床	-10.1751
是通过	-10.1757
不幸	-10.1757
另一方面	-10.1757
舞台	-10.1768
做这个	-10.1774
浮	-10.1779
很棒的	-10.1785
▁它可以	-10.1788
▁问题是	-10.1795
对比	-10.1802
鲸	-10.1804
燃	-10.1805
健	-10.1805
阻	-10.1806
佩	-10.1806
茶	-10.1806
抢	-10.1806
肠	-10.1806
昂贵	-10.1807
独特的	-10.1809
农场	-10.181
的重要性	-10.1811
取代	-10.1815
纳米	-10.1818
融合	-10.1819
住了	-10.1819
激	-10.1823
▁我们开始	-10.1826
▁我们想	-10.1837
带有	-10.1842
开了	-10.1857
定位	-10.1859
跟你	-10.1864
▁我们看到	-10.1864
娜	-10.1865
闲	-10.1867
埋	-10.1867
民族	-10.1868
黑洞	-10.187
构造	-10.1871
指导	-10.1871
糟	-10.1872
安装	-10.1875
分配	-10.1876
吸收	-10.1883
法则	-10.1891
握	-10.1903
马克	-10.1912
▁在一个	-10.1914
阴	-10.1924
涂	-10.1928
步骤	-10.1928
贷款	-10.1928
注射	-10.1929
引导	-10.193
顺便	-10.1931
先进	-10.1932
延伸	-10.1933
众多	-10.1933
鲨鱼	-10.1933
含	-10.1934
接收	-10.1938
工作者	-10.194
推特	-10.1946
▁很多人	-10.1951
意味着什么	-10.1963
比尔	-10.1965
更好地	-10.1973
大象	-10.1982
卵	-10.1988
兆	-10.1989
志愿者	-10.1989
烤	-10.1989
甜	-10.1989
达尔文	-10.1989
景象	-10.1992
异常	-10.1993
本地	-10.1996
民众	-10.1997
药品	-10.1998
这些信息	-10.2003
故	-10.2007
大气	-10.2009
▁我不是	-10.2015
瞬间	-10.2034
礼物	-10.2037
墙上	-10.2037
▁显然	-10.2039
分之一	-10.2045
池	-10.2048
谋	-10.205
以此	-10.205
堡	-10.2051
崩溃	-10.2051
这片	-10.2053
仪式	-10.2054
三分之一	-10.2055
安排	-10.2058
诊所	-10.2059
的形式	-10.2064
的效果	-10.2064
一组	-10.2072
可见	-10.2078
的理论	-10.2081
和他的	-10.2083
的脸	-10.2084
完整的	-10.2086
你看	-10.2088
将这些	-10.2091
这份	-10.2097
或者是	-10.2097
多样性	-10.2099
典型的	-10.2103
的办法	-10.2103
单一	-10.2107
多了	-10.2109
受伤	-10.2112
▁我已经	-10.2112
筹	-10.2112
愚蠢	-10.2113
探讨	-10.2113
连续	-10.2114
鱼类	-10.2121
对抗	-10.2122
去世	-10.2124
▁但是这	-10.2126
的病人	-10.2129
那一刻	-10.2136
种子	-10.2137
▁大多数	-10.2139
美好的	-10.2145
房屋	-10.2148
要做的	-10.2157
水中	-10.2165
的孩子们	-10.2172
巧	-10.2173
这个系统	-10.2175
难以置信的	-10.2175
恨	-10.2176
Z	-10.2176
巴基斯坦	-10.2176
欣赏	-10.2176
申请	-10.2176
▁它们是	-10.218
广场	-10.2184
一根	-10.2186
这项技术	-10.2187
动画	-10.2189
认为这	-10.2195
淡	-10.2204
跟着	-10.2211
买了	-10.2224
笑声	-10.2225
村	-10.2228
不仅是	-10.2232
传感器	-10.2239
尘	-10.2239
描绘	-10.2239
户	-10.2239
替代	-10.224
要把	-10.2247
物理学家	-10.2248
离开了	-10.2261
把我们	-10.2262
石头	-10.2262
不可思议	-10.2262
镇	-10.2266
解放	-10.2268
ie	-10.2271
▁但是你	-10.2275
▁如果他们	-10.2279
构	-10.2287
诉	-10.2292
访	-10.2295
烈	-10.2299
青少年	-10.2302
盐	-10.2302
铺	-10.2302
魅力	-10.2302
这边	-10.2303
局限	-10.2304
感官	-10.2305
喜爱	-10.2306
会产生	-10.2307
认同	-10.2307
大概是	-10.2311
原本	-10.2314
改变世界	-10.2315
你现在	-10.2321
发生的事情	-10.2328
特点	-10.2332
多数	-10.2342
的父母	-10.2347
写作	-10.2352
设施	-10.2352
的唯一	-10.2353
延	-10.2354
▁无论是	-10.2356
正常的	-10.2357
ve	-10.2358
例如	-10.2358
仪	-10.2359
这种情况	-10.2359
责	-10.2361
岸	-10.2362
杆	-10.2365
堵	-10.2365
挡	-10.2365
桑	-10.2365
游泳	-10.2366
防止	-10.2367
ay	-10.237
偏见	-10.237
单位	-10.2375
地区的	-10.2378
合适的	-10.2378
屏幕上	-10.2385
经济增长	-10.2388
优秀的	-10.2411
很高	-10.2411
▁这对	-10.2424
缘	-10.2426
的话题	-10.2427
幸	-10.2427
猛	-10.243
荡	-10.243
保险	-10.243
频率	-10.2431
抽象	-10.2432
st	-10.2437
与我们	-10.2442
爆发	-10.2442
但我	-10.2443
停下来	-10.2444
发送	-10.2445
又是	-10.2448
链接	-10.2449
得知	-10.245
不行	-10.245
微笑	-10.2459
敌	-10.246
营养	-10.2464
起源	-10.2465
过滤	-10.2469
家长	-10.2486
最重要的是	-10.2488
头发	-10.2489
普通的	-10.2492
伙伴	-10.2492
骗	-10.2494
傻	-10.2494
湿	-10.2494
探险	-10.2494
统治	-10.2495
清洁	-10.2495
资助	-10.2495
致命	-10.2496
那个人	-10.2498
无聊	-10.2499
听众	-10.2499
漂亮	-10.2516
反而	-10.252
查看	-10.2524
公平	-10.2526
气体	-10.2528
敌人	-10.2529
▁同时也	-10.2529
自主	-10.253
心脏病	-10.2533
▁但你	-10.2534
想过	-10.2535
什么东西	-10.2535
ta	-10.2536
从一个	-10.2536
在那个	-10.2544
欢迎	-10.2545
的状态	-10.2546
推进	-10.255
议	-10.2556
规定	-10.2557
剪	-10.2559
劲	-10.2559
灵魂	-10.2559
芯片	-10.2559
勇气	-10.256
战斗	-10.2561
剩下的	-10.2561
设置	-10.2562
护士	-10.2562
进程	-10.2565
美金	-10.2565
为什么不	-10.2565
▁不论	-10.2569
un	-10.2575
房间里	-10.2577
忘	-10.2587
使你	-10.2595
我们认为	-10.2595
追	-10.2597
台上	-10.26
不安	-10.2602
做些	-10.2603
镜头	-10.2609
▁当时我	-10.2618
哲学	-10.262
弃	-10.262
以一种	-10.2622
一系列的	-10.2623
给出	-10.2624
小心	-10.2624
▁换句话说	-10.2624
芬	-10.2624
讨厌	-10.2624
在学校	-10.2627
我不得不	-10.2627
生活方式	-10.2629
已经在	-10.263
学术	-10.2631
一周	-10.2631
是对的	-10.2638
▁我看到	-10.2641
就知道	-10.2644
▁不仅仅是	-10.2645
▁其中一个	-10.2652
年级	-10.2653
变得更加	-10.2655
她说	-10.2679
可以被	-10.2679
无线	-10.2679
脏	-10.2685
烦	-10.269
只不过	-10.269
租	-10.269
治愈	-10.2691
教会	-10.2692
形态	-10.2692
顺利	-10.2695
预期	-10.2696
周期	-10.2699
资本主义	-10.27
回事	-10.2704
越多	-10.2711
火车	-10.2714
公正	-10.2715
Sh	-10.2718
克里斯	-10.272
▁每次	-10.2724
想象力	-10.2724
消失了	-10.2728
这并不是	-10.2734
他们自己	-10.2734
从没	-10.2737
了不起的	-10.2739
的意思是	-10.274
始	-10.2741
非常感谢	-10.2744
这个过程	-10.2745
秘	-10.2754
刷	-10.2756
污	-10.2756
摄像机	-10.2756
罐	-10.2756
厕所	-10.2758
课堂	-10.2758
前往	-10.2759
事故	-10.2775
两倍	-10.2778
忘了	-10.2782
不再是	-10.2784
▁所以说	-10.2794
家族	-10.2806
一篇	-10.2807
物理学	-10.2809
密度	-10.281
引用	-10.2815
to	-10.2816
浪	-10.2817
▁第二个	-10.2818
人造	-10.2819
军事	-10.2819
壮	-10.282
Chris	-10.2823
奔	-10.2823
乔治	-10.2824
坚信	-10.2826
交换	-10.2829
的态度	-10.2829
运转	-10.283
跨越	-10.2831
南部	-10.2832
化石	-10.2844
打电话	-10.2848
底部	-10.2848
也没	-10.2851
信心	-10.2851
多种	-10.286
身处	-10.286
我们都知道	-10.2865
同一	-10.2879
让自己	-10.288
丰富	-10.2882
几十年	-10.2888
纯	-10.2889
我之前	-10.289
辞	-10.289
逝	-10.289
琳	-10.289
赌	-10.289
承受	-10.2891
交互	-10.2892
罪犯	-10.2892
确信	-10.2895
胜利	-10.2896
类型的	-10.2898
界面	-10.2899
满意	-10.2902
作业	-10.2909
为止	-10.291
再一次	-10.2919
他们自己的	-10.2921
整合	-10.2922
遇	-10.2929
不足	-10.2933
碰	-10.2934
他们可以	-10.2938
重要的是	-10.2939
雄	-10.2941
文学	-10.2941
能用	-10.2956
渔	-10.2956
迁	-10.2957
珊瑚礁	-10.2958
扩展	-10.2958
协调	-10.2959
节奏	-10.2959
人均	-10.2961
黑色	-10.2963
分裂	-10.2964
你应该	-10.2968
桌子	-10.2971
远离	-10.2971
一所	-10.2971
当他们	-10.2976
骨头	-10.2976
自然界	-10.2978
▁我意识到	-10.2982
走过	-10.2987
植入	-10.2987
▁要是	-10.2992
乡	-10.2993
存在着	-10.3001
得很	-10.3001
眼前	-10.3011
一层	-10.3017
越来越多的	-10.3018
我们今天	-10.3021
斗	-10.3024
荷	-10.3024
甚	-10.3024
喂	-10.3025
j	-10.3026
芝加哥	-10.3026
疼痛	-10.3026
岩石	-10.3028
鸟类	-10.3032
分散	-10.3035
太棒了	-10.3035
一间	-10.3036
社	-10.3038
这也是	-10.3042
做了一个	-10.3043
爱情	-10.3044
外交	-10.3044
深处	-10.3045
长时间	-10.3047
看不见	-10.3047
本质上	-10.3048
精力	-10.3048
在我看来	-10.3049
互	-10.3053
不对	-10.3055
领导人	-10.3056
可以说	-10.3059
你能看到	-10.3061
编程	-10.3063
刚开始	-10.3066
童	-10.3067
这两	-10.3071
▁我只	-10.3073
一个叫	-10.3076
是指	-10.3082
那边	-10.3085
什	-10.309
迹	-10.309
避	-10.3093
拜	-10.3093
邦	-10.3094
吻	-10.3094
波士顿	-10.3094
莎	-10.3094
庆祝	-10.3094
繁荣	-10.3094
瑞典	-10.3095
帮我	-10.3095
保守	-10.3096
指挥	-10.3096
灵活	-10.3099
保罗	-10.3101
乐队	-10.3101
一个月	-10.3101
动态	-10.3102
有一点	-10.3107
各自	-10.3108
足以	-10.3111
漂亮的	-10.3114
三种	-10.3114
想出	-10.3114
我需要	-10.3117
一遍	-10.3119
ter	-10.312
以及其他	-10.312
显得	-10.3122
还需要	-10.3124
玩家	-10.3127
突	-10.3129
形成了	-10.3129
▁如果你想	-10.3131
为我	-10.3133
日常	-10.3134
建立一个	-10.3137
▁但事实上	-10.3152
严	-10.3157
鬼	-10.3163
肩	-10.3163
宁	-10.3163
向前	-10.3163
冰川	-10.3164
会怎样	-10.3164
具备	-10.3165
单独	-10.3166
作者	-10.3169
的理念	-10.317
恐怖主义	-10.3173
在网上	-10.3174
正义	-10.3174
他们所	-10.3183
好好	-10.3189
敢	-10.3191
已有	-10.32
也知道	-10.3206
学到的	-10.3215
碰到	-10.3226
截	-10.3232
胎	-10.3233
蜘蛛	-10.3233
陌生人	-10.3233
我们正在	-10.3234
既然	-10.3235
黄金	-10.3236
的思想	-10.3236
能把	-10.3237
实时	-10.3249
涉及	-10.3253
联系起来	-10.3256
经历过	-10.3266
▁而且我们	-10.3267
▁我想要	-10.3271
好玩	-10.3271
命运	-10.3277
觉得这	-10.3278
疗法	-10.3282
沿	-10.3282
的风险	-10.3285
树木	-10.3286
诗歌	-10.329
永	-10.3293
司	-10.3294
在他的	-10.3294
孙	-10.3294
▁非常感谢	-10.3298
牧	-10.3302
旧金山	-10.3303
杜	-10.3303
亚马逊	-10.3303
粮食	-10.3303
退休	-10.3304
团结	-10.3306
法案	-10.3307
▁即便	-10.3309
克服	-10.3315
消除	-10.3316
▁笑声	-10.332
站起来	-10.3321
你就可以	-10.3324
创造一个	-10.3329
是什么样的	-10.333
一直都	-10.3335
让你们	-10.3346
传达	-10.3348
命名	-10.3349
你想要	-10.3351
会觉得	-10.3351
还有其他	-10.336
基金	-10.3362
区分	-10.3363
正在发生	-10.3365
的母亲	-10.3365
疯狂的	-10.3369
灭	-10.3371
我第一次	-10.3371
康	-10.3372
转换	-10.3373
伏	-10.3373
祖母	-10.3373
监控	-10.3374
宣布	-10.3375
遥远	-10.3375
自豪	-10.3376
航空	-10.3376
反复	-10.3377
水下	-10.3381
了许多	-10.3385
一万	-10.3387
▁当他	-10.3388
确	-10.339
把所有	-10.3393
一个国家	-10.3396
只有一个	-10.3411
我爱	-10.3411
在接下来的	-10.3413
那位	-10.3414
第二天	-10.3414
的形状	-10.3419
分开	-10.3419
不存在	-10.3423
and	-10.3428
那个时候	-10.3429
尤其	-10.3433
你们中	-10.3437
偶	-10.3437
看着我	-10.3437
发起	-10.3439
灾	-10.344
做到了	-10.3441
锁	-10.3441
显微镜	-10.3444
甘	-10.3444
皇	-10.3444
捕捉	-10.3444
噪音	-10.3444
利润	-10.3445
戏剧	-10.3445
采集	-10.3446
储存	-10.3449
年间	-10.3456
方便	-10.3459
▁但是如果	-10.3465
输	-10.3467
体制	-10.3478
未知	-10.3488
不停	-10.3492
准备好	-10.3497
对这个	-10.3499
迫	-10.3499
夺	-10.3515
饱	-10.3515
迟	-10.3515
人权	-10.3517
令我	-10.3517
让大家	-10.3527
▁但如果你	-10.355
于是	-10.3553
天气	-10.3554
为他们	-10.356
婚	-10.3564
在上面	-10.3565
变得越来越	-10.3568
敏	-10.3577
▁我曾	-10.3578
钢	-10.3586
这块	-10.3587
委员会	-10.3587
饥饿	-10.3587
焦虑	-10.3587
厨房	-10.3588
扩张	-10.3588
框架	-10.3588
餐厅	-10.3588
掌控	-10.3588
过度	-10.3588
干净	-10.3589
页面	-10.3595
心理学	-10.3599
更容易	-10.3603
聊	-10.3606
去过	-10.3607
风格	-10.3607
父	-10.3608
已经开始	-10.3611
建筑物	-10.3617
ac	-10.3619
后代	-10.3627
词汇	-10.363
际	-10.3635
两次	-10.3637
数千	-10.3639
一把	-10.3641
的主题	-10.3645
臂	-10.3647
▁就好像	-10.3649
粒	-10.3651
重量	-10.3655
盗	-10.3656
探测	-10.3657
纽	-10.3658
有更多的	-10.3659
磨	-10.3659
抛	-10.3659
抬	-10.366
保障	-10.366
隐私	-10.366
太阳系	-10.3661
要比	-10.3661
te	-10.3669
不如	-10.3672
看起来像	-10.3684
下一代	-10.3684
的感受	-10.3686
会把	-10.3689
▁我需要	-10.369
你们可以看到	-10.3691
现在已经	-10.3692
▁以至于	-10.3697
只会	-10.3701
学者	-10.3705
ia	-10.3713
视为	-10.3717
四十	-10.372
从来不	-10.3724
现今	-10.3725
os	-10.3725
跟你们	-10.373
肥	-10.3732
试试	-10.3733
妮	-10.3733
牺牲	-10.3733
蝙蝠	-10.3733
一会儿	-10.3733
屠杀	-10.3733
午餐	-10.3733
关闭	-10.3734
经营	-10.3736
心里	-10.3738
威尔	-10.3741
用它	-10.3742
所谓	-10.3747
了他的	-10.3755
明天	-10.3755
转向	-10.3758
四处	-10.3761
多久	-10.3763
新生	-10.3767
在线	-10.3769
ul	-10.377
亡	-10.3803
涉	-10.3804
愈	-10.3806
屏	-10.3806
理查德	-10.3806
难以置信	-10.3806
协议	-10.3807
歧视	-10.3807
睡觉	-10.3808
强迫	-10.3808
战略	-10.3809
在过去的	-10.3809
可持续	-10.381
液体	-10.3812
你觉得	-10.3813
花粉	-10.3814
非常有趣	-10.3816
现有的	-10.382
的确是	-10.3825
转移	-10.3826
出色	-10.383
谢谢大家	-10.3835
自信	-10.384
就被	-10.3841
成人	-10.3842
ir	-10.385
干什么	-10.3853
磁	-10.3874
签	-10.3876
逆	-10.3878
你们知道	-10.3878
邮	-10.3878
邻	-10.388
下午	-10.388
灌	-10.388
驾	-10.388
珠	-10.388
雾	-10.388
差距	-10.3881
深深	-10.3882
法官	-10.3883
脑袋	-10.3883
赚钱	-10.3885
找不到	-10.3887
天堂	-10.3888
为自己	-10.3888
部件	-10.3891
伊斯兰	-10.3897
一百万	-10.3897
部队	-10.3899
下载	-10.3903
事儿	-10.3906
分类	-10.3908
某人	-10.3911
促使	-10.3911
几千	-10.3912
英文	-10.3913
大会	-10.3944
这个数字	-10.3945
自杀	-10.3946
疗	-10.3946
任何东西	-10.3947
律	-10.3948
损	-10.3949
一些事情	-10.3952
净	-10.3953
态度	-10.3955
海底	-10.3955
囊	-10.3955
裤	-10.3955
谜	-10.3955
瞧	-10.3955
至关重要	-10.3955
模糊	-10.3955
燃烧	-10.3956
含义	-10.3956
质疑	-10.3958
大约有	-10.3968
河流	-10.3968
量子	-10.3969
讲话	-10.3975
边界	-10.3977
掌声	-10.3978
数据库	-10.3979
什么样	-10.398
最为	-10.398
任何地方	-10.3981
会得到	-10.3992
部位	-10.3999
等着	-10.4013
指的是	-10.4016
诊	-10.4019
夏	-10.4026
炸弹	-10.4026
湾	-10.4026
世界中	-10.4027
son	-10.4028
奶	-10.4028
伽	-10.403
宾	-10.403
泪	-10.403
皆	-10.403
回忆	-10.4031
联邦	-10.4031
印刷	-10.4031
悲剧	-10.4031
证明了	-10.4034
秒钟	-10.4042
势力	-10.4043
心灵	-10.4043
▁你们知道	-10.4045
新鲜	-10.4046
再生	-10.405
演化	-10.4051
海水	-10.4052
童年	-10.4056
这个地方	-10.4059
革新	-10.4067
会不会	-10.4072
接到	-10.4072
进入了	-10.409
▁我曾经	-10.4092
其他地方	-10.4094
一定会	-10.4095
最近的	-10.4097
扰	-10.4104
裁	-10.4105
敲	-10.4106
耶	-10.4106
俩	-10.4106
竭	-10.4106
孤独	-10.4107
毁灭	-10.4107
就没有	-10.4108
一起工作	-10.4109
安静	-10.411
de	-10.4111
放入	-10.4116
育	-10.4121
一句	-10.4121
明白了	-10.4122
福利	-10.4124
非法	-10.413
我才	-10.4132
作为一名	-10.4142
享	-10.4148
在英国	-10.4153
来到这里	-10.4158
通讯	-10.4164
而非	-10.4166
一个故事	-10.4175
解决这个问题	-10.4176
浏览	-10.4179
这张图	-10.418
宫	-10.4181
涌	-10.4181
圣经	-10.4182
哺乳动物	-10.4182
捷	-10.4182
尺寸	-10.4182
钢琴	-10.4183
也就	-10.4183
劳动	-10.4187
比我们	-10.4187
证实	-10.4188
花园	-10.4189
nt	-10.419
我正在	-10.4192
惊人	-10.4192
年的时间	-10.4194
飞船	-10.4194
做个	-10.4197
lo	-10.4199
大多	-10.42
传染	-10.4201
正式	-10.4206
每周	-10.4208
一种新的	-10.4211
亚当	-10.4215
活力	-10.4215
:"	-10.4219
科学家们	-10.4222
有用的	-10.4224
这件	-10.4226
学到了	-10.4228
写着	-10.423
▁它能	-10.4231
能得到	-10.4232
驱	-10.4236
很有可能	-10.4243
有益	-10.4248
可行的	-10.4252
使它	-10.4253
给了我	-10.4254
欢	-10.4258
累	-10.4258
荒	-10.4259
・	-10.4259
斑	-10.4259
我和我的	-10.4259
这句话	-10.426
顾客	-10.426
编码	-10.4261
▁此外	-10.4261
网页	-10.4263
小时候	-10.4263
日常生活	-10.4268
数码	-10.4268
也要	-10.4272
服用	-10.4272
▁他们可以	-10.4273
显	-10.4273
▁他们也	-10.4275
的做法	-10.4282
说什么	-10.4282
经济学	-10.4289
作物	-10.429
字典	-10.4292
全面	-10.4297
会出现	-10.4302
算是	-10.4303
的身份	-10.4316
否	-10.4316
参与到	-10.4322
再来	-10.4323
▁因为如果	-10.4324
▁这是因为	-10.4325
场所	-10.4326
走上	-10.4327
这并不	-10.4331
染	-10.4332
困	-10.4333
递	-10.4335
惩罚	-10.4337
外部	-10.4338
广播	-10.4338
序列	-10.4338
抗议	-10.4341
你可能	-10.4345
却不	-10.4346
我的朋友	-10.4346
我是个	-10.4352
你是否	-10.4354
就有了	-10.4356
遭遇	-10.4358
很清楚	-10.4371
▁随后	-10.4377
是一件	-10.4382
我去了	-10.4386
你怎么	-10.4387
妙	-10.4388
的本质	-10.4388
演出	-10.4392
激素	-10.4398
想着	-10.44
▁而现在	-10.4402
滚	-10.441
挑	-10.4411
中的一个	-10.4414
纵	-10.4415
氢	-10.4415
腹	-10.4415
井	-10.4415
炎	-10.4415
雇佣	-10.4415
渐渐	-10.4415
毫无疑问	-10.4415
竟然	-10.4415
负担	-10.4416
所需要的	-10.4417
融入	-10.4418
开启	-10.4419
组装	-10.4423
几周	-10.4427
我应该	-10.4427
万个	-10.4428
对我们来说	-10.443
精神病	-10.4435
▁因为它们	-10.444
会发现	-10.4442
候	-10.4447
心中	-10.4449
▁它是一个	-10.4451
导致了	-10.4451
体重	-10.4457
体育	-10.4459
适	-10.446
数学家	-10.4463
你们都	-10.4464
立即	-10.4468
一同	-10.4472
ot	-10.4473
含有	-10.4474
新型	-10.4476
主要是	-10.4484
就越	-10.4493
琴	-10.4493
煤	-10.4493
亦	-10.4494
凝	-10.4494
遵循	-10.4494
缺陷	-10.4494
永久	-10.4494
宝宝	-10.4495
沉默	-10.4495
ry	-10.4496
鲸鱼	-10.4496
有意义的	-10.4497
倾向于	-10.45
鼻子	-10.45
心理学家	-10.4503
街头	-10.4509
城市里	-10.4512
高级	-10.4515
可靠	-10.4516
万年前	-10.4526
▁但现在	-10.4535
只需	-10.4536
假如	-10.4537
ke	-10.4539
会让	-10.4554
学科	-10.4563
我们的生活	-10.4564
孤	-10.4565
去找	-10.4565
地震	-10.4566
不出	-10.4568
悲	-10.457
等于	-10.4572
栋	-10.4572
秀	-10.4573
祈祷	-10.4573
GDP	-10.4573
讽刺	-10.4573
欺骗	-10.4573
观测	-10.4575
概率	-10.4575
也许是	-10.4577
形容	-10.4577
音乐家	-10.4577
增强	-10.4578
干预	-10.458
北极	-10.458
几分钟	-10.4585
我们所有人	-10.4587
美妙的	-10.4587
打击	-10.4589
海报	-10.4591
相连	-10.4596
字体	-10.4596
到一起	-10.4596
走路	-10.4606
比如说	-10.4606
遇到了	-10.4618
却没有	-10.462
我一直在	-10.4624
机场	-10.4631
统一	-10.4638
繁	-10.4641
辆	-10.4643
介	-10.4647
尺	-10.4649
续	-10.465
十万	-10.4651
裔	-10.4653
逼	-10.4653
闹	-10.4653
兼	-10.4653
卢	-10.4653
惠	-10.4653
攀	-10.4653
抗生素	-10.4653
耳朵	-10.4653
完善	-10.4655
恐怖分子	-10.4655
怎么办	-10.4655
绝望	-10.4656
反射	-10.4659
的原因是	-10.466
成熟	-10.4661
▁但当	-10.4661
感应	-10.4662
负面	-10.4665
小孩子	-10.4673
双手	-10.4689
也可能	-10.4692
▁而这个	-10.4695
这其中	-10.4695
研究人员	-10.47
不一定	-10.4704
类似于	-10.4708
也不能	-10.4709
当下	-10.4716
无比	-10.4717
将他们	-10.4718
永远不会	-10.4718
泥	-10.4725
牵	-10.4734
丑	-10.4734
翼	-10.4734
浴	-10.4734
穆	-10.4734
始终	-10.4735
即兴	-10.4736
整整	-10.4737
过于	-10.4737
起作用	-10.474
疑	-10.4741
生日	-10.4742
图形	-10.4747
对自己	-10.4749
所以我	-10.475
nd	-10.4753
讲故事	-10.4753
会问	-10.4758
到这里	-10.4762
美分	-10.4772
小女孩	-10.4779
可以做到	-10.4788
所说	-10.479
有力	-10.48
帮助他们	-10.4801
颗	-10.4805
减少了	-10.4805
美洲	-10.4809
这些孩子	-10.4811
撒	-10.4815
遗憾	-10.4815
阻碍	-10.4815
康复	-10.4816
参观	-10.4817
瑞士	-10.4817
设立	-10.4817
司机	-10.4817
代表着	-10.4818
集团	-10.4819
随时	-10.4821
并不知道	-10.4823
月份	-10.4824
乐器	-10.4834
男子	-10.4834
不停地	-10.4842
▁每当	-10.4849
见证	-10.4851
对称	-10.4852
聊天	-10.4854
面部	-10.4864
各地	-10.4872
好吗	-10.4881
me	-10.4884
时光	-10.4888
这些国家	-10.4888
豪	-10.4893
朗	-10.4893
妇	-10.4893
挤	-10.4897
粗	-10.4897
耀	-10.4897
墨	-10.4897
愉快	-10.4897
幽默	-10.4897
挣扎	-10.4897
窗户	-10.4897
困境	-10.4898
乐趣	-10.4899
大气层	-10.49
想一想	-10.49
权威	-10.4901
在中国	-10.4904
这两种	-10.4907
哪儿	-10.4907
首次	-10.4912
只是想	-10.4913
在家里	-10.4914
六个	-10.4916
这意味着	-10.4916
帝国	-10.4919
无知	-10.4923
大概有	-10.4923
hi	-10.4936
不懂	-10.4937
卡车	-10.4938
大部分人	-10.4946
脑中	-10.495
之上	-10.4951
[	-10.4951
替	-10.4976
稳	-10.4977
西班牙	-10.4977
攻	-10.4978
确认	-10.4979
稿	-10.498
虾	-10.498
晶	-10.498
赤	-10.498
悲伤	-10.4981
吃惊	-10.4983
绘制	-10.4986
微小的	-10.4986
一支	-10.4989
我刚才	-10.4994
句子	-10.4994
系统中	-10.4997
交给	-10.4999
手中	-10.5001
环境下	-10.5001
罗马	-10.5006
对于我们	-10.501
加入了	-10.501
那些人	-10.5016
ell	-10.5023
这种方法	-10.5026
出于	-10.5029
诗人	-10.5035
接受了	-10.5041
让它们	-10.5043
保护区	-10.5047
可行	-10.5052
很酷	-10.5055
侵	-10.5055
环绕	-10.5059
港	-10.5062
会成为	-10.5063
扇	-10.5063
纠	-10.5063
是什么样子	-10.5063
仿佛	-10.5063
灯泡	-10.5064
偶然	-10.5064
结尾	-10.5065
刚果	-10.5065
当成	-10.5066
一个巨大的	-10.5066
一堆	-10.5066
这种方式	-10.5067
航天	-10.5072
这一切都	-10.5077
最基本的	-10.5078
完整	-10.5079
管道	-10.5082
可不是	-10.5089
极度	-10.5091
一面	-10.5096
的方式来	-10.5101
我们无法	-10.5104
诸	-10.512
有一次	-10.5124
留在	-10.5132
某种程度上	-10.5136
增加了	-10.5142
径	-10.5143
我们所做的	-10.5145
这些小	-10.5145
瘾	-10.5147
抱歉	-10.5147
与众不同	-10.5147
舒适	-10.5147
科学研究	-10.5147
公寓	-10.5147
农村	-10.5148
巴黎	-10.5148
摄影师	-10.5149
开源	-10.5149
传输	-10.5149
收获	-10.515
这个实验	-10.5151
访问	-10.5153
man	-10.5153
隔离	-10.5154
气味	-10.5155
变异	-10.5159
平面	-10.5163
观察到	-10.5167
深远	-10.5167
天才	-10.5177
可以看见	-10.518
▁我真的	-10.5183
幻想	-10.5188
抑郁	-10.519
参与者	-10.5193
很有意思	-10.5196
融	-10.52
绝大多数	-10.5212
是一个非常	-10.5212
▁而且他们	-10.5213
与之	-10.5215
▁不管是	-10.5222
多个	-10.5226
键	-10.5228
毫不	-10.5229
遥	-10.5229
饰	-10.523
召	-10.5231
档	-10.5231
抱怨	-10.5232
折叠	-10.5233
荷兰	-10.5233
绘画	-10.5234
收益	-10.5234
酒店	-10.5235
遍布	-10.5236
例外	-10.5248
▁所以我想	-10.5248
一刻	-10.525
老板	-10.5251
社会中	-10.5253
专注于	-10.5254
觉得自己	-10.526
可以改变	-10.5261
食用	-10.5264
不受	-10.527
家乡	-10.5273
将它们	-10.5276
ce	-10.5276
是唯一	-10.5282
开来	-10.5287
以往	-10.5287
人们会	-10.5291
众笑	-10.5293
类型	-10.5295
伊斯兰教	-10.5298
源于	-10.5306
倾	-10.5306
变为	-10.5312
摄	-10.5312
辩	-10.5316
Facebook	-10.5317
土耳其	-10.5317
砖	-10.5317
舍	-10.5317
罩	-10.5317
摧毁	-10.5317
媒介	-10.5317
盲	-10.5317
按钮	-10.5317
详细	-10.5318
一小部分	-10.5318
联盟	-10.5318
喜剧	-10.5318
调节	-10.5326
使命	-10.5327
各国	-10.5327
仅有	-10.5328
在某种程度上	-10.5328
丰富的	-10.5328
公布	-10.5331
陆地	-10.5341
月球	-10.5342
实体	-10.5346
纪念	-10.5347
醒来	-10.5352
机遇	-10.536
数百万	-10.5365
罗斯	-10.5365
ah	-10.5368
全身	-10.5369
的一面	-10.5372
将近	-10.5373
本书	-10.538
洲	-10.5387
察	-10.54
跟我说	-10.5401
结束了	-10.5401
挣	-10.5403
躲	-10.5403
太平洋	-10.5403
捐赠	-10.5403
玉米	-10.5404
乡村	-10.5404
批评	-10.5404
蛋白	-10.5404
队伍	-10.5404
监视	-10.5404
创伤	-10.5405
定律	-10.5406
综合	-10.5407
排列	-10.5409
开关	-10.541
um	-10.5427
一个地方	-10.544
返	-10.5444
更少	-10.5454
你看到的	-10.5458
▁我是一个	-10.5461
Al	-10.5462
趣	-10.5468
四年	-10.5469
游行	-10.547
植	-10.5471
盒	-10.5482
问他们	-10.5488
前所未有的	-10.549
巧克力	-10.549
腔	-10.549
腾	-10.549
疲	-10.549
啤酒	-10.549
这个样子	-10.549
怀孕	-10.5491
抵抗	-10.5491
评价	-10.5492
车祸	-10.5492
有多大	-10.5493
占据	-10.5493
会导致	-10.5497
适用于	-10.5498
原型	-10.5498
独自	-10.5499
ss	-10.5499
种种	-10.55
外界	-10.5512
我的父亲	-10.5514
维度	-10.5515
主动	-10.5516
不愿意	-10.5533
手里	-10.5535
长达	-10.5537
良好的	-10.554
看出	-10.5555
全都	-10.5556
造成了	-10.5563
建立起	-10.5563
▁然后再	-10.5569
把你的	-10.5576
加利福尼亚	-10.5578
坡	-10.5578
糖尿病	-10.5578
勇敢	-10.5578
囚犯	-10.5579
是否有	-10.5579
借助	-10.558
失望	-10.5581
平常	-10.5586
解答	-10.5588
好事	-10.5594
举行	-10.5595
贝尔	-10.5596
北美	-10.5597
▁以便	-10.5597
天然	-10.5598
镜子	-10.5598
我当时	-10.56
非洲人	-10.5602
主流	-10.5602
线上	-10.5607
考虑到	-10.5614
笑话	-10.5618
很快就	-10.5624
对应	-10.5631
尚	-10.5636
聚会	-10.5643
成功了	-10.5651
大大	-10.5651
怕	-10.5654
隆	-10.5662
宿	-10.5667
涨	-10.5667
瓜	-10.5667
笨	-10.5667
荣幸	-10.5667
困扰	-10.5667
地表	-10.5667
欲望	-10.5668
某种意义上	-10.5668
争取	-10.5672
向你	-10.5672
随意	-10.5673
风暴	-10.5673
读者	-10.5676
你认为	-10.5678
神话	-10.5678
读到	-10.5678
确切	-10.568
请求	-10.5683
很长时间	-10.5685
雄性	-10.5688
高速	-10.5699
ill	-10.5701
独特	-10.5701
经典	-10.5701
我们有了	-10.5706
ey	-10.573
常见的	-10.5732
是正确的	-10.5738
一头	-10.5739
许可	-10.574
做法	-10.5745
均	-10.5747
滋	-10.5752
炸	-10.5754
缝	-10.5755
惨	-10.5756
显而易见	-10.5756
毯	-10.5756
栏	-10.5756
栖息地	-10.5756
折磨	-10.5757
休息	-10.5757
亲爱的	-10.5757
法庭	-10.5757
轻松	-10.5758
举办	-10.5758
跳舞	-10.576
和谐	-10.5765
六个月	-10.5766
找到一个	-10.5771
创立	-10.5772
一封	-10.5776
潜在的	-10.5776
数目	-10.5778
我母亲	-10.5779
很喜欢	-10.5784
亲密	-10.579
正面	-10.5798
有幸	-10.5801
制造出	-10.5803
感激	-10.5806
无论如何	-10.5807
是基于	-10.581
政治家	-10.5811
▁所以如果	-10.5817
告诉他	-10.5818
有人说	-10.5822
完全不同的	-10.5833
写下	-10.5834
搬到	-10.5837
挥	-10.5838
有意义	-10.5839
一个关于	-10.584
一整	-10.584
当前	-10.5842
▁但是如果你	-10.5843
刊	-10.5844
映	-10.5844
谎	-10.5844
译	-10.5845
肥胖	-10.5845
蜜	-10.5845
这些照片	-10.5845
俗	-10.5846
烹	-10.5846
瘫	-10.5846
浅	-10.5846
贫民窟	-10.5846
氏	-10.5846
哪怕	-10.5847
盯着	-10.5847
缓慢	-10.5848
提议	-10.5849
随便	-10.5851
工作室	-10.5851
街区	-10.5852
陆	-10.5854
短期	-10.5854
用一种	-10.5855
脑部	-10.5861
尽量	-10.5865
所见	-10.5865
带领	-10.5866
电路	-10.5867
非常棒	-10.5868
割	-10.5874
包含了	-10.5876
▁即使是	-10.5886
给她	-10.5889
遇见	-10.5889
买到	-10.5894
向你们	-10.5895
回到了	-10.5896
上班	-10.5897
冠	-10.59
很幸运	-10.5901
ni	-10.5902
的人来说	-10.5904
完了	-10.5904
庞大的	-10.5908
纪	-10.592
第一步	-10.5921
一生中	-10.5923
逐	-10.5935
迎	-10.5935
冻	-10.5936
漏	-10.5936
嗨	-10.5937
挖	-10.5937
拥抱	-10.5937
残疾	-10.5938
今晚	-10.5938
猜测	-10.5938
帮忙	-10.5939
开玩笑	-10.594
情景	-10.594
向你们展示	-10.5942
夜晚	-10.5942
麦克	-10.5942
底下	-10.5943
碎片	-10.5943
这些事	-10.5944
哲学家	-10.5946
▁其次	-10.5946
银	-10.5947
该如何	-10.5948
工资	-10.5949
整个世界	-10.595
打造	-10.5958
视力	-10.5964
其他国家	-10.598
存储	-10.5989
可以帮助	-10.599
有三个	-10.5994
集合	-10.5998
da	-10.601
谢谢你们	-10.6013
议员	-10.6013
启	-10.6014
就好像	-10.6017
辆车	-10.602
危	-10.6024
丰	-10.6028
烂	-10.6028
掩	-10.6029
巾	-10.6029
有史以来	-10.6029
歇	-10.6029
夹	-10.6029
目睹	-10.6029
操纵	-10.6029
代替	-10.603
营销	-10.603
依旧	-10.603
▁为什么我们	-10.6031
搭建	-10.6032
运营	-10.6032
对我而言	-10.6033
微型	-10.6035
学会了	-10.6035
指标	-10.6037
都不会	-10.604
南极	-10.604
今	-10.6044
那段	-10.6045
在做什么	-10.6048
受欢迎	-10.6049
给自己	-10.605
缩小	-10.6052
工作人员	-10.6055
一分钟	-10.6056
学位	-10.6061
分解	-10.6062
何时	-10.6065
就会发现	-10.6066
▁因为这是	-10.6074
激进	-10.608
提出了	-10.6085
op	-10.6087
的世界里	-10.6088
im	-10.6095
一句话	-10.6101
数百	-10.6105
上千	-10.6106
人才	-10.6108
购	-10.6112
免疫	-10.6112
也需要	-10.6113
会让你	-10.6114
遭到	-10.6117
奏	-10.6117
饼	-10.6119
纪录	-10.6119
祝	-10.6121
姓	-10.6121
iPhone	-10.6121
戒	-10.6121
匹配	-10.6122
干扰	-10.6124
顶端	-10.6125
可持续发展	-10.6126
这些地方	-10.6126
含量	-10.6126
带回	-10.6126
精神疾病	-10.6134
艺	-10.6134
om	-10.6135
突然间	-10.6136
尼亚	-10.6136
出售	-10.6137
di	-10.6144
真理	-10.6146
约会	-10.6148
无关	-10.6148
高科技	-10.6149
万年	-10.6152
▁你可能会	-10.616
眼镜	-10.6164
成年	-10.6168
没办法	-10.6175
意义上	-10.6185
两天	-10.6188
售	-10.6197
一个简单的	-10.62
美妙	-10.6201
更重要	-10.6207
败	-10.6208
已知	-10.6208
诚	-10.621
更新	-10.6211
悬	-10.6214
署	-10.6214
俄	-10.6214
辈	-10.6214
扫	-10.6214
怜	-10.6215
染色体	-10.6215
厉害	-10.6215
韩国	-10.6215
优雅	-10.6216
某一	-10.6216
笔记本电脑	-10.6216
司法	-10.6216
诚实	-10.6216
山脉	-10.6216
微软	-10.6217
精英	-10.6217
设定	-10.6219
注入	-10.622
一架	-10.622
床上	-10.6224
坏了	-10.6225
我刚	-10.624
水里	-10.6242
研究所	-10.6244
拥	-10.6245
储	-10.6247
来解决	-10.6248
从这里	-10.6252
着陆	-10.6257
脸上	-10.6262
六十	-10.6274
▁那时我	-10.6277
人们对	-10.6279
佳	-10.6281
分成	-10.6282
被认为是	-10.6282
你会发现	-10.6286
路线	-10.629
拿起	-10.6293
做出了	-10.6301
戈	-10.6304
在某些	-10.6305
越来越多	-10.6305
嘛	-10.6307
魔术	-10.6308
祖父	-10.6308
巢	-10.6309
】	-10.6309
蛇	-10.6309
GPS	-10.6309
【	-10.6309
拨	-10.6309
淋	-10.6309
挖掘	-10.6309
财政	-10.6309
匿名	-10.6309
抑制	-10.631
生活在一个	-10.6312
布朗	-10.6312
视野	-10.6313
维护	-10.6315
主导	-10.6316
国王	-10.6317
在哪	-10.6317
通信	-10.6325
生气	-10.6337
歌曲	-10.6337
雇	-10.6341
通用	-10.6342
深海	-10.6342
透过	-10.6349
发生过	-10.6349
及其	-10.6352
就已经	-10.6355
第二次	-10.6364
实质	-10.6375
变成一个	-10.6378
验证	-10.638
无线电	-10.638
室内	-10.6391
只是个	-10.6391
录音	-10.6395
担	-10.6397
不相信	-10.6403
勤	-10.6404
温室气体	-10.6404
腺	-10.6404
挪威	-10.6404
档案	-10.6405
监管	-10.6406
审视	-10.6406
撞击	-10.6407
se	-10.6408
底层	-10.6412
失明	-10.6412
劳动力	-10.6412
引入	-10.6414
新技术	-10.6417
认可	-10.6417
周边	-10.6419
这个东西	-10.6421
最棒的	-10.6427
清理	-10.6429
灯光	-10.6429
人们可以	-10.6432
书中	-10.6432
在其中	-10.6435
实用	-10.6436
好多	-10.6438
上网	-10.6438
研究生	-10.6439
上方	-10.6451
主人	-10.6451
脱离	-10.6452
是错误的	-10.6462
来源于	-10.6463
放射	-10.6471
上述	-10.6473
一副	-10.6473
ut	-10.6482
伸	-10.6484
长度	-10.6485
种不同的	-10.649
肢	-10.6492
可以想象	-10.6494
一群人	-10.65
弯	-10.65
鉴	-10.65
午	-10.65
忧	-10.65
仁	-10.65
娃	-10.65
伪	-10.65
困惑	-10.65
牙齿	-10.6501
幻觉	-10.6502
全球变暖	-10.6502
协作	-10.6503
谈判	-10.6504
巨型	-10.6505
版权	-10.6506
再也不	-10.6508
准则	-10.6509
任意	-10.6509
围绕着	-10.6513
是什么呢	-10.6518
最低	-10.6523
优秀	-10.6529
很奇怪	-10.653
com	-10.653
小行星	-10.653
部长	-10.6537
你已经	-10.6551
步行	-10.6552
这个世界上	-10.6564
色彩	-10.6567
网站上	-10.6567
表现出	-10.6568
建立在	-10.6568
一首	-10.6572
犹太	-10.6572
所处的	-10.6574
▁让我来	-10.6588
想一下	-10.6588
时常	-10.6588
不然	-10.6589
用它来	-10.659
~	-10.6597
汁	-10.6597
叙利亚	-10.6597
柜	-10.6597
笼	-10.6597
蕾	-10.6597
遮	-10.6597
支撑	-10.6598
扩散	-10.6598
恰恰	-10.6598
消灭	-10.6598
教训	-10.6598
惊喜	-10.6598
依据	-10.6598
苏联	-10.6599
温暖	-10.6599
单纯	-10.66
激活	-10.6601
肢体	-10.6602
是否能	-10.6603
总会	-10.6604
▁自从	-10.6606
你就能	-10.6613
天哪	-10.6618
五千	-10.6621
特质	-10.6629
意图	-10.6637
也同样	-10.6644
生病	-10.6648
要花	-10.6652
拍照	-10.6656
Ch	-10.667
涉及到	-10.667
我们来看看	-10.667
在同一	-10.6674
id	-10.6676
这个小	-10.6678
像个	-10.6681
围绕	-10.6684
赖	-10.6693
狼	-10.6695
腐	-10.6695
在哪儿	-10.6695
娘	-10.6695
詹姆斯	-10.6695
史蒂夫	-10.6695
吐	-10.6695
婆	-10.6695
柯	-10.6695
永恒	-10.6696
货币	-10.6696
拜访	-10.6696
从根本上	-10.6696
这个星球上	-10.6697
比喻	-10.6697
资产	-10.6698
严格	-10.6699
缺少	-10.6701
化学物质	-10.6702
清单	-10.6702
统	-10.6703
分别	-10.6707
复杂性	-10.6708
假装	-10.6709
果蝇	-10.6712
方块	-10.6712
成年人	-10.6722
ow	-10.6728
一件事情	-10.6737
被称作	-10.6738
推出	-10.6761
身为	-10.6767
▁这让我	-10.677
性质	-10.6774
年纪	-10.6776
当做	-10.678
龄	-10.678
问自己	-10.6784
宗	-10.6787
海地	-10.6792
完全不同	-10.6793
陈	-10.6794
唤	-10.6794
旨	-10.6794
胃	-10.6794
乳腺癌	-10.6794
▁否则	-10.6795
早晨	-10.6795
撒谎	-10.6795
哈佛	-10.6795
旅游	-10.6796
布什	-10.6796
标题	-10.6796
考试	-10.6797
现实世界	-10.68
疯	-10.6802
官员	-10.6802
足球	-10.6803
流程	-10.6804
一直以来	-10.6815
成为一名	-10.6815
就意味着	-10.6818
va	-10.6819
一路	-10.6821
两周	-10.6823
下一步	-10.6828
国内	-10.6828
检	-10.6829
居住在	-10.6835
取得了	-10.6837
发行	-10.6837
被迫	-10.6843
会变成	-10.6844
有害	-10.6846
并不能	-10.6848
十二	-10.6856
这座	-10.6863
上百	-10.6872
著	-10.6872
良好	-10.6872
▁当人们	-10.6875
捐	-10.6893
▁那是一个	-10.6893
框	-10.6894
荣	-10.6894
弥	-10.6894
晓	-10.6894
泉	-10.6894
纽约时报	-10.6894
爵士	-10.6895
积累	-10.6895
触摸	-10.6896
推测	-10.6898
弄清楚	-10.6899
极限	-10.6899
我就想	-10.6899
使他们	-10.6901
两千	-10.6901
尼克	-10.6903
味道	-10.6905
融化	-10.6906
水源	-10.6907
另一边	-10.691
运算	-10.691
引力	-10.6911
棒球	-10.6914
加纳	-10.6917
做了什么	-10.6917
脉	-10.6919
青年	-10.6926
我个人	-10.6934
跟他们	-10.6936
随之	-10.6936
小镇	-10.6951
地带	-10.6952
构想	-10.6954
为什么会	-10.6954
于此	-10.6956
很多人都	-10.6959
我的同事	-10.6972
希望能	-10.6975
写道	-10.6977
Le	-10.699
拔	-10.6992
绑	-10.6995
无人机	-10.6995
层面上	-10.6995
啥	-10.6995
垫	-10.6995
跌	-10.6995
Q	-10.6995
英寸	-10.6996
抛弃	-10.6996
轮椅	-10.6996
浪漫	-10.6996
▁但却	-10.6997
发达国家	-10.7
交配	-10.7001
捕鱼	-10.7001
有超过	-10.7001
马丁	-10.7003
大海	-10.7003
整理	-10.7004
照明	-10.7008
没有办法	-10.7015
极为	-10.7024
简化	-10.7027
有谁	-10.7035
任何事情	-10.7049
两位	-10.705
此类	-10.7051
不清楚	-10.7054
迷人	-10.7058
常规	-10.7071
躺在	-10.7072
神圣	-10.7072
重力	-10.7075
co	-10.7088
一类	-10.7091
是很重要的	-10.7091
能想象	-10.7091
仿	-10.7092
春	-10.7093
恐	-10.7096
打交道	-10.7097
矩	-10.7097
膨胀	-10.7097
爱尔兰	-10.7098
臭	-10.7098
舱	-10.7098
曼哈顿	-10.7098
外星人	-10.7098
救援	-10.7098
海滩	-10.7099
创业	-10.71
购物	-10.7101
硬件	-10.7101
案件	-10.7101
尾巴	-10.7101
探测器	-10.7102
受益	-10.7103
村子	-10.7111
一个叫做	-10.7118
协会	-10.7118
留给	-10.7119
▁这就意味着	-10.712
听见	-10.7138
外国	-10.714
总体	-10.7142
称作	-10.7144
就得	-10.7144
地铁	-10.7145
打印机	-10.7162
这个例子	-10.7162
go	-10.7165
协	-10.7171
男士	-10.7181
最伟大的	-10.7182
我妈妈	-10.7183
每一天	-10.7191
鼻	-10.7192
宣	-10.7193
超市	-10.7194
这个话题	-10.7194
系列	-10.7196
上百万	-10.7196
通常是	-10.7198
串	-10.7201
众人笑	-10.7201
呃	-10.7201
贪	-10.7201
骄傲	-10.7201
咨询	-10.7201
契	-10.7201
奥巴马	-10.7201
鸽	-10.7201
押	-10.7201
狭	-10.7201
富裕	-10.7201
轨迹	-10.7201
共鸣	-10.7201
独裁	-10.7201
顺序	-10.7202
La	-10.7203
建成	-10.7204
简短	-10.7205
每秒	-10.7206
尤其是	-10.7208
布鲁	-10.721
一道	-10.7212
电子游戏	-10.7213
利亚	-10.7213
火山	-10.7216
几个小时	-10.7218
临时	-10.722
亿年	-10.7229
解决方法	-10.7232
深度	-10.7234
用途	-10.7238
ig	-10.726
传到	-10.7268
不该	-10.7271
这件事情	-10.7276
mi	-10.7276
对付	-10.7286
我们的大脑	-10.7286
中国人	-10.7288
对其	-10.7289
桌上	-10.73
敬	-10.7304
柔	-10.7304
羞	-10.7305
脊	-10.7305
卑	-10.7305
罢	-10.7305
奈	-10.7305
耕	-10.7305
蔓延	-10.7305
餐馆	-10.7306
审查	-10.7307
不可避免	-10.7308
高尔夫球	-10.7309
是不可能的	-10.731
聚在一起	-10.7312
激光	-10.7314
▁但实际上	-10.7325
同步	-10.7325
酒吧	-10.7325
解读	-10.7326
男女	-10.7327
句话	-10.7332
强度	-10.7334
可持续性	-10.734
不过是	-10.7349
可以说是	-10.7349
市长	-10.7352
德里	-10.7361
坐着	-10.7361
制成	-10.7365
神经系统	-10.7368
就能够	-10.737
刚好	-10.7372
一个项目	-10.7373
放下	-10.7383
有很大的	-10.7384
两件事	-10.7396
每一次	-10.7403
真正地	-10.7405
很像	-10.7407
夸	-10.7409
怒	-10.741
李	-10.741
NASA	-10.741
好莱坞	-10.741
扣	-10.741
翅膀	-10.741
裸	-10.741
劫	-10.741
埃塞俄比亚	-10.741
蚊帐	-10.741
搜寻	-10.741
诸如此类	-10.741
邪恶	-10.741
暗示	-10.7412
参加了	-10.7416
车辆	-10.7416
包装	-10.7418
ag	-10.7422
二战	-10.7424
接触到	-10.7425
家园	-10.7428
长久	-10.743
有足够的	-10.743
所带来的	-10.7442
相处	-10.7447
现实中	-10.7447
每小时	-10.7448
是因为我们	-10.7455
ug	-10.7475
天文	-10.7481
阳	-10.7493
是非常重要的	-10.7495
来这里	-10.7503
谢	-10.7512
依赖于	-10.7515
厌	-10.7516
讲讲	-10.7516
账	-10.7516
叛	-10.7516
卢旺达	-10.7516
──	-10.7516
姿势	-10.7517
强奸	-10.7517
界限	-10.7519
坏消息	-10.752
消极	-10.7522
收藏	-10.7524
指令	-10.7524
到底是什么	-10.7525
询问	-10.7526
的一员	-10.7536
我的父母	-10.7538
想办法	-10.7539
曲子	-10.7544
家具	-10.7546
今日	-10.7547
猜想	-10.7551
几何	-10.7553
拿走	-10.7558
Be	-10.7581
大声	-10.7598
见面	-10.7605
太大	-10.7613
尤	-10.7613
在地球上	-10.7615
对不起	-10.7617
来临	-10.7618
符	-10.7618
阅	-10.7619
我刚刚	-10.762
尝	-10.7621
猩猩	-10.7623
役	-10.7623
茨	-10.7623
醉	-10.7623
乏	-10.7623
埃博拉	-10.7624
昏	-10.7624
朱	-10.7624
大西洋	-10.7624
纯粹	-10.7624
激烈	-10.7625
倾向	-10.7625
斯坦福	-10.7625
鼓舞	-10.7625
在座的各位	-10.7626
医师	-10.7626
包围	-10.7627
副作用	-10.7627
天然气	-10.7627
这些动物	-10.7628
反抗	-10.7628
疑问	-10.7629
官方	-10.763
折纸	-10.763
发育	-10.7631
情报	-10.7633
意愿	-10.7633
树林	-10.7633
伦理	-10.7634
件事情	-10.7634
开采	-10.7635
核能	-10.7641
表格	-10.7641
联系在一起	-10.7643
所拥有的	-10.7643
从来没	-10.7643
三天	-10.7654
这项工作	-10.7656
影响到	-10.7656
斯坦	-10.7658
犹太人	-10.7658
棵树	-10.7661
胆	-10.7664
没问题	-10.7679
发言	-10.7681
做不到	-10.7684
马上就	-10.769
问题在于	-10.7691
排除	-10.7698
屋子	-10.7699
双方	-10.77
那条	-10.771
技	-10.7712
顶部	-10.7712
成功地	-10.7714
剧院	-10.7723
暖	-10.7728
阶	-10.7729
况	-10.7729
不容易	-10.7731
择	-10.7731
常见	-10.7731
汤	-10.7731
贫	-10.7732
郁	-10.7733
巴勒斯坦	-10.7733
成百上千	-10.7733
撕	-10.7733
一模一样	-10.7733
转化为	-10.7733
保健	-10.7733
操控	-10.7733
安慰	-10.7734
蚁群	-10.7734
添加	-10.7734
武装	-10.7734
紧急	-10.7736
装备	-10.7738
并不会	-10.7741
知道如何	-10.7744
耐心	-10.7744
造出	-10.7745
做的就是	-10.7745
准备好了	-10.7749
成像	-10.7752
就如同	-10.7753
去了解	-10.7754
领导力	-10.7764
在世界各地	-10.7765
一张照片	-10.7765
当代	-10.7766
简单地	-10.7774
为之	-10.7778
出口	-10.7786
三个月	-10.7798
在全世界	-10.7803
我的生活	-10.7806
数字化	-10.7809
天生	-10.7809
你的大脑	-10.7815
一共	-10.7832
派对	-10.7833
泡	-10.7835
监	-10.7837
彻	-10.7842
勃	-10.7842
惯	-10.7842
棍	-10.7843
汗	-10.7843
震撼	-10.7843
驼	-10.7843
Twitter	-10.7843
咬	-10.7843
外科医生	-10.7843
棒极了	-10.7843
天赋	-10.7844
个性化	-10.7845
狮子	-10.7846
原料	-10.7848
暂时	-10.785
其中之一	-10.7852
教导	-10.7853
护理	-10.7855
目光	-10.786
创造性	-10.7861
艺术品	-10.7863
通道	-10.7864
ly	-10.7866
飞过	-10.7871
有毒	-10.7879
我的演讲	-10.7879
本能	-10.788
录制	-10.7882
做到这一点	-10.7882
一旦你	-10.7883
震动	-10.7897
面临着	-10.7899
高达	-10.7904
卖给	-10.7906
伐	-10.7911
起到	-10.7913
这三个	-10.7919
伙	-10.792
很感兴趣	-10.7922
手工	-10.7924
爆	-10.7924
就像这样	-10.7928
不见	-10.793
往下	-10.7932
读书	-10.7934
估	-10.7944
险	-10.7949
振	-10.7949
束	-10.7951
织	-10.7951
洁	-10.7951
蚁	-10.7952
昂	-10.7953
睁	-10.7954
苍蝇	-10.7954
菇	-10.7954
喔	-10.7954
磷	-10.7954
查尔斯	-10.7954
担忧	-10.7954
挽救	-10.7954
职业生涯	-10.7954
突变	-10.7954
厌恶	-10.7954
为例	-10.7955
牛奶	-10.7956
鼠标	-10.7956
电子邮件	-10.7956
▁总之	-10.7956
警告	-10.7957
导师	-10.7957
超出	-10.7958
医学院	-10.7961
放松	-10.7961
好奇心	-10.7965
星星	-10.7966
滥用	-10.7967
心态	-10.7968
到处都是	-10.7968
雌性	-10.7969
五百	-10.7969
群岛	-10.797
恶心	-10.797
前景	-10.7974
适用	-10.7977
直线	-10.7979
西部	-10.7979
会告诉你	-10.7987
三倍	-10.7988
奇特	-10.7989
内战	-10.7992
名声	-10.7994
这个概念	-10.7997
岛上	-10.7999
巴拉	-10.8001
▁那里有	-10.8005
解释一下	-10.8007
卡尔	-10.8012
尝试着	-10.8012
不敢	-10.802
岁的孩子	-10.802
季节	-10.8029
Bo	-10.803
没有足够的	-10.8037
合适	-10.8046
地图上	-10.8047
旅	-10.8054
都是由	-10.8056
很多很多	-10.8058
盲人	-10.8059
毕	-10.8064
揭	-10.8065
须	-10.8066
肝	-10.8066
罚	-10.8066
偿	-10.8066
塌	-10.8066
尿	-10.8066
疏	-10.8066
萤火虫	-10.8066
妹妹	-10.8066
姐姐	-10.8066
因特网	-10.8066
公斤	-10.8066
岗位	-10.8067
扭曲	-10.8067
越大	-10.8067
非凡的	-10.8067
谎言	-10.8068
市中心	-10.8068
晚餐	-10.8069
挑选	-10.8069
居然	-10.807
入侵	-10.807
校园	-10.8074
怎么可能	-10.8075
经理	-10.8078
著名	-10.8078
品质	-10.8079
加贝	-10.8079
就是这么	-10.8081
线性	-10.8085
本质	-10.8093
那次	-10.8098
我们不得不	-10.8101
是时候	-10.8106
排放量	-10.8126
返回	-10.8127
小男孩	-10.8136
大家都知道	-10.8137
做这件事	-10.8139
舞台上	-10.8146
从此	-10.8152
有兴趣	-10.8159
战士	-10.8166
不能再	-10.8167
初期	-10.8169
德里克	-10.8169
当初	-10.8171
角度看	-10.8173
犹	-10.8173
跃	-10.8175
盟	-10.8178
匹	-10.8179
趋	-10.8179
鹅	-10.818
乌干达	-10.818
哥伦比亚	-10.818
窃	-10.818
陪	-10.818
猿	-10.818
麻省理工	-10.818
漂浮	-10.818
这样的话	-10.818
汽油	-10.818
发掘	-10.818
碰撞	-10.8181
谋杀	-10.8182
赞助	-10.8182
业务	-10.8184
杀害	-10.8184
逃离	-10.8184
无需	-10.8185
几个星期	-10.8186
相互作用	-10.8186
情境	-10.8187
言论	-10.8188
伴随着	-10.8188
零件	-10.8189
航行	-10.8191
最新的	-10.8192
短片	-10.8192
决心	-10.8194
新兴	-10.8196
公式	-10.8197
脸书	-10.8197
讲座	-10.82
鞋子	-10.8201
投资者	-10.8201
之间的关系	-10.8202
有太多	-10.8206
我希望你们	-10.8207
如此之	-10.8212
ver	-10.8214
人生中	-10.8215
议会	-10.8216
大爆炸	-10.8222
只用	-10.8227
损伤	-10.823
使其	-10.8232
完全没有	-10.8258
放在一起	-10.8263
海洋中	-10.8264
魔	-10.8285
一点儿	-10.8286
电线	-10.8287
看起来很	-10.8289
距	-10.8292
两个月	-10.8292
献	-10.8292
箭	-10.8293
寒	-10.8294
齿	-10.8294
畅	-10.8294
崇	-10.8294
赏	-10.8294
匠	-10.8295
无处不在	-10.8295
筒	-10.8295
金字塔	-10.8295
钉	-10.8295
屈	-10.8295
被告知	-10.8295
这部电影	-10.8295
封闭	-10.8296
规范	-10.8296
对于我来说	-10.8297
坦白	-10.8298
终结	-10.8299
垂直	-10.8299
列表	-10.8302
格林	-10.8309
跑步	-10.831
立法	-10.8315
客观	-10.8317
这些故事	-10.8323
ti	-10.8325
我想说的是	-10.833
坐下来	-10.8337
要素	-10.8349
Car	-10.835
帮我们	-10.8352
射线	-10.8363
就必须	-10.8365
wa	-10.8368
因子	-10.8369
唱歌	-10.8372
早就	-10.8376
持有	-10.8378
随后	-10.838
纽约市	-10.838
适当	-10.8383
▁但同时	-10.8392
能看见	-10.8392
na	-10.8394
经济发展	-10.8395
祖	-10.8403
很不错	-10.8404
爸	-10.841
‧	-10.8411
摄像头	-10.8411
株	-10.8411
砸	-10.8411
一无所知	-10.8411
踢	-10.8411
脑海中	-10.8411
检验	-10.8411
尊严	-10.8411
恐怕	-10.8411
监测	-10.8411
议题	-10.8412
财产	-10.8412
人工智能	-10.8412
丧失	-10.8412
废弃	-10.8412
阶层	-10.8413
是怎么回事	-10.8414
必然	-10.8415
演变	-10.8415
预料	-10.8415
衰老	-10.8417
戈尔	-10.8417
这首歌	-10.8418
的产物	-10.8419
这个方法	-10.8421
追溯到	-10.8422
结合起来	-10.8426
声明	-10.843
种群	-10.8432
战场	-10.8433
典型	-10.8433
恶化	-10.8435
任何时候	-10.8436
水果	-10.8439
指示	-10.8441
时尚	-10.8449
是什么意思	-10.8457
患上	-10.8458
遭	-10.8461
甚至可以	-10.8471
怎么能	-10.8479
ick	-10.8485
太好了	-10.8489
专注	-10.8498
我不认为	-10.8504
就此	-10.8509
一个很好的	-10.8512
衡	-10.8518
焦	-10.852
踪	-10.8524
放置	-10.8526
宜	-10.8526
篮	-10.8526
泛	-10.8528
措	-10.8528
YouTube	-10.8528
催	-10.8528
坑	-10.8528
漆	-10.8528
肥皂	-10.8528
托马斯	-10.8529
储蓄	-10.8529
旅途	-10.8529
政客	-10.8531
装饰	-10.8531
野生动物	-10.8531
景观	-10.8531
轻易	-10.8532
阴道	-10.8534
二十世纪	-10.8536
封面	-10.854
这个游戏	-10.8541
所面临的	-10.8544
ak	-10.8547
三角	-10.8548
演讲者	-10.8553
还不够	-10.8554
卡片	-10.8559
性格	-10.8561
意志	-10.858
场合	-10.8581
无形	-10.8581
就在于	-10.8593
两条	-10.8599
这方面的	-10.8602
即时	-10.861
没有意识到	-10.8613
白天	-10.8614
▁这是一张	-10.8614
是错的	-10.8622
词语	-10.8624
雌	-10.8631
梯	-10.8643
分辨	-10.8646
饿	-10.8647
锐	-10.8648
蛮	-10.8648
凑	-10.8648
铜	-10.8648
凶	-10.8648
青蛙	-10.8648
友好	-10.8648
欧盟	-10.8648
一大堆	-10.8649
股票	-10.8649
课题	-10.865
冲击	-10.8652
单元	-10.8653
产出	-10.8655
多次	-10.8656
会想到	-10.8658
智力	-10.8662
产量	-10.8677
开头	-10.8678
那么大	-10.868
再看看	-10.8686
恒	-10.8688
▁而是因为	-10.8691
科研	-10.8695
这个领域	-10.8715
可以看出	-10.8727
样东西	-10.8732
▁我认为这是	-10.8738
转移到	-10.8743
不清	-10.8753
绘	-10.8756
回到家	-10.8757
Re	-10.8758
很远	-10.8766
仰	-10.8766
漂	-10.8767
漠	-10.8767
圣诞	-10.8767
币	-10.8767
众所周知	-10.8768
俱乐部	-10.8768
羞耻	-10.8768
肤色	-10.8769
弯曲	-10.8769
虐待	-10.8769
危害	-10.8769
迁移	-10.8769
阴影	-10.8769
医疗保健	-10.877
替换	-10.877
消防	-10.877
玛丽	-10.877
干嘛	-10.8771
bo	-10.8771
路径	-10.8772
冬天	-10.8772
ff	-10.8773
医药	-10.8773
误解	-10.8774
土星	-10.8777
关节	-10.8778
光谱	-10.8785
万物	-10.8788
已经成为	-10.879
吸引力	-10.8794
来完成	-10.8799
像我一样	-10.8799
大厅	-10.88
供给	-10.8801
事务	-10.8806
线索	-10.8814
条件下	-10.8814
如果有人	-10.8824
兽	-10.8834
大胆	-10.8844
这么大	-10.8845
根本没有	-10.8845
这么想	-10.8859
不明白	-10.8871
己	-10.8884
帮你	-10.8885
饮	-10.8887
仔	-10.8889
亚历山大	-10.889
百分之九十	-10.889
笛	-10.889
坠	-10.889
黏	-10.889
理所当然	-10.889
大厦	-10.889
竞赛	-10.889
账户	-10.889
竞选	-10.8891
牛津	-10.8891
麻醉	-10.8891
协助	-10.8891
交叉	-10.8891
乳房	-10.8892
滑雪	-10.8892
持久	-10.8893
迹象	-10.8893
亿个	-10.8894
一番	-10.8897
密切	-10.8898
头部	-10.8899
这个观点	-10.89
原因之一	-10.8901
无穷	-10.8903
回复	-10.8904
不算	-10.891
弄明白	-10.8917
明年	-10.8923
此刻	-10.8923
怎样才能	-10.8931
有多么	-10.8933
▁答案是	-10.8934
热带	-10.8937
冠军	-10.8939
有哪些	-10.8943
呈	-10.8944
电流	-10.8945
恰	-10.8945
共同点	-10.8946
高峰	-10.8947
这幅图	-10.8947
be	-10.896
受过	-10.8967
▁St	-10.8976
十年前	-10.8978
回头	-10.8985
给了我们	-10.8986
vi	-10.8988
问题的答案	-10.8992
命令	-10.9
有名的	-10.9004
虎	-10.901
袭	-10.9012
意味	-10.9013
糊	-10.9013
庆	-10.9013
鲍	-10.9013
欣	-10.9013
颠	-10.9013
吞	-10.9013
亏	-10.9013
棋	-10.9013
叔叔	-10.9013
矮	-10.9013
芭	-10.9013
避孕	-10.9014
殖民	-10.9014
短暂	-10.9014
沉浸	-10.9014
礼拜	-10.9014
搜集	-10.9014
参考	-10.9015
多样化	-10.9015
尚未	-10.9015
共识	-10.9016
包容	-10.9017
电视节目	-10.9018
反应堆	-10.9019
自私	-10.9022
顾问	-10.9023
优先	-10.9023
数十亿	-10.9025
体积	-10.9025
ba	-10.9025
地址	-10.9026
要问	-10.9027
善于	-10.9036
一种方式	-10.9041
看似	-10.9041
点儿	-10.9045
不会再	-10.9051
第一天	-10.9051
有两种	-10.9052
效益	-10.9059
▁其中有	-10.9061
显示出	-10.9061
ge	-10.9063
大致	-10.9067
坏事	-10.9068
ho	-10.9071
加强	-10.9074
抑郁症	-10.9074
四种	-10.9075
几乎没有	-10.9076
问道	-10.9077
听听	-10.9077
看一看	-10.9081
庞大	-10.9107
不愿	-10.911
女子	-10.9111
举起	-10.9117
已经有了	-10.9128
变得更好	-10.9129
疯了	-10.9129
策	-10.9136
扭	-10.9138
John	-10.9138
可再生能源	-10.9138
舌	-10.9138
酶	-10.9138
醇	-10.9138
颇	-10.9138
鹰	-10.9138
勾	-10.9138
竹	-10.9138
锋	-10.9138
行不通	-10.9139
追寻	-10.9139
讯息	-10.9139
楼梯	-10.9139
汉堡	-10.9139
简洁	-10.9139
测序	-10.914
键盘	-10.914
的几率	-10.914
教练	-10.9141
彼得	-10.9143
介入	-10.9143
战胜	-10.9143
仿生	-10.9144
预言	-10.9145
也是如此	-10.9146
▁但我认为	-10.9147
偶尔	-10.9147
延长	-10.915
边境	-10.9151
飞行员	-10.9151
总共	-10.9153
尸体	-10.9154
思路	-10.916
一种方法	-10.9161
人人都	-10.9162
事情发生	-10.9162
这颗	-10.9164
雨水	-10.9169
瓶子	-10.917
普通人	-10.917
水面	-10.9171
更进一步	-10.9173
热量	-10.9179
脑子	-10.9187
▁来帮助	-10.9194
转动	-10.9201
最喜欢的	-10.9207
投影	-10.9221
线路	-10.9223
与他人	-10.9223
ga	-10.9227
登上	-10.9238
习	-10.9251
演说	-10.9254
市民	-10.9256
眠	-10.9264
拓	-10.9264
擦	-10.9264
玩意儿	-10.9265
三明治	-10.9265
巡	-10.9265
拾	-10.9265
直升机	-10.9265
金枪鱼	-10.9265
驻	-10.9265
筋	-10.9265
骚	-10.9265
泡沫	-10.9265
脊髓	-10.9265
颠覆	-10.9265
比方说	-10.9265
奶奶	-10.9266
渠道	-10.9266
到目前为止	-10.9266
生殖	-10.9266
夸张	-10.9267
忍受	-10.9268
em	-10.9268
减轻	-10.9269
图画	-10.927
降落	-10.927
知觉	-10.9271
圆形	-10.9273
生育	-10.9273
带走	-10.9274
应用程序	-10.9275
回归	-10.9277
我的人生	-10.9277
艾米	-10.9278
公共空间	-10.928
真空	-10.9281
蒙特	-10.9283
立场	-10.9287
箱子	-10.9296
处理器	-10.9306
起初	-10.9306
周末	-10.9308
圈子	-10.932
有价值的	-10.9323
更像是	-10.9324
这部分	-10.9339
你的身体	-10.936
传染病	-10.9364
▁Ro	-10.9368
od	-10.9374
史上	-10.9382
更喜欢	-10.9386
勇	-10.939
障	-10.9392
伍	-10.9392
庄	-10.9393
碗	-10.9393
呐	-10.9393
哨	-10.9393
扯	-10.9393
酱	-10.9393
催产素	-10.9393
孟加拉	-10.9393
截然不同	-10.9393
爽	-10.9393
绵	-10.9393
缠	-10.9393
基督教	-10.9393
硬币	-10.9394
揭示	-10.9394
柏林	-10.9394
授权	-10.9394
牧师	-10.9395
社群	-10.9396
还不知道	-10.9396
错觉	-10.9397
压缩	-10.9398
引领	-10.9398
暗物质	-10.9398
尺度	-10.9399
修改	-10.94
意料	-10.9405
找寻	-10.9408
五分钟	-10.9414
输出	-10.9417
跟随	-10.9427
几次	-10.9428
目的地	-10.9431
服务器	-10.9431
那张	-10.944
ub	-10.944
提问	-10.9445
生产力	-10.9451
屋子里	-10.9456
实行	-10.9468
特技	-10.947
正在进行	-10.9473
分数	-10.9474
两年前	-10.9481
公路	-10.9482
频道	-10.9482
不允许	-10.9485
ng	-10.9487
戴着	-10.9493
办公	-10.9494
工程学	-10.9508
很兴奋	-10.9511
▁这就像	-10.9515
病菌	-10.9517
援	-10.9521
姐妹	-10.9523
枚	-10.9523
青春期	-10.9523
慷	-10.9523
窝	-10.9523
聘	-10.9523
陶	-10.9523
溶	-10.9523
贾	-10.9523
韦	-10.9523
姥鲨	-10.9523
逮捕	-10.9523
尊敬	-10.9523
注册	-10.9523
延续	-10.9524
听上去	-10.9524
盖茨	-10.9524
察觉	-10.9525
架构	-10.9525
多年来	-10.9525
社交媒体	-10.9528
海平面	-10.9528
贩卖	-10.9531
交通工具	-10.9531
吃饭	-10.9531
风景	-10.9531
远程	-10.9533
修建	-10.9533
结局	-10.9533
节约	-10.9536
该怎么办	-10.9536
消化	-10.9541
强制	-10.9548
mo	-10.955
之路	-10.9557
举手	-10.9558
支出	-10.9561
坐下	-10.9562
电极	-10.9566
天花	-10.9575
画画	-10.9577
突出	-10.9581
二十年	-10.9585
最简单的	-10.9598
结束后	-10.9603
单单	-10.9606
转变为	-10.961
整个国家	-10.9625
不管怎样	-10.9625
第一位	-10.9626
可以用来	-10.9632
名单	-10.9635
亲自	-10.9636
年以来	-10.9643
练	-10.9651
发生的事	-10.9653
丧	-10.9653
继	-10.9654
蓄	-10.9654
奉	-10.9654
鸭	-10.9655
摘	-10.9655
涂鸦	-10.9655
辅助	-10.9655
诉讼	-10.9655
荣誉	-10.9655
硅谷	-10.9655
北京	-10.9655
膝盖	-10.9655
卓越	-10.9656
哥哥	-10.9656
直径	-10.9656
停车场	-10.9657
演唱	-10.9658
访谈	-10.9658
否认	-10.9658
杰出的	-10.9659
节省	-10.966
流行病	-10.9661
设法	-10.9662
失业	-10.9666
第五	-10.9669
普及	-10.9669
做得更好	-10.9672
感恩	-10.9672
怀特	-10.9673
不堪	-10.9682
水母	-10.9685
等级	-10.9686
提供给	-10.9704
潜能	-10.9705
一杯	-10.9709
郊区	-10.9709
加快	-10.971
这东西	-10.971
几乎所有	-10.9712
论点	-10.9712
给大家看	-10.9717
这种现象	-10.9723
终极	-10.973
震	-10.973
降到	-10.9732
首歌	-10.974
得不到	-10.9742
拍下	-10.9746
毫	-10.9748
没关系	-10.9751
同学	-10.9768
非常困难	-10.9769
通往	-10.9785
悟	-10.9787
叹	-10.9787
砍	-10.9788
委	-10.9788
墓	-10.9788
CEO	-10.9788
–	-10.9788
惹	-10.9788
披	-10.9788
涡	-10.9788
苏格兰	-10.9788
马拉松	-10.9788
龟	-10.9788
撤	-10.9788
贿	-10.9788
秋	-10.9788
凌晨	-10.9788
印第安	-10.9788
很大程度上	-10.9788
人际关系	-10.9788
奋斗	-10.9788
▁这样一来	-10.9789
罕见	-10.9789
粪便	-10.9791
灰色	-10.9792
参与进来	-10.9793
古怪	-10.9794
帽子	-10.9794
滑板	-10.9795
复活	-10.9798
肉眼	-10.9805
早已	-10.9805
卡通	-10.9812
不舒服	-10.9813
我的母亲	-10.9822
治疗方法	-10.9822
像我这样	-10.9824
属性	-10.9828
我将要	-10.9838
图书	-10.9839
携	-10.9844
我从来没有	-10.9854
带入	-10.9857
经济体	-10.9858
组建	-10.9866
国民	-10.9868
克莱	-10.9876
Ka	-10.9886
这听起来	-10.9893
工艺	-10.9904
冬	-10.9918
更有效	-10.9919
忍	-10.9919
财	-10.992
拉丁美洲	-10.9923
拳	-10.9923
维基百科	-10.9923
抹	-10.9923
炉	-10.9923
粗糙	-10.9923
银河系	-10.9923
飘	-10.9923
说实话	-10.9923
非政府组织	-10.9923
甲烷	-10.9923
慈悲	-10.9923
痕迹	-10.9923
高速公路	-10.9923
培育	-10.9923
监禁	-10.9924
启示	-10.9924
补充	-10.9925
盈利	-10.9925
乘客	-10.9926
暴露	-10.9926
雨林	-10.9927
很久以前	-10.9928
预计	-10.9928
搞清楚	-10.9928
称呼	-10.9929
之旅	-10.9929
天啊	-10.9929
级别	-10.9929
坚定	-10.993
食物链	-10.993
可惜	-10.9934
草原	-10.9935
一艘	-10.9944
停车	-10.9947
廉价	-10.9948
接种	-10.9951
In	-10.9951
提及	-10.9952
生物多样性	-10.9954
开创	-10.9965
站在这里	-10.9967
名字叫	-10.9976
哪种	-10.9977
所需	-10.9977
那一天	-10.9985
更美好	-10.9992
感动	-10.9995
越南	-10.9997
不稳定	-11.0009
万亿	-11.0028
低于	-11.0036
no	-11.0036
所知道的	-11.004
现在正在	-11.005
尊	-11.0056
浓	-11.0056
旋	-11.0057
叉	-11.0059
培	-11.0059
泽	-11.006
辉	-11.006
很长一段时间	-11.006
兄弟姐妹	-11.0061
审判	-11.0061
创办	-11.0062
毫米	-11.0063
行驶	-11.0063
核武器	-11.0065
故意	-11.0066
采取行动	-11.0066
理智	-11.0067
气泡	-11.0068
术语	-11.0068
我所说的	-11.0069
明星	-11.0075
语音	-11.0075
生物体	-11.0075
转变成	-11.0081
在街上	-11.0083
脑子里	-11.0086
女士们	-11.009
一款	-11.0093
参与其中	-11.0098
do	-11.0101
张照片	-11.0114
这里有一个	-11.0119
art	-11.0129
▁这也是为什么	-11.0133
传送	-11.0148
一个星期	-11.0159
始于	-11.016
每一位	-11.0163
业余	-11.0178
这将是	-11.0185
一页	-11.0191
亲身	-11.0192
武	-11.0194
艰	-11.0194
申	-11.0197
济	-11.0198
贷	-11.0198
英格兰	-11.0199
踩	-11.0199
躯	-11.0199
David	-11.0199
三分之二	-11.0199
妨	-11.0199
挫	-11.0199
独一无二	-11.0199
沼泽	-11.0199
激动人心	-11.0199
一次又一次	-11.0199
蛋糕	-11.0199
峡谷	-11.0199
觅食	-11.0199
养殖	-11.0199
旅馆	-11.02
损害	-11.0201
显现	-11.0201
文献	-11.0201
排序	-11.0204
死刑	-11.0206
方程	-11.0207
过渡	-11.0208
大脑皮层	-11.0208
选项	-11.0209
废物	-11.021
解决办法	-11.0211
一点也不	-11.0217
给你们展示	-11.0218
有点儿	-11.0223
文本	-11.0231
教徒	-11.0231
伸出	-11.0233
难度	-11.024
世界银行	-11.0245
朝着	-11.0246
对不对	-11.0254
加起来	-11.0262
这两者	-11.0266
长远	-11.0267
驱使	-11.0281
ka	-11.0289
三十年	-11.0291
很聪明	-11.0307
对自己说	-11.0316
书写	-11.0326
豹	-11.0334
陷	-11.0336
忠	-11.034
乙	-11.034
薯	-11.034
谦	-11.034
隙	-11.034
溜	-11.034
耶稣	-11.034
脊椎	-11.034
荒谬	-11.034
捕捞	-11.034
剑桥	-11.034
有助于	-11.034
恶劣	-11.034
墨西哥湾	-11.0341
编织	-11.0341
寒冷	-11.0341
干旱	-11.0341
约束	-11.0342
音符	-11.0342
重塑	-11.0342
假肢	-11.0343
渔业	-11.0343
短短	-11.0344
微博	-11.0344
工业革命	-11.0345
皮层	-11.0346
冰箱	-11.0347
射击	-11.0347
提示	-11.0348
癌细胞	-11.035
要做的就是	-11.0357
空白	-11.036
板球	-11.0366
排名	-11.037
ard	-11.038
尽力	-11.0386
大幅	-11.04
马路	-11.0411
跨国	-11.0415
han	-11.0426
分割	-11.0436
og	-11.045
ine	-11.0451
五岁	-11.0457
舒服	-11.0457
必需	-11.0461
几百万	-11.0464
研究表明	-11.0468
操	-11.0472
析	-11.0477
ana	-11.0479
女生	-11.0479
预见	-11.0481
老化	-11.0481
中产阶级	-11.0483
弓	-11.0483
扶	-11.0483
凉	-11.0483
叙述	-11.0483
柴	-11.0483
铁路	-11.0483
称它为	-11.0483
口袋里	-11.0483
丛林	-11.0484
神经科学	-11.0486
麦克风	-11.0487
宝贝	-11.0487
宗教信仰	-11.0488
留言	-11.0489
注定	-11.0489
同伴	-11.0491
反正	-11.0494
偏远	-11.0496
统计数据	-11.0497
伯特	-11.0498
举动	-11.0512
抵达	-11.0513
很多时候	-11.0513
经费	-11.0515
磁场	-11.0519
西方国家	-11.0521
加热	-11.0523
微妙	-11.0523
Pete	-11.0525
心情	-11.053
老师们	-11.0547
两只	-11.057
研制	-11.0572
整个过程	-11.0586
aw	-11.0588
很复杂	-11.0593
最快的	-11.0599
即便	-11.0603
相对于	-11.0612
另外一种	-11.0615
粪	-11.0625
绪	-11.0626
丘	-11.0627
疼	-11.0627
誉	-11.0627
衫	-11.0628
僵	-11.0628
吵	-11.0628
壶	-11.0628
瓷	-11.0628
骂	-11.0628
帆	-11.0628
葛	-11.0628
诱惑	-11.0628
帐篷	-11.0628
螺旋	-11.0628
孩童	-11.0628
肩膀	-11.0628
桥梁	-11.0628
倾斜	-11.0628
泡泡	-11.0628
解剖	-11.0629
残酷	-11.0629
宣称	-11.063
罗伯特	-11.063
棉花	-11.063
征服	-11.063
不好意思	-11.0631
暗能量	-11.0632
遗产	-11.0632
模块	-11.0633
升级	-11.0635
就好比	-11.0637
应付	-11.0637
搞笑	-11.0639
组成部分	-11.064
男生	-11.0646
车库	-11.0647
声称	-11.065
人类历史上	-11.0658
案子	-11.0658
有趣的事情	-11.0659
我很喜欢	-11.0664
解决的问题	-11.0668
在网络上	-11.0669
低成本	-11.0677
同行	-11.0678
线条	-11.0686
万美金	-11.0689
不公平	-11.0717
帝	-11.0736
伟	-11.0759
何处	-11.0762
绳	-11.0765
贯	-11.0767
讨	-11.0773
筑	-11.0773
柏	-11.0774
虐	-11.0774
扮	-11.0774
哒	-11.0775
扑	-11.0775
钥匙	-11.0775
侦	-11.0775
垮	-11.0775
汀	-11.0775
腰	-11.0775
钩	-11.0775
专辑	-11.0775
在座各位	-11.0775
肝脏	-11.0775
The	-11.0775
紫色	-11.0775
城镇	-11.0777
夫妇	-11.0777
逆转	-11.078
合作伙伴	-11.0781
相遇	-11.0781
这张图片	-11.0785
唱片	-11.0786
病例	-11.0788
聚焦	-11.0789
重新定义	-11.0792
优化	-11.0793
杰克	-11.0793
冰层	-11.0797
后悔	-11.0798
光明	-11.0805
最具	-11.0805
花钱	-11.0811
一瞬间	-11.0817
ley	-11.0823
促成	-11.083
什么都没有	-11.0836
all	-11.0837
乐高	-11.0845
几种	-11.0854
Lo	-11.0865
寻	-11.0866
使之	-11.0869
以至于	-11.0878
四周	-11.0884
探究	-11.0892
▁Ma	-11.0895
并未	-11.0898
长寿	-11.0904
很开心	-11.0908
停下	-11.091
椅	-11.0913
野生	-11.0915
频	-11.0916
焦点	-11.092
轨	-11.0921
搜	-11.0922
愤	-11.0924
崩	-11.0924
颈	-11.0924
宇航员	-11.0924
HIV	-11.0924
多巴胺	-11.0924
溪	-11.0924
眉	-11.0924
丸	-11.0924
除此之外	-11.0924
共和党	-11.0924
弟弟	-11.0924
乌鸦	-11.0924
妥协	-11.0924
频繁	-11.0924
防御	-11.0924
宏观	-11.0925
累积	-11.0925
疫情	-11.0925
人道主义	-11.0927
愿景	-11.0927
逐步	-11.0927
浓度	-11.0928
救助	-11.093
骨架	-11.093
春天	-11.0931
政权	-11.0932
触及	-11.0933
货物	-11.0934
社交网络	-11.0935
借口	-11.0937
美味	-11.0939
转化成	-11.0942
半小时	-11.0945
西亚	-11.0948
翻译成	-11.0958
连接起来	-11.0961
CO	-11.0979
世界上最大的	-11.0983
把握	-11.0986
想想看	-11.0989
天使	-11.1014
棵	-11.1024
一个全新的	-11.103
切实	-11.103
把它放在	-11.1035
细微	-11.1041
更糟	-11.1062
枝	-11.1074
痴	-11.1074
艇	-11.1075
凌	-11.1075
垒	-11.1075
宴	-11.1075
盆	-11.1075
脊髓灰质炎	-11.1075
女士们先生们	-11.1076
遵守	-11.1076
厘米	-11.1076
容忍	-11.1076
摇滚	-11.1076
制品	-11.1077
走廊	-11.1077
清醒	-11.1078
诸如	-11.1079
协同	-11.1079
丢失	-11.108
指责	-11.108
智商	-11.1082
直观	-11.1082
仍旧	-11.1082
▁KB	-11.1082
古代	-11.1088
给大家展示	-11.1092
沃尔	-11.1092
这么认为	-11.1092
听觉	-11.1093
IP	-11.1096
另一半	-11.1101
杯子	-11.1102
问问	-11.1108
生活质量	-11.1108
总部	-11.1109
成效	-11.111
状物	-11.1111
躺	-11.1114
东部	-11.1119
木头	-11.1121
行动起来	-11.1121
认出	-11.1128
亿人口	-11.1129
英尺高	-11.1136
恰当	-11.1144
也正是	-11.1146
玩游戏	-11.1155
淡水	-11.1159
庞	-11.1162
根除	-11.1176
心智	-11.1178
有意思的是	-11.1179
无疑	-11.1199
只是为了	-11.1217
鲨	-11.1217
肌	-11.1228
幸存者	-11.1229
庙	-11.1229
蔽	-11.1229
MIT	-11.1229
栖	-11.1229
桃	-11.1229
广阔	-11.123
加仑	-11.123
巧妙	-11.123
卧室	-11.123
注视	-11.1233
▁至于	-11.1234
球员	-11.1235
老年人	-11.1235
同等	-11.1236
患病	-11.1238
牛顿	-11.1238
复合	-11.124
智利	-11.1242
分支	-11.1243
得很好	-11.1245
反过来	-11.1245
的角度来看	-11.1245
对称性	-11.1262
这项研究	-11.127
船只	-11.1276
每一个人都	-11.1287
一张纸	-11.13
org	-11.1311
置于	-11.1315
体型	-11.1349
一点都不	-11.1365
同样的事情	-11.1367
惜	-11.1373
奋	-11.1385
涵	-11.1385
拐	-11.1386
爷爷	-11.1386
碑	-11.1386
佛罗里达	-11.1386
塔利班	-11.1386
悠	-11.1386
欠	-11.1386
砂	-11.1386
酵	-11.1386
鸿沟	-11.1386
咒	-11.1386
芒	-11.1386
泄漏	-11.1386
重组	-11.1386
财务	-11.1386
榜样	-11.1387
足迹	-11.1388
职责	-11.1388
棘手	-11.1388
弹奏	-11.1388
临床试验	-11.1388
雕像	-11.1389
纪录片	-11.139
肖像	-11.139
四分之一	-11.1392
响应	-11.1396
主观	-11.1399
水泥	-11.14
毕业生	-11.1401
Li	-11.1403
加密	-11.1404
起诉	-11.1407
发达	-11.1415
人性化	-11.1419
品种	-11.142
先生们	-11.1421
头顶	-11.1423
安置	-11.1424
总量	-11.1435
充电	-11.1444
追随	-11.1447
难民营	-11.1467
碳排放	-11.1471
在这方面	-11.1477
多少钱	-11.148
停留	-11.1485
北方	-11.1488
关乎	-11.1494
动脉	-11.1501
歌剧	-11.1509
疾	-11.1524
寻常	-11.1531
虽	-11.1543
囚	-11.1543
雀	-11.1544
胳膊	-11.1544
鹿	-11.1544
俯	-11.1544
泵	-11.1544
浇	-11.1544
硕	-11.1544
肆	-11.1544
娅	-11.1544
底特律	-11.1544
新西兰	-11.1544
束缚	-11.1544
等同于	-11.1544
卡路里	-11.1544
威廉	-11.1545
棕色	-11.1545
批准	-11.1546
天文学家	-11.1546
善良	-11.1546
顶尖	-11.1548
党派	-11.1549
恰好	-11.1556
变形	-11.1563
终点	-11.1568
冷却	-11.1571
福特	-11.1571
这一过程	-11.1572
赛车	-11.1574
银行家	-11.1578
一个很大的	-11.1582
虚拟现实	-11.1586
平静	-11.1588
头骨	-11.1588
歌手	-11.1591
什么都不	-11.1597
ph	-11.1598
最糟糕的	-11.1609
连结	-11.1632
国界	-11.1648
扫描仪	-11.1656
玩笑	-11.1669
和我一起	-11.1676
绩	-11.17
详	-11.1705
募	-11.1705
苦难	-11.1705
阿根廷	-11.1706
呵	-11.1706
搏	-11.1706
芽	-11.1706
锻炼	-11.1706
颖	-11.1706
乌托邦	-11.1706
裙	-11.1706
拘	-11.1706
衬	-11.1706
闷	-11.1706
悬崖	-11.1706
交响乐	-11.1706
谨慎	-11.1706
监督	-11.1706
卖淫	-11.1706
砍伐	-11.1706
喜悦	-11.1706
脚趾	-11.1706
剥夺	-11.1706
南极洲	-11.1706
宠物	-11.1706
人行道	-11.1706
主宰	-11.1707
变暖	-11.1707
脉冲	-11.1707
琼斯	-11.1707
珍贵	-11.1708
三角形	-11.1708
切割	-11.1708
直播	-11.1709
肚子	-11.1709
饼干	-11.1709
缺失	-11.1711
平凡	-11.1711
报导	-11.1712
照相机	-11.1712
海豹	-11.1712
黑帮	-11.1714
导演	-11.1717
推断	-11.1718
职位	-11.1719
主角	-11.172
第一批	-11.1725
主张	-11.1726
名词	-11.1731
促	-11.1731
合同	-11.1736
该怎么做	-11.1742
讯	-11.1743
这可能是	-11.1749
CD	-11.1756
主管	-11.1759
杀手	-11.1761
请记住	-11.1762
唯	-11.1768
BG	-11.1769
高潮	-11.1778
▁又或者	-11.1805
受损	-11.1805
亿美金	-11.182
立体	-11.1839
林肯	-11.1843
制造商	-11.1849
脑细胞	-11.1849
尸	-11.1849
住房	-11.1851
渡	-11.1859
阔	-11.1869
捉	-11.1869
炭	-11.1869
纷	-11.1869
加工	-11.1869
前列腺	-11.1869
愉悦	-11.187
陋	-11.187
化合物	-11.187
小提琴	-11.187
捡	-11.187
曼德拉	-11.187
澡	-11.187
紫外线	-11.187
量子力学	-11.187
茫	-11.187
脑海里	-11.187
削减	-11.187
煤炭	-11.187
悲惨	-11.187
签署	-11.187
爱好者	-11.1871
漏洞	-11.1871
作弊	-11.1871
横跨	-11.1871
代谢	-11.1872
静止	-11.1872
意识形态	-11.1873
紧紧	-11.1874
狂热	-11.1877
占领	-11.1878
低估	-11.1879
绳子	-11.1879
日益	-11.1879
伯格	-11.1881
照射	-11.1884
进化论	-11.1885
原油	-11.1886
免疫系统	-11.1886
买卖	-11.1889
验	-11.199
竟	-11.1998
贩	-11.2027
猴	-11.2028
舒	-11.2035
丛	-11.2035
渐	-11.2036
悉	-11.2036
斜	-11.2036
兄	-11.2036
吊	-11.2036
窄	-11.2036
纱	-11.2036
皱	-11.2036
铃	-11.2036
牠	-11.2036
颁	-11.2036
藻	-11.22
慰	-11.2204
敦	-11.2205
膝	-11.2205
浸	-11.2205
胖	-11.2205
侠	-11.2206
趟	-11.2206
嫁	-11.2206
慕	-11.2206
挨	-11.2206
棉	-11.2375
罕	-11.2376
姿	-11.2377
淘	-11.2378
刹	-11.2378
蟹	-11.2378
誓	-11.2378
铸	-11.2378
霉	-11.2378
仙	-11.2378
洒	-11.2378
籍	-11.2547
驶	-11.2549
纤	-11.2552
虑	-11.2553
硅	-11.2553
轰	-11.2553
氮	-11.2554
舟	-11.2554
貘	-11.2554
锅	-11.2554
萧	-11.2554
遣	-11.2554
铭	-11.2554
韵	-11.2554
庭	-11.2624
革	-11.264
帽	-11.2724
册	-11.2725
剥	-11.2732
谨	-11.2732
咱	-11.2732
衔	-11.2732
躁	-11.2732
晕	-11.2732
爪	-11.2732
砰	-11.2732
哺	-11.2732
炮	-11.2732
址	-11.2895
黎	-11.2912
抚	-11.2913
究	-11.2913
葬	-11.2914
螺	-11.2914
蠢	-11.2914
嗅	-11.2914
妓	-11.2914
棚	-11.2914
沾	-11.2914
泊	-11.2914
奴	-11.2914
殿	-11.2914
滥	-11.3077
垂	-11.3091
鸣	-11.3098
宏	-11.3098
渴	-11.3098
琐	-11.3099
冈	-11.3099
喀	-11.3099
晒	-11.3099
犬	-11.3099
捏	-11.3099
搅	-11.3099
枢	-11.3099
藉	-11.3099
顽	-11.3099
坎	-11.3099
浩	-11.3099
膏	-11.3099
哀	-11.3099
旦	-11.3271
媒	-11.3283
孕	-11.3286
覆	-11.3287
债	-11.3287
督	-11.3287
帐	-11.3288
肿	-11.3288
―	-11.3288
盔	-11.3288
咪	-11.3288
淀	-11.3288
狠	-11.3288
瓣	-11.3288
～	-11.3288
卓	-11.3478
榜	-11.3479
胞	-11.3479
览	-11.3479
欺	-11.348
畏	-11.348
届	-11.348
霸	-11.348
浑	-11.348
驳	-11.348
蜣	-11.348
赐	-11.348
颂	-11.348
竖	-11.348
予	-11.3668
炼	-11.3674
嘲	-11.3674
描	-11.3675
劣	-11.3675
乃	-11.3676
眨	-11.3676
硫	-11.3676
懒	-11.3676
莓	-11.3676
厄	-11.3676
番	-11.3865
肖	-11.387
旱	-11.3874
楚	-11.3875
泄	-11.3875
痕	-11.3876
姨	-11.3876
瘦	-11.3876
恤	-11.3876
斧	-11.3876
枯	-11.3876
煮	-11.3876
函	-11.3876
嘉	-11.3876
挠	-11.3876
违	-11.4075
亨	-11.4077
盈	-11.4077
京	-11.4078
挪	-11.408
慌	-11.408
+	-11.408
雏	-11.408
颅	-11.408
掷	-11.408
熵	-11.408
翁	-11.408
骸	-11.408
绒	-11.408
刮	-11.408
宇	-11.408
饶	-11.408
廉	-11.4249
君	-11.4289
妆	-11.4289
窍	-11.4289
哩	-11.4289
授	-11.4494
聪	-11.45
贸	-11.4501
撑	-11.4501
悖	-11.4501
抄	-11.4501
珀	-11.4501
癫	-11.4501
凸	-11.4501
剔	-11.4501
县	-11.4501
缅	-11.4501
缸	-11.4501
蝶	-11.4501
抑	-11.4659
械	-11.4715
棕	-11.4717
礁	-11.4718
蛙	-11.4718
怨	-11.4718
巷	-11.4719
佑	-11.4719
嬉	-11.4719
炒	-11.4719
诡	-11.4719
佐	-11.4719
绞	-11.4719
贺	-11.4719
钓	-11.4719
鳍	-11.4719
熔	-11.4719
熬	-11.4719
锡	-11.4719
堪	-11.4894
循	-11.4925
扩	-11.4937
嵌	-11.4938
添	-11.4938
邀	-11.4939
斥	-11.4939
慈	-11.494
掠	-11.4941
渊	-11.4941
焰	-11.4941
憎	-11.4941
捆	-11.4941
椰	-11.4941
浆	-11.4941
沟	-11.5095
剑	-11.5168
螨	-11.5168
朽	-11.5168
溢	-11.5168
脖	-11.5168
萎	-11.5168
履	-11.5168
摊	-11.5168
碟	-11.5168
稻	-11.5168
碌	-11.5168
耸	-11.5168
锯	-11.5168
廷	-11.5168
摔	-11.5399
颜	-11.5399
拟	-11.54
忌	-11.54
悦	-11.54
槽	-11.5401
塘	-11.5401
卸	-11.5401
辍	-11.5401
阁	-11.5401
唇	-11.5401
旺	-11.5401
幢	-11.5401
塑	-11.5497
冥	-11.5628
承	-11.5631
朵	-11.5632
哲	-11.5633
津	-11.5638
御	-11.5638
脆	-11.5638
晃	-11.5638
唐	-11.5639
瘤	-11.5639
蜡	-11.5639
袜	-11.5639
傲	-11.5639
勉	-11.5639
栽	-11.5639
渺	-11.5639
烯	-11.5639
靴	-11.5639
甩	-11.5639
暂	-11.5833
疫	-11.5881
渗	-11.5881
企	-11.5881
卧	-11.5881
濒	-11.5882
辱	-11.5883
妥	-11.5883
妒	-11.5883
咸	-11.5883
娶	-11.5883
藤	-11.5883
赎	-11.5883
顷	-11.5883
坊	-11.5883
扁	-11.5883
挚	-11.5883
掏	-11.5883
炫	-11.5883
狄	-11.5883
喉	-11.5883
辣	-11.5883
询	-11.6111
滩	-11.6128
溯	-11.6132
弟	-11.6132
姐	-11.6133
券	-11.6133
抖	-11.6133
沸	-11.6133
滨	-11.6133
嚼	-11.6133
渣	-11.6133
铝	-11.6133
嘘	-11.6133
秃	-11.6133
痒	-11.6133
盼	-11.6133
祭	-11.6133
焚	-11.6133
奎	-11.6133
蒸	-11.6271
概	-11.6368
汽	-11.6383
幽	-11.6389
碍	-11.6389
闯	-11.6389
仗	-11.6389
碧	-11.6389
驯	-11.6389
拦	-11.6389
氦	-11.6389
»	-11.6389
勘	-11.6389
巫	-11.6389
舰	-11.6389
僧	-11.6389
溺	-11.6389
窥	-11.6389
舅	-11.6389
詹	-11.6389
逗	-11.6389
«	-11.6389
芝	-11.6389
努	-11.6647
怎	-11.6649
伞	-11.6651
梭	-11.6651
屁	-11.6652
仓	-11.6652
蚀	-11.6652
拽	-11.6652
栓	-11.6652
疤	-11.6652
艳	-11.6652
虹	-11.6652
贬	-11.6652
逛	-11.6652
俱	-11.6652
坝	-11.6652
於	-11.6652
酿	-11.6652
烘	-11.6652
研	-11.6863
谓	-11.6908
训	-11.692
魂	-11.6922
坞	-11.6923
锤	-11.6923
卜	-11.6923
蛎	-11.6923
陡	-11.6923
劝	-11.6923
懈	-11.6923
橘	-11.6923
殴	-11.6923
纬	-11.6923
逸	-11.6923
黛	-11.6923
蚊	-11.7192
瞬	-11.7197
寸	-11.72
峡	-11.72
惧	-11.72
愚	-11.72
祷	-11.72
贤	-11.72
僻	-11.72
刘	-11.72
戮	-11.72
掀	-11.72
泻	-11.72
瞎	-11.72
馅	-11.72
哎	-11.72
摒	-11.72
狸	-11.72
肘	-11.72
蓬	-11.72
髋	-11.72
狮	-11.7478
弊	-11.7483
寓	-11.7485
屠	-11.7485
寂	-11.7485
─	-11.7486
呜	-11.7486
拷	-11.7486
辟	-11.7486
叮	-11.7486
骇	-11.7486
桩	-11.7486
艘	-11.7548
悔	-11.7734
洪	-11.7771
廊	-11.7773
诞	-11.7775
剖	-11.7778
饲	-11.7779
裹	-11.7779
蕴	-11.778
颤	-11.778
趁	-11.778
寺	-11.778
捣	-11.778
凿	-11.778
诫	-11.778
嫌	-11.778
孢	-11.778
旷	-11.778
泼	-11.778
潘	-11.778
燕	-11.778
逾	-11.778
弧	-11.778
饵	-11.778
巅	-11.778
钙	-11.778
孩	-11.8042
彼	-11.8071
q	-11.8071
祸	-11.8078
宰	-11.8081
川	-11.8082
髓	-11.8082
昆	-11.8082
蛛	-11.8082
仇	-11.8083
薇	-11.8083
喘	-11.8083
垄	-11.8083
後	-11.8083
澄	-11.8083
谣	-11.8083
鞭	-11.8083
妄	-11.8083
槛	-11.8083
汰	-11.8083
疆	-11.8083
诵	-11.8083
刃	-11.8083
绎	-11.8083
葱	-11.8083
螈	-11.8083
陀	-11.8083
绷	-11.8083
寿	-11.8389
忽	-11.8393
苍	-11.8396
畜	-11.8396
寡	-11.8396
稚	-11.8396
稠	-11.8396
=	-11.8396
咳	-11.8396
铲	-11.8396
恳	-11.8396
汲	-11.8396
祥	-11.8396
辖	-11.8396
鄂	-11.8396
肤	-11.8716
宅	-11.8716
铅	-11.8717
酬	-11.8717
袖	-11.8717
梁	-11.8718
苗	-11.8718
臣	-11.8718
咯	-11.8718
麽	-11.8718
搁	-11.8718
昧	-11.8718
柄	-11.8718
翠	-11.8718
丙	-11.8718
倚	-11.8718
梳	-11.8718
蹲	-11.8718
熄	-11.8718
蹦	-11.8718
郊	-11.8798
滤	-11.8847
泳	-11.905
紫	-11.905
杉	-11.905
捞	-11.9051
遵	-11.9051
赠	-11.9051
帅	-11.9052
拙	-11.9052
氨	-11.9052
犀	-11.9052
袍	-11.9052
帘	-11.9052
庸	-11.9052
橱	-11.9052
萌	-11.9052
峭	-11.9052
恭	-11.9052
疹	-11.9052
簿	-11.9052
圭	-11.9052
涅	-11.9052
浦	-11.9052
睾	-11.9052
赋	-11.9392
橙	-11.9395
穴	-11.9395
厉	-11.9396
膀	-11.9396
慎	-11.9396
诈	-11.9396
#	-11.9396
汪	-11.9396
淑	-11.9396
冯	-11.9397
厢	-11.9397
吱	-11.9397
缪	-11.9397
芳	-11.9397
迦	-11.9397
杏	-11.9397
苛	-11.9397
矫	-11.9397
°	-11.9397
亭	-11.9397
陨	-11.9397
缆	-11.975
肾	-11.9753
妹	-11.9753
祈	-11.9754
郎	-11.9754
_	-11.9754
煎	-11.9754
纲	-11.9754
铀	-11.9754
屑	-11.9754
拱	-11.9754
晋	-11.9754
鄙	-11.9754
侯	-11.9754
匪	-11.9754
颚	-11.9754
匀	-11.9754
竞	-12.012
润	-12.0121
宪	-12.0121
韩	-12.0122
婴	-12.0122
岗	-12.0122
奸	-12.0122
挽	-12.0123
僚	-12.0124
咽	-12.0124
矛	-12.0124
吼	-12.0124
腻	-12.0124
蛾	-12.0124
钦	-12.0124
枕	-12.0124
绸	-12.0124
遏	-12.0124
锈	-12.0124
嘟	-12.0124
奠	-12.0124
帧	-12.0124
徽	-12.0124
沦	-12.0124
绅	-12.0124
贮	-12.0124
辙	-12.0124
锥	-12.0124
暑	-12.0124
妻	-12.0499
雕	-12.05
兔	-12.05
肚	-12.05
耍	-12.0505
厨	-12.0507
噪	-12.0507
董	-12.0508
凤	-12.0509
堤	-12.0509
癖	-12.0509
瞒	-12.0509
乞	-12.0509
帖	-12.0509
恍	-12.0509
椭	-12.0509
碾	-12.0509
苯	-12.0509
茅	-12.0509
锦	-12.0509
霜	-12.0509
孵	-12.0509
杖	-12.0509
郡	-12.0509
驰	-12.0509
褶	-12.0509
鲑	-12.0509
烫	-12.0509
阀	-12.0509
殊	-12.0904
括	-12.0907
滞	-12.0908
府	-12.0908
悯	-12.0908
桨	-12.0908
@	-12.0909
俘	-12.0909
唔	-12.0909
怯	-12.0909
氯	-12.0909
盏	-12.0909
缔	-12.0909
辰	-12.0909
屡	-12.0909
瘟	-12.0909
缴	-12.0909
赔	-12.0909
跋	-12.0909
镖	-12.0909
吟	-12.0909
荫	-12.0909
锂	-12.0909
喻	-12.1317
翰	-12.1324
邪	-12.1325
耻	-12.1325
篷	-12.1325
榨	-12.1325
捧	-12.1325
旭	-12.1325
昔	-12.1325
岂	-12.1325
瑜	-12.1325
穹	-12.1325
芦	-12.1325
茄	-12.1325
蔑	-12.1325
蚕	-12.1325
呕	-12.1325
撇	-12.1325
篱	-12.1325
隘	-12.1325
嚷	-12.1325
羚	-12.1325
肋	-12.1325
悼	-12.1325
杨	-12.1325
梵	-12.1325
胺	-12.1325
拒	-12.175
蹈	-12.1759
饥	-12.176
讽	-12.176
歪	-12.176
芙	-12.176
跪	-12.176
剃	-12.176
郑	-12.176
鼎	-12.176
兑	-12.176
朴	-12.176
涩	-12.176
腥	-12.176
莲	-12.176
夭	-12.176
屎	-12.176
拌	-12.176
江	-12.176
滔	-12.176
禅	-12.176
腌	-12.176
苔	-12.176
贱	-12.176
乍	-12.176
夕	-12.176
淌	-12.176
哼	-12.176
辨	-12.2157
腕	-12.2208
玉	-12.2212
爵	-12.2213
钮	-12.2213
迅	-12.2214
惩	-12.2214
忱	-12.2215
鼬	-12.2215
兜	-12.2215
斩	-12.2215
纂	-12.2215
绣	-12.2215
脾	-12.2215
颞	-12.2215
瞻	-12.2215
茂	-12.2215
鳕	-12.2215
乖	-12.2215
灶	-12.2215
瑕	-12.2215
迭	-12.2215
®	-12.2215
棘	-12.2684
淹	-12.2687
粮	-12.2689
坛	-12.2689
朋	-12.269
鸦	-12.269
禽	-12.269
溃	-12.2691
翅	-12.2691
垢	-12.2691
晤	-12.2691
崽	-12.2691
胀	-12.2691
蜷	-12.2691
靶	-12.2691
⁄	-12.2691
冗	-12.2691
喧	-12.2691
镁	-12.2691
咎	-12.2691
沐	-12.2691
铐	-12.2691
侍	-12.2691
昼	-12.2691
糕	-12.319
摧	-12.319
灼	-12.3191
哔	-12.3191
彭	-12.3191
彷	-12.3191
拢	-12.3191
柳	-12.3191
舵	-12.3191
蜥	-12.3191
锢	-12.3191
仆	-12.3191
哄	-12.3191
戳	-12.3191
狡	-12.3191
疵	-12.3191
瞪	-12.3191
荼	-12.3191
蹄	-12.3191
嗒	-12.3191
噗	-12.3191
對	-12.3191
揣	-12.3191
柿	-12.3191
湛	-12.3191
狐	-12.3191
砌	-12.3191
诅	-12.3191
鳗	-12.3191
萝	-12.3191
嗜	-12.3191
猖	-12.3191
盎	-12.3191
匿	-12.3714
鳄	-12.3715
羽	-12.3716
烷	-12.3717
嗡	-12.3717
梗	-12.3717
玄	-12.3717
羡	-12.3717
翩	-12.3717
舆	-12.3717
〉	-12.3717
來	-12.3717
哑	-12.3717
岔	-12.3717
毙	-12.3717
聋	-12.3717
臀	-12.3717
葵	-12.3717
邓	-12.3717
悍	-12.3717
憋	-12.3717
沒	-12.3717
疮	-12.3717
簇	-12.3717
绊	-12.3717
藩	-12.3717
懦	-12.3717
拭	-12.3717
斋	-12.3717
竿	-12.3717
飙	-12.3717
灿	-12.3717
焊	-12.3717
扛	-12.3717
棱	-12.3717
跷	-12.3717
殖	-12.4266
忆	-12.4268
歉	-12.427
茎	-12.4272
谬	-12.4272
菊	-12.4273
瘠	-12.4273
〈	-12.4273
凹	-12.4273
洽	-12.4273
谛	-12.4273
钝	-12.4273
岭	-12.4273
愁	-12.4273
晾	-12.4273
眩	-12.4273
籽	-12.4273
褐	-12.4273
凳	-12.4273
撮	-12.4273
晴	-12.4273
槟	-12.4273
毗	-12.4273
褪	-12.4273
逢	-12.4273
酮	-12.4273
煽	-12.4273
腓	-12.4273
硝	-12.4273
谐	-12.4796
琼	-12.4855
橡	-12.4859
骤	-12.4859
衍	-12.486
慧	-12.486
诀	-12.4861
酪	-12.4861
缕	-12.4861
涤	-12.4861
焕	-12.4861
蔗	-12.4861
酌	-12.4861
魄	-12.4861
缀	-12.4861
嚣	-12.4861
崎	-12.4861
拧	-12.4861
钾	-12.4861
啄	-12.4861
嘎	-12.4861
嚏	-12.4861
姬	-12.4861
攒	-12.4861
筏	-12.4861
膛	-12.4861
茱	-12.4861
蛆	-12.4861
驴	-12.4861
窜	-12.4861
熏	-12.4861
贞	-12.4861
综	-12.5453
歧	-12.5479
渠	-12.5483
壤	-12.5485
盾	-12.5486
掺	-12.5486
佬	-12.5486
&	-12.5486
渍	-12.5486
勿	-12.5486
诃	-12.5486
奧	-12.5486
婉	-12.5486
涕	-12.5486
穗	-12.5486
鞍	-12.5486
惶	-12.5486
迸	-12.5486
嘱	-12.5486
抒	-12.5486
鬣	-12.5486
厕	-12.614
删	-12.6143
晨	-12.615
碱	-12.6151
睹	-12.6152
钞	-12.6152
佣	-12.6152
$	-12.6153
嘀	-12.6153
扳	-12.6153
萃	-12.6153
闸	-12.6153
⋯	-12.6153
勺	-12.6153
嗓	-12.6153
姜	-12.6153
孰	-12.6153
畸	-12.6153
é	-12.6153
啪	-12.6153
揪	-12.6153
棺	-12.6153
炽	-12.6153
胰	-12.6153
們	-12.6153
媚	-12.6153
孝	-12.6153
瞥	-12.6153
颊	-12.6153
嘶	-12.6153
晦	-12.6153
络	-12.6705
掘	-12.6862
仑	-12.6864
芯	-12.6864
削	-12.6865
庇	-12.6866
肃	-12.6867
拴	-12.6867
矢	-12.6867
蛤	-12.6867
蒿	-12.6867
嗝	-12.6867
踝	-12.6867
躬	-12.6867
麼	-12.6867
勋	-12.6867
揉	-12.6867
澜	-12.6867
睬	-12.6867
钳	-12.6867
陵	-12.6867
鳞	-12.6867
儒	-12.6867
檐	-12.6867
烙	-12.6867
粥	-12.6867
缉	-12.6867
膳	-12.6867
赝	-12.6867
這	-12.6867
酯	-12.6867
钛	-12.6867
鳃	-12.6867
妖	-12.6867
彰	-12.6867
蚜	-12.6867
伺	-12.6867
叨	-12.6867
舔	-12.6867
琥	-12.6867
撰	-12.7623
擅	-12.763
豚	-12.7633
宠	-12.7633
筛	-12.7634
贼	-12.7636
杠	-12.7636
澳	-12.7636
噬	-12.7636
叔	-12.7636
俚	-12.7636
茜	-12.7636
á	-12.7636
苟	-12.7636
睿	-12.7636
遛	-12.7636
溅	-12.7636
窘	-12.7636
茧	-12.7636
浊	-12.7636
澈	-12.7636
篡	-12.7636
赘	-12.7636
阈	-12.7636
卤	-12.7636
懊	-12.7636
維	-12.7636
绽	-12.7636
谍	-12.7636
谤	-12.7636
唉	-12.7636
秉	-12.7636
讳	-12.7636
趴	-12.7636
镶	-12.7636
摞	-12.7636
敞	-12.8092
蝇	-12.8326
辅	-12.8468
斤	-12.8468
趾	-12.8468
淫	-12.8468
噩	-12.8469
镑	-12.8469
纺	-12.8469
烛	-12.8469
芥	-12.8469
榴	-12.8469
將	-12.8469
镀	-12.8469
鞠	-12.8469
疽	-12.8469
侃	-12.8469
劈	-12.8469
咕	-12.8469
幌	-12.8469
洼	-12.8469
爹	-12.8469
犁	-12.8469
笋	-12.8469
薛	-12.8469
贻	-12.8469
赦	-12.8469
辽	-12.8469
叼	-12.8469
咻	-12.8469
唬	-12.8469
夷	-12.8469
宵	-12.8469
谭	-12.8469
呎	-12.8469
唾	-12.8469
妳	-12.8469
怡	-12.8469
昭	-12.8469
钽	-12.8469
黯	-12.8469
姚	-12.8469
徳	-12.8469
攫	-12.8469
昌	-12.8469
咔	-12.8469
丶	-12.847
孟	-12.9376
觅	-12.9377
谅	-12.9377
逮	-12.9378
椎	-12.9378
沼	-12.9378
為	-12.9378
爷	-12.9378
傍	-12.9379
娇	-12.9379
拂	-12.9379
挟	-12.9379
炊	-12.9379
痰	-12.9379
窑	-12.9379
窖	-12.9379
©	-12.9379
俏	-12.9379
咋	-12.9379
嫩	-12.9379
尉	-12.9379
捅	-12.9379
檀	-12.9379
潦	-12.9379
畔	-12.9379
眷	-12.9379
砾	-12.9379
秤	-12.9379
咄	-12.9379
弛	-12.9379
绚	-12.9379
▪	-12.9379
拣	-12.9379
牟	-12.9379
莽	-12.9379
搓	-12.9379
*	-12.9379
葆	-12.9379
跛	-12.9379
盯	-13.0365
隧	-13.0376
娱	-13.0377
丈	-13.0377
稽	-13.0378
腊	-13.0378
蔓	-13.0378
绍	-13.0378
蒲	-13.0378
琉	-13.0378
兮	-13.0379
曳	-13.0379
栗	-13.0379
烬	-13.0379
煞	-13.0379
肽	-13.0379
裡	-13.0379
辗	-13.0379
暇	-13.0379
踱	-13.0379
迂	-13.0379
亵	-13.0379
吾	-13.0379
喙	-13.0379
噜	-13.0379
眶	-13.0379
醋	-13.0379
钚	-13.0379
雯	-13.0379
鸥	-13.0379
β	-13.0379
姊	-13.0379
滕	-13.0379
磐	-13.0379
茉	-13.0379
赴	-13.0379
渥	-13.0379
熨	-13.0379
垦	-13.0379
揍	-13.0379
蜕	-13.0379
鲷	-13.0379
會	-13.0379
暮	-13.0379
殷	-13.0379
撬	-13.0379
沧	-13.0379
央	-13.1439
馈	-13.1485
簧	-13.1488
裕	-13.1489
泣	-13.1489
崖	-13.1489
沫	-13.1489
姥	-13.1489
潭	-13.149
氟	-13.149
钍	-13.149
秆	-13.149
箔	-13.149
遂	-13.149
俊	-13.149
酚	-13.149
钥	-13.149
ω	-13.149
卒	-13.149
怠	-13.149
杭	-13.149
桂	-13.149
渎	-13.149
甥	-13.149
痣	-13.149
揽	-13.149
梨	-13.149
毡	-13.149
腱	-13.149
蕊	-13.149
赃	-13.149
靓	-13.149
咧	-13.149
旬	-13.149
榭	-13.149
笃	-13.149
铂	-13.149
鹤	-13.149
寝	-13.149
彬	-13.149
玲	-13.149
脓	-13.149
虱	-13.149
蛭	-13.149
蹼	-13.149
阉	-13.149
馨	-13.149
桔	-13.149
淤	-13.149
锌	-13.149
隼	-13.149
嚓	-13.149
厘	-13.2737
皿	-13.2739
胁	-13.2739
坟	-13.2739
咨	-13.274
辫	-13.274
戛	-13.274
咏	-13.274
捂	-13.274
霓	-13.274
锑	-13.274
』	-13.274
寨	-13.274
曹	-13.274
玫	-13.274
髖	-13.274
鳝	-13.274
亢	-13.274
仲	-13.274
冶	-13.274
吝	-13.274
啃	-13.274
啼	-13.274
愕	-13.274
沁	-13.274
窿	-13.274
翘	-13.274
菱	-13.274
蛰	-13.274
蛹	-13.274
酥	-13.274
雹	-13.274
『	-13.274
凄	-13.274
哟	-13.274
嗤	-13.274
噱	-13.274
掰	-13.274
魏	-13.274
吠	-13.274
唆	-13.274
幂	-13.274
敷	-13.274
颌	-13.274
楔	-13.274
挞	-13.274
葩	-13.274
脐	-13.274
巍	-13.274
熙	-13.274
魅	-13.4163
戚	-13.4167
扼	-13.4167
哮	-13.4168
£	-13.4168
亥	-13.4168
喇	-13.4168
ˎ	-13.4168
俺	-13.4168
魁	-13.4168
咖	-13.4168
睛	-13.5832
励	-13.5833
廓	-13.5834
珊	-13.5834
猩	-13.5835
匙	-13.5835
毋	-13.5835
燥	-13.7833
憾	-13.7834
允	-13.7834
琢	-13.7835
贡	-13.7835
缚	-13.7835
蝠	-13.7835
叭	-13.7835
惑	-14.0333
辑	-14.0333
瞄	-14.0334
亩	-14.0334
峻	-14.0335
胚	-14.0335
栅	-14.0335
侮	-14.0335
鸿	-14.0335
骄	-14.0335
萤	-14.0335
柬	-14.0335
叙	-14.3662
愉	-14.3666
姻	-14.3668
跤	-14.3668
撼	-14.3668
膨	-14.3668
膊	-14.3668
昨	-14.863
涯	-14.8651
讼	-14.8661
蕉	-14.8668
獾	-14.8668
皂	-14.8668
糙	-14.8668
虔	-14.8668
牲	-14.8668
宙	-14.8668
胳	-14.8668
倪	-15.8327
俭	-15.8328
鲱	-15.8329
鯨	-15.833
馏	-15.8331
醛	-15.8332
邂	-15.8333
逍	-15.8334
逅	-15.8335
蹒	-15.8336
跚	-15.8337
苷	-15.8338
胥	-15.8339
簸	-15.834
竣	-15.8341
疡	-15.8342
狒	-15.8343
淙	-15.8344
桡	-15.8345
枷	-15.8346
斓	-15.8347
惋	-15.8348
忏	-15.8349
婶	-15.835
嘌	-15.8351
呤	-15.8352
乓	-15.8353
乒	-15.8354
霆	-15.8355
蹋	-15.8356
蹊	-15.8357
踵	-15.8358
谩	-15.8359
讪	-15.836
褂	-15.8361
肇	-15.8362
绦	-15.8363
磋	-15.8364
瞠	-15.8365
痉	-15.8366
炙	-15.8367
澎	-15.8368
潢	-15.8369
湃	-15.837
涓	-15.8371
挛	-15.8372
拗	-15.8373
拄	-15.8374
垠	-15.8375
刽	-15.8376
儡	-15.8377
傀	-15.8378
伎	-15.8379
魇	-15.838
霄	-15.8381
醺	-15.8382
蹩	-15.8383
谧	-15.8384
訇	-15.8385
蜿	-15.8386
蜒	-15.8387
舶	-15.8388
缭	-15.8389
磺	-15.839
矗	-15.8391
瞌	-15.8392
狙	-15.8393
漪	-15.8394
涟	-15.8395
氓	-15.8396
恙	-15.8397
峙	-15.8398
寥	-15.8399
婭	-15.84
垩	-15.8401
吩	-15.8402
匣	-15.8403
鲤	-15.8404
谔	-15.8405
蝎	-15.8406
蔼	-15.8407
耽	-15.8408
纫	-15.8409
筷	-15.841
甄	-15.8411
攸	-15.8412
抨	-15.8413
屉	-15.8414
唠	-15.8415
镭	-15.8416
诽	-15.8417
蝓	-15.8418
蛞	-15.8419
翱	-15.842
祀	-15.8421
楷	-15.8422
桅	-15.8423
岳	-15.8424
寞	-15.8425
媛	-15.8426
卦	-15.8427
骰	-15.8428
靡	-15.8429
阂	-15.843
铛	-15.8431
蜢	-15.8432
蚱	-15.8433
茁	-15.8434
芜	-15.8435
惭	-15.8436
墅	-15.8437
呻	-15.8438
倭	-15.8439
侥	-15.844
陛	-15.8441
诧	-15.8442
衅	-15.8443
葫	-15.8444
篝	-15.8445
睐	-15.8446
棠	-15.8447
巩	-15.8448
岖	-15.8449
圳	-15.845
遨	-15.8451
蜴	-15.8452
菠	-15.8453
箴	-15.8454
沌	-15.8455
慑	-15.8456
啮	-15.8457
咐	-15.8458
俾	-15.8459
鹉	-15.846
蟋	-15.8461
蟀	-15.8462
笆	-15.8463
宛	-15.8464
奄	-15.8465
酝	-15.8466
轶	-15.8467
睦	-15.8468
獗	-15.8469
汹	-15.847
寐	-15.8471
囱	-15.8472
嗽	-15.8473
唧	-15.8474
鱿	-15.8475
迥	-15.8476
赁	-15.8477
袤	-15.8478
祉	-15.8479
痊	-15.848
猾	-15.8481
猝	-15.8482
咚	-15.8483
侏	-15.8484
佼	-15.8485
肴	-15.8486
窒	-15.8487
瞩	-15.8488
昵	-15.8489
惚	-15.849
媲	-15.8491
娩	-15.8492
藓	-15.8493
檬	-15.8494
柠	-15.8495
曙	-15.8496
憬	-15.8497
憧	-15.8498
卿	-15.8499
凰	-15.85
鹦	-15.8501
腋	-15.8502
渲	-15.8503
亟	-15.8504
髦	-15.8505
萦	-15.8506
胱	-15.8507
扪	-15.8508
忡	-15.8509
倘	-15.851
酗	-15.8511
螳	-15.8512
瀚	-15.8513
汐	-15.8514
悚	-15.8515
蝌	-15.8516
蚪	-15.8517
菩	-15.8518
罹	-15.8519
淇	-15.852
橇	-15.8521
岌	-15.8522
咙	-15.8523
搐	-15.8524
惕	-15.8525
茸	-15.8526
睫	-15.8527
烩	-15.8528
涸	-15.8529
徘	-15.853
徊	-15.8531
轿	-15.8532
稼	-15.8533
禧	-15.8534
漩	-15.8535
殆	-15.8536
惰	-15.8537
咀	-15.8538
谚	-15.8539
螃	-15.854
紊	-15.8541
栩	-15.8542
曝	-15.8543
扉	-15.8544
坍	-15.8545
嘻	-15.8546
沛	-15.8547
蝾	-15.8548
毅	-15.8549
惫	-15.855
匮	-15.8551
捍	-15.8552
瞰	-15.8553
淆	-15.8554
沥	-15.8555
恻	-15.8556
驭	-15.8557
赂	-15.8558
蝴	-15.8559
牡	-15.856
椒	-15.8561
恕	-15.8562
肮	-15.8563
谴	-15.8564
婷	-15.8565
埔	-15.8566
嘈	-15.8567
烁	-15.8568
豫	-15.8569
犸	-15.857
蠕	-15.8571
榈	-15.8572
痫	-15.8573
婪	-15.8574
坪	-15.8575
酋	-15.8576
痢	-15.8577
煌	-15.8578
瀑	-15.8579
溉	-15.858
蜻	-15.8581
蜓	-15.8582
狩	-15.8583
侄	-15.8584
疚	-15.8585
筝	-15.8586
谊	-15.8587
匆	-15.8588
侈	-15.8589
嫉	-15.859
畴	-15.8591
墟	-15.8592
堕	-15.8593
迄	-15.8594
徙	-15.8595
譬	-15.8596
斐	-15.8597
帜	-15.8598
辜	-15.8599
泌	-15.86
骆	-15.8601
诠	-15.8602
拇	-15.8603
蟑	-15.8604
抉	-15.8605
屿	-15.8606
氛	-15.8607
崛	-15.8608
橄	-15.8609
榄	-15.861
倦	-15.8611
甸	-15.8612
荐	-15.8613
愧	-15.8614
蜗	-15.8615
崭	-15.8616
韧	-15.8617
悄	-15.8618
飓	-15.8619
啸	-15.862
蘑	-15.8621
吁	-15.8622
翔	-15.8623
痪	-15.8624
秩	-15.8625
奢	-15.8626
饪	-15.8627
慨	-15.8628
恼	-15.8629
痹	-15.863
蔬	-15.8631
彗	-15.8632
聆	-15.8633
姑	-15.8634
尴	-15.8635
尬	-15.8636
窟	-15.8637
肪	-15.8638
侣	-15.8639
蝙	-15.864
牺	-15.8641
阐	-15.8642
螂	-15.8643
衷	-15.8644
蜘	-15.8645
荧	-15.8646
骼	-15.8647
辐	-15.8648
浏	-15.8649
隶	-15.865
葡	-15.8651
萄	-15.8652
疟	-15.8653
晰	-15.8654
厦	-15.8655
陌	-15.8655
苹	-15.8656
践	-15.8657
逻	-15.8658
玻	-15.8659
啡	-15.866
蚂	-15.8661
拯	-15.8662
讶	-15.8663
啤	-15.8664
垃	-15.8664
倡	-15.8665
圾	-15.8665
瑚	-15.8666
粹	-15.8666
怖	-15.8667
擎	-15.8667
恢	-15.8668
弈	-15.8668
稣	-15.8668
沮	-15.8668
阱	-15.8668
瑰	-15.8668
ç	-15.8668
匈	-15.8668
璃	-15.8668
矶	-15.8668
础	-15.8668
锻	-15.8668
